{
  "version": "1.0",
  "truncation": null,
  "padding": null,
  "added_tokens": [
    {
      "id": 0,
      "content": "[PAD]",
      "single_word": false,
      "lstrip": false,
      "rstrip": false,
      "normalized": false,
      "special": true
    },
    {
      "id": 1,
      "content": "[UNK]",
      "single_word": false,
      "lstrip": false,
      "rstrip": false,
      "normalized": false,
      "special": true
    },
    {
      "id": 2,
      "content": "[MASK]",
      "single_word": false,
      "lstrip": false,
      "rstrip": false,
      "normalized": false,
      "special": true
    },
    {
      "id": 3,
      "content": "[CLS]",
      "single_word": false,
      "lstrip": false,
      "rstrip": false,
      "normalized": false,
      "special": true
    },
    {
      "id": 4,
      "content": "[SEP]",
      "single_word": false,
      "lstrip": false,
      "rstrip": false,
      "normalized": false,
      "special": true
    }
  ],
  "normalizer": {
    "type": "Sequence",
    "normalizers": [
      {
        "type": "Nmt"
      },
      {
        "type": "NFKC"
      },
      {
        "type": "Replace",
        "pattern": {
          "Regex": " {2,}"
        },
        "content": " "
      }
    ]
  },
  "pre_tokenizer": {
    "type": "Sequence",
    "pretokenizers": [
      {
        "type": "Metaspace",
        "replacement": "▁",
        "add_prefix_space": true
      }
    ]
  },
  "post_processor": {
    "type": "TemplateProcessing",
    "single": [
      {
        "SpecialToken": {
          "id": "[CLS]",
          "type_id": 0
        }
      },
      {
        "Sequence": {
          "id": "A",
          "type_id": 0
        }
      },
      {
        "SpecialToken": {
          "id": "[SEP]",
          "type_id": 0
        }
      }
    ],
    "pair": [
      {
        "SpecialToken": {
          "id": "[CLS]",
          "type_id": 0
        }
      },
      {
        "Sequence": {
          "id": "A",
          "type_id": 0
        }
      },
      {
        "SpecialToken": {
          "id": "[SEP]",
          "type_id": 0
        }
      },
      {
        "Sequence": {
          "id": "B",
          "type_id": 1
        }
      },
      {
        "SpecialToken": {
          "id": "[SEP]",
          "type_id": 1
        }
      }
    ],
    "special_tokens": {
      "[CLS]": {
        "id": "[CLS]",
        "ids": [
          3
        ],
        "tokens": [
          "[CLS]"
        ]
      },
      "[SEP]": {
        "id": "[SEP]",
        "ids": [
          4
        ],
        "tokens": [
          "[SEP]"
        ]
      }
    }
  },
  "decoder": {
    "type": "Metaspace",
    "replacement": "▁",
    "add_prefix_space": true
  },
  "model": {
    "type": "Unigram",
    "unk_id": 1,
    "vocab": [
      [
        "[PAD]",
        0.0
      ],
      [
        "[UNK]",
        0.0
      ],
      [
        "[MASK]",
        0.0
      ],
      [
        "[CLS]",
        0.0
      ],
      [
        "[SEP]",
        0.0
      ],
      [
        "▁",
        -3.2110879849760465
      ],
      [
        ".",
        -3.505234972047216
      ],
      [
        "▁och",
        -3.84271044028136
      ],
      [
        ",",
        -3.8693632894465555
      ],
      [
        "s",
        -4.013609794623271
      ],
      [
        "▁att",
        -4.092640038331703
      ],
      [
        "▁i",
        -4.169302188058001
      ],
      [
        "▁är",
        -4.457280523025817
      ],
      [
        "▁som",
        -4.4871360852166955
      ],
      [
        "▁på",
        -4.487479862250471
      ],
      [
        "▁en",
        -4.548257140862177
      ],
      [
        "▁för",
        -4.594904499486017
      ],
      [
        "▁det",
        -4.624854669978099
      ],
      [
        "▁med",
        -4.752552234620682
      ],
      [
        "▁av",
        -4.769490101053728
      ],
      [
        "t",
        -4.87036854720394
      ],
      [
        "▁till",
        -4.91660029791133
      ],
      [
        "en",
        -4.951276017034305
      ],
      [
        "a",
        -5.006610529850498
      ],
      [
        "▁har",
        -5.050683578881133
      ],
      [
        "▁jag",
        -5.197136429979198
      ],
      [
        "▁inte",
        -5.2620191516342985
      ],
      [
        "▁om",
        -5.288946552968563
      ],
      [
        "▁den",
        -5.365628765725134
      ],
      [
        "▁ett",
        -5.414353266352917
      ],
      [
        "▁så",
        -5.473358190208076
      ],
      [
        "er",
        -5.481725466482695
      ],
      [
        "▁de",
        -5.541377081999734
      ],
      [
        "▁du",
        -5.545877406440017
      ],
      [
        "r",
        -5.550840851190319
      ],
      [
        "▁kan",
        -5.565594467050346
      ],
      [
        "n",
        -5.629410007085003
      ],
      [
        "▁vi",
        -5.733937072963959
      ],
      [
        "▁var",
        -5.782742232450602
      ],
      [
        "-",
        -5.786298535994716
      ],
      [
        "e",
        -5.820179160140098
      ],
      [
        "▁Det",
        -5.834751142682732
      ],
      [
        "▁från",
        -5.8777426526499035
      ],
      [
        "▁man",
        -5.879311384968304
      ],
      [
        ":",
        -5.9185158147824986
      ],
      [
        "▁eller",
        -6.008430135896745
      ],
      [
        "▁men",
        -6.058023154889636
      ],
      [
        "i",
        -6.109209081094489
      ],
      [
        "ar",
        -6.128357213959223
      ],
      [
        "!",
        -6.138531162006442
      ],
      [
        "▁ska",
        -6.196761313561378
      ],
      [
        "d",
        -6.274393132928912
      ],
      [
        "▁sig",
        -6.275088943163514
      ],
      [
        "?",
        -6.321241177239786
      ],
      [
        "▁in",
        -6.3268375922546305
      ],
      [
        "▁Jag",
        -6.350428962157428
      ],
      [
        "de",
        -6.362356443937802
      ],
      [
        ")",
        -6.368545104053775
      ],
      [
        "▁när",
        -6.403429038643827
      ],
      [
        "▁upp",
        -6.4140434303854335
      ],
      [
        "▁ut",
        -6.420144764334397
      ],
      [
        "▁kommer",
        -6.429067215468294
      ],
      [
        "▁-",
        -6.440370369829994
      ],
      [
        "▁I",
        -6.460657943319992
      ],
      [
        "▁här",
        -6.463348140874498
      ],
      [
        "o",
        -6.475267066726605
      ],
      [
        "▁–",
        -6.478244283945269
      ],
      [
        "▁vara",
        -6.483400779783754
      ],
      [
        "▁Vi",
        -6.500084124462148
      ],
      [
        "et",
        -6.50726283783969
      ],
      [
        "▁finns",
        -6.530629459296252
      ],
      [
        "na",
        -6.533926518899243
      ],
      [
        "▁mer",
        -6.565499796642612
      ],
      [
        "▁alla",
        -6.572280058203294
      ],
      [
        "▁han",
        -6.580923254209898
      ],
      [
        "▁där",
        -6.584891837166291
      ],
      [
        "▁(",
        -6.605182365900795
      ],
      [
        "▁under",
        -6.6437312318986645
      ],
      [
        "▁får",
        -6.696983130724664
      ],
      [
        "▁mycket",
        -6.705305254379441
      ],
      [
        "▁ha",
        -6.730792179569015
      ],
      [
        "▁över",
        -6.736431405255832
      ],
      [
        "▁nu",
        -6.7382760336960885
      ],
      [
        "▁också",
        -6.744550598089445
      ],
      [
        "▁efter",
        -6.745024643710057
      ],
      [
        "▁vill",
        -6.769791852903538
      ],
      [
        "▁lite",
        -6.801167892754835
      ],
      [
        "▁andra",
        -6.804622245258525
      ],
      [
        "▁få",
        -6.8079397554671015
      ],
      [
        "▁bra",
        -6.814999195452245
      ],
      [
        "▁bara",
        -6.817307674929605
      ],
      [
        "▁även",
        -6.818802184764964
      ],
      [
        "▁då",
        -6.829699579496175
      ],
      [
        "▁mig",
        -6.833258589760536
      ],
      [
        "▁hur",
        -6.833450988548991
      ],
      [
        "▁vid",
        -6.848740168759063
      ],
      [
        "▁Men",
        -6.8977982737510715
      ],
      [
        "/",
        -6.915387430605797
      ],
      [
        "▁år",
        -6.926336115066171
      ],
      [
        "...",
        -6.9265082645609475
      ],
      [
        "▁vad",
        -6.929607116946411
      ],
      [
        "m",
        -6.930695180188808
      ],
      [
        "▁hade",
        -6.935727481390227
      ],
      [
        "▁dig",
        -6.961325116481678
      ],
      [
        "▁skulle",
        -6.96548091493457
      ],
      [
        "▁än",
        -6.966251335469186
      ],
      [
        "▁blir",
        -6.983530886771453
      ],
      [
        "▁En",
        -6.9847156918157065
      ],
      [
        "▁1",
        -7.013800389579785
      ],
      [
        "▁mot",
        -7.029512592423874
      ],
      [
        "▁sin",
        -7.035829442713455
      ],
      [
        "\"",
        -7.058486366197409
      ],
      [
        "▁många",
        -7.078813110059087
      ],
      [
        "▁ta",
        -7.083920199467109
      ],
      [
        "▁Den",
        -7.084557603708593
      ],
      [
        "▁ju",
        -7.096297859597353
      ],
      [
        "an",
        -7.110783101990988
      ],
      [
        "▁din",
        -7.116661685329124
      ],
      [
        "▁gör",
        -7.122564842404431
      ],
      [
        "▁göra",
        -7.126878264772987
      ],
      [
        "▁För",
        -7.132392876692448
      ],
      [
        "▁\"",
        -7.136549851509695
      ],
      [
        "▁hon",
        -7.142480851425512
      ],
      [
        "▁De",
        -7.149790903263321
      ],
      [
        "▁min",
        -7.156738124723271
      ],
      [
        "▁utan",
        -7.164386597690479
      ],
      [
        "▁sedan",
        -7.172242132236494
      ],
      [
        "▁något",
        -7.172582827837454
      ],
      [
        "▁se",
        -7.182538282516104
      ],
      [
        "▁detta",
        -7.204427409942944
      ],
      [
        "▁två",
        -7.220152877093929
      ],
      [
        "▁olika",
        -7.227650837671531
      ],
      [
        "g",
        -7.244105607877616
      ],
      [
        "▁allt",
        -7.244195550864344
      ],
      [
        "erna",
        -7.258393961159939
      ],
      [
        "▁2",
        -7.260593757510621
      ],
      [
        "l",
        -7.2619511683837334
      ],
      [
        "▁S",
        -7.269602023832135
      ],
      [
        "▁bli",
        -7.271150989791012
      ],
      [
        "▁del",
        -7.27444565259664
      ],
      [
        "▁oss",
        -7.277046353614606
      ],
      [
        "en.",
        -7.2889619091595
      ],
      [
        "▁någon",
        -7.295538974349238
      ],
      [
        "▁genom",
        -7.303614898074871
      ],
      [
        "▁säger",
        -7.307058128251988
      ],
      [
        "k",
        -7.308821583987193
      ],
      [
        "▁går",
        -7.313261688920216
      ],
      [
        "▁nya",
        -7.346254669633197
      ],
      [
        "v",
        -7.347594995707256
      ],
      [
        "▁fick",
        -7.351164424002336
      ],
      [
        "▁Om",
        -7.3604076925635145
      ],
      [
        "▁helt",
        -7.362125775232515
      ],
      [
        "h",
        -7.367603214779198
      ],
      [
        "▁hela",
        -7.385142085096168
      ],
      [
        "▁inom",
        -7.3984460804941214
      ],
      [
        "y",
        -7.402940100834318
      ],
      [
        "▁varit",
        -7.416800687781789
      ],
      [
        "▁måste",
        -7.419285238177663
      ],
      [
        "▁första",
        -7.420767498611397
      ],
      [
        "▁blev",
        -7.422989298477267
      ],
      [
        "▁några",
        -7.444229279967603
      ],
      [
        "▁samt",
        -7.449614517345463
      ],
      [
        "▁fram",
        -7.4497528499787435
      ],
      [
        "at",
        -7.466588981235718
      ],
      [
        "▁mellan",
        -7.469274969599486
      ],
      [
        "▁Du",
        -7.469529342209025
      ],
      [
        "▁kunna",
        -7.4802119650729075
      ],
      [
        "▁denna",
        -7.481540631137364
      ],
      [
        "▁3",
        -7.485835620834349
      ],
      [
        "▁ni",
        -7.495188165848154
      ],
      [
        "ade",
        -7.502839449648173
      ],
      [
        "p",
        -7.509078534816094
      ],
      [
        "re",
        -7.528536542151576
      ],
      [
        "in",
        -7.532764963306505
      ],
      [
        "▁Och",
        -7.54942970622027
      ],
      [
        "are",
        -7.555703110344011
      ],
      [
        "▁När",
        -7.559097367125652
      ],
      [
        "▁vår",
        -7.565211003116385
      ],
      [
        "▁ser",
        -7.566911042828789
      ],
      [
        "▁dem",
        -7.589678813111995
      ],
      [
        "▁väl",
        -7.592509348156867
      ],
      [
        "▁rätt",
        -7.595902734835072
      ],
      [
        "▁hos",
        -7.625066015818884
      ],
      [
        "▁annat",
        -7.62924020938237
      ],
      [
        "▁sina",
        -7.631052338100348
      ],
      [
        "▁vilket",
        -7.6311496008015425
      ],
      [
        "▁både",
        -7.642228846624718
      ],
      [
        "▁Så",
        -7.648672303213942
      ],
      [
        "▁stor",
        -7.650319009172945
      ],
      [
        ").",
        -7.664097761934222
      ],
      [
        "▁Nu",
        -7.67248795815782
      ],
      [
        "▁gå",
        -7.673298747559885
      ],
      [
        "▁tid",
        -7.674604210163958
      ],
      [
        "▁våra",
        -7.677210220838186
      ],
      [
        "▁ny",
        -7.680165578903813
      ],
      [
        "f",
        -7.68171092695405
      ],
      [
        "arna",
        -7.684060423756781
      ],
      [
        "▁barn",
        -7.68493961526568
      ],
      [
        "ande",
        -7.688550277215386
      ],
      [
        "”",
        -7.693398124665199
      ],
      [
        "▁sätt",
        -7.697455504327225
      ],
      [
        "▁behöver",
        -7.704535273000603
      ],
      [
        "or",
        -7.705884725986797
      ],
      [
        "▁själv",
        -7.709102891091465
      ],
      [
        "▁4",
        -7.711550559421937
      ],
      [
        "▁På",
        -7.71729382017571
      ],
      [
        "▁kanske",
        -7.7187755809830865
      ],
      [
        "ning",
        -7.721290416943287
      ],
      [
        "▁dessa",
        -7.729088730561168
      ],
      [
        "▁bästa",
        -7.733141817715053
      ],
      [
        "▁A",
        -7.737170054646249
      ],
      [
        "▁5",
        -7.738748898123356
      ],
      [
        "▁kom",
        -7.748422612518333
      ],
      [
        "▁vet",
        -7.752523597301696
      ],
      [
        "ens",
        -7.756896183601812
      ],
      [
        "▁flera",
        -7.757199000896154
      ],
      [
        "ad",
        -7.7630784616466215
      ],
      [
        "▁innan",
        -7.770237901502307
      ],
      [
        "ing",
        -7.7729885316154785
      ],
      [
        "▁&",
        -7.774825384976575
      ],
      [
        "▁samma",
        -7.774882104627341
      ],
      [
        "▁Han",
        -7.785405805036071
      ],
      [
        "▁ger",
        -7.786083869552565
      ],
      [
        "as",
        -7.791195374202925
      ],
      [
        "▁tar",
        -7.79855591040106
      ],
      [
        "▁ner",
        -7.800047140171996
      ],
      [
        "▁10",
        -7.8076236937629435
      ],
      [
        "c",
        -7.8093350776277095
      ],
      [
        "▁Sverige",
        -7.814524530301474
      ],
      [
        "▁alltid",
        -7.825920232978316
      ],
      [
        "▁tre",
        -7.82723637629128
      ],
      [
        "▁ditt",
        -7.834887802315334
      ],
      [
        "▁dag",
        -7.836506787051983
      ],
      [
        "▁sitt",
        -7.838064324402524
      ],
      [
        ";",
        -7.841713947113309
      ],
      [
        "▁f",
        -7.844327280695072
      ],
      [
        "▁Läs",
        -7.846994861441747
      ],
      [
        "▁hem",
        -7.849729156348168
      ],
      [
        "▁stora",
        -7.852460677975262
      ],
      [
        "▁bland",
        -7.8550685175752495
      ],
      [
        "▁Här",
        -7.858704340623175
      ],
      [
        "on",
        -7.861856572328257
      ],
      [
        "▁varje",
        -7.866503129439858
      ],
      [
        "▁Att",
        -7.866713294643079
      ],
      [
        "▁F",
        -7.880003620403752
      ],
      [
        "▁väldigt",
        -7.888893564915026
      ],
      [
        "j",
        -7.889867364143926
      ],
      [
        "å",
        -7.890180260672487
      ],
      [
        "▁tycker",
        -7.907994712060892
      ],
      [
        "▁Detta",
        -7.909366500949243
      ],
      [
        "▁ligger",
        -7.922586624123479
      ],
      [
        "u",
        -7.934869756179255
      ],
      [
        "▁gäller",
        -7.938665091812517
      ],
      [
        "▁”",
        -7.93920007423217
      ],
      [
        "▁bort",
        -7.940776916639075
      ],
      [
        "▁B",
        -7.942850665520716
      ],
      [
        "▁ge",
        -7.942961739870048
      ],
      [
        "x",
        -7.9455394537458375
      ],
      [
        "▁just",
        -7.95000767537719
      ],
      [
        "▁p",
        -7.952479838624649
      ],
      [
        "▁hotell",
        -7.958180042573362
      ],
      [
        "▁K",
        -7.9617734179004405
      ],
      [
        "▁Har",
        -7.964817452939437
      ],
      [
        "nde",
        -7.966682870884329
      ],
      [
        "▁C",
        -7.968539317446227
      ],
      [
        "▁mitt",
        -7.969987728029778
      ],
      [
        "▁fått",
        -7.971425498857304
      ],
      [
        "▁komma",
        -7.9744748541090615
      ],
      [
        "des",
        -7.9748165742007
      ],
      [
        "▁Med",
        -7.988042594564677
      ],
      [
        "▁hitta",
        -7.9882530975316435
      ],
      [
        "▁be",
        -7.994591080012292
      ],
      [
        "▁M",
        -7.99759599206938
      ],
      [
        "▁bättre",
        -8.00353406096597
      ],
      [
        "▁ingen",
        -8.008862303157677
      ],
      [
        "▁E",
        -8.009202386541821
      ],
      [
        "▁tror",
        -8.021758108031001
      ],
      [
        "▁riktigt",
        -8.022964008159063
      ],
      [
        "▁svenska",
        -8.02336079555918
      ],
      [
        "▁åt",
        -8.029326373440691
      ],
      [
        "▁Vad",
        -8.03220223490438
      ],
      [
        "▁dock",
        -8.032281169804053
      ],
      [
        "▁tidigare",
        -8.032767887296071
      ],
      [
        "▁nog",
        -8.040175834484765
      ],
      [
        "▁skall",
        -8.042491950090835
      ],
      [
        "▁gick",
        -8.04373141719305
      ],
      [
        "▁eftersom",
        -8.054134184845415
      ],
      [
        "▁enligt",
        -8.054937703588278
      ],
      [
        "▁|",
        -8.0592529517188
      ],
      [
        "▁mest",
        -8.059435173434487
      ],
      [
        "▁6",
        -8.060300719119933
      ],
      [
        "▁redan",
        -8.065311192913043
      ],
      [
        "▁fall",
        -8.07277026784648
      ],
      [
        "▁Ett",
        -8.073345203349211
      ],
      [
        "▁Hur",
        -8.07502094936287
      ],
      [
        "▁annan",
        -8.076077203719501
      ],
      [
        "er.",
        -8.079643582315784
      ],
      [
        "▁dina",
        -8.090745507411933
      ],
      [
        "▁runt",
        -8.096400271152131
      ],
      [
        "S",
        -8.098894615923934
      ],
      [
        "▁fler",
        -8.099459507081004
      ],
      [
        "▁dom",
        -8.101386260636955
      ],
      [
        "▁kunde",
        -8.104536106810535
      ],
      [
        "▁Man",
        -8.105177617658955
      ],
      [
        "▁P",
        -8.112104595983796
      ],
      [
        "▁personer",
        -8.115369712557863
      ],
      [
        "en,",
        -8.119491266512533
      ],
      [
        "▁gratis",
        -8.124959273126802
      ],
      [
        "▁idag",
        -8.126247561535422
      ],
      [
        "ra",
        -8.133805336188303
      ],
      [
        "▁deras",
        -8.13407090957563
      ],
      [
        "▁G",
        -8.140242468848006
      ],
      [
        "ta",
        -8.15040338252864
      ],
      [
        "▁gång",
        -8.150914250122286
      ],
      [
        "▁aldrig",
        -8.155900311552603
      ],
      [
        "▁18",
        -8.157788953794801
      ],
      [
        "▁T",
        -8.161159394685368
      ],
      [
        "▁hjälp",
        -8.162635321751846
      ],
      [
        "▁senaste",
        -8.164957036503171
      ],
      [
        "▁20",
        -8.164968656019482
      ],
      [
        "▁H",
        -8.167855510339635
      ],
      [
        "▁·",
        -8.169729815767534
      ],
      [
        "▁verkligen",
        -8.173442117009417
      ],
      [
        "▁sen",
        -8.179142354796806
      ],
      [
        "2",
        -8.183911636108844
      ],
      [
        "b",
        -8.188821579654832
      ],
      [
        "man",
        -8.194147417946242
      ],
      [
        "▁information",
        -8.194358481673381
      ],
      [
        "▁plats",
        -8.194584308835855
      ],
      [
        "▁tog",
        -8.195772171110926
      ],
      [
        "▁företag",
        -8.202388456428643
      ],
      [
        "er,",
        -8.206042945667225
      ],
      [
        "▁människor",
        -8.208568013381766
      ],
      [
        "▁mina",
        -8.208936252894778
      ],
      [
        "▁L",
        -8.20919683162937
      ],
      [
        "▁tillsammans",
        -8.21580565148774
      ],
      [
        "es",
        -8.221427249166902
      ],
      [
        "▁7",
        -8.229778811936114
      ],
      [
        "▁använda",
        -8.23115041880424
      ],
      [
        "▁gjort",
        -8.23212070593926
      ],
      [
        "▁gjorde",
        -8.232779943428884
      ],
      [
        "1",
        -8.232807545467084
      ],
      [
        "▁mindre",
        -8.235807313275489
      ],
      [
        "▁tillbaka",
        -8.237107811648166
      ],
      [
        "▁8",
        -8.237405710045074
      ],
      [
        "▁ofta",
        -8.240757105632467
      ],
      [
        "▁grund",
        -8.241042923109138
      ],
      [
        "▁kr",
        -8.252396537305367
      ],
      [
        "3",
        -8.26271755133695
      ],
      [
        "▁ur",
        -8.26343783417521
      ],
      [
        "▁per",
        -8.268115854002483
      ],
      [
        "▁läsa",
        -8.268866025310702
      ],
      [
        "▁D",
        -8.269177931240398
      ],
      [
        "▁köpa",
        -8.275168838633569
      ],
      [
        "▁därför",
        -8.275650466875707
      ],
      [
        "▁lika",
        -8.278182492189295
      ],
      [
        "▁bör",
        -8.281317425224902
      ],
      [
        "▁lätt",
        -8.283371894032847
      ],
      [
        "▁egen",
        -8.290151167564915
      ],
      [
        "da",
        -8.291221596540707
      ],
      [
        "▁15",
        -8.292013673664343
      ],
      [
        "▁står",
        -8.30140360679445
      ],
      [
        "M",
        -8.30477529953457
      ],
      [
        "▁Efter",
        -8.309062990367845
      ],
      [
        "▁Som",
        -8.311078474397858
      ],
      [
        "▁Hon",
        -8.31311988283029
      ],
      [
        "▁hög",
        -8.315827387785951
      ],
      [
        "▁större",
        -8.320585286389166
      ],
      [
        "▁spel",
        -8.320606230172604
      ],
      [
        "al",
        -8.322258476033745
      ],
      [
        "▁direkt",
        -8.323296553523715
      ],
      [
        "▁...",
        -8.327302814999445
      ],
      [
        "▁exempel",
        -8.334389218463253
      ],
      [
        "ig",
        -8.338260024963143
      ],
      [
        "▁säga",
        -8.344402096932265
      ],
      [
        "▁Under",
        -8.346343696286848
      ],
      [
        "för",
        -8.34642842477348
      ],
      [
        "om",
        -8.347485278137214
      ],
      [
        "▁ca",
        -8.348145620328438
      ],
      [
        "lig",
        -8.348624024154027
      ],
      [
        "▁par",
        -8.349953691900469
      ],
      [
        "▁hans",
        -8.35479424539799
      ],
      [
        "▁enkelt",
        -8.356938054497201
      ],
      [
        "ut",
        -8.363665685560196
      ],
      [
        "▁mat",
        -8.364928637299235
      ],
      [
        "▁hand",
        -8.367913361819165
      ],
      [
        "▁/",
        -8.368777050601116
      ],
      [
        "▁stort",
        -8.376834819331775
      ],
      [
        "▁små",
        -8.380942760731124
      ],
      [
        "▁via",
        -8.381144917067559
      ],
      [
        "▁haft",
        -8.382118101651525
      ],
      [
        "▁vatten",
        -8.385086222931829
      ],
      [
        "▁sa",
        -8.389074871791713
      ],
      [
        "▁Då",
        -8.390338745372468
      ],
      [
        "▁känner",
        -8.390378311090865
      ],
      [
        "▁sex",
        -8.391798284403741
      ],
      [
        "ska",
        -8.39579760724969
      ],
      [
        "▁året",
        -8.398446325942688
      ],
      [
        "▁online",
        -8.400216756530678
      ],
      [
        "liga",
        -8.401799266425552
      ],
      [
        "4",
        -8.401975252104316
      ],
      [
        "▁ändå",
        -8.404345534180923
      ],
      [
        "▁blivit",
        -8.413272887117634
      ],
      [
        "▁hemma",
        -8.414647521603
      ],
      [
        "T",
        -8.420349542819347
      ],
      [
        "▁tiden",
        -8.425155303385406
      ],
      [
        "­",
        -8.434239251128375
      ],
      [
        "▁visar",
        -8.435059392661326
      ],
      [
        "el",
        -8.436995663423556
      ],
      [
        "us",
        -8.44514434398255
      ],
      [
        "▁mål",
        -8.446107262574785
      ],
      [
        "▁R",
        -8.446121029762036
      ],
      [
        "▁god",
        -8.447137321580904
      ],
      [
        "▁hittar",
        -8.449196595835451
      ],
      [
        "▁of",
        -8.451584618658448
      ],
      [
        "▁N",
        -8.453189420012288
      ],
      [
        "▁12",
        -8.456528199271588
      ],
      [
        "▁folk",
        -8.459559362076442
      ],
      [
        "▁inget",
        -8.461864410773607
      ],
      [
        "är",
        -8.465039761399042
      ],
      [
        "▁dagar",
        -8.465435444832703
      ],
      [
        "▁19",
        -8.46750692299411
      ],
      [
        "▁innebär",
        -8.467618928441699
      ],
      [
        "▁vårt",
        -8.46976520958837
      ],
      [
        "▁kvar",
        -8.469901501397954
      ],
      [
        "▁inför",
        -8.471543778047268
      ],
      [
        "▁saker",
        -8.472444254040877
      ],
      [
        "▁9",
        -8.473246246384054
      ],
      [
        "▁liten",
        -8.473355520674666
      ],
      [
        "▁kort",
        -8.47344309351418
      ],
      [
        "▁Är",
        -8.47472780952806
      ],
      [
        "▁ganska",
        -8.475703385835144
      ],
      [
        "▁30",
        -8.476073917971103
      ],
      [
        "▁the",
        -8.47711994735236
      ],
      [
        "▁ännu",
        -8.480887492483754
      ],
      [
        "▁faktiskt",
        -8.480944361306124
      ],
      [
        "▁bil",
        -8.481293083517263
      ],
      [
        "▁svårt",
        -8.481967144592792
      ],
      [
        "sk",
        -8.484019282702501
      ],
      [
        "▁nära",
        -8.489225261729935
      ],
      [
        "▁gärna",
        -8.490399314184103
      ],
      [
        "▁längre",
        -8.490638392652405
      ],
      [
        "▁väg",
        -8.490818825621997
      ],
      [
        "▁honom",
        -8.49185415284375
      ],
      [
        "▁omdömen",
        -8.494283140196266
      ],
      [
        "▁lång",
        -8.49440435648395
      ],
      [
        "▁börjar",
        -8.495492083778077
      ],
      [
        "▁extra",
        -8.496067045085022
      ],
      [
        "▁känns",
        -8.49669017322027
      ],
      [
        "▁Alla",
        -8.498688494466121
      ],
      [
        "▁pengar",
        -8.504690816597133
      ],
      [
        "▁hålla",
        -8.507596513254883
      ],
      [
        "▁In",
        -8.50915380911421
      ],
      [
        "▁V",
        -8.509442238199368
      ],
      [
        "▁pris",
        -8.510677470831677
      ],
      [
        "),",
        -8.51861436876922
      ],
      [
        "▁länge",
        -8.52300716465324
      ],
      [
        "▁håller",
        -8.52411078373852
      ],
      [
        "▁kommun",
        -8.525220552036526
      ],
      [
        "▁problem",
        -8.52599253522182
      ],
      [
        "ligt",
        -8.5302808340488
      ],
      [
        "\".",
        -8.53140651848441
      ],
      [
        "▁liv",
        -8.533745674581214
      ],
      [
        "ed",
        -8.533824542458229
      ],
      [
        "▁nästan",
        -8.536251318706967
      ],
      [
        "▁procent",
        -8.538485750427784
      ],
      [
        "▁igen",
        -8.539544329274644
      ],
      [
        "▁fortfarande",
        -8.540550487987376
      ],
      [
        "le",
        -8.540906955816675
      ],
      [
        "▁kvinnor",
        -8.540917940112566
      ],
      [
        "▁handlar",
        -8.54540459926408
      ],
      [
        "att",
        -8.545555567753581
      ],
      [
        "se",
        -8.546758356420298
      ],
      [
        "▁vilka",
        -8.54832668616659
      ],
      [
        "▁skapa",
        -8.548601667385576
      ],
      [
        "▁vissa",
        -8.548735420634879
      ],
      [
        "▁nytt",
        -8.550680564097885
      ],
      [
        "▁vilken",
        -8.552775546931782
      ],
      [
        "▁samtidigt",
        -8.558450189767795
      ],
      [
        "▁erbjuder",
        -8.558587378918453
      ],
      [
        "▁precis",
        -8.564332364740649
      ],
      [
        "▁form",
        -8.565723370931076
      ],
      [
        "▁O",
        -8.56642268203502
      ],
      [
        "▁söker",
        -8.571335037836395
      ],
      [
        "▁använder",
        -8.571863382855453
      ],
      [
        "▁Till",
        -8.582288037418351
      ],
      [
        "▁ute",
        -8.58466485671658
      ],
      [
        "▁Stockholm",
        -8.58470469810623
      ],
      [
        "▁16",
        -8.585610049063115
      ],
      [
        "▁slut",
        -8.58565777608633
      ],
      [
        "▁bild",
        -8.585945788258426
      ],
      [
        "▁först",
        -8.586112346341828
      ],
      [
        "B",
        -8.59182061672461
      ],
      [
        "▁hoppas",
        -8.594963025372937
      ],
      [
        "▁frågor",
        -8.595482654181607
      ],
      [
        "▁största",
        -8.60014977513135
      ],
      [
        "▁17",
        -8.602934114509232
      ],
      [
        "▁Se",
        -8.603929389429114
      ],
      [
        "▁viktigt",
        -8.603964780358043
      ],
      [
        "▁dess",
        -8.604559953280395
      ],
      [
        "▁stöd",
        -8.605587651697917
      ],
      [
        "▁flesta",
        -8.609606964124389
      ],
      [
        "▁k",
        -8.612026708381286
      ],
      [
        "▁fyra",
        -8.615015435344457
      ],
      [
        "▁and",
        -8.61503326669132
      ],
      [
        "▁bilder",
        -8.616140580947496
      ],
      [
        "▁fast",
        -8.616714240463176
      ],
      [
        "▁all",
        -8.617309903449938
      ],
      [
        "▁rum",
        -8.618181109294092
      ],
      [
        "▁endast",
        -8.620660464361263
      ],
      [
        "▁nästa",
        -8.621544069321393
      ],
      [
        "▁000",
        -8.624657869666274
      ],
      [
        "▁sista",
        -8.628552812841717
      ],
      [
        "▁började",
        -8.630193849852683
      ],
      [
        "▁sidan",
        -8.630575110638476
      ],
      [
        "▁hel",
        -8.630740873662793
      ],
      [
        "iga",
        -8.631103376761365
      ],
      [
        "▁alltså",
        -8.63350701830894
      ],
      [
        "▁senare",
        -8.636227438853075
      ],
      [
        "▁dejting",
        -8.640417897326484
      ],
      [
        "▁fel",
        -8.646082248850293
      ],
      [
        "▁11",
        -8.65052366475617
      ],
      [
        "K",
        -8.654816364644212
      ],
      [
        "um",
        -8.655255077377532
      ],
      [
        "la",
        -8.655754255640455
      ],
      [
        "et.",
        -8.657129147417432
      ],
      [
        "A",
        -8.658151073865065
      ],
      [
        "▁sett",
        -8.66165596796426
      ],
      [
        "▁minst",
        -8.67170088130166
      ],
      [
        "▁skriver",
        -8.672844696330214
      ],
      [
        "▁lag",
        -8.677021142012675
      ],
      [
        "▁spela",
        -8.67802600719291
      ],
      [
        "▁såg",
        -8.67858549101959
      ],
      [
        "▁b",
        -8.678785646338483
      ],
      [
        "ter",
        -8.679439317843451
      ],
      [
        "▁egna",
        -8.679909809328882
      ],
      [
        "▁hennes",
        -8.680234859560024
      ],
      [
        "▁kring",
        -8.68125002747889
      ],
      [
        "▁14",
        -8.683250674202728
      ],
      [
        "▁person",
        -8.68783750619074
      ],
      [
        "▁välja",
        -8.688695283882089
      ],
      [
        "iska",
        -8.690353639634157
      ],
      [
        "▁tips",
        -8.6914820417946
      ],
      [
        "▁ihop",
        -8.692887420690507
      ],
      [
        "▁The",
        -8.699444932967914
      ],
      [
        "be",
        -8.700584011726722
      ],
      [
        "▁gånger",
        -8.707824335468489
      ],
      [
        "w",
        -8.707985832351218
      ],
      [
        "▁Av",
        -8.710442488387812
      ],
      [
        "▁före",
        -8.71164396253676
      ],
      [
        "5",
        -8.712600254128583
      ],
      [
        "▁AB",
        -8.712855372598364
      ],
      [
        "▁13",
        -8.713766885768733
      ],
      [
        "▁Idag",
        -8.715517206118925
      ],
      [
        "▁gamla",
        -8.716677792539846
      ],
      [
        "▁km",
        -8.719579836037571
      ],
      [
        "▁dessutom",
        -8.719891128131792
      ],
      [
        "▁gott",
        -8.726649520056835
      ],
      [
        "▁henne",
        -8.72912294073958
      ],
      [
        "▁år.",
        -8.72915568892335
      ],
      [
        "▁vidare",
        -8.730479176723458
      ],
      [
        "▁snabbt",
        -8.733056384917724
      ],
      [
        "ma",
        -8.73316589150585
      ],
      [
        "▁J",
        -8.734576885172508
      ],
      [
        "ö",
        -8.735117583833548
      ],
      [
        "▁istället",
        -8.735839723730667
      ],
      [
        "n.",
        -8.735873907804779
      ],
      [
        "het",
        -8.736561148927878
      ],
      [
        "▁fin",
        -8.744010195886787
      ],
      [
        ".se",
        -8.74407621427985
      ],
      [
        "▁2016",
        -8.744122435101641
      ],
      [
        "▁jobb",
        -8.746450723694048
      ],
      [
        "ni",
        -8.746865323167995
      ],
      [
        "▁arbete",
        -8.747175140509883
      ],
      [
        "P",
        -8.747873357276678
      ],
      [
        "▁själva",
        -8.749931970088294
      ],
      [
        "▁fråga",
        -8.750176821298323
      ],
      [
        "▁fem",
        -8.754087861251325
      ],
      [
        "ä",
        -8.755437473686493
      ],
      [
        "▁typ",
        -8.755549374430935
      ],
      [
        "▁lägga",
        -8.758424639736548
      ],
      [
        "▁lämna",
        -8.759877082954787
      ],
      [
        "▁betala",
        -8.7624107797578
      ],
      [
        "▁emot",
        -8.762835154584797
      ],
      [
        "▁dagen",
        -8.762868997645691
      ],
      [
        "▁bok",
        -8.764321703739187
      ],
      [
        "▁borde",
        -8.764386378509643
      ],
      [
        "▁delar",
        -8.76564663428031
      ],
      [
        "son",
        -8.766774912805094
      ],
      [
        "▁skriva",
        -8.770088301173645
      ],
      [
        "era",
        -8.770516255249818
      ],
      [
        "▁hjälper",
        -8.770758897585536
      ],
      [
        "▁beslut",
        -8.771379741520622
      ],
      [
        "▁verkar",
        -8.771693792887623
      ],
      [
        "▁visa",
        -8.773812903902305
      ],
      [
        "▁st",
        -8.773940445881557
      ],
      [
        "▁möjlighet",
        -8.77673449796571
      ],
      [
        "▁hjälpa",
        -8.776894771351905
      ],
      [
        "▁fina",
        -8.780699916821485
      ],
      [
        "Hotell",
        -8.781112390707825
      ],
      [
        "▁långt",
        -8.783080572012567
      ],
      [
        "▁varför",
        -8.783569036860486
      ],
      [
        "▁trots",
        -8.784502115217743
      ],
      [
        "z",
        -8.787431520885104
      ],
      [
        "▁börja",
        -8.78791593857237
      ],
      [
        "G",
        -8.789254771060918
      ],
      [
        "▁klart",
        -8.789441890487252
      ],
      [
        "▁Även",
        -8.78961906061921
      ],
      [
        "▁ville",
        -8.794454456420693
      ],
      [
        "▁gått",
        -8.795403935352253
      ],
      [
        "ge",
        -8.800071520631066
      ],
      [
        "ja",
        -8.80072445670693
      ],
      [
        "▁män",
        -8.801168531923887
      ],
      [
        "▁Sveriges",
        -8.801528509293979
      ],
      [
        "▁brukar",
        -8.80240846306354
      ],
      [
        "▁Visa",
        -8.80313457125762
      ],
      [
        "▁Be",
        -8.803839263852248
      ],
      [
        "▁h",
        -8.804200752760739
      ],
      [
        "▁Min",
        -8.80531276989053
      ],
      [
        "▁kul",
        -8.807754403018116
      ],
      [
        "▁50",
        -8.811769034701706
      ],
      [
        "6",
        -8.812834257248415
      ],
      [
        "▁W",
        -8.81459537859326
      ],
      [
        "L",
        -8.816310644643668
      ],
      [
        "▁ned",
        -8.817058115742556
      ],
      [
        "▁snart",
        -8.817710308670716
      ],
      [
        "▁Vid",
        -8.81862848667049
      ],
      [
        "▁enda",
        -8.818913557098197
      ],
      [
        "▁känna",
        -8.820112401858015
      ],
      [
        "▁tagit",
        -8.821163521743998
      ],
      [
        "▁arbetar",
        -8.823352160863571
      ],
      [
        "▁2017",
        -8.823764146469836
      ],
      [
        "D",
        -8.82546245251038
      ],
      [
        "inga",
        -8.825825897311582
      ],
      [
        "ar.",
        -8.825908966299695
      ],
      [
        "▁film",
        -8.82652833769511
      ],
      [
        "▁:)",
        -8.827511155759309
      ],
      [
        "▁tänka",
        -8.827746041547899
      ],
      [
        "nings",
        -8.828225873497763
      ],
      [
        "by",
        -8.829174142169656
      ],
      [
        "▁25",
        -8.829444886018564
      ],
      [
        "▁kronor",
        -8.829817621396279
      ],
      [
        "▁Ta",
        -8.830886046797694
      ],
      [
        "▁maj",
        -8.830931311369474
      ],
      [
        "▁Tack",
        -8.836654108868029
      ],
      [
        "ka",
        -8.83796069910681
      ],
      [
        "▁namn",
        -8.83810724728587
      ],
      [
        "▁100",
        -8.838773818317854
      ],
      [
        "sta",
        -8.839180264080264
      ],
      [
        "▁#",
        -8.83947650006218
      ],
      [
        "▁antal",
        -8.842210178553502
      ],
      [
        "▁2015",
        -8.844413302583193
      ],
      [
        "▁to",
        -8.848423080374973
      ],
      [
        "▁Nike",
        -8.849040235687614
      ],
      [
        "▁låg",
        -8.84967488974822
      ],
      [
        "C",
        -8.850871441606307
      ],
      [
        "▁möjligt",
        -8.851596888022316
      ],
      [
        "▁for",
        -8.852686113953277
      ],
      [
        "▁vecka",
        -8.853559617090898
      ],
      [
        "▁val",
        -8.860333035367743
      ],
      [
        "ste",
        -8.860459734607142
      ],
      [
        "▁miljoner",
        -8.861554937712487
      ],
      [
        "▁Air",
        -8.861616196282148
      ],
      [
        "▁energi",
        -8.861849766665399
      ],
      [
        "ningen",
        -8.86241387211115
      ],
      [
        "▁ord",
        -8.863245809633515
      ],
      [
        "▁medan",
        -8.866657683573308
      ],
      [
        "F",
        -8.867060098860845
      ],
      [
        "▁passar",
        -8.867950508961965
      ],
      [
        "▁Sedan",
        -8.868215546069022
      ],
      [
        "▁Max",
        -8.870186340659206
      ],
      [
        "▁svar",
        -8.870350573785846
      ],
      [
        "▁kontakt",
        -8.870914998282492
      ],
      [
        "▁fanns",
        -8.871047880656784
      ],
      [
        "▁priser",
        -8.87371717784879
      ],
      [
        "]",
        -8.87473867758659
      ],
      [
        "▁framför",
        -8.875802428704919
      ],
      [
        "igt",
        -8.877444219129547
      ],
      [
        "7",
        -8.879404182213355
      ],
      [
        "▁hus",
        -8.880337650967641
      ],
      [
        "ger",
        -8.887370859248119
      ],
      [
        "▁Var",
        -8.888798833084598
      ],
      [
        "▁sitter",
        -8.890617508470509
      ],
      [
        "▁tag",
        -8.89067943788858
      ],
      [
        "▁början",
        -8.892715549617556
      ],
      [
        "▁miljö",
        -8.893892061639159
      ],
      [
        "ly",
        -8.894998578344772
      ],
      [
        "▁ja",
        -8.895466694698992
      ],
      [
        "ch",
        -8.896974849214368
      ],
      [
        "▁arbeta",
        -8.898339112361679
      ],
      [
        "▁veta",
        -8.899822868174564
      ],
      [
        "▁ibland",
        -8.899912182092718
      ],
      [
        "▁tur",
        -8.900091305278028
      ],
      [
        "▁%",
        -8.900493112868851
      ],
      [
        "men",
        -8.90254173851528
      ],
      [
        "▁dating",
        -8.905733382279388
      ],
      [
        "H",
        -8.905862346188757
      ],
      [
        "spel",
        -8.908975550942264
      ],
      [
        "▁helst",
        -8.909835466494146
      ],
      [
        "▁Där",
        -8.910104052869029
      ],
      [
        "▁Kan",
        -8.910748794834763
      ],
      [
        "8",
        -8.911148427886046
      ],
      [
        "isk",
        -8.915194321233859
      ],
      [
        "▁gillar",
        -8.91624041874089
      ],
      [
        "▁utanför",
        -8.91746739730659
      ],
      [
        "0",
        -8.919209160550302
      ],
      [
        "ke",
        -8.920674609064644
      ],
      [
        "▁behov",
        -8.92092274319906
      ],
      [
        "▁bäst",
        -8.921827202791306
      ],
      [
        "▁Bo",
        -8.921869103762669
      ],
      [
        "▁bor",
        -8.923906307081452
      ],
      [
        "▁åter",
        -8.92534131410157
      ],
      [
        "▁skicka",
        -8.926536480548709
      ],
      [
        "▁svensk",
        -8.927262534600489
      ],
      [
        "▁el",
        -8.929248375309124
      ],
      [
        "▁egentligen",
        -8.92949662952692
      ],
      [
        "av",
        -8.930213221586571
      ],
      [
        "▁ytterligare",
        -8.9311857791975
      ],
      [
        "tt",
        -8.9326283356817
      ],
      [
        "▁båda",
        -8.933690999187858
      ],
      [
        "vis",
        -8.94030746577361
      ],
      [
        "▁särskilt",
        -8.940362249804338
      ],
      [
        "▁kör",
        -8.941559176215797
      ],
      [
        "▁minuter",
        -8.941828242629697
      ],
      [
        "ell",
        -8.947473680654278
      ],
      [
        "▁används",
        -8.947972193720204
      ],
      [
        "▁sagt",
        -8.947979544578466
      ],
      [
        "\",",
        -8.948207426536712
      ],
      [
        "▁2014",
        -8.948919907325669
      ],
      [
        "▁pa",
        -8.950078259593726
      ],
      [
        "▁kommit",
        -8.951818889424105
      ],
      [
        "▁lär",
        -8.957784228095113
      ],
      [
        "berg",
        -8.958803003373252
      ],
      [
        "▁världen",
        -8.96240940146634
      ],
      [
        "ar,",
        -8.963896334598413
      ],
      [
        "▁färg",
        -8.968291773621887
      ],
      [
        "▁kl",
        -8.969785766390359
      ],
      [
        "▁arbets",
        -8.970617849133188
      ],
      [
        "▁Bra",
        -8.972456851956515
      ],
      [
        "ton",
        -8.974200475677963
      ],
      [
        "▁krav",
        -8.975180550261522
      ],
      [
        "▁Re",
        -8.975322287543387
      ],
      [
        "▁kände",
        -8.978118669652712
      ],
      [
        "▁äldre",
        -8.979891444801055
      ],
      [
        "▁Inte",
        -8.984634513618523
      ],
      [
        "▁produkter",
        -8.985879308188089
      ],
      [
        "▁gången",
        -8.987316464404426
      ],
      [
        "Denna",
        -8.98745351963883
      ],
      [
        "▁2013",
        -8.989677154981562
      ],
      [
        "▁bakom",
        -8.990616214041827
      ],
      [
        "gen",
        -8.990740516156013
      ],
      [
        "▁Ut",
        -8.991380652683604
      ],
      [
        "▁21",
        -8.991776250472554
      ],
      [
        "ering",
        -8.992418020796217
      ],
      [
        "▁heller",
        -8.995733114639188
      ],
      [
        "▁dags",
        -8.996053438537123
      ],
      [
        "▁timmar",
        -8.99611754960156
      ],
      [
        "▁Ja",
        -8.99771564221809
      ],
      [
        "▁Hotel",
        -8.998345838383694
      ],
      [
        "▁Svenska",
        -8.998558665788707
      ],
      [
        "N",
        -8.998717217496921
      ],
      [
        "▁Sen",
        -8.999409001892177
      ],
      [
        "▁fungerar",
        -8.999498143983494
      ],
      [
        "▁resultat",
        -8.999556359067203
      ],
      [
        "min",
        -9.000417649189947
      ],
      [
        "▁förra",
        -9.000775928695491
      ],
      [
        "▁huvud",
        -9.002576488594716
      ],
      [
        "▁spelar",
        -9.005281981932297
      ],
      [
        "V",
        -9.006156685164752
      ],
      [
        "▁inne",
        -9.007338598348843
      ],
      [
        "▁sätta",
        -9.012351599245775
      ],
      [
        "▁betyg",
        -9.01247411597368
      ],
      [
        "▁veckan",
        -9.01391642804167
      ],
      [
        "ur",
        -9.014454213444946
      ],
      [
        "▁lilla",
        -9.016752787918575
      ],
      [
        "▁Ni",
        -9.017113376702463
      ],
      [
        "▁åka",
        -9.019312249694
      ],
      [
        "ol",
        -9.020204741973394
      ],
      [
        "▁24",
        -9.020261229366959
      ],
      [
        "▁mamma",
        -9.020686747034167
      ],
      [
        "▁säkert",
        -9.0214643150252
      ],
      [
        "▁igenom",
        -9.022287363161883
      ],
      [
        "▁tänker",
        -9.023407479053226
      ],
      [
        "▁livet",
        -9.023833049565136
      ],
      [
        "▁skrev",
        -9.025454861896305
      ],
      [
        "▁full",
        -9.02575512620925
      ],
      [
        "▁steg",
        -9.026276298285511
      ],
      [
        "▁bo",
        -9.032385145665714
      ],
      [
        "▁öka",
        -9.034345321465533
      ],
      [
        "ling",
        -9.034586542103353
      ],
      [
        "9",
        -9.038296527367129
      ],
      [
        "!!",
        -9.043664668405647
      ],
      [
        "▁igen.",
        -9.045706076864356
      ],
      [
        "▁Vill",
        -9.047240275422405
      ],
      [
        "▁innehåller",
        -9.04748855709438
      ],
      [
        "ve",
        -9.04865806244593
      ],
      [
        "Dessutom",
        -9.048919718027003
      ],
      [
        "väl",
        -9.05005233661383
      ],
      [
        "va",
        -9.050129448283439
      ],
      [
        "▁ljus",
        -9.050995877960968
      ],
      [
        "lag",
        -9.051044308953376
      ],
      [
        "▁0",
        -9.053192697837696
      ],
      [
        "tal",
        -9.05428950110611
      ],
      [
        "▁projekt",
        -9.056623172998007
      ],
      [
        "▁högre",
        -9.057603990764953
      ],
      [
        "▁ingår",
        -9.061293166969103
      ],
      [
        "co",
        -9.063036664318563
      ],
      [
        "(",
        -9.068602867847265
      ],
      [
        "▁äta",
        -9.069761519037506
      ],
      [
        "val",
        -9.06993182482803
      ],
      [
        "▁inlägg",
        -9.07063208695984
      ],
      [
        "▁U",
        -9.071065677071037
      ],
      [
        "orna",
        -9.071181474661438
      ],
      [
        "ör",
        -9.07362753090025
      ],
      [
        "den",
        -9.073801370715984
      ],
      [
        "▁landet",
        -9.074209686798033
      ],
      [
        "▁“",
        -9.077471518450437
      ],
      [
        "hus",
        -9.077797057597067
      ],
      [
        "▁händer",
        -9.077944401707896
      ],
      [
        "'",
        -9.080841833218562
      ],
      [
        "fall",
        -9.081232223312304
      ],
      [
        "▁veckor",
        -9.08348915178323
      ],
      [
        "▁bygga",
        -9.08390294259645
      ],
      [
        "▁unga",
        -9.08438622874448
      ],
      [
        "bo",
        -9.088149475184837
      ],
      [
        "Enligt",
        -9.089182722398485
      ],
      [
        "▁ansvar",
        -9.090257453983536
      ],
      [
        "▁22",
        -9.090556982546516
      ],
      [
        "▁fri",
        -9.092414312626284
      ],
      [
        "▁2012",
        -9.093006985888325
      ],
      [
        "▁sådan",
        -9.09438067720975
      ],
      [
        "▁jul",
        -9.095238251124004
      ],
      [
        "▁[",
        -9.096711405061523
      ],
      [
        "▁max",
        -9.098709696789733
      ],
      [
        "▁berättar",
        -9.100535176528114
      ],
      [
        "▁ifrån",
        -9.100834073607455
      ],
      [
        "ga",
        -9.101610638512215
      ],
      [
        "▁40",
        -9.101735231038132
      ],
      [
        "▁verksamhet",
        -9.10420278005034
      ],
      [
        "▁ex",
        -9.106101562412405
      ],
      [
        "▁mars",
        -9.107973080132595
      ],
      [
        "Många",
        -9.10848165280571
      ],
      [
        "▁personal",
        -9.110750706755674
      ],
      [
        "▁tack",
        -9.112487828271817
      ],
      [
        "▁jobba",
        -9.11249185432431
      ],
      [
        "ro",
        -9.114522303611825
      ],
      [
        "▁företaget",
        -9.114847664667861
      ],
      [
        "▁lära",
        -9.115810286463114
      ],
      [
        "W",
        -9.115892557006198
      ],
      [
        "▁nå",
        -9.118333603467168
      ],
      [
        "var",
        -9.11861838217878
      ],
      [
        "kar",
        -9.119004026497645
      ],
      [
        "bar",
        -9.119931411565869
      ],
      [
        "▁musik",
        -9.121310448556226
      ],
      [
        "▁januari",
        -9.121609737499258
      ],
      [
        "aren",
        -9.121903692702022
      ],
      [
        "30",
        -9.12262870806733
      ],
      [
        "▁titta",
        -9.123377092833028
      ],
      [
        "▁väljer",
        -9.125147480941054
      ],
      [
        "▁försöka",
        -9.125375635565472
      ],
      [
        "▁blogg",
        -9.126982194069573
      ],
      [
        "▁nätet",
        -9.12795593577755
      ],
      [
        "▁främst",
        -9.129144774371028
      ],
      [
        "▁utveckling",
        -9.130056278005236
      ],
      [
        "▁dejta",
        -9.130083542392658
      ],
      [
        "▁bonus",
        -9.132535453848766
      ],
      [
        "▁ej",
        -9.133566133541795
      ],
      [
        "ic",
        -9.134300068789287
      ],
      [
        "▁dra",
        -9.135043272063982
      ],
      [
        "▁Ska",
        -9.135908438270178
      ],
      [
        "▁menar",
        -9.140255227977276
      ],
      [
        "▁Genom",
        -9.141170888449217
      ],
      [
        "▁program",
        -9.144355938248662
      ],
      [
        "▁frågan",
        -9.14513711867938
      ],
      [
        "▁augusti",
        -9.145769513325117
      ],
      [
        "▁Göteborg",
        -9.145771729566055
      ],
      [
        "▁skolan",
        -9.146162947743258
      ],
      [
        "▁vård",
        -9.147318427805574
      ],
      [
        "▁besök",
        -9.14747810327044
      ],
      [
        "na.",
        -9.148465834053283
      ],
      [
        "▁fint",
        -9.14903538588997
      ],
      [
        "▁sker",
        -9.150978438190135
      ],
      [
        "▁Ha",
        -9.151355947101251
      ],
      [
        "▁massa",
        -9.152592529627588
      ],
      [
        "▁risk",
        -9.153010247241383
      ],
      [
        "▁samband",
        -9.153603450973685
      ],
      [
        "▁rör",
        -9.153993854504384
      ],
      [
        "▁perfekt",
        -9.155914819219998
      ],
      [
        "▁sida",
        -9.156768047673005
      ],
      [
        "▁råd",
        -9.157998631720133
      ],
      [
        "▁satt",
        -9.158163505136384
      ],
      [
        "▁grupp",
        -9.159741435344104
      ],
      [
        "▁re",
        -9.160826957094717
      ],
      [
        "▁Malmö",
        -9.161414392941419
      ],
      [
        "▁Vår",
        -9.163215903747547
      ],
      [
        "▁Mer",
        -9.16415896809302
      ],
      [
        "land",
        -9.165074973992168
      ],
      [
        "▁vanligt",
        -9.167520640009608
      ],
      [
        "▁kolla",
        -9.168413810621573
      ],
      [
        "▁spännande",
        -9.168702847186543
      ],
      [
        "▁sommar",
        -9.17065990989176
      ],
      [
        "▁följa",
        -9.171959611633135
      ],
      [
        "▁sol",
        -9.173185397663067
      ],
      [
        "▁goda",
        -9.173499652778622
      ],
      [
        "▁kultur",
        -9.175885728948918
      ],
      [
        "ningar",
        -9.178224847001008
      ],
      [
        "▁Jo",
        -9.178308959624085
      ],
      [
        "▁Från",
        -9.178422966806043
      ],
      [
        "▁uppgifter",
        -9.181027741346167
      ],
      [
        "▁kvinna",
        -9.182373563221983
      ],
      [
        "▁års",
        -9.182708600035637
      ],
      [
        "▁erfarenhet",
        -9.182909081248146
      ],
      [
        "▁Ny",
        -9.185631392651123
      ],
      [
        "▁eget",
        -9.18661208002936
      ],
      [
        "▁fr",
        -9.18717812942221
      ],
      [
        "▁start",
        -9.18896972446702
      ],
      [
        "▁hotellet",
        -9.189760115477025
      ],
      [
        "der",
        -9.193242559306764
      ],
      [
        "ans",
        -9.196093375316183
      ],
      [
        "▁Allt",
        -9.196272762080332
      ],
      [
        "▁casino",
        -9.199360872903352
      ],
      [
        "▁älskar",
        -9.20077579093556
      ],
      [
        "▁tillgång",
        -9.203257103673876
      ],
      [
        "▁varandra",
        -9.207643985460143
      ],
      [
        "vi",
        -9.207985912006956
      ],
      [
        "▁service",
        -9.211735413595502
      ],
      [
        "▁meter",
        -9.21196019264191
      ],
      [
        "▁utbildning",
        -9.212583308193173
      ],
      [
        "▁spelare",
        -9.21307979199316
      ],
      [
        "▁La",
        -9.215980248370956
      ],
      [
        "▁23",
        -9.21612737897485
      ],
      [
        "▁vilja",
        -9.216648025878769
      ],
      [
        "▁sak",
        -9.217258181142377
      ],
      [
        "10",
        -9.217619434454331
      ],
      [
        "rum",
        -9.217641907324444
      ],
      [
        "▁förslag",
        -9.219579414875941
      ],
      [
        "▁jobbar",
        -9.219864440061652
      ],
      [
        "▁kommunen",
        -9.2216620583203
      ],
      [
        "▁stå",
        -9.221723615582547
      ],
      [
        "▁prata",
        -9.223406334507281
      ],
      [
        "▁Nej",
        -9.22374422620327
      ],
      [
        "ha",
        -9.223879283909238
      ],
      [
        "▁vem",
        -9.224169562310557
      ],
      [
        "▁fortsätta",
        -9.224405383713524
      ],
      [
        "O",
        -9.224561726298836
      ],
      [
        "–",
        -9.226037458666347
      ],
      [
        "▁månader",
        -9.226240292991982
      ],
      [
        "Dessa",
        -9.227080298201212
      ],
      [
        "▁hör",
        -9.227266962854198
      ],
      [
        "▁kunder",
        -9.229869930640438
      ],
      [
        "▁90",
        -9.23016525126416
      ],
      [
        "▁tio",
        -9.231803671549294
      ],
      [
        "▁liksom",
        -9.232133574301042
      ],
      [
        "to",
        -9.23250372231608
      ],
      [
        "erade",
        -9.233855580168676
      ],
      [
        "else",
        -9.234677949307926
      ],
      [
        "os",
        -9.234832636665008
      ],
      [
        "▁försöker",
        -9.237576461633317
      ],
      [
        "▁juni",
        -9.239168249118912
      ],
      [
        "▁vägen",
        -9.239745170563873
      ],
      [
        "▁system",
        -9.24127306483293
      ],
      [
        "▁tro",
        -9.242464443171436
      ],
      [
        "del",
        -9.242754260613598
      ],
      [
        "▁gav",
        -9.244403600474625
      ],
      [
        "▁tredje",
        -9.244843596679434
      ],
      [
        "▁resa",
        -9.244971799457923
      ],
      [
        "▁kroppen",
        -9.24542815887112
      ],
      [
        "▁djur",
        -9.24574063166913
      ],
      [
        "je",
        -9.246337474326463
      ],
      [
        "▁nätdejting",
        -9.248339952117338
      ],
      [
        "kan",
        -9.248616306882854
      ],
      [
        "”.",
        -9.249053080612946
      ],
      [
        "mo",
        -9.249536005949164
      ],
      [
        "▁favorit",
        -9.249832492186666
      ],
      [
        "▁glad",
        -9.250882773527664
      ],
      [
        "_",
        -9.250928576513303
      ],
      [
        "▁kvalitet",
        -9.251614474060096
      ],
      [
        "E",
        -9.252101615385788
      ],
      [
        "▁roligt",
        -9.253050833512361
      ],
      [
        "▁betyder",
        -9.254492109942762
      ],
      [
        "▁alternativ",
        -9.254502007175233
      ],
      [
        "▁krävs",
        -9.256277011345329
      ],
      [
        "▁barnen",
        -9.256366083088038
      ],
      [
        "▁skor",
        -9.257368039283753
      ],
      [
        "▁fortsätter",
        -9.257458571638104
      ],
      [
        "▁vänner",
        -9.257803340337615
      ],
      [
        "▁USA",
        -9.257998678299602
      ],
      [
        "rätt",
        -9.258174409156581
      ],
      [
        "▁bidra",
        -9.26105074977584
      ],
      [
        "▁slutet",
        -9.26106175478463
      ],
      [
        "▁fort",
        -9.262332933272432
      ],
      [
        "▁klar",
        -9.26264043419545
      ],
      [
        "▁Eller",
        -9.26484729438891
      ],
      [
        "▁X",
        -9.265341569627548
      ],
      [
        "▁kontakta",
        -9.266563133416373
      ],
      [
        "▁öppna",
        -9.26750234844823
      ],
      [
        "▁heter",
        -9.268939063292818
      ],
      [
        "▁va",
        -9.269102490201155
      ],
      [
        "▁alls",
        -9.26928651339174
      ],
      [
        "J",
        -9.27024535905379
      ],
      [
        "ler",
        -9.271045464804411
      ],
      [
        "▁2011",
        -9.271263595851961
      ],
      [
        "▁igång",
        -9.272092441529976
      ],
      [
        "slag",
        -9.272794184587378
      ],
      [
        "ion",
        -9.27321469100519
      ],
      [
        "▁jätte",
        -9.277244943375083
      ],
      [
        "▁lan",
        -9.277287654742826
      ],
      [
        "▁data",
        -9.278092871772744
      ],
      [
        "▁engelska",
        -9.278704805479402
      ],
      [
        "lan",
        -9.27989826156694
      ],
      [
        "▁2018",
        -9.280532434889688
      ],
      [
        "ry",
        -9.282363902604446
      ],
      [
        "▁låter",
        -9.282942547275274
      ],
      [
        "▁rad",
        -9.283350577144352
      ],
      [
        "▁april",
        -9.28894191117497
      ],
      [
        "▁utveckla",
        -9.289628851463387
      ],
      [
        "▁natur",
        -9.289994804740207
      ],
      [
        "▁oktober",
        -9.290101339933583
      ],
      [
        "▁köra",
        -9.2906757105308
      ],
      [
        "▁1.",
        -9.291370531957828
      ],
      [
        "▁liknande",
        -9.292327574124084
      ],
      [
        "dag",
        -9.292915394402378
      ],
      [
        "I",
        -9.293457438441981
      ],
      [
        "▁användas",
        -9.29363632223898
      ],
      [
        "▁material",
        -9.294901941472094
      ],
      [
        "ll",
        -9.296330045866679
      ],
      [
        "▁la",
        -9.297276838072706
      ],
      [
        "▁roll",
        -9.29779921790336
      ],
      [
        "▁köp",
        -9.299284441673404
      ],
      [
        "▁by",
        -9.30099797086034
      ],
      [
        "tid",
        -9.301068845608768
      ],
      [
        "▁klara",
        -9.30173182087922
      ],
      [
        "▁mobil",
        -9.303501073955813
      ],
      [
        "▁dejtingsajt",
        -9.304087891726116
      ],
      [
        "mm",
        -9.304795641066228
      ],
      [
        "Därför",
        -9.305627676011117
      ],
      [
        "me",
        -9.307484868686021
      ],
      [
        "▁finnas",
        -9.307932014838592
      ],
      [
        "form",
        -9.309331216487738
      ],
      [
        "aste",
        -9.31008260005116
      ],
      [
        "ng",
        -9.31160972647969
      ],
      [
        "▁Per",
        -9.313783002500328
      ],
      [
        "med",
        -9.314112647006954
      ],
      [
        "▁dit",
        -9.315422734138043
      ],
      [
        "▁regeringen",
        -9.317422492060569
      ],
      [
        "lar",
        -9.317720431215662
      ],
      [
        "▁viktig",
        -9.318265883638702
      ],
      [
        "▁maskinövers",
        -9.319432817101697
      ],
      [
        "anser",
        -9.32095140598519
      ],
      [
        "▁uppdrag",
        -9.323091318952404
      ],
      [
        "▁telefon",
        -9.323205006172884
      ],
      [
        "mat",
        -9.323544768809317
      ],
      [
        "▁mig.",
        -9.32427094646689
      ],
      [
        "▁tyckte",
        -9.32569560839732
      ],
      [
        "▁boken",
        -9.326728859625572
      ],
      [
        "▁fokus",
        -9.327024069235815
      ],
      [
        "▁snabb",
        -9.327739257577205
      ],
      [
        "▁viss",
        -9.328225878178378
      ],
      [
        "▁bak",
        -9.32859646920571
      ],
      [
        "▁cirka",
        -9.331654145454591
      ],
      [
        "▁staden",
        -9.332119346501248
      ],
      [
        "▁*",
        -9.332850359170738
      ],
      [
        "mer",
        -9.33286262360743
      ],
      [
        "▁kund",
        -9.332999170001822
      ],
      [
        "▁Al",
        -9.334526764801332
      ],
      [
        "▁exempelvis",
        -9.335430957795706
      ],
      [
        "▁absolut",
        -9.335633560026018
      ],
      [
        "▁lever",
        -9.337451022779767
      ],
      [
        "▁•",
        -9.33757384057388
      ],
      [
        "▁match",
        -9.33870564074761
      ],
      [
        "▁Anna",
        -9.33897262160327
      ],
      [
        "ine",
        -9.339097405946026
      ],
      [
        "▁februari",
        -9.339381731581287
      ],
      [
        "▁ungefär",
        -9.340482330895012
      ],
      [
        "itet",
        -9.342038736718692
      ],
      [
        "▁halv",
        -9.34216797798096
      ],
      [
        "R",
        -9.342553938057204
      ],
      [
        "▁Sverige.",
        -9.34370129336186
      ],
      [
        "+",
        -9.343847369278727
      ],
      [
        "▁skol",
        -9.345340912499507
      ],
      [
        "lin",
        -9.345426257713981
      ],
      [
        "▁hälsa",
        -9.347787660810189
      ],
      [
        "ation",
        -9.348921867884368
      ],
      [
        "▁El",
        -9.348975346305696
      ],
      [
        "▁kunskap",
        -9.351575259705387
      ],
      [
        "▁beroende",
        -9.35270907432998
      ],
      [
        "därmed",
        -9.352820773033898
      ],
      [
        "▁Le",
        -9.353251197310376
      ],
      [
        "än",
        -9.353437734420272
      ],
      [
        "▁följande",
        -9.353513863381108
      ],
      [
        "▁visade",
        -9.354977043279492
      ],
      [
        "▁språk",
        -9.357404516957624
      ],
      [
        "▁vanliga",
        -9.35812651760912
      ],
      [
        "▁app",
        -9.36026058015353
      ],
      [
        "upp",
        -9.3605204557261
      ],
      [
        "sson",
        -9.360534320304234
      ],
      [
        "▁samarbete",
        -9.361687613930798
      ],
      [
        "▁super",
        -9.36172324778035
      ],
      [
        "▁Kanske",
        -9.363184675799314
      ],
      [
        "ets",
        -9.363489129365584
      ],
      [
        "▁Hitta",
        -9.36381424453836
      ],
      [
        "▁användning",
        -9.363914202442974
      ],
      [
        "▁oftast",
        -9.36462035758181
      ],
      [
        "erad",
        -9.36551615413331
      ],
      [
        "▁tänkte",
        -9.36617924277844
      ],
      [
        "▁boende",
        -9.367441196743602
      ],
      [
        "▁senast",
        -9.367706090366074
      ],
      [
        "é",
        -9.367815732657757
      ],
      [
        "▁stod",
        -9.368494172548825
      ],
      [
        "▁arbetet",
        -9.370493744676029
      ],
      [
        "▁åren",
        -9.37079879567154
      ],
      [
        "▁2010",
        -9.371059703980038
      ],
      [
        "▁topp",
        -9.371102618859036
      ],
      [
        "består",
        -9.372627078115219
      ],
      [
        "▁övriga",
        -9.37305927182202
      ],
      [
        "▁närheten",
        -9.374146966750779
      ],
      [
        "▁An",
        -9.374530595308597
      ],
      [
        "▁månad",
        -9.37555161102345
      ],
      [
        "▁förstår",
        -9.376128008930207
      ],
      [
        "ken",
        -9.377974808455539
      ],
      [
        "bok",
        -9.378269729322627
      ],
      [
        "lägger",
        -9.378852220778084
      ],
      [
        "▁speciellt",
        -9.379825698621367
      ],
      [
        "▁Varför",
        -9.380431080102252
      ],
      [
        "ner",
        -9.380531377654972
      ],
      [
        "▁recept",
        -9.380786569730155
      ],
      [
        "▁intressant",
        -9.381057938299586
      ],
      [
        "▁december",
        -9.3818384687376
      ],
      [
        "▁svart",
        -9.382541424080339
      ],
      [
        "▁behövs",
        -9.382907244443869
      ],
      [
        "▁boka",
        -9.383468321893073
      ],
      [
        "▁ställa",
        -9.383712273312808
      ],
      [
        "▁plan",
        -9.383818107776593
      ],
      [
        "ist",
        -9.383985024519404
      ],
      [
        "▁intresse",
        -9.384847052674084
      ],
      [
        "▁vin",
        -9.384983830710265
      ],
      [
        "▁+",
        -9.385761473490566
      ],
      [
        "▁morgon",
        -9.386098968972158
      ],
      [
        "▁november",
        -9.386938978751175
      ],
      [
        "▁följer",
        -9.388693240733563
      ],
      [
        "▁sådana",
        -9.389687736875082
      ],
      [
        "▁september",
        -9.39034466607479
      ],
      [
        "▁cm",
        -9.392277696515752
      ],
      [
        "▁Å",
        -9.39367147169612
      ],
      [
        "▁skapar",
        -9.394975331143359
      ],
      [
        "▁juli",
        -9.395754405873186
      ],
      [
        "▁området",
        -9.396010134143967
      ],
      [
        "▁behöva",
        -9.3963642063035
      ],
      [
        "▁igår",
        -9.397094033876106
      ],
      [
        "▁län",
        -9.398203131591604
      ],
      [
        "20",
        -9.400215555528382
      ],
      [
        "▁stället",
        -9.4016191854474
      ],
      [
        "ring",
        -9.402313957414915
      ],
      [
        "▁tanke",
        -9.4054109153013
      ],
      [
        "Eftersom",
        -9.407271899318538
      ],
      [
        "▁poäng",
        -9.407927240945035
      ],
      [
        "▁§",
        -9.407964319327284
      ],
      [
        "▁skönt",
        -9.40942770873319
      ],
      [
        "▁lån",
        -9.410031681880163
      ],
      [
        "▁jobbet",
        -9.410880413459767
      ],
      [
        "▁otroligt",
        -9.411060225305551
      ],
      [
        "▁produkt",
        -9.41161813982112
      ],
      [
        "▁minska",
        -9.412755582320747
      ],
      [
        "▁hår",
        -9.415131085745422
      ],
      [
        "▁60",
        -9.41694830662424
      ],
      [
        "ck",
        -9.418009685899179
      ],
      [
        "▁28",
        -9.418245041793465
      ],
      [
        "▁bilen",
        -9.41843660635253
      ],
      [
        "▁air",
        -9.41886747641395
      ],
      [
        "*",
        -9.418991519200889
      ],
      [
        "▁förstå",
        -9.420088083517292
      ],
      [
        "▁stund",
        -9.420709154297825
      ],
      [
        "▁land",
        -9.421139669751904
      ],
      [
        "▁nämligen",
        -9.421540954710421
      ],
      [
        "log",
        -9.422360407719667
      ],
      [
        "▁dem.",
        -9.422658710651513
      ],
      [
        "▁mark",
        -9.423267707547039
      ],
      [
        "såsom",
        -9.42361427469893
      ],
      [
        "▁åkte",
        -9.423761650490185
      ],
      [
        "▁alldeles",
        -9.423880173166882
      ],
      [
        "▁dagens",
        -9.428336556786743
      ],
      [
        "▁hämta",
        -9.432168528987846
      ],
      [
        "▁kväll",
        -9.433240272082395
      ],
      [
        "▁Stockholms",
        -9.433609224720511
      ],
      [
        "▁kräver",
        -9.436136990643467
      ],
      [
        "ex",
        -9.436945658646309
      ],
      [
        "ce",
        -9.437678352757837
      ],
      [
        "▁länder",
        -9.438125186994975
      ],
      [
        "▁natt",
        -9.438141898294694
      ],
      [
        "15",
        -9.438751337579907
      ],
      [
        "▁säker",
        -9.439033470136202
      ],
      [
        "▁hantera",
        -9.43925219652914
      ],
      [
        "▁Ja,",
        -9.441268266873987
      ],
      [
        "▁Anders",
        -9.445334834288111
      ],
      [
        "▁»",
        -9.44625853869751
      ],
      [
        "▁annars",
        -9.446500469896009
      ],
      [
        "▁Just",
        -9.446552846579655
      ],
      [
        "▁behandling",
        -9.446703210701713
      ],
      [
        "▁design",
        -9.446868313220008
      ],
      [
        "em",
        -9.448865530783074
      ],
      [
        "▁håll",
        -9.449661356492582
      ],
      [
        "▁SEK",
        -9.450366484028402
      ],
      [
        "▁leder",
        -9.451942435903245
      ],
      [
        "▁ovan",
        -9.451989705165943
      ],
      [
        "▁internet",
        -9.45200739375702
      ],
      [
        "▁erbjuda",
        -9.452089552015359
      ],
      [
        "▁26",
        -9.455208194413379
      ],
      [
        "▁tänkt",
        -9.458290962278044
      ],
      [
        "gatan",
        -9.458425348986628
      ],
      [
        "▁nike",
        -9.45897552079245
      ],
      [
        "▁föräldrar",
        -9.459552041680478
      ],
      [
        "▁vackra",
        -9.459858775783113
      ],
      [
        "▁delen",
        -9.460744049894668
      ],
      [
        "▁ökar",
        -9.461209395506584
      ],
      [
        "▁höra",
        -9.461869379354065
      ],
      [
        "▁sociala",
        -9.463080436885962
      ],
      [
        "▁snö",
        -9.464082980040564
      ],
      [
        "tar",
        -9.465564605003319
      ],
      [
        "år",
        -9.468227913365414
      ],
      [
        "▁förbättra",
        -9.46896140470526
      ],
      [
        "▁låta",
        -9.468990860843132
      ],
      [
        "▁gammal",
        -9.471541762361792
      ],
      [
        "▁hund",
        -9.472554197234691
      ],
      [
        "▁möjligheter",
        -9.473610462349447
      ],
      [
        "go",
        -9.473983387101297
      ],
      [
        "▁världens",
        -9.474209409710403
      ],
      [
        "▁bilden",
        -9.475044889624836
      ],
      [
        "▁flyg",
        -9.475638348171472
      ],
      [
        "▁syn",
        -9.476676787613311
      ],
      [
        "gg",
        -9.47687396157147
      ],
      [
        "beror",
        -9.477003845639839
      ],
      [
        "▁klockan",
        -9.477593322337013
      ],
      [
        "▁handla",
        -9.478553543644077
      ],
      [
        "▁konst",
        -9.478837405385347
      ],
      [
        "'s",
        -9.479021974133312
      ],
      [
        "mar",
        -9.479659743225634
      ],
      [
        "▁oavsett",
        -9.480445223371344
      ],
      [
        "▁dela",
        -9.4805183626835
      ],
      [
        "▁träna",
        -9.481986937536824
      ],
      [
        "▁familj",
        -9.483822192018765
      ],
      [
        "▁27",
        -9.484343140001787
      ],
      [
        "▁Na",
        -9.484359817303812
      ],
      [
        "00",
        -9.484447178149699
      ],
      [
        "▁höga",
        -9.48564730172217
      ],
      [
        "▁skillnad",
        -9.48656567401709
      ],
      [
        "ant",
        -9.48666913283869
      ],
      [
        "▁viktiga",
        -9.487088710968768
      ],
      [
        "▁New",
        -9.487318405961757
      ],
      [
        "▁Johan",
        -9.491449457330914
      ],
      [
        "▁Facebook",
        -9.493267879723877
      ],
      [
        "▁träffa",
        -9.494387113258787
      ],
      [
        "bi",
        -9.494711798116418
      ],
      [
        "▁träning",
        -9.495187257092997
      ],
      [
        "▁vän",
        -9.495218429659674
      ],
      [
        "▁tjänster",
        -9.495380082781793
      ],
      [
        "▁utifrån",
        -9.495515241823332
      ],
      [
        "gel",
        -9.496147523316335
      ],
      [
        "▁vikt",
        -9.497534098982399
      ],
      [
        "▁2.",
        -9.501702519639133
      ],
      [
        "▁2009",
        -9.502836765089343
      ],
      [
        "▁spara",
        -9.50462206518595
      ],
      [
        "▁leva",
        -9.505250192786361
      ],
      [
        "ledande",
        -9.506251707649406
      ],
      [
        "▁—",
        -9.50689011658023
      ],
      [
        "stad",
        -9.508696559096094
      ],
      [
        "plats",
        -9.509374572483848
      ],
      [
        "▁elever",
        -9.510459487874284
      ],
      [
        "mark",
        -9.510599947920776
      ],
      [
        "▁Europa",
        -9.510767070642235
      ],
      [
        "▁mm",
        -9.511588975812286
      ],
      [
        "▁högt",
        -9.511767999176516
      ],
      [
        "▁bär",
        -9.512804879273489
      ],
      [
        "pa",
        -9.512819950178306
      ],
      [
        "▁fullt",
        -9.513531320377252
      ],
      [
        "▁här.",
        -9.51403624296176
      ],
      [
        "▁berätta",
        -9.514588443815985
      ],
      [
        "▁bi",
        -9.514987444192203
      ],
      [
        "▁lista",
        -9.515254849949605
      ],
      [
        "▁samtal",
        -9.515308547242874
      ],
      [
        "▁glas",
        -9.515398358567435
      ],
      [
        "▁polisen",
        -9.517075986913326
      ],
      [
        "▁sommaren",
        -9.517259224077117
      ],
      [
        "▁familjen",
        -9.517893219161106
      ],
      [
        "do",
        -9.518316158828469
      ],
      [
        "▁Upp",
        -9.520295256276723
      ],
      [
        "Mycket",
        -9.520330904089302
      ],
      [
        "erna.",
        -9.520921842032598
      ],
      [
        "▁testa",
        -9.521200194275899
      ],
      [
        "▁böcker",
        -9.521547221384234
      ],
      [
        "▁ordförande",
        -9.522616358323969
      ],
      [
        "▁vinna",
        -9.523088841420382
      ],
      [
        "▁sådant",
        -9.52314437193089
      ],
      [
        "▁stad",
        -9.523554568551674
      ],
      [
        "▁Mo",
        -9.523662935911688
      ],
      [
        "▁kallas",
        -9.525198681007595
      ],
      [
        "drar",
        -9.525277451573208
      ],
      [
        "▁helgen",
        -9.525432976280543
      ],
      [
        "▁ögon",
        -9.525858921302559
      ],
      [
        "ett",
        -9.526905001520973
      ],
      [
        "▁värde",
        -9.527301731973687
      ],
      [
        "på",
        -9.527323083351178
      ],
      [
        "▁iväg",
        -9.527483191742627
      ],
      [
        "▁vänta",
        -9.528582842871144
      ],
      [
        "▁ändra",
        -9.52864129045704
      ],
      [
        "▁kvällen",
        -9.52878159138489
      ],
      [
        "▁artikel",
        -9.528974183537018
      ],
      [
        "▁anledning",
        -9.53003887026884
      ],
      [
        "▁tjejer",
        -9.531992888483984
      ],
      [
        "▁regler",
        -9.532662315645883
      ],
      [
        "▁totalt",
        -9.532739075563557
      ],
      [
        "▁teknik",
        -9.532996148909293
      ],
      [
        "▁omkring",
        -9.53394242641373
      ],
      [
        "tion",
        -9.534016653319895
      ],
      [
        "▁billiga",
        -9.534028180562787
      ],
      [
        "▁ljud",
        -9.536832590561861
      ],
      [
        "▁lägre",
        -9.537406186643588
      ],
      [
        "▁vanlig",
        -9.537763345759975
      ],
      [
        "▁date",
        -9.538690093107556
      ],
      [
        "gående",
        -9.539134929812006
      ],
      [
        "▁visst",
        -9.539139459294347
      ],
      [
        "▁dejtingsajter",
        -9.540112038122205
      ],
      [
        "▁prov",
        -9.541102241026087
      ],
      [
        "lund",
        -9.541409057871533
      ],
      [
        "▁byta",
        -9.542282001770094
      ],
      [
        "sten",
        -9.543236414172112
      ],
      [
        "▁Kina",
        -9.544286220205862
      ],
      [
        "▁född",
        -9.544593591547189
      ],
      [
        "plan",
        -9.544623642620856
      ],
      [
        "▁söka",
        -9.544712993627007
      ],
      [
        "skydd",
        -9.54544462275014
      ],
      [
        "▁långa",
        -9.545602856812387
      ],
      [
        "▁planera",
        -9.545983245885116
      ],
      [
        "▁Barn",
        -9.547699495276854
      ],
      [
        "ny",
        -9.548011726179247
      ],
      [
        "▁recensioner",
        -9.549041840068565
      ],
      [
        "▁Co",
        -9.549391751617945
      ],
      [
        "ster",
        -9.54974513634047
      ],
      [
        "▁åker",
        -9.550513623052396
      ],
      [
        "▁kaffe",
        -9.552494456158971
      ],
      [
        "▁börjat",
        -9.552589133120934
      ],
      [
        "▁bolaget",
        -9.552912301179758
      ],
      [
        "nar",
        -9.553027675290139
      ],
      [
        "Y",
        -9.553286754822436
      ],
      [
        "går",
        -9.554376107396042
      ],
      [
        "▁tyvärr",
        -9.554560154431623
      ],
      [
        "tra",
        -9.554663380987675
      ],
      [
        "ver",
        -9.555864331923267
      ],
      [
        "▁höll",
        -9.556091625062917
      ],
      [
        "▁vänster",
        -9.556472331709426
      ],
      [
        "▁sitta",
        -9.557249645724939
      ],
      [
        "▁2019",
        -9.558393799050013
      ],
      [
        "▁hittade",
        -9.558497177079676
      ],
      [
        "tittade",
        -9.558556097795238
      ],
      [
        "▁studie",
        -9.559602347836215
      ],
      [
        "▁bit",
        -9.560892359966966
      ],
      [
        "▁sju",
        -9.561325296662003
      ],
      [
        "dy",
        -9.56459138660875
      ],
      [
        "▁ro",
        -9.56497478995984
      ],
      [
        "▁lokala",
        -9.56516014211178
      ],
      [
        "▁ren",
        -9.566397196947767
      ],
      [
        "▁idag.",
        -9.566822446168521
      ],
      [
        "företag",
        -9.567079809632869
      ],
      [
        "▁Köp",
        -9.568067703770378
      ],
      [
        "▁far",
        -9.568447190350577
      ],
      [
        "▁tidigt",
        -9.568763980108594
      ],
      [
        "▁bra.",
        -9.56887556463698
      ],
      [
        "▁sätt.",
        -9.569641790751971
      ],
      [
        "▁skrivit",
        -9.571761304253434
      ],
      [
        "ul",
        -9.574270982434415
      ],
      [
        "▁utmärkt",
        -9.575239507216587
      ],
      [
        "▁dator",
        -9.575417138369732
      ],
      [
        "skap",
        -9.57616696537526
      ],
      [
        "mål",
        -9.576198457501166
      ],
      [
        "ord",
        -9.578133030629719
      ],
      [
        "bb",
        -9.578662460231785
      ],
      [
        "▁vann",
        -9.57867833029225
      ],
      [
        "antalet",
        -9.58040061481479
      ],
      [
        "kort",
        -9.580476486426969
      ],
      [
        "gar",
        -9.580633120861746
      ],
      [
        "▁kontroll",
        -9.581275874643135
      ],
      [
        "allra",
        -9.581284039921416
      ],
      [
        "▁Uppsala",
        -9.58137271987127
      ],
      [
        "huset",
        -9.581388635202384
      ],
      [
        "▁nöjd",
        -9.581869130294304
      ],
      [
        "▁29",
        -9.582496785480723
      ],
      [
        "▁resenärer",
        -9.58274259781338
      ],
      [
        "▁lättare",
        -9.582762250508024
      ],
      [
        "äck",
        -9.583342928532966
      ],
      [
        "▁pappa",
        -9.583932675962226
      ],
      [
        "▁kl.",
        -9.58393671655091
      ],
      [
        "ju",
        -9.583952138512657
      ],
      [
        "▁text",
        -9.584175797124992
      ],
      [
        "▁kraft",
        -9.584295763422691
      ],
      [
        "▁Z",
        -9.584624839898177
      ],
      [
        "ker",
        -9.584743742740692
      ],
      [
        "erat",
        -9.585035407292157
      ],
      [
        "▁semester",
        -9.585111707512231
      ],
      [
        "▁Pro",
        -9.58528066531801
      ],
      [
        "▁respektive",
        -9.5854479295272
      ],
      [
        "▁pass",
        -9.585522619928618
      ],
      [
        "▁standard",
        -9.585859769070423
      ],
      [
        "mp",
        -9.58622102288306
      ],
      [
        "▁bad",
        -9.589378152723832
      ],
      [
        "▁enkel",
        -9.589512930081872
      ],
      [
        "▁exakt",
        -9.590341287441866
      ],
      [
        "▁åtgärder",
        -9.591010329225595
      ],
      [
        "▁tillhör",
        -9.592079450197504
      ],
      [
        "▁nu.",
        -9.592129442373743
      ],
      [
        "▁hit",
        -9.592593298888648
      ],
      [
        "▁storlek",
        -9.592817983342357
      ],
      [
        "tor",
        -9.593094184870402
      ],
      [
        "▁Lo",
        -9.593126332584184
      ],
      [
        "▁samtliga",
        -9.593831691192703
      ],
      [
        "et,",
        -9.59388638239881
      ],
      [
        "▁typer",
        -9.594362045935913
      ],
      [
        "▁trä",
        -9.595173311690024
      ],
      [
        "▁lunch",
        -9.595756711300387
      ],
      [
        "sjö",
        -9.595833739990079
      ],
      [
        "▁vuxna",
        -9.598500943833761
      ],
      [
        "▁samman",
        -9.598723834501747
      ],
      [
        "▁Sa",
        -9.599901421300839
      ],
      [
        "▁hösten",
        -9.600170977055747
      ],
      [
        "iskt",
        -9.600186929116726
      ],
      [
        "väg",
        -9.600230268962958
      ],
      [
        "▁medel",
        -9.601637695762406
      ],
      [
        "▁billigt",
        -9.601953878597534
      ],
      [
        "▁Ö",
        -9.602208821695964
      ],
      [
        "ium",
        -9.602308717409185
      ],
      [
        "▁dåligt",
        -9.604667366630014
      ],
      [
        "▁dejtingsidor",
        -9.60616067219918
      ],
      [
        "▁massor",
        -9.606445920143708
      ],
      [
        "▁Y",
        -9.60709140207999
      ],
      [
        "X",
        -9.607148216491028
      ],
      [
        "▁lagen",
        -9.607443695611513
      ],
      [
        "▁stark",
        -9.60963514835761
      ],
      [
        "▁hemsida",
        -9.609748369992015
      ],
      [
        "▁31",
        -9.610077558245044
      ],
      [
        "sam",
        -9.610313646172095
      ],
      [
        "ca",
        -9.610966272837292
      ],
      [
        "▁vare",
        -9.612232382012824
      ],
      [
        "kt",
        -9.612613450914353
      ],
      [
        "▁verktyg",
        -9.612616627460993
      ],
      [
        "▁bygg",
        -9.612742378618345
      ],
      [
        "▁kostar",
        -9.612765780487846
      ],
      [
        "▁läge",
        -9.613285032733083
      ],
      [
        "▁fortsatt",
        -9.61579237752654
      ],
      [
        "▁kompetens",
        -9.615945439744428
      ],
      [
        "▁högsta",
        -9.615992864128394
      ],
      [
        "tro",
        -9.616188455790795
      ],
      [
        "50",
        -9.619648512363735
      ],
      [
        "band",
        -9.619762154856623
      ],
      [
        "▁frukost",
        -9.620216920669618
      ],
      [
        ".com",
        -9.620382801040533
      ],
      [
        "▁huset",
        -9.620585788064867
      ],
      [
        "▁gäster",
        -9.620989975069797
      ],
      [
        "▁forskning",
        -9.621973534355925
      ],
      [
        "verk",
        -9.622023276210149
      ],
      [
        "▁Tänk",
        -9.623120044747775
      ],
      [
        "▁tas",
        -9.62385722386798
      ],
      [
        "▁köpte",
        -9.624113991385833
      ],
      [
        "▁lokal",
        -9.624467621974873
      ],
      [
        "till",
        -9.62454994627698
      ],
      [
        "▁möjligt.",
        -9.624626071728283
      ],
      [
        "▁sport",
        -9.62525585503883
      ],
      [
        "▁skola",
        -9.625858804373093
      ],
      [
        ".\"",
        -9.625885695296663
      ],
      [
        "▁video",
        -9.626046082493463
      ],
      [
        "▁ske",
        -9.62627373663546
      ],
      [
        "▁väntar",
        -9.62656916171756
      ],
      [
        "▁hända",
        -9.626650640769974
      ],
      [
        "▁kredit",
        -9.626831403195627
      ],
      [
        "pe",
        -9.62706002181051
      ],
      [
        "ström",
        -9.627259079202902
      ],
      [
        "▁t.ex.",
        -9.627355547052721
      ],
      [
        "▁medlemmar",
        -9.627777755974046
      ],
      [
        "liv",
        -9.628759799145195
      ],
      [
        "▁värme",
        -9.629046603557478
      ],
      [
        "fri",
        -9.629665036377563
      ],
      [
        "▁luft",
        -9.630139647093575
      ],
      [
        "12",
        -9.630876855841851
      ],
      [
        "▁200",
        -9.631343390111613
      ],
      [
        "▁platser",
        -9.632077944528056
      ],
      [
        "akt",
        -9.632448276706452
      ],
      [
        "11",
        -9.63274172393509
      ],
      [
        "▁förstås",
        -9.632995863099886
      ],
      [
        "▁ladda",
        -9.633982089417925
      ],
      [
        "▁verksamheten",
        -9.635471720648207
      ],
      [
        "▁pro",
        -9.637521036089554
      ],
      [
        "▁Pa",
        -9.637793425936758
      ],
      [
        "hem",
        -9.637808562562448
      ],
      [
        "▁syfte",
        -9.638766148223489
      ],
      [
        "▁Peter",
        -9.638817326638419
      ],
      [
        "▁eventuell",
        -9.63908400621006
      ],
      [
        "▁post",
        -9.639649110685239
      ],
      [
        "sch",
        -9.640062412253956
      ],
      [
        "▁spelade",
        -9.640234758859345
      ],
      [
        "▁All",
        -9.640667758102182
      ],
      [
        "▁hud",
        -9.640681581747074
      ],
      [
        "▁läser",
        -9.640775697426038
      ],
      [
        "▁klass",
        -9.64105531827297
      ],
      [
        "▁höger",
        -9.641225902865633
      ],
      [
        "▁Maria",
        -9.64498181460123
      ],
      [
        "▁Hem",
        -9.645005910104878
      ],
      [
        "▁tillräckligt",
        -9.645495612317337
      ],
      [
        "▁nedan",
        -9.64625289814969
      ],
      [
        "vägen",
        -9.646960598089537
      ],
      [
        "▁St",
        -9.649123858833148
      ],
      [
        "▁sverige",
        -9.649578281074854
      ],
      [
        "▁bygger",
        -9.650204866448693
      ],
      [
        "▁ekonomi",
        -9.651853480011415
      ],
      [
        "▁Över",
        -9.65290122247449
      ],
      [
        "red",
        -9.653512519077545
      ],
      [
        "▁social",
        -9.654302407908887
      ],
      [
        "len",
        -9.65562358051451
      ],
      [
        "▁dag.",
        -9.656011899218583
      ],
      [
        "▁ont",
        -9.65675450067523
      ],
      [
        "▁blå",
        -9.656786986369628
      ],
      [
        "▁lärare",
        -9.6573768523163
      ],
      [
        "▁test",
        -9.65771309761731
      ],
      [
        "▁reda",
        -9.65895490984626
      ],
      [
        "ko",
        -9.66056344846674
      ],
      [
        "▁påverka",
        -9.661013529529196
      ],
      [
        "▁lyckas",
        -9.66113562317231
      ],
      [
        "Samtidigt",
        -9.66197571551768
      ],
      [
        "vin",
        -9.662388323485452
      ],
      [
        "▁konto",
        -9.662987692873838
      ],
      [
        "ug",
        -9.66544002668764
      ],
      [
        "bild",
        -9.665809152194281
      ],
      [
        "EN",
        -9.666058698808612
      ],
      [
        "ER",
        -9.667116779096018
      ],
      [
        "▁sk",
        -9.667319986483914
      ],
      [
        "▁sig.",
        -9.668301655916464
      ],
      [
        "▁2008",
        -9.669951527416053
      ],
      [
        "▁filmen",
        -9.671438456921424
      ],
      [
        "▁bar",
        -9.672302809049556
      ],
      [
        "▁mesta",
        -9.674246771724862
      ],
      [
        "▁gällande",
        -9.674874235669751
      ],
      [
        "▁Två",
        -9.676564538252531
      ],
      [
        "▁No",
        -9.676697078994222
      ],
      [
        "▁Bi",
        -9.67674486165224
      ],
      [
        "▁valt",
        -9.677076576005733
      ],
      [
        "▁bolag",
        -9.677092196679633
      ],
      [
        "bara",
        -9.67710697952325
      ],
      [
        "ställer",
        -9.677225601066526
      ],
      [
        "og",
        -9.677380753683789
      ],
      [
        "lo",
        -9.677955275386731
      ],
      [
        "▁samhället",
        -9.678428738214103
      ],
      [
        "▁kommentar",
        -9.679116061341874
      ],
      [
        "ek",
        -9.680183805637114
      ],
      [
        "▁litet",
        -9.680312906973871
      ],
      [
        "ok",
        -9.68082598159966
      ],
      [
        "▁Hans",
        -9.681181745720437
      ],
      [
        "▁bas",
        -9.681256918501683
      ],
      [
        "▁Ingen",
        -9.681800414087762
      ],
      [
        "▁säkerhet",
        -9.682081037664421
      ],
      [
        "▁lyssna",
        -9.68230347417589
      ],
      [
        "▁besökare",
        -9.68255233053186
      ],
      [
        "▁matchen",
        -9.684104863769852
      ],
      [
        "▁Fri",
        -9.685563997376224
      ],
      [
        "Varje",
        -9.686017718469193
      ],
      [
        "▁ekonomiska",
        -9.686707438328272
      ],
      [
        "▁Välkommen",
        -9.686707589200006
      ],
      [
        "op",
        -9.68671842320484
      ],
      [
        "▁hårt",
        -9.68718410871766
      ],
      [
        "▁Bar",
        -9.688032372064374
      ],
      [
        "▁tillgängliga",
        -9.689878780958127
      ],
      [
        "Hoppas",
        -9.689929763978718
      ],
      [
        "kor",
        -9.690185965626142
      ],
      [
        "ast",
        -9.690408831518791
      ],
      [
        "▁TV",
        -9.69053233391734
      ],
      [
        "vård",
        -9.690945081038931
      ],
      [
        "▁kon",
        -9.691061789347238
      ],
      [
        "▁EU",
        -9.691551029410943
      ],
      [
        "▁läs",
        -9.692684671298167
      ],
      [
        "▁slå",
        -9.692992936390525
      ],
      [
        "▁fungera",
        -9.693741332902531
      ],
      [
        "▁Ra",
        -9.693870100361082
      ],
      [
        "▁framtiden",
        -9.693994630336395
      ],
      [
        "▁Lite",
        -9.695176556754992
      ],
      [
        "▁tryck",
        -9.695278672476055
      ],
      [
        "▁parti",
        -9.69560603821569
      ],
      [
        "▁barnet",
        -9.69570206069415
      ],
      [
        "och",
        -9.695776812748477
      ],
      [
        "▁stil",
        -9.695911018520878
      ],
      [
        "▁laget",
        -9.69612051345621
      ],
      [
        "▁läst",
        -9.69717727187123
      ],
      [
        "▁sjuk",
        -9.697443537844963
      ],
      [
        "system",
        -9.699158591818081
      ],
      [
        "▁tak",
        -9.699733902108568
      ],
      [
        "▁lager",
        -9.699739785180133
      ],
      [
        "▁leda",
        -9.700054219539885
      ],
      [
        "are.",
        -9.700411659858805
      ],
      [
        "▁önskar",
        -9.702327044429563
      ],
      [
        "ats",
        -9.702719170428482
      ],
      [
        "▁viktigaste",
        -9.703231188950104
      ],
      [
        "▁förutsättningar",
        -9.703381566235477
      ],
      [
        "▁dam",
        -9.705281826643736
      ],
      [
        "program",
        -9.70560103721135
      ],
      [
        "un",
        -9.70679061252757
      ],
      [
        "▁privat",
        -9.707299689438692
      ],
      [
        "▁betydelse",
        -9.708033715349039
      ],
      [
        "ister",
        -9.708519276927753
      ],
      [
        "▁historia",
        -9.709946984852198
      ],
      [
        "▁höst",
        -9.7100462836535
      ],
      [
        "Rewards",
        -9.710114124707601
      ],
      [
        "kr",
        -9.71022204485498
      ],
      [
        "▁styr",
        -9.710434910764985
      ],
      [
        "▁Li",
        -9.7104526240964
      ],
      [
        "ven",
        -9.710677070043253
      ],
      [
        "▁Ro",
        -9.711916501710611
      ],
      [
        "▁sade",
        -9.711941782842752
      ],
      [
        "age",
        -9.712291813767877
      ],
      [
        "▁smak",
        -9.713410211863215
      ],
      [
        "!!!",
        -9.713805506921537
      ],
      [
        "▁lugn",
        -9.714340478250781
      ],
      [
        "pris",
        -9.71497716905985
      ],
      [
        "▁500",
        -9.715413975905632
      ],
      [
        "18",
        -9.715831389143014
      ],
      [
        "▁kommande",
        -9.716364825834749
      ],
      [
        "▁låna",
        -9.716465578643938
      ],
      [
        "▁ben",
        -9.716801259923693
      ],
      [
        "▁år,",
        -9.717026236726847
      ],
      [
        "sida",
        -9.717645705810304
      ],
      [
        "▁drog",
        -9.71785361753545
      ],
      [
        "kända",
        -9.71944726816402
      ],
      [
        "▁=",
        -9.720326095650243
      ],
      [
        "▁Ca",
        -9.720446445807863
      ],
      [
        "▁al",
        -9.721066679224078
      ],
      [
        "▁klicka",
        -9.72137778422066
      ],
      [
        "▁trött",
        -9.721420772866734
      ],
      [
        "▁må",
        -9.72192370580308
      ],
      [
        "▁Bara",
        -9.721954640864212
      ],
      [
        "40",
        -9.72281681920192
      ],
      [
        "▁oss.",
        -9.72400658598682
      ],
      [
        "▁rent",
        -9.724213912305483
      ],
      [
        "▁serie",
        -9.724224562382846
      ],
      [
        "▁Lars",
        -9.724477912024353
      ],
      [
        "▁Andersson",
        -9.725550810432539
      ],
      [
        "inklusive",
        -9.72610756523705
      ],
      [
        "bil",
        -9.726232037046593
      ],
      [
        "▁trodde",
        -9.727329762870514
      ],
      [
        "▁avtal",
        -9.72740725569164
      ],
      [
        "▁marknaden",
        -9.727872435996838
      ],
      [
        "ow",
        -9.728183044553658
      ],
      [
        "tur",
        -9.728289992603859
      ],
      [
        "▁Di",
        -9.729253952921711
      ],
      [
        "▁Fortsätt",
        -9.729741607654592
      ],
      [
        "U",
        -9.730184849345841
      ],
      [
        "▁övrigt",
        -9.730496645629149
      ],
      [
        "pass",
        -9.73077822546806
      ],
      [
        "▁trevlig",
        -9.730785526848482
      ],
      [
        "Klicka",
        -9.731719548138997
      ],
      [
        "▁tydligt",
        -9.732738757102034
      ],
      [
        "▁kläder",
        -9.732868142405154
      ],
      [
        "▁flytta",
        -9.733340934858573
      ],
      [
        "▁spår",
        -9.733476646112685
      ],
      [
        "up",
        -9.734387075998912
      ],
      [
        "”,",
        -9.734817316983005
      ],
      [
        "▁tankar",
        -9.735986971326968
      ],
      [
        "▁tal",
        -9.73600758860313
      ],
      [
        "▁funktion",
        -9.736402471823599
      ],
      [
        "lös",
        -9.736714654284432
      ],
      [
        "▁erbjudanden",
        -9.737105965399085
      ],
      [
        "▁vinter",
        -9.737297524304642
      ],
      [
        "▁tala",
        -9.737305018255528
      ],
      [
        "▁påverkar",
        -9.739099276931533
      ],
      [
        "▁låt",
        -9.739727982205793
      ],
      [
        "vik",
        -9.740335044475225
      ],
      [
        "▁modern",
        -9.740541668397519
      ],
      [
        "▁närmare",
        -9.74077099137138
      ],
      [
        "▁däremot",
        -9.74090362357066
      ],
      [
        "▁personliga",
        -9.741174881750304
      ],
      [
        "80",
        -9.74129712109501
      ],
      [
        "▁priset",
        -9.741668422413222
      ],
      [
        "▁Skåne",
        -9.74203966038398
      ],
      [
        "▁kommentarer",
        -9.742217561831298
      ],
      [
        "tan",
        -9.74339352843451
      ],
      [
        "19",
        -9.744028145909802
      ],
      [
        "▁Gud",
        -9.74419040908154
      ],
      [
        "▁(S",
        -9.744197013821115
      ],
      [
        "▁Erik",
        -9.744292320266467
      ],
      [
        "▁dig.",
        -9.744293079745317
      ],
      [
        "▁Kom",
        -9.744474248366018
      ],
      [
        "▁kurs",
        -9.745191275904656
      ],
      [
        "lade",
        -9.745511256850339
      ],
      [
        "fors",
        -9.745826924175226
      ],
      [
        "▁svara",
        -9.747107396916094
      ],
      [
        "▁guld",
        -9.748178038579463
      ],
      [
        "▁Trots",
        -9.749139277847357
      ],
      [
        "▁kallade",
        -9.749641338211374
      ],
      [
        "▁Lund",
        -9.749708853784073
      ],
      [
        "du",
        -9.750650147068914
      ],
      [
        "▁områden",
        -9.75114093678576
      ],
      [
        "▁bank",
        -9.751162643188122
      ],
      [
        "▁skäl",
        -9.751898992626792
      ],
      [
        "▁Mitt",
        -9.752208812218603
      ],
      [
        "gren",
        -9.752689338516372
      ],
      [
        "▁Finns",
        -9.752914347941235
      ],
      [
        "▁säsongen",
        -9.753223239455632
      ],
      [
        "▁Hotels.com",
        -9.75370729522092
      ],
      [
        "▁talar",
        -9.75379056515175
      ],
      [
        "▁tv",
        -9.75427252947211
      ],
      [
        "skolan",
        -9.754949156376496
      ],
      [
        "▁äter",
        -9.755541422583603
      ],
      [
        "ber",
        -9.755543927643858
      ],
      [
        "▁dejtingsida",
        -9.756387135186522
      ],
      [
        "▁brott",
        -9.75705165484341
      ],
      [
        "▁prova",
        -9.757208951277985
      ],
      [
        "he",
        -9.757544404769275
      ],
      [
        "▁listan",
        -9.757576476661452
      ],
      [
        "gick",
        -9.758105696938845
      ],
      [
        "▁chans",
        -9.758174068419482
      ],
      [
        "▁valde",
        -9.75844843489775
      ],
      [
        "▁säkerhets",
        -9.75950075461514
      ],
      [
        "▁område",
        -9.759832359008092
      ],
      [
        "▁timme",
        -9.76065621319627
      ],
      [
        "▁bidrag",
        -9.761255715175606
      ],
      [
        "pp",
        -9.761561088806708
      ],
      [
        "betydligt",
        -9.761690578302
      ],
      [
        "▁känsla",
        -9.765223426020665
      ],
      [
        "▁död",
        -9.76577928625362
      ],
      [
        "ba",
        -9.767021984155104
      ],
      [
        "▁innehåll",
        -9.768120036903111
      ],
      [
        "▁villkor",
        -9.768155942907876
      ],
      [
        "vore",
        -9.769228867294897
      ],
      [
        "▁Berg",
        -9.769589768189638
      ],
      [
        "ernas",
        -9.769844949935752
      ],
      [
        "▁borta",
        -9.769980094543103
      ],
      [
        "▁mil",
        -9.770565691261233
      ],
      [
        "ism",
        -9.771217266271794
      ],
      [
        "▁klimat",
        -9.771741216053492
      ],
      [
        "▁kontrollera",
        -9.771973139766622
      ],
      [
        "▁mängd",
        -9.772274948353772
      ],
      [
        "▁tittar",
        -9.772657413962026
      ],
      [
        "▁'",
        -9.773090656149918
      ],
      [
        "▁3.",
        -9.773183812278614
      ],
      [
        "▁skydda",
        -9.774025265885093
      ],
      [
        "▁Låt",
        -9.774052101411307
      ],
      [
        "▁Ka",
        -9.77416756597778
      ],
      [
        "▁special",
        -9.774680047558082
      ],
      [
        "&",
        -9.775175883284545
      ],
      [
        "▁Pris",
        -9.775371141379845
      ],
      [
        "lighet",
        -9.775383310810458
      ],
      [
        "▁Nya",
        -9.776163428973595
      ],
      [
        "▁nivå",
        -9.77748171161797
      ],
      [
        "▁tjej",
        -9.77778249254762
      ],
      [
        "nas",
        -9.77862449504691
      ],
      [
        "vatten",
        -9.779438913334639
      ],
      [
        "▁polis",
        -9.77949426534325
      ],
      [
        "▁ensam",
        -9.77990348730971
      ],
      [
        "▁medlem",
        -9.780052253864268
      ],
      [
        "▁nån",
        -9.780368148667906
      ],
      [
        "▁Mat",
        -9.780723954001234
      ],
      [
        "▁kärlek",
        -9.78121119441738
      ],
      [
        "▁Välj",
        -9.782196785159854
      ],
      [
        "▁FV",
        -9.782671120520952
      ],
      [
        "▁helg",
        -9.782961918261924
      ],
      [
        "▁väder",
        -9.783081322309133
      ],
      [
        "utgör",
        -9.783403670419009
      ],
      [
        "▁fönster",
        -9.783960657752084
      ],
      [
        "kom",
        -9.784203935926774
      ],
      [
        "▁ungdomar",
        -9.784944343300475
      ],
      [
        "vid",
        -9.785119796405484
      ],
      [
        "rar",
        -9.785511277170121
      ],
      [
        "▁fantastiskt",
        -9.785790912368395
      ],
      [
        "▁koll",
        -9.786476740587574
      ],
      [
        "▁starkt",
        -9.786936995214386
      ],
      [
        "Z",
        -9.787010173706337
      ],
      [
        "per",
        -9.787096317769644
      ],
      [
        "gång",
        -9.787603045402756
      ],
      [
        "▁Tre",
        -9.787621995496195
      ],
      [
        "net",
        -9.787645639644897
      ],
      [
        "▁lägenhet",
        -9.787694613414295
      ],
      [
        "▁skatte",
        -9.787930024566165
      ],
      [
        "van",
        -9.788713476890372
      ],
      [
        "▁därefter",
        -9.788785501481552
      ],
      [
        "▁läkare",
        -9.788789312579787
      ],
      [
        "14",
        -9.789743287032906
      ],
      [
        "▁öppen",
        -9.790953455461878
      ],
      [
        "▁Ar",
        -9.793516062852015
      ],
      [
        "utveckling",
        -9.795094299397372
      ],
      [
        "Vilken",
        -9.795588622784912
      ],
      [
        "dom",
        -9.796467606791381
      ],
      [
        "▁tvinga",
        -9.797014818537109
      ],
      [
        "▁kalla",
        -9.797544796005687
      ],
      [
        "▁nej",
        -9.79782105391766
      ],
      [
        "▁fa",
        -9.797996255218662
      ],
      [
        "▁passa",
        -9.79933152012556
      ],
      [
        "▁free",
        -9.800501796556313
      ],
      [
        "▁försök",
        -9.800755548094774
      ],
      [
        "est",
        -9.80132812656618
      ],
      [
        "▁fantastisk",
        -9.801627752258259
      ],
      [
        "▁ligga",
        -9.802211600562904
      ],
      [
        "▁stan",
        -9.802272105965637
      ],
      [
        "▁självklart",
        -9.802458868832018
      ],
      [
        "li",
        -9.8027303206817
      ],
      [
        "▁me",
        -9.80362399878319
      ],
      [
        "▁Jan",
        -9.80435971442935
      ],
      [
        "Ibland",
        -9.804368758396208
      ],
      [
        "arna.",
        -9.805275690955984
      ],
      [
        "▁omdömet",
        -9.805711544481431
      ],
      [
        "▁skada",
        -9.807233810684023
      ],
      [
        "▁Me",
        -9.807786620096405
      ],
      [
        "stod",
        -9.808427005847122
      ],
      [
        "yl",
        -9.808540936392532
      ],
      [
        "▁projektet",
        -9.808645830922128
      ],
      [
        "▁tillstånd",
        -9.808668000367957
      ],
      [
        "▁stress",
        -9.809324316691256
      ],
      [
        "▁ändring",
        -9.809671122192778
      ],
      [
        "sätter",
        -9.809748798648664
      ],
      [
        "▁ihåg",
        -9.809764869215194
      ],
      [
        "▁saknar",
        -9.810645921581616
      ],
      [
        "▁anställda",
        -9.810652706163745
      ],
      [
        "▁middag",
        -9.810715862386019
      ],
      [
        "▁sidor",
        -9.811201337486619
      ],
      [
        "Få",
        -9.812163766456372
      ],
      [
        "▁skit",
        -9.812347864717271
      ],
      [
        "▁köper",
        -9.812552679978491
      ],
      [
        "▁varmt",
        -9.812961332679704
      ],
      [
        "drygt",
        -9.813448136443911
      ],
      [
        "▁lösa",
        -9.814276747923117
      ],
      [
        "▁Fast",
        -9.814306117257626
      ],
      [
        "17",
        -9.815256072060519
      ],
      [
        "▁lön",
        -9.816361287331649
      ],
      [
        "skor",
        -9.816589793124745
      ],
      [
        "▁populära",
        -9.81772328018101
      ],
      [
        "▁www.",
        -9.818320293631317
      ],
      [
        "▁sluta",
        -9.818901637952866
      ],
      [
        "▁restaurang",
        -9.819023578508721
      ],
      [
        "▁trafik",
        -9.819418768895838
      ],
      [
        "▁princip",
        -9.820167181802725
      ],
      [
        "▁beställa",
        -9.820360284127778
      ],
      [
        "ning.",
        -9.820847365109204
      ],
      [
        "▁Ju",
        -9.821541198233993
      ],
      [
        "▁Andra",
        -9.821894112185554
      ],
      [
        "▁spelet",
        -9.822097281428217
      ],
      [
        "▁Använd",
        -9.822181900630236
      ],
      [
        "▁sälja",
        -9.822454316070319
      ],
      [
        "▁Själv",
        -9.8227005768057
      ],
      [
        "rik",
        -9.82275823878886
      ],
      [
        "▁promenad",
        -9.823061650373294
      ],
      [
        "▁också.",
        -9.823229829444593
      ],
      [
        "▁ägg",
        -9.823266165439895
      ],
      [
        "ret",
        -9.823454664758518
      ],
      [
        "▁utbud",
        -9.823689138809833
      ],
      [
        "▁vit",
        -9.824256076020394
      ],
      [
        "ud",
        -9.824646922966988
      ],
      [
        "▁mannen",
        -9.824757265407216
      ],
      [
        "▁solen",
        -9.825208068789587
      ],
      [
        "brott",
        -9.825555877830691
      ],
      [
        "▁medarbetare",
        -9.825703879556992
      ],
      [
        "▁häst",
        -9.826421628680889
      ],
      [
        "▁bakgrund",
        -9.82704108189026
      ],
      [
        "enbart",
        -9.82724145454125
      ],
      [
        "andet",
        -9.828175961740058
      ],
      [
        "▁leta",
        -9.82818179735711
      ],
      [
        "▁lagt",
        -9.828536903471566
      ],
      [
        "▁våren",
        -9.828568079988825
      ],
      [
        "▁Mar",
        -9.82876984570439
      ],
      [
        "mon",
        -9.829554763942996
      ],
      [
        "▁lördag",
        -9.82969018061612
      ],
      [
        "produkter",
        -9.830130061329369
      ],
      [
        "▁förbi",
        -9.830265332926723
      ],
      [
        "▁våld",
        -9.830799266133301
      ],
      [
        "▁80",
        -9.832276179154693
      ],
      [
        "ökad",
        -9.832581896899187
      ],
      [
        "▁satte",
        -9.833640721376002
      ],
      [
        "▁starta",
        -9.834537164592973
      ],
      [
        "▁Gratis",
        -9.834812145840397
      ],
      [
        "60",
        -9.83561739451306
      ],
      [
        "▁brand",
        -9.83602587529272
      ],
      [
        "▁Hej",
        -9.837415010404053
      ],
      [
        "▁(1",
        -9.83800457759001
      ],
      [
        "▁ingenting",
        -9.838069954332623
      ],
      [
        "▁effekt",
        -9.83818141528534
      ],
      [
        "▁politiska",
        -9.839177861740989
      ],
      [
        "▁fredag",
        -9.839776915784233
      ],
      [
        "▁cykel",
        -9.840026638163131
      ],
      [
        "▁ut.",
        -9.841176263997358
      ],
      [
        "Några",
        -9.841386018936973
      ],
      [
        "rad",
        -9.841681764325086
      ],
      [
        "fin",
        -9.843122516750377
      ],
      [
        "▁Car",
        -9.843762867298073
      ],
      [
        "▁35",
        -9.843841791032947
      ],
      [
        "90",
        -9.84509489153131
      ],
      [
        "▁äntligen",
        -9.84539076450459
      ],
      [
        "▁mån",
        -9.846066800027234
      ],
      [
        "one",
        -9.846439982426679
      ],
      [
        "▁internationella",
        -9.847050859988485
      ],
      [
        "▁lämnar",
        -9.847361949054664
      ],
      [
        "▁knappt",
        -9.847782358083998
      ],
      [
        "kon",
        -9.848036801068353
      ],
      [
        "▁åtta",
        -9.848863942810537
      ],
      [
        "▁utvecklas",
        -9.84898632622333
      ],
      [
        "▁Martin",
        -9.849544468437829
      ],
      [
        "▁sova",
        -9.849591312940792
      ],
      [
        "ligen",
        -9.8498397698045
      ],
      [
        "▁delta",
        -9.849843313714764
      ],
      [
        "▁sam",
        -9.850079523104373
      ],
      [
        "▁njuta",
        -9.850614363290871
      ],
      [
        "▁omdöme",
        -9.850963574732004
      ],
      [
        "▁webbplats",
        -9.851866351103142
      ],
      [
        "▁tid.",
        -9.852066326401472
      ],
      [
        "▁Hotell",
        -9.853267983144281
      ],
      [
        "▁hittat",
        -9.853377987428699
      ],
      [
        "▁pratar",
        -9.853738562720846
      ],
      [
        "ledare",
        -9.854010345730996
      ],
      [
        "▁idé",
        -9.854083272219572
      ],
      [
        "-10",
        -9.854341249281747
      ],
      [
        "näs",
        -9.85447232097754
      ],
      [
        "▁vinst",
        -9.85455722295697
      ],
      [
        "▁hamna",
        -9.85461897689095
      ],
      [
        "dvs",
        -9.8552735280281
      ],
      [
        "▁plus",
        -9.85557913072368
      ],
      [
        "▁sp",
        -9.855671327683083
      ],
      [
        "ades",
        -9.85583093269876
      ],
      [
        "▁Din",
        -9.855919848492764
      ],
      [
        "▁vita",
        -9.85655289480911
      ],
      [
        "▁modell",
        -9.858315513894752
      ],
      [
        "▁fantastiska",
        -9.858523073447358
      ],
      [
        "▁försäljning",
        -9.858971941318355
      ],
      [
        "▁resten",
        -9.859207767221553
      ],
      [
        "mor",
        -9.85993822326564
      ],
      [
        "ung",
        -9.86001807251131
      ],
      [
        "jämfört",
        -9.860234050905241
      ],
      [
        "ff",
        -9.860287516121327
      ],
      [
        "▁samhälls",
        -9.860894964368441
      ],
      [
        "OF",
        -9.86123132784311
      ],
      [
        "▁Bil",
        -9.861266982003551
      ],
      [
        "borg",
        -9.861282184144184
      ],
      [
        "▁70",
        -9.86204293730679
      ],
      [
        "▁samla",
        -9.862804546968896
      ],
      [
        "▁stanna",
        -9.863234543321994
      ],
      [
        "kläder",
        -9.86328127360567
      ],
      [
        "medel",
        -9.863915311344053
      ],
      [
        "chef",
        -9.864557633657288
      ],
      [
        "▁naturligtvis",
        -9.8649179239449
      ],
      [
        "▁söndag",
        -9.865561430374644
      ],
      [
        "▁Kommun",
        -9.865712000096801
      ],
      [
        "▁brev",
        -9.865741852319937
      ],
      [
        "▁Lag",
        -9.86578538450595
      ],
      [
        "▁Val",
        -9.866108431742589
      ],
      [
        "ina",
        -9.867373645531718
      ],
      [
        "▁Sch",
        -9.867672788992524
      ],
      [
        "▁härlig",
        -9.868584317427134
      ],
      [
        "▁frukt",
        -9.86877068125865
      ],
      [
        "känt",
        -9.868803178702011
      ],
      [
        "Hotels.comT",
        -9.868840083399792
      ],
      [
        "▁uppgift",
        -9.869604341903944
      ],
      [
        "▁antingen",
        -9.870961870731673
      ],
      [
        "▁mg",
        -9.872182312187778
      ],
      [
        "▁förmåga",
        -9.872492869117032
      ],
      [
        "sidan",
        -9.872588889901222
      ],
      [
        "▁kostnader",
        -9.873234561788925
      ],
      [
        "arbete",
        -9.873430454881268
      ],
      [
        "▁2007",
        -9.874459313566513
      ],
      [
        "▁Sol",
        -9.874617543442005
      ],
      [
        "▁centrum",
        -9.874760742283978
      ],
      [
        "ty",
        -9.875156754386369
      ],
      [
        "tjänst",
        -9.87529402052837
      ],
      [
        "▁foto",
        -9.875769381636978
      ],
      [
        "▁regn",
        -9.876553651654852
      ],
      [
        "▁Do",
        -9.878530516764636
      ],
      [
        "Se",
        -9.879050971193033
      ],
      [
        "▁betalning",
        -9.879387140706923
      ],
      [
        "▁undvika",
        -9.882098733436377
      ],
      [
        "▁Gi",
        -9.882546875438731
      ],
      [
        "▁bilar",
        -9.88311959017966
      ],
      [
        "▁ersättning",
        -9.883437634540122
      ],
      [
        "dig",
        -9.88388876062566
      ],
      [
        "▁;)",
        -9.884763916685372
      ],
      [
        "▁koppla",
        -9.884818450962975
      ],
      [
        "▁lösning",
        -9.885081377832423
      ],
      [
        "▁undrar",
        -9.885085619752603
      ],
      [
        "Det",
        -9.885501414955353
      ],
      [
        "▁San",
        -9.885561730563726
      ],
      [
        "▁själv.",
        -9.88570896334483
      ],
      [
        "ub",
        -9.885787108594885
      ],
      [
        "▁ålder",
        -9.88624001469185
      ],
      [
        "▁uttryck",
        -9.886551011036367
      ],
      [
        "finner",
        -9.887011199010002
      ],
      [
        "▁kr.",
        -9.887208143315926
      ],
      [
        "▁ung",
        -9.887411648424068
      ],
      [
        "▁kropp",
        -9.88745349073904
      ],
      [
        "nes",
        -9.887929980942275
      ],
      [
        "Å",
        -9.888189053359868
      ],
      [
        "▁blod",
        -9.888264119807653
      ],
      [
        "klass",
        -9.89023055379379
      ],
      [
        "lån",
        -9.89028665344718
      ],
      [
        "▁bl",
        -9.890997112392261
      ],
      [
        "16",
        -9.891329408291261
      ],
      [
        "24",
        -9.891543789947367
      ],
      [
        "ris",
        -9.892279800644262
      ],
      [
        "▁Johansson",
        -9.892816167774134
      ],
      [
        "▁aktiviteter",
        -9.892843368680087
      ],
      [
        "▁Nr",
        -9.893138662049607
      ],
      [
        "▁tionde",
        -9.894718666536539
      ],
      [
        "▁År",
        -9.895381200104463
      ],
      [
        "▁ton",
        -9.896471680396845
      ],
      [
        "▁period",
        -9.89681857476226
      ],
      [
        "▁Först",
        -9.897128369871112
      ],
      [
        "▁annorlunda",
        -9.897339982515248
      ],
      [
        "▁budget",
        -9.897382152057125
      ],
      [
        "▁alkohol",
        -9.897641766780584
      ],
      [
        "▁hot",
        -9.898014529762623
      ],
      [
        "▁[...]",
        -9.898134410684282
      ],
      [
        "▁Bland",
        -9.898159357265136
      ],
      [
        "▁dejt",
        -9.898337429739922
      ],
      [
        "▁dålig",
        -9.898511021697482
      ],
      [
        "▁Stor",
        -9.898522848487506
      ],
      [
        "▁utvecklingen",
        -9.899491465992863
      ],
      [
        "▁ansökan",
        -9.899875058985652
      ],
      [
        "▁butik",
        -9.899934069275204
      ],
      [
        "▁plast",
        -9.900498572137593
      ],
      [
        "▁patienter",
        -9.900743376766647
      ],
      [
        "▁Lägg",
        -9.901148405728552
      ],
      [
        "▁Fredrik",
        -9.901382722870766
      ],
      [
        "rna",
        -9.901749523459733
      ],
      [
        "▁OK",
        -9.901923754912852
      ],
      [
        "▁Dam",
        -9.902456911534824
      ],
      [
        "▁Norge",
        -9.902505607451545
      ],
      [
        "▁perfekta",
        -9.903500144574078
      ],
      [
        "▁Park",
        -9.904698175854854
      ],
      [
        "▁mår",
        -9.905033862793843
      ],
      [
        "ac",
        -9.905951783179608
      ],
      [
        "laget",
        -9.906151880482376
      ],
      [
        "▁växer",
        -9.906193590885438
      ],
      [
        "13",
        -9.90732511165371
      ],
      [
        "▁någonsin",
        -9.907381414798328
      ],
      [
        "▁2020",
        -9.907444746910244
      ],
      [
        "▁använt",
        -9.908241036182133
      ],
      [
        "▁Örebro",
        -9.908881957209166
      ],
      [
        "▁klarar",
        -9.909875443893359
      ],
      [
        "▁choklad",
        -9.910220221064668
      ],
      [
        "▁Foto:",
        -9.910373085169642
      ],
      [
        "▁stockholm",
        -9.911851362312726
      ],
      [
        "▁mjuk",
        -9.912645482786253
      ],
      [
        "▁Bästa",
        -9.913217055967207
      ],
      [
        "▁säkra",
        -9.913481863087654
      ],
      [
        "▁Hos",
        -9.913489637893488
      ],
      [
        "▁plocka",
        -9.914345116553438
      ],
      [
        "tes",
        -9.915663934150936
      ],
      [
        "ran",
        -9.916158846955408
      ],
      [
        "▁kommuner",
        -9.916610544442154
      ],
      [
        "ella",
        -9.917062060300038
      ],
      [
        "slagen",
        -9.917081376967012
      ],
      [
        "🙂",
        -9.91713325143276
      ],
      [
        "▁sten",
        -9.917514801568231
      ],
      [
        "▁namnet",
        -9.917832954981522
      ],
      [
        "▁räcker",
        -9.917917490928993
      ],
      [
        "▁universitet",
        -9.918053659150452
      ],
      [
        "▁Sätt",
        -9.918107948589647
      ],
      [
        "▁kombination",
        -9.918235545786676
      ],
      [
        "▁norr",
        -9.918390473688971
      ],
      [
        "Ö",
        -9.918616111192213
      ],
      [
        "▁mode",
        -9.918844442292777
      ],
      [
        "bart",
        -9.91892935494474
      ],
      [
        "yr",
        -9.91898332947209
      ],
      [
        "▁slog",
        -9.919502057619345
      ],
      [
        "▁timmen",
        -9.920224242415184
      ],
      [
        "tte",
        -9.920240847007516
      ],
      [
        "▁högst",
        -9.92147658826667
      ],
      [
        "resa",
        -9.921900451987034
      ],
      [
        "▁kronor.",
        -9.922150168762295
      ],
      [
        "▁live",
        -9.922399830833587
      ],
      [
        "tt*",
        -9.92246873186748
      ],
      [
        "▁möjliga",
        -9.922481221635788
      ],
      [
        "▁föreningen",
        -9.922814350456203
      ],
      [
        "▁visas",
        -9.922892070452917
      ],
      [
        "▁lyckades",
        -9.923715817616054
      ],
      [
        "▁lösningar",
        -9.924766894409771
      ],
      [
        "▁Gör",
        -9.925320754961367
      ],
      [
        "▁transport",
        -9.925734111835578
      ],
      [
        "lagen",
        -9.926650131508161
      ],
      [
        "▁hälso",
        -9.92691679320453
      ],
      [
        "ho",
        -9.92706385307815
      ],
      [
        "▁världs",
        -9.92733897204503
      ],
      [
        "▁öppet",
        -9.927360974804964
      ],
      [
        "▁Inn",
        -9.927690652561756
      ],
      [
        "tog",
        -9.928114650570317
      ],
      [
        "förutom",
        -9.928475243691121
      ],
      [
        "Ä",
        -9.929014289270144
      ],
      [
        "▁Ri",
        -9.929443790895899
      ],
      [
        "▁Er",
        -9.930327460685326
      ],
      [
        "▁möta",
        -9.93049771735889
      ],
      [
        "▁himla",
        -9.9308042897856
      ],
      [
        "start",
        -9.930936548362295
      ],
      [
        "▁plötsligt",
        -9.931919819123191
      ],
      [
        "▁svår",
        -9.9325539054815
      ],
      [
        ":00",
        -9.933329603268609
      ],
      [
        "▁jord",
        -9.934029320612844
      ],
      [
        "ika",
        -9.934258900325636
      ],
      [
        "25",
        -9.934515634428266
      ],
      [
        "▁resultatet",
        -9.934682547466295
      ],
      [
        "▁ordning",
        -9.935156601156725
      ],
      [
        "▁Sam",
        -9.935223482455152
      ],
      [
        "▁gett",
        -9.936855968919765
      ],
      [
        "▁Casino",
        -9.937059543063334
      ],
      [
        "▁Nord",
        -9.937185305621318
      ],
      [
        "▁miljarder",
        -9.937253825565335
      ],
      [
        "▁>",
        -9.937491682021934
      ],
      [
        "tiden",
        -9.93751080861223
      ],
      [
        "▁nummer",
        -9.937769395576684
      ],
      [
        "▁Internet",
        -9.937950255884761
      ],
      [
        "▁nät",
        -9.93825162016011
      ],
      [
        "gas",
        -9.938487906240612
      ],
      [
        "information",
        -9.938948739008175
      ],
      [
        "stående",
        -9.939146781261732
      ],
      [
        "▁rättigheter",
        -9.939221354245479
      ],
      [
        "▁visste",
        -9.939931599500103
      ],
      [
        "▁enkla",
        -9.940132113257036
      ],
      [
        "▁He",
        -9.940384637730551
      ],
      [
        "ros",
        -9.940402230858728
      ],
      [
        "▁någonting",
        -9.941274904249154
      ],
      [
        "▁vacker",
        -9.941427470363845
      ],
      [
        "▁satsa",
        -9.94160152916021
      ],
      [
        "▁partner",
        -9.942561538808121
      ],
      [
        "▁platsen",
        -9.942913038972957
      ],
      [
        "▁slag",
        -9.943117051042012
      ],
      [
        "▁säljer",
        -9.943242299478625
      ],
      [
        "▁bostads",
        -9.943878787670261
      ],
      [
        "▁Stockholm.",
        -9.94451824634477
      ],
      [
        "70",
        -9.944636154569785
      ],
      [
        "▁nuvarande",
        -9.944887575652045
      ],
      [
        "▁eleverna",
        -9.944951377991318
      ],
      [
        "ill",
        -9.945362522953712
      ],
      [
        "Mer",
        -9.945793155753602
      ],
      [
        "▁(19",
        -9.946017054506058
      ],
      [
        "▁Google",
        -9.946690111540978
      ],
      [
        "▁nåt",
        -9.946892269633631
      ],
      [
        "▁intresserad",
        -9.946982970612824
      ],
      [
        "▁kyrkan",
        -9.947125051863956
      ],
      [
        "▁nyligen",
        -9.94811055448313
      ],
      [
        "▁MEJLADRESS",
        -9.94826292305143
      ],
      [
        "▁Go",
        -9.94846350921439
      ],
      [
        "▁ställe",
        -9.948697876095679
      ],
      [
        "▁amerikanska",
        -9.949842623362285
      ],
      [
        "äng",
        -9.951216677690526
      ],
      [
        "ron",
        -9.951590113124901
      ],
      [
        "▁Nästa",
        -9.951735006369793
      ],
      [
        "▁band",
        -9.952411957491268
      ],
      [
        "▁röd",
        -9.952981137763071
      ],
      [
        "bjuder",
        -9.953145408407485
      ],
      [
        "▁möte",
        -9.953174997500087
      ],
      [
        "Vilka",
        -9.95347400198279
      ],
      [
        "▁riktig",
        -9.953821074181663
      ],
      [
        "bolag",
        -9.954030091477039
      ],
      [
        "▁Pi",
        -9.954198287304495
      ],
      [
        "▁natten",
        -9.955277823203556
      ],
      [
        "▁Visst",
        -9.95574348751439
      ],
      [
        "▁Anmäl",
        -9.955779743188293
      ],
      [
        "▁programmet",
        -9.956711744061797
      ],
      [
        "ong",
        -9.957069379812946
      ],
      [
        "▁Hög",
        -9.957595729484755
      ],
      [
        "▁startade",
        -9.957652998074957
      ],
      [
        "som",
        -9.95775386727192
      ],
      [
        "▁datum",
        -9.957793677563474
      ],
      [
        "▁Svensk",
        -9.95861005016214
      ],
      [
        "▁Tor",
        -9.95870238664304
      ],
      [
        "▁framåt",
        -9.959088445968401
      ],
      [
        "▁Ge",
        -9.959844475688106
      ],
      [
        "▁ges",
        -9.960759556769576
      ],
      [
        "behandling",
        -9.961062151635142
      ],
      [
        "▁trevligt",
        -9.96148851854088
      ],
      [
        "▁möjligheten",
        -9.961813999051252
      ],
      [
        "▁köpt",
        -9.962097075814672
      ],
      [
        "▁förklara",
        -9.962750968053474
      ],
      [
        "▁media",
        -9.962789690500177
      ],
      [
        "▁leverans",
        -9.96438773650628
      ],
      [
        "▁utför",
        -9.964784240972277
      ],
      [
        "▁fisk",
        -9.965179625995873
      ],
      [
        "pan",
        -9.965739921599257
      ],
      [
        "▁kommunikation",
        -9.965790671835322
      ],
      [
        ".se/",
        -9.966139815571843
      ],
      [
        "od",
        -9.967388688124975
      ],
      [
        "ag",
        -9.967493025311283
      ],
      [
        "ight",
        -9.967493685136551
      ],
      [
        "=",
        -9.96838735562163
      ],
      [
        "▁info",
        -9.968532402687739
      ],
      [
        "▁motor",
        -9.969298925128918
      ],
      [
        "heten",
        -9.969300200001156
      ],
      [
        "▁studier",
        -9.969337964166975
      ],
      [
        "▁Online",
        -9.969580113836733
      ],
      [
        "▁längs",
        -9.970676845432694
      ],
      [
        "▁Dock",
        -9.970727422960959
      ],
      [
        "▁mjölk",
        -9.970981916325805
      ],
      [
        "▁fl",
        -9.971075663034974
      ],
      [
        "rit",
        -9.972202495492398
      ],
      [
        "▁Del",
        -9.972282788950661
      ],
      [
        "▁hänt",
        -9.972584907269653
      ],
      [
        "▁pre",
        -9.972648592127777
      ],
      [
        "förbundet",
        -9.972663797826073
      ],
      [
        "▁utnyttja",
        -9.97279292764988
      ],
      [
        "isering",
        -9.973017378143913
      ],
      [
        "▁45",
        -9.97323146299528
      ],
      [
        "vo",
        -9.973353610940453
      ],
      [
        "▁skydd",
        -9.974365055026778
      ],
      [
        "▁såklart",
        -9.974451227165503
      ],
      [
        "holm",
        -9.974786155591353
      ],
      [
        "▁tillväxt",
        -9.97517714031583
      ],
      [
        "Vissa",
        -9.975234781422591
      ],
      [
        "are,",
        -9.975318478748562
      ],
      [
        "▁människa",
        -9.975624028288976
      ],
      [
        "▁icke",
        -9.975679590356867
      ],
      [
        "råd",
        -9.976174512498483
      ],
      [
        "▁bedriv",
        -9.976470004194432
      ],
      [
        "▁glädje",
        -9.978022292671247
      ],
      [
        "▁dans",
        -9.978579675241171
      ],
      [
        "hand",
        -9.97906930110087
      ],
      [
        "sätt",
        -9.979157854137826
      ],
      [
        "▁målet",
        -9.979682704295161
      ],
      [
        "▁(som",
        -9.980345677662312
      ],
      [
        "▁fördel",
        -9.980762665621144
      ],
      [
        "▁lek",
        -9.981153224353546
      ],
      [
        "lösa",
        -9.981656991697388
      ],
      [
        "utbildning",
        -9.98240116488313
      ],
      [
        "▁kombinera",
        -9.982484775021959
      ],
      [
        "erar",
        -9.98272181840998
      ],
      [
        "Igår",
        -9.98283829857803
      ],
      [
        "▁Carl",
        -9.983172613787252
      ],
      [
        "▁straff",
        -9.983208561233173
      ],
      [
        "▁08",
        -9.983368391840594
      ],
      [
        "▁tåg",
        -9.983514208140452
      ],
      [
        "Jag",
        -9.983636890246775
      ],
      [
        "and",
        -9.984339248387533
      ],
      [
        "ben",
        -9.984511527168015
      ],
      [
        "▁sikt",
        -9.984538422436668
      ],
      [
        "▁färger",
        -9.984848349137927
      ],
      [
        "▁skön",
        -9.985412070369092
      ],
      [
        "▁välkomna",
        -9.985414069788511
      ],
      [
        "▁City",
        -9.985713557133309
      ],
      [
        "▁dels",
        -9.986682087964438
      ],
      [
        "▁press",
        -9.98671924705857
      ],
      [
        "▁förhållande",
        -9.986721995892923
      ],
      [
        "skickade",
        -9.986836042668925
      ],
      [
        "21",
        -9.98698658163798
      ],
      [
        "▁Dom",
        -9.98709908953622
      ],
      [
        "▁restauranger",
        -9.988139780155755
      ],
      [
        "ator",
        -9.988151316918497
      ],
      [
        "▁gäst",
        -9.989583299910699
      ],
      [
        "▁funkar",
        -9.99015173150546
      ],
      [
        "▁förändring",
        -9.990680335913787
      ],
      [
        "▁närmaste",
        -9.992110417140823
      ],
      [
        "▁London",
        -9.992283339143803
      ],
      [
        "ick",
        -9.992305856124698
      ],
      [
        "▁pengarna",
        -9.992324581023993
      ],
      [
        "▁bestämt",
        -9.993013899183888
      ],
      [
        "▁sällan",
        -9.993201737639438
      ],
      [
        "▁organisation",
        -9.99415370091153
      ],
      [
        "Vi",
        -9.994447412555138
      ],
      [
        "▁måndag",
        -9.99450748279413
      ],
      [
        "▁fot",
        -9.995005108981942
      ],
      [
        "▁Bild",
        -9.99512748472555
      ],
      [
        "▁stads",
        -9.995134347556649
      ],
      [
        "▁tjänst",
        -9.99553958992061
      ],
      [
        "én",
        -9.996392033718442
      ],
      [
        "▁York",
        -9.996497822769268
      ],
      [
        "tter",
        -9.996812680059124
      ],
      [
        "▁Information",
        -9.99716768662157
      ],
      [
        "▁fundera",
        -9.997505766264204
      ],
      [
        "grupp",
        -9.99755829203816
      ],
      [
        "▁normalt",
        -9.997935505512196
      ],
      [
        "ingen",
        -9.998240821073717
      ],
      [
        "▁To",
        -9.9985755271012
      ],
      [
        "▁Con",
        -9.998683562804791
      ],
      [
        "▁aktuella",
        -9.998684718984268
      ],
      [
        "relativt",
        -9.998776075866903
      ],
      [
        "▁di",
        -9.998783922803023
      ],
      [
        "område",
        -9.998869115905524
      ],
      [
        "▁Inga",
        -9.998949815713894
      ],
      [
        "oc",
        -9.999171627975773
      ],
      [
        "let",
        -9.999510511274343
      ],
      [
        "körde",
        -9.999743707997137
      ],
      [
        "▁betalar",
        -9.999833966709017
      ],
      [
        "▁diskutera",
        -10.000099695795598
      ],
      [
        "▁jämför",
        -10.001483793210028
      ],
      [
        "ala",
        -10.001510869218183
      ],
      [
        "▁mitten",
        -10.001741075648896
      ],
      [
        "▁you",
        -10.001955373195951
      ],
      [
        "▁badrum",
        -10.002155547459477
      ],
      [
        "▁besöka",
        -10.002526786732975
      ],
      [
        "▁Få",
        -10.00253929764442
      ],
      [
        "▁Finland",
        -10.002985880862699
      ],
      [
        "▁cookies",
        -10.003272729563482
      ],
      [
        "▁förändringar",
        -10.003332851835014
      ],
      [
        "kraft",
        -10.0033825414301
      ],
      [
        "met",
        -10.003505874937686
      ],
      [
        "▁sättet",
        -10.004674683871997
      ],
      [
        "sättning",
        -10.004806799480358
      ],
      [
        "▁sjukhus",
        -10.006259146201948
      ],
      [
        "▁rummet",
        -10.006260923263543
      ],
      [
        "▁brist",
        -10.00655389399391
      ],
      [
        "▁bio",
        -10.00666911990934
      ],
      [
        "000",
        -10.006960938138246
      ],
      [
        "Förutom",
        -10.007235975936226
      ],
      [
        "▁fallet",
        -10.007320318508343
      ],
      [
        "▁kapital",
        -10.00795181992014
      ],
      [
        "Skulle",
        -10.008119943923298
      ],
      [
        "bra",
        -10.008946136354684
      ],
      [
        "▁centrala",
        -10.008958270651656
      ],
      [
        "▁numera",
        -10.009039290476865
      ],
      [
        "▁varm",
        -10.010069539992426
      ],
      [
        "▁grupper",
        -10.010711485616936
      ],
      [
        "▁följd",
        -10.010791325940106
      ],
      [
        "▁massage",
        -10.0111110274365
      ],
      [
        "-12",
        -10.011563442728539
      ],
      [
        "▁led",
        -10.011621440144593
      ],
      [
        "▁starka",
        -10.011939928273211
      ],
      [
        "▁makt",
        -10.012862404781199
      ],
      [
        "▁anpassa",
        -10.013861794313314
      ],
      [
        "▁slags",
        -10.013884937819238
      ],
      [
        "lit",
        -10.01390041970942
      ],
      [
        "ate",
        -10.01453683839241
      ],
      [
        "Q",
        -10.014715987669303
      ],
      [
        "▁socker",
        -10.015207950960232
      ],
      [
        "link",
        -10.015208739929365
      ],
      [
        "▁skaffa",
        -10.015457409491301
      ],
      [
        "▁uppnå",
        -10.016093142008271
      ],
      [
        "▁Ti",
        -10.016853054052024
      ],
      [
        "▁fylla",
        -10.016915031035673
      ],
      [
        "han",
        -10.018428292428535
      ],
      [
        "▁läkemedel",
        -10.019696381838388
      ],
      [
        "▁analys",
        -10.019915918355812
      ],
      [
        "▁enklare",
        -10.020164794947876
      ],
      [
        "▁fett",
        -10.020300514249483
      ],
      [
        "▁företags",
        -10.020507380934292
      ],
      [
        "gå",
        -10.021082432288889
      ],
      [
        "▁rekommenderar",
        -10.022919164407435
      ],
      [
        "▁Skriv",
        -10.023058636201348
      ],
      [
        "▁sist",
        -10.02393322830695
      ],
      [
        "▁hört",
        -10.024452024557123
      ],
      [
        "▁tiden.",
        -10.024631825545761
      ],
      [
        "anses",
        -10.024925517138692
      ],
      [
        "tryck",
        -10.02509723954823
      ],
      [
        "uk",
        -10.025887047091343
      ],
      [
        "its",
        -10.02593364514848
      ],
      [
        "we",
        -10.026368269071352
      ],
      [
        "snarare",
        -10.026478308057646
      ],
      [
        "strax",
        -10.027281311415575
      ],
      [
        "▁Tyvärr",
        -10.027561588135665
      ],
      [
        "▁uppe",
        -10.027742625142082
      ],
      [
        "▁bry",
        -10.028288502339814
      ],
      [
        "ings",
        -10.028490030647777
      ],
      [
        "ang",
        -10.028738329047087
      ],
      [
        "▁dagarna",
        -10.02876810503296
      ],
      [
        "▁räkna",
        -10.029223251469944
      ],
      [
        "▁Ko",
        -10.029273317112645
      ],
      [
        "▁Hade",
        -10.03109805069927
      ],
      [
        "▁Su",
        -10.031175143979116
      ],
      [
        "▁fixa",
        -10.031461645091253
      ],
      [
        "▁Första",
        -10.031665035597193
      ],
      [
        "▁åtminstone",
        -10.031917397286927
      ],
      [
        "gården",
        -10.03245769267205
      ],
      [
        "▁kök",
        -10.032926203541313
      ],
      [
        "▁översättning",
        -10.033341567954595
      ],
      [
        "▁undan",
        -10.033410966372756
      ],
      [
        "▁mail",
        -10.033872211242212
      ],
      [
        "▁ämnen",
        -10.03391648247491
      ],
      [
        "har",
        -10.033956811574996
      ],
      [
        "▁Sök",
        -10.03451697279698
      ],
      [
        "▁vattnet",
        -10.034801887136709
      ],
      [
        "▁Sp",
        -10.035679858730479
      ],
      [
        "lopp",
        -10.036966781947468
      ],
      [
        "→",
        -10.037792792724384
      ],
      [
        "▁inlägget",
        -10.038660370231781
      ],
      [
        "35",
        -10.038818675952317
      ],
      [
        "▁kille",
        -10.039494824850053
      ],
      [
        "din",
        -10.03989977914076
      ],
      [
        "▁röst",
        -10.040277665198719
      ],
      [
        "varande",
        -10.040510207796487
      ],
      [
        "▁4.",
        -10.040599768324602
      ],
      [
        "▁mor",
        -10.041407047298389
      ],
      [
        "za",
        -10.041661288680775
      ],
      [
        "▁webb",
        -10.043071070012708
      ],
      [
        "▁Bygg",
        -10.043151323887386
      ],
      [
        "ön",
        -10.04326799130814
      ],
      [
        "▁matcher",
        -10.044328577207617
      ],
      [
        "▁grad",
        -10.044988671835
      ],
      [
        "▁2006",
        -10.045121353830032
      ],
      [
        "värde",
        -10.045833461707055
      ],
      [
        "▁liv.",
        -10.046386538308786
      ],
      [
        "▁utföra",
        -10.046667875277441
      ],
      [
        "▁värd",
        -10.047958330721597
      ],
      [
        "skola",
        -10.047988456633842
      ],
      [
        "▁snabba",
        -10.048148666381454
      ],
      [
        "stöd",
        -10.048436672290492
      ],
      [
        "▁Vem",
        -10.049370815858506
      ],
      [
        "blad",
        -10.049471003425143
      ],
      [
        "▁chansen",
        -10.049868617212844
      ],
      [
        "▁affärs",
        -10.050315708298358
      ],
      [
        "service",
        -10.05047243978621
      ],
      [
        "▁personlig",
        -10.050933685666529
      ],
      [
        "▁ringa",
        -10.051565990447823
      ],
      [
        "▁Lind",
        -10.052447477097797
      ],
      [
        "▁Wi",
        -10.053079578910044
      ],
      [
        "▁staten",
        -10.053840458885762
      ],
      [
        "▁valet",
        -10.054020492446002
      ],
      [
        "▁imorgon",
        -10.054920755326766
      ],
      [
        "▁ras",
        -10.055102114332543
      ],
      [
        "▁bloggen",
        -10.055191500974383
      ],
      [
        "rör",
        -10.055393719992091
      ],
      [
        "tta",
        -10.0556272242081
      ],
      [
        "ort",
        -10.056152896512362
      ],
      [
        "▁ring",
        -10.056512358794842
      ],
      [
        "▁Ålder",
        -10.056904779311319
      ],
      [
        "▁My",
        -10.05719244264773
      ],
      [
        "▁funktioner",
        -10.057871550083776
      ],
      [
        "▁användare",
        -10.057909382127562
      ],
      [
        "▁roliga",
        -10.058537819064107
      ],
      [
        "jo",
        -10.05857282235427
      ],
      [
        "▁allmänna",
        -10.058700396420797
      ],
      [
        "▁drift",
        -10.058771835785638
      ],
      [
        "▁Vet",
        -10.059436405472859
      ],
      [
        "▁datorn",
        -10.05970856344992
      ],
      [
        "▁le",
        -10.06058594801569
      ],
      [
        "▁fest",
        -10.060684011279186
      ],
      [
        "▁inspiration",
        -10.060744008958828
      ],
      [
        "▁värt",
        -10.061077906957738
      ],
      [
        "▁äger",
        -10.061215645405188
      ],
      [
        "▁Q",
        -10.061253467290857
      ],
      [
        "ökade",
        -10.062307162674442
      ],
      [
        "▁huvudet",
        -10.06265832803685
      ],
      [
        "▁klubben",
        -10.062902765447475
      ],
      [
        "▁träd",
        -10.063206654105011
      ],
      [
        "▁jorden",
        -10.063238246783323
      ],
      [
        "▁Sex",
        -10.063505154429603
      ],
      [
        "▁spa",
        -10.063900049584417
      ],
      [
        "▁rädda",
        -10.064596671249182
      ],
      [
        "▁Stefan",
        -10.0646206467969
      ],
      [
        "ack",
        -10.064894873029752
      ],
      [
        "▁bedömning",
        -10.065471086021924
      ],
      [
        "▁tecken",
        -10.065810053400103
      ],
      [
        "▁Nilsson",
        -10.06616940432402
      ],
      [
        "material",
        -10.066438553628716
      ],
      [
        "nu",
        -10.06661849886209
      ],
      [
        "sin",
        -10.066652573034013
      ],
      [
        "dde",
        -10.066790088159962
      ],
      [
        "▁politiker",
        -10.066944631918634
      ],
      [
        "män",
        -10.067047797204287
      ],
      [
        "▁lyckats",
        -10.067065106057287
      ],
      [
        "▁livs",
        -10.067571222053365
      ],
      [
        "▁dröm",
        -10.067725631244969
      ],
      [
        "Omdömet",
        -10.068114090815111
      ],
      [
        "▁Gå",
        -10.06828698179622
      ],
      [
        "▁buss",
        -10.069531320403442
      ],
      [
        "’",
        -10.069673212239366
      ],
      [
        "▁Bu",
        -10.069885787230733
      ],
      [
        "▁grader",
        -10.071191102887132
      ],
      [
        "▁avseende",
        -10.071728066010868
      ],
      [
        "▁reklam",
        -10.072170731504373
      ],
      [
        "erande",
        -10.073401393105208
      ],
      [
        "▁kilometer",
        -10.073512202090551
      ],
      [
        "▁sväng",
        -10.073698361206649
      ],
      [
        "ram",
        -10.07384310161544
      ],
      [
        "▁härligt",
        -10.075274331466817
      ],
      [
        "▁omfattande",
        -10.075335362467854
      ],
      [
        "verksamhet",
        -10.076034742600745
      ],
      [
        "▁varumärken",
        -10.076257214774285
      ],
      [
        "löst",
        -10.076637344725926
      ],
      [
        "dagen",
        -10.077536276629347
      ],
      [
        "▁Fa",
        -10.078379463893768
      ],
      [
        "▁Gu",
        -10.07885941735423
      ],
      [
        "▁Frankrike",
        -10.078926702364035
      ],
      [
        "▁We",
        -10.078950060466086
      ],
      [
        "cy",
        -10.079178712368686
      ],
      [
        "▁detaljer",
        -10.079489424417623
      ],
      [
        "▁tränings",
        -10.0802456890431
      ],
      [
        "▁utomhus",
        -10.080374685595624
      ],
      [
        "träning",
        -10.08054035204784
      ],
      [
        "che",
        -10.080595739479273
      ],
      [
        "▁positivt",
        -10.081109131503558
      ],
      [
        "▁problemet",
        -10.08114316279673
      ],
      [
        "bas",
        -10.081168310663225
      ],
      [
        "▁chef",
        -10.081783877858687
      ],
      [
        "▁Tyskland",
        -10.082240148022183
      ],
      [
        "ox",
        -10.082316422774529
      ],
      [
        "▁Italien",
        -10.082579032143903
      ],
      [
        "▁paket",
        -10.083310072271155
      ],
      [
        "▁placera",
        -10.083638236091916
      ],
      [
        "▁idéer",
        -10.083988986180556
      ],
      [
        "▁sämre",
        -10.084548512819842
      ],
      [
        "our",
        -10.084687900746237
      ],
      [
        "▁stycken",
        -10.084803464912186
      ],
      [
        "teknik",
        -10.08491287389435
      ],
      [
        "▁Si",
        -10.085969585600187
      ],
      [
        "▁butiker",
        -10.08665132028221
      ],
      [
        "na,",
        -10.08688570871358
      ],
      [
        "▁snabbare",
        -10.087026471447981
      ],
      [
        "▁300",
        -10.087087100770225
      ],
      [
        "▁röda",
        -10.087171144018368
      ],
      [
        "▁gruppen",
        -10.087359014840228
      ],
      [
        "befinner",
        -10.087587310230326
      ],
      [
        "chi",
        -10.087912514147611
      ],
      [
        "rådet",
        -10.088480526931043
      ],
      [
        "hall",
        -10.088512717198864
      ],
      [
        "▁ses",
        -10.088681183741297
      ],
      [
        "▁orsaka",
        -10.089420719465396
      ],
      [
        "und",
        -10.089572412951044
      ],
      [
        "läge",
        -10.089689749090791
      ],
      [
        "▁klubb",
        -10.089843028002155
      ],
      [
        "▁huden",
        -10.089987817822982
      ],
      [
        "▁gr",
        -10.09001568404625
      ],
      [
        "sel",
        -10.090172986147785
      ],
      [
        "▁filmer",
        -10.090301693924257
      ],
      [
        "▁känd",
        -10.090337885954167
      ],
      [
        "▁motsvarande",
        -10.09052681487751
      ],
      [
        "▁Bro",
        -10.090764485686792
      ],
      [
        "▁beskriver",
        -10.090819523580004
      ],
      [
        "▁lugnt",
        -10.091456502215681
      ],
      [
        "▁marknads",
        -10.0915900609246
      ],
      [
        "line",
        -10.09175002104457
      ],
      [
        "▁Danmark",
        -10.092520958992097
      ],
      [
        "▁Super",
        -10.09277496103029
      ],
      [
        "▁Daniel",
        -10.092951117333252
      ],
      [
        "▁berättade",
        -10.093059074623724
      ],
      [
        "▁använde",
        -10.094071282718726
      ],
      [
        "▁SVT",
        -10.094404810394483
      ],
      [
        "▁rädd",
        -10.094546127883806
      ],
      [
        "▁hyra",
        -10.094774351503652
      ],
      [
        "▁yngre",
        -10.09499072897492
      ],
      [
        "▁ver",
        -10.095785790938287
      ],
      [
        "▁ledare",
        -10.095930276757686
      ],
      [
        "▁gemensamma",
        -10.096012169277605
      ],
      [
        "▁fyller",
        -10.096454266561787
      ],
      [
        "barn",
        -10.097353233458717
      ],
      [
        "▁stoppa",
        -10.09750209202276
      ],
      [
        "▁digitala",
        -10.097510545509998
      ],
      [
        "▁resurser",
        -10.098055478757445
      ],
      [
        "▁värld",
        -10.098248646008052
      ],
      [
        "över",
        -10.100548655117699
      ],
      [
        "▁personen",
        -10.100743703475475
      ],
      [
        "▁jämföra",
        -10.100807758780448
      ],
      [
        "▁inkomst",
        -10.100821245916418
      ],
      [
        "▁båt",
        -10.101323096036491
      ],
      [
        "ras",
        -10.101401410658623
      ],
      [
        "▁moderna",
        -10.101496418976362
      ],
      [
        "AR",
        -10.101535232461638
      ],
      [
        "▁ständigt",
        -10.102455825324338
      ],
      [
        "▁adress",
        -10.102757273265745
      ],
      [
        "▁fart",
        -10.104461680562588
      ],
      [
        "ning,",
        -10.104842579746306
      ],
      [
        "erings",
        -10.10496371167999
      ],
      [
        "▁relation",
        -10.105042054910212
      ],
      [
        "sport",
        -10.105104753995915
      ],
      [
        "▁illa",
        -10.10513402591424
      ],
      [
        "▁görs",
        -10.10519580081391
      ],
      [
        "par",
        -10.105899698171978
      ],
      [
        "systemet",
        -10.106407462203588
      ],
      [
        "▁mera",
        -10.10662403889343
      ],
      [
        "▁So",
        -10.106723198167373
      ],
      [
        "▁ända",
        -10.107505856103067
      ],
      [
        "området",
        -10.108032344761943
      ],
      [
        "▁oerhör",
        -10.108217707440792
      ],
      [
        "▁minns",
        -10.108855081344938
      ],
      [
        "▁Sport",
        -10.108999925531096
      ],
      [
        "ley",
        -10.10900939533506
      ],
      [
        "ost",
        -10.109976821278922
      ],
      [
        "▁magen",
        -10.110070285139741
      ],
      [
        "all",
        -10.110116614090956
      ],
      [
        "▁botten",
        -10.110734116859737
      ],
      [
        "▁Mi",
        -10.111187061886639
      ],
      [
        "bilder",
        -10.111209336961174
      ],
      [
        "▁kol",
        -10.111348389994719
      ],
      [
        "▁nytta",
        -10.11178962864125
      ],
      [
        "▁bl.a.",
        -10.112071406796527
      ],
      [
        "22",
        -10.112259191975621
      ],
      [
        "▁no",
        -10.113111059145313
      ],
      [
        "▁givetvis",
        -10.11343805871481
      ],
      [
        "nor",
        -10.113557369656979
      ],
      [
        "▁känslor",
        -10.113816737703685
      ],
      [
        "▁(1)",
        -10.1141191818403
      ],
      [
        "lik",
        -10.114449976545977
      ],
      [
        "▁rapport",
        -10.11453963902885
      ],
      [
        "▁herr",
        -10.1150339094023
      ],
      [
        "▁serien",
        -10.116025417973052
      ],
      [
        "▁jakt",
        -10.117195564669565
      ],
      [
        "▁oro",
        -10.117377286146409
      ],
      [
        "▁tids",
        -10.117424354121978
      ],
      [
        "▁sjukdom",
        -10.117700566550168
      ],
      [
        "Däremot",
        -10.118084850455238
      ],
      [
        "▁vila",
        -10.11858189097487
      ],
      [
        "▁dotter",
        -10.118671245781306
      ],
      [
        "▁vackert",
        -10.118838968394002
      ],
      [
        "▁Björn",
        -10.119008338889763
      ],
      [
        "▁redo",
        -10.120005376980872
      ],
      [
        "▁hundar",
        -10.120268900697981
      ],
      [
        "▁samhälle",
        -10.120549876703027
      ],
      [
        "▁inled",
        -10.120792039325384
      ],
      [
        "▁karta",
        -10.120968355209143
      ],
      [
        "▁kallar",
        -10.121034027318547
      ],
      [
        "▁systemet",
        -10.121388505468696
      ],
      [
        "▁plats.",
        -10.121686897195351
      ],
      [
        "▁springa",
        -10.122532780285496
      ],
      [
        "▁motion",
        -10.122726797487543
      ],
      [
        "▁TripAdvisor",
        -10.123286033606467
      ],
      [
        "▁salt",
        -10.124023507443004
      ],
      [
        "slutade",
        -10.124725064926432
      ],
      [
        "▁skuld",
        -10.124829897154502
      ],
      [
        "▁vitt",
        -10.12490684036963
      ],
      [
        "natt!",
        -10.12533149496168
      ],
      [
        "▁växt",
        -10.12600468915751
      ],
      [
        "▁resan",
        -10.126200496775612
      ],
      [
        "▁enorm",
        -10.126462667723942
      ],
      [
        "▁göras",
        -10.126561666768634
      ],
      [
        "▁unik",
        -10.126862030014495
      ],
      [
        "ock",
        -10.126983834785545
      ],
      [
        "▁gång.",
        -10.127937381423559
      ],
      [
        "▁Sten",
        -10.128082764522937
      ],
      [
        "kel",
        -10.128718262218882
      ],
      [
        "▁katt",
        -10.12882190952017
      ],
      [
        "▁honom.",
        -10.128858031871511
      ],
      [
        "▁avsnitt",
        -10.128926305404065
      ],
      [
        "▁uppleva",
        -10.12930919994473
      ],
      [
        "▁perioden",
        -10.129350006912093
      ],
      [
        "▁kunskaper",
        -10.129382983412436
      ],
      [
        "▁profil",
        -10.129940835785716
      ],
      [
        "▁naturen",
        -10.1300125213912
      ],
      [
        "sjön",
        -10.130596703559284
      ],
      [
        "▁hänsyn",
        -10.131024757432275
      ],
      [
        "förmodligen",
        -10.131103107209775
      ],
      [
        "▁konstigt",
        -10.132016833039426
      ],
      [
        "gått",
        -10.132081778044991
      ],
      [
        "▁Umeå",
        -10.132279064443264
      ],
      [
        "dal",
        -10.132588855395529
      ],
      [
        "▁webbplatsen",
        -10.133184660625533
      ],
      [
        "▁sånt",
        -10.133639466530761
      ],
      [
        "ax",
        -10.134934858334313
      ],
      [
        "▁industri",
        -10.135196594707168
      ],
      [
        "slår",
        -10.135306781514084
      ],
      [
        "lle",
        -10.135710333080882
      ],
      [
        "▁hittills",
        -10.136024900971947
      ],
      [
        "▁utsikt",
        -10.136066942146448
      ],
      [
        "byggnad",
        -10.136182718981438
      ],
      [
        "▁Paris",
        -10.136262519193107
      ],
      [
        "▁titeln",
        -10.136410437477597
      ],
      [
        "▁Ser",
        -10.136539991859147
      ],
      [
        "▁hamnar",
        -10.136576107749155
      ],
      [
        "▁informationen",
        -10.136600030878588
      ],
      [
        "▁rese",
        -10.137286568707443
      ],
      [
        "äl",
        -10.137568857357783
      ],
      [
        "▁avgörande",
        -10.137715557248292
      ],
      [
        "▁sent",
        -10.137846501564107
      ],
      [
        "▁familje",
        -10.138013185716973
      ],
      [
        "▁pågår",
        -10.138137928997635
      ],
      [
        "▁rygg",
        -10.138228054192503
      ],
      [
        "▁hundra",
        -10.138249596826519
      ],
      [
        "▁nödvändigt",
        -10.140745620087563
      ],
      [
        "▁politik",
        -10.141079417381473
      ],
      [
        "Ja",
        -10.141115375162375
      ],
      [
        "▁världen.",
        -10.141938531143886
      ],
      [
        "▁aktivitet",
        -10.142023137748115
      ],
      [
        "▁söt",
        -10.142095912956531
      ],
      [
        "▁32",
        -10.142339580695424
      ],
      [
        "(och",
        -10.143136608569764
      ],
      [
        "liggande",
        -10.143218674604835
      ],
      [
        "▁parkering",
        -10.143540508819452
      ],
      [
        "▁with",
        -10.144725246894605
      ],
      [
        "▁resor",
        -10.14495598661658
      ],
      [
        "▁grå",
        -10.145066267571258
      ],
      [
        "▁skogs",
        -10.145153506791257
      ],
      [
        "ix",
        -10.145546500599394
      ],
      [
        "▁driver",
        -10.1463665806032
      ],
      [
        "ham",
        -10.146882649100503
      ],
      [
        "▁stjärnor",
        -10.147275881430495
      ],
      [
        "▁$",
        -10.14744575810195
      ],
      [
        "center",
        -10.147530159667877
      ],
      [
        "▁avsluta",
        -10.147791259420046
      ],
      [
        "▁öppnar",
        -10.148085828659712
      ],
      [
        "▁situation",
        -10.149309248768573
      ],
      [
        "▁blommor",
        -10.149806425087732
      ],
      [
        "▁ungdoms",
        -10.149839823617562
      ],
      [
        "▁Ma",
        -10.149896904271362
      ],
      [
        "app",
        -10.15011277265685
      ],
      [
        "ledning",
        -10.150286126062179
      ],
      [
        "▁nätverk",
        -10.15036503946845
      ],
      [
        "▁kris",
        -10.15044913120463
      ],
      [
        "▁fika",
        -10.150501066885445
      ],
      [
        "vit",
        -10.150539993455837
      ],
      [
        "▁svarar",
        -10.15062859051892
      ],
      [
        "▁detta.",
        -10.150668619536237
      ],
      [
        "▁organisationer",
        -10.150772106564462
      ],
      [
        "lämnade",
        -10.152041589029555
      ],
      [
        "▁David",
        -10.152403337420877
      ],
      [
        "▁minskar",
        -10.153883544233157
      ],
      [
        "▁Helsingborg",
        -10.15394088380835
      ],
      [
        "Vilket",
        -10.154207747933798
      ],
      [
        "▁nyheter",
        -10.154703912415522
      ],
      [
        "▁fakta",
        -10.155805633935445
      ],
      [
        "▁mo",
        -10.155888125812771
      ],
      [
        "▁\"S",
        -10.156131106335371
      ],
      [
        "▁tr",
        -10.156203642129174
      ],
      [
        "typ",
        -10.156562589076097
      ],
      [
        "▁positiv",
        -10.15680872817842
      ],
      [
        "▁resa.",
        -10.156817377904371
      ],
      [
        "bord",
        -10.157015964006307
      ],
      [
        "▁punkt",
        -10.157067414564514
      ],
      [
        "▁hål",
        -10.157123965232598
      ],
      [
        "▁priserna",
        -10.157125676409919
      ],
      [
        "▁Va",
        -10.157125986217292
      ],
      [
        "▁grundläggande",
        -10.15722184314575
      ],
      [
        "▁kött",
        -10.157305988358866
      ],
      [
        "▁erfarenheter",
        -10.157370893502012
      ],
      [
        "jobb",
        -10.157443165487486
      ],
      [
        "▁euro",
        -10.15828742604641
      ],
      [
        "99",
        -10.158335751342845
      ],
      [
        "▁EU-",
        -10.158370442227799
      ],
      [
        "Våra",
        -10.15837547779295
      ],
      [
        "▁frakt",
        -10.15859629420503
      ],
      [
        "▁driva",
        -10.15909572884527
      ],
      [
        "tjänster",
        -10.159167929871217
      ],
      [
        "gård",
        -10.160513256560945
      ],
      [
        "gruppen",
        -10.160597933641904
      ],
      [
        "lov",
        -10.161060497060106
      ],
      [
        "▁Nyheter",
        -10.161879782712747
      ],
      [
        "▁startar",
        -10.16215310666742
      ],
      [
        "rat",
        -10.162175928917684
      ],
      [
        "Något",
        -10.162806573359623
      ],
      [
        "▁skatt",
        -10.162860623300755
      ],
      [
        "▁inre",
        -10.163297146670843
      ],
      [
        "▁säng",
        -10.163353099677485
      ],
      [
        "▁Tur",
        -10.163468849166344
      ],
      [
        "way",
        -10.163596901528061
      ],
      [
        "▁Fi",
        -10.164276154325732
      ],
      [
        "▁undantag",
        -10.164448193399071
      ],
      [
        "▁barn.",
        -10.164791197021925
      ],
      [
        "▁skriv",
        -10.164835320462307
      ],
      [
        "▁Te",
        -10.16489014666621
      ],
      [
        "▁genomföra",
        -10.164926677650524
      ],
      [
        "platser",
        -10.164927361003791
      ],
      [
        "ull",
        -10.165084807787927
      ],
      [
        "▁Innan",
        -10.16528434642888
      ],
      [
        "▁funnits",
        -10.165522223372601
      ],
      [
        "▁etc.",
        -10.165561763852892
      ],
      [
        "▁garantera",
        -10.165755953218913
      ],
      [
        "▁tider",
        -10.166086512841622
      ],
      [
        "▁privata",
        -10.166423715531822
      ],
      [
        "▁sjö",
        -10.166521637558423
      ],
      [
        "ite",
        -10.166772669777325
      ],
      [
        "▁tydlig",
        -10.166906326519888
      ],
      [
        "▁Po",
        -10.166933763730166
      ],
      [
        "▁drag",
        -10.167343695377095
      ],
      [
        "▁Spel",
        -10.167549455044176
      ],
      [
        "▁hävda",
        -10.167740257985132
      ],
      [
        "▁korrekt",
        -10.167889982276266
      ],
      [
        "▁Karl",
        -10.168014321328457
      ],
      [
        "▁underbara",
        -10.168304189536407
      ],
      [
        "▁Hus",
        -10.168937315446254
      ],
      [
        "▁rörelse",
        -10.168944063308311
      ],
      [
        "▁medier",
        -10.169024489818925
      ],
      [
        "bro",
        -10.16931201933242
      ],
      [
        "nivå",
        -10.169432578665692
      ],
      [
        "▁w",
        -10.169503843676464
      ],
      [
        "baserade",
        -10.169742820002668
      ],
      [
        "▁längst",
        -10.169748124189185
      ],
      [
        "▁håret",
        -10.169785783463738
      ],
      [
        "-11",
        -10.169943841126878
      ],
      [
        "▁ledning",
        -10.170039574532687
      ],
      [
        "▁fira",
        -10.170140237039433
      ],
      [
        "▁Dag",
        -10.170216187589725
      ],
      [
        "str",
        -10.170577116551657
      ],
      [
        "▁djup",
        -10.1709460080915
      ],
      [
        "▁tycka",
        -10.171780035492432
      ],
      [
        "gan",
        -10.172057449253407
      ],
      [
        "▁tillgänglig",
        -10.172509589736661
      ],
      [
        "▁höjd",
        -10.173051703110671
      ],
      [
        "letar",
        -10.17326744910241
      ],
      [
        "▁0,",
        -10.174226104777706
      ],
      [
        "ologi",
        -10.17425615624706
      ],
      [
        "▁glada",
        -10.17475756003192
      ],
      [
        "ägare",
        -10.174830388890495
      ],
      [
        "que",
        -10.174842232900799
      ],
      [
        "nade",
        -10.175032222926319
      ],
      [
        "▁nationella",
        -10.175401501433806
      ],
      [
        "▁toppen",
        -10.175479511953245
      ],
      [
        "ance",
        -10.175571859089354
      ],
      [
        "▁Dagens",
        -10.175719553133304
      ],
      [
        "▁Ba",
        -10.175977632171275
      ],
      [
        "▁Folk",
        -10.176002332729134
      ],
      [
        "▁Någon",
        -10.176200088421796
      ],
      [
        "nummer",
        -10.176241387706833
      ],
      [
        "▁sömn",
        -10.176461960939044
      ],
      [
        "▁säsong",
        -10.176768719806129
      ],
      [
        "bjöd",
        -10.17687864565606
      ],
      [
        "▁framförallt",
        -10.17728084587818
      ],
      [
        "▁mig,",
        -10.177619299748354
      ],
      [
        "▁svarade",
        -10.177651055852941
      ],
      [
        "▁Or",
        -10.177859757883473
      ],
      [
        "▁tekniska",
        -10.17801043528021
      ],
      [
        "▁öl",
        -10.178407630938128
      ],
      [
        "låt",
        -10.178553629019364
      ],
      [
        "▁förändra",
        -10.178617250071154
      ],
      [
        "▁Ad",
        -10.17866312153692
      ],
      [
        "int",
        -10.179005349035299
      ],
      [
        "▁Ryssland",
        -10.180052761140448
      ],
      [
        "▁omedelbart",
        -10.180127991633883
      ],
      [
        "tis",
        -10.180389158334082
      ],
      [
        "▁kap",
        -10.180698753751981
      ],
      [
        "▁behövde",
        -10.18092355733835
      ],
      [
        "....",
        -10.180964749058715
      ],
      [
        "ph",
        -10.181669461576218
      ],
      [
        "▁Får",
        -10.18176142501866
      ],
      [
        "off",
        -10.181764793816466
      ],
      [
        "▁utrymme",
        -10.182015574820076
      ],
      [
        "▁Mina",
        -10.18214794563869
      ],
      [
        "▁servera",
        -10.18216189308663
      ],
      [
        "▁svarta",
        -10.182313678267572
      ],
      [
        "lista",
        -10.182722420027467
      ],
      [
        "föreningen",
        -10.182847322271614
      ],
      [
        "▁bilderna",
        -10.18385775894204
      ],
      [
        "▁närvarande",
        -10.18418244199513
      ],
      [
        "▁07",
        -10.185482020967008
      ],
      [
        "▁omsorg",
        -10.1855930735968
      ],
      [
        "▁Aktiebolag",
        -10.185605230689518
      ],
      [
        "▁Eva",
        -10.185810959531725
      ],
      [
        "▁sko",
        -10.187170310085007
      ],
      [
        "of",
        -10.187263960614494
      ],
      [
        "▁Jonas",
        -10.187528251310459
      ],
      [
        "▁Tid",
        -10.187974176374048
      ],
      [
        "▁mönster",
        -10.188465280438534
      ],
      [
        "tag",
        -10.188518069924488
      ],
      [
        "ica",
        -10.188953068257609
      ],
      [
        "▁styrelsen",
        -10.189916806233512
      ],
      [
        "namn",
        -10.190041439632981
      ],
      [
        "26",
        -10.190176480057948
      ],
      [
        "▁vind",
        -10.19048724048001
      ],
      [
        "lor",
        -10.190491818288715
      ],
      [
        "film",
        -10.192489848289505
      ],
      [
        "▁havet",
        -10.1929637287031
      ],
      [
        "möter",
        -10.193163662900577
      ],
      [
        "▁bröst",
        -10.193216976476803
      ],
      [
        "ET",
        -10.193328201125361
      ],
      [
        "▁aktivt",
        -10.193414871170615
      ],
      [
        "▁leverera",
        -10.193605219552891
      ],
      [
        "bet",
        -10.193785638737708
      ],
      [
        "handel",
        -10.193876569002853
      ],
      [
        "▁John",
        -10.194451752214727
      ],
      [
        "vikt",
        -10.194888793092526
      ],
      [
        "så",
        -10.195752051803751
      ],
      [
        "▁kg",
        -10.196463467496029
      ],
      [
        "▁hopp",
        -10.196821145311638
      ],
      [
        "▁insatser",
        -10.197200957370338
      ],
      [
        "▁gäng",
        -10.197411626851101
      ],
      [
        "▁underbar",
        -10.198078993963827
      ],
      [
        "▁positiva",
        -10.198636474585117
      ],
      [
        "5(",
        -10.199265824406716
      ],
      [
        "▁snygga",
        -10.199481278453696
      ],
      [
        "▁flertal",
        -10.19975128930109
      ],
      [
        "for",
        -10.200474011829881
      ],
      [
        "▁Kram",
        -10.200592356001867
      ],
      [
        "▁Hela",
        -10.200657040628897
      ],
      [
        "▁undersökning",
        -10.201088071244435
      ],
      [
        "▁kostnad",
        -10.201343688851603
      ],
      [
        "▁kompis",
        -10.201387209592294
      ],
      [
        "▁2000",
        -10.202018807872914
      ],
      [
        "ses",
        -10.202893406342469
      ],
      [
        "▁maten",
        -10.203357543861362
      ],
      [
        "▁växa",
        -10.203459154357828
      ],
      [
        "▁svåra",
        -10.203564345353852
      ],
      [
        "jä",
        -10.203752496776945
      ],
      [
        "hög",
        -10.203887583020192
      ],
      [
        "tik",
        -10.204301930399795
      ],
      [
        "▁erbjuds",
        -10.204494909580843
      ],
      [
        "▁total",
        -10.20454039722507
      ],
      [
        "▁säg",
        -10.204574159838575
      ],
      [
        "▁Ed",
        -10.204788766376081
      ],
      [
        "▁anslutning",
        -10.204845016856556
      ],
      [
        "verifierade",
        -10.205025953479263
      ],
      [
        "ies",
        -10.20505801353951
      ],
      [
        "vel",
        -10.205269083642705
      ],
      [
        "▁döda",
        -10.205773998297646
      ],
      [
        "▁fotboll",
        -10.2059634510316
      ],
      [
        "press",
        -10.206232625135694
      ],
      [
        "▁effektivt",
        -10.206434313041626
      ],
      [
        "▁avgifter",
        -10.207104198817937
      ],
      [
        "▁radio",
        -10.207167710560933
      ],
      [
        "▁sv",
        -10.207305932063342
      ],
      [
        "▁igen,",
        -10.208358268837049
      ],
      [
        "▁tillfällen",
        -10.208596065699728
      ],
      [
        "vet",
        -10.209000894711988
      ],
      [
        "▁Windows",
        -10.209159247798398
      ],
      [
        "färg",
        -10.20921876935495
      ],
      [
        "▁vintern",
        -10.210231751288903
      ],
      [
        "▁fil",
        -10.211344495764104
      ],
      [
        "problem",
        -10.211508658944284
      ],
      [
        "▁Jämför",
        -10.21170440641313
      ],
      [
        "▁so",
        -10.211765280283098
      ],
      [
        "▁Stora",
        -10.212043433415568
      ],
      [
        "▁unika",
        -10.212225953066177
      ],
      [
        "▁jobbat",
        -10.212528079008047
      ],
      [
        "ab",
        -10.213395975391988
      ],
      [
        "verkade",
        -10.213564620837513
      ],
      [
        "▁billig",
        -10.213771239085098
      ],
      [
        "▁papper",
        -10.213859137047255
      ],
      [
        "▁produkten",
        -10.213957625590945
      ],
      [
        "▁morgonen",
        -10.214047602531963
      ],
      [
        "q",
        -10.2140876539541
      ],
      [
        "▁kap.",
        -10.21413994540596
      ],
      [
        "▁fru",
        -10.214428028850511
      ],
      [
        "lek",
        -10.215070095950503
      ],
      [
        "▁äventyr",
        -10.215343840398322
      ],
      [
        "▁färdig",
        -10.215377363507784
      ],
      [
        "les",
        -10.216279419319068
      ],
      [
        "▁snygg",
        -10.217509740613703
      ],
      [
        "▁sy",
        -10.217954630641225
      ],
      [
        "▁mängder",
        -10.218101712798187
      ],
      [
        "▁sov",
        -10.218600690468184
      ],
      [
        "bruk",
        -10.218890529918289
      ],
      [
        "▁process",
        -10.219602203805914
      ],
      [
        "dia",
        -10.220550593244171
      ],
      [
        "försökte",
        -10.22129253738456
      ],
      [
        "djur",
        -10.22171636160767
      ],
      [
        "▁gilla",
        -10.222011704718245
      ],
      [
        "▁lo",
        -10.222174777723355
      ],
      [
        "▁rakt",
        -10.22271948529454
      ],
      [
        "▁verksamheter",
        -10.223358015392009
      ],
      [
        "▁e-post",
        -10.2236338600105
      ],
      [
        "▁tidningen",
        -10.223753349762388
      ],
      [
        "▁utbildnings",
        -10.223789270557878
      ],
      [
        "▁Ex",
        -10.223969722850981
      ],
      [
        "09",
        -10.224513248095628
      ],
      [
        "▁af",
        -10.224689301176424
      ],
      [
        "▁miss",
        -10.224716255584555
      ],
      [
        "▁spelat",
        -10.225402762183265
      ],
      [
        "skatt",
        -10.225853511908658
      ],
      [
        "▁ordet",
        -10.226062031689667
      ],
      [
        "▁Mac",
        -10.226537376307625
      ],
      [
        "nga",
        -10.226621939983206
      ],
      [
        "förening",
        -10.227015803156887
      ],
      [
        "▁hoppa",
        -10.227596260038723
      ],
      [
        "▁Am",
        -10.227613189758989
      ],
      [
        "▁vända",
        -10.227677521100617
      ],
      [
        "▁Kultur",
        -10.227706741468506
      ],
      [
        "▁tvätt",
        -10.22801710016112
      ],
      [
        "▁trygghet",
        -10.228087742925355
      ],
      [
        "▁härliga",
        -10.22809439532157
      ],
      [
        "▁banan",
        -10.228165498068375
      ],
      [
        "▁sängen",
        -10.228217400490278
      ],
      [
        "ighet",
        -10.228283575569106
      ],
      [
        "▁Miljö",
        -10.228526304207783
      ],
      [
        "inge",
        -10.22886694331472
      ],
      [
        "▁förslag.",
        -10.231185941209484
      ],
      [
        "▁syft",
        -10.2314309150126
      ],
      [
        "▁aktie",
        -10.231735794432646
      ],
      [
        "▁allmän",
        -10.232093388623912
      ],
      [
        "▁slutar",
        -10.232105775219619
      ],
      [
        "-S",
        -10.232203006509067
      ],
      [
        "läggning",
        -10.232221628677864
      ],
      [
        "▁Post",
        -10.233093246912519
      ],
      [
        "▁aktier",
        -10.233095134401312
      ],
      [
        "▁egenskaper",
        -10.233469177739666
      ],
      [
        "jer",
        -10.233504327409818
      ],
      [
        "sett",
        -10.233581692935513
      ],
      [
        "▁van",
        -10.23423947102214
      ],
      [
        "projekt",
        -10.23460557136684
      ],
      [
        "▁deltagare",
        -10.234804347726186
      ],
      [
        "▁löne",
        -10.235207224244249
      ],
      [
        "▁golv",
        -10.235911722801307
      ],
      [
        "▁takt",
        -10.236850005756196
      ],
      [
        "▁fiske",
        -10.237682222266683
      ],
      [
        "strand",
        -10.237896397588415
      ],
      [
        "bit",
        -10.238218786224508
      ],
      [
        "▁Storbritannien",
        -10.239464125175761
      ],
      [
        "▁skador",
        -10.239492183839669
      ],
      [
        "▁fokusera",
        -10.239510431709824
      ],
      [
        "ledes",
        -10.239657164222516
      ],
      [
        "besök",
        -10.23983503259344
      ],
      [
        "▁bevis",
        -10.239984859610287
      ],
      [
        "risken",
        -10.240198263770887
      ],
      [
        "▁2005",
        -10.240390795324723
      ],
      [
        "▁upplevelse",
        -10.240797850341268
      ],
      [
        "▁underbart",
        -10.241334238352827
      ],
      [
        "▁kost",
        -10.24261546702587
      ],
      [
        "▁bära",
        -10.242722222537052
      ],
      [
        "nsåg",
        -10.243235749808346
      ],
      [
        "▁fordon",
        -10.243463154168166
      ],
      [
        "programmet",
        -10.243911573420071
      ],
      [
        "▁klassisk",
        -10.244048588805457
      ],
      [
        "▁extremt",
        -10.244192329178185
      ],
      [
        "▁ok",
        -10.244194814039941
      ],
      [
        "▁Tillväxt",
        -10.244501038099907
      ],
      [
        "▁bröd",
        -10.244621238927325
      ],
      [
        "▁upplever",
        -10.244928931578844
      ],
      [
        "▁syns",
        -10.245060762467858
      ],
      [
        "▁former",
        -10.245493143930496
      ],
      [
        "▁ägare",
        -10.24559349294452
      ],
      [
        "Både",
        -10.245894724760328
      ],
      [
        "▁kvinnan",
        -10.24593390489698
      ],
      [
        "▁låga",
        -10.247396690254034
      ],
      [
        "▁metod",
        -10.24791865850888
      ],
      [
        "▁metoder",
        -10.248044475054893
      ],
      [
        "▁läste",
        -10.248094328678166
      ],
      [
        "▁akut",
        -10.248442547866384
      ],
      [
        "jan",
        -10.249070239946409
      ],
      [
        "▁bostäder",
        -10.249344932995996
      ],
      [
        ".”",
        -10.249350416072167
      ],
      [
        "bin",
        -10.249429846586173
      ],
      [
        "▁Kommer",
        -10.249452278030235
      ],
      [
        "verket",
        -10.249599941361842
      ],
      [
        "▁släppa",
        -10.24999241123981
      ],
      [
        "▁dricka",
        -10.25004481798352
      ],
      [
        "▁rolig",
        -10.250272815863324
      ],
      [
        "▁FÖR",
        -10.250939720604537
      ],
      [
        "politik",
        -10.250981013647051
      ],
      [
        "ku",
        -10.251120665482931
      ],
      [
        "ze",
        -10.251178062342056
      ],
      [
        "tips",
        -10.251699296556728
      ],
      [
        "prov",
        -10.251767294376732
      ],
      [
        "wi",
        -10.252036758899802
      ],
      [
        "▁situationen",
        -10.252275361965486
      ],
      [
        "▁bestämma",
        -10.25235646064178
      ],
      [
        "27",
        -10.252583515890024
      ],
      [
        "▁vuxen",
        -10.25292984168065
      ],
      [
        "Årets",
        -10.253420553241384
      ],
      [
        "▁Ho",
        -10.25342535873784
      ],
      [
        "▁gas",
        -10.253602273197632
      ],
      [
        "ski",
        -10.25362880021711
      ],
      [
        "▁Sverige,",
        -10.25364724149568
      ],
      [
        "95",
        -10.254041753485046
      ],
      [
        "▁lågt",
        -10.25438505236952
      ],
      [
        "▁Arbets",
        -10.254723443676658
      ],
      [
        "▁granskar",
        -10.255415362693874
      ],
      [
        "▁myndigheter",
        -10.2554409603125
      ],
      [
        "▁Magnus",
        -10.255483357517996
      ],
      [
        "▁ställen",
        -10.25559252819365
      ],
      [
        "kväll",
        -10.255783555646172
      ],
      [
        "▁variera",
        -10.255867804501905
      ],
      [
        "▁team",
        -10.256587838766276
      ],
      [
        "▁ordentligt",
        -10.257007608389006
      ],
      [
        "platsen",
        -10.25755741823911
      ],
      [
        "▁Spanien",
        -10.25759370714789
      ],
      [
        "▁hjärtat",
        -10.257624555218968
      ],
      [
        "▁aning",
        -10.258263144355894
      ],
      [
        "▁presentation",
        -10.25846462644635
      ],
      [
        "ys",
        -10.258573698671848
      ],
      [
        "▁not",
        -10.259319874727646
      ],
      [
        "▁ögonen",
        -10.259350885500005
      ],
      [
        "▁150",
        -10.259383910989667
      ],
      [
        "▁Ne",
        -10.260940671825377
      ],
      [
        "▁cancer",
        -10.261166234896882
      ],
      [
        "vä",
        -10.261763094011826
      ],
      [
        "33",
        -10.261943016331793
      ],
      [
        "bad",
        -10.262340531486652
      ],
      [
        "ual",
        -10.262563233393985
      ],
      [
        "▁Fler",
        -10.263053988174885
      ],
      [
        "bergs",
        -10.26313143286314
      ],
      [
        "▁korta",
        -10.26349609560699
      ],
      [
        "▁intressanta",
        -10.263777191875365
      ],
      [
        "▁mening",
        -10.263960513641297
      ],
      [
        "bolaget",
        -10.263969555120381
      ],
      [
        "▁Mark",
        -10.264679638833982
      ],
      [
        "▁dusch",
        -10.265134078056649
      ],
      [
        "hunnit",
        -10.265672596949308
      ],
      [
        ">",
        -10.26627120598271
      ],
      [
        "▁karaktär",
        -10.266321284640535
      ],
      [
        "23",
        -10.266900960319385
      ],
      [
        "▁Helt",
        -10.267034354919653
      ],
      [
        "fritt",
        -10.267240665635276
      ],
      [
        "ins",
        -10.267695809011327
      ],
      [
        "45",
        -10.267761208580799
      ],
      [
        "rig",
        -10.267887497560563
      ],
      [
        "▁medicin",
        -10.268351384468634
      ],
      [
        "vall",
        -10.268359494986369
      ],
      [
        "▁nio",
        -10.268489384119974
      ],
      [
        "▁Pu",
        -10.268594972601116
      ],
      [
        "▁ko",
        -10.26937574723124
      ],
      [
        "▁vd",
        -10.269440728084255
      ],
      [
        "▁hände",
        -10.269625270750815
      ],
      [
        "▁skapat",
        -10.269723341348582
      ],
      [
        "▁Br",
        -10.26996018385996
      ],
      [
        "▁hjärta",
        -10.270091913467889
      ],
      [
        "rummet",
        -10.27022446551283
      ],
      [
        "samma",
        -10.270305233812673
      ],
      [
        "-01",
        -10.27039834077874
      ],
      [
        "▁forsknings",
        -10.270421071793692
      ],
      [
        "▁stål",
        -10.271238109763788
      ],
      [
        "▁art",
        -10.271838643370394
      ],
      [
        "ard",
        -10.271899187883088
      ],
      [
        "▁singlar",
        -10.272753871776382
      ],
      [
        "sol",
        -10.27279639576606
      ],
      [
        "qvist",
        -10.273028922454133
      ],
      [
        "▁Västra",
        -10.273336247815969
      ],
      [
        "mot",
        -10.273544304030729
      ],
      [
        "▁tanken",
        -10.273905875560008
      ],
      [
        "▁dokument",
        -10.274221709473181
      ],
      [
        "▁originalet",
        -10.274442694589117
      ],
      [
        "▁tjäna",
        -10.274573264432538
      ],
      [
        "▁Kon",
        -10.274669921885481
      ],
      [
        "die",
        -10.274822364903917
      ],
      [
        "▁back",
        -10.275188379602795
      ],
      [
        "▁sällskap",
        -10.27519351187625
      ],
      [
        "▁aktiv",
        -10.275371160443203
      ],
      [
        "▁nu,",
        -10.275629014258966
      ],
      [
        "▁människan",
        -10.276174918914519
      ],
      [
        "▁mått",
        -10.276402459921002
      ],
      [
        "▁forskare",
        -10.276811127158279
      ],
      [
        "▁rosa",
        -10.276986309919272
      ],
      [
        "▁styrelse",
        -10.277069721871356
      ],
      [
        "▁Ru",
        -10.27749002309683
      ],
      [
        "▁nämn",
        -10.277721224281636
      ],
      [
        "istiska",
        -10.277746468052396
      ],
      [
        "▁dubbel",
        -10.277967980105783
      ],
      [
        "▁hälften",
        -10.278255959160086
      ],
      [
        "▁tomt",
        -10.278379402130211
      ],
      [
        "▁offentliga",
        -10.278472719056602
      ],
      [
        "led",
        -10.278771609933678
      ],
      [
        "▁pdf",
        -10.279665648838318
      ],
      [
        "▁Vårt",
        -10.279757194046942
      ],
      [
        "▁studera",
        -10.280142440248838
      ],
      [
        "▁komplett",
        -10.281143940780101
      ],
      [
        "uppgifter",
        -10.281161090020031
      ],
      [
        "▁fjärde",
        -10.281601194488873
      ],
      [
        "rin",
        -10.281719579861688
      ],
      [
        "▁kunden",
        -10.281871828421469
      ],
      [
        "▁medför",
        -10.282006839503108
      ],
      [
        "▁rök",
        -10.28207911775018
      ],
      [
        "dan",
        -10.282270011309464
      ],
      [
        "samt",
        -10.282278764029067
      ],
      [
        "▁maskin",
        -10.282326212650085
      ],
      [
        "▁det?",
        -10.282455889361296
      ],
      [
        "varken",
        -10.28252833795839
      ],
      [
        "kod",
        -10.282917001644604
      ],
      [
        "▁varandra.",
        -10.283310851626295
      ],
      [
        "yn",
        -10.283446037788753
      ],
      [
        "▁gröna",
        -10.283485010981577
      ],
      [
        "▁särskild",
        -10.283498574371725
      ],
      [
        "tic",
        -10.283868895521623
      ],
      [
        "▁marknadsföring",
        -10.284275044609098
      ],
      [
        "pro",
        -10.284472780303364
      ],
      [
        "▁möten",
        -10.285303802256314
      ],
      [
        "▁Rom",
        -10.28538264485958
      ],
      [
        "▁regel",
        -10.2856304762748
      ],
      [
        "lä",
        -10.285865756417437
      ],
      [
        "syra",
        -10.285977092476848
      ],
      [
        "håll",
        -10.286330201421087
      ],
      [
        "▁riktiga",
        -10.286660204831033
      ],
      [
        "▁utrustning",
        -10.286798143192327
      ],
      [
        "▁tillfälle",
        -10.287609311542742
      ],
      [
        "▁modeller",
        -10.288021483734456
      ],
      [
        "▁Larsson",
        -10.288133458078201
      ],
      [
        "Förbättra",
        -10.288422245960952
      ],
      [
        "▁nere",
        -10.288643099363265
      ],
      [
        "▁artiklar",
        -10.288737669424556
      ],
      [
        "Bolaget",
        -10.290560178054081
      ],
      [
        "▁kar",
        -10.290560769967472
      ],
      [
        "▁sök",
        -10.290765961180869
      ],
      [
        "hets",
        -10.290910409586596
      ],
      [
        "Annars",
        -10.29098464111999
      ],
      [
        "▁normal",
        -10.291069906717711
      ],
      [
        "▁utvecklat",
        -10.291166838913703
      ],
      [
        "▁bruk",
        -10.291392483186689
      ],
      [
        "29",
        -10.291605916432406
      ],
      [
        "världen",
        -10.291874606623457
      ],
      [
        "miljö",
        -10.292130799821683
      ],
      [
        "ym",
        -10.292191088073595
      ],
      [
        "▁Göteborgs",
        -10.292332776188422
      ],
      [
        "▁andel",
        -10.292403546683113
      ],
      [
        "▁tydligen",
        -10.292481643017162
      ],
      [
        "▁Kalmar",
        -10.292668123955378
      ],
      [
        "▁grön",
        -10.292844259454515
      ],
      [
        "ail",
        -10.292889408170875
      ],
      [
        "lö",
        -10.292945023698328
      ],
      [
        "▁tävling",
        -10.293035676758784
      ],
      [
        "▁faktum",
        -10.29396839231742
      ],
      [
        "skt",
        -10.293988327203559
      ],
      [
        "▁överens",
        -10.294071857369635
      ],
      [
        "▁välkommen",
        -10.294416947839315
      ],
      [
        "▁36",
        -10.294773583969182
      ],
      [
        "▁hy",
        -10.29502340233242
      ],
      [
        "▁rabatt",
        -10.295691535996317
      ],
      [
        "▁jobbigt",
        -10.2963363576698
      ],
      [
        "▁iaf",
        -10.297936869267838
      ],
      [
        "▁webbplatser",
        -10.297955396578486
      ],
      [
        "▁våga",
        -10.298476206422988
      ],
      [
        "▁go",
        -10.298503202126117
      ],
      [
        "▁skolor",
        -10.298507302897278
      ],
      [
        "port",
        -10.298566088525215
      ],
      [
        "serie",
        -10.299261351689461
      ],
      [
        "lam",
        -10.299461274076458
      ],
      [
        "▁orkar",
        -10.299838051132017
      ],
      [
        "▁hinner",
        -10.300147908622419
      ],
      [
        "▁33",
        -10.30137933068602
      ],
      [
        "köp",
        -10.301673880527284
      ],
      [
        "▁däck",
        -10.301744714925432
      ],
      [
        "▁laga",
        -10.301839535397972
      ],
      [
        "▁stranden",
        -10.302029995443837
      ],
      [
        "▁personuppgifter",
        -10.302301989845116
      ],
      [
        "▁erbjudande",
        -10.302397749747971
      ],
      [
        "ino",
        -10.302594379987033
      ],
      [
        "▁God",
        -10.302669689522471
      ],
      [
        "▁varor",
        -10.303363859912015
      ],
      [
        "▁vinner",
        -10.30363867116721
      ],
      [
        "▁förut",
        -10.303716654433675
      ],
      [
        "▁torsdag",
        -10.303897895333137
      ],
      [
        "▁mag",
        -10.304060539448045
      ],
      [
        "▁lägg",
        -10.304093454087852
      ],
      [
        "tel",
        -10.304267491493249
      ],
      [
        "▁naturligt",
        -10.304473924592948
      ],
      [
        "▁synd",
        -10.30461969906393
      ],
      [
        "▁version",
        -10.305022904191286
      ],
      [
        "▁känslan",
        -10.305070373106975
      ],
      [
        "▁(B",
        -10.305468899744245
      ],
      [
        "De",
        -10.305873719760863
      ],
      [
        "▁aktiva",
        -10.306155050685959
      ],
      [
        "▁idag,",
        -10.306426725852578
      ],
      [
        "framtida",
        -10.306763364649994
      ],
      [
        "▁Tro",
        -10.306920091370465
      ],
      [
        "▁definitivt",
        -10.307312707019989
      ],
      [
        "ts.",
        -10.307339340761896
      ],
[...]
