{
  "version": "1.0",
  "truncation": null,
  "padding": null,
  "added_tokens": [
    {
      "id": 0,
      "content": "[PAD]",
      "single_word": false,
      "lstrip": false,
      "rstrip": false,
      "normalized": false,
      "special": true
    },
    {
      "id": 1,
      "content": "[UNK]",
      "single_word": false,
      "lstrip": false,
      "rstrip": false,
      "normalized": false,
      "special": true
    },
    {
      "id": 2,
      "content": "[MASK]",
      "single_word": false,
      "lstrip": false,
      "rstrip": false,
      "normalized": false,
      "special": true
    },
    {
      "id": 3,
      "content": "[CLS]",
      "single_word": false,
      "lstrip": false,
      "rstrip": false,
      "normalized": false,
      "special": true
    },
    {
      "id": 4,
      "content": "[SEP]",
      "single_word": false,
      "lstrip": false,
      "rstrip": false,
      "normalized": false,
      "special": true
    }
  ],
  "normalizer": {
    "type": "Sequence",
    "normalizers": [
      {
        "type": "Nmt"
      },
      {
        "type": "NFKC"
      },
      {
        "type": "Replace",
        "pattern": {
          "Regex": " {2,}"
        },
        "content": " "
      }
    ]
  },
  "pre_tokenizer": {
    "type": "Sequence",
    "pretokenizers": [
      {
        "type": "Metaspace",
        "replacement": "▁",
        "add_prefix_space": true
      },
      {
        "type": "Split",
        "pattern": {
          "Regex": "\\d"
        },
        "behavior": "MergedWithPrevious",
        "invert": false
      },
      {
        "type": "Punctuation",
        "behavior": "Isolated"
      }
    ]
  },
  "post_processor": {
    "type": "TemplateProcessing",
    "single": [
      {
        "SpecialToken": {
          "id": "[CLS]",
          "type_id": 0
        }
      },
      {
        "Sequence": {
          "id": "A",
          "type_id": 0
        }
      },
      {
        "SpecialToken": {
          "id": "[SEP]",
          "type_id": 0
        }
      }
    ],
    "pair": [
      {
        "SpecialToken": {
          "id": "[CLS]",
          "type_id": 0
        }
      },
      {
        "Sequence": {
          "id": "A",
          "type_id": 0
        }
      },
      {
        "SpecialToken": {
          "id": "[SEP]",
          "type_id": 0
        }
      },
      {
        "Sequence": {
          "id": "B",
          "type_id": 1
        }
      },
      {
        "SpecialToken": {
          "id": "[SEP]",
          "type_id": 1
        }
      }
    ],
    "special_tokens": {
      "[CLS]": {
        "id": "[CLS]",
        "ids": [
          3
        ],
        "tokens": [
          "[CLS]"
        ]
      },
      "[SEP]": {
        "id": "[SEP]",
        "ids": [
          4
        ],
        "tokens": [
          "[SEP]"
        ]
      }
    }
  },
  "decoder": {
    "type": "Metaspace",
    "replacement": "▁",
    "add_prefix_space": true
  },
  "model": {
    "type": "Unigram",
    "unk_id": 1,
    "vocab": [
      [
        "[PAD]",
        0.0
      ],
      [
        "[UNK]",
        0.0
      ],
      [
        "[MASK]",
        0.0
      ],
      [
        "[CLS]",
        0.0
      ],
      [
        "[SEP]",
        0.0
      ],
      [
        "▁",
        -2.2068795028932477
      ],
      [
        ".",
        -3.2402022086403264
      ],
      [
        ",",
        -3.8947394062346206
      ],
      [
        "s",
        -3.9802140105086856
      ],
      [
        "▁och",
        -3.9983997488667775
      ],
      [
        "i",
        -4.003104163876976
      ],
      [
        "▁att",
        -4.251793920993329
      ],
      [
        "a",
        -4.457558220488075
      ],
      [
        "t",
        -4.50502610950873
      ],
      [
        "▁är",
        -4.616841605982572
      ],
      [
        "▁på",
        -4.645121440751364
      ],
      [
        "▁som",
        -4.6454906462859
      ],
      [
        "▁för",
        -4.715634441006646
      ],
      [
        "0",
        -4.748877913665773
      ],
      [
        "▁en",
        -4.768881955846776
      ],
      [
        "▁det",
        -4.780875390699158
      ],
      [
        "1",
        -4.843949503508501
      ],
      [
        "▁med",
        -4.909326356116921
      ],
      [
        "en",
        -4.9182676396622895
      ],
      [
        "▁av",
        -4.92363602061673
      ],
      [
        "-",
        -5.0011113499808175
      ],
      [
        "▁till",
        -5.071978583557765
      ],
      [
        "2",
        -5.120900816290916
      ],
      [
        "n",
        -5.1532723302089884
      ],
      [
        "e",
        -5.170545512579789
      ],
      [
        "▁har",
        -5.207483625125583
      ],
      [
        "▁jag",
        -5.361512019536157
      ],
      [
        "r",
        -5.370921030499009
      ],
      [
        "▁inte",
        -5.422377673511125
      ],
      [
        "▁om",
        -5.44845211937001
      ],
      [
        "er",
        -5.462874665785609
      ],
      [
        "▁den",
        -5.52754162069256
      ],
      [
        "▁ett",
        -5.575324287260759
      ],
      [
        ":",
        -5.625551925456236
      ],
      [
        "▁så",
        -5.655860973060889
      ],
      [
        "▁du",
        -5.702806897204663
      ],
      [
        "▁kan",
        -5.724894282032675
      ],
      [
        "▁de",
        -5.734993520721115
      ],
      [
        "5",
        -5.793431670545289
      ],
      [
        "▁vi",
        -5.804490793306858
      ],
      [
        "3",
        -5.818728156284877
      ],
      [
        ")",
        -5.837183844987173
      ],
      [
        "d",
        -5.877691735610998
      ],
      [
        "▁var",
        -5.915274154881693
      ],
      [
        "!",
        -5.93503436179904
      ],
      [
        "(",
        -5.957014129235969
      ],
      [
        "4",
        -5.985298944721439
      ],
      [
        "▁Det",
        -5.995110991578731
      ],
      [
        "o",
        -5.99996447749394
      ],
      [
        "9",
        -6.0329215746842735
      ],
      [
        "▁från",
        -6.037899302932654
      ],
      [
        "▁man",
        -6.050726043701832
      ],
      [
        "\"",
        -6.063517412558351
      ],
      [
        "ar",
        -6.11182946706462
      ],
      [
        "6",
        -6.167230428992607
      ],
      [
        "▁eller",
        -6.169068597179987
      ],
      [
        "m",
        -6.176522529664609
      ],
      [
        "▁men",
        -6.195237339642713
      ],
      [
        "8",
        -6.219009715113387
      ],
      [
        "7",
        -6.224026982673124
      ],
      [
        "?",
        -6.252195269148238
      ],
      [
        "/",
        -6.313109774531739
      ],
      [
        "▁ska",
        -6.350106024781402
      ],
      [
        "de",
        -6.400368726391516
      ],
      [
        "▁sig",
        -6.402505940688981
      ],
      [
        "▁in",
        -6.417975168512005
      ],
      [
        "▁ut",
        -6.488565305008594
      ],
      [
        "▁upp",
        -6.488736241985023
      ],
      [
        "et",
        -6.509865698139503
      ],
      [
        "▁Jag",
        -6.520864687140801
      ],
      [
        "▁här",
        -6.5229601345668975
      ],
      [
        "▁när",
        -6.530366688232222
      ],
      [
        "–",
        -6.558858500214862
      ],
      [
        "▁kommer",
        -6.587604282899358
      ],
      [
        "k",
        -6.621041656203259
      ],
      [
        "l",
        -6.621388701765952
      ],
      [
        "p",
        -6.621927419190676
      ],
      [
        "g",
        -6.62739646400315
      ],
      [
        "▁I",
        -6.627624130053373
      ],
      [
        "▁Vi",
        -6.651993459261741
      ],
      [
        "▁vara",
        -6.656613021525327
      ],
      [
        "▁där",
        -6.674427555190311
      ],
      [
        "▁finns",
        -6.691024288786572
      ],
      [
        "▁mer",
        -6.71887991288539
      ],
      [
        "▁alla",
        -6.73404528156245
      ],
      [
        "▁han",
        -6.744201441190839
      ],
      [
        "v",
        -6.778437647778057
      ],
      [
        "▁nu",
        -6.781416153203379
      ],
      [
        "▁under",
        -6.783726365191397
      ],
      [
        "▁över",
        -6.81351473879738
      ],
      [
        "▁också",
        -6.848301209260258
      ],
      [
        "▁får",
        -6.856209519812857
      ],
      [
        "▁mycket",
        -6.865499096705131
      ],
      [
        "▁bra",
        -6.870113330729181
      ],
      [
        "▁år",
        -6.871397958918518
      ],
      [
        "f",
        -6.872278977921601
      ],
      [
        "▁mig",
        -6.87831090175222
      ],
      [
        "▁efter",
        -6.881756102446946
      ],
      [
        "▁lite",
        -6.886923336337004
      ],
      [
        "”",
        -6.898144357243007
      ],
      [
        "▁ha",
        -6.898755409222833
      ],
      [
        "h",
        -6.921822566356015
      ],
      [
        "▁vill",
        -6.929048520736238
      ],
      [
        "▁då",
        -6.962506405658887
      ],
      [
        "▁andra",
        -6.963896361799074
      ],
      [
        "▁få",
        -6.9668800269021105
      ],
      [
        "▁även",
        -6.979950390169984
      ],
      [
        "▁bara",
        -6.98380151834581
      ],
      [
        "▁hur",
        -6.987923576935561
      ],
      [
        "▁vid",
        -7.001355507100543
      ],
      [
        "▁dig",
        -7.035448561033203
      ],
      [
        "y",
        -7.046670174362815
      ],
      [
        "▁Men",
        -7.0579587185751755
      ],
      [
        "▁vad",
        -7.089731529009299
      ],
      [
        "▁hade",
        -7.097606826229763
      ],
      [
        "▁skulle",
        -7.125891008485008
      ],
      [
        "▁än",
        -7.130150193933176
      ],
      [
        "are",
        -7.131332824029489
      ],
      [
        "erna",
        -7.134775441810847
      ],
      [
        "▁blir",
        -7.141921700503461
      ],
      [
        "u",
        -7.153403669004817
      ],
      [
        "▁En",
        -7.163429357739476
      ],
      [
        "▁mot",
        -7.173182079948294
      ],
      [
        "c",
        -7.183104131786891
      ],
      [
        "▁sin",
        -7.195538958965505
      ],
      [
        "▁För",
        -7.202748822554721
      ],
      [
        "▁gör",
        -7.229740411927397
      ],
      [
        "▁många",
        -7.2349385080611945
      ],
      [
        "▁göra",
        -7.237242584244054
      ],
      [
        "▁min",
        -7.253799983770266
      ],
      [
        "▁din",
        -7.2715920861886225
      ],
      [
        "▁ju",
        -7.275302141260724
      ],
      [
        "▁Den",
        -7.281032125465739
      ],
      [
        "▁S",
        -7.2940570322224065
      ],
      [
        "▁De",
        -7.296094376678322
      ],
      [
        "▁detta",
        -7.296378744639865
      ],
      [
        "▁hon",
        -7.308625829950156
      ],
      [
        "▁utan",
        -7.3214367808105365
      ],
      [
        "▁oss",
        -7.321695767217491
      ],
      [
        "▁sedan",
        -7.333294563338583
      ],
      [
        "▁något",
        -7.333344460069153
      ],
      [
        "▁se",
        -7.333885962365255
      ],
      [
        "in",
        -7.334150243428233
      ],
      [
        "▁olika",
        -7.386139224191361
      ],
      [
        "▁två",
        -7.391019930520869
      ],
      [
        "b",
        -7.393270448492684
      ],
      [
        "▁allt",
        -7.395602758841662
      ],
      [
        "▁del",
        -7.414688384312642
      ],
      [
        "ade",
        -7.431876055875826
      ],
      [
        "▁bli",
        -7.434210826480177
      ],
      [
        "▁genom",
        -7.452721040253408
      ],
      [
        "▁någon",
        -7.4543901809394075
      ],
      [
        "å",
        -7.455956247695834
      ],
      [
        "▁säger",
        -7.458348994136646
      ],
      [
        "▁går",
        -7.476188066577533
      ],
      [
        "▁helt",
        -7.485263045734623
      ],
      [
        "ning",
        -7.491944157525436
      ],
      [
        "S",
        -7.504106649666591
      ],
      [
        "▁fick",
        -7.518449925550673
      ],
      [
        "▁fram",
        -7.522670258160405
      ],
      [
        "▁nya",
        -7.524758167066439
      ],
      [
        "▁Om",
        -7.534302066417741
      ],
      [
        "▁hela",
        -7.542889169884393
      ],
      [
        "ande",
        -7.557196077241352
      ],
      [
        "▁inom",
        -7.558146193408579
      ],
      [
        "arna",
        -7.5711552572785
      ],
      [
        "▁varit",
        -7.575214216898834
      ],
      [
        "▁blev",
        -7.57860851183098
      ],
      [
        "▁måste",
        -7.581554209910884
      ],
      [
        "▁första",
        -7.583497498982677
      ],
      [
        "▁dem",
        -7.5956218733570235
      ],
      [
        "▁några",
        -7.597718455091094
      ],
      [
        "▁samt",
        -7.612965804658668
      ],
      [
        "▁Du",
        -7.622420879060053
      ],
      [
        "▁denna",
        -7.625985011769535
      ],
      [
        "▁mellan",
        -7.629332997628731
      ],
      [
        "▁kunna",
        -7.646854149864058
      ],
      [
        "ing",
        -7.6638437306961755
      ],
      [
        "▁sätt",
        -7.667533308261133
      ],
      [
        "▁Sverige",
        -7.676337882723775
      ],
      [
        "▁När",
        -7.684378418256088
      ],
      [
        "▁själv",
        -7.695973813423215
      ],
      [
        "▁barn",
        -7.696567361332974
      ],
      [
        "ur",
        -7.701222867483207
      ],
      [
        "▁rätt",
        -7.702923972253961
      ],
      [
        "▁väl",
        -7.7134369942309515
      ],
      [
        "▁Och",
        -7.714314659581918
      ],
      [
        "&",
        -7.715729503770545
      ],
      [
        "▁vår",
        -7.725065222131169
      ],
      [
        "▁annat",
        -7.740466288366758
      ],
      [
        "▁ser",
        -7.743933527212951
      ],
      [
        "▁tid",
        -7.745006027639594
      ],
      [
        ";",
        -7.745187854159278
      ],
      [
        "j",
        -7.772364784995931
      ],
      [
        "▁be",
        -7.772847991656331
      ],
      [
        "▁dag",
        -7.778167539590916
      ],
      [
        "▁A",
        -7.780168843178702
      ],
      [
        "▁hos",
        -7.785955272056764
      ],
      [
        "▁Så",
        -7.786899513230553
      ],
      [
        "or",
        -7.7881101411472375
      ],
      [
        "▁vilket",
        -7.789282998437667
      ],
      [
        "▁stor",
        -7.795981247683571
      ],
      [
        "▁sina",
        -7.798776099046114
      ],
      [
        "▁både",
        -7.800293015762923
      ],
      [
        "▁Nu",
        -7.81792615382005
      ],
      [
        "▁ny",
        -7.822765268593537
      ],
      [
        "▁våra",
        -7.838538120420845
      ],
      [
        "▁gå",
        -7.838853359716319
      ],
      [
        "▁F",
        -7.845102221737768
      ],
      [
        "ens",
        -7.849413019657051
      ],
      [
        "el",
        -7.856000775734477
      ],
      [
        "▁behöver",
        -7.865380796597785
      ],
      [
        "▁På",
        -7.876772715386908
      ],
      [
        "▁kanske",
        -7.876815673554642
      ],
      [
        "x",
        -7.878116737028034
      ],
      [
        "▁kom",
        -7.879360235179098
      ],
      [
        "▁dessa",
        -7.88298266146675
      ],
      [
        "▁bästa",
        -7.8910281396881
      ],
      [
        "ingen",
        -7.894156599099112
      ],
      [
        "▁hem",
        -7.895484161342885
      ],
      [
        "▁vet",
        -7.90014623917112
      ],
      [
        "▁innan",
        -7.906290527888785
      ],
      [
        "▁flera",
        -7.922846313631451
      ],
      [
        "▁idag",
        -7.933362150335913
      ],
      [
        "▁G",
        -7.940047611193146
      ],
      [
        "▁Han",
        -7.942778545566744
      ],
      [
        "▁sitt",
        -7.9580292201132234
      ],
      [
        "▁hitta",
        -7.961306858823523
      ],
      [
        "▁samma",
        -7.964823555489415
      ],
      [
        "▁B",
        -7.966456315054378
      ],
      [
        "%",
        -7.968154256575524
      ],
      [
        "▁tar",
        -7.974420310267046
      ],
      [
        "▁ner",
        -7.978661111051814
      ],
      [
        "▁ger",
        -7.97970524460394
      ],
      [
        "▁alltid",
        -7.9809364792299125
      ],
      [
        "ö",
        -7.984842623295949
      ],
      [
        "▁bort",
        -7.990321923027212
      ],
      [
        "▁ditt",
        -7.99054143648714
      ],
      [
        "▁K",
        -7.995022697358079
      ],
      [
        "▁Här",
        -7.999679394206021
      ],
      [
        "▁tre",
        -8.000533621147644
      ],
      [
        "▁M",
        -8.006908631660407
      ],
      [
        "▁stora",
        -8.013947448315855
      ],
      [
        "▁bland",
        -8.01783482702187
      ],
      [
        "▁C",
        -8.01898465209477
      ],
      [
        "▁varje",
        -8.022655508532068
      ],
      [
        "▁Att",
        -8.023006024399466
      ],
      [
        "▁Läs",
        -8.025752886069759
      ],
      [
        "▁väldigt",
        -8.047260281665542
      ],
      [
        "▁igen",
        -8.057945165594555
      ],
      [
        "▁bättre",
        -8.059532005285456
      ],
      [
        "▁E",
        -8.061165615814001
      ],
      [
        "▁Detta",
        -8.065556975551559
      ],
      [
        "▁tycker",
        -8.068888863714152
      ],
      [
        "on",
        -8.068974217341705
      ],
      [
        "man",
        -8.076197463359877
      ],
      [
        "▁ligger",
        -8.07845636258696
      ],
      [
        "▁fall",
        -8.085912996132093
      ],
      [
        "B",
        -8.085948012212286
      ],
      [
        "▁gäller",
        -8.093921945455223
      ],
      [
        "▁nog",
        -8.109431246039374
      ],
      [
        "för",
        -8.113709527675505
      ],
      [
        "▁just",
        -8.114695265168303
      ],
      [
        "▁tidigare",
        -8.119364211895936
      ],
      [
        "▁T",
        -8.119653367788507
      ],
      [
        "nde",
        -8.12374630128527
      ],
      [
        "om",
        -8.123748939810929
      ],
      [
        "▁fått",
        -8.126545383403633
      ],
      [
        "▁ge",
        -8.127084212973298
      ],
      [
        "▁mitt",
        -8.128942058081469
      ],
      [
        "▁Har",
        -8.133444569920865
      ],
      [
        "▁P",
        -8.135604880699335
      ],
      [
        "▁kr",
        -8.135613493252293
      ],
      [
        "ä",
        -8.137182412972749
      ],
      [
        "▁hotell",
        -8.143118477197012
      ],
      [
        "▁gång",
        -8.148126667665174
      ],
      [
        "▁komma",
        -8.151543864826
      ],
      [
        "D",
        -8.154131650609438
      ],
      [
        "▁Med",
        -8.156598004322326
      ],
      [
        "▁åt",
        -8.159516419300337
      ],
      [
        "|",
        -8.15960192493251
      ],
      [
        "▁mest",
        -8.179156870507258
      ],
      [
        "▁riktigt",
        -8.17985980660006
      ],
      [
        "L",
        -8.181100434928378
      ],
      [
        "▁tror",
        -8.185984511197189
      ],
      [
        "▁svenska",
        -8.18814686101379
      ],
      [
        "▁dock",
        -8.191365887403224
      ],
      [
        "▁skall",
        -8.199218131011186
      ],
      [
        "▁Vad",
        -8.199730220887258
      ],
      [
        "T",
        -8.202312380578983
      ],
      [
        "▁annan",
        -8.205551594616676
      ],
      [
        "des",
        -8.207426998320097
      ],
      [
        "'",
        -8.211320540243733
      ],
      [
        "▁eftersom",
        -8.212481832577227
      ],
      [
        "▁enligt",
        -8.21445902813915
      ],
      [
        "▁gick",
        -8.217484460914795
      ],
      [
        "▁redan",
        -8.220679133576914
      ],
      [
        "▁Ett",
        -8.228772058194938
      ],
      [
        "▁H",
        -8.228794484734522
      ],
      [
        "▁Hur",
        -8.23288264325133
      ],
      [
        "▁fler",
        -8.233852987951444
      ],
      [
        "▁gratis",
        -8.23549403719639
      ],
      [
        "▁plats",
        -8.237855216758598
      ],
      [
        "la",
        -8.238364439076442
      ],
      [
        "▁runt",
        -8.245938684413325
      ],
      [
        "▁personer",
        -8.253906796312652
      ],
      [
        "▁dom",
        -8.25771409432563
      ],
      [
        "▁människor",
        -8.258914746303201
      ],
      [
        "▁dina",
        -8.2597321498243
      ],
      [
        "A",
        -8.261529009989015
      ],
      [
        "▁kunde",
        -8.261996168529802
      ],
      [
        "P",
        -8.28272480370351
      ],
      [
        "▁gjort",
        -8.282998812265884
      ],
      [
        "är",
        -8.28387253181087
      ],
      [
        "▁hjälp",
        -8.284325447445376
      ],
      [
        "▁företag",
        -8.291700209178732
      ],
      [
        "▁information",
        -8.292471489484631
      ],
      [
        "▁Man",
        -8.294879176325718
      ],
      [
        "▁deras",
        -8.29521527488524
      ],
      [
        "K",
        -8.303298853919516
      ],
      [
        "M",
        -8.31174193399885
      ],
      [
        "▁lika",
        -8.312141037501707
      ],
      [
        "▁aldrig",
        -8.313170668698982
      ],
      [
        "▁tillbaka",
        -8.314693236575742
      ],
      [
        "▁tillsammans",
        -8.321174881807224
      ],
      [
        "▁senaste",
        -8.328280833543824
      ],
      [
        "▁R",
        -8.328537358809145
      ],
      [
        "▁verkligen",
        -8.329578266602494
      ],
      [
        "▁grund",
        -8.33528031952716
      ],
      [
        "ut",
        -8.337754828426185
      ],
      [
        "▁gjorde",
        -8.338882195633829
      ],
      [
        "com",
        -8.343922071801654
      ],
      [
        "▁mat",
        -8.345007016531087
      ],
      [
        "*",
        -8.347927374805822
      ],
      [
        "▁ofta",
        -8.356309149453308
      ],
      [
        "▁tiden",
        -8.358998389969175
      ],
      [
        "·",
        -8.3688517840941
      ],
      [
        "▁tog",
        -8.370094095259969
      ],
      [
        "▁lätt",
        -8.380455180230424
      ],
      [
        "▁spel",
        -8.386319585039818
      ],
      [
        "▁mindre",
        -8.387897823076353
      ],
      [
        "▁direkt",
        -8.395361736939574
      ],
      [
        "▁använda",
        -8.398237326086031
      ],
      [
        "▁mina",
        -8.399278058263794
      ],
      [
        "▁små",
        -8.40209088323348
      ],
      [
        "het",
        -8.40732864792071
      ],
      [
        "▁Stockholm",
        -8.409061463060565
      ],
      [
        "▁sen",
        -8.413727611657727
      ],
      [
        "▁hög",
        -8.417454703464333
      ],
      [
        "ig",
        -8.418007551840601
      ],
      [
        "▁hemma",
        -8.418015571219534
      ],
      [
        "▁läsa",
        -8.422328643234495
      ],
      [
        "G",
        -8.42259041461361
      ],
      [
        "▁köpa",
        -8.426163997446421
      ],
      [
        "w",
        -8.427145972285812
      ],
      [
        "▁därför",
        -8.427609181248524
      ],
      [
        "▁honom",
        -8.429715168392583
      ],
      [
        "liga",
        -8.433606179419925
      ],
      [
        "▁kvar",
        -8.434288428055378
      ],
      [
        "▁L",
        -8.436631287519793
      ],
      [
        "ligt",
        -8.436880628732803
      ],
      [
        "▁vatten",
        -8.4435711900664
      ],
      [
        "▁slut",
        -8.444197390224565
      ],
      [
        "▁online",
        -8.44509409931854
      ],
      [
        "[",
        -8.448720138065049
      ],
      [
        "]",
        -8.44928307074181
      ],
      [
        "▁mål",
        -8.452647145327782
      ],
      [
        "▁enkelt",
        -8.456057351101192
      ],
      [
        "▁säga",
        -8.45904243362549
      ],
      [
        "▁bör",
        -8.459295236883609
      ],
      [
        "▁per",
        -8.459805678754549
      ],
      [
        "▁exempel",
        -8.462475876813862
      ],
      [
        "▁hand",
        -8.464925635157766
      ],
      [
        "▁D",
        -8.46765973489435
      ],
      [
        "▁egen",
        -8.467897013749344
      ],
      [
        "▁Som",
        -8.47025108052584
      ],
      [
        "▁större",
        -8.473250730583393
      ],
      [
        "▁ändå",
        -8.478057787101417
      ],
      [
        "▁Efter",
        -8.479172547127009
      ],
      [
        "▁Hon",
        -8.490544292955443
      ],
      [
        "lig",
        -8.491088443138015
      ],
      [
        "▁står",
        -8.492729231579013
      ],
      [
        "ska",
        -8.49294405152544
      ],
      [
        "berg",
        -8.494429355267144
      ],
      [
        "▁problem",
        -8.501002939080658
      ],
      [
        "▁dagar",
        -8.502491038447175
      ],
      [
        "▁Under",
        -8.506972890939364
      ],
      [
        "▁skapa",
        -8.507320823997773
      ],
      [
        "▁innebär",
        -8.51115717579147
      ],
      [
        "▁procent",
        -8.512793673268545
      ],
      [
        "▁hans",
        -8.516129574903232
      ],
      [
        "F",
        -8.517476224202507
      ],
      [
        "▁liv",
        -8.53134034529401
      ],
      [
        "▁stort",
        -8.536299715198103
      ],
      [
        "▁haft",
        -8.537764886155733
      ],
      [
        "▁O",
        -8.540402946271872
      ],
      [
        "▁god",
        -8.542279241641587
      ],
      [
        "▁längre",
        -8.544709292881114
      ],
      [
        "ex",
        -8.54699956987108
      ],
      [
        "▁kort",
        -8.549384855026956
      ],
      [
        "▁par",
        -8.55250729052322
      ],
      [
        "▁känner",
        -8.552973023706405
      ],
      [
        "▁saker",
        -8.5544437010304
      ],
      [
        "▁lång",
        -8.556671961521012
      ],
      [
        "▁Då",
        -8.557849790459686
      ],
      [
        "▁ca",
        -8.562148497226467
      ],
      [
        "▁pengar",
        -8.563164231087118
      ],
      [
        "▁sex",
        -8.564271870494762
      ],
      [
        "▁folk",
        -8.56720792702423
      ],
      [
        "▁kommun",
        -8.568055739371804
      ],
      [
        "håller",
        -8.56806283875671
      ],
      [
        "▁blivit",
        -8.572424716425132
      ],
      [
        "▁bil",
        -8.572976130156457
      ],
      [
        "▁åter",
        -8.574637480423387
      ],
      [
        "sk",
        -8.579242221021977
      ],
      [
        "N",
        -8.579696748068582
      ],
      [
        "ch",
        -8.586168803633262
      ],
      [
        "▁kvinnor",
        -8.590518212973716
      ],
      [
        "be",
        -8.592385276935076
      ],
      [
        "son",
        -8.593163741110475
      ],
      [
        "vis",
        -8.5935303269855
      ],
      [
        "▁länge",
        -8.594056219330755
      ],
      [
        "▁of",
        -8.5951798783291
      ],
      [
        "▁V",
        -8.595411489613488
      ],
      [
        "▁visar",
        -8.5956795580819
      ],
      [
        "▁pris",
        -8.597014088661197
      ],
      [
        "▁faktiskt",
        -8.600981367950965
      ],
      [
        "▁nytt",
        -8.601076553307104
      ],
      [
        "▁möjligt",
        -8.60880828932006
      ],
      [
        "um",
        -8.610772485791202
      ],
      [
        "▁N",
        -8.611989903732066
      ],
      [
        "▁spela",
        -8.612942482267067
      ],
      [
        "H",
        -8.619108217654626
      ],
      [
        "ja",
        -8.621179182955935
      ],
      [
        "▁inget",
        -8.623253595097458
      ],
      [
        "▁ganska",
        -8.632253440409904
      ],
      [
        "▁Ja",
        -8.632664608513014
      ],
      [
        "▁In",
        -8.633093301844399
      ],
      [
        "▁form",
        -8.634088766273402
      ],
      [
        "­",
        -8.635004267463597
      ],
      [
        "iga",
        -8.636059048724388
      ],
      [
        "▁liten",
        -8.637327144201933
      ],
      [
        "▁ännu",
        -8.637393829851693
      ],
      [
        "▁the",
        -8.640354787376102
      ],
      [
        "iska",
        -8.640825817577719
      ],
      [
        "▁inför",
        -8.642960994689204
      ],
      [
        "▁svårt",
        -8.64332751994355
      ],
      [
        "▁extra",
        -8.643551292948827
      ],
      [
        "▁vårt",
        -8.64408949375443
      ],
      [
        "▁Är",
        -8.644197847460685
      ],
      [
        "_",
        -8.645636954442114
      ],
      [
        "▁gärna",
        -8.647982969706485
      ],
      [
        "▁känns",
        -8.65245045340593
      ],
      [
        "▁bilder",
        -8.653457012135052
      ],
      [
        "C",
        -8.654031874305913
      ],
      [
        "▁börjar",
        -8.65460648127153
      ],
      [
        "I",
        -8.655494080345212
      ],
      [
        "▁omdömen",
        -8.65559594604922
      ],
      [
        "▁frågor",
        -8.663997289951714
      ],
      [
        "▁fast",
        -8.664717898108444
      ],
      [
        "▁Alla",
        -8.668334993082519
      ],
      [
        "▁kl",
        -8.669534757082886
      ],
      [
        "▁hålla",
        -8.670513610934188
      ],
      [
        "hittar",
        -8.679866273795101
      ],
      [
        "▁väg",
        -8.68290536171929
      ],
      [
        "men",
        -8.687623513326736
      ],
      [
        "▁Till",
        -8.689089142850346
      ],
      [
        "▁ute",
        -8.691303671669074
      ],
      [
        "▁fortfarande",
        -8.69423213847124
      ],
      [
        "▁nästan",
        -8.6957129446232
      ],
      [
        "▁nära",
        -8.702041803571504
      ],
      [
        "gått",
        -8.703124001730657
      ],
      [
        "▁dagen",
        -8.703140352747223
      ],
      [
        "Hotell",
        -8.703866241105608
      ],
      [
        "▁vissa",
        -8.704314624868609
      ],
      [
        "att",
        -8.704852899977183
      ],
      [
        "▁dess",
        -8.707271611176234
      ],
      [
        "▁gånger",
        -8.707309737869114
      ],
      [
        "▁kronor",
        -8.707958152027507
      ],
      [
        "▁handlar",
        -8.710596281663774
      ],
      [
        "+",
        -8.712002293807958
      ],
      [
        "▁Se",
        -8.71370477946463
      ],
      [
        "verkar",
        -8.714958477702108
      ],
      [
        "▁vilka",
        -8.715018741549462
      ],
      [
        "▁vilken",
        -8.715297611346122
      ],
      [
        "▁först",
        -8.717220214759879
      ],
      [
        "▁precis",
        -8.718102754707683
      ],
      [
        "▁söker",
        -8.718980858127765
      ],
      [
        "▁senare",
        -8.719064396329985
      ],
      [
        "▁AB",
        -8.720501478442074
      ],
      [
        "▁samtidigt",
        -8.722521558530124
      ],
      [
        "▁fel",
        -8.722787708172003
      ],
      [
        "▁erbjuder",
        -8.72403700100713
      ],
      [
        "▁använder",
        -8.727421313152199
      ],
      [
        "▁vidare",
        -8.728140912219859
      ],
      [
        "▁bild",
        -8.729946327802445
      ],
      [
        "▁henne",
        -8.73173558790711
      ],
      [
        "▁lag",
        -8.735402673108517
      ],
      [
        "▁jobb",
        -8.738752407755488
      ],
      [
        "tal",
        -8.743226362325661
      ],
      [
        "av",
        -8.744061801916112
      ],
      [
        "▁sidan",
        -8.749212217396757
      ],
      [
        "talet",
        -8.750371195768038
      ],
      [
        "X",
        -8.750855618300692
      ],
      [
        "▁hoppas",
        -8.752064714258998
      ],
      [
        "▁alltså",
        -8.752236114111843
      ],
      [
        "▁istället",
        -8.758831642427698
      ],
      [
        "▁största",
        -8.759073099636057
      ],
      [
        "▁gott",
        -8.759567810678973
      ],
      [
        ">",
        -8.760866234533985
      ],
      [
        "▁året",
        -8.762046308993403
      ],
      [
        "▁flesta",
        -8.763481499130224
      ],
      [
        "▁fråga",
        -8.770420327844008
      ],
      [
        "▁arbete",
        -8.772332219488865
      ],
      [
        "▁hel",
        -8.772393011320139
      ],
      [
        "▁endast",
        -8.773009279358238
      ],
      [
        "▁skriver",
        -8.773734149678337
      ],
      [
        "▁viktigt",
        -8.774647187687751
      ],
      [
        "▁fyra",
        -8.776406197828983
      ],
      [
        "=",
        -8.779632248943159
      ],
      [
        "▁nästa",
        -8.780859264490045
      ],
      [
        "▁ihop",
        -8.781678673532177
      ],
      [
        "vägen",
        -8.782966541406307
      ],
      [
        "▁person",
        -8.786195184033195
      ],
      [
        "▁rum",
        -8.787722135259532
      ],
      [
        "▁sista",
        -8.788036607763608
      ],
      [
        "▁dejting",
        -8.788436013407157
      ],
      [
        "▁stöd",
        -8.791842029408341
      ],
      [
        "▁and",
        -8.79293959154225
      ],
      [
        "ka",
        -8.793483115732236
      ],
      [
        "▁började",
        -8.795655307067435
      ],
      [
        "▁all",
        -8.795718888201728
      ],
      [
        "V",
        -8.797622355950159
      ],
      [
        "▁km",
        -8.799843551192362
      ],
      [
        "▁Där",
        -8.806327910950108
      ],
      [
        "E",
        -8.821115303753073
      ],
      [
        "▁snabbt",
        -8.82453600726191
      ],
      [
        "tid",
        -8.828431693075917
      ],
      [
        "år",
        -8.828668839152023
      ],
      [
        "▁minst",
        -8.829831444354419
      ],
      [
        "▁Re",
        -8.83044533283403
      ],
      [
        "▁J",
        -8.835261352181776
      ],
      [
        "▁sett",
        -8.836899753587021
      ],
      [
        "▁välja",
        -8.838261656007047
      ],
      [
        "▁kring",
        -8.840745148347288
      ],
      [
        "▁fin",
        -8.843996389799546
      ],
      [
        "▁egna",
        -8.84401977214726
      ],
      [
        "▁hennes",
        -8.851806780325795
      ],
      [
        "ej",
        -8.858284137600613
      ],
      [
        "▁börja",
        -8.858364213828034
      ],
      [
        "▁tips",
        -8.859533079991525
      ],
      [
        "▁världen",
        -8.860177448455307
      ],
      [
        "ger",
        -8.862097664399704
      ],
      [
        "▁Av",
        -8.863562905402391
      ],
      [
        "▁själva",
        -8.863656352232859
      ],
      [
        "▁svar",
        -8.86468613551268
      ],
      [
        "ering",
        -8.864981444330999
      ],
      [
        "z",
        -8.866183322196473
      ],
      [
        "igt",
        -8.86651329578938
      ],
      [
        "▁såg",
        -8.866916373601427
      ],
      [
        "orna",
        -8.867146756272525
      ],
      [
        "▁vecka",
        -8.868235926961923
      ],
      [
        "▁möjlighet",
        -8.868333762351574
      ],
      [
        "▁kul",
        -8.872895373165237
      ],
      [
        "ring",
        -8.873245637557904
      ],
      [
        "▁beslut",
        -8.87593194989391
      ],
      [
        "kar",
        -8.876926170031112
      ],
      [
        "▁visa",
        -8.878598176767593
      ],
      [
        "tagit",
        -8.878940651542054
      ],
      [
        "▁dessutom",
        -8.87896142942416
      ],
      [
        "inga",
        -8.87918088680043
      ],
      [
        "▁gamla",
        -8.879906903006965
      ],
      [
        "▁The",
        -8.880710458593844
      ],
      [
        "▁fem",
        -8.882233230432693
      ],
      [
        "▁Idag",
        -8.883546612212957
      ],
      [
        "#",
        -8.883818868102182
      ],
      [
        "▁borde",
        -8.885990130063878
      ],
      [
        "▁miljö",
        -8.888395199501558
      ],
      [
        "▁klart",
        -8.891107932346122
      ],
      [
        "ell",
        -8.89179763325617
      ],
      [
        "R",
        -8.895281632320293
      ],
      [
        "sta",
        -8.899225198952742
      ],
      [
        "▁män",
        -8.901797047280478
      ],
      [
        "▁ned",
        -8.90353948938637
      ],
      [
        "ge",
        -8.913896834381735
      ],
      [
        "min",
        -8.914500704639883
      ],
      [
        "▁helst",
        -8.91561059677678
      ],
      [
        "▁typ",
        -8.91571922693133
      ],
      [
        "den",
        -8.919585100336832
      ],
      [
        "▁minuter",
        -8.92070904085861
      ],
      [
        "▁Be",
        -8.922416887765577
      ],
      [
        "▁lägga",
        -8.923893661764959
      ],
      [
        "▁Var",
        -8.927133361646307
      ],
      [
        "▁hjälper",
        -8.927577170578239
      ],
      [
        "▁namn",
        -8.93312917722973
      ],
      [
        "▁långt",
        -8.93417878063071
      ],
      [
        "▁Max",
        -8.936992813676286
      ],
      [
        "land",
        -8.939381340582695
      ],
      [
        "▁trots",
        -8.939590362129861
      ],
      [
        "aste",
        -8.94027359808238
      ],
      [
        "▁skriva",
        -8.94228139880812
      ],
      [
        "▁behov",
        -8.942725750880362
      ],
      [
        "▁varför",
        -8.943088654424885
      ],
      [
        "▁delar",
        -8.945232113395233
      ],
      [
        "▁kontakt",
        -8.945293189387208
      ],
      [
        "ningen",
        -8.946110664103324
      ],
      [
        "▁Även",
        -8.946789433210485
      ],
      [
        "▁hjälpa",
        -8.9478708350698
      ],
      [
        "bo",
        -8.949701641519956
      ],
      [
        "▁priser",
        -8.951440378147222
      ],
      [
        "▁färg",
        -8.952920891187071
      ],
      [
        "▁fina",
        -8.960112340576298
      ],
      [
        "▁Air",
        -8.960641020061242
      ],
      [
        "▁Ta",
        -8.961313305399015
      ],
      [
        "▁to",
        -8.961339828460822
      ],
      [
        "by",
        -8.961374197404734
      ],
      [
        "▁brukar",
        -8.966372227386334
      ],
      [
        "“",
        -8.969428504463224
      ],
      [
        "▁val",
        -8.969893096929885
      ],
      [
        "▁medan",
        -8.97003840692272
      ],
      [
        "▁Nike",
        -8.97013966522538
      ],
      [
        "▁Denna",
        -8.970155099602737
      ],
      [
        "▁energi",
        -8.970827791997877
      ],
      [
        "▁arbetar",
        -8.972254043120445
      ],
      [
        "▁början",
        -8.973043189497577
      ],
      [
        "▁veckan",
        -8.974011412815534
      ],
      [
        "emot",
        -8.978337324757169
      ],
      [
        "ste",
        -8.980004924402419
      ],
      [
        "▁Vid",
        -8.980371175506765
      ],
      [
        "▁timmar",
        -8.981884637510111
      ],
      [
        "▁känna",
        -8.981962646190912
      ],
      [
        "sson",
        -8.983293233427837
      ],
      [
        "▁snart",
        -8.983613311518482
      ],
      [
        "▁resultat",
        -8.983968815458082
      ],
      [
        "▁enda",
        -8.986085026488132
      ],
      [
        "▁Visa",
        -8.986104944762479
      ],
      [
        "▁ord",
        -8.987079495546556
      ],
      [
        "▁ibland",
        -8.987685223524043
      ],
      [
        "▁Sveriges",
        -8.990029364089935
      ],
      [
        "▁bäst",
        -8.990797317502054
      ],
      [
        "del",
        -8.991570049997618
      ],
      [
        "▁Min",
        -8.99252787518362
      ],
      [
        "ton",
        -8.99271105615745
      ],
      [
        "▁ville",
        -8.992855247902973
      ],
      [
        "▁tänka",
        -8.997474681033479
      ],
      [
        "▁tur",
        -8.997581199973226
      ],
      [
        "O",
        -8.998515502686667
      ],
      [
        "gen",
        -8.99939536812631
      ],
      [
        "spel",
        -9.005544435287792
      ],
      [
        "▁låg",
        -9.012178712487703
      ],
      [
        "▁W",
        -9.012674261185277
      ],
      [
        "▁nätet",
        -9.012892627042055
      ],
      [
        "▁heller",
        -9.013154955090473
      ],
      [
        "▁film",
        -9.0159349832684
      ],
      [
        "▁antal",
        -9.017304551666154
      ],
      [
        "▁vanligt",
        -9.019275810503835
      ],
      [
        "▁livet",
        -9.020122074392
      ],
      [
        "fanns",
        -9.021584711986339
      ],
      [
        "▁miljoner",
        -9.023878292333443
      ],
      [
        "▁maj",
        -9.023919033270111
      ],
      [
        "▁USA",
        -9.024989877351986
      ],
      [
        "▁tag",
        -9.025658032018098
      ],
      [
        "▁passar",
        -9.025768277717864
      ],
      [
        "W",
        -9.025912327297435
      ],
      [
        "▁emot",
        -9.027194464062903
      ],
      [
        "▁landet",
        -9.027308426167826
      ],
      [
        "▁hus",
        -9.02742103232486
      ],
      [
        "▁Sedan",
        -9.029294750899476
      ],
      [
        "▁egentligen",
        -9.029676980086094
      ],
      [
        "▁Tack",
        -9.029805275382005
      ],
      [
        "▁betala",
        -9.030638989557312
      ],
      [
        "▁bok",
        -9.030800197419229
      ],
      [
        "▁for",
        -9.037906213331679
      ],
      [
        "era",
        -9.039067320042472
      ],
      [
        "▁EU",
        -9.039457845624323
      ],
      [
        "▁gången",
        -9.040080996991646
      ],
      [
        "▁inne",
        -9.04071842082068
      ],
      [
        "▁dags",
        -9.042439142309668
      ],
      [
        "frågan",
        -9.043162413109629
      ],
      [
        "▁arbets",
        -9.045735155974143
      ],
      [
        "▁skicka",
        -9.04711387327473
      ],
      [
        "▁sådan",
        -9.048450868618986
      ],
      [
        "me",
        -9.049585693603204
      ],
      [
        "rum",
        -9.050358997716513
      ],
      [
        "ly",
        -9.050465452940816
      ],
      [
        "▁framför",
        -9.05123942646943
      ],
      [
        "▁produkter",
        -9.052979594831752
      ],
      [
        "var",
        -9.054797193033338
      ],
      [
        "▁förslag",
        -9.055638789873276
      ],
      [
        "hus",
        -9.05677667875361
      ],
      [
        "▁dating",
        -9.058301586046976
      ],
      [
        "ion",
        -9.060151634373826
      ],
      [
        "och",
        -9.062915993938748
      ],
      [
        "▁veta",
        -9.06325610770532
      ],
      [
        "▁Bo",
        -9.06682778373958
      ],
      [
        "▁utanför",
        -9.073103593078649
      ],
      [
        "▁Kan",
        -9.075182246452043
      ],
      [
        "▁fungerar",
        -9.076828191742779
      ],
      [
        "sagt",
        -9.077834172585472
      ],
      [
        "▁gillar",
        -9.078515609623578
      ],
      [
        "▁ytterligare",
        -9.079019069216084
      ],
      [
        "rätt",
        -9.07958082253751
      ],
      [
        "▁varandra",
        -9.080303963517352
      ],
      [
        "▁Ut",
        -9.083062607193575
      ],
      [
        "bar",
        -9.083645473425717
      ],
      [
        "▁svensk",
        -9.084848442558014
      ],
      [
        "ström",
        -9.088140119555245
      ],
      [
        "▁jätte",
        -9.088189468207956
      ],
      [
        "co",
        -9.091324908261646
      ],
      [
        "sitter",
        -9.092207685003718
      ],
      [
        "ör",
        -9.092749821588168
      ],
      [
        "lan",
        -9.096701263398543
      ],
      [
        "▁Sen",
        -9.097815618165777
      ],
      [
        "▁resa",
        -9.09822858520335
      ],
      [
        "▁särskilt",
        -9.100031873833322
      ],
      [
        "▁båda",
        -9.100068906861614
      ],
      [
        "▁pa",
        -9.10034173159261
      ],
      [
        "lagen",
        -9.101007905496418
      ],
      [
        "▁Inte",
        -9.101309610742067
      ],
      [
        "▁används",
        -9.108183984237241
      ],
      [
        "▁ja",
        -9.109894488375806
      ],
      [
        "med",
        -9.114927984841176
      ],
      [
        "▁verksamhet",
        -9.115860440716316
      ],
      [
        "ast",
        -9.116953444851497
      ],
      [
        "▁maskin",
        -9.119302238669222
      ],
      [
        "ningar",
        -9.120943842461289
      ],
      [
        "▁kommit",
        -9.126337890369456
      ],
      [
        "val",
        -9.127566216781734
      ],
      [
        "▁besök",
        -9.12821323216996
      ],
      [
        "▁natt",
        -9.128658047422263
      ],
      [
        "▁Göteborg",
        -9.129074477461836
      ],
      [
        "▁veckor",
        -9.13043505512686
      ],
      [
        "▁ljus",
        -9.131674072272457
      ],
      [
        "▁förra",
        -9.13256158642642
      ],
      [
        "▁bor",
        -9.132848736222552
      ],
      [
        "dag",
        -9.134512259635068
      ],
      [
        "▁spelar",
        -9.136730366588573
      ],
      [
        "▁äldre",
        -9.13763008296867
      ],
      [
        "mer",
        -9.140876045048
      ],
      [
        "ras",
        -9.142930982789895
      ],
      [
        "▁sak",
        -9.143456324286882
      ],
      [
        "▁kör",
        -9.145934811593031
      ],
      [
        "J",
        -9.148175129826976
      ],
      [
        "än",
        -9.15008602459408
      ],
      [
        "▁bakom",
        -9.151072948898163
      ],
      [
        "▁mamma",
        -9.151079730545089
      ],
      [
        "isk",
        -9.15213663867206
      ],
      [
        "▁Bra",
        -9.152777666477112
      ],
      [
        "▁dra",
        -9.152809236600271
      ],
      [
        "▁huvud",
        -9.153368528900787
      ],
      [
        "▁lämna",
        -9.153959972747696
      ],
      [
        "▁Vill",
        -9.15522379433235
      ],
      [
        "▁arbeta",
        -9.156897061092183
      ],
      [
        "▁skolan",
        -9.157837677816236
      ],
      [
        "▁musik",
        -9.158965309349664
      ],
      [
        "▁händer",
        -9.159033969758463
      ],
      [
        "ling",
        -9.159168136494012
      ],
      [
        "▁bl",
        -9.165025274867297
      ],
      [
        "▁inlägg",
        -9.167765373392966
      ],
      [
        "▁sida",
        -9.167979447584704
      ],
      [
        "ha",
        -9.16806738305438
      ],
      [
        "tänker",
        -9.169194221034466
      ],
      [
        "▁projekt",
        -9.173303680474552
      ],
      [
        "▁Svenska",
        -9.175149856236722
      ],
      [
        "▁jul",
        -9.175238686115254
      ],
      [
        "▁Ni",
        -9.18362803669527
      ],
      [
        "▁betyg",
        -9.184977444924641
      ],
      [
        "▁igenom",
        -9.185232968895185
      ],
      [
        "▁lilla",
        -9.185292675545815
      ],
      [
        "ligen",
        -9.187038274546204
      ],
      [
        "▁utveckling",
        -9.188707688955747
      ],
      [
        "▁säkert",
        -9.190441935800298
      ],
      [
        "▁åka",
        -9.190810598938961
      ],
      [
        "▁ovan",
        -9.191266511370626
      ],
      [
        "▁ex",
        -9.191319236166615
      ],
      [
        "▁full",
        -9.19426745658722
      ],
      [
        "lar",
        -9.196443381881199
      ],
      [
        "▁bo",
        -9.196713044252055
      ],
      [
        "▁månader",
        -9.198433069036417
      ],
      [
        "samma",
        -9.198966291925514
      ],
      [
        "▁barnen",
        -9.200306439582713
      ],
      [
        "Dessutom",
        -9.200520821508988
      ],
      [
        "▁personal",
        -9.202984763642734
      ],
      [
        "▁steg",
        -9.203217984967726
      ],
      [
        "▁blogg",
        -9.20503700874216
      ],
      [
        "▁innehåller",
        -9.205160462169909
      ],
      [
        "▁högre",
        -9.207246371796936
      ],
      [
        "▁La",
        -9.208868389301344
      ],
      [
        "▁perfekt",
        -9.209329203186975
      ],
      [
        "▁Malmö",
        -9.213673073049458
      ],
      [
        "▁ingår",
        -9.214052809059572
      ],
      [
        "▁Hotel",
        -9.214978188343292
      ],
      [
        "▁alternativ",
        -9.218995569460217
      ],
      [
        "▁krav",
        -9.219814083421218
      ],
      [
        "▁jobba",
        -9.22002467989467
      ],
      [
        "▁sommar",
        -9.22217240320717
      ],
      [
        "▁kroppen",
        -9.227746194527896
      ],
      [
        "<",
        -9.228696910023096
      ],
      [
        "▁äta",
        -9.231510915420692
      ],
      [
        "▁unga",
        -9.231550769651335
      ],
      [
        "▁Enligt",
        -9.23185815730433
      ],
      [
        "ett",
        -9.23325606554952
      ],
      [
        "erade",
        -9.234452255879592
      ],
      [
        "é",
        -9.23453444728412
      ],
      [
        "▁öppna",
        -9.235450728456538
      ],
      [
        "▁Jo",
        -9.235636518485125
      ],
      [
        "▁max",
        -9.242139444349322
      ],
      [
        "▁tack",
        -9.245385154927495
      ],
      [
        "rna",
        -9.246938217285134
      ],
      [
        "▁alls",
        -9.24767807089162
      ],
      [
        "▁bygga",
        -9.250429881601145
      ],
      [
        "▁skrev",
        -9.250718660344637
      ],
      [
        "▁kunder",
        -9.252107342640233
      ],
      [
        "▁fr",
        -9.25293505030716
      ],
      [
        "▁Ha",
        -9.254087432083791
      ],
      [
        "bok",
        -9.258727970907456
      ],
      [
        "▁berättar",
        -9.260506418629628
      ],
      [
        "▁bonus",
        -9.262561578338472
      ],
      [
        "lag",
        -9.266152984986588
      ],
      [
        "Många",
        -9.266375188484758
      ],
      [
        "▁dejta",
        -9.267773983651672
      ],
      [
        "▁service",
        -9.26967298825535
      ],
      [
        "▁Ska",
        -9.27169555791622
      ],
      [
        "▁ansvar",
        -9.273441910875245
      ],
      [
        "▁lära",
        -9.274102170643157
      ],
      [
        "▁U",
        -9.274135489235661
      ],
      [
        "väljer",
        -9.27669884099936
      ],
      [
        "▁januari",
        -9.278313665304015
      ],
      [
        "▁Genom",
        -9.279256210606707
      ],
      [
        "▁roligt",
        -9.279722787420148
      ],
      [
        "▁åren",
        -9.283047476156764
      ],
      [
        "sätta",
        -9.283069728107579
      ],
      [
        "U",
        -9.283376036472982
      ],
      [
        "up",
        -9.28400750240716
      ],
      [
        "ner",
        -9.284136250124678
      ],
      [
        "mat",
        -9.28448246797536
      ],
      [
        "▁kvinna",
        -9.284931286153846
      ],
      [
        "▁fri",
        -9.284994890555991
      ],
      [
        "▁vänner",
        -9.286718864930728
      ],
      [
        "▁främst",
        -9.286923116404926
      ],
      [
        "▁tydlig",
        -9.287626847814526
      ],
      [
        "▁lär",
        -9.287661978514377
      ],
      [
        "▁mars",
        -9.290320170795647
      ],
      [
        "ver",
        -9.292099109133272
      ],
      [
        "▁viktig",
        -9.293096099039241
      ],
      [
        "ans",
        -9.2932416539284
      ],
      [
        "kort",
        -9.293937071920498
      ],
      [
        "ist",
        -9.294456150648655
      ],
      [
        "▁träffa",
        -9.298757522197592
      ],
      [
        "▁hotellet",
        -9.299880108346988
      ],
      [
        "som",
        -9.30037618414514
      ],
      [
        "▁augusti",
        -9.301142193606472
      ],
      [
        "▁spelare",
        -9.3013566356388
      ],
      [
        "▁följa",
        -9.301649045300382
      ],
      [
        "▁program",
        -9.301972879341125
      ],
      [
        "▁design",
        -9.302108624755538
      ],
      [
        "▁fint",
        -9.304408424093632
      ],
      [
        "läget",
        -9.305829826171236
      ],
      [
        "else",
        -9.306919949254535
      ],
      [
        "Det",
        -9.307112975120717
      ],
      [
        "sjön",
        -9.307985499051144
      ],
      [
        "▁Ny",
        -9.309562119873227
      ],
      [
        "tar",
        -9.309572635533456
      ],
      [
        "$",
        -9.31058557426249
      ],
      [
        "▁län",
        -9.311403122724691
      ],
      [
        "eller",
        -9.311664682566002
      ],
      [
        "laget",
        -9.313957451654757
      ],
      [
        "▁El",
        -9.315026895058592
      ],
      [
        "▁sol",
        -9.315494503815879
      ],
      [
        "▁An",
        -9.316999050362929
      ],
      [
        "▁samband",
        -9.317817111903024
      ],
      [
        "▁poäng",
        -9.318665866476612
      ],
      [
        "▁följande",
        -9.321218379702804
      ],
      [
        "▁fort",
        -9.321317647956791
      ],
      [
        "▁sker",
        -9.321646331337057
      ],
      [
        "▁satt",
        -9.322205342645521
      ],
      [
        "▁igång",
        -9.322498991196369
      ],
      [
        "▁kultur",
        -9.323940785407173
      ],
      [
        "▁roll",
        -9.324072900149657
      ],
      [
        "▁skor",
        -9.324092433331726
      ],
      [
        "▁titta",
        -9.32477949705565
      ],
      [
        "▁spännande",
        -9.327481795453863
      ],
      [
        "ant",
        -9.328316308485297
      ],
      [
        "▁massa",
        -9.335380808841617
      ],
      [
        "▁ifrån",
        -9.335409241637272
      ],
      [
        "ler",
        -9.33556852572104
      ],
      [
        "▁Allt",
        -9.338342121823247
      ],
      [
        "▁råd",
        -9.338990880036178
      ],
      [
        "▁goda",
        -9.341419735254116
      ],
      [
        "▁Från",
        -9.34201046794365
      ],
      [
        "försöka",
        -9.342363142369367
      ],
      [
        "▁start",
        -9.345006341727313
      ],
      [
        "▁års",
        -9.346314850939416
      ],
      [
        "slutet",
        -9.34660455278881
      ],
      [
        "▁området",
        -9.347117514066246
      ],
      [
        "▁liknande",
        -9.348453845735454
      ],
      [
        "tro",
        -9.34915629484941
      ],
      [
        "nas",
        -9.349511809153407
      ],
      [
        "ster",
        -9.349540561861907
      ],
      [
        "ation",
        -9.349833407237805
      ],
      [
        "»",
        -9.350541439696674
      ],
      [
        "▁skol",
        -9.350942628412545
      ],
      [
        "▁recept",
        -9.352461220510222
      ],
      [
        "▁öka",
        -9.352853947690768
      ],
      [
        "▁match",
        -9.353221883269804
      ],
      [
        "ju",
        -9.354282663216047
      ],
      [
        "lösa",
        -9.358258307648281
      ],
      [
        "kan",
        -9.358507040063929
      ],
      [
        "▁uppgifter",
        -9.358890959693488
      ],
      [
        "▁eget",
        -9.359961974332723
      ],
      [
        "▁kolla",
        -9.360196216616213
      ],
      [
        "▁tillgång",
        -9.360253106369251
      ],
      [
        "lin",
        -9.360326689888783
      ],
      [
        "på",
        -9.3607082548628
      ],
      [
        "▁länder",
        -9.36253093057108
      ],
      [
        "▁erfarenhet",
        -9.363415481080835
      ],
      [
        "▁casino",
        -9.363832466370823
      ],
      [
        "▁älskar",
        -9.365963599422152
      ],
      [
        "▁TV",
        -9.36908196154429
      ],
      [
        "▁cm",
        -9.37032974294115
      ],
      [
        "ont",
        -9.371417649149114
      ],
      [
        "•",
        -9.371497099676906
      ],
      [
        "▁material",
        -9.371517299840564
      ],
      [
        "nat",
        -9.372614344685879
      ],
      [
        "ats",
        -9.372931803652301
      ],
      [
        "mar",
        -9.373171061260154
      ],
      [
        "▁jobbet",
        -9.373213344511118
      ],
      [
        "▁kommunen",
        -9.37374036433451
      ],
      [
        "▁Dessa",
        -9.374208901812834
      ],
      [
        "▁vård",
        -9.375717561641508
      ],
      [
        "skap",
        -9.376532163977922
      ],
      [
        "Vi",
        -9.379945429657148
      ],
      [
        "▁dit",
        -9.380259637891895
      ],
      [
        "▁månad",
        -9.382295888790814
      ],
      [
        "▁kvalitet",
        -9.382530233744367
      ],
      [
        "▁jobbar",
        -9.382722407840292
      ],
      [
        "▁glad",
        -9.382815596943372
      ],
      [
        "▁Mer",
        -9.38484763312784
      ],
      [
        "▁Vår",
        -9.38528802373235
      ],
      [
        "upp",
        -9.38594407825372
      ],
      [
        "tan",
        -9.386460102350126
      ],
      [
        "▁grupp",
        -9.387475000717657
      ],
      [
        "▁nedan",
        -9.388668853673678
      ],
      [
        "▁vem",
        -9.388723483621785
      ],
      [
        "▁Nej",
        -9.389333482004352
      ],
      [
        "▁utbildning",
        -9.389741885977152
      ],
      [
        "▁tredje",
        -9.390520526364883
      ],
      [
        "▁liksom",
        -9.390706103439037
      ],
      [
        "▁stå",
        -9.393704915224735
      ],
      [
        "▁djur",
        -9.394325826880877
      ],
      [
        "▁hår",
        -9.395497614204237
      ],
      [
        "▁va",
        -9.396389494539678
      ],
      [
        "▁igår",
        -9.39753937653616
      ],
      [
        "▁stund",
        -9.397847612146391
      ],
      [
        "▁fortsätta",
        -9.39817512204389
      ],
      [
        "▁nätdejting",
        -9.39829004840672
      ],
      [
        "ker",
        -9.400385927322692
      ],
      [
        "slag",
        -9.400764158497616
      ],
      [
        "▁meter",
        -9.402832896918701
      ],
      [
        "Jag",
        -9.40358258496163
      ],
      [
        "§",
        -9.403634036155589
      ],
      [
        "▁utveckla",
        -9.404322921267939
      ],
      [
        "▁juni",
        -9.405403953953368
      ],
      [
        "▁favorit",
        -9.406312510148252
      ],
      [
        "fall",
        -9.407366667523524
      ],
      [
        "▁köp",
        -9.40986131244893
      ],
      [
        "bara",
        -9.41028185486722
      ],
      [
        "▁vanliga",
        -9.411733669510403
      ],
      [
        "▁fortsätter",
        -9.411822393662458
      ],
      [
        "▁halv",
        -9.41389506062555
      ],
      [
        "▁rör",
        -9.415223128363497
      ],
      [
        "ny",
        -9.415727167433547
      ],
      [
        "▁vilja",
        -9.416637155042276
      ],
      [
        "▁betyder",
        -9.41678778675512
      ],
      [
        "▁närheten",
        -9.41837751171238
      ],
      [
        "▁krävs",
        -9.41945629637776
      ],
      [
        "försöker",
        -9.421182795081611
      ],
      [
        "▁engelska",
        -9.423006737164153
      ],
      [
        "▁tio",
        -9.423150358000715
      ],
      [
        "låter",
        -9.423633215171831
      ],
      [
        "▁tro",
        -9.424078969506283
      ],
      [
        "▁vanlig",
        -9.426321353353616
      ],
      [
        "▁behövs",
        -9.427002186234471
      ],
      [
        "programmet",
        -9.427761207468421
      ],
      [
        "▁Eller",
        -9.428297621105532
      ],
      [
        "▁kontakta",
        -9.434579938352757
      ],
      [
        "▁hör",
        -9.435665955815884
      ],
      [
        "▁kväll",
        -9.435828945557326
      ],
      [
        "—",
        -9.43642450035552
      ],
      [
        "gruppen",
        -9.436599265134781
      ],
      [
        "visade",
        -9.436691345079625
      ],
      [
        "erad",
        -9.437965374823644
      ],
      [
        "▁prata",
        -9.439566685222726
      ],
      [
        "system",
        -9.439905840941668
      ],
      [
        "▁mobil",
        -9.440698561248427
      ],
      [
        "▁heter",
        -9.441003433721216
      ],
      [
        "▁risk",
        -9.441702214308634
      ],
      [
        "ho",
        -9.442326738366976
      ],
      [
        "delen",
        -9.442638477598502
      ],
      [
        "▁dejtingsajt",
        -9.443838956310104
      ],
      [
        "▁användas",
        -9.444745892545836
      ],
      [
        "▁april",
        -9.446466863544291
      ],
      [
        "▁telefon",
        -9.446812047139534
      ],
      [
        "▁vän",
        -9.447105580020589
      ],
      [
        "og",
        -9.447172397389359
      ],
      [
        "Därför",
        -9.44743472312212
      ],
      [
        "plats",
        -9.44846296073997
      ],
      [
        "▁bidra",
        -9.449801645306074
      ],
      [
        "aren",
        -9.450880872656095
      ],
      [
        "nar",
        -9.45119580645168
      ],
      [
        "▁Anna",
        -9.45128339888821
      ],
      [
        "sam",
        -9.452173069247332
      ],
      [
        "▁fortsatt",
        -9.452549292330731
      ],
      [
        "▁snabb",
        -9.453242556654658
      ],
      [
        "▁oktober",
        -9.45372276606369
      ],
      [
        "erat",
        -9.454016030007276
      ],
      [
        "▁samarbete",
        -9.457368067953103
      ],
      [
        "▁morgon",
        -9.45782576439195
      ],
      [
        "▁data",
        -9.458495390569132
      ],
      [
        "▁di",
        -9.458760064024373
      ],
      [
        "vin",
        -9.458830609722135
      ],
      [
        "tor",
        -9.459197133630788
      ],
      [
        "▁Co",
        -9.461489140682422
      ],
      [
        "▁arbetet",
        -9.461668048686546
      ],
      [
        "▁hälsa",
        -9.463015256696252
      ],
      [
        "▁september",
        -9.463701815974579
      ],
      [
        "vi",
        -9.464333122277349
      ],
      [
        "▁minska",
        -9.465423437256096
      ],
      [
        "▁Mo",
        -9.465523262341248
      ],
      [
        "▁system",
        -9.465843932189095
      ],
      [
        "▁köra",
        -9.466211305285457
      ],
      [
        "▁Europa",
        -9.47108077781282
      ],
      [
        "▁natur",
        -9.47122691062729
      ],
      [
        "▁ungefär",
        -9.47192930351505
      ],
      [
        "▁gav",
        -9.472035358932983
      ],
      [
        "▁Per",
        -9.4740398068236
      ],
      [
        "▁super",
        -9.474794311057847
      ],
      [
        "▁bilen",
        -9.474839838872137
      ],
      [
        "till",
        -9.475574407899186
      ],
      [
        "▁Le",
        -9.47588385205441
      ],
      [
        "Y",
        -9.476257794217073
      ],
      [
        "nike",
        -9.47630680405225
      ],
      [
        "ord",
        -9.478688323807443
      ],
      [
        "▁regeringen",
        -9.48166102251071
      ],
      [
        "Kanske",
        -9.482475991888723
      ],
      [
        "▁kunskap",
        -9.48278045433649
      ],
      [
        "ros",
        -9.485303429029688
      ],
      [
        "gång",
        -9.486029619155653
      ],
      [
        "tyckte",
        -9.48610140537713
      ],
      [
        "Varför",
        -9.486285129767337
      ],
      [
        "anser",
        -9.486486713740295
      ],
      [
        "ll",
        -9.487396658143041
      ],
      [
        "red",
        -9.48740640398073
      ],
      [
        "▁hemsida",
        -9.4911656677831
      ],
      [
        "▁cirka",
        -9.49138646548886
      ],
      [
        "▁bak",
        -9.491746635148827
      ],
      [
        "därmed",
        -9.491873196898931
      ],
      [
        "så",
        -9.49232302249632
      ],
      [
        "▁rad",
        -9.494096249173934
      ],
      [
        "▁svart",
        -9.49487430526009
      ],
      [
        "▁exempelvis",
        -9.495238123650076
      ],
      [
        "▁internet",
        -9.497121261069246
      ],
      [
        "▁lever",
        -9.497364894907788
      ],
      [
        "▁klar",
        -9.497718720786922
      ],
      [
        "▁intresse",
        -9.497882657339547
      ],
      [
        "står",
        -9.498420914638357
      ],
      [
        "▁behandling",
        -9.499862588693942
      ],
      [
        "▁absolut",
        -9.500669596236499
      ],
      [
        "▁kund",
        -9.501193448972177
      ],
      [
        "▁viss",
        -9.501736557659042
      ],
      [
        "stad",
        -9.502027741353062
      ],
      [
        "oftast",
        -9.502079606952092
      ],
      [
        "▁lan",
        -9.502979286975581
      ],
      [
        "▁fokus",
        -9.503941446654624
      ],
      [
        "▁sommaren",
        -9.50695064724687
      ],
      [
        "▁februari",
        -9.508180619823625
      ],
      [
        "▁land",
        -9.508194217220707
      ],
      [
        "▁helgen",
        -9.512072492480511
      ],
      [
        "▁boken",
        -9.513477622803592
      ],
      [
        "▁språk",
        -9.514548462098508
      ],
      [
        "▁topp",
        -9.51484571059234
      ],
      [
        "illa",
        -9.515195875711447
      ],
      [
        "gar",
        -9.515247109843138
      ],
      [
        "▁plan",
        -9.515913229014114
      ],
      [
        "▁uppdrag",
        -9.51921406026085
      ],
      [
        "består",
        -9.519282426356813
      ],
      [
        "post",
        -9.519363237997014
      ],
      [
        "▁företaget",
        -9.519742399304832
      ],
      [
        "▁boende",
        -9.520004195660814
      ],
      [
        "▁Y",
        -9.52055268495659
      ],
      [
        "finnas",
        -9.520677081189355
      ],
      [
        "▁senast",
        -9.520840290357482
      ],
      [
        "▁tanke",
        -9.523609928921974
      ],
      [
        "gel",
        -9.525337980604444
      ],
      [
        "▁övriga",
        -9.52557454726741
      ],
      [
        "▁beroende",
        -9.527806405535841
      ],
      [
        "▁stil",
        -9.527921071212576
      ],
      [
        "ken",
        -9.529144368332735
      ],
      [
        "▁vackra",
        -9.529264254275516
      ],
      [
        "▁air",
        -9.529830991803323
      ],
      [
        "kommande",
        -9.530534601413414
      ],
      [
        "lägger",
        -9.531463483387517
      ],
      [
        "▁familj",
        -9.531584581326749
      ],
      [
        "▁klara",
        -9.53168011897206
      ],
      [
        "▁speciellt",
        -9.532613098711611
      ],
      [
        "▁app",
        -9.534888602993487
      ],
      [
        "itet",
        -9.53493370747856
      ],
      [
        "▁kvällen",
        -9.535409292896274
      ],
      [
        "▁framtiden",
        -9.537669218582757
      ],
      [
        "▁bilden",
        -9.538875739008319
      ],
      [
        "▁december",
        -9.539316892664678
      ],
      [
        "systemet",
        -9.53939218792142
      ],
      [
        "▁berätta",
        -9.54022376910012
      ],
      [
        "▁intressant",
        -9.540462272973658
      ],
      [
        "stående",
        -9.540908199040505
      ],
      [
        "behöva",
        -9.541404476373991
      ],
      [
        "▁staden",
        -9.541636666103615
      ],
      [
        "mannen",
        -9.545000026238665
      ],
      [
        "gående",
        -9.545118417275196
      ],
      [
        "▁Al",
        -9.545879064304765
      ],
      [
        "▁förstår",
        -9.546464558387854
      ],
      [
        "▁Hitta",
        -9.546512125027247
      ],
      [
        "▁följer",
        -9.546528116707155
      ],
      [
        "▁ändra",
        -9.54740381683852
      ],
      [
        "▁samman",
        -9.547436258413397
      ],
      [
        "▁kon",
        -9.54878443732701
      ],
      [
        "ran",
        -9.549169597349309
      ],
      [
        "såsom",
        -9.551267942458654
      ],
      [
        "gren",
        -9.552116370730818
      ],
      [
        "▁Ka",
        -9.5531298565651
      ],
      [
        "van",
        -9.55365109763288
      ],
      [
        "▁St",
        -9.555998547248906
      ],
      [
        "tänkte",
        -9.556642190734614
      ],
      [
        "▁ställa",
        -9.556744727024256
      ],
      [
        "borg",
        -9.558613443517554
      ],
      [
        "▁skönt",
        -9.559991289102364
      ],
      [
        "band",
        -9.56070100674468
      ],
      [
        "ina",
        -9.561402841684092
      ],
      [
        "gatan",
        -9.56259117415166
      ],
      [
        "▁stället",
        -9.563571046762439
      ],
      [
        "▁november",
        -9.5643015672433
      ],
      [
        "▁lugn",
        -9.564784228673531
      ],
      [
        "typer",
        -9.566473963100025
      ],
      [
        "▁värde",
        -9.566829805626805
      ],
      [
        "Eftersom",
        -9.566959933433719
      ],
      [
        "▁trött",
        -9.568255435910517
      ],
      [
        "▁Hej",
        -9.568259815967593
      ],
      [
        "▁familjen",
        -9.568342287062343
      ],
      [
        "▁hund",
        -9.5683433970544
      ],
      [
        "▁kap",
        -9.568970558106379
      ],
      [
        "ko",
        -9.569012780581694
      ],
      [
        "▁förbättra",
        -9.56917509447533
      ],
      [
        "▁juli",
        -9.569525127287672
      ],
      [
        "▁svår",
        -9.569957909854237
      ],
      [
        "▁tänkt",
        -9.572079182958309
      ],
      [
        "lund",
        -9.572183983620688
      ],
      [
        "åkte",
        -9.572687362756545
      ],
      [
        "ifrån",
        -9.573124539318295
      ],
      [
        "▁sp",
        -9.573323105572454
      ],
      [
        "▁produkt",
        -9.573701292892398
      ],
      [
        "▁stod",
        -9.57397247200184
      ],
      [
        "▁bi",
        -9.575536658190416
      ],
      [
        "▁nämligen",
        -9.576933336385247
      ],
      [
        "▁träning",
        -9.578229137870958
      ],
      [
        "▁förstå",
        -9.5785769375198
      ],
      [
        "▁anledning",
        -9.581425985182154
      ],
      [
        "alldeles",
        -9.583894571507843
      ],
      [
        "plan",
        -9.584093058879105
      ],
      [
        "ades",
        -9.584434936236734
      ],
      [
        "▁snö",
        -9.585746524990354
      ],
      [
        "annars",
        -9.586071499183468
      ],
      [
        "▁skapar",
        -9.586454356931169
      ],
      [
        "otroligt",
        -9.587252344877436
      ],
      [
        "▁vänta",
        -9.587974907996232
      ],
      [
        "▁tjänster",
        -9.588361860576994
      ],
      [
        "går",
        -9.588981802972892
      ],
      [
        "▁flytta",
        -9.58941321645695
      ],
      [
        "▁skillnad",
        -9.590633958825274
      ],
      [
        "höll",
        -9.590995114533559
      ],
      [
        "värt",
        -9.592925951311045
      ],
      [
        "kräver",
        -9.594271308443304
      ],
      [
        "▁Å",
        -9.595579350914747
      ],
      [
        "▁stad",
        -9.595656248897924
      ],
      [
        "▁Upp",
        -9.596554118942052
      ],
      [
        "▁Anders",
        -9.598389293718316
      ],
      [
        "form",
        -9.599048769710215
      ],
      [
        "iskt",
        -9.602938443125916
      ],
      [
        "▁säker",
        -9.604038271515527
      ],
      [
        "program",
        -9.604602429367317
      ],
      [
        "rik",
        -9.605437442468837
      ],
      [
        "lös",
        -9.607787356737783
      ],
      [
        "▁påverka",
        -9.609867305073418
      ],
      [
        "▁sociala",
        -9.61077636794493
      ],
      [
        "▁dagens",
        -9.61086086210373
      ],
      [
        "kom",
        -9.61107273471742
      ],
      [
        "▁föräldrar",
        -9.613379875898993
      ],
      [
        "▁Stockholms",
        -9.613384298038195
      ],
      [
        "ella",
        -9.613549309003588
      ],
      [
        "▁Just",
        -9.614251205419059
      ],
      [
        "▁flyg",
        -9.614779047854213
      ],
      [
        "ets",
        -9.614932236922085
      ],
      [
        "beror",
        -9.61704377389261
      ],
      [
        "▁spara",
        -9.619468256146432
      ],
      [
        "▁erbjuda",
        -9.619566787198913
      ],
      [
        "▁ökar",
        -9.620760246437147
      ],
      [
        "maste",
        -9.620820372578564
      ],
      [
        "▁samhället",
        -9.62122926916793
      ],
      [
        "oavsett",
        -9.623325961371188
      ],
      [
        "▁verksamheten",
        -9.62417522993103
      ],
      [
        "▁fungera",
        -9.62443021635114
      ],
      [
        "▁planera",
        -9.625013946454125
      ],
      [
        "▁Köp",
        -9.626014637847103
      ],
      [
        "▁vikt",
        -9.626184407400446
      ],
      [
        "▁konst",
        -9.62619078635429
      ],
      [
        "▁testa",
        -9.626781331007482
      ],
      [
        "mon",
        -9.62776777226753
      ],
      [
        "▁by",
        -9.629988759081339
      ],
      [
        "▁gammal",
        -9.630940141505247
      ],
      [
        "▁kaffe",
        -9.631529890111993
      ],
      [
        "▁klockan",
        -9.633199535107476
      ],
      [
        "▁höra",
        -9.634358820346606
      ],
      [
        "▁tas",
        -9.635623511351213
      ],
      [
        "▁låta",
        -9.635895834180566
      ],
      [
        "▁Ar",
        -9.637178962948903
      ],
      [
        "du",
        -9.637545133028073
      ],
      [
        "▁Na",
        -9.637715404262543
      ],
      [
        "skolan",
        -9.638985923937769
      ],
      [
        "ledande",
        -9.640125380065065
      ],
      [
        "▁dator",
        -9.640801928074433
      ],
      [
        "sten",
        -9.641238543179881
      ],
      [
        "▁regler",
        -9.642055246965683
      ],
      [
        "▁världens",
        -9.642586391181725
      ],
      [
        "▁samtal",
        -9.642846234847799
      ],
      [
        "▁leder",
        -9.642956046715792
      ],
      [
        "såväl",
        -9.644307712232981
      ],
      [
        "▁Facebook",
        -9.644432912630355
      ],
      [
        "sel",
        -9.644924198078385
      ],
      [
        "skrivit",
        -9.645593925707475
      ],
      [
        "▁nöjd",
        -9.645917172936683
      ],
      [
        "▁möjligheter",
        -9.646388607251707
      ],
      [
        "▁Sa",
        -9.646733495671977
      ],
      [
        "TM",
        -9.647118413746517
      ],
      [
        "säkra",
        -9.647720951534344
      ],
      [
        "▁hantera",
        -9.648057329212246
      ],
      [
        "kände",
        -9.648826864745304
      ],
      [
        "bb",
        -9.648836249238117
      ],
      [
        "per",
        -9.65009471856095
      ],
      [
        "sätter",
        -9.651224263990855
      ],
      [
        "▁Johan",
        -9.651391458026513
      ],
      [
        "drar",
        -9.653944883475694
      ],
      [
        "huset",
        -9.65502450206684
      ],
      [
        "liv",
        -9.655282780012115
      ],
      [
        "▁lån",
        -9.655313341519076
      ],
      [
        "ort",
        -9.655895365341149
      ],
      [
        "kon",
        -9.655982744871139
      ],
      [
        "▁visst",
        -9.658163313671805
      ],
      [
        "EN",
        -9.658280951801814
      ],
      [
        "▁huset",
        -9.65992754918816
      ],
      [
        "▁viktiga",
        -9.660914740072224
      ],
      [
        "▁historia",
        -9.66336219941311
      ],
      [
        "▁New",
        -9.664080346540397
      ],
      [
        "▁ordförande",
        -9.664679927985487
      ],
      [
        "▁leva",
        -9.666583805721876
      ],
      [
        "▁icke",
        -9.667069337043943
      ],
      [
        "▁luft",
        -9.667109581633396
      ],
      [
        "▁utifrån",
        -9.667941520551185
      ],
      [
        "▁Tänk",
        -9.669217071918588
      ],
      [
        "age",
        -9.67048683465582
      ],
      [
        "▁matchen",
        -9.670807754637385
      ],
      [
        "▁SEK",
        -9.671154052499025
      ],
      [
        "▁semester",
        -9.672918339785776
      ],
      [
        "▁tjejer",
        -9.672954985404912
      ],
      [
        "▁höga",
        -9.673524871295534
      ],
      [
        "▁uttryck",
        -9.673893755282034
      ],
      [
        "företag",
        -9.67399041970831
      ],
      [
        "▁Ö",
        -9.674289152274474
      ],
      [
        "▁kallas",
        -9.674944033262095
      ],
      [
        "▁medlemmar",
        -9.676058828554995
      ],
      [
        "▁elever",
        -9.676179380763873
      ],
      [
        "▁låt",
        -9.67631200610803
      ],
      [
        "▁marknaden",
        -9.676491530153928
      ],
      [
        "tur",
        -9.677649877231769
      ],
      [
        "pp",
        -9.678076185295962
      ],
      [
        "▁iväg",
        -9.678621655371073
      ],
      [
        "▁stark",
        -9.678898567520342
      ],
      [
        "▁högt",
        -9.678997631254408
      ],
      [
        "▁håll",
        -9.679902209142991
      ],
      [
        "▁vänster",
        -9.680345310253553
      ],
      [
        "▁vinna",
        -9.680476448930547
      ],
      [
        "tyvärr",
        -9.682137514414885
      ],
      [
        "sidan",
        -9.68331826048641
      ],
      [
        "En",
        -9.684241067705461
      ],
      [
        "tittade",
        -9.685147463320657
      ],
      [
        "Mycket",
        -9.687595784178473
      ],
      [
        "▁ljud",
        -9.687966082701463
      ],
      [
        "resten",
        -9.688023687716807
      ],
      [
        "▁pro",
        -9.689204209064629
      ],
      [
        "antalet",
        -9.69108198986693
      ],
      [
        "▁totalt",
        -9.691295791232324
      ],
      [
        "nu",
        -9.691305900851674
      ],
      [
        "hem",
        -9.691398077243164
      ],
      [
        "▁billiga",
        -9.69255095265444
      ],
      [
        "skydd",
        -9.694057082076679
      ],
      [
        "▁glas",
        -9.694273455500207
      ],
      [
        "▁Barn",
        -9.694538165731478
      ],
      [
        "fri",
        -9.695083466619694
      ],
      [
        "vid",
        -9.69625519929458
      ],
      [
        "▁polisen",
        -9.696850160783656
      ],
      [
        "resenärer",
        -9.69686776015342
      ],
      [
        "mål",
        -9.69723039472958
      ],
      [
        "▁byta",
        -9.699160616648028
      ],
      [
        "▁dejtingsajter",
        -9.699260784939666
      ],
      [
        "▁kläder",
        -9.699265599799068
      ],
      [
        "▁delta",
        -9.700726876534251
      ],
      [
        "▁pappa",
        -9.700778175291315
      ],
      [
        "▁omkring",
        -9.70231158307809
      ],
      [
        "▁sju",
        -9.703147425575658
      ],
      [
        "▁stanna",
        -9.703504270123162
      ],
      [
        "▁frukost",
        -9.703932893066
      ],
      [
        "▁teknik",
        -9.704237850066203
      ],
      [
        "▁storlek",
        -9.704289271696577
      ],
      [
        "▁bär",
        -9.70514000786106
      ],
      [
        "▁artikel",
        -9.705577419597642
      ],
      [
        "▁ögon",
        -9.705750956506074
      ],
      [
        "▁fullt",
        -9.706530735474814
      ],
      [
        "pol",
        -9.708117138952256
      ],
      [
        "vård",
        -9.709071059337912
      ],
      [
        "▁All",
        -9.709416248750978
      ],
      [
        "▁date",
        -9.712405239142333
      ],
      [
        "▁söka",
        -9.712482585706487
      ],
      [
        "▁hämta",
        -9.714044957767008
      ],
      [
        "dom",
        -9.71493076900552
      ],
      [
        "▁född",
        -9.715154859150877
      ],
      [
        "▁hittade",
        -9.715718813269493
      ],
      [
        "▁boka",
        -9.717089258157284
      ],
      [
        "▁lägre",
        -9.717864080237767
      ],
      [
        "▁Över",
        -9.717999806637302
      ],
      [
        "▁text",
        -9.71861050558083
      ],
      [
        "ram",
        -9.719929713170835
      ],
      [
        "hända",
        -9.719976227591033
      ],
      [
        "▁mark",
        -9.720084971507944
      ],
      [
        "▁Pro",
        -9.720203132861027
      ],
      [
        "▁åker",
        -9.72051999505587
      ],
      [
        "▁Kina",
        -9.721724315168721
      ],
      [
        "▁lokal",
        -9.72177250455271
      ],
      [
        "▁säsongen",
        -9.723348796378984
      ],
      [
        "▁kontroll",
        -9.725542925301948
      ],
      [
        "sådana",
        -9.725701367701964
      ],
      [
        "ock",
        -9.728080415894299
      ],
      [
        "▁Ma",
        -9.729681396338469
      ],
      [
        "tiden",
        -9.730102584140175
      ],
      [
        "▁områden",
        -9.73064817548474
      ],
      [
        "▁tidigt",
        -9.731421724809211
      ],
      [
        "Ö",
        -9.732031410842053
      ],
      [
        "▁Uppsala",
        -9.732906426606137
      ],
      [
        "▁böcker",
        -9.733195623949506
      ],
      [
        "▁respektive",
        -9.733696098851196
      ],
      [
        "▁långa",
        -9.734001736975815
      ],
      [
        "▁årets",
        -9.734183286257183
      ],
      [
        "▁Fri",
        -9.734696952768068
      ],
      [
        "mark",
        -9.734794058584038
      ],
      [
        "▁enkel",
        -9.736360505673593
      ],
      [
        "ism",
        -9.736551441741222
      ],
      [
        "▁vann",
        -9.736832992489752
      ],
      [
        "ber",
        -9.736942258972034
      ],
      [
        "▁lunch",
        -9.737484129297956
      ],
      [
        "översatt",
        -9.737811695837925
      ],
      [
        "▁betydelse",
        -9.738108073363716
      ],
      [
        "sättning",
        -9.738598607011404
      ],
      [
        "▁hit",
        -9.740357540607611
      ],
      [
        "’",
        -9.740736559888553
      ],
      [
        "▁lokala",
        -9.74236338809106
      ],
      [
        "▁utmärkt",
        -9.742592797672282
      ],
      [
        "▁vuxna",
        -9.742604376124948
      ],
      [
        "▁sitta",
        -9.743366374682719
      ],
      [
        "▁borta",
        -9.743531917262017
      ],
      [
        "▁skada",
        -9.74390638075128
      ],
      [
        "ium",
        -9.744070965192455
      ],
      [
        "▁värme",
        -9.744143245743373
      ],
      [
        "▁diskutera",
        -9.74486974803522
      ],
      [
        "log",
        -9.744998994701605
      ],
      [
        "▁klass",
        -9.747075586126249
      ],
      [
        "▁konto",
        -9.747582487485007
      ],
      [
        "dal",
        -9.747832424483011
      ],
      [
        "▁studie",
        -9.748235404402784
      ],
      [
        "and",
        -9.748327148457122
      ],
      [
        "erar",
        -9.748616801664536
      ],
      [
        "väg",
        -9.74887916534192
      ],
      [
        "▁trevlig",
        -9.748998040942432
      ],
      [
        "▁hösten",
        -9.749070317070734
      ],
      [
        "▁smak",
        -9.749683979188354
      ],
      [
        "▁recensioner",
        -9.750071425143485
      ],
      [
        "▁exakt",
        -9.750488610567727
      ],
      [
        "gården",
        -9.7509972724192
      ],
      [
        "vet",
        -9.7516411506268
      ],
      [
        "▁allra",
        -9.751733511509627
      ],
      [
        "▁träna",
        -9.75248547162512
      ],
      [
        "▁användning",
        -9.752911332856614
      ],
      [
        "▁behöv",
        -9.753556349820313
      ],
      [
        "▁bygg",
        -9.755215395837462
      ],
      [
        "lättare",
        -9.756368039656072
      ],
      [
        "▁hälso",
        -9.75657103887302
      ],
      [
        "▁Ga",
        -9.756680547813394
      ],
      [
        "▁hud",
        -9.757130182795809
      ],
      [
        "▁sjuk",
        -9.757131022390798
      ],
      [
        "utveckling",
        -9.757450194329735
      ],
      [
        "lån",
        -9.757820381787578
      ],
      [
        "bild",
        -9.758073901986922
      ],
      [
        "ck",
        -9.758383065510444
      ],
      [
        "dan",
        -9.758720717072078
      ],
      [
        "sjö",
        -9.7588401616818
      ],
      [
        "▁trä",
        -9.758928402273147
      ],
      [
        "rar",
        -9.760259827154075
      ],
      [
        "san",
        -9.760264014285733
      ],
      [
        "▁dåligt",
        -9.760373076014043
      ],
      [
        "samtliga",
        -9.7614265295916
      ],
      [
        "▁tillhör",
        -9.761808829355434
      ],
      [
        "▁He",
        -9.763327203145483
      ],
      [
        "▁sverige",
        -9.763806717662378
      ],
      [
        "kända",
        -9.764506716598925
      ],
      [
        "▁avsluta",
        -9.765110505729394
      ],
      [
        "▁nivå",
        -9.76541714830104
      ],
      [
        "ER",
        -9.765569179350795
      ],
      [
        "▁billigt",
        -9.766251275028315
      ],
      [
        "ank",
        -9.767016059143176
      ],
      [
        "▁koll",
        -9.767724163148486
      ],
      [
        "▁sport",
        -9.768287981682853
      ],
      [
        "sch",
        -9.770369958916778
      ],
      [
        "verket",
        -9.770892220755545
      ],
      [
        "▁kraft",
        -9.772205216431882
      ],
      [
        "bil",
        -9.77228897643389
      ],
      [
        "akt",
        -9.772780304723495
      ],
      [
        "Hotels",
        -9.77311873423876
      ],
      [
        "▁forskning",
        -9.773495339734346
      ],
      [
        "▁pass",
        -9.774526828836505
      ],
      [
        "▁Pa",
        -9.775945405096138
      ],
      [
        "▁förstås",
        -9.776030119429052
      ],
      [
        "▁väntar",
        -9.77672486870249
      ],
      [
        "▁dela",
        -9.776734805590976
      ],
      [
        "▁post",
        -9.776809726289107
      ],
      [
        "▁Foto",
        -9.778266915760248
      ],
      [
        "▁ske",
        -9.778307878639946
      ],
      [
        "börjat",
        -9.781107783947542
      ],
      [
        "nivå",
        -9.781922562127011
      ],
      [
        "▁webbplats",
        -9.783469997008387
      ],
      [
        "▁konstatera",
        -9.785001999715282
      ],
      [
        "▁ålder",
        -9.785469132234814
      ],
      [
        "▁innehåll",
        -9.785942013105247
      ],
      [
        "▁Z",
        -9.786242400876926
      ],
      [
        "▁syn",
        -9.788102443901055
      ],
      [
        "▁Sp",
        -9.78835822269739
      ],
      [
        "▁läge",
        -9.789356441241814
      ],
      [
        "kostar",
        -9.789359508354933
      ],
      [
        "▁gäster",
        -9.789540779724913
      ],
      [
        "▁Ra",
        -9.789754190398398
      ],
      [
        "▁handla",
        -9.789773713362596
      ],
      [
        "▁Peter",
        -9.790428811476618
      ],
      [
        "▁centrum",
        -9.79181256326536
      ],
      [
        "▁sade",
        -9.791947314669452
      ],
      [
        "▁åtgärder",
        -9.791952141888702
      ],
      [
        "enbart",
        -9.792551423132233
      ],
      [
        "▁dejtingsidor",
        -9.793274844876452
      ],
      [
        "▁kredit",
        -9.793292471331974
      ],
      [
        "▁Me",
        -9.79332519306204
      ],
      [
        "spelade",
        -9.793415935721505
      ],
      [
        "skatt",
        -9.793793320909261
      ],
      [
        "▁område",
        -9.794269041826862
      ],
      [
        "▁Di",
        -9.795434142107307
      ],
      [
        "▁känsla",
        -9.796120603465717
      ],
      [
        "▁bad",
        -9.796476164888537
      ],
      [
        "▁Kom",
        -9.797356576150767
      ],
      [
        "▁massor",
        -9.797392233815406
      ],
      [
        "köpte",
        -9.798281125655567
      ],
      [
        "▁Li",
        -9.79964378066296
      ],
      [
        "▁höger",
        -9.799718079945618
      ],
      [
        "▁privat",
        -9.799824526944006
      ],
      [
        "▁högsta",
        -9.800500316487081
      ],
      [
        "▁Bi",
        -9.801208069929892
      ],
      [
        "ung",
        -9.801692293107187
      ],
      [
        "tre",
        -9.80206030453184
      ],
      [
        "fallet",
        -9.802838484085315
      ],
      [
        "ställer",
        -9.804196141835599
      ],
      [
        "▁snar",
        -9.805433908508636
      ],
      [
        "▁far",
        -9.80659398201429
      ],
      [
        "▁tillräckligt",
        -9.806608043255062
      ],
      [
        "▁lärare",
        -9.807706419018839
      ],
      [
        "▁Ro",
        -9.811595659400414
      ],
      [
        "▁fl",
        -9.811949022013366
      ],
      [
        "▁Ingen",
        -9.813090973947048
      ],
      [
        "▁ladda",
        -9.815810714020376
      ],
      [
        "▁video",
        -9.816006243847843
      ],
      [
        "▁ensam",
        -9.816639603067719
      ],
      [
        "bygger",
        -9.816787188593228
      ],
      [
        "▁platser",
        -9.817982009040284
      ],
      [
        "menar",
        -9.818195905836626
      ],
      [
        "▁härlig",
        -9.818359392334207
      ],
      [
        "▁lyckas",
        -9.81913583594041
      ],
      [
        "nummer",
        -9.819777622935032
      ],
      [
        "▁läs",
        -9.820871806383758
      ],
      [
        "läser",
        -9.820912130003062
      ],
      [
        "▁utför",
        -9.821237205145207
      ],
      [
        "▁styr",
        -9.821640453164399
      ],
      [
        "▁reda",
        -9.822525320043166
      ],
      [
        "taget",
        -9.822743616354847
      ],
      [
        "Samtidigt",
        -9.823050584387786
      ],
      [
        "▁Maria",
        -9.823912380985913
      ],
      [
        "området",
        -9.825094545207124
      ],
      [
        "▁Su",
        -9.825833644050304
      ],
      [
        "▁säkerhet",
        -9.825914874643221
      ],
      [
        "▁bit",
        -9.826071368831556
      ],
      [
        "sökte",
        -9.827347941553144
      ],
      [
        "▁läst",
        -9.828555293085747
      ],
      [
        "▁ekonomi",
        -9.828988911746084
      ],
      [
        "▁kompetens",
        -9.829934916149947
      ],
      [
        "▁Hans",
        -9.830716616833506
      ],
      [
        "▁tak",
        -9.830724293563959
      ],
      [
        "▁besökare",
        -9.831020310909324
      ],
      [
        "ick",
        -9.83135465135334
      ],
      [
        "Hoppas",
        -9.835120067754946
      ],
      [
        "Varje",
        -9.835136128639018
      ],
      [
        "▁försök",
        -9.835309949175075
      ],
      [
        "vatten",
        -9.835574177129859
      ],
      [
        "▁gällande",
        -9.835612032846184
      ],
      [
        "▁standard",
        -9.835701882091595
      ],
      [
        "näs",
        -9.835806567211293
      ],
      [
        "rad",
        -9.835949734943071
      ],
      [
        "▁effekt",
        -9.837610965299621
      ],
      [
        "verk",
        -9.83841866007128
      ],
      [
        "dagen",
        -9.839201823873871
      ],
      [
        "▁död",
        -9.839550941262651
      ],
      [
        "▁hårt",
        -9.840766626849057
      ],
      [
        "▁framåt",
        -9.840821343315936
      ],
      [
        "▁sälja",
        -9.84129739911661
      ],
      [
        "▁Låt",
        -9.842034229364325
      ],
      [
        "▁Två",
        -9.842244803406171
      ],
      [
        "▁Wi",
        -9.842316754052732
      ],
      [
        "han",
        -9.842571805221075
      ],
      [
        "▁valt",
        -9.842974139025928
      ],
      [
        "gick",
        -9.843848100796775
      ],
      [
        "▁mängd",
        -9.843969332377027
      ],
      [
        "▁chans",
        -9.844913480231376
      ],
      [
        "gre",
        -9.845576923182621
      ],
      [
        "▁populära",
        -9.846405478579603
      ],
      [
        "▁verktyg",
        -9.847912524065595
      ],
      [
        "▁ekonomiska",
        -9.848570379329692
      ],
      [
        "▁lista",
        -9.848751018740359
      ],
      [
        "▁barnet",
        -9.850450578086557
      ],
      [
        "▁Hem",
        -9.851539479676788
      ],
      [
        "▁anställda",
        -9.852095975757384
      ],
      [
        "ris",
        -9.853506469310444
      ],
      [
        "▁viktigaste",
        -9.853558441571161
      ],
      [
        "▁filmen",
        -9.853917678212687
      ],
      [
        "▁Bar",
        -9.857472451121996
      ],
      [
        "▁polis",
        -9.857692989751218
      ],
      [
        "▁Lund",
        -9.858062114587218
      ],
      [
        "▁kommentar",
        -9.858295043829576
      ],
      [
        "▁dam",
        -9.859077188262134
      ],
      [
        "▁tillgängliga",
        -9.859316653876675
      ],
      [
        "inklusive",
        -9.859680833483282
      ],
      [
        "▁stress",
        -9.860277588089655
      ],
      [
        "▁Mar",
        -9.86078830913983
      ],
      [
        "▁Lo",
        -9.86104231926656
      ],
      [
        "▁fa",
        -9.861090922139208
      ],
      [
        "sida",
        -9.861507803698647
      ],
      [
        "fors",
        -9.86206895611068
      ],
      [
        "▁skola",
        -9.862258012172623
      ],
      [
        "Z",
        -9.86230107068019
      ],
      [
        "▁prova",
        -9.862601123701262
      ],
      [
        "▁höst",
        -9.862961655900738
      ],
      [
        "▁nån",
        -9.86333146424899
      ],
      [
        "▁helg",
        -9.86387424754869
      ],
      [
        "yl",
        -9.864270368198595
      ],
      [
        "rakt",
        -9.864311900557219
      ],
      [
        "www",
        -9.865140252205624
      ],
      [
        "▁bidrag",
        -9.865869787162902
      ],
      [
        "én",
        -9.86642875918027
      ],
      [
        "utgör",
        -9.866868326505143
      ],
      [
        "http",
        -9.867112458961703
      ],
      [
        "▁lager",
        -9.867112970967026
      ],
      [
        "▁säkerhets",
        -9.867157672351812
      ],
      [
        "▁Jan",
        -9.867887467375713
      ],
      [
        "▁drog",
        -9.868188298118483
      ],
      [
        "▁ben",
        -9.8691066450769
      ],
      [
        "målet",
        -9.86990689023005
      ],
      [
        "▁Fortsätt",
        -9.870655500900133
      ],
      [
        "▁rolig",
        -9.87224630344598
      ],
      [
        "▁bank",
        -9.872302985855608
      ],
      [
        "▁funktion",
        -9.872386293127148
      ],
      [
        "▁test",
        -9.873112489077956
      ],
      [
        "Å",
        -9.873293027862372
      ],
      [
        "▁Välkommen",
        -9.873641617354151
      ],
      [
        "branschen",
        -9.873959482386564
      ],
      [
        "▁sidor",
        -9.874123465330127
      ],
      [
        "▁social",
        -9.874464514374028
      ],
      [
        "▁övrigt",
        -9.876065886368147
      ],
      [
        "▁stan",
        -9.876092611717107
      ],
      [
        "lade",
        -9.876869568353813
      ],
      [
        "ings",
        -9.877067180617157
      ],
      [
        "stod",
        -9.877936685018906
      ],
      [
        "trodde",
        -9.879082427253461
      ],
      [
        "äger",
        -9.87958649101334
      ],
      [
        "▁sjukdom",
        -9.880261354101036
      ],
      [
        "▁No",
        -9.880670107573543
      ],
      [
        "▁lyssna",
        -9.881335531127625
      ],
      [
        "▁middag",
        -9.881439283875677
      ],
      [
        "▁kurs",
        -9.883644582523612
      ],
      [
        "▁Gud",
        -9.88423165148467
      ],
      [
        "▁Lars",
        -9.884677059942888
      ],
      [
        "▁mil",
        -9.884936866551845
      ],
      [
        "produkter",
        -9.885167436111997
      ],
      [
        "▁bolag",
        -9.886391579058591
      ],
      [
        "fin",
        -9.888328344431562
      ],
      [
        "ill",
        -9.888492209827975
      ],
      [
        "▁universitet",
        -9.888604437794568
      ],
      [
        "ting",
        -9.889405414776965
      ],
      [
        "arbete",
        -9.889722879076379
      ],
      [
        "önskar",
        -9.890833289864458
      ],
      [
        "▁tjej",
        -9.890863978898805
      ],
      [
        "▁Stor",
        -9.89177616305076
      ],
      [
        "skor",
        -9.89199316102708
      ],
      [
        "▁leda",
        -9.892176071162629
      ],
      [
        "lat",
        -9.89234876905401
      ],
      [
        "▁Hög",
        -9.892846005721658
      ],
      [
        "pan",
        -9.893096460620118
      ],
      [
        "▁dejtingsida",
        -9.893440494698291
      ],
      [
        "närmare",
        -9.893671047887521
      ],
      [
        "▁Andersson",
        -9.893754085269615
      ],
      [
        "▁Trots",
        -9.894561455065862
      ],
      [
        "▁Do",
        -9.895364299714368
      ],
      [
        "▁variera",
        -9.895369344861157
      ],
      [
        "▁rent",
        -9.895433394433738
      ],
      [
        "Klicka",
        -9.89621186744868
      ],
      [
        "▁vinter",
        -9.896829624197473
      ],
      [
        "bet",
        -9.897019162020081
      ],
      [
        "sådant",
        -9.897479369738022
      ],
      [
        "▁Skåne",
        -9.898368995094522
      ],
      [
        "betydligt",
        -9.8985159212935
      ],
      [
        "▁svara",
        -9.901797873101184
      ],
      [
        "▁häst",
        -9.902436874428982
      ],
      [
        "▁tankar",
        -9.903097811416437
      ],
      [
        "pass",
        -9.903695222256204
      ],
      [
        "teknik",
        -9.904429639125903
      ],
      [
        "▁äter",
        -9.904431233910298
      ],
      [
        "por",
        -9.905904053929014
      ],
      [
        "▁partner",
        -9.906228000254321
      ],
      [
        "▁ordning",
        -9.90673643775067
      ],
      [
        "▁Bara",
        -9.906750632543936
      ],
      [
        "▁parti",
        -9.906804179864194
      ],
      [
        "ang",
        -9.906830491248435
      ],
      [
        "mor",
        -9.907166673646609
      ],
      [
        "▁Finns",
        -9.9072821645923
      ],
      [
        "fattar",
        -9.907325201284706
      ],
      [
        "ewards",
        -9.90736482907315
      ],
      [
        "▁natten",
        -9.90760673348697
      ],
      [
        "▁personliga",
        -9.908076758392365
      ],
      [
        "Ä",
        -9.908825610093993
      ],
      [
        "pris",
        -9.909848469974927
      ],
      [
        "▁medel",
        -9.910230895882368
      ],
      [
        "▁Ca",
        -9.911629374288914
      ],
      [
        "▁special",
        -9.912206474308258
      ],
      [
        "▁prov",
        -9.9123688272749
      ],
      [
        "grupp",
        -9.913135389128554
      ],
      [
        "vore",
        -9.913156932208357
      ],
      [
        "ator",
        -9.914122763792568
      ],
      [
        "▁Sk",
        -9.914283810295021
      ],
      [
        "heten",
        -9.914543072157597
      ],
      [
        "▁sist",
        -9.914543213013012
      ],
      [
        "perioden",
        -9.914576737657237
      ],
      [
        "▁kropp",
        -9.915556570686041
      ],
      [
        "▁klimat",
        -9.915633687069276
      ],
      [
        "▁Erik",
        -9.915817393033421
      ],
      [
        "ansvarig",
        -9.915885682444404
      ],
      [
        "ökad",
        -9.916258784949694
      ],
      [
        "▁Park",
        -9.91657007661684
      ],
      [
        "cy",
        -9.91731187067629
      ],
      [
        "▁förvänta",
        -9.91742358553885
      ],
      [
        "▁någonsin",
        -9.918714216588093
      ],
      [
        "▁valde",
        -9.91911868278314
      ],
      [
        "▁starta",
        -9.919540699104044
      ],
      [
        "fritt",
        -9.920750200285243
      ],
      [
        "let",
        -9.921128749543959
      ],
      [
        "Ja",
        -9.9211624260592
      ],
      [
        "▁slå",
        -9.921251611587065
      ],
      [
        "▁kommentarer",
        -9.921948186585778
      ],
      [
        "▁bas",
        -9.922047582418417
      ],
      [
        "▁Lite",
        -9.923331979971113
      ],
      [
        "kul",
        -9.923751197437852
      ],
      [
        "▁serie",
        -9.923817801032477
      ],
      [
        "▁tryck",
        -9.925261558055796
      ],
      [
        "▁villkor",
        -9.9252780525768
      ],
      [
        "Få",
        -9.925319349903178
      ],
      [
        "▁priset",
        -9.925676902533985
      ],
      [
        "▁personlig",
        -9.92650791255597
      ],
      [
        "▁etc",
        -9.92710712607458
      ],
      [
        "▁Fast",
        -9.927451246170085
      ],
      [
        "▁trafik",
        -9.928487430816237
      ],
      [
        "jämfört",
        -9.928887820734705
      ],
      [
        "▁lördag",
        -9.928918887343638
      ],
      [
        "▁livs",
        -9.929628192404659
      ],
      [
        "▁uppskatta",
        -9.93041109150036
      ],
      [
        "slutade",
        -9.930680681845825
      ],
      [
        "▁vakna",
        -9.930926448556656
      ],
      [
        "▁Sam",
        -9.93123070250163
      ],
      [
        "▁timme",
        -9.932852877350513
      ],
      [
        "▁guld",
        -9.93294815468138
      ],
      [
        "ron",
        -9.933390753628778
      ],
      [
        "medel",
        -9.933682464417439
      ],
      [
        "▁fantastiskt",
        -9.934129952076246
      ],
      [
        "▁miss",
        -9.934181557895753
      ],
      [
        "▁samhälls",
        -9.93477997191688
      ],
      [
        "▁free",
        -9.935316245634802
      ],
      [
        "▁uppdatera",
        -9.936294408034037
      ],
      [
        "▁bakgrund",
        -9.936480495496646
      ],
      [
        "tjänst",
        -9.936490298111222
      ],
      [
        "▁Nya",
        -9.936849888067162
      ],
      [
        "kor",
        -9.937361725286198
      ],
      [
        "▁bolaget",
        -9.938313956531633
      ],
      [
        "met",
        -9.938953622334997
      ],
      [
        "▁kärlek",
        -9.938955064155609
      ],
      [
        "par",
        -9.93987308486108
      ],
      [
        "▁Del",
        -9.941027228860595
      ],
      [
        "▁Mitt",
        -9.941402606278066
      ],
      [
        "▁Välj",
        -9.942459504381047
      ],
      [
        "▁klicka",
        -9.942489243761763
      ],
      [
        "hört",
        -9.942540987480273
      ],
      [
        "▁Pris",
        -9.942958130861895
      ],
      [
        "▁bar",
        -9.943407462198032
      ],
      [
        "▁färger",
        -9.94438599344621
      ],
      [
        "▁syfte",
        -9.944676386577825
      ],
      [
        "tjänster",
        -9.944744983592145
      ],
      [
        "▁fredag",
        -9.944815232667453
      ],
      [
        "we",
        -9.945218742210756
      ],
      [
        "▁fantastisk",
        -9.945688193353135
      ],
      [
        "▁skatte",
        -9.946731934666607
      ],
      [
        "din",
        -9.947334727473931
      ],
      [
        "▁vinst",
        -9.94770072912297
      ],
      [
        "▁Hi",
        -9.948558726232733
      ],
      [
        "▁Tre",
        -9.94879388352303
      ],
      [
        "▁blå",
        -9.948895782810823
      ],
      [
        "res",
        -9.948908460539243
      ],
      [
        "▁Th",
        -9.948953374331586
      ],
      [
        "▁ligga",
        -9.949902533701076
      ],
      [
        "▁väder",
        -9.94999036772481
      ],
      [
        "▁våld",
        -9.950018393638766
      ],
      [
        "▁Fa",
        -9.950228530604338
      ],
      [
        "bu",
        -9.950349309445203
      ],
      [
        "▁öppen",
        -9.951417089966736
      ],
      [
        "▁våren",
        -9.951471404515715
      ],
      [
        "▁förbi",
        -9.951932243825556
      ],
      [
        "▁ME",
        -9.95292073315883
      ],
      [
        "▁Berg",
        -9.954723765842557
      ],
      [
        "all",
        -9.954835272672572
      ],
      [
        "▁tillstånd",
        -9.957370004651432
      ],
      [
        "▁låna",
        -9.957423907728247
      ],
      [
        "▁läkare",
        -9.957480761083074
      ],
      [
        "▁lön",
        -9.957625565847783
      ],
      [
        "Ibland",
        -9.958072593800491
      ],
      [
        "därefter",
        -9.958201143404702
      ],
      [
        "▁omdömet",
        -9.958533222130407
      ],
      [
        "▁Val",
        -9.958863928099067
      ],
      [
        "resa",
        -9.958890987530886
      ],
      [
        "det",
        -9.959092939506185
      ],
      [
        "▁nej",
        -9.959772976457353
      ],
      [
        "ack",
        -9.959831357977786
      ],
      [
        "nade",
        -9.96036384714023
      ],
      [
        "kändes",
        -9.960759826423782
      ],
      [
        "AR",
        -9.96167161766975
      ],
      [
        "▁listan",
        -9.961671901489986
      ],
      [
        "▁fönster",
        -9.961759960479828
      ],
      [
        "▁dålig",
        -9.962290390899506
      ],
      [
        "▁ungdomar",
        -9.96263739492765
      ],
      [
        "saknar",
        -9.9630176105373
      ],
      [
        "▁uppgift",
        -9.96338021979973
      ],
      [
        "gas",
        -9.963733101177626
      ],
      [
        "est",
        -9.96398436559439
      ],
      [
        "verksamhet",
        -9.96404304086661
      ],
      [
        "ull",
        -9.965213795791511
      ],
      [
        "▁talar",
        -9.965418530929409
      ],
      [
        "▁Tor",
        -9.965687244226114
      ],
      [
        "lad",
        -9.96580397614112
      ],
      [
        "nor",
        -9.965857195702238
      ],
      [
        "▁skäl",
        -9.966076822570152
      ],
      [
        "▁risker",
        -9.966658318022896
      ],
      [
        "ister",
        -9.966893375577659
      ],
      [
        "▁Bild",
        -9.96737239660229
      ],
      [
        "funnit",
        -9.967840170518457
      ],
      [
        "▁Använd",
        -9.968208494050621
      ],
      [
        "▁frukt",
        -9.968985862391154
      ],
      [
        "▁Andra",
        -9.970804359863823
      ],
      [
        "starkt",
        -9.971219350286932
      ],
      [
        "ihåg",
        -9.971891993104805
      ],
      [
        "drygt",
        -9.972146252123668
      ],
      [
        "tryck",
        -9.97349316728338
      ],
      [
        "one",
        -9.974315109637079
      ],
      [
        "▁regn",
        -9.974433692843206
      ],
      [
        "▁erbjudanden",
        -9.974928311517909
      ],
      [
        "▁cookies",
        -9.975154250796214
      ],
      [
        "▁sluta",
        -9.975792912848064
      ],
      [
        "▁förutsättningar",
        -9.976438191610638
      ],
      [
        "▁skit",
        -9.976943260077297
      ],
      [
        "▁varmt",
        -9.977636091647184
      ],
      [
        "▁lägenhet",
        -9.977661403321328
      ],
      [
        "äntligen",
        -9.978407498656495
      ],
      [
        "har",
        -9.978730675425776
      ],
      [
        "▁aktiviteter",
        -9.979240440400172
      ],
      [
        "självklart",
        -9.979274728861878
      ],
      [
        "▁Car",
        -9.980523205218546
      ],
      [
        "undrar",
        -9.980618190978806
      ],
      [
        "▁ändring",
        -9.981592513293059
      ],
      [
        "▁plus",
        -9.982944501346564
      ],
      [
        "▁Sol",
        -9.983072102023428
      ],
      [
        "▁omdöme",
        -9.983920068360645
      ],
      [
        "▁brott",
        -9.985072551743837
      ],
      [
        "JL",
        -9.985712023046728
      ],
      [
        "▁tittar",
        -9.98580514355569
      ],
      [
        "▁passa",
        -9.986874626949971
      ],
      [
        "▁Po",
        -9.987360937575579
      ],
      [
        "▁gilla",
        -9.987378521489346
      ],
      [
        "▁oro",
        -9.98765316458804
      ],
      [
        "▁sam",
        -9.988515361794828
      ],
      [
        "Vilken",
        -9.988987601907896
      ],
      [
        "barn",
        -9.98950760800685
      ],
      [
        "▁Hotels",
        -9.990147159472546
      ],
      [
        "tydligt",
        -9.991363202301061
      ],
      [
        "▁avtal",
        -9.991515891544168
      ],
      [
        "sol",
        -9.99152989133174
      ],
      [
        "▁osv",
        -9.994649039515917
      ],
      [
        "Mer",
        -9.995032885479905
      ],
      [
        "▁grader",
        -9.995333012208638
      ],
      [
        "ure",
        -9.995743114311496
      ],
      [
        "▁Finland",
        -9.996177745933764
      ],
      [
        "▁spelet",
        -9.99687803404414
      ],
      [
        "▁fundera",
        -9.99711511094516
      ],
      [
        "▁Or",
        -9.99808048513877
      ],
      [
        "▁imorgon",
        -9.998241305196041
      ],
      [
        "▁medlem",
        -9.998463568551326
      ],
      [
        "▁sova",
        -10.000042477456043
      ],
      [
        "▁period",
        -10.00004979512169
      ],
      [
        "▁Gratis",
        -10.000448277351815
      ],
      [
        "▁tids",
        -10.000489058140591
      ],
      [
        "▁vita",
        -10.000961484329242
      ],
      [
        "▁yrkes",
        -10.001383812321706
      ],
      [
        "▁projektet",
        -10.001426089528282
      ],
      [
        "Några",
        -10.001450937584742
      ],
      [
        "känt",
        -10.001479246003726
      ],
      [
        "bra",
        -10.001894303012532
      ],
      [
        "andet",
        -10.002155144209874
      ],
      [
        "slog",
        -10.002964455976166
      ],
      [
        "▁promenad",
        -10.00326312855179
      ],
      [
        "▁lösning",
        -10.003504454527791
      ],
      [
        "▁dejt",
        -10.003576786248862
      ],
      [
        "les",
        -10.00368360368215
      ],
      [
        "lämnar",
        -10.004785011448902
      ],
      [
        "▁medarbetare",
        -10.005826294967843
      ],
      [
        "za",
        -10.005943737294782
      ],
      [
        "▁utvecklas",
        -10.006142146994005
      ],
      [
        "▁stjärnor",
        -10.006164071663168
      ],
      [
        "▁internationella",
        -10.00635099867786
      ],
      [
        "br",
        -10.006822826860295
      ],
      [
        "köper",
        -10.007040244382868
      ],
      [
        "▁glöm",
        -10.007372373097386
      ],
      [
        "▁ingenting",
        -10.007440466319144
      ],
      [
        "▁solen",
        -10.007463845557645
      ],
      [
        "▁önska",
        -10.007826981765907
      ],
      [
        "dvs",
        -10.007872374843705
      ],
      [
        "ADRESS",
        -10.007938704076887
      ],
      [
        "förutom",
        -10.008316309487558
      ],
      [
        "▁djup",
        -10.008492219132107
      ],
      [
        "▁idé",
        -10.008500419521452
      ],
      [
        "trax",
        -10.00939246531192
      ],
      [
        "▁knappt",
        -10.010473365862724
      ],
      [
        "▁hamna",
        -10.011911646272695
      ],
      [
        "kläder",
        -10.012535117588625
      ],
      [
        "▁Din",
        -10.012903369399538
      ],
      [
        "chef",
        -10.012949087521324
      ],
      [
        "▁nåt",
        -10.01441799146426
      ],
      [
        "tog",
        -10.014681118705228
      ],
      [
        "▁dagarna",
        -10.014756614070677
      ],
      [
        "▁budget",
        -10.014864226814444
      ],
      [
        "▁åtta",
        -10.015001557482977
      ],
      [
        "▁njuta",
        -10.01587782495457
      ],
      [
        "naturligtvis",
        -10.016908812644493
      ],
      [
        "▁vattnet",
        -10.017568805336438
      ],
      [
        "▁fantastiska",
        -10.017660609638444
      ],
      [
        "▁försäljning",
        -10.01806078178372
      ],
      [
        "▁plast",
        -10.01877948495765
      ],
      [
        "använt",
        -10.018812773475348
      ],
      [
        "▁blod",
        -10.019038796586262
      ],
      [
        "▁politiska",
        -10.019212110720629
      ],
      [
        "Visst",
        -10.020276893467623
      ],
      [
        "▁modell",
        -10.02064533513503
      ],
      [
        "▁matcher",
        -10.021859888850415
      ],
      [
        "▁restaurang",
        -10.022042543688071
      ],
      [
        "antingen",
        -10.022076818120462
      ],
      [
        "äng",
        -10.022371036750195
      ],
      [
        "▁tala",
        -10.02258670224109
      ],
      [
        "bolag",
        -10.0231261797907
      ],
      [
        "▁längs",
        -10.02350866154322
      ],
      [
        "▁Nr",
        -10.02351735587766
      ],
      [
        "▁Bil",
        -10.023826775896518
      ],
      [
        "gård",
        -10.024001389578086
      ],
      [
        "skickade",
        -10.025873802077694
      ],
      [
        "äck",
        -10.026588559400105
      ],
      [
        "▁Martin",
        -10.026696435428363
      ],
      [
        "▁År",
        -10.02775470315992
      ],
      [
        "▁kalla",
        -10.028683423418027
      ],
      [
        "▁genomföra",
        -10.029158449507099
      ],
      [
        "ong",
        -10.029254778858537
      ],
      [
        "▁lagt",
        -10.029466091791722
      ],
      [
        "▁riktig",
        -10.0298124565332
      ],
      [
        "▁alkohol",
        -10.030146391985173
      ],
      [
        "▁samla",
        -10.030552882023295
      ],
      [
        "▁Först",
        -10.031454092507099
      ],
      [
        "▁Johansson",
        -10.031490191220971
      ],
      [
        "▁Namn",
        -10.032293428878516
      ],
      [
        "▁fil",
        -10.032416647725235
      ],
      [
        "▁spår",
        -10.032496575111189
      ],
      [
        "▁Vet",
        -10.03255340522204
      ],
      [
        "körde",
        -10.032817043410958
      ],
      [
        "▁knapp",
        -10.033520690353393
      ],
      [
        "▁tvinga",
        -10.033522797075683
      ],
      [
        "▁utbud",
        -10.033634905553173
      ],
      [
        "▁beställa",
        -10.034209184906967
      ],
      [
        "▁undvika",
        -10.034278646734819
      ],
      [
        "▁mesta",
        -10.034401605225106
      ],
      [
        "rejäl",
        -10.035175306329306
      ],
      [
        "▁Ad",
        -10.036017250215098
      ],
      [
        "För",
        -10.036668055382654
      ],
      [
        "▁leta",
        -10.038368222152977
      ],
      [
        "▁företags",
        -10.038383196542977
      ],
      [
        "▁Ko",
        -10.038553396432444
      ],
      [
        "▁söndag",
        -10.038899868633541
      ],
      [
        "▁annorlunda",
        -10.04234051910564
      ],
      [
        "▁skön",
        -10.042945064733857
      ],
      [
        "jo",
        -10.045102061195582
      ],
      [
        "▁mode",
        -10.045310961483322
      ],
      [
        "bart",
        -10.046241405322665
      ],
      [
        "▁cykel",
        -10.046272384294772
      ],
      [
        "utbildning",
        -10.04646196629218
      ],
      [
        "klass",
        -10.04671598762217
      ],
      [
        "finner",
        -10.046807718315536
      ],
      [
        "alt",
        -10.046818779864697
      ],
      [
        "▁rummet",
        -10.046829095790123
      ],
      [
        "▁Bland",
        -10.047637559219664
      ],
      [
        "▁mörk",
        -10.048378443072346
      ],
      [
        "▁bio",
        -10.048818178156896
      ],
      [
        "▁Con",
        -10.04886203112679
      ],
      [
        "full",
        -10.049077508899039
      ],
      [
        "▁modern",
        -10.04925090278806
      ],
      [
        "▁ansökan",
        -10.049955578859109
      ],
      [
        "▁datorn",
        -10.05031833493041
      ],
      [
        "▁samhälle",
        -10.050502680188849
      ],
      [
        "▁San",
        -10.050707688817745
      ],
      [
        "▁värld",
        -10.050836372522312
      ],
      [
        "räcker",
        -10.051227182531221
      ],
      [
        "▁Mat",
        -10.051760634804188
      ],
      [
        "pratar",
        -10.051838080540675
      ],
      [
        "▁Carl",
        -10.052895523508173
      ],
      [
        "▁drabba",
        -10.053011564170609
      ],
      [
        "▁Sch",
        -10.053406428221841
      ],
      [
        "▁www",
        -10.053703310393876
      ],
      [
        "ow",
        -10.05381855164967
      ],
      [
        "ight",
        -10.054343232953329
      ],
      [
        "▁Pi",
        -10.054683751391696
      ],
      [
        "likt",
        -10.055121902815827
      ],
      [
        "ive",
        -10.055264046579273
      ],
      [
        "växer",
        -10.055775111375576
      ],
      [
        "▁huvudet",
        -10.05596639020509
      ],
      [
        "kallade",
        -10.056279485661774
      ],
      [
        "hets",
        -10.056373754438036
      ],
      [
        "▁huden",
        -10.05670291891057
      ],
      [
        "ång",
        -10.057103437800452
      ],
      [
        "▁patienter",
        -10.058159189562073
      ],
      [
        "mal",
        -10.058286649322971
      ],
      [
        "namn",
        -10.059271412253048
      ],
      [
        "▁Lägg",
        -10.059653973194333
      ],
      [
        "samt",
        -10.059727524141621
      ],
      [
        "ernas",
        -10.060087263323823
      ],
      [
        "led",
        -10.061103369245526
      ],
      [
        "ledare",
        -10.062067921081447
      ],
      [
        "▁Sätt",
        -10.0632928591841
      ],
      [
        "▁Norge",
        -10.063398921300616
      ],
      [
        "ff",
        -10.063430181669279
      ],
      [
        "Tack",
        -10.064084968226204
      ],
      [
        "▁Bästa",
        -10.065106362559657
      ],
      [
        "▁mår",
        -10.065193844717525
      ],
      [
        "garantera",
        -10.065409235508126
      ],
      [
        "center",
        -10.065820903681097
      ],
      [
        "lek",
        -10.066312889487378
      ],
      [
        "▁kommuner",
        -10.066845313848003
      ],
      [
        "▁Ge",
        -10.067213662659174
      ],
      [
        "▁Nord",
        -10.06737712308864
      ],
      [
        "holm",
        -10.068216849792734
      ],
      [
        "ämre",
        -10.068221359379644
      ],
      [
        "▁bilar",
        -10.06839766324267
      ],
      [
        "▁Svensk",
        -10.068557547249522
      ],
      [
        "▁bred",
        -10.069002864201192
      ],
      [
        "▁foto",
        -10.069426588578466
      ],
      [
        "▁Dam",
        -10.069503208020057
      ],
      [
        "▁sten",
        -10.069569715995476
      ],
      [
        "▁live",
        -10.069811737987017
      ],
      [
        "▁skydda",
        -10.070000064490198
      ],
      [
        "▁bloggen",
        -10.07009377182504
      ],
      [
        "▁choklad",
        -10.070674580373597
      ],
      [
        "▁Bu",
        -10.070742979237098
      ],
      [
        "ite",
        -10.070759543073121
      ],
      [
        "▁Fredrik",
        -10.072010138656813
      ],
      [
        "lik",
        -10.072387454162412
      ],
      [
        "▁stockholm",
        -10.072435648605067
      ],
      [
        "▁Tyskland",
        -10.07271497338514
      ],
      [
        "▁utvecklingen",
        -10.07295305511437
      ],
      [
        "▁öppet",
        -10.073179507356418
      ],
      [
        "via",
        -10.07333547878624
      ],
      [
        "lyckades",
        -10.073719428524559
      ],
      [
        "klarar",
        -10.073793612154354
      ],
      [
        "▁må",
        -10.074936535164108
      ],
      [
        "stra",
        -10.075690308632524
      ],
      [
        "▁OK",
        -10.07572537631526
      ],
      [
        "dig",
        -10.07628818459139
      ],
      [
        "▁Hos",
        -10.076971683787049
      ],
      [
        "▁köpt",
        -10.077076883025226
      ],
      [
        "▁So",
        -10.077823161841877
      ],
      [
        "▁förmåga",
        -10.078142457095103
      ],
      [
        "▁högst",
        -10.078463094894808
      ],
      [
        "▁intresserad",
        -10.078666671619068
      ],
      [
        "▁Örebro",
        -10.079384160118721
      ],
      [
        "information",
        -10.080295261025665
      ],
      [
        "▁Gör",
        -10.080316260234092
      ],
      [
        "vik",
        -10.080678430856695
      ],
      [
        "▁smidig",
        -10.081026189099173
      ],
      [
        "byggnad",
        -10.081148207857924
      ],
      [
        "bjuder",
        -10.081327417171034
      ],
      [
        "nuvarande",
        -10.082246989673335
      ],
      [
        "▁kost",
        -10.082716895343223
      ],
      [
        "råd",
        -10.08508372120818
      ],
      [
        "plötsligt",
        -10.085138276684722
      ],
      [
        "▁hot",
        -10.085225750086872
      ],
      [
        "▁situation",
        -10.085250969602646
      ],
      [
        "▁namnet",
        -10.085265798107114
      ],
      [
        "▁Anmäl",
        -10.08549386196911
      ],
      [
        "Igår",
        -10.08620342345581
      ],
      [
        "▁tionde",
        -10.086654699090182
      ],
      [
        "▁stads",
        -10.08718276268975
      ],
      [
        "hänt",
        -10.087442967086634
      ],
      [
        "che",
        -10.087512531852843
      ],
      [
        "hall",
        -10.088190329644442
      ],
      [
        "▁rättigheter",
        -10.089027678763697
      ],
      [
        "liggande",
        -10.089191396993302
      ],
      [
        "▁mån",
        -10.0897347407696
      ],
      [
        "▁säsong",
        -10.090001687927769
      ],
      [
        "ökade",
        -10.090767852064657
      ],
      [
        "▁brist",
        -10.091576929804313
      ],
      [
        "▁herr",
        -10.091736559639196
      ],
      [
        "▁tillväxt",
        -10.092361709179015
      ],
      [
        "ivetvis",
        -10.093411249849314
      ],
      [
        "▁enkla",
        -10.093430651207896
      ],
      [
        "▁Er",
        -10.094658126150538
      ],
      [
        "🙂",
        -10.094663070024435
      ],
      [
        "kräm",
        -10.094826562721652
      ],
      [
        "▁satte",
        -10.095281977039507
      ],
      [
        "▁kostnader",
        -10.095509023590504
      ],
      [
        "löst",
        -10.095880642073537
      ],
      [
        "oc",
        -10.096195152443407
      ],
      [
        "▁princip",
        -10.096785395540214
      ],
      [
        "▁mjuk",
        -10.097181831172312
      ],
      [
        "lov",
        -10.097568183828018
      ],
      [
        "▁slag",
        -10.098339575089266
      ],
      [
        "någonting",
        -10.098581743778663
      ],
      [
        "▁havet",
        -10.098810890243017
      ],
      [
        "▁himla",
        -10.099338531280631
      ],
      [
        "▁amerikanska",
        -10.099646822907767
      ],
      [
        "▁press",
        -10.099719886474501
      ],
      [
        "anses",
        -10.099933939895474
      ],
      [
        "▁förhållande",
        -10.100385625816772
      ],
      [
        "▁brand",
        -10.100523134783058
      ],
      [
        "▁positiv",
        -10.100626369976702
      ],
      [
        "möta",
        -10.100763334695845
      ],
      [
        "▁vacker",
        -10.100962095451806
      ],
      [
        "▁kontrollera",
        -10.101695991965231
      ],
      [
        "▁transport",
        -10.102054459077413
      ],
      [
        "▁säljer",
        -10.103067906075298
      ],
      [
        "▁Inn",
        -10.103519368014734
      ],
      [
        "uff",
        -10.10371205738333
      ],
      [
        "▁norr",
        -10.103866453871108
      ],
      [
        "▁följd",
        -10.104952105854133
      ],
      [
        "fylla",
        -10.105355017915919
      ],
      [
        "▁Casino",
        -10.105415792998548
      ],
      [
        "område",
        -10.108154210707843
      ],
      [
        "Vilka",
        -10.108199924997544
      ],
      [
        "kel",
        -10.109117466390849
      ],
      [
        "▁ägg",
        -10.109286170649902
      ],
      [
        "▁miljarder",
        -10.110091232780501
      ],
      [
        "▁räkna",
        -10.110670186965073
      ],
      [
        "▁Sport",
        -10.110754400642142
      ],
      [
        "▁undan",
        -10.111327414659232
      ],
      [
        "▁nyligen",
        -10.11204730239767
      ],
      [
        "▁utnyttja",
        -10.112102735243909
      ],
      [
        "▁Online",
        -10.112239484795943
      ],
      [
        "▁trevligt",
        -10.11392501082965
      ],
      [
        "▁måndag",
        -10.115379396801844
      ],
      [
        "▁Vikt",
        -10.115948979826458
      ],
      [
        "▁röd",
        -10.116971525348037
      ],
      [
        "lyckat",
        -10.117094901895182
      ],
      [
        "▁timmen",
        -10.117488396749035
      ],
      [
        "▁fest",
        -10.118447062800843
      ],
      [
        "kat",
        -10.118702986956466
      ],
      [
        "▁medier",
        -10.119854549318134
      ],
      [
        "Vissa",
        -10.119923410008129
      ],
      [
        "lö",
        -10.120315749288409
      ],
      [
        "line",
        -10.121063740688216
      ],
      [
        "▁affärs",
        -10.12123592658406
      ],
      [
        "las",
        -10.12256412508605
      ],
      [
        "▁startade",
        -10.122583018731973
      ],
      [
        "▁butik",
        -10.122755892915784
      ],
      [
        "▁fixa",
        -10.122902624537709
      ],
      [
        "igen",
        -10.12408276245641
      ],
      [
        "▁resultatet",
        -10.124358634576176
      ],
      [
        "▁såklart",
        -10.124430975668801
      ],
      [
        "q",
        -10.124555209357787
      ],
      [
        "mötet",
        -10.124950240770303
      ],
      [
        "numera",
        -10.125925609270206
      ],
      [
        "▁pengarna",
        -10.126230955723589
      ],
      [
        "▁jord",
        -10.127168566063567
      ],
      [
        "▁Google",
        -10.127382790447232
      ],
      [
        "ökat",
        -10.127402349964537
      ],
      [
        "ställen",
        -10.12809389632068
      ],
      [
        "▁gett",
        -10.128352878668979
      ],
      [
        "▁sällan",
        -10.128435081540244
      ],
      [
        "hu",
        -10.128929859402714
      ],
      [
        "▁dels",
        -10.130040253398915
      ],
      [
        "ktion",
        -10.13008123130951
      ],
      [
        "▁missa",
        -10.130439006659309
      ],
      [
        "▁brev",
        -10.131023967651762
      ],
      [
        "▁IT",
        -10.131914699905392
      ],
      [
        "art",
        -10.131938675959491
      ],
      [
        "▁förklara",
        -10.132012722182452
      ],
      [
        "blad",
        -10.132097492287363
      ],
      [
        "priserna",
        -10.13226308337028
      ],
      [
        "nder",
        -10.13236193440458
      ],
      [
        "▁To",
        -10.132387188068439
      ],
      [
        "▁kapital",
        -10.132510712831282
      ],
      [
        "skola",
        -10.132714797793057
      ],
      [
        "▁Internet",
        -10.133210292084
      ],
      [
        "▁lek",
        -10.133711396989579
      ],
      [
        "köp",
        -10.135340297436676
      ],
      [
        "▁mera",
        -10.135962334847825
      ],
      [
        "värde",
        -10.136366196481234
      ],
      [
        "▁Pe",
        -10.136729683739413
      ],
      [
        "TV",
        -10.136815677363478
      ],
      [
        "rör",
        -10.13738701811476
      ],
      [
        "▁acceptera",
        -10.13858538017549
      ],
      [
        "förbundet",
        -10.138692129641814
      ],
      [
        "▁ställe",
        -10.138853994932647
      ],
      [
        "ologi",
        -10.13892675776392
      ],
      [
        "lit",
        -10.138963620830616
      ],
      [
        "▁roliga",
        -10.139213339608345
      ],
      [
        "material",
        -10.139827012817777
      ],
      [
        "▁Dock",
        -10.140325346656255
      ],
      [
        "rus",
        -10.141108785648754
      ],
      [
        "▁me",
        -10.141189195761527
      ],
      [
        "Våra",
        -10.141362900611513
      ],
      [
        "ake",
        -10.141614894231527
      ],
      [
        "▁ma",
        -10.142561471478054
      ],
      [
        "▁fisk",
        -10.143359997833551
      ],
      [
        "jan",
        -10.144185043288019
      ],
      [
        "▁platsen",
        -10.14419089653416
      ],
      [
        "▁kille",
        -10.14424835182681
      ],
      [
        "▁massage",
        -10.144334964039622
      ],
      [
        "ley",
        -10.144748728824052
      ],
      [
        "▁kyrkan",
        -10.145384806457788
      ],
      [
        "our",
        -10.145559363321473
      ],
      [
        "behandling",
        -10.146148080601229
      ],
      [
        "▁världs",
        -10.147109359746867
      ],
      [
        "▁frisk",
        -10.147675787358121
      ],
      [
        "▁föreslå",
        -10.147753268529392
      ],
      [
        "▁hy",
        -10.148218559149992
      ],
      [
        "▁erbjud",
        -10.148248321621669
      ],
      [
        "relativt",
        -10.148726783873412
      ],
      [
        "▁läkemedel",
        -10.148738914387843
      ],
      [
        "▁makt",
        -10.149226340426477
      ],
      [
        "▁London",
        -10.149634373349311
      ],
      [
        "risken",
        -10.149731377418657
      ],
      [
        "bedriv",
        -10.14981628083072
      ],
      [
        "träffade",
        -10.149912035497877
      ],
      [
        "service",
        -10.150057705905022
      ],
      [
        "▁satsa",
        -10.150118720679473
      ],
      [
        "▁kombinera",
        -10.151893619140193
      ],
      [
        "▁Ju",
        -10.152195940344269
      ],
      [
        "▁varm",
        -10.15261745122155
      ],
      [
        "▁mitten",
        -10.152665387763877
      ],
      [
        "funkar",
        -10.15268948417712
      ],
      [
        "jag",
        -10.153259915567379
      ],
      [
        "▁haha",
        -10.153984471449254
      ],
      [
        "Omdöme",
        -10.15466687609775
      ],
      [
        "äll",
        -10.155011222129593
      ],
      [
        "▁badrum",
        -10.155376322651131
      ],
      [
        "▁lösningar",
        -10.155446492784932
      ],
      [
        "▁välkomna",
        -10.156513237742358
      ],
      [
        "lopp",
        -10.156902199054457
      ],
      [
        "Tyvärr",
        -10.157228984971894
      ],
      [
        "▁betalar",
        -10.157623405540008
      ],
      [
        "link",
        -10.15772364374314
      ],
      [
        "▁dyr",
        -10.157752165224107
      ],
      [
        "▁uppnå",
        -10.157783887754631
      ],
      [
        "Förutom",
        -10.15858008049223
      ],
      [
        "aktuella",
        -10.15960822120865
      ],
      [
        "åtminstone",
        -10.160739800148846
      ],
      [
        "▁normalt",
        -10.160799404250458
      ],
      [
        "▁människa",
        -10.16083549529122
      ],
      [
        "▁förändring",
        -10.161360498818112
      ],
      [
        "▁tillfälle",
        -10.16246798516942
      ],
      [
        "▁nämn",
        -10.162591629847249
      ],
      [
        "▁Inga",
        -10.162882103671842
      ],
      [
        "▁Nästa",
        -10.163682694116078
      ],
      [
        "bestämt",
        -10.163919313121147
      ],
      [
        "ben",
        -10.164374874502055
      ],
      [
        "ledning",
        -10.164846318629202
      ],
      [
        "omfattande",
        -10.16644849251003
      ],
      [
        "▁leverera",
        -10.167308173489246
      ],
      [
        "▁gäst",
        -10.16779212397321
      ],
      [
        "▁info",
        -10.16793660150573
      ],
      [
        "planen",
        -10.168560035322084
      ],
      [
        "▁ges",
        -10.169158208935118
      ],
      [
        "▁hundra",
        -10.169407767565463
      ],
      [
        "▁centrala",
        -10.169864202378466
      ],
      [
        "▁utföra",
        -10.16991502618037
      ],
      [
        "▁ung",
        -10.170172910167054
      ],
      [
        "▁förut",
        -10.170801473971599
      ],
      [
        "enklare",
        -10.171452414181134
      ],
      [
        "▁besöka",
        -10.17189309632401
      ],
      [
        "ständigt",
        -10.174026189364945
      ],
      [
        "▁leverans",
        -10.174283590489633
      ],
      [
        "▁York",
        -10.174498735706948
      ],
      [
        "eras",
        -10.174517113217721
      ],
      [
        "Skulle",
        -10.174625883922348
      ],
      [
        "ET",
        -10.174831729428105
      ],
      [
        "stöd",
        -10.175773899824899
      ],
      [
        "▁media",
        -10.176451921385368
      ],
      [
        "▁dröm",
        -10.176691462741378
      ],
      [
        "ity",
        -10.176835059392795
      ],
      [
        "ess",
        -10.177089132122155
      ],
      [
        "▁Spel",
        -10.177177232046388
      ],
      [
        "tel",
        -10.177310464151136
      ],
      [
        "visste",
        -10.177378659174641
      ],
      [
        "mässigt",
        -10.178799597359658
      ],
      [
        "▁mor",
        -10.179389638193435
      ],
      [
        "▁webb",
        -10.179702132035697
      ],
      [
        "▁Skriv",
        -10.180125989369314
      ],
      [
        "▁fot",
        -10.18117332892436
      ],
      [
        "lämnade",
        -10.181418078369392
      ],
      [
        "De",
        -10.181631106215136
      ],
      [
        "▁snygg",
        -10.182247842455691
      ],
      [
        "vända",
        -10.183671623564278
      ],
      [
        "▁nummer",
        -10.184399189041104
      ],
      [
        "sättet",
        -10.184666776270932
      ],
      [
        "bord",
        -10.184895430112064
      ],
      [
        "dra",
        -10.185364090535538
      ],
      [
        "start",
        -10.185691136472368
      ],
      [
        "▁rekommenderar",
        -10.186151617413152
      ],
      [
        "▁Själv",
        -10.186189534847776
      ],
      [
        "▁City",
        -10.186901560063012
      ],
      [
        "▁br",
        -10.18755581199987
      ],
      [
        "Q",
        -10.187687690743767
      ],
      [
        "▁sjukhus",
        -10.187736290617291
      ],
      [
        "▁användare",
        -10.187850012697666
      ],
      [
        "▁ordentligt",
        -10.188483849393807
      ],
      [
        "▁adress",
        -10.188969726121936
      ],
      [
        "möjliga",
        -10.189858869617318
      ],
      [
        "isering",
        -10.190048422959595
      ],
      [
        "slagen",
        -10.190252615793012
      ],
      [
        "▁tjänst",
        -10.19048895090083
      ],
      [
        "▁morgonen",
        -10.19060790644582
      ],
      [
        "fl",
        -10.190661368288454
      ],
      [
        "▁snabba",
        -10.190946941368072
      ],
      [
        "valda",
        -10.19102033957981
      ],
      [
        "▁Dom",
        -10.191597581363249
      ],
      [
        "▁glädje",
        -10.192443109417201
      ],
      [
        "tips",
        -10.192941998236016
      ],
      [
        "slår",
        -10.194013347220093
      ],
      [
        "▁offentlig",
        -10.194155626348616
      ],
      [
        "▁Hade",
        -10.194609423238093
      ],
      [
        "ört",
        -10.195064811565963
      ],
      [
        "out",
        -10.195518488290594
      ],
      [
        "bor",
        -10.196776937477615
      ],
      [
        "▁Första",
        -10.19705783938291
      ],
      [
        "▁kök",
        -10.19719239692566
      ],
      [
        "▁straff",
        -10.197210860065919
      ],
      [
        "▁Ed",
        -10.197993118226924
      ],
      [
        "▁frakt",
        -10.198160816884231
      ],
      [
        "AN",
        -10.198558364436765
      ],
      [
        "of",
        -10.198716498627014
      ],
      [
        "▁restauranger",
        -10.198740888080085
      ],
      [
        "fel",
        -10.19893264826742
      ],
      [
        "över",
        -10.199146321038107
      ],
      [
        "▁Ålder",
        -10.199461500881357
      ],
      [
        "▁Kr",
        -10.199786128521726
      ],
      [
        "▁datum",
        -10.200036566353635
      ],
      [
        "▁möte",
        -10.200800775337303
      ],
      [
        "▁Go",
        -10.201479904942335
      ],
      [
        "läge",
        -10.202403648454723
      ],
      [
        "▁Nilsson",
        -10.202417489005688
      ],
      [
        "▁fördel",
        -10.2031250655424
      ],
      [
        "dda",
        -10.203248886133029
      ],
      [
        "▁socker",
        -10.203939894448784
      ],
      [
        "▁upplevelse",
        -10.205224301745215
      ],
      [
        "tic",
        -10.205440969724147
      ],
      [
        "▁bostads",
        -10.206769748114478
      ],
      [
        "▁studier",
        -10.206846309324652
      ],
      [
        "▁anti",
        -10.2068522216262
      ],
      [
        "▁Te",
        -10.207544547045767
      ],
      [
        "▁inlägget",
        -10.207654262638165
      ],
      [
        "▁slags",
        -10.208115994673287
      ],
      [
        "rika",
        -10.208817836386359
      ],
      [
        "typ",
        -10.208983525581225
      ],
      [
        "app",
        -10.209112336911158
      ],
      [
        "tas",
        -10.209983263106158
      ],
      [
        "OF",
        -10.210178527083093
      ],
      [
        "sätt",
        -10.21075282071319
      ],
      [
        "▁Am",
        -10.21155633371186
      ],
      [
        "▁US",
        -10.211670034649275
      ],
      [
        "▁tränings",
        -10.211868839432674
      ],
      [
        "tik",
        -10.212047923522057
      ],
      [
        "▁relation",
        -10.21251963646094
      ],
      [
        "skrevs",
        -10.212853715006675
      ],
      [
        "▁tal",
        -10.213431618892113
      ],
      [
        "int",
        -10.21356989349485
      ],
      [
        "vit",
        -10.214498953967336
      ],
      [
        "gan",
        -10.215254240598806
      ],
      [
        "zz",
        -10.215309232472972
      ],
      [
        "tvung",
        -10.215414412773512
      ],
      [
        "lle",
        -10.215778444425172
      ],
      [
        "allmänna",
        -10.216107955435866
      ],
      [
        "▁ämnen",
        -10.216312619728717
      ],
      [
        "▁Gå",
        -10.216433136242534
      ],
      [
        "▁röst",
        -10.216538433239458
      ],
      [
        "▁tra",
        -10.21668656941778
      ],
      [
        "▁hänsyn",
        -10.218628406069163
      ],
      [
        "▁kombination",
        -10.21889445954445
      ],
      [
        "▁jämför",
        -10.219396276082024
      ],
      [
        "▁ka",
        -10.219450737891231
      ],
      [
        "pro",
        -10.219665314880341
      ],
      [
        "bro",
        -10.220129907377533
      ],
      [
        "▁båt",
        -10.2201854635061
      ],
      [
        "platser",
        -10.22077124628649
      ],
      [
        "▁inkomst",
        -10.22104926988556
      ],
      [
        "▁jorden",
        -10.22143996292797
      ],
      [
        "▁höjd",
        -10.222360762753343
      ],
      [
        "wa",
        -10.222459774823081
      ],
      [
        "▁styrelse",
        -10.223520385462926
      ],
      [
        "▁kommunikation",
        -10.223544799244559
      ],
      [
        "→",
        -10.224174817098703
      ],
      [
        "män",
        -10.224214300247016
      ],
      [
        "▁Lind",
        -10.224230198076166
      ],
      [
        "bergs",
        -10.2245630248244
      ],
      [
        "▁Vem",
        -10.225065752342744
      ],
      [
        "▁inspiration",
        -10.225067224681197
      ],
      [
        "processen",
        -10.225117290627377
      ],
      [
        "▁översättning",
        -10.225195095033616
      ],
      [
        "▁Bygg",
        -10.225250219003762
      ],
      [
        "▁pre",
        -10.225421624673919
      ],
      [
        "platsen",
        -10.22572942671514
      ],
      [
        "ace",
        -10.22582311488446
      ],
      [
        "▁problemet",
        -10.22673768792306
      ],
      [
        "▁ringa",
        -10.226863879192049
      ],
      [
        "▁webbplatser",
        -10.226907532777933
      ],
      [
        "▁valet",
        -10.22700517012527
      ],
      [
        "▁mjölk",
        -10.22738813372677
      ],
      [
        "▁varumärken",
        -10.22858586647972
      ],
      [
        "världen",
        -10.230042001979214
      ],
      [
        "▁orsak",
        -10.230074629584752
      ],
      [
        "▁funktioner",
        -10.230095942080712
      ],
      [
        "▁korrekt",
        -10.230198425475956
      ],
      [
        "titeln",
        -10.230737733401247
      ],
      [
        "▁Dr",
        -10.231243079676156
      ],
      [
        "▁stycken",
        -10.232182737507383
      ],
      [
        "spelare",
        -10.232759008677485
      ],
      [
        "▁ersättning",
        -10.233103239702883
      ],
      [
        "avseende",
        -10.234134959707458
      ],
      [
        "▁struktur",
        -10.234312539015146
      ],
      [
        "från",
        -10.2346627217453
      ],
      [
        "▁uppenbar",
        -10.234723668739763
      ],
      [
        "▁Herr",
        -10.235728348570895
      ],
      [
        "▁you",
        -10.236599191081813
      ],
      [
        "▁nät",
        -10.237209285840862
      ],
      [
        "▁reklam",
        -10.237582821634339
      ],
      [
        "▁Lag",
        -10.237927460503037
      ],
      [
        "erings",
        -10.238036083491727
      ],
      [
        "ök",
        -10.23822274536789
      ],
      [
        "ski",
        -10.238849896426867
      ],
      [
        "möte",
        -10.23942815329431
      ],
      [
        "▁Daniel",
        -10.239498481675845
      ],
      [
        "▁dans",
        -10.239638335178885
      ],
      [
        "▁Nor",
        -10.23972039606955
      ],
      [
        "lett",
        -10.239886191844192
      ],
      [
        "▁politiker",
        -10.239896601197193
      ],
      [
        "▁Ki",
        -10.239984566847086
      ],
      [
        "▁Frankrike",
        -10.240155433779073
      ],
      [
        "▁fett",
        -10.240560401588775
      ],
      [
        "▁utsikt",
        -10.240909931012256
      ],
      [
        "press",
        -10.241006476915217
      ],
      [
        "▁synd",
        -10.241138622239879
      ],
      [
        "▁gemensamma",
        -10.241405034361591
      ],
      [
        "▁Hu",
        -10.241594249644121
      ],
      [
        "▁grupper",
        -10.241635596811246
      ],
      [
        "film",
        -10.241935132167981
      ],
      [
        "▁dotter",
        -10.242918402873698
      ],
      [
        "▁rörelse",
        -10.243225592459238
      ],
      [
        "▁Ku",
        -10.243315336035852
      ],
      [
        "brott",
        -10.24361339609837
      ],
      [
        "kallar",
        -10.2440272320833
      ],
      [
        "▁motsvarande",
        -10.244535952471237
      ],
      [
        "▁Sex",
        -10.244599426672899
      ],
      [
        "▁Stefan",
        -10.245083244132855
      ],
      [
        "▁buss",
        -10.246062075460065
      ],
      [
        "gå",
        -10.246179038350443
      ],
      [
        "▁fyller",
        -10.246518065577813
      ],
      [
        "▁katt",
        -10.247191503510901
      ],
      [
        "▁Ex",
        -10.24736597891312
      ],
      [
        "befinner",
        -10.247428874444063
      ],
      [
        "▁starka",
        -10.24751830107377
      ],
      [
        "svarade",
        -10.249394216782974
      ],
      [
        "▁Kon",
        -10.250072453488048
      ],
      [
        "bas",
        -10.250426922353425
      ],
      [
        "▁springa",
        -10.250833303331786
      ],
      [
        "bilder",
        -10.250967216633516
      ],
      [
        "skaffa",
        -10.25120920635644
      ],
      [
        "partiet",
        -10.251478642134146
      ],
      [
        "▁kilometer",
        -10.251528248023291
      ],
      [
        "▁ägare",
        -10.251833164013458
      ],
      [
        "▁magen",
        -10.252175049009168
      ],
      [
        "▁Tur",
        -10.252456589681657
      ],
      [
        "▁genomför",
        -10.25278669713481
      ],
      [
        "lista",
        -10.25284815753996
      ],
      [
        "▁använde",
        -10.25293557223913
      ],
      [
        "▁Danmark",
        -10.253065100126246
      ],
      [
        "rätten",
        -10.253569095466359
      ],
      [
        "letar",
        -10.254112316076474
      ],
      [
        "året",
        -10.254135174153598
      ],
      [
        "▁radio",
        -10.254687671469929
      ],
      [
        "tter",
        -10.254938508226333
      ],
      [
        "▁utomhus",
        -10.255447039330429
      ],
      [
        "▁tecken",
        -10.255876445877567
      ],
      [
        "▁sko",
        -10.256744787818246
      ],
      [
        "ika",
        -10.257952522569122
      ],
      [
        "vetenskap",
        -10.25805011228872
      ],
      [
        "▁vackert",
        -10.258273700218151
      ],
      [
        "▁inled",
        -10.259051513899465
      ],
      [
        "▁SVT",
        -10.25971422990291
      ],
      [
        "▁bedöm",
        -10.260079333789914
      ],
      [
        "rig",
        -10.260301596441188
      ],
      [
        "▁spa",
        -10.260388576560452
      ],
      [
        "eleverna",
        -10.260980795636595
      ],
      [
        "▁mail",
        -10.261705269089152
      ],
      [
        "▁motor",
        -10.261970368869905
      ],
      [
        "▁jämföra",
        -10.263156698007807
      ],
      [
        "hjälp",
        -10.263556456466413
      ],
      [
        "kraft",
        -10.264107881370707
      ],
      [
        "▁detaljer",
        -10.264280597299791
      ],
      [
        "snabbare",
        -10.2645052811185
      ],
      [
        "visas",
        -10.26582154591653
      ],
      [
        "▁sväng",
        -10.265880067517147
      ],
      [
        "under",
        -10.266220751735114
      ],
      [
        "shop",
        -10.26642594143292
      ],
      [
        "värd",
        -10.266441673365849
      ],
      [
        "vall",
        -10.266783113222232
      ],
      [
        "erande",
        -10.267014722761266
      ],
      [
        "▁God",
        -10.267622481955993
      ],
      [
        "berättade",
        -10.26842797151314
      ],
      [
        "▁Italien",
        -10.268460584680792
      ],
      [
        "RA",
        -10.268915509945478
      ],
      [
        "▁unik",
        -10.269104791802762
      ],
      [
        "gon",
        -10.26947747441764
      ],
      [
        "▁naturen",
        -10.270151426830207
      ],
      [
        "▁organisation",
        -10.270725252040576
      ],
      [
        "▁känd",
        -10.271397617571111
      ],
      [
        "▁My",
        -10.271501930531414
      ],
      [
        "▁värd",
        -10.271541918480743
      ],
      [
        "▁röda",
        -10.27229051204279
      ],
      [
        "▁Ab",
        -10.272391495091778
      ],
      [
        "chansen",
        -10.272516843413365
      ],
      [
        "ze",
        -10.272943496403698
      ],
      [
        "▁salt",
        -10.273343440771551
      ],
      [
        "▁redo",
        -10.274086512487342
      ],
      [
        "▁fika",
        -10.274757609144151
      ],
      [
        "Om",
        -10.27477684246304
      ],
      [
        "▁personen",
        -10.275005667935227
      ],
      [
        "▁skogen",
        -10.275736038606254
      ],
      [
        "▁bry",
        -10.276320213218447
      ],
      [
        "handel",
        -10.276347027248134
      ],
      [
        "▁förändringar",
        -10.276472514957591
      ],
      [
        "håll",
        -10.276482704183405
      ],
      [
        "▁We",
        -10.276953544349215
      ],
      [
        "ica",
        -10.27753820898544
      ],
      [
        "konstigt",
        -10.277732707949935
      ],
      [
        "▁plocka",
        -10.277830467304197
      ],
      [
        "situationen",
        -10.278063323501822
      ],
      [
        "dagar",
        -10.278600494099107
      ],
      [
        "Någon",
        -10.278722606615103
      ],
      [
        "▁minns",
        -10.279216086714515
      ],
      [
        "▁TripAdvisor",
        -10.279389810761995
      ],
      [
        "▁John",
        -10.279688065407573
      ],
      [
        "▁digitala",
        -10.279951373730785
      ],
      [
        "▁grad",
        -10.280049181129652
      ],
      [
        "serien",
        -10.280890909495529
      ],
      [
        "▁ända",
        -10.281034260231491
      ],
      [
        "rådet",
        -10.281595513901042
      ],
      [
        "▁yngre",
        -10.282253258445012
      ],
      [
        "sin",
        -10.282732683493581
      ],
      [
        "▁ton",
        -10.283324640835582
      ],
      [
        "värre",
        -10.283603954252843
      ],
      [
        "▁framtid",
        -10.28374757645582
      ],
      [
        "opp",
        -10.283786447993473
      ],
      [
        "bygg",
        -10.283802741540947
      ],
      [
        "▁profil",
        -10.28389590746902
      ],
      [
        "▁Få",
        -10.28411522234314
      ],
      [
        "▁idéer",
        -10.2844196185785
      ],
      [
        "▁Com",
        -10.28471517616832
      ],
      [
        "myndigheten",
        -10.28575433432838
      ],
      [
        "industrin",
        -10.286057369854012
      ],
      [
        "▁tåg",
        -10.287083601358852
      ],
      [
        "▁Information",
        -10.287269029521037
      ],
      [
        "▁omöjlig",
        -10.287626261508736
      ],
      [
        "beskriver",
        -10.288344542544234
      ],
      [
        "▁Lu",
        -10.288765280949901
      ],
      [
        "tag",
        -10.288766188779666
      ],
      [
        "▁Sten",
        -10.289095473797985
      ],
      [
        "▁Karl",
        -10.289137799567554
      ],
      [
        "▁nödvändigt",
        -10.289365658288053
      ],
      [
        "▁hyra",
        -10.289634287863997
      ],
      [
        "▁försökt",
        -10.289767021114066
      ],
      [
        "▁ses",
        -10.289915608000939
      ],
      [
        "perfekta",
        -10.290487646203228
      ],
      [
        "▁familje",
        -10.290862077899847
      ],
      [
        "hittills",
        -10.291227200419794
      ],
      [
        "läggning",
        -10.291565126972685
      ],
      [
        "▁Q",
        -10.291861571380355
      ],
      [
        "FV",
        -10.291896157765933
      ],
      [
        "bad",
        -10.291905272973787
      ],
      [
        "▁söder",
        -10.292052934833194
      ],
      [
        "▁vind",
        -10.29416037145027
      ],
      [
        "▁avgörande",
        -10.294309301110708
      ],
      [
        "▁resurser",
        -10.29539975802837
      ],
      [
        "syn",
        -10.295678698611768
      ],
      [
        "▁hopp",
        -10.296483011369698
      ],
      [
        "▁informationen",
        -10.29651029854644
      ],
      [
        "NA",
        -10.296582839362092
      ],
      [
        "▁with",
        -10.296626395125754
      ],
      [
        "▁filmer",
        -10.296652774854177
      ],
      [
        "▁Red",
        -10.296667449193633
      ],
      [
        "▁rapport",
        -10.29670506091193
      ],
      [
        "▁butiker",
        -10.296821242044826
      ],
      [
        "varande",
        -10.297048684485954
      ],
      [
        "öl",
        -10.298053560648434
      ],
      [
        "▁aktivitet",
        -10.298206691462905
      ],
      [
        "sett",
        -10.298732689090734
      ],
      [
        "▁tillåt",
        -10.298764531492962
      ],
      [
        "▁staten",
        -10.298777329476014
      ],
      [
        "▁Umeå",
        -10.299151386173584
      ],
      [
        "▁moderna",
        -10.299338397981566
      ],
      [
        "ökning",
        -10.299438508657056
      ],
      [
        "▁skogs",
        -10.299505146301362
      ],
      [
        "▁utbildnings",
        -10.301251499762587
      ],
      [
        "dla",
        -10.301424006035006
      ],
      [
        "port",
        -10.301563800551406
      ],
      [
        "▁rädda",
        -10.302010255912474
      ],
      [
        "▁hundar",
        -10.302123068814005
      ],
      [
        "tion",
        -10.302356740959862
      ],
      [
        "▁chef",
        -10.302394756183372
      ],
      [
        "index",
        -10.30278489223994
      ],
      [
        "▁SM",
        -10.303098966868497
      ],
      [
        "▁Björn",
        -10.30326938380102
      ],
      [
        "▁botten",
        -10.303296765763017
      ],
      [
        "▁tänk",
        -10.303382373516412
      ],
      [
        "▁sent",
        -10.303531704864549
      ],
      [
        "▁For",
        -10.303600733362543
      ],
      [
        "påverkar",
        -10.303716504341054
      ],
      [
        "färg",
        -10.304403298290126
      ],
      [
        "▁avsnitt",
        -10.30473950696839
      ],
      [
        "▁träd",
        -10.305628202926627
      ],
      [
        "▁fart",
        -10.305890769729515
      ],
      [
        "▁total",
        -10.306188219261113
      ],
      [
        "▁regel",
        -10.30628628022261
      ],
      [
        "▁paket",
        -10.306300833000385
      ],
      [
        "▁Paris",
        -10.3063469428388
      ],
      [
        "Vilket",
        -10.3063561135022
      ],
      [
        "vakt",
        -10.306746071341081
      ],
      [
        "▁sikt",
        -10.306804550479027
      ],
      [
        "visat",
        -10.306914578820848
      ],
      [
        "baserade",
        -10.307068532796555
      ],
      [
        "förmodligen",
        -10.307256202211391
      ],
      [
        "▁grundläggande",
        -10.308193318977429
      ],
      [
        "möjligheten",
        -10.3082649598914
      ],
      [
        "▁hamnar",
        -10.308297796723158
      ],
      [
        "kursen",
        -10.30859312473021
      ],
      [
        "▁Ba",
        -10.310051675102677
      ],
      [
        "▁led",
        -10.31034260044339
      ],
      [
        "▁Ho",
        -10.310850552102263
      ],
      [
        "delar",
        -10.31106986664872
      ],
      [
        "▁ungdoms",
        -10.311070281524442
      ],
      [
        "▁mening",
        -10.31107765567942
      ],
      [
        "▁kött",
        -10.311211571009629
      ],
      [
        "▁driver",
        -10.311393649955727
      ],
      [
        "▁tillgänglig",
        -10.312311755059856
      ],
      [
        "känslan",
        -10.312769610034191
      ],
      [
        "försäkring",
        -10.312921815269759
      ],
      [
        "orter",
        -10.313022952296572
      ],
      [
        "▁webbplatsen",
        -10.313213693520943
      ],
      [
        "▁Sök",
        -10.313719732347757
      ],
      [
        "▁perspektiv",
        -10.313889708351528
      ],
      [
        "▁Super",
        -10.31425934817744
      ],
      [
        "tals",
        -10.314389820120573
      ],
      [
        "Re",
        -10.31487824088456
      ],
      [
        "▁söt",
        -10.315355665012047
      ],
      [
        "Något",
        -10.31556372500513
      ],
      [
        "▁bedömning",
        -10.315857521178657
      ],
      [
        "▁driva",
        -10.31618875706163
      ],
      [
        "lighet",
        -10.316400803751357
      ],
      [
        "▁snygga",
        -10.316453575317608
      ],
      [
        "▁mo",
        -10.316586580823408
      ],
      [
        "problem",
        -10.317553286227058
      ],
      [
        "▁vitt",
        -10.3179421772649
      ],
      [
        "▁analys",
        -10.318479549133531
      ],
      [
        "▁svarar",
        -10.31859271085032
      ],
      [
        "▁privata",
        -10.318999606247912
      ],
      [
        "lev",
        -10.319751290917141
      ],
      [
        "▁Dag",
        -10.320420571233337
      ],
      [
        "▁omedelbart",
        -10.32134307501617
      ],
      [
        "▁ikväll",
        -10.321537979300464
      ],
      [
        "▁Ti",
        -10.321613728654036
      ],
      [
        "▁not",
        -10.321801350889542
      ],
      [
        "ions",
        -10.321855847474978
      ],
      [
        "▁känslor",
        -10.321941416846446
      ],
      [
        "▁besluta",
        -10.32213736437023
      ],
      [
        "▁inre",
        -10.322400297350281
      ],
      [
        "framförallt",
        -10.322751326061551
      ],
      [
        "▁månaden",
        -10.323176775853995
      ],
      [
        "▁trygg",
        -10.32328348451336
      ],
      [
        "loppet",
        -10.323351476769714
      ],
      [
        "▁Innan",
        -10.323369743576068
      ],
      [
        "▁allmän",
        -10.323639636172375
      ],
      [
        "▁stoppa",
        -10.324148132847702
      ],
      [
        "▁håret",
        -10.324357231151343
      ],
      [
        "hy",
        -10.325575007730437
      ],
      [
        "strand",
        -10.326056098653067
      ],
      [
        "▁tycka",
        -10.326208384587023
      ],
      [
        "▁torr",
        -10.326510044711327
      ],
      [
        "träning",
        -10.32668824862452
      ],
      [
        "miljö",
        -10.327149710874831
      ],
      [
        "▁kritik",
        -10.32771659978767
      ],
      [
        "▁erfarenheter",
        -10.328077226456985
      ],
      [
        "öppnar",
        -10.328381807172914
      ],
      [
        "sal",
        -10.329916929460772
      ],
      [
        "▁långsiktig",
        -10.329958257502307
      ],
      [
        "▁politik",
        -10.330175036194493
      ],
      [
        "ätt",
        -10.33021455070806
      ],
      [
        "▁David",
        -10.330691772252822
      ],
      [
        "ham",
        -10.331396935192119
      ],
      [
        "drag",
        -10.332012684395739
      ],
      [
        "möter",
        -10.332072235337561
      ],
      [
        "▁rese",
        -10.332226991465944
      ],
      [
        "▁punkt",
        -10.33267239793501
      ],
      [
        "▁klubb",
        -10.333205196133303
      ],
      [
        "▁Helsingborg",
        -10.333308671757493
      ],
      [
        "lim",
        -10.333592255879013
      ],
      [
        "off",
        -10.334000962565735
      ],
      [
        "▁bilderna",
        -10.33409417419128
      ],
      [
        "▁blommor",
        -10.334624512498538
      ],
      [
        "jobb",
        -10.335565774005604
      ],
      [
        "▁rädd",
        -10.33570709139046
      ],
      [
        "▁toppen",
        -10.335734338908443
      ],
      [
        "▁dubbel",
        -10.335943057058547
      ],
      [
        "varken",
        -10.336211635022483
      ],
      [
        "▁underbara",
        -10.336551440976228
      ],
      [
        "▁fotboll",
        -10.336868813829325
      ],
      [
        "▁dokument",
        -10.337077533975847
      ],
      [
        "zi",
        -10.337173860771374
      ],
      [
        "▁betyd",
        -10.33743845299338
      ],
      [
        "▁fakta",
        -10.338089641967015
      ],
      [
        "▁startar",
        -10.33816558036454
      ],
      [
        "▁svarta",
        -10.338174783412581
      ],
      [
        "▁tillämpa",
        -10.338449923711142
      ],
      [
        "▁Ne",
        -10.338461498197344
      ],
      [
        "▁Får",
        -10.338529426594738
      ],
      [
        "▁band",
        -10.338683387907892
      ],
      [
        "▁säng",
        -10.339023282446929
      ],
      [
        "jer",
        -10.339454620847617
      ],
      [
        "▁resan",
        -10.339645050445613
      ],
      [
        "hög",
        -10.339669726880233
      ],
      [
        "bolaget",
        -10.339705068972199
      ],
      [
        "▁Br",
        -10.34060259270688
      ],
      [
        "▁van",
        -10.340808924509268
      ],
      [
        "orsaka",
        -10.341057308910125
      ],
      [
        "bag",
        -10.341239463493816
      ],
      [
        "sport",
        -10.341357179834933
      ],
      [
        "bjöd",
        -10.341497078983771
      ],
      [
        "▁nätverk",
        -10.341673507846476
      ],
      [
        "▁Hall",
        -10.342034992681269
      ],
      [
        "projekt",
        -10.34203908546836
      ],
      [
        "▁Arbets",
        -10.342366219485385
      ],
      [
        "▁Jonas",
        -10.34286935877044
      ],
      [
        "ox",
        -10.343817734843801
      ],
      [
        "bruk",
        -10.343869247580486
      ],
      [
        "▁skydd",
        -10.344211609402192
      ],
      [
        "▁löne",
        -10.344329535883478
      ],
      [
        "▁Ryssland",
        -10.34474436553535
      ],
      [
        "▁drift",
        -10.347301594155178
      ],
      [
        "▁förlora",
        -10.34788015429502
      ],
      [
        "und",
        -10.347880993586362
      ],
      [
        "positivt",
        -10.347987450370745
      ],
      [
        "▁nationella",
        -10.34827331528913
      ],
      [
        "ish",
        -10.348285285509926
      ],
      [
        "▁karta",
        -10.348576931668719
      ],
      [
        "▁hård",
        -10.348606412391359
      ],
      [
        "▁billig",
        -10.348694444380532
      ],
      [
        "▁ledare",
        -10.34874701168129
      ],
      [
        "slut",
        -10.348747828924989
      ],
      [
        "for",
        -10.348985647779761
      ],
      [
        "far",
        -10.349808314595524
      ],
      [
        "▁Svart",
        -10.35069543531459
      ],
      [
        "ställ",
        -10.350796143440666
      ],
      [
        "▁Ac",
        -10.351410244144883
      ],
      [
        "▁knä",
        -10.35162585487455
      ],
      [
        "▁undantag",
        -10.351773666865048
      ],
      [
        "närvarande",
        -10.351802965920294
      ],
      [
        "▁kunskaper",
        -10.353037982573655
      ],
      [
        "▁döda",
        -10.35359153699212
      ],
      [
        "▁euro",
        -10.35388406759515
      ],
      [
        "▁underlätta",
        -10.354017613263615
      ],
      [
        "▁överens",
        -10.355545015836132
      ],
      [
        "▁verksamheter",
        -10.35564758710052
      ],
      [
        "https",
        -10.355678856677981
      ],
      [
        "▁maten",
        -10.356045974822845
      ],
      [
        "▁Mina",
        -10.356053021215207
      ],
      [
        "▁Dagens",
        -10.35644734849754
      ],
      [
        "▁nyheter",
        -10.357450834207045
      ],
      [
        "▁skuld",
        -10.357643654615465
      ],
      [
        "ägare",
        -10.35791570034178
      ],
      [
        "▁växa",
        -10.359064804546582
      ],
      [
        "frågor",
        -10.35947073263006
      ],
      [
        "con",
        -10.359698848094109
      ],
      [
        "▁Nyheter",
        -10.359936428235025
      ],
      [
        "▁organisationer",
        -10.360029549757474
      ],
      [
        "way",
        -10.361077660762403
      ],
      [
        "▁tider",
        -10.361871481777083
      ],
      [
        "▁Mi",
        -10.361968129910231
      ],
      [
        "▁underbar",
        -10.36220830179361
      ],
      [
        "delas",
        -10.362594187650249
      ],
      [
        "politiken",
        -10.362664416903593
      ],
      [
        "▁möjlig",
        -10.362689800214387
      ],
      [
        "▁föreningen",
        -10.363691600584191
      ],
      [
        "▁säg",
        -10.363909719971526
      ],
      [
        "▁Ser",
        -10.363915169405068
      ],
      [
        "▁effektivt",
        -10.363937442517123
      ],
      [
        "▁tekniska",
        -10.36427740840494
      ],
      [
        "▁process",
        -10.364289164101143
      ],
      [
        "▁aktivt",
        -10.36437840767936
      ],
      [
        "▁produkten",
        -10.364625498138833
      ],
      [
        "▁vila",
        -10.364705959180789
      ],
      [
        "officiell",
        -10.3653619923639
      ],
      [
        "konto",
        -10.365806275362942
      ],
      [
        "mil",
        -10.365923859491746
      ],
      [
        "torp",
        -10.366011200236807
      ],
      [
        "▁Bro",
        -10.366025340132806
      ],
      [
        "▁tand",
        -10.366094474935053
      ],
      [
        "ble",
        -10.366108382294156
      ],
      [
        "▁co",
        -10.36632151637403
      ],
      [
        "▁Stora",
        -10.36663948450034
      ],
      [
        "faller",
        -10.366777424736455
      ],
      [
        "dörren",
        -10.367077057816974
      ],
      [
        "▁Svar",
        -10.367289443308394
      ],
      [
        "▁Jul",
        -10.368307084242812
      ],
      [
        "▁Fin",
        -10.368976091201793
      ],
      [
        "unika",
        -10.369380662026622
      ],
      [
        "kal",
        -10.369474004431837
      ],
      [
        "▁Fl",
        -10.369679449202312
      ],
      [
        "▁köket",
        -10.369899285628863
      ],
      [
        "stämmer",
        -10.370277330625157
      ],
      [
        "tanken",
        -10.37037452637161
      ],
      [
        "▁mönster",
        -10.370624636911415
      ],
      [
        "▁släpp",
        -10.370806690559103
      ],
      [
        "rummet",
        -10.37100345256119
      ],
      [
        "göra",
        -10.371371773765492
      ],
      [
        "▁tillfällen",
        -10.371766497064167
      ],
      [
        "▁Kram",
        -10.371799982484841
      ],
      [
        "ala",
        -10.371806970360385
      ],
      [
        "▁fru",
        -10.372230550931851
      ],
      [
        "språk",
        -10.372583309730986
      ],
      [
        "uppleva",
        -10.372711521018026
      ],
      [
        "▁industri",
        -10.37292274873808
      ],
      [
        "▁Kar",
        -10.373470273243582
      ],
      [
        "kostnader",
        -10.373480328720849
      ],
      [
        "grupper",
        -10.37349811348939
      ],
      [
        "▁gäng",
        -10.373523824101612
      ],
      [
        "taket",
        -10.37367359786215
      ],
      [
        "▁vardag",
        -10.373822258244507
      ],
      [
        "▁Jämför",
        -10.374635381952995
      ],
      [
        "mängder",
        -10.37558326448908
      ],
      [
        "▁kol",
        -10.37565589732539
      ],
      [
        "▁bevis",
        -10.375731361280847
      ],
      [
        "ice",
        -10.376044129012957
      ],
      [
        "sikt",
        -10.37605610462951
      ],
      [
        "▁Windows",
        -10.376467689578357
      ],
      [
        "▁ordet",
        -10.376601712441905
      ],
      [
        "▁Kommun",
        -10.376683439575643
      ],
      [
        "hor",
        -10.37691530304906
      ],
      [
        "▁sängen",
        -10.377496466848465
      ],
      [
        "pröva",
        -10.3775453532585
      ],
      [
        "▁Hela",
        -10.378425796216574
      ],
      [
        "▁jakt",
        -10.379007604062343
      ],
      [
        "förening",
        -10.379110505038742
      ],
      [
        "ledes",
        -10.379575704851204
      ],
      [
        "frågade",
        -10.380102047780712
      ],
      [
        "bjuda",
        -10.380221157700927
      ],
      [
        "kod",
        -10.380244104836171
      ],
      [
        "▁marknads",
        -10.380564781608179
      ],
      [
        "▁serien",
        -10.381398110011373
      ],
      [
        "▁go",
        -10.381430563556432
      ],
      [
        "minskar",
        -10.381433224907838
      ],
      [
        "inge",
        -10.381473788470426
      ],
      [
        "▁upplev",
        -10.381972676393868
      ],
      [
        "▁uppmärksamma",
        -10.382055999727209
      ],
      [
        "▁mar",
        -10.382278784205372
      ],
      [
        "bit",
        -10.382466585022085
      ],
      [
        "▁bekräfta",
        -10.382887738344351
      ],
      [
        "▁fira",
        -10.383040264423999
      ],
      [
        "lor",
        -10.384260914297535
      ],
      [
        "givande",
        -10.384433000590258
      ],
      [
        "enskilda",
        -10.384892584236196
      ],
      [
        "▁betalnings",
        -10.384906289525299
      ],
      [
        "▁anslutning",
        -10.385269333779666
      ],
      [
        "yck",
        -10.385280975884003
      ],
      [
        "▁syns",
        -10.385744293052591
      ],
      [
        "bandet",
        -10.385824046822696
      ],
      [
        "▁Rom",
        -10.38600818085364
      ],
      [
        "ller",
        -10.386080082380731
      ],
      [
        "▁nio",
        -10.386438264436482
      ],
      [
        "▁sjö",
        -10.38710883451258
      ],
      [
        "männen",
        -10.387616724184339
      ],
      [
        "▁Storbritannien",
        -10.387923265975239
      ],
      [
        "kontroll",
        -10.38869332815106
      ],
      [
        "▁vintern",
        -10.388832120012825
      ],
      [
        "granskar",
        -10.38892030564515
      ],
      [
        "▁undersökning",
        -10.389222978017056
      ],
      [
        "▁Bank",
        -10.389888556016382
      ],
      [
        "▁Bal",
        -10.390983337129507
      ],
      [
        "▁utom",
        -10.391726602894034
      ],
      [
        "▁myndigheter",
        -10.39217245171038
      ],
      [
        "The",
        -10.39239255174991
      ],
      [
        "kast",
        -10.392985794104703
      ],
      [
        "qvist",
        -10.393540909764821
      ],
      [
        "orkar",
        -10.393738812974943
      ],
      [
        "▁Kommer",
        -10.393888522878477
      ],
      [
        "politik",
        -10.394600380249498
      ],
      [
        "▁Miljö",
        -10.394801307820535
      ],
      [
        "▁hållbar",
        -10.394848182520136
      ],
      [
        "äkta",
        -10.394864779828891
      ],
      [
        "ino",
        -10.395011216060093
      ],
      [
        "▁dricka",
        -10.395122374806764
      ],
      [
        "▁Ri",
        -10.395625978785835
      ],
      [
        "▁Göteborgs",
        -10.396468162102062
      ],
      [
        "▁extremt",
        -10.396749405676276
      ],
      [
        "▁sur",
        -10.39719468392284
      ],
      [
        "▁insatser",
        -10.398332218119315
      ],
      [
        "▁rimlig",
        -10.399704433142043
      ],
      [
        "▁po",
        -10.399781505960012
      ],
      [
        "▁Mark",
        -10.400294977790166
      ],
      [
        "▁Eva",
        -10.400882758211829
      ],
      [
        "▁definitiv",
        -10.401014989230104
      ],
      [
        "priset",
        -10.401487752903243
      ],
      [
        "▁skull",
        -10.401604267481598
      ],
      [
        "hallen",
        -10.402493370097607
      ],
      [
        "livet",
        -10.402623719059028
      ],
      [
        "▁Tro",
        -10.403100308075297
      ],
      [
        "glas",
        -10.403250210236816
      ],
      [
        "▁Va",
        -10.403397410197364
      ],
      [
        "bel",
        -10.403829547194402
      ],
      [
        "▁Kultur",
        -10.403929946065995
      ],
      [
        "ighet",
        -10.404377136514993
      ],
      [
        "▁hjärtat",
        -10.404431259450051
      ],
      [
        "tävlingen",
        -10.404611436940254
      ],
      [
        "▁kompis",
        -10.404719605037837
      ],
      [
        "stat",
        -10.404873942282215
      ],
      [
        "stått",
        -10.405242202517108
      ],
      [
        "▁metod",
        -10.405458118190364
      ],
      [
        "▁hål",
        -10.405883016310614
      ],
      [
        "▁version",
        -10.405884111833773
      ],
      [
        "▁våga",
        -10.406571301858087
      ],
      [
        "▁klubben",
        -10.406652272706582
      ],
      [
        "▁FÖR",
        -10.407492914960715
      ],
      [
        "klubb",
        -10.407822938319237
      ],
      [
        "▁torsdag",
        -10.40844882623325
      ],
      [
        "▁slutar",
        -10.409220374689339
      ],
      [
        "nsåg",
        -10.409306663830195
      ],
      [
        "▁tidningen",
        -10.40949291785378
      ],
      [
        "▁singlar",
        -10.40956057993412
      ],
      [
        "djur",
        -10.409970368890514
      ],
      [
        "kontoret",
        -10.410072531882104
      ],
      [
        "▁forsknings",
        -10.410340444257486
      ],
      [
        "▁glada",
        -10.410865690209903
      ],
      [
        "risk",
        -10.411026602102467
      ],
      [
        "fil",
        -10.411870131318457
      ],
      [
        "▁underbart",
        -10.411918571156715
      ],
      [
        "▁utrymme",
        -10.412182794719744
      ],
      [
        "▁utredning",
        -10.412789165937534
      ],
      [
        "fria",
        -10.412790090414687
      ],
      [
        "▁motion",
        -10.413046875488876
      ],
      [
        "intresserade",
        -10.41306676491124
      ],
      [
        "▁egenskaper",
        -10.415266043879312
      ],
      [
        "▁enskild",
        -10.415299347027759
      ],
      [
        "årig",
        -10.415542092265637
      ],
      [
        "brett",
        -10.415559950164107
      ],
      [
        "▁Ver",
        -10.415595261427793
      ],
      [
        "▁utvecklings",
        -10.41593149618701
      ],
      [
        "Både",
        -10.416020313440317
      ],
      [
        "härligt",
        -10.416673580890548
      ],
      [
        "vädret",
        -10.417118544052729
      ],
      [
        "▁golv",
        -10.417272176114727
      ],
      [
        "närmast",
        -10.417389544225015
      ],
      [
        "originalet",
        -10.417876088223712
      ],
      [
        "▁ögonen",
        -10.418156888018892
      ],
      [
        "▁erbjudande",
        -10.418727692630936
      ],
      [
        "stånd",
        -10.419026637790118
      ],
      [
        "lägg",
        -10.419094484482452
      ],
      [
        "riktiga",
        -10.419775328508383
      ],
      [
        "stans",
        -10.420187792289113
      ],
      [
        "ledde",
        -10.420635353108747
      ],
      [
        "▁kostnad",
        -10.420680501603783
      ],
      [
        "flyttade",
        -10.420934883107904
      ],
      [
        "▁kris",
        -10.420981526035531
      ],
      [
        "▁moms",
        -10.421284857974968
      ],
      [
        "▁pdf",
        -10.421331022506479
      ],
      [
        "▁bära",
        -10.421422129686379
      ],
      [
        "sund",
        -10.421430100217243
      ],
      [
        "böcker",
        -10.421621478085497
      ],
      [
        "▁tvätt",
        -10.421795687168455
      ],
      [
        "▁resor",
        -10.422256929507517
      ],
      [
        "ON",
        -10.422299992836766
      ],
      [
        "▁dusch",
        -10.422383207674718
      ],
      [
        "▁avgifter",
        -10.422521583267075
      ],
      [
        "work",
        -10.422698932444112
      ],
      [
        "stan",
        -10.42271978822627
      ],
      [
        "▁vuxen",
        -10.422866247121137
      ],
      [
        "märken",
        -10.423255856331332
      ],
      [
        "▁rök",
        -10.423561160783157
      ],
      [
        "▁färdig",
        -10.424164280451123
      ],
      [
        "ost",
        -10.424173883849605
      ],
      [
        "hantering",
        -10.424513279354176
      ],
      [
        "klassen",
        -10.425085724301011
      ],
      [
        "▁Folk",
        -10.425178690206945
      ],
      [
        "sånt",
        -10.425283068120716
      ],
      [
        "▁trygghet",
        -10.426221765493985
      ],
      [
        "▁grön",
        -10.426298852124056
      ],
      [
        "avtalet",
        -10.426410862281205
      ],
      [
        "▁Gu",
        -10.426668467325133
      ],
      [
        "▁fordon",
        -10.426836840916117
      ],
      [
        "▁presentera",
        -10.426989191456226
      ],
      [
        "▁metoder",
        -10.427222425570596
      ],
      [
        "▁lågt",
        -10.427704008357408
      ],
      [
        "▁framgång",
        -10.428001409738666
      ],
      [
        "pga",
        -10.428010036202913
      ],
      [
        "ID",
        -10.4281080041134
      ],
      [
        "beslutet",
        -10.42819753787264
      ],
      [
        "▁sov",
        -10.428214818201411
      ],
      [
        "iz",
        -10.428282494636692
      ],
      [
        "▁Hus",
        -10.428305705364302
      ],
      [
        "vandring",
        -10.4285088378743
      ],
      [
        "serie",
        -10.42866012741214
      ],
      [
        "▁hälften",
        -10.428860879108484
      ],
      [
        "▁deltagare",
        -10.42913520516123
      ],
      [
        "kl",
        -10.429215718912413
      ],
      [
        "{",
        -10.429431746150145
      ],
      [
        "sök",
        -10.429661099491675
      ],
      [
        "the",
        -10.429764777459297
      ],
      [
        "▁låga",
        -10.429933530738223
      ],
      [
        "▁karaktär",
        -10.430226231988005
      ],
      [
        "vunnit",
        -10.43049875063331
      ],
      [
        "▁Helt",
        -10.430561164595048
      ],
      [
        "▁pl",
        -10.430810753370048
      ],
      [
        "▁Kalmar",
        -10.43115539047597
      ],
      [
        "▁offentliga",
        -10.431346305810333
      ],
      [
        "▁Spanien",
        -10.431617256987185
      ],
      [
        "▁Inom",
        -10.431620188749067
      ],
      [
        "fulla",
        -10.43162268031747
      ],
      [
        "Förbättra",
        -10.431863648219675
      ],
      [
        "▁svåra",
        -10.432370655917595
      ],
      [
        "▁mått",
        -10.43273762673933
      ],
      [
        "▁VM",
        -10.433016950073997
      ],
      [
        "▁Magnus",
        -10.433472965291678
      ],
      [
        "längst",
        -10.43372536745078
      ],
      [
        "faktum",
        -10.433792768287724
      ],
      [
        "▁äventyr",
        -10.434072681941108
      ],
      [
        "modellen",
        -10.435504105123991
      ],
      [
        "▁ekonomisk",
        -10.43566065019678
      ],
      [
        "framtida",
        -10.435665969674417
      ],
      [
        "▁allvar",
        -10.436708238498568
      ],
      [
        "▁växt",
        -10.436936947229295
      ],
      [
        "▁kram",
        -10.437104831115057
      ],
      [
        "▁bostäder",
        -10.43741717297735
      ],
      [
        "▁hjärt",
        -10.437469172700359
      ],
      [
        "▁parkering",
        -10.438016340222322
      ],
      [
        "Utmärkt",
        -10.4382072983774
      ],
      [
        "hörde",
        -10.438375945695473
      ],
      [
        "baserad",
        -10.43845881855401
      ],
      [
        "▁hände",
        -10.438474619276516
      ],
      [
        "▁fiske",
        -10.438496426367344
      ],
      [
        "upplever",
        -10.4386408730073
      ],
      [
        "Årets",
        -10.43899113949892
      ],
      [
        "läste",
        -10.439299511810857
      ],
      [
        "▁psykisk",
        -10.439349674646301
      ],
      [
        "ations",
        -10.439440327537154
      ],
      [
        "▁effektiv",
        -10.439481919953044
      ],
      [
        "▁behandla",
        -10.439781520748634
      ],
      [
        "▁rygg",
        -10.4400134100589
      ],
      [
        "kväll",
        -10.440164624892445
      ],
      [
        "▁Västra",
        -10.440261274096446
      ],
      [
        "▁sömn",
        -10.440349868254737
      ],
      [
        "▁papper",
        -10.440399895061523
      ],
      [
        "▁organ",
        -10.44043173468089
      ],
      [
        "olja",
        -10.44074512027107
      ],
      [
        "▁fjärde",
        -10.440948349214787
      ],
      [
        "▁skriv",
        -10.441019157991025
      ],
      [
        "översättningar",
        -10.441046510962543
      ],
      [
        "▁skatt",
        -10.441639842714903
      ],
      [
        "kry",
        -10.44172321356273
      ],
      [
        "okej",
        -10.441753431748003
      ],
      [
        "▁IP",
        -10.442040177013721
      ],
      [
        "positiva",
        -10.442109098154708
      ],
      [
        "▁lycka",
        -10.442416898786943
      ],
      [
        "▁marknadsföring",
        -10.442428549862816
      ],
      [
        "▁presentation",
        -10.442622432173682
      ],
      [
        "▁cancer",
        -10.443815466440354
      ],
      [
        "RE",
        -10.44407554644395
      ],
      [
        "marknaden",
        -10.444957082338727
      ],
      [
        "▁kunden",
        -10.444966237776317
      ],
      [
        "ez",
        -10.4450116831888
      ],
      [
        "▁debatt",
        -10.445099324954958
      ],
      [
        "Annars",
        -10.445306077272305
      ],
      [
        "stig",
        -10.44533401171555
      ],
      [
        "▁Sm",
        -10.445423385647267
      ],
      [
        "▁Tillväxt",
        -10.44563706364309
      ],
      [
        "baserat",
        -10.4459447090764
      ],
      [
        "▁Aktiebolag",
        -10.446185740828211
      ],
      [
        "nät",
        -10.44622271662806
      ],
      [
        "▁Cor",
        -10.446233705633139
      ],
      [
        "bon",
        -10.446297424861504
      ],
      [
        "▁intressanta",
        -10.447783161740883
      ],
      [
        "get",
        -10.447819495558951
      ],
      [
        "soffan",
        -10.4478852291377
      ],
      [
        "▁stranden",
        -10.448058139298343
      ],
      [
        "jobbigt",
        -10.448157100771029
      ],
      [
        "▁stål",
        -10.448890079147109
      ],
      [
        "▁bröd",
        -10.448915424727904
      ],
      [
        "finansiella",
        -10.449164123088966
      ],
      [
        "hinner",
        -10.449360075111102
      ],
      [
        "eventuella",
        -10.449556472318287
      ],
      [
        "förvaltningen",
        -10.450588800761317
      ],
      [
        "Visa",
        -10.45144248438
      ],
      [
        "▁gemensam",
        -10.45235357352024
      ],
      [
        "▁jämn",
        -10.452798025070896
      ],
      [
        "▁utrustning",
        -10.453027846933566
      ],
      [
        "▁bestämma",
        -10.453637438321966
      ],
      [
        "▁Kl",
        -10.454452642367926
      ],
      [
        "}",
        -10.454943611172563
      ],
      [
        "▁forskare",
        -10.4552947858321
      ],
      [
        "mött",
        -10.455582840407041
      ],
      [
        "Dålig",
        -10.455823596626722
      ],
      [
        "▁tjäna",
        -10.45584868769665
      ],
      [
        "lugnt",
        -10.45585943175834
      ],
      [
        "sidor",
        -10.456091960360759
      ],
      [
        "▁tyst",
        -10.456526997067721
      ],
      [
        "▁sammanhang",
        -10.456593780396796
      ],
      [
        "träd",
        -10.45663029309325
      ],
      [
        "▁Larsson",
        -10.457108764444438
      ],
      [
        "generell",
        -10.457797551150028
      ],
      [
        "ness",
        -10.457853509387741
      ],
      [
        "▁banan",
        -10.458256247632482
      ],
      [
        "▁jämförelse",
        -10.458411289748938
      ],
      [
        "▁sk",
        -10.458482399971414
      ],
      [
        "ytan",
        -10.45854147996345
      ],
      [
        "▁finna",
        -10.45861815932678
      ],
      [
        "▁grå",
        -10.459100306620481
      ],
      [
        "▁naturligt",
        -10.459110705542809
      ],
      [
        "▁vinner",
        -10.459532732166451
      ],
      [
        "▁anpassa",
        -10.459624712520156
      ],
      [
        "unt",
        -10.459688127271257
      ],
      [
        "ljus",
        -10.459700358360859
      ],
      [
        "▁Natur",
        -10.460361539728213
      ],
      [
        "▁iaf",
        -10.460734057069134
      ],
      [
        "mes",
        -10.460777078833527
      ],
      [
        "▁West",
        -10.460933068201628
      ],
      [
        "paket",
        -10.461300478341041
      ],
      [
        "lam",
        -10.461729245891101
      ],
      [
        "▁enhet",
        -10.462718093233322
      ],
      [
        "▁Thomas",
        -10.463592392368408
      ],
      [
        "utöver",
        -10.46369900635063
      ],
      [
        "org",
        -10.46402887339221
      ],
      [
        "▁aktiva",
        -10.464276391821748
      ],
      [
        "Börja",
        -10.464569697216426
      ],
      [
        "▁välkommen",
        -10.464751999677784
      ],
      [
        "▁karriär",
        -10.465023035653056
      ],
      [
        "fy",
        -10.46529818107674
      ],
      [
        "▁team",
        -10.465422216363109
      ],
      [
        "mas",
        -10.46562154845768
      ],
      [
        "▁trans",
        -10.465804536590232
      ],
      [
        "▁artikeln",
        -10.466034922499462
      ],
      [
        "skiljer",
        -10.46632649698167
      ],
      [
        "▁sällskap",
        -10.466549453237233
      ],
      [
        "▁aktier",
        -10.466764083371562
      ],
      [
        "Flera",
        -10.466767926217516
      ],
      [
        "aktörer",
        -10.46689245112275
      ],
      [
        "▁Fler",
        -10.466898488881663
      ],
      [
        "▁komplett",
        -10.466961681141052
      ],
      [
        "▁rabatt",
        -10.467239910180558
      ],
      [
        "▁Sjö",
        -10.467318544766066
      ],
      [
        "▁öl",
        -10.467713511748848
      ],
      [
        "▁fastighets",
        -10.467738253955277
      ],
      [
        "▁avse",
        -10.467745353758355
      ],
      [
        "kurs",
        -10.467869273038046
      ],
      [
        "que",
        -10.469147473957202
      ],
      [
        "ges",
        -10.469313955043129
      ],
      [
        "Bolaget",
        -10.469397258966914
      ],
      [
        "▁By",
        -10.469418395326269
      ],
      [
        "▁sms",
        -10.469427953928903
      ],
      [
        "▁Plan",
        -10.469869914412556
      ],
      [
        "AB",
        -10.470472367739298
      ],
      [
        "▁Vårt",
        -10.470843476209597
      ],
      [
        "▁medför",
        -10.471236904583973
      ],
      [
        "▁levande",
        -10.471473321581279
      ],
      [
        "åriga",
        -10.472457324123075
      ],
      [
        "desto",
        -10.472615420449676
      ],
      [
        "▁kallad",
        -10.472922739854068
      ],
      [
        "pel",
        -10.47301225652782
      ],
      [
        "▁bord",
        -10.473267760498752
      ],
      [
        "▁hjärta",
        -10.47360524005041
      ],
      [
        "IT",
        -10.47362863954956
      ],
      [
        "byn",
        -10.473807813810126
      ],
      [
        "pågår",
        -10.473887683335203
      ],
      [
        "her",
        -10.474200781901823
      ],
      [
        "▁onsdag",
        -10.474419764612438
      ],
      [
        "▁modeller",
        -10.474435752888391
      ],
      [
        "▁möten",
        -10.47447329225024
      ],
      [
        "▁korta",
        -10.474518182634785
      ],
      [
        "områden",
        -10.474964636451404
      ],
      [
        "texten",
        -10.474968399834996
      ],
      [
        "OR",
        -10.475058356372266
      ],
      [
        "▁Lång",
        -10.475247899247986
      ],
      [
        "▁styrelsen",
        -10.475525094362137
      ],
      [
        "kra",
        -10.475534417801818
      ],
      [
        "▁nere",
        -10.475580856261104
      ],
      [
        "▁Väl",
        -10.47561617158599
      ],
      [
        "▁gröna",
        -10.475805965260394
      ],
      [
        "uppgifter",
        -10.476164464963647
      ],
      [
        "▁skador",
        -10.476549423444862
      ],
      [
        "▁uppfyll",
        -10.476775486917296
      ],
      [
        "▁former",
        -10.47686911681309
      ],
      [
        "▁städer",
        -10.477523210533095
      ],
      [
        "▁tyska",
        -10.477533049150043
      ],
      [
        "Därefter",
        -10.477704441264224
      ],
      [
        "▁mag",
        -10.478596948891756
      ],
      [
        "▁gräns",
        -10.478702393328776
      ],
      [
        "SK",
        -10.478841175485023
      ],
      [
        "▁bus",
        -10.478983613281134
      ],
      [
        "nivåer",
        -10.479000550666635
      ],
      [
        "vänder",
        -10.479094293484
      ],
      [
        "gjorda",
        -10.479174683076476
      ],
      [
        "▁dollar",
        -10.47935750196883
      ],
      [
        "▁aktie",
        -10.479614592726824
      ],
      [
        "▁kall",
        -10.479836803899662
      ],
      [
        "kus",
        -10.479873900184954
      ],
      [
        "▁aning",
        -10.480289939191314
      ],
      [
        "golvet",
        -10.480650506160622
      ],
      [
        "▁bostad",
        -10.480849975698954
      ],
      [
        "hotell",
        -10.4809894360006
      ],
      [
        "enhet",
        -10.481000898957875
      ],
      [
        "▁Gran",
        -10.48143627265601
      ],
      [
        "▁syster",
        -10.481623908364421
      ],
      [
        "▁silver",
        -10.481734772353859
      ],
      [
        "TT",
        -10.481782200664947
      ],
      [
        "▁Mac",
        -10.481804383459526
      ],
      [
        "kvinnan",
        -10.482662772331024
      ],
      [
        "▁saknas",
        -10.48272446592773
      ],
      [
        "linjen",
        -10.483141747669835
      ],
      [
        "klassiska",
        -10.483743797798237
      ],
      [
        "intill",
        -10.48421387512309
      ],
      [
        "▁förändra",
        -10.484748332015558
      ],
      [
        "▁Tri",
        -10.484984530501373
      ],
      [
[...]
