{
  "version": "1.0",
  "truncation": null,
  "padding": null,
  "added_tokens": [
    {
      "id": 0,
      "special": true,
      "content": "[PAD]",
      "single_word": false,
      "lstrip": false,
      "rstrip": false,
      "normalized": false
    },
    {
      "id": 1,
      "special": true,
      "content": "[UNK]",
      "single_word": false,
      "lstrip": false,
      "rstrip": false,
      "normalized": false
    },
    {
      "id": 2,
      "special": true,
      "content": "[MASK]",
      "single_word": false,
      "lstrip": false,
      "rstrip": false,
      "normalized": false
    },
    {
      "id": 3,
      "special": true,
      "content": "[CLS]",
      "single_word": false,
      "lstrip": false,
      "rstrip": false,
      "normalized": false
    },
    {
      "id": 4,
      "special": true,
      "content": "[SEP]",
      "single_word": false,
      "lstrip": false,
      "rstrip": false,
      "normalized": false
    }
  ],
  "normalizer": {
    "type": "Sequence",
    "normalizers": [
      {
        "type": "Nmt"
      },
      {
        "type": "NFKC"
      },
      {
        "type": "Replace",
        "pattern": {
          "Regex": " {2,}"
        },
        "content": " "
      }
    ]
  },
  "pre_tokenizer": {
    "type": "Sequence",
    "pretokenizers": [
      {
        "type": "Metaspace",
        "replacement": "▁",
        "add_prefix_space": true
      },
      {
        "type": "Split",
        "pattern": {
          "Regex": "\\d"
        },
        "behavior": "MergedWithPrevious",
        "invert": false
      },
      {
        "type": "Punctuation",
        "behavior": "Isolated"
      }
    ]
  },
  "post_processor": {
    "type": "TemplateProcessing",
    "single": [
      {
        "SpecialToken": {
          "id": "[CLS]",
          "type_id": 0
        }
      },
      {
        "Sequence": {
          "id": "A",
          "type_id": 0
        }
      },
      {
        "SpecialToken": {
          "id": "[SEP]",
          "type_id": 0
        }
      }
    ],
    "pair": [
      {
        "SpecialToken": {
          "id": "[CLS]",
          "type_id": 0
        }
      },
      {
        "Sequence": {
          "id": "A",
          "type_id": 0
        }
      },
      {
        "SpecialToken": {
          "id": "[SEP]",
          "type_id": 0
        }
      },
      {
        "Sequence": {
          "id": "B",
          "type_id": 1
        }
      },
      {
        "SpecialToken": {
          "id": "[SEP]",
          "type_id": 1
        }
      }
    ],
    "special_tokens": {
      "[CLS]": {
        "id": "[CLS]",
        "ids": [
          3
        ],
        "tokens": [
          "[CLS]"
        ]
      },
      "[SEP]": {
        "id": "[SEP]",
        "ids": [
          4
        ],
        "tokens": [
          "[SEP]"
        ]
      }
    }
  },
  "decoder": {
    "type": "Metaspace",
    "replacement": "▁",
    "add_prefix_space": true
  },
  "model": {
    "type": "Unigram",
    "unk_id": 1,
    "vocab": [
      [
        "[PAD]",
        0.0
      ],
      [
        "[UNK]",
        0.0
      ],
      [
        "[MASK]",
        0.0
      ],
      [
        "[CLS]",
        0.0
      ],
      [
        "[SEP]",
        0.0
      ],
      [
        "▁",
        -2.153279011310115
      ],
      [
        ".",
        -3.1747452363206534
      ],
      [
        ",",
        -3.831375791611272
      ],
      [
        "▁och",
        -3.9345013786475764
      ],
      [
        "i",
        -4.114253117601418
      ],
      [
        "▁att",
        -4.186334811225917
      ],
      [
        "s",
        -4.3675042755979625
      ],
      [
        "▁är",
        -4.551064280268262
      ],
      [
        "▁på",
        -4.575535048337192
      ],
      [
        "▁som",
        -4.582193844750275
      ],
      [
        "▁för",
        -4.659535337406162
      ],
      [
        "▁en",
        -4.678927747050208
      ],
      [
        "0",
        -4.686513175254927
      ],
      [
        "▁det",
        -4.713707229474462
      ],
      [
        "1",
        -4.779394794890891
      ],
      [
        "▁med",
        -4.849131220311817
      ],
      [
        "▁av",
        -4.8690415139945955
      ],
      [
        "-",
        -4.935572558275224
      ],
      [
        "t",
        -4.937299478193129
      ],
      [
        "▁till",
        -5.013870843139358
      ],
      [
        "2",
        -5.056538283387567
      ],
      [
        "a",
        -5.059747628983434
      ],
      [
        "en",
        -5.143139156062265
      ],
      [
        "▁har",
        -5.143701872462971
      ],
      [
        "▁jag",
        -5.290700581542573
      ],
      [
        "▁inte",
        -5.358790187735403
      ],
      [
        "▁om",
        -5.387223906208684
      ],
      [
        "▁den",
        -5.457826940642921
      ],
      [
        "▁ett",
        -5.508093003327847
      ],
      [
        "▁så",
        -5.553966898674156
      ],
      [
        ":",
        -5.5619517103873015
      ],
      [
        "▁du",
        -5.646824206066723
      ],
      [
        "▁kan",
        -5.667805522420117
      ],
      [
        "▁de",
        -5.692311211170516
      ],
      [
        "5",
        -5.732312407033504
      ],
      [
        "r",
        -5.736586765488013
      ],
      [
        "3",
        -5.755800841363019
      ],
      [
        ")",
        -5.765998940281067
      ],
      [
        "er",
        -5.768954104082118
      ],
      [
        "▁vi",
        -5.829138187245627
      ],
      [
        "e",
        -5.862726245797118
      ],
      [
        "▁var",
        -5.865330766206489
      ],
      [
        "!",
        -5.868584140105844
      ],
      [
        "(",
        -5.886515309280524
      ],
      [
        "4",
        -5.923512972032993
      ],
      [
        "▁Det",
        -5.930246861704491
      ],
      [
        "9",
        -5.971363760053464
      ],
      [
        "▁från",
        -5.971858737639764
      ],
      [
        "▁man",
        -5.991704043260457
      ],
      [
        "\"",
        -5.996808410995868
      ],
      [
        "n",
        -6.005836638439412
      ],
      [
        "▁eller",
        -6.104933786386205
      ],
      [
        "6",
        -6.106677882398028
      ],
      [
        "▁men",
        -6.14494804980748
      ],
      [
        "8",
        -6.157959680878536
      ],
      [
        "7",
        -6.161837902465253
      ],
      [
        "?",
        -6.1796256438507235
      ],
      [
        "/",
        -6.251170540718482
      ],
      [
        "▁ska",
        -6.3005587302782775
      ],
      [
        "▁sig",
        -6.336868085180242
      ],
      [
        "▁ut",
        -6.42692605435473
      ],
      [
        "▁när",
        -6.442602802883936
      ],
      [
        "▁in",
        -6.4443389577887356
      ],
      [
        "▁Jag",
        -6.449500149888326
      ],
      [
        "de",
        -6.450329697911966
      ],
      [
        "▁här",
        -6.466865656718744
      ],
      [
        "–",
        -6.487573138190653
      ],
      [
        "▁upp",
        -6.497173147653291
      ],
      [
        "▁där",
        -6.514315646521508
      ],
      [
        "▁kommer",
        -6.5230485984897975
      ],
      [
        "d",
        -6.546416243802202
      ],
      [
        "▁I",
        -6.581376652247201
      ],
      [
        "▁vara",
        -6.5881732534894955
      ],
      [
        "ar",
        -6.594368627647757
      ],
      [
        "o",
        -6.606370655696244
      ],
      [
        "▁finns",
        -6.624603633865586
      ],
      [
        "▁Vi",
        -6.6426704021393075
      ],
      [
        "▁mer",
        -6.655747023249445
      ],
      [
        "▁alla",
        -6.667226985967316
      ],
      [
        "▁han",
        -6.684078906419087
      ],
      [
        "▁nu",
        -6.723921667514492
      ],
      [
        "▁under",
        -6.7527386816917865
      ],
      [
        "▁också",
        -6.783599495866012
      ],
      [
        "▁får",
        -6.790902311876577
      ],
      [
        "▁mycket",
        -6.799311169558406
      ],
      [
        "▁mig",
        -6.808879916611158
      ],
      [
        "▁år",
        -6.810299335471315
      ],
      [
        "et",
        -6.815185635239532
      ],
      [
        "▁bra",
        -6.8156480569175635
      ],
      [
        "”",
        -6.834476917460616
      ],
      [
        "▁efter",
        -6.839705596502988
      ],
      [
        "▁över",
        -6.845424749891876
      ],
      [
        "▁lite",
        -6.8539899384515675
      ],
      [
        "▁vill",
        -6.8716475653812115
      ],
      [
        "▁ha",
        -6.8730354214296945
      ],
      [
        "▁andra",
        -6.899409135089256
      ],
      [
        "▁då",
        -6.901101579878157
      ],
      [
        "▁få",
        -6.9044851872794
      ],
      [
        "▁även",
        -6.913152404364844
      ],
      [
        "▁bara",
        -6.915251279718927
      ],
      [
        "▁hur",
        -6.922159323268588
      ],
      [
        "▁vid",
        -6.950889713299205
      ],
      [
        "m",
        -6.965196697058797
      ],
      [
        "▁dig",
        -6.967795559554306
      ],
      [
        "▁Men",
        -7.000186572641114
      ],
      [
        "▁vad",
        -7.025826739453787
      ],
      [
        "▁hade",
        -7.028466701433187
      ],
      [
        "▁skulle",
        -7.058428787734323
      ],
      [
        "▁än",
        -7.072686120647923
      ],
      [
        "▁blir",
        -7.076700360781455
      ],
      [
        "▁En",
        -7.096676271868024
      ],
      [
        "▁sin",
        -7.136322918758401
      ],
      [
        "▁mot",
        -7.13940364506824
      ],
      [
        "▁göra",
        -7.172044446181243
      ],
      [
        "▁många",
        -7.172144520528489
      ],
      [
        "▁min",
        -7.194108512791214
      ],
      [
        "▁ju",
        -7.20664186402087
      ],
      [
        "▁din",
        -7.210919801327929
      ],
      [
        "▁Den",
        -7.22245685380784
      ],
      [
        "▁ta",
        -7.227740044459642
      ],
      [
        "▁gör",
        -7.2315975017051635
      ],
      [
        "▁detta",
        -7.233101084605973
      ],
      [
        "▁hon",
        -7.24021386012841
      ],
      [
        "▁oss",
        -7.249213221237431
      ],
      [
        "▁utan",
        -7.259105329330323
      ],
      [
        "▁För",
        -7.261546372545128
      ],
      [
        "▁något",
        -7.265626950108034
      ],
      [
        "▁sedan",
        -7.265689459818191
      ],
      [
        "▁olika",
        -7.32054707338002
      ],
      [
        "▁De",
        -7.322279411110539
      ],
      [
        "▁allt",
        -7.33649820555579
      ],
      [
        "▁del",
        -7.337564482756639
      ],
      [
        "▁två",
        -7.341348067170168
      ],
      [
        "▁bli",
        -7.372656918586303
      ],
      [
        "▁någon",
        -7.387865967341455
      ],
      [
        "▁säger",
        -7.388860329489447
      ],
      [
        "▁genom",
        -7.393739709932904
      ],
      [
        "▁se",
        -7.404948746608897
      ],
      [
        "▁går",
        -7.425180807116073
      ],
      [
        "▁helt",
        -7.426032559884989
      ],
      [
        "▁fram",
        -7.448262376684422
      ],
      [
        "▁nya",
        -7.451134721291915
      ],
      [
        "▁fick",
        -7.4514035504849065
      ],
      [
        "are",
        -7.453434060474228
      ],
      [
        "erna",
        -7.4711698366849575
      ],
      [
        "an",
        -7.471992443152798
      ],
      [
        "▁hela",
        -7.480506328118167
      ],
      [
        "▁Om",
        -7.489360071011017
      ],
      [
        "▁inom",
        -7.491305459828247
      ],
      [
        "▁varit",
        -7.510124912259165
      ],
      [
        "▁måste",
        -7.512540787448865
      ],
      [
        "▁blev",
        -7.5163771253969145
      ],
      [
        "▁första",
        -7.5175947520958175
      ],
      [
        "p",
        -7.518012927542811
      ],
      [
        "▁några",
        -7.5372643746370525
      ],
      [
        "▁dem",
        -7.541285580369182
      ],
      [
        "g",
        -7.5441964873438
      ],
      [
        "▁samt",
        -7.547986463738054
      ],
      [
        "▁denna",
        -7.5621473130794605
      ],
      [
        "v",
        -7.572225153252004
      ],
      [
        "▁mellan",
        -7.574248350011896
      ],
      [
        "k",
        -7.578129038423981
      ],
      [
        "▁Du",
        -7.582845788385082
      ],
      [
        "▁S",
        -7.591791766600933
      ],
      [
        "▁ni",
        -7.61062992401151
      ],
      [
        "h",
        -7.614763952167454
      ],
      [
        "▁När",
        -7.622913185257866
      ],
      [
        "▁Sverige",
        -7.630434953055229
      ],
      [
        "l",
        -7.640189699291483
      ],
      [
        "▁kunna",
        -7.643861799512287
      ],
      [
        "▁Och",
        -7.644493281635281
      ],
      [
        "&",
        -7.652953534448313
      ],
      [
        "▁själv",
        -7.662670451110285
      ],
      [
        "▁vår",
        -7.662821382336256
      ],
      [
        "▁tid",
        -7.669302499331927
      ],
      [
        "▁annat",
        -7.681031669122394
      ],
      [
        "▁ser",
        -7.687718601756391
      ],
      [
        "▁sätt",
        -7.6880329861808825
      ],
      [
        "▁barn",
        -7.688493958794458
      ],
      [
        ";",
        -7.694204105226003
      ],
      [
        "ade",
        -7.702524838135268
      ],
      [
        "▁väl",
        -7.708471846889786
      ],
      [
        "ande",
        -7.712273346305421
      ],
      [
        "▁Så",
        -7.715047968738219
      ],
      [
        "▁sina",
        -7.722978926718156
      ],
      [
        "▁hos",
        -7.723921687315727
      ],
      [
        "▁dag",
        -7.724432438048135
      ],
      [
        "▁vilket",
        -7.7270831643612325
      ],
      [
        "▁både",
        -7.735360321373223
      ],
      [
        "▁rätt",
        -7.736515952978532
      ],
      [
        "▁våra",
        -7.768367841556083
      ],
      [
        "▁Nu",
        -7.778091944042584
      ],
      [
        "▁gå",
        -7.782334352676626
      ],
      [
        "se",
        -7.793003144283604
      ],
      [
        "▁behöver",
        -7.797779357436594
      ],
      [
        "▁stor",
        -7.80441496461437
      ],
      [
        "▁kanske",
        -7.81287739969312
      ],
      [
        "▁dessa",
        -7.8218201866171775
      ],
      [
        "▁ny",
        -7.822708025572098
      ],
      [
        "▁På",
        -7.8258918517065315
      ],
      [
        "▁bästa",
        -7.826966825484616
      ],
      [
        "▁A",
        -7.837279475134313
      ],
      [
        "▁vet",
        -7.848093496115686
      ],
      [
        "▁flera",
        -7.850017349739261
      ],
      [
        "ens",
        -7.852144256626511
      ],
      [
        "▁innan",
        -7.864178110173391
      ],
      [
        "▁idag",
        -7.864241924848612
      ],
      [
        "y",
        -7.8794520241419335
      ],
      [
        "re",
        -7.889834048059797
      ],
      [
        "▁Han",
        -7.89708669438726
      ],
      [
        "▁ger",
        -7.898758428516961
      ],
      [
        "▁tar",
        -7.898858821466595
      ],
      [
        "%",
        -7.901076609983281
      ],
      [
        "▁ner",
        -7.901830765734358
      ],
      [
        "▁samma",
        -7.9032410445173475
      ],
      [
        "▁kom",
        -7.9140580422734175
      ],
      [
        "▁hem",
        -7.915865694606319
      ],
      [
        "▁alltid",
        -7.919125109714079
      ],
      [
        "▁sitt",
        -7.920384664771277
      ],
      [
        "▁ditt",
        -7.929677058553377
      ],
      [
        "▁tre",
        -7.9449392905415
      ],
      [
        "▁Läs",
        -7.946805642280069
      ],
      [
        "▁stora",
        -7.947018158736482
      ],
      [
        "▁Här",
        -7.947150939464146
      ],
      [
        "▁bort",
        -7.955379665582322
      ],
      [
        "arna",
        -7.95881531763531
      ],
      [
        "▁varje",
        -7.958935836156353
      ],
      [
        "▁bland",
        -7.969849349277736
      ],
      [
        "gick",
        -7.97013789235424
      ],
      [
        "▁Att",
        -7.971872864842496
      ],
      [
        "▁väldigt",
        -7.982090648076211
      ],
      [
        "▁bättre",
        -7.989083345049741
      ],
      [
        "å",
        -7.994641978638159
      ],
      [
        "▁igen",
        -8.000432134580874
      ],
      [
        "▁tycker",
        -8.00126587026327
      ],
      [
        "▁Detta",
        -8.00389748836945
      ],
      [
        "▁ligger",
        -8.02006752090146
      ],
      [
        "▁hitta",
        -8.028874799986706
      ],
      [
        "▁gäller",
        -8.031780184453108
      ],
      [
        "▁B",
        -8.037863009214314
      ],
      [
        "des",
        -8.040043770394995
      ],
      [
        "▁nog",
        -8.048355214952746
      ],
      [
        "▁just",
        -8.051875461080101
      ],
      [
        "▁tidigare",
        -8.05647661295302
      ],
      [
        "f",
        -8.058604115617364
      ],
      [
        "▁fått",
        -8.064011640907534
      ],
      [
        "▁mitt",
        -8.06564677890087
      ],
      [
        "▁hotell",
        -8.070521309697959
      ],
      [
        "▁gång",
        -8.081846347504158
      ],
      [
        "▁komma",
        -8.089405073641023
      ],
      [
        "S",
        -8.092117684905881
      ],
      [
        "▁ingen",
        -8.09436386931297
      ],
      [
        "▁be",
        -8.101143625931217
      ],
      [
        "▁T",
        -8.105567904409542
      ],
      [
        "|",
        -8.107287608146013
      ],
      [
        "▁fall",
        -8.109750948978622
      ],
      [
        "▁Har",
        -8.10998292907794
      ],
      [
        "▁tror",
        -8.11622933619896
      ],
      [
        "▁riktigt",
        -8.117325769865944
      ],
      [
        "▁svenska",
        -8.120557068916526
      ],
      [
        "▁åt",
        -8.12253162237955
      ],
      [
        "▁mest",
        -8.125615153262887
      ],
      [
        "c",
        -8.128791369806201
      ],
      [
        "▁Vad",
        -8.129795178776531
      ],
      [
        "▁ge",
        -8.130296760490737
      ],
      [
        "▁Med",
        -8.132210290875781
      ],
      [
        "▁skall",
        -8.137104496666907
      ],
      [
        "▁dock",
        -8.138023378899396
      ],
      [
        "▁annan",
        -8.140490903560176
      ],
      [
        "ing",
        -8.142275484641711
      ],
      [
        "▁enligt",
        -8.148646973311209
      ],
      [
        "▁eftersom",
        -8.148861956159253
      ],
      [
        "▁C",
        -8.150018583517925
      ],
      [
        "'",
        -8.153850268346877
      ],
      [
        "▁redan",
        -8.158372063162952
      ],
      [
        "▁Ett",
        -8.170057502083418
      ],
      [
        "▁fler",
        -8.171197881420452
      ],
      [
        "▁plats",
        -8.173219234154494
      ],
      [
        "▁Hur",
        -8.178772617819357
      ],
      [
        "▁runt",
        -8.179571436345592
      ],
      [
        "▁M",
        -8.182586920502455
      ],
      [
        "▁gratis",
        -8.182691504350965
      ],
      [
        "▁dina",
        -8.183306567168106
      ],
      [
        "▁personer",
        -8.184425971593907
      ],
      [
        "▁människor",
        -8.189980357932164
      ],
      [
        "▁f",
        -8.191153356137365
      ],
      [
        "▁F",
        -8.1946398128241
      ],
      [
        "▁kunde",
        -8.199016882761851
      ],
      [
        "at",
        -8.19907702395655
      ],
      [
        "▁information",
        -8.21451989141975
      ],
      [
        "▁deras",
        -8.226785484046971
      ],
      [
        "▁företag",
        -8.232737572816296
      ],
      [
        "▁dom",
        -8.236496213681635
      ],
      [
        "▁gjort",
        -8.236970037483559
      ],
      [
        "▁kr",
        -8.23940349778697
      ],
      [
        "▁hjälp",
        -8.239624923972814
      ],
      [
        "in",
        -8.248098786235445
      ],
      [
        "▁aldrig",
        -8.249104550401919
      ],
      [
        "·",
        -8.255395917086801
      ],
      [
        "▁tillsammans",
        -8.25562668021311
      ],
      [
        "▁tillbaka",
        -8.257459785281421
      ],
      [
        "▁senaste",
        -8.258019829351761
      ],
      [
        "▁verkligen",
        -8.266183210281834
      ],
      [
        "*",
        -8.268798680124798
      ],
      [
        "x",
        -8.269479356408208
      ],
      [
        "u",
        -8.269531268453564
      ],
      [
        "▁ofta",
        -8.27717970836426
      ],
      [
        "▁gjorde",
        -8.286504528323754
      ],
      [
        "▁tiden",
        -8.29769230356625
      ],
      [
        "▁Man",
        -8.303500118167138
      ],
      [
        "▁mina",
        -8.303806000849182
      ],
      [
        "or",
        -8.305499758876651
      ],
      [
        "▁P",
        -8.309068262904363
      ],
      [
        "▁lika",
        -8.317813033796766
      ],
      [
        "▁mindre",
        -8.329343475333216
      ],
      [
        "▁tog",
        -8.332345792371244
      ],
      [
        "com",
        -8.333127063192924
      ],
      [
        "▁sen",
        -8.334164690926753
      ],
      [
        "▁Stockholm",
        -8.34192400213981
      ],
      [
        "▁använda",
        -8.342959350956443
      ],
      [
        "▁honom",
        -8.347599134243389
      ],
      [
        "▁lätt",
        -8.357358115665098
      ],
      [
        "▁E",
        -8.360366808123443
      ],
      [
        "▁läsa",
        -8.367600082025032
      ],
      [
        "▁köpa",
        -8.368479670288412
      ],
      [
        "därför",
        -8.3715069655145
      ],
      [
        "▁R",
        -8.373230047981181
      ],
      [
        "▁direkt",
        -8.378468722869698
      ],
      [
        "▁säga",
        -8.382415744379658
      ],
      [
        "▁enkelt",
        -8.389408174187876
      ],
      [
        "▁hemma",
        -8.390845642417668
      ],
      [
        "▁online",
        -8.394010732562334
      ],
      [
        "▁exempel",
        -8.395754883421398
      ],
      [
        "känner",
        -8.396939438766557
      ],
      [
        "▁ur",
        -8.399343112222432
      ],
      [
        "▁G",
        -8.399396618672341
      ],
      [
        "[",
        -8.399540125672722
      ],
      [
        "]",
        -8.40008230252601
      ],
      [
        "▁Som",
        -8.409207366425871
      ],
      [
        "▁egen",
        -8.409764851155325
      ],
      [
        "man",
        -8.412685285745706
      ],
      [
        "▁bör",
        -8.413202554052152
      ],
      [
        "▁större",
        -8.413224617318441
      ],
      [
        "▁ändå",
        -8.41466631814961
      ],
      [
        "▁hans",
        -8.416437334692729
      ],
      [
        "▁Efter",
        -8.42181231207891
      ],
      [
        "▁små",
        -8.431182954484258
      ],
      [
        "▁står",
        -8.432697007977865
      ],
      [
        "▁dagar",
        -8.434891972859228
      ],
      [
        "▁spel",
        -8.436639284624743
      ],
      [
        "▁mat",
        -8.439250007971161
      ],
      [
        "▁kvar",
        -8.441260273346368
      ],
      [
        "▁slut",
        -8.44214351584367
      ],
      [
        "ning",
        -8.449196479311476
      ],
      [
        "▁mål",
        -8.449548732803507
      ],
      [
        "▁grund",
        -8.45001582139879
      ],
      [
        "▁hög",
        -8.452008396987418
      ],
      [
        "▁liv",
        -8.456535147018476
      ],
      [
        "▁Hon",
        -8.460416943295515
      ],
      [
        "▁procent",
        -8.468762128045732
      ],
      [
        "▁stort",
        -8.471779017140006
      ],
      [
        "on",
        -8.471909455768607
      ],
      [
        "▁via",
        -8.472475973854946
      ],
      [
        "▁vatten",
        -8.473313466248685
      ],
      [
        "▁god",
        -8.473788179365014
      ],
      [
        "▁per",
        -8.47464859785757
      ],
      [
        "▁haft",
        -8.475394867701556
      ],
      [
        "▁saker",
        -8.482384705675267
      ],
      [
        "▁längre",
        -8.483372188887314
      ],
      [
        "▁problem",
        -8.48433617862067
      ],
      [
        "▁H",
        -8.484410508968534
      ],
      [
        "▁Då",
        -8.492369562821622
      ],
      [
        "▁pengar",
        -8.494231121979675
      ],
      [
        "blivit",
        -8.497872481011822
      ],
      [
        "▁K",
        -8.497888352428017
      ],
      [
        "b",
        -8.499546948401225
      ],
      [
        "▁innebär",
        -8.512669586794708
      ],
      [
        "▁par",
        -8.514954473973683
      ],
      [
        "▁Under",
        -8.517449060691218
      ],
      [
        "håller",
        -8.519359629687566
      ],
      [
        "▁länge",
        -8.523409793628312
      ],
      [
        "vis",
        -8.524939454837664
      ],
      [
        "▁kvinnor",
        -8.530290996035781
      ],
      [
        "▁visar",
        -8.53403836543426
      ],
      [
        "el",
        -8.53634319057976
      ],
      [
        "▁faktiskt",
        -8.538121518963596
      ],
      [
        "▁hittar",
        -8.541088456930881
      ],
      [
        "▁hand",
        -8.542524458405612
      ],
      [
        "▁möjligt",
        -8.545078479046532
      ],
      [
        "▁kort",
        -8.54846212671045
      ],
      [
        "▁pris",
        -8.550154122116883
      ],
      [
        "▁inget",
        -8.556193043597405
      ],
      [
        "▁skapa",
        -8.559385432211998
      ],
      [
        "▁liten",
        -8.561528567519316
      ],
      [
        "▁vårt",
        -8.565148023290867
      ],
      [
        "▁henne",
        -8.56714615746833
      ],
      [
        "▁ganska",
        -8.569035978394338
      ],
      [
        "▁of",
        -8.569375758430516
      ],
      [
        "▁kommun",
        -8.569962906616416
      ],
      [
        "▁Är",
        -8.574270019996087
      ],
      [
        "▁ännu",
        -8.574446047369237
      ],
      [
        "▁nytt",
        -8.578406221765318
      ],
      [
        "▁Där",
        -8.578678346675163
      ],
      [
        "▁svårt",
        -8.580075415506645
      ],
      [
        "att",
        -8.581056409300045
      ],
      [
        "▁gärna",
        -8.584559412003419
      ],
      [
        "▁börjar",
        -8.588931578824695
      ],
      [
        "▁nära",
        -8.590093091211992
      ],
      [
        "▁känns",
        -8.590224017536375
      ],
      [
        "▁bilder",
        -8.590302335598297
      ],
      [
        "▁sex",
        -8.593064270887835
      ],
      [
        "▁frågor",
        -8.59528484625024
      ],
      [
        "▁omdömen",
        -8.598495278817222
      ],
      [
        "▁ca",
        -8.601811182521088
      ],
      [
        "▁året",
        -8.602692996633504
      ],
      [
        "▁hålla",
        -8.60320786389473
      ],
      [
        "▁L",
        -8.603496056962182
      ],
      [
        "som",
        -8.60530555110811
      ],
      [
        "A",
        -8.605924040509288
      ],
      [
        "▁O",
        -8.61107570730253
      ],
      [
        "Hotell",
        -8.613928717069188
      ],
      [
        "▁inför",
        -8.61836555182213
      ],
      [
        "▁Ja",
        -8.619976412511248
      ],
      [
        "▁spela",
        -8.620978437783911
      ],
      [
        "▁lång",
        -8.622123463327737
      ],
      [
        "▁Alla",
        -8.62302778218806
      ],
      [
        "▁extra",
        -8.626129059876734
      ],
      [
        "_",
        -8.626592163893902
      ],
      [
        "▁dagen",
        -8.629079722871076
      ],
      [
        "▁nästan",
        -8.62998848920809
      ],
      [
        "▁the",
        -8.63100310880552
      ],
      [
        "▁fortfarande",
        -8.633655663244921
      ],
      [
        "▁bil",
        -8.63460106414068
      ],
      [
        "▁ute",
        -8.638605407318158
      ],
      [
        "▁gånger",
        -8.638617446628501
      ],
      [
        "▁kronor",
        -8.639392810492252
      ],
      [
        "▁folk",
        -8.641152155193423
      ],
      [
        "▁vissa",
        -8.642513061896484
      ],
      [
        "▁vilka",
        -8.642598761802605
      ],
      [
        "▁dess",
        -8.645930746412029
      ],
      [
        "▁sådan",
        -8.646913230299518
      ],
      [
        "▁vilken",
        -8.647093819656616
      ],
      [
        "med",
        -8.647487694315597
      ],
      [
        "▁handlar",
        -8.648218537289354
      ],
      [
        "gått",
        -8.649704190744368
      ],
      [
        "▁samtidigt",
        -8.651076728709242
      ],
      [
        "▁erbjuder",
        -8.651204738049838
      ],
      [
        "D",
        -8.651930312741285
      ],
      [
        "+",
        -8.65196504106519
      ],
      [
        "▁senare",
        -8.652100846663068
      ],
      [
        "verkar",
        -8.652172281329015
      ],
      [
        "▁använder",
        -8.664213767605522
      ],
      [
        "▁precis",
        -8.664968780856283
      ],
      [
        "▁söker",
        -8.665919399601474
      ],
      [
        "alltså",
        -8.667850962709187
      ],
      [
        "▁rum",
        -8.66844208404063
      ],
      [
        "▁D",
        -8.675079664110845
      ],
      [
        "▁vidare",
        -8.676604868666882
      ],
      [
        "▁fast",
        -8.680440849047276
      ],
      [
        "▁fel",
        -8.680849215449976
      ],
      [
        "▁sidan",
        -8.682727947359648
      ],
      [
        "började",
        -8.686573491736734
      ],
      [
        "▁först",
        -8.68761664198068
      ],
      [
        "#",
        -8.687685707632728
      ],
      [
        "▁hoppas",
        -8.688043611900518
      ],
      [
        "▁jobb",
        -8.689054296620704
      ],
      [
        "▁AB",
        -8.693827415641042
      ],
      [
        "största",
        -8.694843450040365
      ],
      [
        "▁gott",
        -8.696040185119458
      ],
      [
        "▁sa",
        -8.70039005578738
      ],
      [
        "▁viktigt",
        -8.7009304000261
      ],
      [
        "flesta",
        -8.701845164956524
      ],
      [
        "▁istället",
        -8.704178001032
      ],
      [
        "▁person",
        -8.705231359838903
      ],
      [
        "▁form",
        -8.706356384348256
      ],
      [
        "▁skriver",
        -8.709687906651212
      ],
      [
        "▁fyra",
        -8.715321798181208
      ],
      [
        "▁endast",
        -8.715567485535308
      ],
      [
        "=",
        -8.715600874805457
      ],
      [
        "▁nästa",
        -8.716043881666877
      ],
      [
        "vägen",
        -8.71686698291471
      ],
      [
        "▁minst",
        -8.718179822302295
      ],
      [
        "j",
        -8.719951224955436
      ],
      [
        "▁arbete",
        -8.721190193687423
      ],
      [
        "▁sista",
        -8.722473723756547
      ],
      [
        "talet",
        -8.724038302924884
      ],
      [
        "son",
        -8.725566293293712
      ],
      [
        "▁väg",
        -8.727245106435149
      ],
      [
        "▁ihop",
        -8.73097544559846
      ],
      [
        "▁km",
        -8.736574025406668
      ],
      [
        "liga",
        -8.74319012573405
      ],
      [
        "▁fråga",
        -8.746526496794036
      ],
      [
        "ligt",
        -8.749142511363134
      ],
      [
        "▁stöd",
        -8.75092916863662
      ],
      [
        "▁dejting",
        -8.752339282448105
      ],
      [
        "▁bild",
        -8.752716768770226
      ],
      [
        ">",
        -8.7537424290358
      ],
      [
        "▁åter",
        -8.753904954437266
      ],
      [
        "▁Till",
        -8.76409012850257
      ],
      [
        "▁snabbt",
        -8.766875982251044
      ],
      [
        "▁själva",
        -8.770645140978157
      ],
      [
        "▁egna",
        -8.773876532349439
      ],
      [
        "▁all",
        -8.774537389199475
      ],
      [
        "B",
        -8.776703661887911
      ],
      [
        "▁sett",
        -8.777129981450287
      ],
      [
        "▁hel",
        -8.782421790607854
      ],
      [
        "▁kring",
        -8.784939832251471
      ],
      [
        "▁and",
        -8.79200451226322
      ],
      [
        "▁välja",
        -8.792218284593492
      ],
      [
        "▁beslut",
        -8.801437826648174
      ],
      [
        "▁kl",
        -8.801459464337414
      ],
      [
        "▁tips",
        -8.804396516844772
      ],
      [
        "▁världen",
        -8.805112599435812
      ],
      [
        "▁lag",
        -8.806411159642966
      ],
      [
        "▁Idag",
        -8.810786068266447
      ],
      [
        "▁gamla",
        -8.812334085798595
      ],
      [
        "▁dessutom",
        -8.812938964885127
      ],
      [
        "▁vecka",
        -8.814947373403744
      ],
      [
        "tagit",
        -8.818086170742394
      ],
      [
        "▁börja",
        -8.820262134168157
      ],
      [
        "▁klart",
        -8.820803210067918
      ],
      [
        "mm",
        -8.821214833573798
      ],
      [
        "▁såg",
        -8.823601106424801
      ],
      [
        "berg",
        -8.826026419409768
      ],
      [
        "▁möjlighet",
        -8.826808551228103
      ],
      [
        "om",
        -8.827350618357853
      ],
      [
        "aste",
        -8.833986268947497
      ],
      [
        "inga",
        -8.835848470703253
      ],
      [
        "▁V",
        -8.839792760223066
      ],
      [
        "▁borde",
        -8.84458260830526
      ],
      [
        "▁typ",
        -8.845793602997068
      ],
      [
        "▁N",
        -8.846720803336952
      ],
      [
        "▁helst",
        -8.851918365534964
      ],
      [
        "C",
        -8.854915264721216
      ],
      [
        "ex",
        -8.858055259817796
      ],
      [
        "ska",
        -8.859651232067053
      ],
      [
        "▁män",
        -8.862785403172865
      ],
      [
        "▁priser",
        -8.863712777016667
      ],
      [
        "▁delar",
        -8.863820788585373
      ],
      [
        "▁minuter",
        -8.867873021147792
      ],
      [
        "▁kul",
        -8.870529877897805
      ],
      [
        "▁svar",
        -8.87113544665149
      ],
      [
        "Denna",
        -8.871241498812592
      ],
      [
        "▁hjälpa",
        -8.871972016279019
      ],
      [
        "▁varför",
        -8.876483660823647
      ],
      [
        "▁fem",
        -8.877504795379165
      ],
      [
        "▁behov",
        -8.87836448564658
      ],
      [
        "▁trots",
        -8.880975172979836
      ],
      [
        "hennes",
        -8.882518134762696
      ],
      [
        "▁fina",
        -8.883882649125518
      ],
      [
        "▁Även",
        -8.884287339032127
      ],
      [
        "▁kontakt",
        -8.88462712221621
      ],
      [
        "▁långt",
        -8.886418720986272
      ],
      [
        "▁namn",
        -8.88757374731981
      ],
      [
        "▁lägga",
        -8.891020107919982
      ],
      [
        "▁ville",
        -8.895092366874856
      ],
      [
        "▁Sveriges",
        -8.895775940233618
      ],
      [
        "▁visa",
        -8.898530153365902
      ],
      [
        "P",
        -8.898673442928223
      ],
      [
        "▁skriva",
        -8.899940221534427
      ],
      [
        "hjälper",
        -8.9026439319319
      ],
      [
        "“",
        -8.90515644836366
      ],
      [
        "▁enda",
        -8.906381857848393
      ],
      [
        "▁början",
        -8.907320519659237
      ],
      [
        "▁Vid",
        -8.908824655954671
      ],
      [
        "T",
        -8.910543789172193
      ],
      [
        "emot",
        -8.910697994969631
      ],
      [
        "▁Visa",
        -8.91126355083913
      ],
      [
        "▁veckan",
        -8.91150712486677
      ],
      [
        "▁snart",
        -8.913924962982566
      ],
      [
        "▁känna",
        -8.914668169540093
      ],
      [
        "▁brukar",
        -8.915881588488787
      ],
      [
        "▁The",
        -8.918710076990271
      ],
      [
        "I",
        -8.92361481927854
      ],
      [
        "▁ibland",
        -8.923925747302501
      ],
      [
        "▁tänka",
        -8.924962962684372
      ],
      [
        "▁arbetar",
        -8.935432120986581
      ],
      [
        "▁fin",
        -8.93706477234085
      ],
      [
        "går",
        -8.937223126522207
      ],
      [
        "▁livet",
        -8.937848206277403
      ],
      [
        "▁Air",
        -8.940083409747551
      ],
      [
        "▁medan",
        -8.940088296017036
      ],
      [
        "▁resultat",
        -8.942134675302366
      ],
      [
        "▁nätet",
        -8.943895972486335
      ],
      [
        "▁Nike",
        -8.944274936892164
      ],
      [
        "het",
        -8.946234810682906
      ],
      [
        "▁heller",
        -8.949795121517834
      ],
      [
        "fanns",
        -8.951586281657772
      ],
      [
        "▁timmar",
        -8.953363971401567
      ],
      [
        "▁vanligt",
        -8.953464978743595
      ],
      [
        "▁bäst",
        -8.956671532078724
      ],
      [
        "stod",
        -8.959486915980484
      ],
      [
        "▁USA",
        -8.959533543985767
      ],
      [
        "▁passar",
        -8.959738063368782
      ],
      [
        "▁Max",
        -8.959829370562188
      ],
      [
        "▁miljoner",
        -8.96084737636774
      ],
      [
        "▁egentligen",
        -8.96123341504369
      ],
      [
        "▁Sedan",
        -8.962569445891564
      ],
      [
        "▁antal",
        -8.965545869112445
      ],
      [
        "▁gången",
        -8.967192315035634
      ],
      [
        "sson",
        -8.971176622191729
      ],
      [
        "▁emot",
        -8.97161605069597
      ],
      [
        "▁EU",
        -8.976628366229317
      ],
      [
        "▁dags",
        -8.981288550224006
      ],
      [
        "▁maj",
        -8.982986440687744
      ],
      [
        "▁miljö",
        -8.98333563324767
      ],
      [
        "▁ord",
        -8.984423801317629
      ],
      [
        "▁Tack",
        -8.986638145554124
      ],
      [
        "▁hus",
        -8.987537444353196
      ],
      [
        "­",
        -8.989026728976746
      ],
      [
        "▁veta",
        -8.98934158944364
      ],
      [
        "nde",
        -8.99208023692355
      ],
      [
        "▁produkter",
        -8.99275444250267
      ],
      [
        "▁tag",
        -8.993047321782432
      ],
      [
        "sitter",
        -8.995037793378376
      ],
      [
        "▁b",
        -8.99565675647836
      ],
      [
        "frågan",
        -8.996840388865063
      ],
      [
        "▁Se",
        -8.998302710938903
      ],
      [
        "för",
        -8.999385563595352
      ],
      [
        "▁dating",
        -8.99942193288643
      ],
      [
        "båda",
        -9.005001060267627
      ],
      [
        "▁förslag",
        -9.005294991972951
      ],
      [
        "M",
        -9.006310744468445
      ],
      [
        "▁varandra",
        -9.00669546492897
      ],
      [
        "▁låg",
        -9.007882296338067
      ],
      [
        "och",
        -9.008079440411537
      ],
      [
        "▁utanför",
        -9.010770790588218
      ],
      [
        "▁gillar",
        -9.013898747972084
      ],
      [
        "▁fungerar",
        -9.013898771167005
      ],
      [
        "▁val",
        -9.014722506570662
      ],
      [
        "▁st",
        -9.0155092273909
      ],
      [
        "N",
        -9.015806156724183
      ],
      [
        "sagt",
        -9.016125345999608
      ],
      [
        "▁framför",
        -9.017099830593212
      ],
      [
        "al",
        -9.017519830514356
      ],
      [
        "särskilt",
        -9.018210667220021
      ],
      [
        "▁verksamhet",
        -9.01950787134311
      ],
      [
        "kände",
        -9.01963179998842
      ],
      [
        "▁energi",
        -9.022408589830867
      ],
      [
        "▁ytterligare",
        -9.024194377802363
      ],
      [
        "▁Av",
        -9.024663379599529
      ],
      [
        "▁resa",
        -9.026469284868815
      ],
      [
        "▁svensk",
        -9.026935576958985
      ],
      [
        "iska",
        -9.029995023196797
      ],
      [
        "▁färg",
        -9.032308952195502
      ],
      [
        "▁skolan",
        -9.03341975881596
      ],
      [
        "▁Min",
        -9.034699447695024
      ],
      [
        "▁används",
        -9.039720031933431
      ],
      [
        "K",
        -9.042735556549834
      ],
      [
        "▁Sen",
        -9.046287818553987
      ],
      [
        "▁bok",
        -9.046733413831639
      ],
      [
        "▁jätte",
        -9.048281405153846
      ],
      [
        "efter",
        -9.057290281950026
      ],
      [
        "▁Göteborg",
        -9.058285477176202
      ],
      [
        "▁betala",
        -9.059136358915508
      ],
      [
        "▁Allt",
        -9.059229399319577
      ],
      [
        "▁kommit",
        -9.059331433722669
      ],
      [
        "▁ned",
        -9.06251681922552
      ],
      [
        "förra",
        -9.073287576851158
      ],
      [
        "▁Kan",
        -9.078389710358804
      ],
      [
        "▁Inte",
        -9.079140582246339
      ],
      [
        "▁bakom",
        -9.08393589633938
      ],
      [
        "▁spelar",
        -9.08524181706538
      ],
      [
        "▁äldre",
        -9.085357251009256
      ],
      [
        "▁J",
        -9.086604096556275
      ],
      [
        "▁händer",
        -9.086956426076116
      ],
      [
        "▁skicka",
        -9.09032299248614
      ],
      [
        "▁Svenska",
        -9.091137049298572
      ],
      [
        "▁utveckling",
        -9.093044086467998
      ],
      [
        "iga",
        -9.093229270385775
      ],
      [
        "väl",
        -9.093513740740978
      ],
      [
        "▁inlägg",
        -9.09651750039778
      ],
      [
        "tänker",
        -9.097442170109263
      ],
      [
        "▁sida",
        -9.100054607916313
      ],
      [
        "▁ja",
        -9.105105796792664
      ],
      [
        "▁natt",
        -9.108134331999466
      ],
      [
        "▁film",
        -9.110543873017697
      ],
      [
        "▁tur",
        -9.110869993764275
      ],
      [
        "▁lilla",
        -9.112432691664148
      ],
      [
        "▁veckor",
        -9.113052180961494
      ],
      [
        "▁to",
        -9.11389923262156
      ],
      [
        "▁landet",
        -9.114349293541316
      ],
      [
        "▁säkert",
        -9.117513391482172
      ],
      [
        "▁bor",
        -9.117608207591124
      ],
      [
        "▁arbeta",
        -9.118483479805962
      ],
      [
        "▁Var",
        -9.123342052720044
      ],
      [
        "ström",
        -9.124010274900906
      ],
      [
        "▁igenom",
        -9.124903405793809
      ],
      [
        "▁Hotel",
        -9.129004519863006
      ],
      [
        "▁visst",
        -9.130663431628415
      ],
      [
        "▁besök",
        -9.132239074115029
      ],
      [
        "▁åka",
        -9.132259231302003
      ],
      [
        "igt",
        -9.134240700249888
      ],
      [
        "lagen",
        -9.13584889621603
      ],
      [
        "▁inne",
        -9.137059391661914
      ],
      [
        "▁barnen",
        -9.138497885537694
      ],
      [
        "yvärr",
        -9.139189260460888
      ],
      [
        "▁ljus",
        -9.139203583906045
      ],
      [
        "▁innehåller",
        -9.139643850506548
      ],
      [
        "▁sätta",
        -9.140493103133085
      ],
      [
        "Dessutom",
        -9.141528386977454
      ],
      [
        "▁for",
        -9.145915994653327
      ],
      [
        "▁kräv",
        -9.148869656692394
      ],
      [
        "▁högre",
        -9.150447505672995
      ],
      [
        "▁Vill",
        -9.153157792687807
      ],
      [
        "Enligt",
        -9.153454825703248
      ],
      [
        "▁sak",
        -9.154736248752174
      ],
      [
        "▁månader",
        -9.155669389847093
      ],
      [
        "▁ingår",
        -9.155831607998403
      ],
      [
        "▁personal",
        -9.15748144739212
      ],
      [
        "ig",
        -9.15903223997634
      ],
      [
        "▁huvud",
        -9.160494808247186
      ],
      [
        "▁unga",
        -9.16171615570832
      ],
      [
        "▁kroppen",
        -9.162353781658513
      ],
      [
        "är",
        -9.163883857049441
      ],
      [
        "▁Malmö",
        -9.16597209738385
      ],
      [
        "▁äta",
        -9.166544606509184
      ],
      [
        "▁steg",
        -9.167031682135585
      ],
      [
        "▁kunder",
        -9.171614111491458
      ],
      [
        "ligen",
        -9.172881100912424
      ],
      [
        "▁projekt",
        -9.174646554304081
      ],
      [
        "us",
        -9.176124421827192
      ],
      [
        "▁mamma",
        -9.177139509214197
      ],
      [
        "▁musik",
        -9.177441835361732
      ],
      [
        "E",
        -9.179061922767787
      ],
      [
        "▁In",
        -9.179170299002605
      ],
      [
        "▁alls",
        -9.179787025965002
      ],
      [
        "▁jobba",
        -9.181470370251853
      ],
      [
        "▁krav",
        -9.181556553149338
      ],
      [
        "▁bygga",
        -9.184021764143715
      ],
      [
        "▁minska",
        -9.186074850127138
      ],
      [
        "▁berättar",
        -9.193191415490034
      ],
      [
        "▁betyg",
        -9.19961082141301
      ],
      [
        "Många",
        -9.201018518558993
      ],
      [
        "▁kör",
        -9.202940942040025
      ],
      [
        "väljer",
        -9.205012333524767
      ],
      [
        "▁åren",
        -9.206771188975528
      ],
      [
        "▁max",
        -9.207780353139395
      ],
      [
        "▁roligt",
        -9.20778218471099
      ],
      [
        "ö",
        -9.208529622966527
      ],
      [
        "▁hotellet",
        -9.209910971853557
      ],
      [
        "främst",
        -9.211166871092296
      ],
      [
        "▁lära",
        -9.212645272631008
      ],
      [
        "▁lämna",
        -9.213084104643272
      ],
      [
        "L",
        -9.213586458379275
      ],
      [
        "▁januari",
        -9.215300048127919
      ],
      [
        "▁alternativ",
        -9.21562740816016
      ],
      [
        "▁bonus",
        -9.220259628635683
      ],
      [
        "▁full",
        -9.225122515488003
      ],
      [
        "▁vänner",
        -9.226164997234342
      ],
      [
        "▁perfekt",
        -9.227194259335837
      ],
      [
        "▁blogg",
        -9.230421493309652
      ],
      [
        "Det",
        -9.23355747880107
      ],
      [
        "▁spelare",
        -9.23425924683004
      ],
      [
        "▁öppna",
        -9.235323968854752
      ],
      [
        "▁skrev",
        -9.237858911962471
      ],
      [
        "$",
        -9.2395605109956
      ],
      [
        "▁augusti",
        -9.24016030002179
      ],
      [
        "▁sker",
        -9.240226840089779
      ],
      [
        "F",
        -9.240749668352251
      ],
      [
        "▁ej",
        -9.241199791518525
      ],
      [
        "<",
        -9.24170191419961
      ],
      [
        "▁tack",
        -9.242849630137993
      ],
      [
        "försöka",
        -9.242965884647488
      ],
      [
        "▁län",
        -9.245599588024008
      ],
      [
        "ut",
        -9.246080744162718
      ],
      [
        "▁samband",
        -9.246259991025473
      ],
      [
        "▁dejta",
        -9.246262585639517
      ],
      [
        "▁fint",
        -9.246515664420366
      ],
      [
        "G",
        -9.247571120393001
      ],
      [
        "▁titta",
        -9.25009045059242
      ],
      [
        "▁dra",
        -9.253444519933113
      ],
      [
        "▁mars",
        -9.257083792996827
      ],
      [
        "samma",
        -9.257449305162133
      ],
      [
        "▁igång",
        -9.258715350529389
      ],
      [
        "▁följande",
        -9.261897113971532
      ],
      [
        "▁arbets",
        -9.262224607161638
      ],
      [
        "▁spännande",
        -9.262665780046657
      ],
      [
        "▁jul",
        -9.264895699889237
      ],
      [
        "▁följa",
        -9.265718380757578
      ],
      [
        "▁sommar",
        -9.266615931506825
      ],
      [
        "▁goda",
        -9.267984644260208
      ],
      [
        "R",
        -9.268119571137543
      ],
      [
        "▁utbildning",
        -9.268364901068697
      ],
      [
        "▁ifrån",
        -9.269683796985415
      ],
      [
        "▁vanliga",
        -9.27367973620796
      ],
      [
        "▁satt",
        -9.274134181835326
      ],
      [
        "»",
        -9.274313499786844
      ],
      [
        "▁vanlig",
        -9.279105573876596
      ],
      [
        "▁kvinna",
        -9.27920101418814
      ],
      [
        "▁pa",
        -9.279350085146818
      ],
      [
        "▁eget",
        -9.28067592843916
      ],
      [
        "▁dit",
        -9.28120550068776
      ],
      [
        "▁service",
        -9.283437595263647
      ],
      [
        "▁Ta",
        -9.283830417475823
      ],
      [
        "▁massa",
        -9.285614146491048
      ],
      [
        "▁ovan",
        -9.285876118627879
      ],
      [
        "▁Bra",
        -9.285931368928583
      ],
      [
        "▁tv",
        -9.286464407939562
      ],
      [
        "▁Från",
        -9.287958069302853
      ],
      [
        "slutet",
        -9.289737051516006
      ],
      [
        "▁Genom",
        -9.291716903438793
      ],
      [
        "▁viktig",
        -9.292319475589283
      ],
      [
        "▁liknande",
        -9.2935196669952
      ],
      [
        "▁månad",
        -9.29781110968138
      ],
      [
        "▁roll",
        -9.298077697912346
      ],
      [
        "▁glad",
        -9.29862121011919
      ],
      [
        "tal",
        -9.298744644824902
      ],
      [
        "ja",
        -9.299584773786224
      ],
      [
        "▁ansvar",
        -9.300182910165995
      ],
      [
        "▁jämför",
        -9.301365892905176
      ],
      [
        "▁området",
        -9.301562456035427
      ],
      [
        "▁fort",
        -9.301675940630357
      ],
      [
        "Dessa",
        -9.302974428690503
      ],
      [
        "▁kvalitet",
        -9.303944061468616
      ],
      [
        "laget",
        -9.304065967400213
      ],
      [
        "▁länder",
        -9.304452598270428
      ],
      [
        "▁jobbet",
        -9.304453081825072
      ],
      [
        "▁poäng",
        -9.304812333509886
      ],
      [
        "▁material",
        -9.304972730031599
      ],
      [
        "▁erfarenhet",
        -9.305063735366634
      ],
      [
        "▁älskar",
        -9.305145287810772
      ],
      [
        "lig",
        -9.306429348315032
      ],
      [
        "ger",
        -9.307932420030909
      ],
      [
        "▁tydlig",
        -9.308267284593105
      ],
      [
        "▁öka",
        -9.309059368023508
      ],
      [
        "▁jobbar",
        -9.310908591418805
      ],
      [
        "men",
        -9.31265850439673
      ],
      [
        "liksom",
        -9.31342859343731
      ],
      [
        "▁uppgifter",
        -9.313795884337413
      ],
      [
        "▁skor",
        -9.315093467135224
      ],
      [
        "▁fortsätta",
        -9.317012141293072
      ],
      [
        "▁vem",
        -9.319470224454367
      ],
      [
        "▁tillgång",
        -9.320796958310266
      ],
      [
        "▁TV",
        -9.321869824812234
      ],
      [
        "▁Nej",
        -9.322393339913011
      ],
      [
        "•",
        -9.325506070768625
      ],
      [
        "Jag",
        -9.325688716256614
      ],
      [
        "▁casino",
        -9.326453923954057
      ],
      [
        "▁igår",
        -9.327212609236353
      ],
      [
        "▁hälsa",
        -9.327589139758954
      ],
      [
        "▁försöker",
        -9.329938920102604
      ],
      [
        "▁lär",
        -9.330477087537242
      ],
      [
        "▁program",
        -9.333105334194663
      ],
      [
        "▁juni",
        -9.33454396713406
      ],
      [
        "§",
        -9.337127440905125
      ],
      [
        "▁nedan",
        -9.340167462819993
      ],
      [
        "▁match",
        -9.341608214383543
      ],
      [
        "låter",
        -9.341666357768098
      ],
      [
        "▁tro",
        -9.342776114041406
      ],
      [
        "▁tredje",
        -9.34372129181678
      ],
      [
        "▁års",
        -9.344000124764698
      ],
      [
        "▁tio",
        -9.344691711227266
      ],
      [
        "▁nätdejting",
        -9.344923199167466
      ],
      [
        "▁kontakta",
        -9.345638012399627
      ],
      [
        "▁Ni",
        -9.34577156618787
      ],
      [
        "▁land",
        -9.34687597289987
      ],
      [
        "O",
        -9.348736891819744
      ],
      [
        "av",
        -9.348944138223338
      ],
      [
        "▁cm",
        -9.349131367559718
      ],
      [
        "▁fortsätter",
        -9.349986885432633
      ],
      [
        "betyder",
        -9.355481839639161
      ],
      [
        "delen",
        -9.357606388554109
      ],
      [
        "▁start",
        -9.35904796731674
      ],
      [
        "▁Eller",
        -9.361029413429183
      ],
      [
        "▁företaget",
        -9.36217685711569
      ],
      [
        "orna",
        -9.363320140476505
      ],
      [
        "ast",
        -9.364358297121068
      ],
      [
        "▁behövs",
        -9.365330464507329
      ],
      [
        "▁stund",
        -9.36626294649909
      ],
      [
        "▁kommunen",
        -9.366845677700505
      ],
      [
        "▁vilja",
        -9.367151118689092
      ],
      [
        "▁meter",
        -9.36811761537735
      ],
      [
        "▁användas",
        -9.369965189851609
      ],
      [
        "▁utveckla",
        -9.370143614782414
      ],
      [
        "▁nå",
        -9.370847560199653
      ],
      [
        "eller",
        -9.373637113334722
      ],
      [
        "▁engelska",
        -9.374257607187356
      ],
      [
        "▁grupp",
        -9.374518394629344
      ],
      [
        "—",
        -9.374952069270323
      ],
      [
        "▁Vår",
        -9.374962238724413
      ],
      [
        "w",
        -9.376291306669216
      ],
      [
        "▁arbetet",
        -9.380237923757933
      ],
      [
        "▁favorit",
        -9.382341588145023
      ],
      [
        "▁köra",
        -9.382585473847131
      ],
      [
        "▁kväll",
        -9.383292438719465
      ],
      [
        "▁oktober",
        -9.384477371571592
      ],
      [
        "tid",
        -9.384810048039952
      ],
      [
        "▁april",
        -9.384922159920086
      ],
      [
        "▁Hitta",
        -9.38664820684185
      ],
      [
        "▁fortsatt",
        -9.387404192190862
      ],
      [
        "▁september",
        -9.38806029968661
      ],
      [
        "▁stå",
        -9.38827199371664
      ],
      [
        "▁närheten",
        -9.388543123425178
      ],
      [
        "▁bidra",
        -9.390320539016024
      ],
      [
        "▁recept",
        -9.390514359620209
      ],
      [
        "stående",
        -9.39201767572039
      ],
      [
        "Därför",
        -9.392080026021674
      ],
      [
        "▁dejtingsajt",
        -9.392629563731928
      ],
      [
        "står",
        -9.39282863740715
      ],
      [
        "▁bilen",
        -9.393888393422221
      ],
      [
        "ste",
        -9.394281075903837
      ],
      [
        "▁Ska",
        -9.398835388811703
      ],
      [
        "▁Anna",
        -9.399299328123194
      ],
      [
        "▁W",
        -9.400317526508598
      ],
      [
        "▁Ut",
        -9.4007133734053
      ],
      [
        "▁träffa",
        -9.402197860120207
      ],
      [
        "▁ungefär",
        -9.403554703320593
      ],
      [
        "exempelvis",
        -9.404669789895767
      ],
      [
        "▁Mer",
        -9.40518050431216
      ],
      [
        "▁morgon",
        -9.405858320471301
      ],
      [
        "▁kolla",
        -9.40716742092069
      ],
      [
        "H",
        -9.408089634308002
      ],
      [
        "▁kultur",
        -9.40906699127906
      ],
      [
        "▁fr",
        -9.40991221491479
      ],
      [
        "▁Europa",
        -9.410834985663792
      ],
      [
        "▁råd",
        -9.411168794996804
      ],
      [
        "Varför",
        -9.411543087641382
      ],
      [
        "tyckte",
        -9.412561705553589
      ],
      [
        "▁heter",
        -9.412656637419968
      ],
      [
        "▁prata",
        -9.412689067267568
      ],
      [
        "▁halv",
        -9.414372779403392
      ],
      [
        "lösa",
        -9.415885515065895
      ],
      [
        "▁hår",
        -9.416711637161562
      ],
      [
        "▁samarbete",
        -9.417951160964378
      ],
      [
        "▁rör",
        -9.419554984804245
      ],
      [
        "▁kunskap",
        -9.420053687211514
      ],
      [
        "era",
        -9.420790138121072
      ],
      [
        "finnas",
        -9.423126441944717
      ],
      [
        "▁påverka",
        -9.424748132628773
      ],
      [
        "▁hemsida",
        -9.425378706287772
      ],
      [
        "▁intressant",
        -9.426009748809014
      ],
      [
        "Kanske",
        -9.426316288440626
      ],
      [
        "▁vård",
        -9.42674405277678
      ],
      [
        "▁cirka",
        -9.426979403623385
      ],
      [
        "z",
        -9.427467531186757
      ],
      [
        "så",
        -9.427587128585131
      ],
      [
        "▁boken",
        -9.428156742139333
      ],
      [
        "▁absolut",
        -9.429078803561348
      ],
      [
        "▁gav",
        -9.430531903451465
      ],
      [
        "▁hör",
        -9.430999840262235
      ],
      [
        "▁februari",
        -9.433094304512984
      ],
      [
        "▁uppdrag",
        -9.434911793001177
      ],
      [
        "▁viss",
        -9.436249832249846
      ],
      [
        "visade",
        -9.437007257530379
      ],
      [
        "▁U",
        -9.43715325158464
      ],
      [
        "▁ex",
        -9.437621244634542
      ],
      [
        "oftast",
        -9.437863696596859
      ],
      [
        "▁vackra",
        -9.439796270511085
      ],
      [
        "▁sommaren",
        -9.441244670332921
      ],
      [
        "gatan",
        -9.443032175000313
      ],
      [
        "behöva",
        -9.443106622969923
      ],
      [
        "på",
        -9.444816687363785
      ],
      [
        "▁behandling",
        -9.44671456448288
      ],
      [
        "menar",
        -9.447695391282362
      ],
      [
        "hört",
        -9.449245475533361
      ],
      [
        "▁intresse",
        -9.449334675909517
      ],
      [
        "bolaget",
        -9.450128477537007
      ],
      [
        "▁helgen",
        -9.45047460602811
      ],
      [
        "▁beroende",
        -9.453662612448667
      ],
      [
        "programmet",
        -9.454946564154476
      ],
      [
        "▁fokus",
        -9.455000862354789
      ],
      [
        "▁system",
        -9.455680714543854
      ],
      [
        "består",
        -9.45591365178267
      ],
      [
        "anser",
        -9.456857138002613
      ],
      [
        "kommande",
        -9.459495659844864
      ],
      [
        "▁snabb",
        -9.45949936039833
      ],
      [
        "▁familj",
        -9.459907954412532
      ],
      [
        "▁djur",
        -9.460402580305376
      ],
      [
        "▁senast",
        -9.460516445199449
      ],
      [
        "sjön",
        -9.461113100668374
      ],
      [
        "lägger",
        -9.461643691162026
      ],
      [
        "läget",
        -9.462178779932774
      ],
      [
        "▁framtiden",
        -9.462986924031307
      ],
      [
        "övriga",
        -9.464504568033476
      ],
      [
        "tänkte",
        -9.464629793956489
      ],
      [
        "by",
        -9.46691757314736
      ],
      [
        "▁klar",
        -9.46789733162405
      ],
      [
        "▁risk",
        -9.467976695876086
      ],
      [
        "▁bilden",
        -9.470870450117863
      ],
      [
        "▁köp",
        -9.472074836185842
      ],
      [
        "▁speciellt",
        -9.473586964254045
      ],
      [
        "▁berätta",
        -9.473756091311756
      ],
      [
        "gående",
        -9.474896263599462
      ],
      [
        "▁förstår",
        -9.474932424828241
      ],
      [
        "▁kvällen",
        -9.476229529339326
      ],
      [
        "▁december",
        -9.476385439150597
      ],
      [
        "▁boende",
        -9.476815991646898
      ],
      [
        "krävs",
        -9.479867749643686
      ],
      [
        "▁november",
        -9.48135527706939
      ],
      [
        "▁följer",
        -9.483161391893
      ],
      [
        "▁internet",
        -9.48566244878843
      ],
      [
        "▁klara",
        -9.486494260707486
      ],
      [
        "▁eventuell",
        -9.486669494407137
      ],
      [
        "▁fri",
        -9.489323660619004
      ],
      [
        "▁telefon",
        -9.491942761443621
      ],
      [
        "um",
        -9.494761101488818
      ],
      [
        "le",
        -9.495422382730595
      ],
      [
        "▁svart",
        -9.495639181409098
      ],
      [
        "ifrån",
        -9.49650246875906
      ],
      [
        "▁bl",
        -9.49651240982078
      ],
      [
        "Vi",
        -9.49660206851515
      ],
      [
        "▁bo",
        -9.497026392929586
      ],
      [
        "▁familjen",
        -9.497699750785108
      ],
      [
        "▁tanke",
        -9.498338035852012
      ],
      [
        "dag",
        -9.498500763596853
      ],
      [
        "ökar",
        -9.498936305395087
      ],
      [
        "▁Ny",
        -9.50076034167648
      ],
      [
        "Eftersom",
        -9.500814718842175
      ],
      [
        "▁skapar",
        -9.505246073717109
      ],
      [
        "▁juli",
        -9.508245487659773
      ],
      [
        "▁skönt",
        -9.50843610182679
      ],
      [
        "otroligt",
        -9.509144141872362
      ],
      [
        "▁va",
        -9.510471906153578
      ],
      [
        "land",
        -9.510659513562693
      ],
      [
        "alldeles",
        -9.511356016559455
      ],
      [
        "▁viktiga",
        -9.512142522664893
      ],
      [
        "höll",
        -9.514693928571392
      ],
      [
        "▁tjänster",
        -9.516054803268778
      ],
      [
        "▁staden",
        -9.516757272168132
      ],
      [
        "åkte",
        -9.516943095093726
      ],
      [
        "sk",
        -9.523125733667845
      ],
      [
        "▁förstå",
        -9.523415931607461
      ],
      [
        "annars",
        -9.524100229081201
      ],
      [
        "▁lever",
        -9.526839108768785
      ],
      [
        "▁Stockholms",
        -9.527791169211524
      ],
      [
        "typer",
        -9.528638604095242
      ],
      [
        "▁dagens",
        -9.529327634827586
      ],
      [
        "▁produkt",
        -9.529652418153413
      ],
      [
        "sätter",
        -9.529778293559655
      ],
      [
        "▁kund",
        -9.530176741396685
      ],
      [
        "▁träning",
        -9.530943822514173
      ],
      [
        "▁säker",
        -9.531535432517684
      ],
      [
        "▁air",
        -9.534686376128255
      ],
      [
        "systemet",
        -9.53496438923213
      ],
      [
        "▁Hej",
        -9.536170045385179
      ],
      [
        "▁design",
        -9.540257958113067
      ],
      [
        "▁ställa",
        -9.540391994332337
      ],
      [
        "▁Bo",
        -9.541356486936875
      ],
      [
        "väntar",
        -9.543023628914254
      ],
      [
        "▁stället",
        -9.544142490779368
      ],
      [
        "beror",
        -9.544251695440277
      ],
      [
        "▁erbjuda",
        -9.544711995934147
      ],
      [
        "▁anledning",
        -9.545247299921874
      ],
      [
        "▁skillnad",
        -9.545456827592863
      ],
      [
        "ä",
        -9.545940378746558
      ],
      [
        "▁låta",
        -9.546423269669846
      ],
      [
        "matchen",
        -9.546838511024168
      ],
      [
        "spel",
        -9.547216243994685
      ],
      [
        "gruppen",
        -9.547839107052972
      ],
      [
        "V",
        -9.549230765961243
      ],
      [
        "ningar",
        -9.54987191850461
      ],
      [
        "den",
        -9.552902571415029
      ],
      [
        "▁föräldrar",
        -9.552982706478643
      ],
      [
        "▁framtid",
        -9.553215549896157
      ],
      [
        "▁höra",
        -9.553544230595435
      ],
      [
        "oavsett",
        -9.556206485091096
      ],
      [
        "▁fungera",
        -9.556392131578932
      ],
      [
        "▁lan",
        -9.556957131679637
      ],
      [
        "▁vänta",
        -9.557542759623624
      ],
      [
        "▁regeringen",
        -9.55819533207657
      ],
      [
        "▁sociala",
        -9.558754489112681
      ],
      [
        "▁X",
        -9.559504755290789
      ],
      [
        "▁nike",
        -9.559682309983248
      ],
      [
        "TM",
        -9.560821110613643
      ],
      [
        "över",
        -9.561852931060288
      ],
      [
        "▁språk",
        -9.564565164746636
      ],
      [
        "▁vän",
        -9.565859135310186
      ],
      [
        "▁gammal",
        -9.568444525483653
      ],
      [
        "▁verksamheten",
        -9.568643487009693
      ],
      [
        "▁tänkt",
        -9.56911099041834
      ],
      [
        "▁världens",
        -9.572472566621435
      ],
      [
        "ont",
        -9.573289123279258
      ],
      [
        "▁data",
        -9.573384450735599
      ],
      [
        "ledande",
        -9.574223116121676
      ],
      [
        "sökte",
        -9.574750495697407
      ],
      [
        "▁klockan",
        -9.57570004140602
      ],
      [
        "▁förbättra",
        -9.576039335530517
      ],
      [
        "▁leder",
        -9.578004310514054
      ],
      [
        "▁Be",
        -9.579150850945865
      ],
      [
        "▁super",
        -9.57937955082329
      ],
      [
        "rum",
        -9.580600840552243
      ],
      [
        "▁sol",
        -9.585162109335998
      ],
      [
        "▁möjligheter",
        -9.58714050997799
      ],
      [
        "mannen",
        -9.588075077771885
      ],
      [
        "▁utifrån",
        -9.58925800768133
      ],
      [
        "nas",
        -9.58969829170867
      ],
      [
        "▁kläder",
        -9.589949858553068
      ],
      [
        "▁Per",
        -9.590052834907523
      ],
      [
        "▁marknaden",
        -9.590136967504218
      ],
      [
        "bar",
        -9.590851792559416
      ],
      [
        "▁stil",
        -9.592563676837617
      ],
      [
        "sidan",
        -9.59343011880203
      ],
      [
        "▁lån",
        -9.5945186135796
      ],
      [
        "▁historia",
        -9.595587091000455
      ],
      [
        "system",
        -9.595773952619789
      ],
      [
        "▁Just",
        -9.595873465158238
      ],
      [
        "▁hund",
        -9.598885154447895
      ],
      [
        "ly",
        -9.599057284492392
      ],
      [
        "▁höga",
        -9.599211627745069
      ],
      [
        "▁Anders",
        -9.600039261011759
      ],
      [
        "nämlig",
        -9.600179152959011
      ],
      [
        "▁testa",
        -9.601324462288881
      ],
      [
        "▁rad",
        -9.601514922284354
      ],
      [
        "▁medlemmar",
        -9.602241923523735
      ],
      [
        "▁värde",
        -9.603733710443539
      ],
      [
        "▁leva",
        -9.60416831041001
      ],
      [
        "tittade",
        -9.60434700509139
      ],
      [
        "▁iväg",
        -9.604973086174317
      ],
      [
        "sådana",
        -9.606159043640519
      ],
      [
        "▁elever",
        -9.608080606265169
      ],
      [
        "▁stad",
        -9.608793954611162
      ],
      [
        "▁spara",
        -9.610179615203919
      ],
      [
        "▁planera",
        -9.610570915389747
      ],
      [
        "▁högt",
        -9.611657669351525
      ],
      [
        "Mycket",
        -9.613127901033922
      ],
      [
        "▁Pris",
        -9.616006530727924
      ],
      [
        "▁ändra",
        -9.616314790020963
      ],
      [
        "▁svår",
        -9.616578716965043
      ],
      [
        "▁icke",
        -9.616793446149282
      ],
      [
        "värt",
        -9.616984133527799
      ],
      [
        "kr",
        -9.617638413439739
      ],
      [
        "antalet",
        -9.618798229616347
      ],
      [
        "▁samhället",
        -9.619141001513153
      ],
      [
        "▁Facebook",
        -9.619713385714537
      ],
      [
        "▁skol",
        -9.622197473028326
      ],
      [
        "▁lugn",
        -9.62242896239385
      ],
      [
        "resten",
        -9.623170638206712
      ],
      [
        "▁SEK",
        -9.624129212708853
      ],
      [
        "▁totalt",
        -9.627183707193334
      ],
      [
        "▁diskutera",
        -9.627216735835868
      ],
      [
        "▁huset",
        -9.62724779097168
      ],
      [
        "spelet",
        -9.628174885652388
      ],
      [
        "▁artikel",
        -9.629176472379244
      ],
      [
        "▁fullt",
        -9.631164657649052
      ],
      [
        "▁sakna",
        -9.633545999105122
      ],
      [
        "▁ordförande",
        -9.633759767079356
      ],
      [
        "▁app",
        -9.634845017839828
      ],
      [
        "▁omkring",
        -9.635592104848786
      ],
      [
        "▁natur",
        -9.635699374490748
      ],
      [
        "▁Kina",
        -9.636172607633737
      ],
      [
        "▁byta",
        -9.636194219971852
      ],
      [
        "till",
        -9.637109448611321
      ],
      [
        "▁tjejer",
        -9.638548766629816
      ],
      [
        "▁New",
        -9.639860296838224
      ],
      [
        "▁vikt",
        -9.644401440981463
      ],
      [
        "▁nöjd",
        -9.64456412238779
      ],
      [
        "▁dejtingsajter",
        -9.644602664534885
      ],
      [
        "▁plan",
        -9.644693941207043
      ],
      [
        "resenärer",
        -9.645058332083163
      ],
      [
        "▁långa",
        -9.64682171159432
      ],
      [
        "▁sitta",
        -9.647791722796633
      ],
      [
        "▁böcker",
        -9.648264184205624
      ],
      [
        "▁dator",
        -9.649156211409354
      ],
      [
        "▁söka",
        -9.64954354932357
      ],
      [
        "post",
        -9.6498897692121
      ],
      [
        "börjat",
        -9.652029932934003
      ],
      [
        "tidigt",
        -9.654527141255455
      ],
      [
        "▁mobil",
        -9.657121854590637
      ],
      [
        "▁stanna",
        -9.657395816037997
      ],
      [
        "▁lokala",
        -9.657859335173187
      ],
      [
        "bara",
        -9.658742213826676
      ],
      [
        "▁hittade",
        -9.660511263498764
      ],
      [
        "▁Å",
        -9.661615812174226
      ],
      [
        "▁säsongen",
        -9.662159108555388
      ],
      [
        "▁text",
        -9.66259243757977
      ],
      [
        "kallas",
        -9.662606193617474
      ],
      [
        "hända",
        -9.663247342639787
      ],
      [
        "▁lunch",
        -9.664181573078949
      ],
      [
        "▁recensioner",
        -9.66443000907494
      ],
      [
        "▁billiga",
        -9.665364960207288
      ],
      [
        "skrivit",
        -9.665609064994813
      ],
      [
        "▁hämta",
        -9.667345427398851
      ],
      [
        "ets",
        -9.667698486549464
      ],
      [
        "▁utmärkt",
        -9.667969502732777
      ],
      [
        "politiska",
        -9.668113339713242
      ],
      [
        "▁Köp",
        -9.668217490563027
      ],
      [
        "▁Johan",
        -9.668476140101449
      ],
      [
        "▁stark",
        -9.669065234954799
      ],
      [
        "▁avsluta",
        -9.669646299080295
      ],
      [
        "ring",
        -9.669893050560338
      ],
      [
        "’",
        -9.670702096691908
      ],
      [
        "ton",
        -9.671511535668559
      ],
      [
        "▁vann",
        -9.673814706246288
      ],
      [
        "ge",
        -9.673919310187795
      ],
      [
        "▁Jo",
        -9.673943367857342
      ],
      [
        "▁vinna",
        -9.674552518901544
      ],
      [
        "▁Tänk",
        -9.674581754924679
      ],
      [
        "▁semester",
        -9.6747630366131
      ],
      [
        "respektive",
        -9.675530358218937
      ],
      [
        "enbart",
        -9.675812541921374
      ],
      [
        "kända",
        -9.676024175619768
      ],
      [
        "▁tillhör",
        -9.6762314839838
      ],
      [
        "▁åker",
        -9.676769899788493
      ],
      [
        "▁Uppsala",
        -9.676848784182408
      ],
      [
        "gör",
        -9.678766431311722
      ],
      [
        "lägre",
        -9.679226719583419
      ],
      [
        "▁Ha",
        -9.679301961032513
      ],
      [
        "▁allra",
        -9.679440809513286
      ],
      [
        "▁exakt",
        -9.682567713366343
      ],
      [
        "▁teknik",
        -9.682941876902454
      ],
      [
        "maste",
        -9.683662141248805
      ],
      [
        "la",
        -9.683728194167543
      ],
      [
        "lättare",
        -9.685567046905453
      ],
      [
        "drar",
        -9.687275185609106
      ],
      [
        "▁polisen",
        -9.688046027063136
      ],
      [
        "▁storlek",
        -9.68818215003905
      ],
      [
        "hus",
        -9.689475197103915
      ],
      [
        "▁flytta",
        -9.689510489696397
      ],
      [
        "samtliga",
        -9.690237037954764
      ],
      [
        "▁hösten",
        -9.691563485443547
      ],
      [
        "program",
        -9.692623471736193
      ],
      [
        "▁frukost",
        -9.692805605891724
      ],
      [
        "▁delta",
        -9.69498461584143
      ],
      [
        "lund",
        -9.695049812647822
      ],
      [
        "▁vuxna",
        -9.695845256698789
      ],
      [
        "▁kaffe",
        -9.6958584097126
      ],
      [
        "år",
        -9.695982245454413
      ],
      [
        "▁billigt",
        -9.696205140235492
      ],
      [
        "▁hantera",
        -9.697547257433307
      ],
      [
        "kostar",
        -9.698778521891136
      ],
      [
        "mare",
        -9.69904201474758
      ],
      [
        "▁född",
        -9.699105497079188
      ],
      [
        "▁dåligt",
        -9.69986910547592
      ],
      [
        "▁ögon",
        -9.70057631403635
      ],
      [
        "▁forskning",
        -9.701127053455144
      ],
      [
        "isk",
        -9.70126396046042
      ],
      [
        "▁områden",
        -9.704213704370067
      ],
      [
        "▁glas",
        -9.705718279272975
      ],
      [
        "▁topp",
        -9.705747115439813
      ],
      [
        "▁dela",
        -9.707757365131929
      ],
      [
        "▁boka",
        -9.708579923333433
      ],
      [
        "▁användning",
        -9.709309089497072
      ],
      [
        "▁konstatera",
        -9.7093820121462
      ],
      [
        "▁bak",
        -9.70946851102357
      ],
      [
        "▁dryg",
        -9.70995850828612
      ],
      [
        "▁trött",
        -9.710162577792813
      ],
      [
        "▁borta",
        -9.71068626410974
      ],
      [
        "nu",
        -9.711275923498588
      ],
      [
        "▁gäster",
        -9.71157000953857
      ],
      [
        "▁nån",
        -9.712043134954504
      ],
      [
        "▁håll",
        -9.713397668652036
      ],
      [
        "ställer",
        -9.713882098567943
      ],
      [
        "Hotels",
        -9.71503320778215
      ],
      [
        "köpte",
        -9.71540114814463
      ],
      [
        "▁nivå",
        -9.715776167725458
      ],
      [
        "▁hud",
        -9.71758117857256
      ],
      [
        "▁centrum",
        -9.718523848094383
      ],
      [
        "området",
        -9.718619589803122
      ],
      [
        "▁åtgärder",
        -9.719090959229575
      ],
      [
        "▁Peter",
        -9.71982590336597
      ],
      [
        "▁hit",
        -9.719851833663844
      ],
      [
        "▁förstås",
        -9.722802174578593
      ],
      [
        "▁webbplats",
        -9.723293935462761
      ],
      [
        "▁tas",
        -9.723576373421547
      ],
      [
        "▁trevlig",
        -9.724405510563209
      ],
      [
        "▁massor",
        -9.724756881459172
      ],
      [
        "läser",
        -9.726397652820513
      ],
      [
        "▁date",
        -9.727629068905182
      ],
      [
        "og",
        -9.7295395105711
      ],
      [
        "be",
        -9.729935418072099
      ],
      [
        "▁sju",
        -9.730535912887891
      ],
      [
        "▁pappa",
        -9.733360267950346
      ],
      [
        "▁skola",
        -9.733681645568012
      ],
      [
        "▁område",
        -9.735458269965303
      ],
      [
        "tiden",
        -9.73596970789285
      ],
      [
        "▁bär",
        -9.736288569153063
      ],
      [
        "bygger",
        -9.737764931527545
      ],
      [
        "▁vänster",
        -9.740273356649247
      ],
      [
        "▁Foto",
        -9.740304398703458
      ],
      [
        "▁by",
        -9.740893963767062
      ],
      [
        "▁död",
        -9.741370269444745
      ],
      [
        "tillräckligt",
        -9.741850734544412
      ],
      [
        "▁handla",
        -9.741883984589986
      ],
      [
        "▁känsla",
        -9.742855767712474
      ],
      [
        "▁träna",
        -9.74380191477204
      ],
      [
        "▁platser",
        -9.744332698672757
      ],
      [
        "▁kontroll",
        -9.74468864197521
      ],
      [
        "▁dejtingsidor",
        -9.744965138541994
      ],
      [
        "plan",
        -9.745749905863887
      ],
      [
        "gren",
        -9.747876020933601
      ],
      [
        "▁lärare",
        -9.749254600362786
      ],
      [
        "▁Hans",
        -9.749939028029267
      ],
      [
        "▁enkel",
        -9.75228735290561
      ],
      [
        "▁Ingen",
        -9.752882069100467
      ],
      [
        "▁regler",
        -9.754544313815353
      ],
      [
        "Samtidigt",
        -9.754910820666714
      ],
      [
        "▁reda",
        -9.75687122644322
      ],
      [
        "▁högsta",
        -9.757390986092869
      ],
      [
        "spelade",
        -9.760507851722748
      ],
      [
        "▁filmen",
        -9.761884131182757
      ],
      [
        "▁läge",
        -9.763216830013059
      ],
      [
        "▁gällande",
        -9.767410193226912
      ],
      [
        "▁Maria",
        -9.767793828147893
      ],
      [
        "fallet",
        -9.768846134617993
      ],
      [
        "▁säkerhet",
        -9.769951241695095
      ],
      [
        "▁kraft",
        -9.770299166019838
      ],
      [
        "▁snar",
        -9.771462709780657
      ],
      [
        "Varje",
        -9.77358986631008
      ],
      [
        "ka",
        -9.773625289099316
      ],
      [
        "▁samman",
        -9.776951054667677
      ],
      [
        "▁snö",
        -9.77783883154596
      ],
      [
        "▁effekt",
        -9.778240466713145
      ],
      [
        "▁flyg",
        -9.77840573208706
      ],
      [
        "▁valt",
        -9.778484613314488
      ],
      [
        "▁samtal",
        -9.779425257098351
      ],
      [
        "▁behöv",
        -9.780210263818832
      ],
      [
        "▁sälja",
        -9.781022861112236
      ],
      [
        "ur",
        -9.781237567498295
      ],
      [
        "▁Låt",
        -9.782275495456004
      ],
      [
        "▁ålder",
        -9.782281414682965
      ],
      [
        "▁tillgängliga",
        -9.782452313393057
      ],
      [
        "▁anställda",
        -9.782869131969777
      ],
      [
        "▁Välkommen",
        -9.783255031169997
      ],
      [
        "▁lista",
        -9.783953265494505
      ],
      [
        "▁kompetens",
        -9.784142884805783
      ],
      [
        "▁framåt",
        -9.784915716187726
      ],
      [
        "▁ekonomiska",
        -9.785406207558841
      ],
      [
        "lyckas",
        -9.785535069411686
      ],
      [
        "huset",
        -9.786183041373173
      ],
      [
        "▁Barn",
        -9.786852082587444
      ],
      [
        "Hoppas",
        -9.788317479313603
      ],
      [
        "Mer",
        -9.788597172867139
      ],
      [
        "ras",
        -9.78870242943171
      ],
      [
        "äter",
        -9.788727513244526
      ],
      [
        "▁låt",
        -9.7892231276335
      ],
      [
        "verket",
        -9.790521349183804
      ],
      [
        "▁sidor",
        -9.79108538517184
      ],
      [
        "▁stan",
        -9.791642169146535
      ],
      [
        "▁hårt",
        -9.794813545295016
      ],
      [
        "ell",
        -9.794878286304286
      ],
      [
        "▁ren",
        -9.795228212896687
      ],
      [
        "▁ekonomi",
        -9.795717397400301
      ],
      [
        "▁särskild",
        -9.796015711900512
      ],
      [
        "mer",
        -9.796389962275162
      ],
      [
        "▁ljud",
        -9.797593960743917
      ],
      [
        "ewards",
        -9.797959351999985
      ],
      [
        "▁trä",
        -9.799405412000887
      ],
      [
        "viktigaste",
        -9.799491276102225
      ],
      [
        "målet",
        -9.799693910648882
      ],
      [
        "▁variera",
        -9.800233414480903
      ],
      [
        "inklusive",
        -9.803557606629697
      ],
      [
        "▁leda",
        -9.80494959918546
      ],
      [
        "▁personlig",
        -9.805704365652089
      ],
      [
        "▁konst",
        -9.805779316782528
      ],
      [
        "ats",
        -9.806072132126376
      ],
      [
        "▁bad",
        -9.806144169931045
      ],
      [
        "önskar",
        -9.806832386046269
      ],
      [
        "trodde",
        -9.807338388951553
      ],
      [
        "▁Två",
        -9.807786911360783
      ],
      [
        "▁lokal",
        -9.808234121983757
      ],
      [
        "nat",
        -9.809540707211829
      ],
      [
        "nummer",
        -9.809719354921459
      ],
      [
        "▁lager",
        -9.810087375964072
      ],
      [
        "▁sade",
        -9.810398198131582
      ],
      [
        "▁Bara",
        -9.81055001114835
      ],
      [
        "www",
        -9.811845484711418
      ],
      [
        "ningen",
        -9.815010720050365
      ],
      [
        "ett",
        -9.815777293908605
      ],
      [
        "▁värme",
        -9.816238152908772
      ],
      [
        "▁pass",
        -9.817843812650697
      ],
      [
        "▁besökare",
        -9.817892238977183
      ],
      [
        "▁mängd",
        -9.818279869007041
      ],
      [
        "▁Andersson",
        -9.819246133727138
      ],
      [
        "▁höger",
        -9.819374546692158
      ],
      [
        "▁uppdatera",
        -9.819444294051742
      ],
      [
        "▁Lars",
        -9.822137281254152
      ],
      [
        "▁rent",
        -9.823672347732893
      ],
      [
        "En",
        -9.824326920164852
      ],
      [
        "bo",
        -9.824449040580825
      ],
      [
        "▁smak",
        -9.825587966338414
      ],
      [
        "▁skada",
        -9.82560814337959
      ],
      [
        "ga",
        -9.825618534086138
      ],
      [
        "▁klimat",
        -9.825662024720515
      ],
      [
        "Klicka",
        -9.826613496538839
      ],
      [
        "▁La",
        -9.82698023509393
      ],
      [
        "valet",
        -9.8287353370301
      ],
      [
        "▁övrigt",
        -9.829500357878544
      ],
      [
        "▁kredit",
        -9.83022793221321
      ],
      [
        "▁sverige",
        -9.830959938193507
      ],
      [
        "▁luft",
        -9.831043244247871
      ],
      [
        "▁maskinövers",
        -9.83131082997475
      ],
      [
        "http",
        -9.831313609979404
      ],
      [
        "▁la",
        -9.831355754799066
      ],
      [
        "▁chans",
        -9.831802776645546
      ],
      [
        "▁bolag",
        -9.831805739401812
      ],
      [
        "ökad",
        -9.832058249455129
      ],
      [
        "ch",
        -9.832378847805213
      ],
      [
        "▁natten",
        -9.834340192397253
      ],
      [
        "▁universitet",
        -9.834428377586525
      ],
      [
        "njuta",
        -9.834619604843029
      ],
      [
        "▁kropp",
        -9.835718989337614
      ],
      [
        "slutade",
        -9.836135704304393
      ],
      [
        "▁tankar",
        -9.83659898187987
      ],
      [
        "▁kommentar",
        -9.837955687312775
      ],
      [
        "▁kommentarer",
        -9.83904399091905
      ],
      [
        "▁FV",
        -9.839391354790793
      ],
      [
        "kort",
        -9.839531957563727
      ],
      [
        "▁ben",
        -9.839829536363492
      ],
      [
        "▁El",
        -9.8408091472515
      ],
      [
        "▁Trots",
        -9.84465450230211
      ],
      [
        "▁ladda",
        -9.844996038729176
      ],
      [
        "betydligt",
        -9.846473581835166
      ],
      [
        "▁Finns",
        -9.849865721171792
      ],
      [
        "▁prova",
        -9.850356792543849
      ],
      [
        "årets",
        -9.850527024789912
      ],
      [
        "▁läst",
        -9.852099872037808
      ],
      [
        "▁någonsin",
        -9.852362854596084
      ],
      [
        "▁starta",
        -9.852509374210792
      ],
      [
        "▁konto",
        -9.852610401906166
      ],
      [
        "▁video",
        -9.852733506681126
      ],
      [
        "▁dam",
        -9.852983804351052
      ],
      [
        "▁verktyg",
        -9.853060397826486
      ],
      [
        "▁härlig",
        -9.85429820234151
      ],
      [
        "▁bidrag",
        -9.854466649742985
      ],
      [
        "▁tjej",
        -9.854679983130014
      ],
      [
        "starkt",
        -9.85521156476551
      ],
      [
        "▁ske",
        -9.855886309308508
      ],
      [
        "▁kap",
        -9.856174427179297
      ],
      [
        "vore",
        -9.857168416773607
      ],
      [
        "Få",
        -9.858074396267272
      ],
      [
        "▁höst",
        -9.858208499522686
      ],
      [
        "▁helg",
        -9.859220803170684
      ],
      [
        "tydligt",
        -9.859542513205392
      ],
      [
        "▁Mitt",
        -9.85974771879043
      ],
      [
        "▁funktion",
        -9.860107840767094
      ],
      [
        "vakna",
        -9.861690786424685
      ],
      [
        "▁Fortsätt",
        -9.86420852709223
      ],
      [
        "▁priset",
        -9.86685070366481
      ],
      [
        "▁ensam",
        -9.868944339722015
      ],
      [
        "plats",
        -9.869016664327118
      ],
      [
        "▁etc",
        -9.870130078016512
      ],
      [
        "▁valde",
        -9.87071942211534
      ],
      [
        "▁vinter",
        -9.871418723299104
      ],
      [
        "▁läs",
        -9.871719838862878
      ],
      [
        "utveckling",
        -9.872110113093925
      ],
      [
        "▁ordning",
        -9.872508283867358
      ],
      [
        "▁partner",
        -9.872613969313324
      ],
      [
        "▁försök",
        -9.872789480757609
      ],
      [
        "Se",
        -9.873170081642309
      ],
      [
        "▁betydelse",
        -9.87334904743419
      ],
      [
        "rätt",
        -9.8738422059892
      ],
      [
        "▁studie",
        -9.874386451057928
      ],
      [
        "▁innehåll",
        -9.87473121414816
      ],
      [
        "os",
        -9.875025425507548
      ],
      [
        "▁färger",
        -9.87661891132136
      ],
      [
        "▁fantastiskt",
        -9.877622331607853
      ],
      [
        "▁Gud",
        -9.877897717206737
      ],
      [
        "det",
        -9.878073209556758
      ],
      [
        "▁bygg",
        -9.878582672096583
      ],
      [
        "▁listan",
        -9.879171456805583
      ],
      [
        "▁syn",
        -9.879819350650616
      ],
      [
        "▁drog",
        -9.880204852327735
      ],
      [
        "▁ungdomar",
        -9.880431858468434
      ],
      [
        "▁kärlek",
        -9.880551667996697
      ],
      [
        "personliga",
        -9.881167816635745
      ],
      [
        "▁våren",
        -9.885364184154268
      ],
      [
        "▁cookies",
        -9.885528917399004
      ],
      [
        "▁Välj",
        -9.885709937762078
      ],
      [
        "▁läkare",
        -9.885769699875281
      ],
      [
        "▁medel",
        -9.885871373295608
      ],
      [
        "▁kalla",
        -9.886601481141643
      ],
      [
        "▁kurs",
        -9.886647802006554
      ],
      [
        "▁skäl",
        -9.887619396284647
      ],
      [
        "▁stjärnor",
        -9.888448208806613
      ],
      [
        "iskt",
        -9.889480928372317
      ],
      [
        "perioden",
        -9.889483918935964
      ],
      [
        "Vilken",
        -9.889659687964514
      ],
      [
        "Ibland",
        -9.889852703337318
      ],
      [
        "▁uppskatta",
        -9.890506001018169
      ],
      [
        "▁Nya",
        -9.891913721168475
      ],
      [
        "branschen",
        -9.89324985305492
      ],
      [
        "▁Hotels",
        -9.893396629620941
      ],
      [
        "sta",
        -9.893638801217374
      ],
      [
        "bok",
        -9.894116389081512
      ],
      [
        "▁bank",
        -9.894223703982558
      ],
      [
        "▁klass",
        -9.89442190582518
      ],
      [
        "▁fantastisk",
        -9.895381755220132
      ],
      [
        "▁ligga",
        -9.89538519080229
      ],
      [
        "▁Lite",
        -9.895860954134394
      ],
      [
        "▁brott",
        -9.897522546285138
      ],
      [
        "▁omdömet",
        -9.898029548324054
      ],
      [
        "skador",
        -9.898528053050535
      ],
      [
        "▁talar",
        -9.899146032122594
      ],
      [
        "▁aktiviteter",
        -9.899280653445874
      ],
      [
        "▁ihåg",
        -9.900841061302142
      ],
      [
        "lag",
        -9.900892641816442
      ],
      [
        "ma",
        -9.901696926999936
      ],
      [
        "ering",
        -9.901818844547089
      ],
      [
        "▁risker",
        -9.902404585457985
      ],
      [
        "▁hälso",
        -9.902638442045468
      ],
      [
        "självklart",
        -9.90272423764741
      ],
      [
        "▁privat",
        -9.902973524409276
      ],
      [
        "▁medlem",
        -9.903482036257548
      ],
      [
        "▁erbjudanden",
        -9.904994771261826
      ],
      [
        "▁villkor",
        -9.905416476130423
      ],
      [
        "gen",
        -9.906318161152791
      ],
      [
        "▁trygg",
        -9.906757194768495
      ],
      [
        "▁mera",
        -9.907176529023548
      ],
      [
        "▁far",
        -9.908949696552279
      ],
      [
        "▁varmt",
        -9.91002626800518
      ],
      [
        "▁sist",
        -9.911776253894288
      ],
      [
        "▁solen",
        -9.912388995570597
      ],
      [
        "▁ME",
        -9.913850496402103
      ],
      [
        "▁sluta",
        -9.914335608891117
      ],
      [
        "ha",
        -9.914675108712224
      ],
      [
        "▁standard",
        -9.9157070623571
      ],
      [
        "▁fönster",
        -9.915994317835244
      ],
      [
        "klubben",
        -9.916105263349579
      ],
      [
        "▁middag",
        -9.916874605811488
      ],
      [
        "▁sport",
        -9.916879112947651
      ],
      [
        "▁mesta",
        -9.917252355157034
      ],
      [
        "▁klicka",
        -9.917496777391861
      ],
      [
        "plötslig",
        -9.917925089959422
      ],
      [
        "▁projektet",
        -9.918069580580722
      ],
      [
        "▁nej",
        -9.919023834622056
      ],
      [
        "▁vin",
        -9.919151401322274
      ],
      [
        "▁Andra",
        -9.91943545081456
      ],
      [
        "äntligen",
        -9.92057089813068
      ],
      [
        "taget",
        -9.920977677128754
      ],
      [
        "▁häst",
        -9.921369566902092
      ],
      [
        "lämnar",
        -9.922545850786191
      ],
      [
        "▁avtal",
        -9.923144063869925
      ],
      [
        "▁free",
        -9.925553398079256
      ],
      [
        "▁lyssna",
        -9.927861901761766
      ],
      [
        "▁passa",
        -9.927899537681936
      ],
      [
        "▁svara",
        -9.928266399460199
      ],
      [
        "▁imorgon",
        -9.928410635167511
      ],
      [
        "▁tittar",
        -9.928461221131691
      ],
      [
        "fattar",
        -9.928863585723208
      ],
      [
        "▁Finland",
        -9.929019685132877
      ],
      [
        "▁populära",
        -9.929224765465413
      ],
      [
        "köper",
        -9.930168094466392
      ],
      [
        "trax",
        -9.930452137004671
      ],
      [
        "▁ingenting",
        -9.930927774210387
      ],
      [
        "▁guld",
        -9.931459353296427
      ],
      [
        "▁test",
        -9.931936350910629
      ],
      [
        "▁utvecklas",
        -9.93213471039533
      ],
      [
        "▁förutsättningar",
        -9.932175435688022
      ],
      [
        "▁plus",
        -9.933060446460093
      ],
      [
        "▁vita",
        -9.933885203946556
      ],
      [
        "Några",
        -9.933932916864572
      ],
      [
        "W",
        -9.934754741910215
      ],
      [
        "▁uppgift",
        -9.935539689989422
      ],
      [
        "rna",
        -9.935589300761361
      ],
      [
        "▁hamna",
        -9.938277727063962
      ],
      [
        "▁Fast",
        -9.93889432628541
      ],
      [
        "▁Gratis",
        -9.938924899674625
      ],
      [
        "▁förbi",
        -9.939048752920954
      ],
      [
        "▁fundera",
        -9.939496791736682
      ],
      [
        "▁internationella",
        -9.939513378535727
      ],
      [
        "▁osv",
        -9.939849591825979
      ],
      [
        "▁vattnet",
        -9.94082058583147
      ],
      [
        "förutom",
        -9.94100129984881
      ],
      [
        "▁låna",
        -9.941516484929608
      ],
      [
        "▁dålig",
        -9.941672167542235
      ],
      [
        "ner",
        -9.941812707192627
      ],
      [
        "ans",
        -9.941856316272164
      ],
      [
        "▁grader",
        -9.942407254480225
      ],
      [
        "▁syfte",
        -9.942411411776822
      ],
      [
        "▁social",
        -9.942492631969959
      ],
      [
        "▁slå",
        -9.943618164547269
      ],
      [
        "Ja",
        -9.943628762547196
      ],
      [
        "▁åtta",
        -9.944536282821312
      ],
      [
        "▁uttryck",
        -9.945429177184181
      ],
      [
        "del",
        -9.945583730487623
      ],
      [
        "▁gilla",
        -9.94590533225026
      ],
      [
        "▁tak",
        -9.946103288796273
      ],
      [
        "JL",
        -9.946218043818057
      ],
      [
        "▁timme",
        -9.947282263416628
      ],
      [
        "varor",
        -9.949834917985259
      ],
      [
        "▁restaurang",
        -9.949844021938606
      ],
      [
        "undrar",
        -9.950680334815576
      ],
      [
        "▁fantastiska",
        -9.95081688916697
      ],
      [
        "naturligtvis",
        -9.95140518186273
      ],
      [
        "va",
        -9.951842103560526
      ],
      [
        "▁lördag",
        -9.952225690459903
      ],
      [
        "▁omdöme",
        -9.952376124280917
      ],
      [
        "▁öppen",
        -9.953119993178262
      ],
      [
        "▁lägenhet",
        -9.953122141402353
      ],
      [
        "▁Lund",
        -9.953298013903654
      ],
      [
        "antingen",
        -9.953605164847682
      ],
      [
        "▁sova",
        -9.953660108513317
      ],
      [
        "▁bit",
        -9.954592261688036
      ],
      [
        "▁serie",
        -9.95503278680521
      ],
      [
        "form",
        -9.95721331917173
      ],
      [
        "pratar",
        -9.957259158019207
      ],
      [
        "▁Jan",
        -9.957361055327972
      ],
      [
        "▁utbud",
        -9.958742719188955
      ],
      [
        "▁lön",
        -9.959477598375818
      ],
      [
        "▁tillstånd",
        -9.959482503739157
      ],
      [
        "▁Nr",
        -9.959718604500894
      ],
      [
        "skydd",
        -9.960288791198714
      ],
      [
        "ADRESS",
        -9.960420050039993
      ],
      [
        "▁dagarna",
        -9.96092429410498
      ],
      [
        "arbete",
        -9.961729385617284
      ],
      [
        "▁promenad",
        -9.962410085919993
      ],
      [
        "▁matcher",
        -9.962529056657479
      ],
      [
        "▁parti",
        -9.962797039772672
      ],
      [
        "▁rolig",
        -9.963700766424639
      ],
      [
        "▁mg",
        -9.96372038249799
      ],
      [
        "▁fredag",
        -9.964130305313923
      ],
      [
        "▁vinst",
        -9.964622974557292
      ],
      [
        "▁ändring",
        -9.967702929331036
      ],
      [
        "▁medarbetare",
        -9.968951745296
      ],
      [
        "▁dejtingsida",
        -9.969404553651067
      ],
      [
        "▁datorn",
        -9.970976039861785
      ],
      [
        "ting",
        -9.97114200485191
      ],
      [
        "fri",
        -9.971188689373776
      ],
      [
        "▁barnet",
        -9.971363084799368
      ],
      [
        "använt",
        -9.971844793396256
      ],
      [
        "räcker",
        -9.972060791572451
      ],
      [
        "▁genomföra",
        -9.972137486772091
      ],
      [
        "kan",
        -9.972434477070745
      ],
      [
        "▁knappt",
        -9.972987173941727
      ],
      [
        "klarar",
        -9.97388655325462
      ],
      [
        "skickade",
        -9.973960548323385
      ],
      [
        "▁koll",
        -9.9742257704708
      ],
      [
        "finner",
        -9.974240894914198
      ],
      [
        "▁väder",
        -9.97448858500891
      ],
      [
        "▁polis",
        -9.97621734772281
      ],
      [
        "▁Fråga",
        -9.97809710204536
      ],
      [
        "▁Fredrik",
        -9.978464204903382
      ],
      [
        "▁modell",
        -9.97888827102184
      ],
      [
        "val",
        -9.979476025664743
      ],
      [
        "▁Skåne",
        -9.979540560351566
      ],
      [
        "▁mark",
        -9.979702295743898
      ],
      [
        "OF",
        -9.980125786139626
      ],
      [
        "fritt",
        -9.980431640157686
      ],
      [
        "▁IT",
        -9.9813379995639
      ],
      [
        "▁vacker",
        -9.981618991491427
      ],
      [
        "▁roliga",
        -9.981659715450284
      ],
      [
        "▁Re",
        -9.981672424015526
      ],
      [
        "yngre",
        -9.982458243596822
      ],
      [
        "▁beställa",
        -9.982591817762396
      ],
      [
        "annorlunda",
        -9.982612100409467
      ],
      [
        "▁sjuk",
        -9.983381408138548
      ],
      [
        "▁huvudet",
        -9.98364428594446
      ],
      [
        "▁Namn",
        -9.983754692798176
      ],
      [
        "kallade",
        -9.983900878821071
      ],
      [
        "▁Hem",
        -9.984025162520526
      ],
      [
        "ökat",
        -9.986255368387937
      ],
      [
        "▁bilar",
        -9.98728666545202
      ],
      [
        "▁Johansson",
        -9.987660940147466
      ],
      [
        "▁försäljning",
        -9.989237283193841
      ],
      [
        "▁Din",
        -9.989375820646039
      ],
      [
        "▁bloggen",
        -9.98975459696327
      ],
      [
        "▁Bli",
        -9.992177612588357
      ],
      [
        "Våra",
        -9.992258112214511
      ],
      [
        "växer",
        -9.992977156476481
      ],
      [
        "▁Visst",
        -9.99303633588334
      ],
      [
        "▁rummet",
        -9.993690194474048
      ],
      [
        "skolan",
        -9.993694373230065
      ],
      [
        "▁www",
        -9.994153143951518
      ],
      [
        "▁dejt",
        -9.994193812195867
      ],
      [
        "▁söndag",
        -9.995111117263013
      ],
      [
        "▁nåt",
        -9.995469685795179
      ],
      [
        "äger",
        -9.995556061202812
      ],
      [
        "▁patienter",
        -9.996053592224463
      ],
      [
        "▁offentlig",
        -9.997139884349519
      ],
      [
        "vi",
        -9.99738946057229
      ],
      [
        "undvika",
        -9.998102628251468
      ],
      [
        "▁sjukdom",
        -9.998756028130455
      ],
      [
        "▁värld",
        -9.999428644392
      ],
      [
        "▁regn",
        -9.999663049294016
      ],
      [
        "▁kommuner",
        -10.000157811834224
      ],
      [
        "lyckades",
        -10.00170301452393
      ],
      [
        "▁mår",
        -10.001747886177453
      ],
      [
        "▁blå",
        -10.002318463602684
      ],
      [
        "▁enkla",
        -10.002366613554692
      ],
      [
        "▁orsaka",
        -10.002660195445081
      ],
      [
        "▁dels",
        -10.003141939312421
      ],
      [
        "hänt",
        -10.003413299039796
      ],
      [
        "Tack",
        -10.003801042815168
      ],
      [
        "tes",
        -10.004173354547204
      ],
      [
        "▁Örebro",
        -10.004950133088428
      ],
      [
        "▁Använd",
        -10.005692426210185
      ],
      [
        "▁ansökan",
        -10.006261355125703
      ],
      [
        "ämre",
        -10.007141576454067
      ],
      [
        "▁idé",
        -10.007632523025695
      ],
      [
        "▁utvecklingen",
        -10.007723058046505
      ],
      [
        "▁butik",
        -10.008322951427855
      ],
      [
        "▁Lägg",
        -10.009138881003858
      ],
      [
        "🙂",
        -10.009761276737935
      ],
      [
        "▁kostnader",
        -10.009924868338635
      ],
      [
        "▁öppet",
        -10.011521924221862
      ],
      [
        "känt",
        -10.012640801808354
      ],
      [
        "▁slag",
        -10.012656135502569
      ],
      [
        "▁Sätt",
        -10.012685118257208
      ],
      [
        "▁Bästa",
        -10.01271633343342
      ],
      [
        "▁Bild",
        -10.012772385451456
      ],
      [
        "▁OK",
        -10.012793811713875
      ],
      [
        "▁princip",
        -10.0129913086802
      ],
      [
        "▁timmen",
        -10.013507570595396
      ],
      [
        "nuvarande",
        -10.013631497883875
      ],
      [
        "▁skit",
        -10.013893933039244
      ],
      [
        "ca",
        -10.014124207758359
      ],
      [
        "min",
        -10.014619535433383
      ],
      [
        "gården",
        -10.015052537212522
      ],
      [
        "▁längs",
        -10.015828493212245
      ],
      [
        "företag",
        -10.015906569203372
      ],
      [
        "▁Ö",
        -10.016744744765749
      ],
      [
        "nivå",
        -10.01730948522185
      ],
      [
        "▁Över",
        -10.01821952341208
      ],
      [
        "▁lösning",
        -10.0189217898979
      ],
      [
        "▁högst",
        -10.020077335437405
      ],
      [
        "▁Hos",
        -10.02008015261728
      ],
      [
        "▁Bland",
        -10.020286060141517
      ],
      [
        "▁drabba",
        -10.020556334441075
      ],
      [
        "▁våld",
        -10.021230646845876
      ],
      [
        "stad",
        -10.021491641196217
      ],
      [
        "▁tala",
        -10.022302326005368
      ],
      [
        "▁An",
        -10.023078119543227
      ],
      [
        "▁riktig",
        -10.024366115050812
      ],
      [
        "▁period",
        -10.024465570633172
      ],
      [
        "▁tionde",
        -10.024640560044217
      ],
      [
        "▁himla",
        -10.024663598265526
      ],
      [
        "▁hot",
        -10.02596316346257
      ],
      [
        "bjuder",
        -10.02596726241446
      ],
      [
        "▁intresserad",
        -10.026575966677203
      ],
      [
        "träffar",
        -10.02662962110205
      ],
      [
        "▁special",
        -10.026899552307656
      ],
      [
        "visas",
        -10.027422662699829
      ],
      [
        "▁namnet",
        -10.028588803072491
      ],
      [
        "anses",
        -10.02884291740255
      ],
      [
        "▁Kom",
        -10.02910306827932
      ],
      [
        "▁global",
        -10.029385271181168
      ],
      [
        "ökade",
        -10.031178596290589
      ],
      [
        "numera",
        -10.031399808520476
      ],
      [
        "skrevs",
        -10.032112152037406
      ],
      [
        "någonting",
        -10.032728163310061
      ],
      [
        "▁All",
        -10.033880693740018
      ],
      [
        "▁miljarder",
        -10.034732568719873
      ],
      [
        "▁trafik",
        -10.035167315817496
      ],
      [
        "▁säljer",
        -10.03523934590361
      ],
      [
        "▁havet",
        -10.036065204137042
      ],
      [
        "▁förmåga",
        -10.03644201467477
      ],
      [
        "▁satte",
        -10.037749980414933
      ],
      [
        "▁rättigheter",
        -10.037952739823416
      ],
      [
        "▁Svensk",
        -10.040448744822802
      ],
      [
        "▁djup",
        -10.040613185403073
      ],
      [
        "▁Upp",
        -10.040967853350939
      ],
      [
        "▁nyligen",
        -10.041172037297454
      ],
      [
        "▁budget",
        -10.042250564706857
      ],
      [
        "▁samhälle",
        -10.042414813112082
      ],
      [
        "co",
        -10.045768406401281
      ],
      [
        "sättet",
        -10.045784808114002
      ],
      [
        "▁missa",
        -10.046076791307575
      ],
      [
        "ll",
        -10.04626099492995
      ],
      [
        "▁lagt",
        -10.046362449700336
      ],
      [
        "ernas",
        -10.046627140479005
      ],
      [
        "▁bred",
        -10.047275782379899
      ],
      [
        "▁platsen",
        -10.047387007232176
      ],
      [
        "▁alkohol",
        -10.047820018939232
      ],
      [
        "Vilka",
        -10.047963174717706
      ],
      [
        "▁tryck",
        -10.048932610730008
      ],
      [
        "▁resultatet",
        -10.049539153242202
      ],
      [
        "resa",
        -10.049631295134114
      ],
      [
        "▁inkludera",
        -10.050503960056854
      ],
      [
        "Vissa",
        -10.050620506646819
      ],
      [
        "lan",
        -10.051151335339801
      ],
      [
        "huden",
        -10.051828482992919
      ],
      [
        "igen",
        -10.051966704906032
      ],
      [
        "▁amerikanska",
        -10.052191755785234
      ],
      [
        "▁dv",
        -10.053569386971006
      ],
      [
        "▁situation",
        -10.053963416821404
      ],
      [
        "▁Internet",
        -10.053985669089245
      ],
      [
        "Igår",
        -10.054079789297145
      ],
      [
        "▁Google",
        -10.054711953429736
      ],
      [
        "U",
        -10.054989077804272
      ],
      [
        "▁medier",
        -10.055018581588714
      ],
      [
        "▁stolt",
        -10.055606337885674
      ],
      [
        "▁bedriv",
        -10.056122301398249
      ],
      [
        "▁spår",
        -10.056515397061482
      ],
      [
        "fylla",
        -10.056655830419357
      ],
      [
        "▁gett",
        -10.05725181539114
      ],
      [
        "▁slog",
        -10.057365829366127
      ],
      [
        "såklart",
        -10.05815119597694
      ],
      [
        "▁Carl",
        -10.058389019279733
      ],
      [
        "▁bakgrund",
        -10.058748926554891
      ],
      [
        "▁prov",
        -10.060067876281382
      ],
      [
        "▁må",
        -10.060154747678707
      ],
      [
        "▁människa",
        -10.060682991285518
      ],
      [
        "▁köpt",
        -10.060787530492002
      ],
      [
        "▁Först",
        -10.061043871140361
      ],
      [
        "aktuella",
        -10.06108059294344
      ],
      [
        "ler",
        -10.061253254796398
      ],
      [
        "▁Tre",
        -10.061271188677416
      ],
      [
        "modligen",
        -10.06220872912853
      ],
      [
        "produkter",
        -10.062526425132464
      ],
      [
        "aren",
        -10.063453137306668
      ],
      [
        "▁trevligt",
        -10.0638649133977
      ],
      [
        "▁måndag",
        -10.06420603255699
      ],
      [
        "TV",
        -10.064773080730317
      ],
      [
        "▁Martin",
        -10.06482595375062
      ],
      [
        "uppgifter",
        -10.064923982417035
      ],
      [
        "▁cykel",
        -10.066171756275116
      ],
      [
        "▁Dock",
        -10.066269238174005
      ],
      [
        "skor",
        -10.066582676611697
      ],
      [
        "relativt",
        -10.066715780695679
      ],
      [
        "möjliga",
        -10.066748382478426
      ],
      [
        "▁Norge",
        -10.067431463325716
      ],
      [
        "erade",
        -10.068575569492639
      ],
      [
        "▁förhållande",
        -10.06920160675834
      ],
      [
        "sjö",
        -10.070026756639537
      ],
      [
        "risken",
        -10.070676662086072
      ],
      [
        "▁mitten",
        -10.070939507962752
      ],
      [
        "priserna",
        -10.071171429458989
      ],
      [
        "▁bar",
        -10.072141817535702
      ],
      [
        "▁Online",
        -10.072292444858174
      ],
      [
        "möta",
        -10.072648338280485
      ],
      [
        "▁tillväxt",
        -10.073961687791074
      ],
      [
        "ordentligt",
        -10.074566232808388
      ],
      [
        "J",
        -10.074651914876119
      ],
      [
        "▁mån",
        -10.076972271812764
      ],
      [
        "▁Tyskland",
        -10.077328682998285
      ],
      [
        "oc",
        -10.07874558423186
      ],
      [
        "▁acceptera",
        -10.07892364814636
      ],
      [
        "bestämt",
        -10.078959787021894
      ],
      [
        "▁välkomna",
        -10.079281342525933
      ],
      [
        "▁Park",
        -10.079871477437914
      ],
      [
        "klare",
        -10.082110613477662
      ],
      [
        "mark",
        -10.082941573537367
      ],
      [
        "pris",
        -10.083726319272941
      ],
      [
        "▁City",
        -10.085343657574857
      ],
      [
        "▁pengarna",
        -10.0853988166402
      ],
      [
        "▁sällan",
        -10.085883118872001
      ],
      [
        "fall",
        -10.086320766681741
      ],
      [
        "▁betalar",
        -10.086780953220654
      ],
      [
        "▁ses",
        -10.087561472496603
      ],
      [
        "funkar",
        -10.087611598286763
      ],
      [
        "lar",
        -10.087649890625052
      ],
      [
        "▁London",
        -10.088403968908452
      ],
      [
        "ling",
        -10.088629023511738
      ],
      [
        "▁samla",
        -10.088884026208623
      ],
      [
        "me",
        -10.089627089716704
      ],
      [
        "omfattande",
        -10.089764963098563
      ],
      [
        "▁lösningar",
        -10.089916070149703
      ],
      [
        "▁föreslå",
        -10.090513936088692
      ],
      [
        "▁säsong",
        -10.09106453964192
      ],
      [
        "var",
        -10.091095325105059
      ],
      [
        "perfekta",
        -10.092780858651201
      ],
      [
        "▁plast",
        -10.09309640079139
      ],
      [
        "tar",
        -10.094281251622222
      ],
      [
        "▁modern",
        -10.094533890622763
      ],
      [
        "åtminston",
        -10.094999175912548
      ],
      [
        "chef",
        -10.095157652349137
      ],
      [
        "lyckats",
        -10.09576861140678
      ],
      [
        "Förutom",
        -10.09660141804533
      ],
      [
        "▁Gör",
        -10.09740070111511
      ],
      [
        "▁Pro",
        -10.097429449729676
      ],
      [
        "▁normalt",
        -10.097565375018988
      ],
      [
        "▁stockholm",
        -10.097570105022065
      ],
      [
        "▁Erik",
        -10.098305987537115
      ],
      [
        "pdf",
        -10.098581899130155
      ],
      [
        "körde",
        -10.098660510977265
      ],
      [
        "▁undan",
        -10.100646940881226
      ],
      [
        "▁förvänta",
        -10.101030879114802
      ],
      [
        "Skulle",
        -10.101037299123593
      ],
      [
        "▁centrala",
        -10.101378106949676
      ],
      [
        "▁kontrollera",
        -10.102158945320355
      ],
      [
        "lämnade",
        -10.103120301905996
      ],
      [
        "▁besöka",
        -10.103324991525486
      ],
      [
        "▁Inga",
        -10.104020703600376
      ],
      [
        "ven",
        -10.104102780466356
      ],
      [
        "Omdöme",
        -10.104287269677636
      ],
      [
        "jag",
        -10.104628846909469
      ],
      [
        "▁Anmäl",
        -10.104787343123162
      ],
      [
        "▁snygg",
        -10.105558656473784
      ],
      [
        "tekniska",
        -10.105948879067853
      ],
      [
        "▁US",
        -10.106102755079352
      ],
      [
        "lin",
        -10.106199122228448
      ],
      [
        "▁satsa",
        -10.106271624468054
      ],
      [
        "▁samhälls",
        -10.106909192488182
      ],
      [
        "▁Z",
        -10.107014933725898
      ],
      [
        "bild",
        -10.107779462984757
      ],
      [
        "▁ges",
        -10.108087593933393
      ],
      [
        "processen",
        -10.10878647688097
      ],
      [
        "▁Inn",
        -10.108794352414877
      ],
      [
        "▁datum",
        -10.10900467959537
      ],
      [
        "liggande",
        -10.109175458843996
      ],
      [
        "▁York",
        -10.109776621077375
      ],
      [
        "▁info",
        -10.110495691098487
      ],
      [
        "▁Y",
        -10.111213731816534
      ],
      [
        "tog",
        -10.112582865784258
      ],
      [
        "vända",
        -10.112830767061663
      ],
      [
        "ella",
        -10.11318828133101
      ],
      [
        "▁garantera",
        -10.114808676074954
      ],
      [
        "▁rekommenderar",
        -10.114968324732175
      ],
      [
        "▁brev",
        -10.115443321162124
      ],
      [
        "ön",
        -10.115865586224187
      ],
      [
        "▁läkemedel",
        -10.115932452733102
      ],
      [
        "▁leta",
        -10.116526582362171
      ],
      [
        "EN",
        -10.116608728212107
      ],
      [
        "▁Casino",
        -10.116946255651333
      ],
      [
        "▁ställe",
        -10.118290218351772
      ],
      [
        "liv",
        -10.11873142767943
      ],
      [
        "▁morgonen",
        -10.118852955188602
      ],
      [
        "▁sjukhus",
        -10.119419225756221
      ],
      [
        "▁blod",
        -10.119592243553116
      ],
      [
        "kombinera",
        -10.119603469758037
      ],
      [
        "▁stress",
        -10.119835464795774
      ],
      [
        "▁Nästa",
        -10.120808271130974
      ],
      [
        "▁utnyttja",
        -10.121689892576073
      ],
      [
        "▁bas",
        -10.122606987335427
      ],
      [
        "▁uppnå",
        -10.12272658190388
      ],
      [
        "▁räkna",
        -10.122798574272167
      ],
      [
        "▁mil",
        -10.123131875573922
      ],
      [
        "▁sikt",
        -10.123458921899237
      ],
      [
        "sida",
        -10.124099436383673
      ],
      [
        "▁makt",
        -10.124357219901528
      ],
      [
        "▁Hade",
        -10.125097193663871
      ],
      [
        "▁tillfälle",
        -10.12516284433348
      ],
      [
        "▁snabba",
        -10.125388938760139
      ],
      [
        "▁Första",
        -10.125774030773249
      ],
      [
        "▁önska",
        -10.126947430698726
      ],
      [
        "▁haha",
        -10.127509110315101
      ],
      [
        "▁skön",
        -10.128155315920452
      ],
      [
        "mötet",
        -10.128864326771692
      ],
      [
        "▁kille",
        -10.130119336934136
      ],
      [
        "▁möte",
        -10.13027011217831
      ],
      [
        "→",
        -10.130420818029558
      ],
      [
        "▁säkra",
        -10.130808267542807
      ],
      [
        "▁förlora",
        -10.130924846889146
      ],
      [
        "slår",
        -10.131497812141182
      ],
      [
        "▁oro",
        -10.132457556323677
      ],
      [
        "▁massage",
        -10.132775137262533
      ],
      [
        "▁kök",
        -10.132974457437674
      ],
      [
        "▁studier",
        -10.133140767078116
      ],
      [
        "▁inlägget",
        -10.13315506069679
      ],
      [
        "dagen",
        -10.133955533789727
      ],
      [
        "▁görs",
        -10.135531549501376
      ],
      [
        "ständigt",
        -10.135941898615867
      ],
      [
        "▁restauranger",
        -10.137953474360568
      ],
      [
        "visat",
        -10.138215519267105
      ],
      [
        "▁adress",
        -10.13862104421119
      ],
      [
        "▁norr",
        -10.13992728833895
      ],
      [
        "▁Sök",
        -10.140313568511315
      ],
      [
        "ve",
        -10.140377776228053
      ],
      [
        "▁positiv",
        -10.140507995691907
      ],
      [
        "▁live",
        -10.143527905560685
      ],
      [
        "▁röd",
        -10.143565505841856
      ],
      [
        "startade",
        -10.144016717087382
      ],
      [
        "skilda",
        -10.144974985462657
      ],
      [
        "allmänna",
        -10.145009290581664
      ],
      [
        "▁glädje",
        -10.145178185382127
      ],
      [
        "▁Själv",
        -10.14524279504627
      ],
      [
        "ställen",
        -10.145289563978924
      ],
      [
        "▁slags",
        -10.145727923194496
      ],
      [
        "▁leverans",
        -10.146242334676915
      ],
      [
        "▁Vet",
        -10.14640576665617
      ],
      [
        "svarade",
        -10.147261977817935
      ],
      [
        "▁webbplatser",
        -10.147854573970724
      ],
      [
        "▁ung",
        -10.147869211179184
      ],
      [
        "gemensamma",
        -10.148924566451077
      ],
      [
        "▁ringa",
        -10.148982267405879
      ],
      [
        "▁utföra",
        -10.150146633883672
      ],
      [
        "titeln",
        -10.150396911515823
      ],
      [
        "▁Vem",
        -10.150746318758138
      ],
      [
        "▁ägare",
        -10.152127419906238
      ],
      [
        "▁glöm",
        -10.152413138047073
      ],
      [
        "▁säkerhets",
        -10.152897133460181
      ],
      [
        "é",
        -10.153666777736081
      ],
      [
        "▁varm",
        -10.154045712152042
      ],
      [
        "butiken",
        -10.15464573220278
      ],
      [
        "▁tuff",
        -10.157133828218907
      ],
      [
        "▁förut",
        -10.157189815982633
      ],
      [
        "motsvarande",
        -10.157744697504569
      ],
      [
        "förbundet",
        -10.157766407882434
      ],
      [
        "▁grupper",
        -10.158543676065912
      ],
      [
        "träffade",
        -10.159604751517767
      ],
      [
        "▁upplevelse",
        -10.160306099285824
      ],
      [
        "▁Nilsson",
        -10.160644032774691
      ],
      [
        "▁Stefan",
        -10.161109710076591
      ],
      [
        "▁förklara",
        -10.162434330047269
      ],
      [
        "▁nummer",
        -10.16282372372078
      ],
      [
        "▁följd",
        -10.164126308766434
      ],
      [
        "▁tvinga",
        -10.164988203386718
      ],
      [
        "▁Spel",
        -10.165635476865857
      ],
      [
        "▁enskild",
        -10.166177345689588
      ],
      [
        "▁styr",
        -10.166930455526556
      ],
      [
        "minns",
        -10.167012689384144
      ],
      [
        "ades",
        -10.167394627429351
      ],
      [
        "▁fixa",
        -10.16776881158365
      ],
      [
        "▁you",
        -10.168216119782933
      ],
      [
        "▁starka",
        -10.168982279104087
      ],
      [
        "▁kilometer",
        -10.169638441024146
      ],
      [
        "▁användare",
        -10.170198163177128
      ],
      [
        "▁skydda",
        -10.171528792317146
      ],
      [
        "▁svåra",
        -10.171787905039285
      ],
      [
        "▁media",
        -10.17299592332823
      ],
      [
        "chansen",
        -10.173212838007132
      ],
      [
        "befinner",
        -10.173492325056745
      ],
      [
        "▁funktioner",
        -10.173673045727204
      ],
      [
        "▁post",
        -10.174332269051597
      ],
      [
        "▁sten",
        -10.174338194090645
      ],
      [
        "▁frukt",
        -10.174343865690133
      ],
      [
        "idéer",
        -10.17451091312251
      ],
      [
        "▁Frankrike",
        -10.174778996392092
      ],
      [
        "ivetvis",
        -10.176746310520315
      ],
      [
        "avseende",
        -10.176830303128513
      ],
      [
        "band",
        -10.176856664855176
      ],
      [
        "bilderna",
        -10.177495971757914
      ],
      [
        "▁Bil",
        -10.17811912576717
      ],
      [
        "▁problemet",
        -10.178261458145428
      ],
      [
        "▁kyrkan",
        -10.179351234252934
      ],
      [
        "möjligheten",
        -10.179737298612228
      ],
      [
        "teknik",
        -10.180856041775433
      ],
      [
        "▁tal",
        -10.181056902756778
      ],
      [
        "verksamhet",
        -10.181492408584868
      ],
      [
        "material",
        -10.18204305449902
      ],
      [
        "▁vila",
        -10.182293139320812
      ],
      [
        "eleverna",
        -10.183198920208634
      ],
      [
        "▁stycken",
        -10.183425858737037
      ],
      [
        "lade",
        -10.183860359551463
      ],
      [
        "▁organisation",
        -10.183920729003008
      ],
      [
        "▁Stor",
        -10.183982562535839
      ],
      [
        "▁använde",
        -10.184260405709995
      ],
      [
        "▁ersättning",
        -10.185644977630345
      ],
      [
        "▁St",
        -10.18604329887747
      ],
      [
        "letar",
        -10.18614583550548
      ],
      [
        "▁tjänst",
        -10.187242465638448
      ],
      [
        "snabbare",
        -10.187373764155275
      ],
      [
        "én",
        -10.18767532966046
      ],
      [
        "planen",
        -10.188036909897104
      ],
      [
        "▁röst",
        -10.188560343214618
      ],
      [
        "▁Daniel",
        -10.18902495352625
      ],
      [
        "▁politiker",
        -10.189228771714758
      ],
      [
        "▁illa",
        -10.189284123277043
      ],
      [
        "▁digitala",
        -10.189915219757353
      ],
      [
        "▁SVT",
        -10.191311172617471
      ],
      [
        "nar",
        -10.191631837383209
      ],
      [
        "▁fyller",
        -10.19166443052783
      ],
      [
        "▁röda",
        -10.192328254554582
      ],
      [
        "▁ägg",
        -10.193023694631547
      ],
      [
        "situationen",
        -10.193636853010505
      ],
      [
        "känslan",
        -10.193803079776082
      ],
      [
        "beskriver",
        -10.194802251150596
      ],
      [
        "▁choklad",
        -10.195018392885101
      ],
      [
        "▁översättning",
        -10.195356905753142
      ],
      [
        "glada",
        -10.195374948207004
      ],
      [
        "▁bi",
        -10.195515176639383
      ],
      [
        "▁filmer",
        -10.195742824936142
      ],
      [
        "▁magen",
        -10.196939234200125
      ],
      [
        "▁kombination",
        -10.199373039684101
      ],
      [
        "▁Ålder",
        -10.199679885624652
      ],
      [
        "lån",
        -10.200842099355452
      ],
      [
        "▁ämnen",
        -10.200963863655575
      ],
      [
        "▁sån",
        -10.202228137917242
      ],
      [
        "ordet",
        -10.202797502917397
      ],
      [
        "▁naturen",
        -10.203237040884419
      ],
      [
        "tur",
        -10.203765165253952
      ],
      [
        "X",
        -10.205304783462994
      ],
      [
        "▁foto",
        -10.205500793492849
      ],
      [
        "befintlig",
        -10.205904656320437
      ],
      [
        "konstigt",
        -10.206298355841755
      ],
      [
        "▁moderna",
        -10.206333776988702
      ],
      [
        "▁Wi",
        -10.20662204423439
      ],
      [
        "▁förändringar",
        -10.206696998692083
      ],
      [
        "information",
        -10.206705267914998
      ],
      [
        "▁John",
        -10.206787921914525
      ],
      [
        "berättade",
        -10.207736440056642
      ],
      [
        "▁mail",
        -10.20803732230531
      ],
      [
        "▁Någon",
        -10.208426894599693
      ],
      [
        "▁förändring",
        -10.209397535440154
      ],
      [
        "▁jämföra",
        -10.209411493139434
      ],
      [
        "▁butiker",
        -10.209823269270961
      ],
      [
        "▁År",
        -10.209902609706965
      ],
      [
        "hem",
        -10.210356784698114
      ],
      [
        "partiet",
        -10.212838926151589
      ],
      [
        "▁jord",
        -10.214771068735425
      ],
      [
        "Om",
        -10.215123970305203
      ],
      [
        "▁Del",
        -10.215207497868619
      ],
      [
        "▁livs",
        -10.215587156953292
      ],
      [
        "▁redo",
        -10.215982820796299
      ],
      [
        "▁skogen",
        -10.216385886241905
      ],
      [
        "▁tecken",
        -10.216838630220886
      ],
      [
        "pass",
        -10.217045785966905
      ],
      [
        "lös",
        -10.217229523077249
      ],
      [
        "▁dotter",
        -10.217871174504891
      ],
      [
        "▁chef",
        -10.217883596276774
      ],
      [
        "aktivt",
        -10.218072728447046
      ],
      [
        "positivt",
        -10.218310375099605
      ],
      [
        "▁dyr",
        -10.218623416044041
      ],
      [
        "▁Gå",
        -10.21864175380979
      ],
      [
        "▁ovanlig",
        -10.21964653238105
      ],
      [
        "▁hundar",
        -10.220056823573792
      ],
      [
        "°",
        -10.220122410607326
      ],
      [
        "hittills",
        -10.22068906274396
      ],
      [
        "▁fart",
        -10.22096903517245
      ],
      [
        "varken",
        -10.220971835491564
      ],
      [
        "påverkar",
        -10.221230714675492
      ],
      [
        "▁avsnitt",
        -10.221250135902807
      ],
      [
        "▁webbplatsen",
        -10.221522121115598
      ],
      [
        "▁snygga",
        -10.221595401455605
      ],
      [
        "▁utomhus",
        -10.221804972916694
      ],
      [
        "▁hänsyn",
        -10.222287983769377
      ],
      [
        "▁Dam",
        -10.222331485000591
      ],
      [
        "värre",
        -10.222551393158804
      ],
      [
        "▁TripAdvisor",
        -10.222834389136192
      ],
      [
        "från",
        -10.224245916045213
      ],
      [
        "▁världs",
        -10.224748811084881
      ],
      [
        "rådet",
        -10.225042004524703
      ],
      [
        "▁informationen",
        -10.225591310457462
      ],
      [
        "▁San",
        -10.226921011194813
      ],
      [
        "▁katt",
        -10.227000582771653
      ],
      [
        "▁detaljer",
        -10.227252441872926
      ],
      [
        "funnits",
        -10.227906989274778
      ],
      [
        "ord",
        -10.228071626700444
      ],
      [
        "▁Umeå",
        -10.228239718939031
      ],
      [
        "mål",
        -10.229293012975635
      ],
      [
        "▁fisk",
        -10.2302847603517
      ],
      [
        "▁resurser",
        -10.231716575333468
      ],
      [
        "▁Paris",
        -10.231830552895502
      ],
      [
        "tjänster",
        -10.233801632378537
      ],
      [
        "▁ledare",
        -10.233932651085588
      ],
      [
        "▁Le",
        -10.234126137515005
      ],
      [
        "▁ända",
        -10.234920890577662
      ],
      [
        "▁karta",
        -10.235745789981952
      ],
      [
        "▁Björn",
        -10.236963902032144
      ],
      [
        "▁brist",
        -10.237241614267273
      ],
      [
        "ort",
        -10.23788852903013
      ],
      [
        "▁grad",
        -10.237984983527701
      ],
      [
        "mat",
        -10.238198641022374
      ],
      [
        "▁botten",
        -10.238512880488543
      ],
      [
        "▁svarar",
        -10.238741897006568
      ],
      [
        "rummet",
        -10.239192370159712
      ],
      [
        "▁båt",
        -10.240082489363019
      ],
      [
        "▁herr",
        -10.240102654052443
      ],
      [
        "uppleva",
        -10.2408287753692
      ],
      [
        "▁träd",
        -10.240904944199713
      ],
      [
        "▁with",
        -10.241199417117905
      ],
      [
        "▁transport",
        -10.241904586885335
      ],
      [
        "▁regel",
        -10.243538048296237
      ],
      [
        "erad",
        -10.243913882964463
      ],
      [
        "▁driver",
        -10.24451858755917
      ],
      [
        "▁yrkes",
        -10.246635888241672
      ],
      [
        "▁resan",
        -10.246717546326453
      ],
      [
        "▁press",
        -10.24697607495125
      ],
      [
        "Vilket",
        -10.247234302625111
      ],
      [
        "▁hyra",
        -10.247304810922147
      ],
      [
        "▁hamnar",
        -10.24756601039848
      ],
      [
        "köket",
        -10.247778973242626
      ],
      [
        "kallar",
        -10.247794775839807
      ],
      [
        "tanken",
        -10.24790741486517
      ],
      [
        "▁Sex",
        -10.248629715536943
      ],
      [
        "▁Lag",
        -10.249673055614956
      ],
      [
        "▁grundläggande",
        -10.249836580259583
      ],
      [
        "▁socker",
        -10.25021202504824
      ],
      [
        "▁plocka",
        -10.250487787672208
      ],
      [
        "▁David",
        -10.251216582582343
      ],
      [
        "▁jorden",
        -10.251467350869481
      ],
      [
        "link",
        -10.251610909151998
      ],
      [
        "bilder",
        -10.251901749141314
      ],
      [
        "▁utför",
        -10.252143769729203
      ],
      [
        "▁Vikt",
        -10.252420026861348
      ],
      [
        "baserade",
        -10.253158345766021
      ],
      [
        "▁känslor",
        -10.253748418035745
      ],
      [
        "▁Danmark",
        -10.253937083928662
      ],
      [
        "▁betyd",
        -10.254299400088822
      ],
      [
        "▁knapp",
        -10.25508979051641
      ],
      [
        "Något",
        -10.255349394733441
      ],
      [
        "▁månaden",
        -10.255856539825912
      ],
      [
        "▁korrekt",
        -10.256049743333174
      ],
      [
        "▁blommor",
        -10.25618899574072
      ],
      [
        "stället",
        -10.257204846754782
      ],
      [
        "▁kött",
        -10.257335631804777
      ],
      [
        "ny",
        -10.257540808458703
      ],
      [
        "▁inspiration",
        -10.25805951710038
      ],
      [
        "härligt",
        -10.25855453035094
      ],
      [
        "▁sent",
        -10.258595632509763
      ],
      [
        "▁fot",
        -10.258719585163352
      ],
      [
        "▁tider",
        -10.25900582343885
      ],
      [
        "▁hävda",
        -10.25930820551463
      ],
      [
        "▁Ju",
        -10.25950984654578
      ],
      [
        "▁mode",
        -10.2595615705322
      ],
      [
        "möter",
        -10.259571207395307
      ],
      [
        "här",
        -10.259643704954403
      ],
      [
        "service",
        -10.259951111873084
      ],
      [
        "håret",
        -10.260008007175653
      ],
      [
        "▁privata",
        -10.260075542011396
      ],
      [
        "grupp",
        -10.260633122393072
      ],
      [
        "▁ikväll",
        -10.260766814528699
      ],
      [
        "▁Innan",
        -10.260913311144892
      ],
      [
        "delas",
        -10.26093890014244
      ],
      [
        "▁politik",
        -10.261111460082146
      ],
      [
        "▁genomför",
        -10.261187041972532
      ],
      [
        "▁SM",
        -10.262158229610218
      ],
      [
        "▁perspektiv",
        -10.262620772485434
      ],
      [
        "▁rädda",
        -10.2629587414821
      ],
      [
        "▁toppen",
        -10.263022152047744
      ],
      [
        "läge",
        -10.263092640422423
      ],
      [
        "▁springa",
        -10.263155633422627
      ],
      [
        "▁känd",
        -10.263290791864566
      ],
      [
        "vackert",
        -10.263744666905028
      ],
      [
        "ländska",
        -10.263924343220106
      ],
      [
        "ingen",
        -10.26410139726944
      ],
      [
        "▁driva",
        -10.264117386738157
      ],
      [
        "avgörande",
        -10.26439190423553
      ],
      [
        "▁rapport",
        -10.265483560726635
      ],
      [
        "▁kommunikation",
        -10.265580049634504
      ],
      [
        "▁underbara",
        -10.26583083963611
      ],
      [
        "▁erfarenheter",
        -10.266218915240946
      ],
      [
        "▁långsiktig",
        -10.266894849546073
      ],
      [
        "nes",
        -10.267901757855766
      ],
      [
        "▁kunskaper",
        -10.26793125892429
      ],
      [
        "▁badrum",
        -10.268193920256943
      ],
      [
        "▁säng",
        -10.268278658804746
      ],
      [
        "har",
        -10.26895729112022
      ],
      [
        "▁utsikt",
        -10.269009265822753
      ],
      [
        "För",
        -10.269036072117816
      ],
      [
        "område",
        -10.269319512225232
      ],
      [
        "▁tillgänglig",
        -10.269382236351651
      ],
      [
        "bjöd",
        -10.269493017356238
      ],
      [
        "▁nyheter",
        -10.26963546581039
      ],
      [
        "▁kg",
        -10.269715937425927
      ],
      [
        "ist",
        -10.269726706417163
      ],
      [
        "bra",
        -10.270380280544408
      ],
      [
        "▁hundra",
        -10.270984437289918
      ],
      [
        "qvist",
        -10.27152149277079
      ],
      [
        "▁Mat",
        -10.272206923983848
      ],
      [
        "▁maten",
        -10.272252532107512
      ],
      [
        "▁omedelbart",
        -10.272734263934822
      ],
      [
        "▁band",
        -10.272879244710765
      ],
      [
        "▁nationella",
        -10.272919540778329
      ],
      [
        "▁skydd",
        -10.273209991191505
      ],
      [
        "lugnt",
        -10.273278080276457
      ],
      [
        "▁fördel",
        -10.273490616268813
      ],
      [
        "▁varumärken",
        -10.27374172147934
      ],
      [
        "▁Mo",
        -10.274183349096214
      ],
      [
        "▁Dagens",
        -10.27432252847574
      ],
      [
        "erar",
        -10.274695991806503
      ],
      [
        "https",
        -10.277017832135801
      ],
      [
        "▁Mina",
        -10.277479491060548
      ],
      [
        "▁vitt",
        -10.278771144635924
      ],
      [
        "startar",
        -10.279284993998994
      ],
      [
        "riktiga",
        -10.280287035628218
      ],
      [
        "▁bedömning",
        -10.280687410230287
      ],
      [
        "▁Nyheter",
        -10.281075414486384
      ],
      [
        "närvarande",
        -10.28161921236534
      ],
      [
        "▁nät",
        -10.2817829977029
      ],
      [
        "▁Jonas",
        -10.28339954904592
      ],
      [
        "▁Aktiebolag",
        -10.283765198890572
      ],
      [
        "▁Få",
        -10.28385161561872
      ],
      [
        "staten",
        -10.284495710820858
      ],
      [
        "slag",
        -10.285921864124205
      ],
      [
        "one",
        -10.286158920468864
      ],
      [
        "▁svarta",
        -10.286425643117619
      ],
      [
        "mängder",
        -10.286636935108922
      ],
      [
        "rika",
        -10.287162758297725
      ],
      [
        "▁Svar",
        -10.287658186128516
      ],
      [
        "▁företags",
        -10.28863204796725
      ],
      [
        "▁underbar",
        -10.28900075122549
      ],
      [
        "serien",
        -10.289157243889596
      ],
      [
        "nödvändigt",
        -10.289984528748683
      ],
      [
        "▁mörk",
        -10.290257202486846
      ],
      [
        "effektivt",
        -10.290488331346106
      ],
      [
        "▁fakta",
        -10.290710105493611
      ],
      [
        "växa",
        -10.29195096970938
      ],
      [
        "frågade",
        -10.291952751075543
      ],
      [
        "▁organisationer",
        -10.291986275745357
      ],
      [
        "▁hopp",
        -10.293691977627589
      ],
      [
        "sånt",
        -10.2940618245708
      ],
      [
        "▁fotboll",
        -10.294852891051216
      ],
      [
        "samt",
        -10.295284591501078
      ],
      [
        "▁underlätta",
        -10.295535608224473
      ],
      [
        "▁erbjuds",
        -10.295928984870898
      ],
      [
        "▁Hela",
        -10.296313143209424
      ],
      [
        "▁fett",
        -10.296839539131186
      ],
      [
        "▁tycka",
        -10.297595736991664
      ],
      [
        "▁omöjlig",
        -10.29762403235485
      ],
      [
        "kar",
        -10.298421251788376
      ],
      [
        "▁mening",
        -10.298804230256717
      ],
      [
        "▁serien",
        -10.298860337500344
      ],
      [
        "minskar",
        -10.299121767299122
      ],
      [
        "▁dröm",
        -10.299539924395292
      ],
      [
        "▁samarbeta",
        -10.300003879851632
      ],
      [
        "▁analys",
        -10.300367130287016
      ],
      [
        "sängen",
        -10.30125120220111
      ],
      [
        "▁Skriv",
        -10.301429978679357
      ],
      [
        "▁Sport",
        -10.302773478494048
      ],
      [
        "sam",
        -10.302795941387801
      ],
      [
        "▁inkomst",
        -10.302984862430424
      ],
      [
        "▁söder",
        -10.303027317416577
      ],
      [
        "▁unik",
        -10.303460308800732
      ],
      [
        "▁vintern",
        -10.303694778632353
      ],
      [
        "▁nätverk",
        -10.303697874291268
      ],
      [
        "världen",
        -10.304237518306248
      ],
      [
        "▁gäng",
        -10.30430872374877
      ],
      [
        "dörren",
        -10.304632392560334
      ],
      [
        "▁stoppa",
        -10.304840866112285
      ],
      [
        "▁produkten",
        -10.306377197227027
      ],
      [
        "De",
        -10.306433017893202
      ],
      [
        "officiell",
        -10.306736534327062
      ],
      [
        "▁Får",
        -10.306923341777987
      ],
      [
        "öppnar",
        -10.307155208789263
      ],
      [
        "▁Super",
        -10.307456253805842
      ],
      [
        "▁Windows",
        -10.307867583722178
      ],
      [
        "▁affärs",
        -10.30852621119004
      ],
      [
        "▁bio",
        -10.308540221865938
      ],
      [
        "▁fira",
        -10.309450714330262
      ],
      [
        "▁döda",
        -10.309550107447723
      ],
      [
        "▁rakt",
        -10.309750676037817
      ],
      [
        "sten",
        -10.309751406344475
      ],
      [
        "längst",
        -10.309769831012856
      ],
      [
        "▁buss",
        -10.30995760053021
      ],
      [
        "▁relation",
        -10.310155141819633
      ],
      [
        "bolag",
        -10.31102980862024
      ],
      [
        "▁inre",
        -10.311859707902709
      ],
      [
        "områden",
        -10.311897948152954
      ],
      [
        "positiva",
        -10.312185756432626
      ],
      [
        "varande",
        -10.312220684384926
      ],
      [
        "▁Ge",
        -10.312551884594727
      ],
      [
        "▁Berg",
        -10.312947502293147
      ],
      [
        "▁frakt",
        -10.313686733430272
      ],
      [
        "intresserade",
        -10.314015623239916
      ],
      [
        "▁Dom",
        -10.3142456439297
      ],
      [
        "unika",
        -10.314312947747801
      ],
      [
        "mo",
        -10.314415950744461
      ],
      [
        "▁mönster",
        -10.314605305251892
      ],
      [
        "▁Göteborgs",
        -10.314731301402189
      ],
      [
        "▁rädd",
        -10.314936759960363
      ],
      [
        "▁Nord",
        -10.315114083671798
      ],
      [
        "▁mjölk",
        -10.315744871533065
      ],
      [
        "rik",
        -10.31618116948489
      ],
      [
        "▁dans",
        -10.316851151278732
      ],
      [
        "▁tillfällen",
        -10.318074427503268
      ],
      [
        "▁slutar",
        -10.319313494526577
      ],
      [
        "▁billig",
        -10.31956048920812
      ],
      [
        "verk",
        -10.320953866052363
      ],
      [
        "▁miss",
        -10.321810055711293
      ],
      [
        "▁verksamheter",
        -10.321893329267404
      ],
      [
        "stämmer",
        -10.323424890014957
      ],
      [
        "▁syns",
        -10.323548714008322
      ],
      [
        "up",
        -10.32460954277164
      ],
      [
        "▁uppmärksamma",
        -10.324760901772878
      ],
      [
        "frågor",
        -10.325861682729014
      ],
      [
        "▁Eva",
        -10.326220003688016
      ],
      [
        "personen",
        -10.327451696560475
      ],
      [
        "▁säg",
        -10.329100878859988
      ],
      [
        "stått",
        -10.329659646178195
      ],
      [
        "Flera",
        -10.33013500238237
      ],
      [
        "▁grön",
        -10.330554254368344
      ],
      [
        "▁tidningen",
        -10.33118225722674
      ],
      [
        "ledes",
        -10.331625892550335
      ],
      [
        "▁underbart",
        -10.331973006919842
      ],
      [
        "line",
        -10.332960559306636
      ],
      [
        "ER",
        -10.333707821994533
      ],
      [
        "▁Henrik",
        -10.33384937154882
      ],
      [
        "▁Storbritannien",
        -10.334442931400895
      ],
      [
        "▁kostnad",
        -10.334695169992322
      ],
      [
        "▁extremt",
        -10.334869706048165
      ],
      [
        "▁tillåt",
        -10.335107695830214
      ],
      [
        "▁paket",
        -10.335819648311448
      ],
      [
        "▁Al",
        -10.335867240314428
      ],
      [
        "orkar",
        -10.336084508632323
      ],
      [
        "tals",
        -10.336105849202621
      ],
      [
        "▁insatser",
        -10.336157270291437
      ],
      [
        "▁omfatta",
        -10.336327200859495
      ],
      [
        "▁negativ",
        -10.336747464343306
      ],
      [
        "granskar",
        -10.336879267648735
      ],
      [
        "▁Stora",
        -10.336896250073197
      ],
      [
        "▁mjuk",
        -10.33697468676346
      ],
      [
        "kursen",
        -10.336982424609046
      ],
      [
        "The",
        -10.337019090950411
      ],
      [
        "▁ögonen",
        -10.337976799763634
      ],
      [
        "▁dubbel",
        -10.338523640314486
      ],
      [
        "du",
        -10.33898058662818
      ],
      [
        "▁avgifter",
        -10.339043587462488
      ],
      [
        "▁Bygg",
        -10.339075087101405
      ],
      [
        "▁punkt",
        -10.339117501653192
      ],
      [
        "▁fordon",
        -10.339314724853127
      ],
      [
        "▁bära",
        -10.339875114220826
      ],
      [
        "Både",
        -10.34045979644062
      ],
      [
        "▁reklam",
        -10.340689491357237
      ],
      [
        "hittat",
        -10.34087007340849
      ],
      [
        "brett",
        -10.34135732583227
      ],
      [
        "▁vardag",
        -10.341841275781078
      ],
      [
        "▁våga",
        -10.342205721357324
      ],
      [
        "tävlingen",
        -10.342258795617864
      ],
      [
        "Årets",
        -10.342594151997602
      ],
      [
        "▁definitiv",
        -10.342731592985148
      ],
      [
        "spelare",
        -10.343156282400901
      ],
      [
        "jobbigt",
        -10.343836370691713
      ],
      [
        "valda",
        -10.344282420139093
      ],
      [
        "▁process",
        -10.345335045180942
      ],
      [
        "▁läste",
        -10.345449420599865
      ],
      [
        "{",
        -10.345992451379598
      ],
      [
        "utbildning",
        -10.346043173344528
      ],
      [
        "▁bevis",
        -10.346092254305834
      ],
      [
        "▁kapital",
        -10.346538542758356
      ],
      [
        "▁lågt",
        -10.346629130785244
      ],
      [
        "▁led",
        -10.346967503559794
      ],
      [
        "▁former",
        -10.347638464250783
      ],
      [
        "▁Kommer",
        -10.348494656202387
      ],
      [
        "mässigt",
        -10.348680264443848
      ],
      [
        "▁ton",
        -10.34882761233255
      ],
      [
        "▁låga",
        -10.34922871188476
      ],
      [
        "▁utrymme",
        -10.34948728657356
      ],
      [
        "▁Fri",
        -10.350388622218128
      ],
      [
        "▁fa",
        -10.350437022223469
      ],
      [
        "▁medför",
        -10.3519495856908
      ],
      [
        "▁psykisk",
        -10.352048029158919
      ],
      [
        "▁Magnus",
        -10.352366574530128
      ],
      [
        "ng",
        -10.352622543868023
      ],
      [
        "▁avse",
        -10.352882440773303
      ],
      [
        "▁skull",
        -10.352946631350157
      ],
      [
        "▁Spanien",
        -10.353370222399652
      ],
      [
        "beslutet",
        -10.353479495755115
      ],
      [
        "ic",
        -10.354161312128369
      ],
      [
        "Visa",
        -10.354470099650916
      ],
      [
        "upplever",
        -10.355516332049723
      ],
      [
        "loppet",
        -10.35571345563775
      ],
      [
        "föreningen",
        -10.355783768603947
      ],
      [
        "▁myndigheter",
        -10.356476075910212
      ],
      [
        "politiken",
        -10.356967487196622
      ],
      [
        "▁rörelse",
        -10.357776361028343
      ],
      [
        "▁fest",
        -10.358548248893035
      ],
      [
        "▁öl",
        -10.358839470237328
      ],
      [
        "myndigheten",
        -10.359393650299998
      ],
      [
        "▁färdig",
        -10.359558625282194
      ],
      [
        "▁Italien",
        -10.362300938112186
      ],
      [
        "▁värd",
        -10.362554640861818
      ],
      [
        "▁kompis",
        -10.362564729387449
      ],
      [
        "▁enhet",
        -10.36282457597115
      ],
      [
        "industrin",
        -10.362852112495032
      ],
      [
        "▁jakt",
        -10.362967782799892
      ],
      [
        "▁nio",
        -10.363094966562771
      ],
      [
        "bart",
        -10.363156377339777
      ],
      [
        "▁hände",
        -10.363211696621256
      ],
      [
        "▁Helt",
        -10.363331081111458
      ],
      [
        "▁föreningen",
        -10.36340175626243
      ],
      [
        "▁hjärtat",
        -10.363605960808854
      ],
      [
        "▁möjlig",
        -10.364205622229917
      ],
      [
        "▁tränings",
        -10.365083909338335
      ],
      [
        "▁vuxen",
        -10.365933084963494
      ],
      [
        "▁kost",
        -10.366111939097205
      ],
      [
        "}",
        -10.366518740215023
      ],
      [
        "hörde",
        -10.366709818735554
      ],
      [
        "▁bekräfta",
        -10.367061554007396
      ],
      [
        "kunnat",
        -10.36708887767489
      ],
      [
        "kläder",
        -10.367368472322052
      ],
      [
        "▁tåg",
        -10.367524535231553
      ],
      [
        "▁metod",
        -10.367590872849824
      ],
      [
        "▁utom",
        -10.368635278911528
      ],
      [
        "originalet",
        -10.368858009386358
      ],
      [
        "når",
        -10.368859195437556
      ],
      [
        "▁Er",
        -10.3689227126897
      ],
      [
        "▁effektiv",
        -10.36923935913456
      ],
      [
        "▁egenskaper",
        -10.369597572405993
      ],
      [
        "▁dricka",
        -10.369791232491727
      ],
      [
        "▁hälften",
        -10.37071666993328
      ],
      [
        "stöd",
        -10.371271406066105
      ],
      [
        "▁Information",
        -10.371955582653039
      ],
      [
        "▁aktier",
        -10.37255729960583
      ],
      [
        "soffan",
        -10.37270217402657
      ],
      [
        "▁Västra",
        -10.3727109574763
      ],
      [
        "klassiska",
        -10.373406452493546
      ],
      [
        "▁överens",
        -10.373720044581475
      ],
      [
        "generell",
        -10.37376256498408
      ],
      [
        "rätten",
        -10.374021681857892
      ],
      [
        "▁erbjudande",
        -10.375024990061782
      ],
      [
        "▁Vårt",
        -10.375166063929084
      ],
      [
        "▁hjärta",
        -10.37544612818669
      ],
      [
        "▁Co",
        -10.376248583158423
      ],
      [
        "▁fjärde",
        -10.376249068653097
      ],
      [
        "▁iaf",
        -10.376380214016157
      ],
      [
        "▁korta",
        -10.376802794930004
      ],
      [
        "▁utbildnings",
        -10.376925568225671
      ],
      [
        "▁sväng",
        -10.377266603019487
      ],
      [
        "modellen",
        -10.378283209180841
      ],
      [
        "▁allvar",
        -10.378961421537703
      ],
      [
        "▁nere",
        -10.37966344358896
      ],
      [
        "desto",
        -10.38099885880957
      ],
      [
        "hinner",
        -10.381538424420338
      ],
      [
        "▁aktiv",
        -10.381862111722933
      ],
      [
        "▁metoder",
        -10.382836597197027
      ],
      [
        "▁faktu",
        -10.383004191537282
      ],
      [
        "baserat",
        -10.383008951170087
      ],
      [
        "ytan",
        -10.383096354580719
      ],
      [
        "▁Larsson",
        -10.383224311298761
      ],
      [
        "▁dusch",
        -10.383267155083852
      ],
      [
        "släppa",
        -10.383343314481914
      ],
      [
        "Bolaget",
        -10.383737916382275
      ],
      [
        "pga",
        -10.384341570489502
      ],
      [
        "löst",
        -10.385768298748234
      ],
      [
        "▁rese",
        -10.38600315616245
      ],
      [
        "▁rygg",
        -10.386805412064948
      ],
      [
        "vädret",
        -10.386848965929072
      ],
      [
        "▁Ryssland",
        -10.387217213719683
      ],
      [
        "▁hål",
        -10.387218399674087
      ],
      [
        "▁välkommen",
        -10.387219958106964
      ],
      [
        "▁VM",
        -10.38771709589987
      ],
      [
        "fria",
        -10.38848478159127
      ],
      [
        "▁skatte",
        -10.388799977956353
      ],
      [
        "Z",
        -10.390252313821565
      ],
      [
        "projekt",
        -10.390341343364508
      ],
      [
        "▁vinner",
        -10.390663264722736
      ],
      [
        "▁frisk",
        -10.391543106402258
      ],
      [
        "▁singlar",
        -10.391775446714057
      ],
      [
        "dal",
        -10.391805396327323
      ],
      [
        "lades",
        -10.392247132720069
      ],
      [
        "ledde",
        -10.39276668011143
      ],
      [
        "kontoret",
        -10.39333762813323
      ],
      [
        "ation",
        -10.39346786653335
      ],
      [
        "▁deltagare",
        -10.393522882732674
      ],
      [
        "intill",
        -10.39456905039996
      ],
      [
        "▁euro",
        -10.394683068557514
      ],
      [
        "fors",
        -10.394739517676234
      ],
      [
        "▁sammanhang",
        -10.394845110513687
      ],
      [
        "lämnat",
        -10.39520352305792
      ],
      [
        "vid",
        -10.39551475218484
      ],
      [
        "slagen",
        -10.396282750871906
      ],
      [
        "▁grunden",
        -10.396560236148208
      ],
      [
        "▁ungdoms",
        -10.39717222197542
      ],
      [
        "nytta",
        -10.397336465976078
      ],
      [
        "invånare",
        -10.397815092326887
      ],
      [
        "bil",
        -10.397969174338764
      ],
      [
        "stans",
        -10.398380400563033
      ],
      [
        "▁släpp",
        -10.39849009082577
      ],
      [
        "Utmärkt",
        -10.398671397694612
      ],
      [
        "▁tjäna",
        -10.399380092836342
      ],
      [
        "▁undersökning",
        -10.399730527552226
      ],
      [
        "▁gröna",
        -10.400327473973032
      ],
      [
        "aktörer",
        -10.401247488075956
      ],
      [
        "▁bostad",
        -10.401363965534062
      ],
      [
        "▁stranden",
        -10.401503882769479
      ],
      [
        "vatten",
        -10.401570518119335
      ],
      [
        "vunnit",
        -10.401884614927608
      ],
      [
        "▁naturligt",
        -10.402834397668522
      ],
      [
        "cm",
        -10.402929471272179
      ],
      [
        "nämnden",
        -10.402964947518441
      ],
      [
        "▁bestämma",
        -10.403301771410087
      ],
      [
        "ken",
        -10.403333545224772
      ],
      [
        "skiljer",
        -10.40364007617106
      ],
      [
        "▁allmän",
        -10.403872272622467
      ],
      [
        "▁artiklar",
        -10.403899190259757
      ],
      [
        "vik",
        -10.404301520375192
      ],
      [
        "namn",
        -10.405208466306759
      ],
      [
        "▁profil",
        -10.40557761206761
      ],
      [
        "\\",
        -10.405591640372759
      ],
      [
        "Börja",
        -10.406016655479172
      ],
      [
        "vänder",
        -10.406042191585138
      ],
      [
        "▁forskare",
        -10.406163762137414
      ],
      [
        "▁upplev",
        -10.406734649809762
      ],
      [
        "framförall",
        -10.406766853443948
      ],
      [
        "texten",
        -10.407334702128574
      ],
      [
        "▁aktiva",
        -10.40827192945117
      ],
      [
        "avtalet",
        -10.408815225642307
      ],
      [
        "tvung",
        -10.408985130740774
      ],
      [
        "▁tids",
        -10.409506906747122
      ],
      [
        "▁styrelsen",
        -10.409770210537847
      ],
      [
        "▁artikeln",
        -10.409851505323966
      ],
      [
        "Dålig",
        -10.409856225253732
      ],
      [
        "nått",
        -10.410003915815023
      ],
      [
        "▁Thomas",
        -10.41023834214317
      ],
      [
        "▁slipp",
        -10.410465868830993
      ],
      [
        "▁utrustning",
        -10.410725771456447
      ],
      [
        "▁total",
        -10.410867931223446
      ],
      [
        "▁Tillväxt",
        -10.411751306716335
      ],
      [
        "▁fika",
        -10.411832820079145
      ],
      [
        "Förbättra",
        -10.412252759766544
      ],
      [
        "▁sjukt",
        -10.41246864778647
      ],
      [
        "▁förrän",
        -10.412672790757833
      ],
      [
        "utöver",
        -10.41274690853568
      ],
      [
        "▁undantag",
        -10.412947528832799
      ],
      [
        "▁tvek",
        -10.41329625148764
      ],
      [
        "▁sms",
        -10.413673450586773
      ],
      [
        "▁Bank",
        -10.414321630957621
      ],
      [
        "▁version",
        -10.414874004663778
      ],
      [
        "▁klubb",
        -10.415119824326089
      ],
      [
        "▁dokument",
        -10.415337551025885
      ],
      [
        "▁inled",
        -10.415612247171016
      ],
      [
        "naturliga",
        -10.415649315865721
      ],
      [
        "golvet",
        -10.41605739164355
      ],
      [
        "▁koppla",
        -10.416074114967063
      ],
      [
        "▁IP",
        -10.416248769894057
      ],
      [
        "▁Region",
        -10.416475841390644
      ],
      [
        "▁mått",
        -10.416558271608809
      ],
      [
        "holm",
        -10.416675955206331
      ],
      [
        "▁hunn",
        -10.417047487092107
      ],
      [
        "▁bostäder",
        -10.417280733144057
      ],
      [
        "▁tillämpa",
        -10.4173027386042
      ],
      [
        "andet",
        -10.417385946472276
      ],
      [
        "▁Kultur",
        -10.418273341014778
      ],
      [
        "▁webb",
        -10.418607262516982
      ],
      [
        "väg",
        -10.419071814987149
      ],
      [
        "▁papper",
        -10.419934363674319
      ],
      [
        "arbetat",
        -10.420246560179786
      ],
      [
        "▁Helsingborg",
        -10.420280783802953
      ],
      [
        "skaffa",
        -10.42078389618279
      ],
      [
        "göra",
        -10.420921500586674
      ],
      [
        "äkta",
        -10.421625613617222
      ],
      [
        "södra",
        -10.422073418926303
      ],
      [
        "finansiella",
        -10.422263200319238
      ],
      [
        "▁städer",
        -10.423222456931875
      ],
      [
        "▁familje",
        -10.423675800284412
      ],
      [
        "▁rosa",
        -10.423798119220018
      ],
      [
        "nivåer",
        -10.424166714856254
      ],
      [
        "ör",
        -10.425125084219273
      ],
      [
        "tillfället",
        -10.425613371140274
      ],
      [
        "▁okej",
        -10.425927408532075
      ],
      [
        "▁Kalmar",
        -10.425953308700201
      ],
      [
        "▁team",
        -10.426410275805319
      ],
      [
        "gjorda",
        -10.426685172097816
      ],
      [
        "blad",
        -10.427525265285537
      ],
      [
        "▁daglig",
        -10.427592983674447
      ],
      [
        "▁Jämför",
        -10.427636729335427
      ],
      [
        "▁skolor",
        -10.428175283116364
      ],
      [
        "bjuda",
        -10.428705671576633
      ],
      [
        "▁betalnings",
        -10.429660465874903
      ],
      [
        "▁Kontakta",
        -10.429696410343741
      ],
      [
        "Du",
        -10.429927089302112
      ],
      [
        "▁modeller",
        -10.430905947956617
      ],
      [
        "▁levande",
        -10.43141299160453
      ],
      [
        "offentliga",
        -10.431414229628208
      ],
      [
        "▁kallad",
        -10.431545532531324
      ],
      [
        "▁möten",
        -10.431652888750346
      ],
      [
        "▁ekonomisk",
        -10.43204330156333
      ],
      [
        "▁kvinnan",
        -10.432062279666184
      ],
      [
        "baserad",
        -10.432063330279329
      ],
      [
        "upp",
        -10.432200119288275
      ],
      [
        "▁tjänsten",
        -10.43234846101701
      ],
      [
        "flyttade",
        -10.432704755046863
      ],
      [
        "härliga",
        -10.43336985539343
      ],
      [
        "▁hållbar",
        -10.43337337785735
      ],
      [
        "▁banan",
        -10.434157827222709
      ],
      [
        "▁kön",
        -10.434485442839357
      ],
      [
        "hänger",
        -10.43465117517393
      ],
      [
        "▁motor",
        -10.435205639499161
      ],
      [
        "▁mobilen",
        -10.435357418064225
      ],
      [
        "▁personuppgifter",
        -10.436195932930646
      ],
      [
        "▁parkering",
        -10.436841510287088
      ],
      [
        "▁Kommun",
        -10.437198964069335
      ],
      [
        "▁tillfällig",
        -10.437316093351603
      ],
      [
        "▁FÖR",
        -10.437880861427097
      ],
      [
        "▁Sjö",
        -10.438873431632748
      ],
      [
        "▁Jesus",
        -10.43976203525534
      ],
      [
        "skickar",
        -10.44018354215142
      ],
      [
        "▁Mikael",
        -10.441357307360382
      ],
      [
        "▁Black",
        -10.44229161356858
      ],
      [
        "snyggt",
        -10.442782373987349
      ],
      [
        "linjen",
        -10.44292288167431
      ],
      [
        "▁Val",
        -10.443144429313664
      ],
      [
        "▁sök",
        -10.44350985534949
      ],
      [
        "▁stål",
        -10.443659569215633
      ],
      [
        "▁saknas",
        -10.44375314663053
      ],
      [
        "ism",
        -10.443887820173261
      ],
      [
        "▁linje",
        -10.44411718970757
      ],
      [
        "▁di",
        -10.444122314136854
      ],
      [
        "▁totala",
        -10.444779750789692
      ],
      [
        "▁växt",
        -10.44512408864542
      ],
      [
        "▁marken",
        -10.445133500237878
      ],
      [
        "▁skriv",
        -10.445787184905084
      ],
      [
        "▁sömn",
        -10.445835004701479
      ],
      [
        "ämnet",
        -10.44624241624055
      ],
      [
        "▁Karlsson",
        -10.447311734673612
      ],
      [
        "▁skatt",
        -10.447365302508693
      ],
      [
        "▁höjd",
        -10.447448729108169
      ],
      [
        "nade",
        -10.447497633424842
      ],
      [
        "▁sortiment",
        -10.44762710167702
      ],
      [
        "▁tränar",
        -10.448129487429703
      ],
      [
        "▁kontor",
        -10.44818183113857
      ],
      [
        "någonstans",
        -10.449129692155203
      ],
      [
        "▁klassisk",
        -10.449611245813033
      ],
      [
        "automatiskt",
        -10.450355720499509
      ],
      [
        "▁golv",
        -10.450444172175793
      ],
      [
        "gemensamt",
        -10.450452936911773
      ],
      [
        "▁tävling",
        -10.451002538746168
      ],
      [
        "▁Lind",
        -10.451356111151393
      ],
      [
        "ley",
        -10.451447744522513
      ],
      [
        "närmast",
        -10.452127343125955
      ],
      [
        "q",
        -10.452703558108036
      ],
      [
        "▁marknads",
        -10.453412398263922
      ],
      [
        "▁No",
        -10.453470167546504
      ],
      [
        "anges",
        -10.454163409058305
      ],
      [
        "nöjda",
        -10.4542195707114
      ],
      [
        "sett",
        -10.454800826931972
      ],
      [
        "mysigt",
        -10.45502521612829
      ],
      [
        "▁sov",
        -10.455315804308489
      ],
      [
        "intressanta",
        -10.455492699537063
      ],
      [
        "väntat",
        -10.455823891368166
      ],
      [
        "▁straff",
        -10.455886507736796
      ],
      [
        "kväll",
        -10.4563376277675
      ],
      [
        "▁rätta",
        -10.456403664409663
      ],
      [
        "▁torsdag",
        -10.45653779760064
      ],
      [
        "▁seger",
        -10.456599104591916
      ],
      [
        "gränsen",
        -10.456724337311051
      ],
      [
        "▁resor",
        -10.456925799639013
      ],
      [
        "▁karriär",
        -10.457033145795014
      ],
      [
        "ökning",
        -10.45780170713959
      ],
      [
        "historien",
        -10.458547880682667
      ],
      [
        "▁bostads",
        -10.459462572175203
      ],
      [
        "Bra",
        -10.45962332286193
      ],
      [
        "full",
        -10.459729573174597
      ],
      [
        "▁vapen",
        -10.459782118132688
      ],
      [
        "▁lokaler",
        -10.459830640762307
      ],
      [
        "Annar",
        -10.459975949082581
      ],
      [
        "▁tyska",
        -10.460240243570937
      ],
      [
        "▁leverera",
        -10.46027062408591
      ],
      [
        "▁sönder",
        -10.46087400518385
      ],
      [
        "▁Sten",
        -10.461405529207804
      ],
      [
        "▁Innehåll",
        -10.461798725103312
      ],
      [
        "▁sovrum",
        -10.46194948781247
      ],
      [
        "medel",
        -10.46204448188757
      ],
      [
        "skap",
        -10.462483356111902
      ],
      [
        "▁motsvara",
        -10.463917671203628
      ],
      [
        "samhet",
        -10.464174656874997
      ],
      [
        "▁hård",
        -10.464865628729903
      ],
      [
        "▁hänga",
        -10.46487979927332
      ],
      [
        "▁aktivitet",
        -10.465058030047981
      ],
      [
        "böcker",
        -10.465628510189088
      ],
      [
        "▁sekunder",
        -10.465792501256587
      ],
      [
        "anläggningar",
        -10.465825144197689
      ],
      [
        "tjänst",
        -10.466052146748185
      ],
      [
        "kraftigt",
        -10.466063703343911
      ],
      [
        "▁verkligheten",
        -10.466190483375623
      ],
      [
        "▁Q",
        -10.466497564638482
      ],
      [
        "Tror",
        -10.466688580274344
      ],
      [
        "▁ursprunglig",
        -10.46696335332773
      ],
      [
        "▁trädgård",
        -10.467024174286166
      ],
      [
        "▁bröd",
        -10.467367773401637
      ],
      [
        "▁Tillsammans",
        -10.467448269995183
      ],
      [
        "klassen",
        -10.467605949159013
      ],
      [
        "▁salt",
        -10.46779907035256
      ],
      [
        "Den",
        -10.467861271845713
      ],
      [
        "▁takt",
        -10.468420665518513
      ],
      [
        "▁nämn",
        -10.469936733678166
      ],
      [
        "▁Färg",
        -10.469942471782911
      ],
      [
        "▁industri",
        -10.470029087753058
      ],
      [
        "▁gäst",
        -10.470141910856801
      ],
      [
        "▁lyfta",
        -10.470572612738225
      ],
      [
        "▁statistik",
        -10.470970185960056
      ],
      [
        "åsikter",
        -10.47113519088123
      ],
      [
        "▁sannolik",
        -10.471425649746688
      ],
      [
        "▁Miljö",
        -10.471666836716482
      ],
      [
        "▁Plats",
        -10.473538365384817
      ],
      [
        "skatt",
        -10.473691292847132
      ],
      [
        "▁laga",
        -10.473849378414007
      ],
      [
        "pratade",
        -10.473885479942982
      ],
      [
        "▁af",
        -10.473951804980603
      ],
      [
        "▁drift",
        -10.474164881876122
      ],
      [
        "▁balans",
        -10.474171448562911
      ],
      [
        "▁Beach",
        -10.474344824337741
      ],
      [
        "▁van",
        -10.474733171160699
      ],
      [
        "▁forsknings",
        -10.474899945761921
      ],
      [
        "▁göteborg",
        -10.474987509948491
      ],
      [
        "▁skuld",
        -10.475093108635807
      ],
      [
        "▁Precis",
        -10.475283200760297
      ],
      [
        "▁ok",
        -10.475400107588465
      ],
      [
        "▁Inom",
        -10.475761861378482
      ],
      [
        "▁personalen",
        -10.475848015726223
      ],
      [
        "▁behålla",
        -10.476387427253615
      ],
      [
        "tips",
        -10.476721011588948
      ],
      [
        "Oavsett",
        -10.476742843222695
      ],
      [
        "▁smart",
        -10.477035496955535
      ],
      [
        "▁Kort",
        -10.477702881440802
      ],
      [
        "Y",
        -10.477780436746489
      ],
      [
        "▁Ladda",
        -10.477958418677298
      ],
      [
        "▁torr",
        -10.478481566830053
      ],
      [
        "jobbat",
        -10.478537939991982
      ],
      [
        "▁Sweden",
        -10.478542978475852
      ],
      [
        "▁rabatt",
        -10.478806450076592
      ],
      [
        "▁författare",
        -10.479116734906926
      ],
      [
        "▁Fler",
        -10.47965713954894
      ],
      [
        "typen",
        -10.479717442967642
      ],
      [
        "film",
        -10.480297307306717
      ],
      [
        "▁Totalt",
        -10.480456686118385
      ],
      [
        "▁me",
        -10.480615861073508
      ],
      [
        "livet",
        -10.481087963445914
      ],
      [
        "▁tillverkare",
        -10.481113581131874
      ],
      [
        "stärka",
        -10.481406337869235
      ],
      [
        "än",
        -10.481906210909784
      ],
      [
        "fel",
        -10.481913374292288
      ],
      [
        "värsta",
        -10.483073616948445
      ],
      [
        "problem",
        -10.483094973666693
      ],
      [
        "▁arrangera",
        -10.483687479635911
      ],
      [
        "▁lät",
        -10.48413325363888
      ],
      [
        "▁kallt",
        -10.484711949354093
      ],
      [
        "Utcheckning",
        -10.485077997815456
      ],
      [
        "förening",
        -10.485807855961408
      ],
      [
        "▁Herr",
        -10.48599351227817
      ],
      [
        "▁dollar",
        -10.486171841748824
      ],
      [
        "▁brand",
        -10.486277378468415
      ],
      [
        "sidor",
        -10.487439016521083
      ],
      [
        "▁Kram",
        -10.487444760662527
      ],
      [
        "▁möt",
        -10.487764491045985
      ],
      [
        "▁lov",
        -10.488489780937032
      ],
      [
        "utvecklat",
        -10.488706795888284
      ],
      [
        "platser",
        -10.489022027149517
      ],
      [
        "▁styrka",
        -10.489312622329784
      ],
      [
        "bestämde",
        -10.489383297861666
      ],
      [
        "nämnda",
        -10.489447054216088
      ],
      [
        "handlade",
        -10.48946687942516
      ],
      [
        "hallen",
        -10.4895568546879
      ],
      [
        "▁silver",
        -10.490177375061918
      ],
      [
        "OCH",
        -10.49024881368157
      ],
      [
        "▁duktig",
        -10.490254534655872
      ],
      [
        "▁hoppa",
        -10.490331660425772
      ],
      [
        "▁bry",
        -10.490493123711847
      ],
      [
        "▁sko",
        -10.490679685119648
      ],
      [
        "tråkigt",
        -10.49087857929761
      ],
      [
        "▁presentera",
        -10.491472783056198
      ],
      [
        "▁studenter",
        -10.491509400107297
      ],
      [
        "han",
        -10.492097252849485
      ],
      [
        "▁Persson",
        -10.492139304357314
      ],
      [
        "▁finna",
        -10.4928256956072
      ],
      [
        "▁insats",
        -10.492867695435802
      ],
      [
        "▁Fick",
        -10.4929290793325
      ],
      [
        "▁Sol",
        -10.493061612582245
      ],
      [
        "▁flertal",
        -10.49331163188327
      ],
      [
        "klubb",
        -10.493604049879268
      ],
      [
        "▁söt",
        -10.493694067337383
      ],
      [
        "serie",
        -10.493700628908636
      ],
      [
        "▁gemensam",
        -10.4945500754538
      ],
      [
        "▁Utan",
        -10.49458326330709
      ],
      [
        "▁lycka",
        -10.49462123256512
      ],
      [
        "▁röra",
        -10.494924607620382
      ],
      [
        "ver",
        -10.495039808783808
      ],
      [
        "▁engagemang",
        -10.495486811011776
      ],
      [
        "▁trolig",
        -10.495492478687932
      ],
      [
        "its",
        -10.495706454842281
      ],
      [
        "vin",
        -10.49592319642682
      ],
      [
        "väntade",
        -10.496047037641135
      ],
      [
        "▁fördelar",
        -10.496384161133653
      ],
      [
        "givande",
        -10.496527742737767
      ],
      [
        "▁Ek",
        -10.497699331752292
      ],
      [
        "▁Bar",
        -10.497762794344851
      ],
      [
        "▁tyst",
        -10.498259086845522
      ],
      [
        "▁bod",
        -10.499290290759143
      ],
      [
        "bestämmer",
        -10.499350620764316
      ],
      [
        "▁kritik",
        -10.500455670485191
      ],
      [
        "Hotellet",
        -10.500777556317576
      ],
      [
        "kollegor",
        -10.501702772754944
      ],
      [
        "ina",
        -10.502022661595806
      ],
      [
        "▁felaktig",
        -10.502273050196486
      ],
      [
        "▁normal",
        -10.502385283485959
      ],
      [
        "sugen",
        -10.502590783346188
      ],
      [
        "dan",
        -10.502996704938177
      ],
      [
        "▁Karl",
        -10.503252062150382
      ],
      [
        "▁Mats",
        -10.503644840563892
      ],
      [
        "borg",
        -10.503742095174472
      ],
      [
        "▁komplett",
        -10.504662396652707
      ],
      [
        "▁SD",
        -10.505332511180047
      ],
      [
        "▁rekommendera",
        -10.505385242739818
      ],
      [
        "bredvid",
        -10.505611064101792
      ],
      [
        "▁Karin",
        -10.505661305706683
      ],
      [
        "▁vind",
        -10.506163187131756
      ],
      [
        "▁hemmet",
        -10.50654700605868
      ],
      [
        "▁planerar",
        -10.506668529893112
      ],
      [
        "▁grå",
        -10.506701870818262
      ],
      [
        "▁digital",
        -10.506725770316603
      ],
      [
        "center",
        -10.507646813296201
      ],
      [
        "▁Ed",
        -10.507991594303014
      ],
      [
        "▁hästar",
        -10.508347023829204
      ],
      [
        "▁radio",
        -10.508359018859895
      ],
      [
        "▁mej",
        -10.50847609438406
      ],
      [
        "▁Apple",
        -10.508704335384257
      ],
      [
        "texter",
        -10.508890894398462
      ],
      [
        "åriga",
        -10.509084922409274
      ],
      [
        "överallt",
        -10.509331542783263
      ],
      [
        "▁onsdag",
        -10.509871974910729
      ],
      [
        "▁ryggen",
        -10.510666333979007
      ],
      [
        "verkade",
        -10.511052643756797
      ],
      [
        "glömm",
        -10.511078717532303
      ],
      [
        "▁album",
        -10.511130749045925
      ],
      [
        "▁Tidigare",
        -10.511457356519921
      ],
      [
        "▁Mark",
        -10.512071434147797
      ],
      [
        "▁Eriksson",
        -10.512458970409687
      ],
      [
        "▁student",
        -10.512887128657484
      ],
      [
        "mänskliga",
        -10.51294288830736
      ],
      [
        "▁utmaningar",
        -10.51304836884797
      ],
      [
        "▁Svart",
        -10.513367535647268
      ],
      [
        "▁produktion",
        -10.513759111472412
      ],
      [
        "alltför",
        -10.514032431999219
      ],
      [
        "tycks",
        -10.514245616805693
      ],
      [
        "samlat",
        -10.514408319393066
      ],
      [
        "riksdagen",
        -10.514490268730484
      ],
      [
        "bordet",
        -10.514519137627811
      ],
      [
        "▁lagom",
        -10.514640599449054
      ],
      [
        "▁Sa",
        -10.514658662844369
      ],
      [
        "Redan",
        -10.51484839071597
      ],
      [
        "▁God",
        -10.514935656806855
      ],
      [
        "priset",
        -10.515158502209202
      ],
      [
        "dla",
        -10.515209464739314
      ],
      [
        "▁maskinöversätt",
        -10.515275774752437
      ],
      [
        "enlighet",
        -10.516349167365044
      ],
      [
        "▁avstånd",
        -10.516818822627794
      ],
      [
        "pekar",
        -10.516916077571075
      ],
      [
        "taket",
        -10.518056539365048
      ],
      [
        "översättningen",
        -10.518267478007463
      ],
      [
        "▁Dating",
        -10.518405936346946
      ],
      [
        "▁anpassa",
        -10.518627923251833
      ],
      [
        "▁utvecklings",
        -10.518814143238675
      ],
      [
        "▁sjukdomar",
        -10.518986292577313
      ],
      [
        "▁intervju",
        -10.519472681430399
      ],
      [
        "▁urval",
        -10.519694914614378
      ],
      [
        "▁killar",
        -10.520561977971896
      ],
      [
        "▁Billiga",
        -10.520838377676537
      ],
      [
        "▁näst",
        -10.522313671269906
      ],
      [
        "▁Folk",
        -10.523137673498802
      ],
      [
        "▁dygnet",
        -10.52333339376721
      ],
      [
        "ant",
        -10.523355295410653
      ],
      [
        "tagna",
        -10.523500119386918
      ],
      [
        "talade",
        -10.52403021761618
      ],
      [
        "▁spendera",
        -10.52440389136094
      ],
      [
        "▁utomlands",
        -10.524504535918084
      ],
      [
        "▁fria",
        -10.525085375242716
      ],
      [
        "▁Västerås",
        -10.525383736254025
      ],
      [
        "delade",
        -10.525580784866918
      ],
      [
        "grupper",
        -10.525946377043063
      ],
      [
        "▁miljön",
        -10.526283183163006
      ],
      [
        "▁smärta",
        -10.526642808121329
      ],
      [
        "▁Linköping",
        -10.527936996460912
      ],
      [
        "▁anti",
        -10.5283994296731
      ],
      [
        "▁syster",
        -10.528410171035933
      ],
      [
        "▁kunden",
        -10.52862601143402
      ],
      [
        "▁länk",
        -10.5294923822211
      ],
      [
        "föll",
        -10.529587402151456
      ],
      [
        "männen",
        -10.529714750731388
      ],
      [
        "▁bevilja",
        -10.52973921975524
      ],
      [
        "byn",
        -10.529871815179538
      ],
      [
        "kul",
        -10.529966886699231
      ],
      [
        "räknas",
        -10.530241531090024
      ],
      [
        "▁leverantörer",
        -10.530467643037307
      ],
      [
        "aning",
        -10.531087719153684
      ],
      [
        "▁fullständig",
        -10.531236580072886
      ],
      [
        "Fi",
        -10.532787114337278
      ],
      [
        "ansvarar",
        -10.533307575886509
      ],
      [
        "▁berör",
        -10.533836853937594
      ],
      [
        "nivån",
        -10.534391402698088
      ],
      [
        "utav",
        -10.535167384398596
      ],
      [
        "backen",
        -10.535178894952107
      ],
      [
        "Tycker",
        -10.53520863708745
      ],
      [
        "▁president",
        -10.535458703942059
      ],
      [
        "▁miljon",
        -10.535680797629796
      ],
      [
        "▁tex",
        -10.536796023157667
      ],
      [
        "innehållet",
        -10.536905169034902
      ],
      [
        "vågar",
        -10.537530489609484
      ],
      [
        "▁uppfyll",
        -10.537903595283902
      ],
      [
        "älskade",
        -10.537910344172598
      ],
      [
        "▁tränare",
        -10.537980425819288
      ],
      [
        "▁däck",
        -10.538414834393798
      ],
      [
        "▁ränta",
        -10.53847787182214
      ],
      [
        "politik",
        -10.53883960191795
      ],
      [
        "paket",
        -10.538988747149308
      ],
      [
        "▁ber",
        -10.538988807620825
      ],
      [
        "▁fru",
        -10.539220694216953
      ],
      [
        "gång",
        -10.540348156349895
      ],
      [
        "kompisar",
        -10.540454052404323
      ],
      [
        "▁behandla",
        -10.54123806184707
      ],
      [
        "typ",
        -10.541685687354848
      ],
      [
        "olja",
        -10.54193349275743
      ],
      [
        "▁dog",
        -10.542391580715702
      ],
      [
        "▁återg",
        -10.54262452082379
      ],
      [
        "ges",
        -10.542974508384155
      ],
      [
        "nsåg",
        -10.543042624707486
      ],
      [
        "önskemål",
        -10.543304844190544
      ],
      [
        "reagera",
        -10.54373940097559
      ],
      [
        "▁Ser",
        -10.545661776816322
      ],
      [
        "▁cancer",
        -10.545974135078195
      ],
      [
        "▁My",
        -10.54645546905693
      ],
      [
        "per",
        -10.54667970519256
      ],
      [
        "▁utseende",
        -10.546716515068093
      ],
      [
        "jält",
        -10.548555983434808
      ],
      [
        "ledare",
        -10.549268524557224
      ],
      [
        "▁utredning",
        -10.549700929151312
      ],
      [
        "Logga",
        -10.550090708728805
      ],
      [
        "▁lämplig",
        -10.550460701081722
      ],
      [
        "bergs",
        -10.551081410570319
      ],
      [
        "▁planer",
        -10.551474157299342
      ],
      [
        "tor",
        -10.552293447414451
      ],
      [
        "▁respekt",
        -10.552303007068428
      ],
      [
        "▁uppmärksamhet",
        -10.552423483989626
      ],
      [
        "▁FN",
        -10.553258457127429
      ],
      [
        "▁informera",
        -10.553569854099687
      ],
      [
        "frågorna",
        -10.554270003227314
      ],
      [
        "▁lägenheter",
        -10.554889639875661
      ],
      [
        "svinner",
        -10.555882750726086
      ],
      [
        "förslaget",
        -10.55608886421246
      ],
      [
        "Syftet",
        -10.556529678108735
      ],
      [
        "▁NICK",
        -10.55656352987072
      ],
      [
        "▁Vidare",
        -10.556662586799444
      ],
      [
        "reglerna",
        -10.557089336852954
      ],
      [
        "uk",
        -10.557476840593775
      ],
      [
        "▁andel",
        -10.557483867450719
      ],
      [
        "heten",
        -10.557786229840428
      ],
      [
        "▁fastighets",
        -10.557959061981844
      ],
      [
        "▁luften",
        -10.558093316803925
      ],
      [
        "▁fl",
        -10.55861761573885
      ],
      [
        "▁moms",
        -10.559718838634721
      ],
      [
        "rad",
        -10.559914057696261
      ],
      [
        "▁medicin",
        -10.560026659599512
      ],
      [
        "▁handen",
        -10.560802138884293
      ],
      [
        "▁mor",
        -10.561310144920148
      ],
      [
        "bandet",
        -10.561377986395932
      ],
      [
        "▁förändra",
        -10.561847999752526
      ],
      [
        "▁faller",
        -10.561932221662511
      ],
      [
        "▁styra",
        -10.561942422007574
      ],
      [
        "sjukhuset",
        -10.56212865114217
      ],
      [
        "▁förståelse",
        -10.562166900204458
      ],
      [
        "▁publik",
        -10.562224912889935
      ],
      [
        "▁lek",
        -10.56237505489027
      ],
      [
        "varav",
        -10.562407737957546
      ],
      [
        "▁Pa",
        -10.562502663980402
      ],
      [
        "▁uppenbar",
        -10.562692112601724
      ],
      [
        "sch",
        -10.56297173449047
      ],
      [
        "bit",
        -10.563447305630758
      ],
      [
        "▁fokusera",
        -10.56367426195702
      ],
      [
        "avdelningen",
        -10.56372338078082
      ],
      [
        "årig",
        -10.563982867945688
      ],
      [
        "▁kurser",
        -10.564258211499526
      ],
      [
        "platsen",
        -10.56563566031768
      ],
      [
        "ych",
        -10.566274672210193
      ],
      [
        "▁By",
        -10.566534419381291
      ],
      [
        "▁synd",
        -10.56671081752897
      ],
      [
        "▁upptäcka",
        -10.567211000384786
      ],
      [
        "▁omsorg",
        -10.568389942850487
      ],
      [
        "sserligen",
        -10.568540503327359
      ],
      [
        "▁separat",
        -10.568652609314455
      ],
      [
        "▁flashback",
        -10.569061226129048
      ],
      [
        "▁gas",
        -10.569716159800205
      ],
      [
        "spelat",
        -10.57101805623911
      ],
      [
        "kommer",
        -10.571483560583589
      ],
      [
        "säkerställa",
        -10.571625132104193
      ],
      [
        "miljö",
        -10.572253092621926
      ],
      [
        "▁grej",
        -10.572572530233678
      ],
      [
        "kanten",
        -10.573124634686057
      ],
      [
        "övningar",
        -10.573187025449808
      ],
      [
        "▁ämne",
        -10.573476465708405
      ],
      [
        "▁VD",
        -10.573579826706226
      ],
      [
        "▁beskriva",
        -10.574262671323831
      ],
      [
        "▁Exempel",
        -10.574946514697453
      ],
      [
        "släppte",
        -10.575169795878292
      ],
      [
        "▁tema",
        -10.575637349116045
      ],
      [
        "billigare",
        -10.575879959361867
      ],
      [
        "¶",
        -10.57593434108249
      ],
      [
        "▁vägg",
        -10.57609444286514
      ],
      [
        "dagar",
        -10.576543087679193
      ],
      [
        "företagen",
        -10.576569888612868
      ],
      [
        "▁anslutning",
        -10.576605895812481
      ],
      [
        "▁skogs",
        -10.57718513511646
      ],
      [
        "▁tillägg",
        -10.577267150700004
      ],
      [
        "saken",
        -10.578123259242172
      ],
      [
        "ägna",
        -10.579187888310463
      ],
      [
        "▁Andreas",
        -10.57945666384884
      ],
      [
        "samlade",
        -10.579592015228515
      ],
      [
        "ck",
        -10.579767914294333
      ],
      [
        "jobb",
        -10.57997556965382
      ],
      [
        "män",
        -10.580557384094861
      ],
      [
        "▁Arbets",
        -10.581276850672538
      ],
      [
        "individer",
        -10.581379343066748
      ],
      [
        "▁region",
        -10.582267221727648
      ],
      [
        "▁besluta",
        -10.582273768728122
      ],
      [
        "▁uppfattning",
        -10.583594117476403
      ],
      [
        "▁kall",
        -10.583832428586465
      ],
      [
        "svaret",
        -10.583920809456819
      ],
      [
        "▁samverkan",
        -10.58513973470847
      ],
      [
        "▁original",
        -10.585220286055433
      ],
      [
        "▁tävla",
        -10.585452929362665
      ],
      [
        "behovet",
        -10.585899392416271
      ],
      [
        "märken",
        -10.58610601482165
      ],
      [
        "▁Än",
        -10.58622880097608
      ],
      [
        "▁kämpa",
        -10.586283578037406
      ],
      [
        "banan",
        -10.587158725032358
      ],
      [
        "▁situationer",
        -10.58716632377049
      ],
      [
        "▁fiske",
        -10.587502436601774
      ],
      [
        "▁presentation",
        -10.588013141838756
      ],
      [
        "▁sprid",
        -10.588023216920869
      ],
      [
        "▁rea",
        -10.589042766651417
      ],
      [
        "▁sällskap",
        -10.589125640338402
      ],
      [
        "hunden",
        -10.589139201943992
      ],
      [
        "▁gravid",
        -10.590071339132574
      ],
      [
        "▁varma",
        -10.590768384153444
      ],
      [
        "räknar",
        -10.590976082174649
      ],
      [
        "marknaden",
        -10.59117408985273
      ],
      [
        "▁OS",
        -10.591202586460168
      ],
      [
        "ion",
        -10.591223917349465
      ],
      [
        "norra",
        -10.591596580353471
      ],
      [
        "▁tänk",
        -10.59195798476556
      ],
      [
        "uppgifterna",
        -10.592847253335963
      ],
      [
        "data",
        -10.593107581057922
      ],
      [
        "vård",
        -10.593459008496735
      ],
      [
        "▁trygghet",
        -10.593875607183818
      ],
      [
        "▁ställning",
        -10.594651185697197
      ],
      [
        "låtar",
        -10.594782020891241
      ],
      [
        "ekonomiskt",
        -10.59563330190656
      ],
      [
        "▁this",
        -10.596298577726756
      ],
      [
        "▁studera",
        -10.59676212955018
      ],
      [
        "vit",
        -10.596878704755198
      ],
      [
        "▁besvär",
        -10.597578982723212
      ],
      [
        "slaget",
        -10.598376547122468
      ],
      [
        "▁vistelse",
        -10.598443458524674
      ],
      [
        "owan",
        -10.598488225181493
      ],
      [
        "europeiska",
        -10.599270035931013
      ],
      [
        "▁arbetsgivare",
        -10.599345387602636
      ],
      [
        "▁relationer",
        -10.599485854881378
      ],
      [
        "bord",
        -10.599614397913586
      ],
      [
        "mar",
        -10.600124551436243
      ],
      [
        "▁gift",
        -10.600200296747422
      ],
      [
        "frågar",
        -10.600408424673315
      ],
      [
        "▁rena",
        -10.600728948565996
      ],
      [
        "▁styrelse",
        -10.60087131144984
      ],
      [
        "▁Gävle",
        -10.601055551244894
      ],
      [
        "kriget",
        -10.601557148265652
      ],
      [
        "fyllt",
        -10.602022319436248
      ],
      [
        "▁sambo",
        -10.602222206384878
      ],
      [
        "erat",
        -10.602917970577172
      ],
      [
        "funderar",
        -10.603300929096939
      ],
      [
        "▁elev",
        -10.604896471475111
      ],
      [
        "Men",
        -10.605839447619314
      ],
      [
        "domstolen",
        -10.606181580408077
      ],
      [
        "▁patienten",
        -10.606610402488661
      ],
      [
        "▁sant",
        -10.607554236128976
      ],
      [
        "ifall",
        -10.607909493732489
      ],
      [
        "▁Borås",
        -10.608081154883255
      ],
      [
        "▁Sven",
        -10.608218647419278
      ],
      [
        "▁tillbehör",
        -10.608845055574976
      ],
      [
        "®",
        -10.609126810738486
      ],
      [
        "▁maskin",
        -10.609435659309108
      ],
      [
        "▁doft",
        -10.609709462557316
      ],
      [
        "banken",
        -10.609727128035413
      ],
      [
        "▁förtroende",
        -10.609895687094244
      ],
      [
        "der",
        -10.611260228846369
      ],
      [
        "ringde",
        -10.612071753257265
      ],
      [
        "▁metall",
        -10.612223975956978
      ],
      [
        "▁förhindra",
        -10.61238191709828
      ],
      [
        "torget",
        -10.612536008173453
      ],
      [
        "kostnaden",
        -10.612665276245357
      ],
      [
        "behandlas",
        -10.612871908948337
      ],
      [
        "▁jämförelse",
        -10.613179418156554
      ],
      [
        "kortare",
        -10.613242226811476
      ],
      [
        "▁ledning",
        -10.613358287428332
      ],
      [
        "▁Dag",
        -10.614608228074673
      ],
      [
        "▁hemsidan",
        -10.614717998672077
      ],
      [
        "eftermiddagen",
        -10.615676559621207
      ],
      [
        "▁fan",
        -10.616281323625106
      ],
      [
        "▁Senaste",
        -10.616299849768064
      ],
      [
        "ryska",
        -10.616625620827513
      ],
      [
        "kostnader",
        -10.616631405048357
      ],
      [
        "Inget",
        -10.616720478697582
      ],
      [
        "▁Sara",
        -10.616848077148004
      ],
      [
        "▁Olsson",
        -10.617183255497478
      ],
      [
        "▁Go",
        -10.617247537783374
      ],
      [
        "▁undersöka",
        -10.617456710494718
      ],
      [
        "▁trädgården",
        -10.617463575167768
      ],
      [
        "▁inomhus",
        -10.617502170015989
      ],
      [
        "li",
        -10.617581769497038
      ],
      [
        "▁Jönköping",
        -10.61778266213745
      ],
      [
        "▁föremål",
        -10.618016820388386
      ],
      [
        "▁Emma",
        -10.61807426304496
      ],
      [
        "▁utforska",
        -10.618189437697039
      ],
      [
        "▁Me",
        -10.618329430467893
      ],
      [
        "▁faktorer",
        -10.618493504984093
      ],
      [
        "träning",
        -10.61891965128206
      ],
      [
        "resor",
        -10.621095852467812
      ],
      [
        "▁marknadsföring",
        -10.621153590834165
      ],
      [
        "▁fritt",
        -10.621560265675592
      ],
      [
        "ljuset",
        -10.622360897285231
      ],
      [
        "▁franska",
        -10.62310281086253
      ],
      [
        "▁strand",
        -10.62357831819139
      ],
      [
        "▁lagar",
        -10.623709168121515
      ],
      [
        "zny",
[...]
