{
  "version": "1.0",
  "truncation": null,
  "padding": null,
  "added_tokens": [
    {
      "id": 0,
      "content": "[PAD]",
      "single_word": false,
      "lstrip": false,
      "rstrip": false,
      "normalized": false,
      "special": true
    },
    {
      "id": 1,
      "content": "[UNK]",
      "single_word": false,
      "lstrip": false,
      "rstrip": false,
      "normalized": false,
      "special": true
    },
    {
      "id": 2,
      "content": "[MASK]",
      "single_word": false,
      "lstrip": false,
      "rstrip": false,
      "normalized": false,
      "special": true
    },
    {
      "id": 3,
      "content": "[CLS]",
      "single_word": false,
      "lstrip": false,
      "rstrip": false,
      "normalized": false,
      "special": true
    },
    {
      "id": 4,
      "content": "[SEP]",
      "single_word": false,
      "lstrip": false,
      "rstrip": false,
      "normalized": false,
      "special": true
    }
  ],
  "normalizer": {
    "type": "Sequence",
    "normalizers": [
      {
        "type": "Nmt"
      },
      {
        "type": "NFKC"
      },
      {
        "type": "Replace",
        "pattern": {
          "Regex": " {2,}"
        },
        "content": " "
      }
    ]
  },
  "pre_tokenizer": {
    "type": "Sequence",
    "pretokenizers": [
      {
        "type": "Metaspace",
        "replacement": "▁",
        "add_prefix_space": true
      },
      {
        "type": "Split",
        "pattern": {
          "Regex": "\\d"
        },
        "behavior": "MergedWithPrevious",
        "invert": false
      },
      {
        "type": "Punctuation",
        "behavior": "Isolated"
      }
    ]
  },
  "post_processor": {
    "type": "TemplateProcessing",
    "single": [
      {
        "SpecialToken": {
          "id": "[CLS]",
          "type_id": 0
        }
      },
      {
        "Sequence": {
          "id": "A",
          "type_id": 0
        }
      },
      {
        "SpecialToken": {
          "id": "[SEP]",
          "type_id": 0
        }
      }
    ],
    "pair": [
      {
        "SpecialToken": {
          "id": "[CLS]",
          "type_id": 0
        }
      },
      {
        "Sequence": {
          "id": "A",
          "type_id": 0
        }
      },
      {
        "SpecialToken": {
          "id": "[SEP]",
          "type_id": 0
        }
      },
      {
        "Sequence": {
          "id": "B",
          "type_id": 1
        }
      },
      {
        "SpecialToken": {
          "id": "[SEP]",
          "type_id": 1
        }
      }
    ],
    "special_tokens": {
      "[CLS]": {
        "id": "[CLS]",
        "ids": [
          3
        ],
        "tokens": [
          "[CLS]"
        ]
      },
      "[SEP]": {
        "id": "[SEP]",
        "ids": [
          4
        ],
        "tokens": [
          "[SEP]"
        ]
      }
    }
  },
  "decoder": {
    "type": "Metaspace",
    "replacement": "▁",
    "add_prefix_space": true
  },
  "model": {
    "type": "Unigram",
    "unk_id": 1,
    "vocab": [
      [
        "[PAD]",
        0.0
      ],
      [
        "[UNK]",
        0.0
      ],
      [
        "[MASK]",
        0.0
      ],
      [
        "[CLS]",
        0.0
      ],
      [
        "[SEP]",
        0.0
      ],
      [
        "▁",
        -2.1735170790932123
      ],
      [
        ".",
        -3.1620689419188643
      ],
      [
        ",",
        -3.8458367070131665
      ],
      [
        "▁och",
        -3.8773254381027193
      ],
      [
        "i",
        -4.077229089226087
      ],
      [
        "▁att",
        -4.110481407625805
      ],
      [
        "s",
        -4.3836473360487105
      ],
      [
        "▁är",
        -4.465724556677479
      ],
      [
        "▁som",
        -4.5200690326610555
      ],
      [
        "▁på",
        -4.536927767318566
      ],
      [
        "▁för",
        -4.61694814073617
      ],
      [
        "▁en",
        -4.624549191434191
      ],
      [
        "▁det",
        -4.6407220840666525
      ],
      [
        "a",
        -4.795850138726198
      ],
      [
        "▁med",
        -4.806826023879822
      ],
      [
        "0",
        -4.813481691474266
      ],
      [
        "t",
        -4.827855129038465
      ],
      [
        "▁av",
        -4.830416280102021
      ],
      [
        "1",
        -4.939761748984971
      ],
      [
        "▁till",
        -4.968109287035272
      ],
      [
        "-",
        -5.03865479918926
      ],
      [
        "▁har",
        -5.077450739274763
      ],
      [
        "en",
        -5.17134580289213
      ],
      [
        "2",
        -5.203417062883489
      ],
      [
        "▁jag",
        -5.217526980930071
      ],
      [
        "▁inte",
        -5.2853509222158195
      ],
      [
        "▁om",
        -5.33466879642873
      ],
      [
        "▁den",
        -5.4072171533326205
      ],
      [
        "▁ett",
        -5.444174735695729
      ],
      [
        "▁så",
        -5.514412524428266
      ],
      [
        "▁kan",
        -5.615312819237438
      ],
      [
        "▁du",
        -5.618416348668383
      ],
      [
        "▁de",
        -5.624601870118244
      ],
      [
        "n",
        -5.680098420881841
      ],
      [
        ":",
        -5.6844204570454515
      ],
      [
        "▁vi",
        -5.694729689158709
      ],
      [
        "e",
        -5.712373903285144
      ],
      [
        "▁var",
        -5.8201456367766475
      ],
      [
        "▁Det",
        -5.848926636652095
      ],
      [
        "!",
        -5.863049638295518
      ],
      [
        "er",
        -5.877922218705276
      ],
      [
        ")",
        -5.905424096938692
      ],
      [
        "5",
        -5.912982077655851
      ],
      [
        "3",
        -5.928091608540843
      ],
      [
        "▁man",
        -5.930561859618493
      ],
      [
        "▁från",
        -5.933717527945568
      ],
      [
        "r",
        -5.9599423986215605
      ],
      [
        "\"",
        -5.978191175932391
      ],
      [
        "(",
        -6.0515188385574525
      ],
      [
        "▁men",
        -6.065914497133711
      ],
      [
        "▁eller",
        -6.066293872232386
      ],
      [
        "4",
        -6.106500134651872
      ],
      [
        "9",
        -6.1136950402871655
      ],
      [
        "?",
        -6.173070668102515
      ],
      [
        "▁ska",
        -6.220183054081508
      ],
      [
        "▁sig",
        -6.266133424131187
      ],
      [
        "6",
        -6.295573897479956
      ],
      [
        "8",
        -6.337887412679912
      ],
      [
        "7",
        -6.351322869128772
      ],
      [
        "▁Jag",
        -6.377532030705986
      ],
      [
        "▁när",
        -6.387682900332104
      ],
      [
        "▁ut",
        -6.417237437173185
      ],
      [
        "▁här",
        -6.427010449563998
      ],
      [
        "▁upp",
        -6.436063107307232
      ],
      [
        "–",
        -6.43992877749737
      ],
      [
        "▁in",
        -6.446008620795613
      ],
      [
        "▁kommer",
        -6.44966437046245
      ],
      [
        "o",
        -6.471841317203635
      ],
      [
        "/",
        -6.4881652301835775
      ],
      [
        "▁vara",
        -6.513924999645802
      ],
      [
        "▁där",
        -6.521727198797851
      ],
      [
        "de",
        -6.526854425552665
      ],
      [
        "▁I",
        -6.550685913949186
      ],
      [
        "ar",
        -6.55102762624885
      ],
      [
        "▁finns",
        -6.5628872969228045
      ],
      [
        "▁Vi",
        -6.602330031879635
      ],
      [
        "▁han",
        -6.609080019848813
      ],
      [
        "▁mer",
        -6.610341784713434
      ],
      [
        "▁alla",
        -6.636859554124106
      ],
      [
        "d",
        -6.643491671196491
      ],
      [
        "▁nu",
        -6.673688656111498
      ],
      [
        "▁under",
        -6.701085363719965
      ],
      [
        "▁också",
        -6.702399823628856
      ],
      [
        "▁får",
        -6.718406070650994
      ],
      [
        "▁mycket",
        -6.728223354312243
      ],
      [
        "▁mig",
        -6.740235134011051
      ],
      [
        "▁över",
        -6.742690174541682
      ],
      [
        "▁lite",
        -6.766846553543468
      ],
      [
        "▁bra",
        -6.768861183543331
      ],
      [
        "▁år",
        -6.769565785436177
      ],
      [
        "m",
        -6.781995527143961
      ],
      [
        "”",
        -6.787201023595829
      ],
      [
        "▁efter",
        -6.792825948762303
      ],
      [
        "▁då",
        -6.811380954064749
      ],
      [
        "▁ha",
        -6.814935839843059
      ],
      [
        "▁vill",
        -6.8356678746760835
      ],
      [
        "▁även",
        -6.839443601579703
      ],
      [
        "▁andra",
        -6.839456530450207
      ],
      [
        "▁få",
        -6.843685123130898
      ],
      [
        "▁bara",
        -6.847482533036732
      ],
      [
        "▁hur",
        -6.857208036655408
      ],
      [
        "et",
        -6.865991831405539
      ],
      [
        "▁vid",
        -6.90111419451728
      ],
      [
        "▁Men",
        -6.919137590574213
      ],
      [
        "▁dig",
        -6.942069584487889
      ],
      [
        "▁hade",
        -6.957822956564552
      ],
      [
        "▁vad",
        -6.9591279322155035
      ],
      [
        "▁skulle",
        -6.98110223847965
      ],
      [
        "▁än",
        -6.995329862430211
      ],
      [
        "▁blir",
        -7.002849667740653
      ],
      [
        "▁En",
        -7.062000513080852
      ],
      [
        "▁sin",
        -7.066726163229687
      ],
      [
        "▁mot",
        -7.079130962857816
      ],
      [
        "▁många",
        -7.087080964106903
      ],
      [
        "▁göra",
        -7.093534252758461
      ],
      [
        "▁min",
        -7.141186266995234
      ],
      [
        "▁ju",
        -7.141795917771374
      ],
      [
        "▁gör",
        -7.146059823670694
      ],
      [
        "▁detta",
        -7.16346217074552
      ],
      [
        "▁hon",
        -7.170415271008384
      ],
      [
        "▁Den",
        -7.172558384098085
      ],
      [
        "▁något",
        -7.176969539690784
      ],
      [
        "▁din",
        -7.186722285742114
      ],
      [
        "▁För",
        -7.198915542637259
      ],
      [
        "▁sedan",
        -7.210429506948243
      ],
      [
        "▁oss",
        -7.2167372926179745
      ],
      [
        "▁utan",
        -7.22882149807648
      ],
      [
        "▁olika",
        -7.259183305632577
      ],
      [
        "▁De",
        -7.2624685250195125
      ],
      [
        "▁två",
        -7.265414542149637
      ],
      [
        "▁allt",
        -7.274551062468186
      ],
      [
        "are",
        -7.284967897656747
      ],
      [
        "▁säger",
        -7.285463249242534
      ],
      [
        "▁se",
        -7.295574469951394
      ],
      [
        "▁någon",
        -7.3066467405220035
      ],
      [
        "▁bli",
        -7.309675002613961
      ],
      [
        "▁del",
        -7.3246143327104605
      ],
      [
        "▁går",
        -7.332022428258416
      ],
      [
        "▁genom",
        -7.334884359855192
      ],
      [
        "▁helt",
        -7.358601565102189
      ],
      [
        "▁fick",
        -7.388805187021301
      ],
      [
        "▁nya",
        -7.4097721796661435
      ],
      [
        "▁fram",
        -7.413527047462566
      ],
      [
        "▁hela",
        -7.416791850627845
      ],
      [
        "▁måste",
        -7.4312136006037
      ],
      [
        "▁varit",
        -7.431629088629064
      ],
      [
        "▁blev",
        -7.4450850040313785
      ],
      [
        "▁Om",
        -7.446439778394778
      ],
      [
        "▁några",
        -7.451421273016013
      ],
      [
        "▁första",
        -7.451693025411734
      ],
      [
        "k",
        -7.453326109259832
      ],
      [
        "▁inom",
        -7.454364096978718
      ],
      [
        "▁dem",
        -7.465916128678028
      ],
      [
        "g",
        -7.4761125489448474
      ],
      [
        "▁kunna",
        -7.498787733010154
      ],
      [
        "▁samt",
        -7.502558707266118
      ],
      [
        "v",
        -7.508395331372807
      ],
      [
        "▁mellan",
        -7.517653640048426
      ],
      [
        "▁denna",
        -7.518596387735448
      ],
      [
        "▁När",
        -7.55582361266514
      ],
      [
        "▁Du",
        -7.5607615888151045
      ],
      [
        "erna",
        -7.563213007416744
      ],
      [
        "ade",
        -7.56495582597244
      ],
      [
        "▁Och",
        -7.578867904494791
      ],
      [
        "▁själv",
        -7.5796583706477545
      ],
      [
        "▁sätt",
        -7.596280754920199
      ],
      [
        "▁rätt",
        -7.5990372109438376
      ],
      [
        "▁annat",
        -7.605162422357795
      ],
      [
        "▁väl",
        -7.605581841934594
      ],
      [
        "▁tid",
        -7.611281275649045
      ],
      [
        "▁Sverige",
        -7.612729727308231
      ],
      [
        "▁ser",
        -7.615642131312644
      ],
      [
        "▁vår",
        -7.620466523014612
      ],
      [
        "▁S",
        -7.631209241861356
      ],
      [
        "▁vilket",
        -7.651180028254851
      ],
      [
        "▁Så",
        -7.652585325977618
      ],
      [
        "▁barn",
        -7.652861557944897
      ],
      [
        "▁både",
        -7.655263079218564
      ],
      [
        "l",
        -7.658218958983493
      ],
      [
        "▁sina",
        -7.65957134454978
      ],
      [
        "h",
        -7.671766199482009
      ],
      [
        "▁dag",
        -7.682132219749631
      ],
      [
        "▁gå",
        -7.709809329302972
      ],
      [
        "▁hos",
        -7.718065430733363
      ],
      [
        "▁Nu",
        -7.718274900538805
      ],
      [
        "▁behöver",
        -7.72557838792696
      ],
      [
        "▁våra",
        -7.7350464213421475
      ],
      [
        "▁stor",
        -7.737504643375258
      ],
      [
        "▁kanske",
        -7.742789487047126
      ],
      [
        "å",
        -7.745408764552412
      ],
      [
        "▁dessa",
        -7.753364584992902
      ],
      [
        "ande",
        -7.7574017172904615
      ],
      [
        "▁innan",
        -7.773970006553364
      ],
      [
        "p",
        -7.774259577162246
      ],
      [
        "▁vet",
        -7.7767053129450865
      ],
      [
        "▁ny",
        -7.7892581962065375
      ],
      [
        "▁flera",
        -7.7911924102811625
      ],
      [
        "▁På",
        -7.79968102219541
      ],
      [
        "▁idag",
        -7.812800901648831
      ],
      [
        "ingen",
        -7.82340070232844
      ],
      [
        "▁Han",
        -7.833074962469311
      ],
      [
        "▁tar",
        -7.83392261487557
      ],
      [
        "▁samma",
        -7.8380928681393325
      ],
      [
        ";",
        -7.8470996238789645
      ],
      [
        "▁alltid",
        -7.847726446311631
      ],
      [
        "▁sitt",
        -7.854937521317062
      ],
      [
        "▁bästa",
        -7.859125222882968
      ],
      [
        "▁kom",
        -7.859865952909741
      ],
      [
        "▁hem",
        -7.863708135569645
      ],
      [
        "▁ger",
        -7.86830194263718
      ],
      [
        "▁väldigt",
        -7.887505822072056
      ],
      [
        "▁ner",
        -7.89109723268183
      ],
      [
        "▁stora",
        -7.891869057324827
      ],
      [
        "▁ditt",
        -7.894992884046031
      ],
      [
        "&",
        -7.89589387484614
      ],
      [
        "▁bort",
        -7.896179308847461
      ],
      [
        "▁tre",
        -7.899869544809075
      ],
      [
        "▁Här",
        -7.906157850792656
      ],
      [
        "▁varje",
        -7.90625996677908
      ],
      [
        "▁Att",
        -7.907506889526763
      ],
      [
        "▁bland",
        -7.911680917625183
      ],
      [
        "▁bättre",
        -7.912701712922763
      ],
      [
        "▁tycker",
        -7.922837934152632
      ],
      [
        "ens",
        -7.923255981914881
      ],
      [
        "▁A",
        -7.926918831618373
      ],
      [
        "▁Detta",
        -7.93526157221549
      ],
      [
        "▁igen",
        -7.935320726520972
      ],
      [
        "f",
        -7.949302169877008
      ],
      [
        "▁gäller",
        -7.956105679772882
      ],
      [
        "▁fall",
        -7.958490622660964
      ],
      [
        "▁ligger",
        -7.966638419944514
      ],
      [
        "▁nog",
        -7.969124996003487
      ],
      [
        "c",
        -7.9771651101924625
      ],
      [
        "▁tidigare",
        -7.9811482645993745
      ],
      [
        "▁fått",
        -7.984977097738996
      ],
      [
        "▁just",
        -7.9948341272339984
      ],
      [
        "▁gång",
        -8.00006380910018
      ],
      [
        "y",
        -8.002833028326032
      ],
      [
        "%",
        -8.003211939275182
      ],
      [
        "▁mitt",
        -8.005811286711834
      ],
      [
        "arna",
        -8.006796685260012
      ],
      [
        "▁komma",
        -8.007075040010095
      ],
      [
        "▁Läs",
        -8.033218588611396
      ],
      [
        "▁be",
        -8.034103210783863
      ],
      [
        "▁tror",
        -8.03835195006005
      ],
      [
        "▁åt",
        -8.04221500281231
      ],
      [
        "▁riktigt",
        -8.045269576647971
      ],
      [
        "▁hitta",
        -8.049041969733238
      ],
      [
        "▁dock",
        -8.059623052464405
      ],
      [
        "▁skall",
        -8.063907050022946
      ],
      [
        "▁eftersom",
        -8.067983697806275
      ],
      [
        "▁Vad",
        -8.071550343390841
      ],
      [
        "▁enligt",
        -8.073250088407066
      ],
      [
        "des",
        -8.074574161371165
      ],
      [
        "▁Har",
        -8.07468197608892
      ],
      [
        "▁annan",
        -8.075200074045945
      ],
      [
        "▁ge",
        -8.077697073949857
      ],
      [
        "▁gick",
        -8.080342997984502
      ],
      [
        "▁plats",
        -8.08140858214789
      ],
      [
        "▁mest",
        -8.082433565030362
      ],
      [
        "▁B",
        -8.08504431292596
      ],
      [
        "▁redan",
        -8.089644335713297
      ],
      [
        "u",
        -8.102387964406432
      ],
      [
        "▁människor",
        -8.111994820991146
      ],
      [
        "▁Ett",
        -8.113635699317086
      ],
      [
        "▁svenska",
        -8.115204045044925
      ],
      [
        "▁Hur",
        -8.116235438813955
      ],
      [
        "▁Med",
        -8.11845682034652
      ],
      [
        "▁runt",
        -8.125047197931565
      ],
      [
        "▁kunde",
        -8.129088126419536
      ],
      [
        "▁fler",
        -8.136577757272585
      ],
      [
        "S",
        -8.136601430265245
      ],
      [
        "▁deras",
        -8.16132493237636
      ],
      [
        "▁dina",
        -8.162100822834075
      ],
      [
        "▁gjort",
        -8.162990910104282
      ],
      [
        "▁företag",
        -8.169490957390154
      ],
      [
        "▁lika",
        -8.17558260242663
      ],
      [
        "▁aldrig",
        -8.17763997470013
      ],
      [
        "b",
        -8.186793790100069
      ],
      [
        "▁hjälp",
        -8.188378988986607
      ],
      [
        "▁verkligen",
        -8.188893320351823
      ],
      [
        "▁dom",
        -8.198125950131361
      ],
      [
        "▁tillsammans",
        -8.19898475833894
      ],
      [
        "▁tillbaka",
        -8.20067857862882
      ],
      [
        "▁C",
        -8.201082850552144
      ],
      [
        "▁gjorde",
        -8.214444554729145
      ],
      [
        "▁tiden",
        -8.226988455042308
      ],
      [
        "▁information",
        -8.238911763233341
      ],
      [
        "▁ofta",
        -8.243365469436542
      ],
      [
        "▁mina",
        -8.252109328627458
      ],
      [
        "▁Man",
        -8.2572805243291
      ],
      [
        "▁P",
        -8.259626453928812
      ],
      [
        "▁därför",
        -8.261758532937668
      ],
      [
        "▁personer",
        -8.263078562470133
      ],
      [
        "▁tog",
        -8.263175891789773
      ],
      [
        "▁lätt",
        -8.265743706553954
      ],
      [
        "▁mindre",
        -8.270556098078794
      ],
      [
        "▁använda",
        -8.273024806770051
      ],
      [
        "▁M",
        -8.273337236618378
      ],
      [
        "▁sen",
        -8.281452553192374
      ],
      [
        "▁läsa",
        -8.284435456933409
      ],
      [
        "▁honom",
        -8.291748564315931
      ],
      [
        "▁säga",
        -8.301306263662854
      ],
      [
        "'",
        -8.30537215331871
      ],
      [
        "▁hemma",
        -8.31706534599
      ],
      [
        "▁ändå",
        -8.318698126665778
      ],
      [
        "▁större",
        -8.322757396550807
      ],
      [
        "▁bör",
        -8.324206576712145
      ],
      [
        "▁direkt",
        -8.325243285815116
      ],
      [
        "▁F",
        -8.330763550591568
      ],
      [
        "▁ur",
        -8.334414895408731
      ],
      [
        "▁grund",
        -8.337881258048428
      ],
      [
        "▁E",
        -8.343207928562517
      ],
      [
        "▁står",
        -8.352426947746086
      ],
      [
        "▁hans",
        -8.352829317021866
      ],
      [
        "▁mat",
        -8.353149976815581
      ],
      [
        "▁enkelt",
        -8.353948334253781
      ],
      [
        "ing",
        -8.354364365094552
      ],
      [
        "▁Som",
        -8.35450729245026
      ],
      [
        "▁innebär",
        -8.355314461653522
      ],
      [
        "▁exempel",
        -8.356933922789509
      ],
      [
        "▁egen",
        -8.358248857921431
      ],
      [
        "▁kvar",
        -8.3583982307433
      ],
      [
        "▁små",
        -8.359717946798886
      ],
      [
        "▁Efter",
        -8.36286024733057
      ],
      [
        "▁mål",
        -8.368931590993208
      ],
      [
        "▁T",
        -8.387476889071756
      ],
      [
        "▁senaste",
        -8.387655604672172
      ],
      [
        "▁procent",
        -8.390465954854767
      ],
      [
        "▁Hon",
        -8.391520729626574
      ],
      [
        "▁slut",
        -8.392660731397871
      ],
      [
        "▁haft",
        -8.394722136360162
      ],
      [
        "▁längre",
        -8.395134508326223
      ],
      [
        "▁känner",
        -8.397642702941457
      ],
      [
        "▁liv",
        -8.397718096174422
      ],
      [
        "▁hög",
        -8.400861371340044
      ],
      [
        "▁Då",
        -8.40672983378865
      ],
      [
        "▁stort",
        -8.407782851314085
      ],
      [
        "▁dagar",
        -8.40815040738662
      ],
      [
        "håller",
        -8.410966178832274
      ],
      [
        "man",
        -8.411045730548866
      ],
      [
        "▁spel",
        -8.411049380960327
      ],
      [
        "▁problem",
        -8.42033782529356
      ],
      [
        "▁saker",
        -8.422860951330124
      ],
      [
        "or",
        -8.426336537462575
      ],
      [
        "▁G",
        -8.429547921397626
      ],
      [
        "▁god",
        -8.433210461133564
      ],
      [
        "▁blivit",
        -8.437074490497963
      ],
      [
        "▁kr",
        -8.44001530053965
      ],
      [
        "▁länge",
        -8.445233281938116
      ],
      [
        "▁möjligt",
        -8.450930520531537
      ],
      [
        "▁Stockholm",
        -8.451232784869502
      ],
      [
        "▁faktiskt",
        -8.453967147880675
      ],
      [
        "▁vatten",
        -8.454537836605754
      ],
      [
        "▁Under",
        -8.46073695808691
      ],
      [
        "]",
        -8.464723208188623
      ],
      [
        "[",
        -8.465887031975942
      ],
      [
        "▁par",
        -8.465895129394177
      ],
      [
        "▁lång",
        -8.467762516911993
      ],
      [
        "▁visar",
        -8.472117927043945
      ],
      [
        "▁pengar",
        -8.472988565835056
      ],
      [
        "|",
        -8.473245441610556
      ],
      [
        "▁köpa",
        -8.480731703365917
      ],
      [
        "▁skapa",
        -8.483103410158705
      ],
      [
        "▁svårt",
        -8.487553370729286
      ],
      [
        "▁ganska",
        -8.490064390296004
      ],
      [
        "▁känns",
        -8.492196862644338
      ],
      [
        "▁kort",
        -8.493025509366289
      ],
      [
        "▁K",
        -8.494570890516965
      ],
      [
        "▁ännu",
        -8.49764033003156
      ],
      [
        "▁per",
        -8.500427310990482
      ],
      [
        "▁liten",
        -8.501993864032409
      ],
      [
        "▁hand",
        -8.505402491330925
      ],
      [
        "▁börjar",
        -8.505457486441335
      ],
      [
        "▁gärna",
        -8.5149787309601
      ],
      [
        "▁H",
        -8.515803680567057
      ],
      [
        "▁hålla",
        -8.521538224786589
      ],
      [
        "▁inget",
        -8.523470140226193
      ],
      [
        "▁Är",
        -8.528168022280699
      ],
      [
        "in",
        -8.528734470065835
      ],
      [
        "▁nytt",
        -8.530577245920428
      ],
      [
        "▁inför",
        -8.542264457148303
      ],
      [
        "▁ute",
        -8.544935880725923
      ],
      [
        "▁nästan",
        -8.54769273884844
      ],
      [
        "▁hotell",
        -8.548810669101284
      ],
      [
        "gått",
        -8.552587861447682
      ],
      [
        "▁fortfarande",
        -8.555145114787823
      ],
      [
        "▁vårt",
        -8.557583788675567
      ],
      [
        "▁extra",
        -8.560101249391332
      ],
      [
        "▁handlar",
        -8.564861536036918
      ],
      [
        "▁dagen",
        -8.565041720540846
      ],
      [
        "x",
        -8.567817735321958
      ],
      [
        "▁frågor",
        -8.568662021216433
      ],
      [
        "▁folk",
        -8.569759995295634
      ],
      [
        "▁vissa",
        -8.570013201633724
      ],
      [
        "liga",
        -8.57128137762141
      ],
      [
        "▁fast",
        -8.573336670970209
      ],
      [
        "▁dess",
        -8.57793428487719
      ],
      [
        "▁kronor",
        -8.580235102176315
      ],
      [
        "▁först",
        -8.581782201213603
      ],
      [
        "▁gånger",
        -8.583109652978111
      ],
      [
        "▁precis",
        -8.58786082017681
      ],
      [
        "▁vilka",
        -8.58810369248339
      ],
      [
        "hittar",
        -8.591136914985613
      ],
      [
        "▁ca",
        -8.591686842057396
      ],
      [
        "▁samtidigt",
        -8.593333386681469
      ],
      [
        "▁alltså",
        -8.598613163001184
      ],
      [
        "▁vidare",
        -8.600324430510897
      ],
      [
        "▁istället",
        -8.601941414747905
      ],
      [
        "▁spela",
        -8.601970709743886
      ],
      [
        "▁hoppas",
        -8.603238469265655
      ],
      [
        "*",
        -8.604709731170324
      ],
      [
        "▁henne",
        -8.606151862682736
      ],
      [
        "▁Ja",
        -8.606220492183883
      ],
      [
        "ligt",
        -8.607584142046953
      ],
      [
        "▁senare",
        -8.611157230845425
      ],
      [
        "▁använder",
        -8.6127815421559
      ],
      [
        "▁viktigt",
        -8.61385700335868
      ],
      [
        "▁L",
        -8.614558679257229
      ],
      [
        "▁bilder",
        -8.615610836726956
      ],
      [
        "▁året",
        -8.616855747061944
      ],
      [
        "▁fel",
        -8.618024934840937
      ],
      [
        "▁kommun",
        -8.619744937728374
      ],
      [
        "▁väg",
        -8.620333891765325
      ],
      [
        "▁Alla",
        -8.622172084566984
      ],
      [
        "▁vilken",
        -8.623904548782889
      ],
      [
        "▁form",
        -8.632799020557634
      ],
      [
        "▁bil",
        -8.634949174341145
      ],
      [
        "vägen",
        -8.63764751224391
      ],
      [
        "▁nästa",
        -8.639070878454598
      ],
      [
        "▁arbete",
        -8.641599080329197
      ],
      [
        "▁började",
        -8.64230186366143
      ],
      [
        "▁gott",
        -8.64261514997535
      ],
      [
        "▁N",
        -8.648834628940367
      ],
      [
        "▁fyra",
        -8.649108784181132
      ],
      [
        "▁skriver",
        -8.652159249180656
      ],
      [
        "▁sidan",
        -8.653141334282289
      ],
      [
        "▁åter",
        -8.656692333389405
      ],
      [
        "talet",
        -8.656878617130687
      ],
      [
        "▁stöd",
        -8.656897080750252
      ],
      [
        "▁ihop",
        -8.660227670213187
      ],
      [
        "▁sista",
        -8.662664521045773
      ],
      [
        "▁största",
        -8.66387569309853
      ],
      [
        "▁gratis",
        -8.666116010722021
      ],
      [
        "▁person",
        -8.666495442843178
      ],
      [
        "▁Där",
        -8.666981330940176
      ],
      [
        "▁O",
        -8.66858980544116
      ],
      [
        "▁endast",
        -8.670619789899657
      ],
      [
        "▁nära",
        -8.671598281539012
      ],
      [
        "el",
        -8.675476824970314
      ],
      [
        "området",
        -8.678264227869693
      ],
      [
        "▁lag",
        -8.682162392372838
      ],
      [
        "▁fråga",
        -8.682676544305503
      ],
      [
        "▁erbjuder",
        -8.685258160555447
      ],
      [
        "▁flesta",
        -8.68573855511528
      ],
      [
        "▁jobb",
        -8.686360729223736
      ],
      [
        "▁kvinnor",
        -8.687816680662879
      ],
      [
        "▁själva",
        -8.69645132443941
      ],
      [
        "▁minst",
        -8.696787306753325
      ],
      [
        "▁pris",
        -8.69879383104403
      ],
      [
        "om",
        -8.70179186235911
      ],
      [
        "▁sett",
        -8.705272400759265
      ],
      [
        "för",
        -8.707844389977247
      ],
      [
        "▁kring",
        -8.708285832234377
      ],
      [
        "▁snabbt",
        -8.708809801900069
      ],
      [
        "▁Till",
        -8.712038249762005
      ],
      [
        "▁hennes",
        -8.717179941241936
      ],
      [
        "vis",
        -8.721527599407288
      ],
      [
        "▁egna",
        -8.721785607444717
      ],
      [
        "▁bild",
        -8.723364459945866
      ],
      [
        "▁välja",
        -8.723852698094548
      ],
      [
        "aste",
        -8.725172522263343
      ],
      [
        "▁D",
        -8.726116521121101
      ],
      [
        "▁såg",
        -8.734988259804489
      ],
      [
        "▁möjlighet",
        -8.73513690045152
      ],
      [
        "▁världen",
        -8.739608141010226
      ],
      [
        "▁dessutom",
        -8.741993547150448
      ],
      [
        "ning",
        -8.744100376883091
      ],
      [
        "▁klart",
        -8.746284853676965
      ],
      [
        "tagit",
        -8.748818851217482
      ],
      [
        "▁beslut",
        -8.750417780645735
      ],
      [
        "▁hel",
        -8.752824720482971
      ],
      [
        "▁börja",
        -8.75451497247071
      ],
      [
        "▁Idag",
        -8.756394865851192
      ],
      [
        "▁gamla",
        -8.76297283818972
      ],
      [
        "▁borde",
        -8.76302863575021
      ],
      [
        "▁vecka",
        -8.765481189683419
      ],
      [
        "▁all",
        -8.769946919311147
      ],
      [
        "ö",
        -8.782963552246253
      ],
      [
        "▁rum",
        -8.785265925821756
      ],
      [
        "son",
        -8.788208947406174
      ],
      [
        "D",
        -8.788479015388686
      ],
      [
        "▁helst",
        -8.788813555343719
      ],
      [
        "▁långt",
        -8.789978692386637
      ],
      [
        "▁hjälper",
        -8.790784017859409
      ],
      [
        "▁varför",
        -8.792489664707693
      ],
      [
        "▁kul",
        -8.792509778770748
      ],
      [
        "▁Även",
        -8.794398723923893
      ],
      [
        "▁AB",
        -8.79527618462549
      ],
      [
        "▁sex",
        -8.796100051402275
      ],
      [
        "on",
        -8.79838489853711
      ],
      [
        "j",
        -8.80121093733087
      ],
      [
        "▁lägga",
        -8.802392433633061
      ],
      [
        "▁tips",
        -8.802519331097267
      ],
      [
        "▁trots",
        -8.80304265703613
      ],
      [
        "inga",
        -8.803113330102637
      ],
      [
        "▁fin",
        -8.803350587743573
      ],
      [
        "▁delar",
        -8.80644562724555
      ],
      [
        "▁verkar",
        -8.809426895593207
      ],
      [
        "A",
        -8.813681684810472
      ],
      [
        "▁behov",
        -8.814078270959344
      ],
      [
        "berg",
        -8.820319600474955
      ],
      [
        "▁början",
        -8.820887614233408
      ],
      [
        "▁ville",
        -8.823565566255898
      ],
      [
        "_",
        -8.825678505669503
      ],
      [
        "▁minuter",
        -8.826439023392014
      ],
      [
        "▁hjälpa",
        -8.827699318996887
      ],
      [
        "▁Nike",
        -8.82979909783952
      ],
      [
        "▁typ",
        -8.830647700374854
      ],
      [
        "▁Air",
        -8.83430763517956
      ],
      [
        "▁veckan",
        -8.837710826425196
      ],
      [
        "▁fem",
        -8.838147905521508
      ],
      [
        "▁brukar",
        -8.839520964785855
      ],
      [
        "▁R",
        -8.840022506399746
      ],
      [
        "emot",
        -8.840438852921237
      ],
      [
        "▁medan",
        -8.840764894445176
      ],
      [
        "▁tänka",
        -8.842498246234367
      ],
      [
        "▁visa",
        -8.843159767765375
      ],
      [
        "▁skriva",
        -8.846001992308219
      ],
      [
        "▁svar",
        -8.846401419837616
      ],
      [
        "ex",
        -8.847906349052188
      ],
      [
        "▁ibland",
        -8.850597549518968
      ],
      [
        "▁enda",
        -8.852649261792413
      ],
      [
        "Denna",
        -8.854259573982455
      ],
      [
        "▁V",
        -8.854903190777582
      ],
      [
        "▁snart",
        -8.85607384886507
      ],
      [
        "▁namn",
        -8.85725515671608
      ],
      [
        "▁of",
        -8.859216155194394
      ],
      [
        "▁Max",
        -8.860056512757174
      ],
      [
        "▁Vid",
        -8.86210468931007
      ],
      [
        "▁fina",
        -8.862405616805807
      ],
      [
        "▁arbetar",
        -8.864185852645415
      ],
      [
        "▁heller",
        -8.865019328412822
      ],
      [
        "ska",
        -8.866747456565106
      ],
      [
        "fanns",
        -8.876547796804616
      ],
      [
        "iska",
        -8.877340245448742
      ],
      [
        "▁gången",
        -8.877782659882168
      ],
      [
        "▁egentligen",
        -8.884263431214682
      ],
      [
        "▁kl",
        -8.887121207455179
      ],
      [
        "▁vanligt",
        -8.888369990057802
      ],
      [
        "stod",
        -8.888843308931477
      ],
      [
        "▁livet",
        -8.89078598739516
      ],
      [
        "▁miljö",
        -8.891459010945946
      ],
      [
        "▁Sedan",
        -8.891838762806655
      ],
      [
        "▁känna",
        -8.894315998609926
      ],
      [
        "▁förslag",
        -8.898633376678838
      ],
      [
        "▁emot",
        -8.900709592912351
      ],
      [
        "ig",
        -8.901503063772369
      ],
      [
        "▁miljoner",
        -8.906205588781631
      ],
      [
        "▁inne",
        -8.908362168558899
      ],
      [
        "▁timmar",
        -8.914423762129637
      ],
      [
        "igt",
        -8.914824032024235
      ],
      [
        "▁resultat",
        -8.915727330641532
      ],
      [
        "▁dags",
        -8.916770428379053
      ],
      [
        "+",
        -8.91781410931486
      ],
      [
        "▁online",
        -8.918096493640087
      ],
      [
        "·",
        -8.921628968665813
      ],
      [
        "▁tag",
        -8.921758274256826
      ],
      [
        "▁EU",
        -8.922655644229202
      ],
      [
        "▁antal",
        -8.926009341594757
      ],
      [
        "sitter",
        -8.927292656124376
      ],
      [
        "iga",
        -8.928722400413287
      ],
      [
        "com",
        -8.928790994598089
      ],
      [
        "▁utanför",
        -8.930113162143712
      ],
      [
        "▁veta",
        -8.93045816996248
      ],
      [
        "▁Sveriges",
        -8.931423538837164
      ],
      [
        "▁km",
        -8.933790095360893
      ],
      [
        "▁Tack",
        -8.934602131068072
      ],
      [
        "=",
        -8.934801702344894
      ],
      [
        "▁ord",
        -8.935120514588984
      ],
      [
        "sagt",
        -8.937103749058906
      ],
      [
        "▁varandra",
        -8.94023361941133
      ],
      [
        "▁jätte",
        -8.942355773053091
      ],
      [
        "▁bäst",
        -8.942491298713007
      ],
      [
        "▁hus",
        -8.943218872677633
      ],
      [
        "▁särskilt",
        -8.944851679643852
      ],
      [
        "▁passar",
        -8.945017044325716
      ],
      [
        "▁framför",
        -8.94732737012254
      ],
      [
        "▁verksamhet",
        -8.947414115503799
      ],
      [
        "▁ytterligare",
        -8.949388537815294
      ],
      [
        "▁låg",
        -8.952589962256358
      ],
      [
        "sson",
        -8.95785593892736
      ],
      [
        "▁fungerar",
        -8.95824983674409
      ],
      [
        "▁båda",
        -8.959039995277813
      ],
      [
        "“",
        -8.962831304105336
      ],
      [
        "B",
        -8.962974610005526
      ],
      [
        "▁val",
        -8.966357117012302
      ],
      [
        "▁energi",
        -8.969977245468872
      ],
      [
        "▁resa",
        -8.970636686729536
      ],
      [
        "▁förra",
        -8.972224695624094
      ],
      [
        "▁produkter",
        -8.976034986292598
      ],
      [
        "▁används",
        -8.977634896406146
      ],
      [
        "▁gillar",
        -8.983990103215795
      ],
      [
        "▁färg",
        -8.9865732416436
      ],
      [
        "▁kommit",
        -8.988293905150448
      ],
      [
        "▁Sen",
        -8.992152150038995
      ],
      [
        "▁kontakt",
        -8.993171111720176
      ],
      [
        "▁USA",
        -8.996120487002303
      ],
      [
        "▁skolan",
        -9.002032792866126
      ],
      [
        "tänker",
        -9.003464066908933
      ],
      [
        "▁Min",
        -9.005019153371205
      ],
      [
        "▁Av",
        -9.005280529309744
      ],
      [
        "▁ned",
        -9.00754765354296
      ],
      [
        "ej",
        -9.009694580052086
      ],
      [
        "▁händer",
        -9.013328971095726
      ],
      [
        "lagen",
        -9.014207268178582
      ],
      [
        "▁utveckling",
        -9.02042681400911
      ],
      [
        "▁bakom",
        -9.023677402650343
      ],
      [
        "▁omdömen",
        -9.02433070471514
      ],
      [
        "▁Se",
        -9.024453729925762
      ],
      [
        "▁sådan",
        -9.031436661273078
      ],
      [
        "▁arbeta",
        -9.031599444519749
      ],
      [
        "▁söker",
        -9.033667554155706
      ],
      [
        "▁Inte",
        -9.034719293993364
      ],
      [
        "▁spelar",
        -9.037969493279208
      ],
      [
        "▁tur",
        -9.039343346913
      ],
      [
        "▁betala",
        -9.043615853985639
      ],
      [
        "och",
        -9.049519468579826
      ],
      [
        "▁igenom",
        -9.050300289243282
      ],
      [
        "▁åka",
        -9.052400717311986
      ],
      [
        "▁barnen",
        -9.052744508764524
      ],
      [
        "▁bok",
        -9.055502852316124
      ],
      [
        "▁landet",
        -9.055696788281738
      ],
      [
        "▁säkert",
        -9.055701082849284
      ],
      [
        "▁skicka",
        -9.055760536618788
      ],
      [
        "het",
        -9.056900912460469
      ],
      [
        "▁svensk",
        -9.057739395869664
      ],
      [
        "▁bor",
        -9.06115493356162
      ],
      [
        "▁inlägg",
        -9.065495747517454
      ],
      [
        "▁ovan",
        -9.065850740256115
      ],
      [
        "­",
        -9.068227667789206
      ],
      [
        "▁sätta",
        -9.06839314825769
      ],
      [
        "▁veckor",
        -9.069393779746964
      ],
      [
        "Dessutom",
        -9.072757340427833
      ],
      [
        "Enligt",
        -9.073618098722784
      ],
      [
        "▁lilla",
        -9.074998305506607
      ],
      [
        "▁Kan",
        -9.07659536415554
      ],
      [
        "▁besök",
        -9.077422993437207
      ],
      [
        "la",
        -9.080869748366336
      ],
      [
        "▁högre",
        -9.083306019156002
      ],
      [
        "▁sak",
        -9.086054206012582
      ],
      [
        "▁innehåller",
        -9.087636793901394
      ],
      [
        "▁äta",
        -9.089889873594405
      ],
      [
        "▁ljus",
        -9.093402103069696
      ],
      [
        "▁sida",
        -9.093757642946512
      ],
      [
        "▁maj",
        -9.093790400301433
      ],
      [
        "▁månader",
        -9.094324564661054
      ],
      [
        "▁kroppen",
        -9.097032739199404
      ],
      [
        "▁ja",
        -9.097898522219685
      ],
      [
        "år",
        -9.099254583066728
      ],
      [
        "▁alls",
        -9.101516747896564
      ],
      [
        "▁män",
        -9.101837668975694
      ],
      [
        "▁huvud",
        -9.10245059110661
      ],
      [
        "C",
        -9.103018721184952
      ],
      [
        "▁krav",
        -9.104508466458217
      ],
      [
        "▁jobba",
        -9.104667352161353
      ],
      [
        "▁berättar",
        -9.105465117885352
      ],
      [
        "▁lämna",
        -9.110111983960124
      ],
      [
        "▁ingår",
        -9.11257207714887
      ],
      [
        ">",
        -9.113695274955118
      ],
      [
        "▁projekt",
        -9.115047830325123
      ],
      [
        "▁öppna",
        -9.116159195402888
      ],
      [
        "▁steg",
        -9.116205554715004
      ],
      [
        "▁lära",
        -9.118660220166579
      ],
      [
        "▁försöka",
        -9.119541279067851
      ],
      [
        "▁Vill",
        -9.121566844004516
      ],
      [
        "▁kunder",
        -9.123011759335116
      ],
      [
        "▁åren",
        -9.124327209167244
      ],
      [
        "Många",
        -9.124565799507826
      ],
      [
        "▁kör",
        -9.126669081511976
      ],
      [
        "▁The",
        -9.126966825247123
      ],
      [
        "▁max",
        -9.129130879523577
      ],
      [
        "samma",
        -9.129607959950707
      ],
      [
        "att",
        -9.130308190266112
      ],
      [
        "väljer",
        -9.132549371044721
      ],
      [
        "▁Var",
        -9.137340162774104
      ],
      [
        "I",
        -9.137509353769905
      ],
      [
        "▁roligt",
        -9.138944537785097
      ],
      [
        "▁personal",
        -9.138983747201811
      ],
      [
        "▁film",
        -9.139116169045476
      ],
      [
        "▁betyg",
        -9.139829606296875
      ],
      [
        "▁the",
        -9.14008580585528
      ],
      [
        "▁äldre",
        -9.140999082227653
      ],
      [
        "M",
        -9.14309741808185
      ],
      [
        "▁främst",
        -9.144563124893667
      ],
      [
        "▁bygga",
        -9.1467015245463
      ],
      [
        "▁frågan",
        -9.149841640902796
      ],
      [
        "▁Göteborg",
        -9.151764804771707
      ],
      [
        "▁följa",
        -9.152506610040259
      ],
      [
        "▁mamma",
        -9.15255908174392
      ],
      [
        "▁musik",
        -9.157865895214234
      ],
      [
        "är",
        -9.169083190243624
      ],
      [
        "▁viktig",
        -9.169217541299531
      ],
      [
        "P",
        -9.169731012665803
      ],
      [
        "▁perfekt",
        -9.173339350368767
      ],
      [
        "går",
        -9.176075491890627
      ],
      [
        "▁skrev",
        -9.179513054851537
      ],
      [
        "▁spelare",
        -9.18134739729208
      ],
      [
        "▁tack",
        -9.182172592822894
      ],
      [
        "▁U",
        -9.183843846268022
      ],
      [
        "▁igång",
        -9.184666764140001
      ],
      [
        "▁spännande",
        -9.186899640644823
      ],
      [
        "▁alternativ",
        -9.187358280728695
      ],
      [
        "ström",
        -9.188730595985952
      ],
      [
        "▁J",
        -9.190172973801843
      ],
      [
        "▁dra",
        -9.190742367331557
      ],
      [
        "läget",
        -9.190761849952988
      ],
      [
        "ja",
        -9.192087834069842
      ],
      [
        "▁vänner",
        -9.19228820784211
      ],
      [
        "▁sker",
        -9.192860840211862
      ],
      [
        "▁fint",
        -9.19302816039913
      ],
      [
        "T",
        -9.19444724044317
      ],
      [
        "▁ifrån",
        -9.19475599759301
      ],
      [
        "▁tydlig",
        -9.19616438447933
      ],
      [
        "▁ansvar",
        -9.200056477459604
      ],
      [
        "ligen",
        -9.2001027780287
      ],
      [
        "▁full",
        -9.201268122605562
      ],
      [
        "▁samband",
        -9.205515163694526
      ],
      [
        "Det",
        -9.205583534636576
      ],
      [
        "▁poäng",
        -9.208587881544076
      ],
      [
        "▁följande",
        -9.21029049730537
      ],
      [
        "▁nätet",
        -9.21087766926621
      ],
      [
        "▁goda",
        -9.212519472262956
      ],
      [
        "▁blogg",
        -9.213483070791575
      ],
      [
        "▁uppgifter",
        -9.213798294842448
      ],
      [
        "▁vanlig",
        -9.214421349605274
      ],
      [
        "▁sommar",
        -9.215660971596572
      ],
      [
        "▁dit",
        -9.218831825373263
      ],
      [
        "slutet",
        -9.220424342548629
      ],
      [
        "▁satt",
        -9.221111995873517
      ],
      [
        "▁januari",
        -9.22114284594145
      ],
      [
        "▁Svenska",
        -9.22175740034426
      ],
      [
        "▁fort",
        -9.222803383217311
      ],
      [
        "▁roll",
        -9.224390391876938
      ],
      [
        "▁massa",
        -9.225680307729807
      ],
      [
        "▁Malmö",
        -9.227647091944656
      ],
      [
        "▁års",
        -9.229618355426163
      ],
      [
        "▁minska",
        -9.229896016905032
      ],
      [
        "▁jobbar",
        -9.23162392211956
      ],
      [
        "▁arbets",
        -9.232526800243981
      ],
      [
        "▁månad",
        -9.235374058802005
      ],
      [
        "▁erfarenhet",
        -9.235473532490053
      ],
      [
        "laget",
        -9.236934582561714
      ],
      [
        "▁jobbet",
        -9.237036601586757
      ],
      [
        "▁Allt",
        -9.23789498373668
      ],
      [
        "▁eget",
        -9.238045029475943
      ],
      [
        "som",
        -9.240569881268705
      ],
      [
        "▁titta",
        -9.24248266879095
      ],
      [
        "▁lär",
        -9.242963038616471
      ],
      [
        "▁augusti",
        -9.246328368959253
      ],
      [
        "▁utbildning",
        -9.247140113930326
      ],
      [
        "▁liknande",
        -9.248761421573686
      ],
      [
        "tid",
        -9.248929543232439
      ],
      [
        "▁län",
        -9.250329322549366
      ],
      [
        "▁älskar",
        -9.250902895089872
      ],
      [
        "▁fortsätta",
        -9.251273050868878
      ],
      [
        "▁liksom",
        -9.25206324277867
      ],
      [
        "▁öka",
        -9.252366238922871
      ],
      [
        "ger",
        -9.25278126098891
      ],
      [
        "lig",
        -9.252843610355324
      ],
      [
        "försöker",
        -9.25311173659757
      ],
      [
        "▁Dessa",
        -9.254181790216949
      ],
      [
        "▁unga",
        -9.254220010864534
      ],
      [
        "▁Genom",
        -9.258293616955893
      ],
      [
        "står",
        -9.258982837503778
      ],
      [
        "§",
        -9.259413632528695
      ],
      [
        "låter",
        -9.261643996203436
      ],
      [
        "▁stå",
        -9.262965407295122
      ],
      [
        "▁fortsätter",
        -9.263908294463754
      ],
      [
        "▁igår",
        -9.264962902792083
      ],
      [
        "▁kommunen",
        -9.265284512060923
      ],
      [
        "K",
        -9.267734092381426
      ],
      [
        "▁behövs",
        -9.268313165526527
      ],
      [
        "▁tio",
        -9.268777966914424
      ],
      [
        "▁vem",
        -9.268998132066603
      ],
      [
        "delen",
        -9.269345137291552
      ],
      [
        "▁glad",
        -9.269739755442304
      ],
      [
        "▁Nej",
        -9.27036060736257
      ],
      [
        "▁priser",
        -9.275988756948841
      ],
      [
        "▁tro",
        -9.279779941663165
      ],
      [
        "▁Bra",
        -9.280670323770826
      ],
      [
        "▁krävs",
        -9.281471470189746
      ],
      [
        "▁material",
        -9.284738635945063
      ],
      [
        "▁tredje",
        -9.28572135347761
      ],
      [
        "▁vilja",
        -9.287159635465375
      ],
      [
        "Därför",
        -9.287174891987327
      ],
      [
        "Jag",
        -9.288084762446882
      ],
      [
        "▁utveckla",
        -9.288323533493372
      ],
      [
        "▁användas",
        -9.288668553150272
      ],
      [
        "era",
        -9.289184041568332
      ],
      [
        "▁maskinöver",
        -9.28967869926103
      ],
      [
        "nde",
        -9.29197164955993
      ],
      [
        "▁rör",
        -9.29269983781166
      ],
      [
        "#",
        -9.292964853947574
      ],
      [
        "▁Från",
        -9.293428828086878
      ],
      [
        "▁mars",
        -9.296605191384632
      ],
      [
        "betyder",
        -9.296616001412374
      ],
      [
        "▁Eller",
        -9.30208920098964
      ],
      [
        "▁länder",
        -9.303866539941767
      ],
      [
        "▁Visa",
        -9.305116877342547
      ],
      [
        "▁program",
        -9.309239685061046
      ],
      [
        "▁kvalitet",
        -9.313318476916873
      ],
      [
        "▁köra",
        -9.314206130367072
      ],
      [
        "▁bidra",
        -9.3150791537654
      ],
      [
        "▁fortsatt",
        -9.315369938482233
      ],
      [
        "▁arbetet",
        -9.315622449579608
      ],
      [
        "▁ungefär",
        -9.31956387485659
      ],
      [
        "nike",
        -9.321030585128625
      ],
      [
        "▁kväll",
        -9.321463595709451
      ],
      [
        "▁nedan",
        -9.322053892122785
      ],
      [
        "därmed",
        -9.324806825251274
      ],
      [
        "▁meter",
        -9.326382617300991
      ],
      [
        "▁hör",
        -9.330820776815633
      ],
      [
        "▁kultur",
        -9.331223408232788
      ],
      [
        "▁kontakta",
        -9.332243337005886
      ],
      [
        "▁bilen",
        -9.333518004913833
      ],
      [
        "▁and",
        -9.334660498576286
      ],
      [
        "»",
        -9.335891252916312
      ],
      [
        "▁påverka",
        -9.336502292869032
      ],
      [
        "tal",
        -9.336717146138165
      ],
      [
        "▁jul",
        -9.341166303763393
      ],
      [
        "▁stund",
        -9.343479471768875
      ],
      [
        "▁vård",
        -9.343823455269835
      ],
      [
        "▁start",
        -9.343976864428544
      ],
      [
        "av",
        -9.344395714476564
      ],
      [
        "Kanske",
        -9.344905422960638
      ],
      [
        "eller",
        -9.345811325368796
      ],
      [
        "▁engelska",
        -9.34826069368815
      ],
      [
        "▁kunskap",
        -9.350679476559177
      ],
      [
        "finnas",
        -9.350831169610506
      ],
      [
        "▁heter",
        -9.351076554630492
      ],
      [
        "tyckte",
        -9.351223132531329
      ],
      [
        "▁grupp",
        -9.351607169066789
      ],
      [
        "▁exempelvis",
        -9.351723114421883
      ],
      [
        "▁tillgång",
        -9.353695614995106
      ],
      [
        "Varför",
        -9.353893063765742
      ],
      [
        "▁Ska",
        -9.354220570436253
      ],
      [
        "ut",
        -9.355152164060197
      ],
      [
        "▁råd",
        -9.356828076198376
      ],
      [
        "▁cirka",
        -9.35991286992971
      ],
      [
        "▁service",
        -9.360725693819413
      ],
      [
        "▁prata",
        -9.361084098875777
      ],
      [
        "▁samarbete",
        -9.361800760701895
      ],
      [
        "L",
        -9.364394159678447
      ],
      [
        "▁vanliga",
        -9.364702233142346
      ],
      [
        "oftast",
        -9.36574811188836
      ],
      [
        "▁Ta",
        -9.367191780822598
      ],
      [
        "▁företaget",
        -9.36719919203585
      ],
      [
        "▁kolla",
        -9.367712444307228
      ],
      [
        "▁boken",
        -9.369565767316319
      ],
      [
        "▁juni",
        -9.369816966472735
      ],
      [
        "behöva",
        -9.373099759310431
      ],
      [
        "▁viss",
        -9.373738888403294
      ],
      [
        "▁uppdrag",
        -9.373753840182886
      ],
      [
        "▁morgon",
        -9.374190378205812
      ],
      [
        "▁sommaren",
        -9.37468970323993
      ],
      [
        "▁absolut",
        -9.37492458087208
      ],
      [
        "▁Vår",
        -9.375963410845667
      ],
      [
        "▁hår",
        -9.376409641237393
      ],
      [
        "▁skor",
        -9.376437887542467
      ],
      [
        "tänkte",
        -9.378370275807837
      ],
      [
        "anser",
        -9.379950797593782
      ],
      [
        "▁risk",
        -9.380044671363933
      ],
      [
        "▁hälsa",
        -9.381771168058945
      ],
      [
        "▁klar",
        -9.381981429160284
      ],
      [
        "visade",
        -9.386275333118165
      ],
      [
        "▁helgen",
        -9.387078720882393
      ],
      [
        "lägger",
        -9.387891769383458
      ],
      [
        "▁Ni",
        -9.388934463354829
      ],
      [
        "▁air",
        -9.389747573607172
      ],
      [
        "▁övriga",
        -9.392289210334301
      ],
      [
        "▁sådana",
        -9.392895078235453
      ],
      [
        "▁favorit",
        -9.393622930548455
      ],
      [
        "▁kvällen",
        -9.394694816577982
      ],
      [
        "▁TV",
        -9.394850548694178
      ],
      [
        "består",
        -9.395202463961274
      ],
      [
        "▁berätta",
        -9.395745591915066
      ],
      [
        "▁gav",
        -9.395814123505376
      ],
      [
        "▁förstår",
        -9.397043444629572
      ],
      [
        "▁framtiden",
        -9.397992115736809
      ],
      [
        "▁Europa",
        -9.400716337079654
      ],
      [
        "▁In",
        -9.400866184614465
      ],
      [
        "rum",
        -9.40104837278911
      ],
      [
        "▁intressant",
        -9.401425081810553
      ],
      [
        "▁följer",
        -9.40205410117044
      ],
      [
        "▁speciellt",
        -9.402404829504896
      ],
      [
        "▁beroende",
        -9.40295225721178
      ],
      [
        "menar",
        -9.403687134965987
      ],
      [
        "▁tanke",
        -9.40555777370674
      ],
      [
        "▁behandling",
        -9.406624375409212
      ],
      [
        "▁svår",
        -9.406667217935867
      ],
      [
        "▁familj",
        -9.407882317672778
      ],
      [
        "ä",
        -9.40931812669275
      ],
      [
        "▁land",
        -9.409481626291363
      ],
      [
        "▁fokus",
        -9.409539543409707
      ],
      [
        "ifrån",
        -9.409724665161994
      ],
      [
        "▁april",
        -9.410427603604667
      ],
      [
        "▁senast",
        -9.412990696433566
      ],
      [
        "▁klara",
        -9.413998794399273
      ],
      [
        "▁skönt",
        -9.415504028088009
      ],
      [
        "▁oktober",
        -9.417455641923361
      ],
      [
        "▁september",
        -9.417930995452119
      ],
      [
        "gruppen",
        -9.4187293624206
      ],
      [
        "▁nämligen",
        -9.420196083577554
      ],
      [
        "▁system",
        -9.424311967063222
      ],
      [
        "men",
        -9.424360755363471
      ],
      [
        "▁bilden",
        -9.425016530546081
      ],
      [
        "åkte",
        -9.425874333958019
      ],
      [
        "▁djur",
        -9.42677607413013
      ],
      [
        "Eftersom",
        -9.427357362281429
      ],
      [
        "ny",
        -9.42992837809077
      ],
      [
        "▁match",
        -9.430047299113323
      ],
      [
        "såsom",
        -9.43098933336279
      ],
      [
        "▁lan",
        -9.431253253352422
      ],
      [
        "▁förstå",
        -9.431962489441414
      ],
      [
        "•",
        -9.432311956081675
      ],
      [
        "▁intresse",
        -9.432508375971063
      ],
      [
        "▁familjen",
        -9.433217961437105
      ],
      [
        "ats",
        -9.434186655035147
      ],
      [
        "programmet",
        -9.435023053438318
      ],
      [
        "sätter",
        -9.43538989825432
      ],
      [
        "ast",
        -9.436415165987889
      ],
      [
        "F",
        -9.439322868987253
      ],
      [
        "▁telefon",
        -9.441022742908851
      ],
      [
        "otroligt",
        -9.441184340322005
      ],
      [
        "▁snabb",
        -9.442922473876724
      ],
      [
        "kräver",
        -9.443323794105927
      ],
      [
        "bara",
        -9.443559943912744
      ],
      [
        "▁pa",
        -9.443907854024243
      ],
      [
        "alldeles",
        -9.444722882845507
      ],
      [
        "gående",
        -9.445037733359182
      ],
      [
        "▁vackra",
        -9.446041170106492
      ],
      [
        "▁stället",
        -9.446183730534809
      ],
      [
        "annars",
        -9.44926142783861
      ],
      [
        "▁Anna",
        -9.449517358630954
      ],
      [
        "—",
        -9.44984364402658
      ],
      [
        "▁ex",
        -9.450435309078753
      ],
      [
        "▁skapar",
        -9.4507756902449
      ],
      [
        "▁halv",
        -9.45214821690211
      ],
      [
        "▁bl",
        -9.453211867781178
      ],
      [
        "▁W",
        -9.453329973837281
      ],
      [
        "▁verksamheten",
        -9.455019045602238
      ],
      [
        "G",
        -9.456166080884081
      ],
      [
        "höll",
        -9.45695289054998
      ],
      [
        "▁ställa",
        -9.457172228273285
      ],
      [
        "▁va",
        -9.457585189651141
      ],
      [
        "▁lever",
        -9.457961572774163
      ],
      [
        "E",
        -9.459069423031563
      ],
      [
        "▁februari",
        -9.463882218530944
      ],
      [
        "▁värde",
        -9.464825221090447
      ],
      [
        "orna",
        -9.466108809780302
      ],
      [
        "▁hemsida",
        -9.466547312784861
      ],
      [
        "▁cm",
        -9.468390156670454
      ],
      [
        "▁staden",
        -9.468761011318831
      ],
      [
        "▁anledning",
        -9.469414791171523
      ],
      [
        "▁säker",
        -9.46956442286141
      ],
      [
        "▁tänkt",
        -9.469742833020206
      ],
      [
        "▁regeringen",
        -9.474028685460866
      ],
      [
        "beror",
        -9.475026948360327
      ],
      [
        "▁tjänster",
        -9.475707529200415
      ],
      [
        "▁föräldrar",
        -9.478087299415053
      ],
      [
        "bar",
        -9.478132465643778
      ],
      [
        "▁skillnad",
        -9.478162528785136
      ],
      [
        "▁ökar",
        -9.478365538431431
      ],
      [
        "▁sociala",
        -9.479161085667814
      ],
      [
        "▁träning",
        -9.479297731535882
      ],
      [
        "kände",
        -9.47985692741206
      ],
      [
        "▁Hej",
        -9.480747287063673
      ],
      [
        "▁boende",
        -9.482275222746141
      ],
      [
        "▁låta",
        -9.484373513178216
      ],
      [
        "▁närheten",
        -9.485421456928327
      ],
      [
        "▁dagens",
        -9.486279720325728
      ],
      [
        "oavsett",
        -9.489094549623864
      ],
      [
        "värt",
        -9.489569301375205
      ],
      [
        "▁höra",
        -9.490798858203243
      ],
      [
        "▁möjligheter",
        -9.490901049855
      ],
      [
        "typer",
        -9.492606194687083
      ],
      [
        "▁träffa",
        -9.492640607786965
      ],
      [
        "z",
        -9.493099815256178
      ],
      [
        "▁fungera",
        -9.494771251559984
      ],
      [
        "▁erbjuda",
        -9.495642283936293
      ],
      [
        "systemet",
        -9.495819801565549
      ],
      [
        "▁bo",
        -9.497748055056206
      ],
      [
        "tiden",
        -9.49840185928043
      ],
      [
        "gatan",
        -9.499500297560164
      ],
      [
        "▁leder",
        -9.50166805164184
      ],
      [
        "satts",
        -9.501698725134911
      ],
      [
        "▁planera",
        -9.502695693380106
      ],
      [
        "▁kund",
        -9.503309408081789
      ],
      [
        "▁språk",
        -9.503762640563552
      ],
      [
        "▁produkt",
        -9.504124907250972
      ],
      [
        "ont",
        -9.504981759263037
      ],
      [
        "▁fri",
        -9.505785293529033
      ],
      [
        "▁december",
        -9.505819068678372
      ],
      [
        "kommande",
        -9.50611230832932
      ],
      [
        "R",
        -9.506859170843885
      ],
      [
        "▁utifrån",
        -9.50777109752301
      ],
      [
        "▁Stockholms",
        -9.509428088280501
      ],
      [
        "såväl",
        -9.51343552405827
      ],
      [
        "▁förbättra",
        -9.513827776406707
      ],
      [
        "▁viktiga",
        -9.513967934885986
      ],
      [
        "▁samhället",
        -9.516356496664708
      ],
      [
        "▁tas",
        -9.516505666063114
      ],
      [
        "▁världens",
        -9.51763881666899
      ],
      [
        "sk",
        -9.519872835461806
      ],
      [
        "▁vän",
        -9.522999002962466
      ],
      [
        "▁november",
        -9.525293024780684
      ],
      [
        "▁köp",
        -9.525864512487198
      ],
      [
        "mannen",
        -9.525932994255454
      ],
      [
        "▁juli",
        -9.526357356719714
      ],
      [
        "▁iväg",
        -9.526755176434943
      ],
      [
        "på",
        -9.527215877824766
      ],
      [
        "▁gammal",
        -9.529407155450494
      ],
      [
        "▁klockan",
        -9.530598696236128
      ],
      [
        "▁kvinna",
        -9.530896825337166
      ],
      [
        "▁leva",
        -9.530955551732932
      ],
      [
        "▁matchen",
        -9.532433890801023
      ],
      [
        "▁elever",
        -9.532669904271838
      ],
      [
        "▁högt",
        -9.533878757206615
      ],
      [
        "▁lugn",
        -9.535041463254146
      ],
      [
        "▁nöjd",
        -9.53510476895734
      ],
      [
        "▁hantera",
        -9.536875793354035
      ],
      [
        "▁huset",
        -9.539672692400348
      ],
      [
        "▁svart",
        -9.54128365666813
      ],
      [
        "▁hund",
        -9.54356369851425
      ],
      [
        "▁höga",
        -9.544809845976934
      ],
      [
        "▁visst",
        -9.546018314146187
      ],
      [
        "dag",
        -9.546694960136733
      ],
      [
        "▁data",
        -9.547150057971548
      ],
      [
        "stående",
        -9.54762910321065
      ],
      [
        "▁plan",
        -9.547826811508441
      ],
      [
        "tyvärr",
        -9.547907688121565
      ],
      [
        "resten",
        -9.54822753096049
      ],
      [
        "▁marknaden",
        -9.549622084317633
      ],
      [
        "hända",
        -9.54999653786996
      ],
      [
        "antalet",
        -9.550013776974161
      ],
      [
        "▁design",
        -9.55107918712916
      ],
      [
        "platsen",
        -9.553696566775084
      ],
      [
        "▁skol",
        -9.555307149679836
      ],
      [
        "sökte",
        -9.55798904790911
      ],
      [
        "börjat",
        -9.55808051211798
      ],
      [
        "▁Tänk",
        -9.560149439897021
      ],
      [
        "▁historia",
        -9.561412310219682
      ],
      [
        "▁super",
        -9.562404259895423
      ],
      [
        "nas",
        -9.562445156124118
      ],
      [
        "ades",
        -9.562629286223821
      ],
      [
        "▁Mer",
        -9.562735716004475
      ],
      [
        "▁ändra",
        -9.563024099088823
      ],
      [
        "▁kallas",
        -9.56390926159021
      ],
      [
        "▁säsongen",
        -9.569243912186785
      ],
      [
        "▁vikt",
        -9.570263898087651
      ],
      [
        "▁testa",
        -9.570305112291067
      ],
      [
        "ste",
        -9.570913063390453
      ],
      [
        "▁fullt",
        -9.571628861069437
      ],
      [
        "med",
        -9.571812172717545
      ],
      [
        "▁omkring",
        -9.571819914430218
      ],
      [
        "mer",
        -9.572392364978583
      ],
      [
        "▁internet",
        -9.572672202540101
      ],
      [
        "▁byta",
        -9.573636142917048
      ],
      [
        "▁flytta",
        -9.575285477217715
      ],
      [
        "▁rad",
        -9.575617745484545
      ],
      [
        "▁stark",
        -9.57741912092426
      ],
      [
        "▁natur",
        -9.57798809848551
      ],
      [
        "▁sitta",
        -9.58222024305034
      ],
      [
        "▁stil",
        -9.583478027967454
      ],
      [
        "▁långa",
        -9.583899506661199
      ],
      [
        "▁icke",
        -9.583953029172992
      ],
      [
        "▁stanna",
        -9.583977884444822
      ],
      [
        "▁ordförande",
        -9.584043775954738
      ],
      [
        "▁totalt",
        -9.584251752282757
      ],
      [
        "▁Ny",
        -9.584630587921902
      ],
      [
        "by",
        -9.586921971007285
      ],
      [
        "▁Hotel",
        -9.587596089944745
      ],
      [
        "▁Anders",
        -9.592297682154348
      ],
      [
        "▁åker",
        -9.592649318760957
      ],
      [
        "▁tidigt",
        -9.592962014838438
      ],
      [
        "lättare",
        -9.59406913974311
      ],
      [
        "ledande",
        -9.594431959347387
      ],
      [
        "▁stad",
        -9.598202683120391
      ],
      [
        "▁trött",
        -9.5997758592004
      ],
      [
        "isk",
        -9.599976642219907
      ],
      [
        "▁samman",
        -9.600149200997032
      ],
      [
        "drar",
        -9.600183555227646
      ],
      [
        "▁lägre",
        -9.600535207878506
      ],
      [
        "▁medlemmar",
        -9.600655050959453
      ],
      [
        "▁kläder",
        -9.60077594998762
      ],
      [
        "▁Facebook",
        -9.601436254090451
      ],
      [
        "resenärer",
        -9.601912996097903
      ],
      [
        "▁borta",
        -9.602403610948848
      ],
      [
        "sidan",
        -9.603671905061601
      ],
      [
        "N",
        -9.60527480313644
      ],
      [
        "▁natt",
        -9.60539155940163
      ],
      [
        "▁polisen",
        -9.6075047010456
      ],
      [
        "▁förstås",
        -9.60830737634833
      ],
      [
        "▁årets",
        -9.609140795982274
      ],
      [
        "▁hösten",
        -9.60977420903415
      ],
      [
        "▁hittade",
        -9.610422632752233
      ],
      [
        "Vi",
        -9.61545067485835
      ],
      [
        "▁böcker",
        -9.615678229393472
      ],
      [
        "skrivit",
        -9.616151015636861
      ],
      [
        "▁vinna",
        -9.617477674954637
      ],
      [
        "▁artikel",
        -9.617639574188056
      ],
      [
        "▁håll",
        -9.617758270113537
      ],
      [
        "▁for",
        -9.619468576022518
      ],
      [
        "▁Just",
        -9.61963198983495
      ],
      [
        "▁dåligt",
        -9.62018445534645
      ],
      [
        "▁allra",
        -9.62122671668853
      ],
      [
        "enbart",
        -9.621723676385352
      ],
      [
        "▁recept",
        -9.621912278385743
      ],
      [
        "▁områden",
        -9.622626432351227
      ],
      [
        "system",
        -9.622659042554451
      ],
      [
        "▁hämta",
        -9.62365752897868
      ],
      [
        "▁söka",
        -9.624189150494418
      ],
      [
        "▁född",
        -9.624220694205487
      ],
      [
        "▁sol",
        -9.624483336766724
      ],
      [
        "ställer",
        -9.625665151951024
      ],
      [
        "▁åtgärder",
        -9.627651958194159
      ],
      [
        "▁nivå",
        -9.62767095955843
      ],
      [
        "land",
        -9.628041498609287
      ],
      [
        "▁betydelse",
        -9.62806890016283
      ],
      [
        "▁utmärkt",
        -9.62855028896738
      ],
      [
        "spel",
        -9.630254924774034
      ],
      [
        "▁konstatera",
        -9.630931577066024
      ],
      [
        "▁teknik",
        -9.631031345963544
      ],
      [
        "ets",
        -9.631519317695606
      ],
      [
        "▁spara",
        -9.631909158728119
      ],
      [
        "▁exakt",
        -9.632480776131093
      ],
      [
        "▁ögon",
        -9.632741388433288
      ],
      [
        "▁lokala",
        -9.633663145627414
      ],
      [
        "▁avsluta",
        -9.634044028552042
      ],
      [
        "▁dator",
        -9.63647658989026
      ],
      [
        "▁lån",
        -9.637124851443588
      ],
      [
        "▁delta",
        -9.637917720498912
      ],
      [
        "samtliga",
        -9.638447891286791
      ],
      [
        "köpte",
        -9.638732906109066
      ],
      [
        "▁enkel",
        -9.64319167652318
      ],
      [
        "▁semester",
        -9.645439108954726
      ],
      [
        "V",
        -9.645448549327762
      ],
      [
        "sådant",
        -9.645895461836949
      ],
      [
        "H",
        -9.645951236820377
      ],
      [
        "▁tillräckligt",
        -9.647130557561795
      ],
      [
        "▁dejting",
        -9.648198910500001
      ],
      [
        "▁väntar",
        -9.648820912343805
      ],
      [
        "▁träna",
        -9.65036902534234
      ],
      [
        "▁lunch",
        -9.65161186810708
      ],
      [
        "▁casino",
        -9.65178058606955
      ],
      [
        "▁forskning",
        -9.652399333245569
      ],
      [
        "▁område",
        -9.65405031634848
      ],
      [
        "▁Be",
        -9.655372808284216
      ],
      [
        "läser",
        -9.655458534715786
      ],
      [
        "▁Johan",
        -9.656174458261725
      ],
      [
        "▁respektive",
        -9.656780538501677
      ],
      [
        "▁pappa",
        -9.658755932442697
      ],
      [
        "w",
        -9.658797158431625
      ],
      [
        "▁diskutera",
        -9.658990423941681
      ],
      [
        "▁vann",
        -9.660216117417605
      ],
      [
        "▁känsla",
        -9.662056653204992
      ],
      [
        "▁lärare",
        -9.663377528083615
      ],
      [
        "kända",
        -9.664455006816237
      ],
      [
        "▁vänta",
        -9.664481644078387
      ],
      [
        "Samtidigt",
        -9.665632221665414
      ],
      [
        "O",
        -9.66605404212363
      ],
      [
        "▁hårt",
        -9.666971676485318
      ],
      [
        "▁dela",
        -9.667353721268269
      ],
      [
        "maste",
        -9.667802820914963
      ],
      [
        "▁kaffe",
        -9.669592252013002
      ],
      [
        "▁Per",
        -9.67096643555035
      ],
      [
        "▁höger",
        -9.67104884231306
      ],
      [
        "▁Ha",
        -9.671868235161442
      ],
      [
        "▁bär",
        -9.672510109412844
      ],
      [
        "bygger",
        -9.673357452825858
      ],
      [
        "▁användning",
        -9.674545555978318
      ],
      [
        "▁Ut",
        -9.675454819232826
      ],
      [
        "▁lyckas",
        -9.677057188474627
      ],
      [
        "▁sju",
        -9.677209400641763
      ],
      [
        "▁bolag",
        -9.678021917668719
      ],
      [
        "▁behöv",
        -9.678784551259131
      ],
      [
        "lan",
        -9.680993740461192
      ],
      [
        "▁flyg",
        -9.68118748577627
      ],
      [
        "um",
        -9.68223602817266
      ],
      [
        "plan",
        -9.682551430202526
      ],
      [
        "▁högsta",
        -9.682895161734624
      ],
      [
        "till",
        -9.683705667500641
      ],
      [
        "Mycket",
        -9.684434883620368
      ],
      [
        "▁massor",
        -9.686348838654569
      ],
      [
        "▁gällande",
        -9.688126411572938
      ],
      [
        "fallet",
        -9.688189861252113
      ],
      [
        "▁snar",
        -9.688596989765449
      ],
      [
        "▁vänster",
        -9.690776827862607
      ],
      [
        "▁framåt",
        -9.691062777066396
      ],
      [
        "▁billiga",
        -9.691303081336896
      ],
      [
        "▁hit",
        -9.69213700342735
      ],
      [
        "▁reda",
        -9.692260066940195
      ],
      [
        "▁skola",
        -9.693826780206123
      ],
      [
        "▁anställda",
        -9.694395299507491
      ],
      [
        "▁ekonomiska",
        -9.695693256960022
      ],
      [
        "’",
        -9.696118990068877
      ],
      [
        "▁Jo",
        -9.696346001113932
      ],
      [
        "▁kraft",
        -9.697286849812315
      ],
      [
        "▁pass",
        -9.697410245057611
      ],
      [
        "▁trevlig",
        -9.69833396790125
      ],
      [
        "▁kompetens",
        -9.698701648397808
      ],
      [
        "▁text",
        -9.700039295230052
      ],
      [
        "<",
        -9.70029493795459
      ],
      [
        "▁sälja",
        -9.701100698526908
      ],
      [
        "▁handla",
        -9.703323500336037
      ],
      [
        "▁platser",
        -9.703514210306242
      ],
      [
        "▁X",
        -9.704050507322929
      ],
      [
        "så",
        -9.704086559207669
      ],
      [
        "▁topp",
        -9.704256758474441
      ],
      [
        "▁snö",
        -9.705840476518146
      ],
      [
        "▁glas",
        -9.706645905781587
      ],
      [
        "▁Bo",
        -9.709034363754695
      ],
      [
        "▁Hitta",
        -9.710731989238138
      ],
      [
        "▁Peter",
        -9.711541561704129
      ],
      [
        "▁säkerhet",
        -9.712456047214848
      ],
      [
        "▁viktigaste",
        -9.712826759623463
      ],
      [
        "▁skada",
        -9.712841644305803
      ],
      [
        "▁Foto",
        -9.713844834860769
      ],
      [
        "▁gäster",
        -9.714998160436247
      ],
      [
        "kostar",
        -9.715332956538793
      ],
      [
        "▁ekonomi",
        -9.717293750053223
      ],
      [
        "▁kontroll",
        -9.717612733067327
      ],
      [
        "▁sade",
        -9.720120743801035
      ],
      [
        "▁vuxna",
        -9.721016616398831
      ],
      [
        "▁Barn",
        -9.721054649280475
      ],
      [
        "▁Hans",
        -9.722519494580752
      ],
      [
        "▁övrigt",
        -9.722597734818088
      ],
      [
        "▁regler",
        -9.723090234598546
      ],
      [
        "▁valt",
        -9.723628709759815
      ],
      [
        "▁leda",
        -9.723688302479365
      ],
      [
        "Varje",
        -9.724523739562896
      ],
      [
        "▁tillhör",
        -9.724677396897011
      ],
      [
        "Hoppas",
        -9.725064706124245
      ],
      [
        "▁mobil",
        -9.726506165480119
      ],
      [
        "▁centrum",
        -9.726879868040198
      ],
      [
        "spelade",
        -9.727089003377452
      ],
      [
        "målet",
        -9.727153990180998
      ],
      [
        "▁Låt",
        -9.727197821590527
      ],
      [
        "▁nån",
        -9.727625472580778
      ],
      [
        "▁Uppsala",
        -9.727759967935862
      ],
      [
        "▁samtal",
        -9.728619544606113
      ],
      [
        "▁läst",
        -9.730124884961322
      ],
      [
        "▁ljud",
        -9.730807892493038
      ],
      [
        "▁rolig",
        -9.731087487579662
      ],
      [
        "▁ålder",
        -9.733872544362072
      ],
      [
        "▁storlek",
        -9.734415817071547
      ],
      [
        "▁låt",
        -9.735571442312684
      ],
      [
        "utgör",
        -9.735760838128941
      ],
      [
        "$",
        -9.736338389438611
      ],
      [
        "gick",
        -9.737931799741046
      ],
      [
        "trodde",
        -9.7381050590753
      ],
      [
        "den",
        -9.738514725942474
      ],
      [
        "▁Å",
        -9.738764261361563
      ],
      [
        "önskar",
        -9.740982501383685
      ],
      [
        "▁mängd",
        -9.741157997305734
      ],
      [
        "närmare",
        -9.74185862814706
      ],
      [
        "valet",
        -9.743575262716773
      ],
      [
        "▁filmen",
        -9.74399068128063
      ],
      [
        "▁smak",
        -9.744227162389532
      ],
      [
        "▁besökare",
        -9.746443082908792
      ],
      [
        "iskt",
        -9.747262610244324
      ],
      [
        "gren",
        -9.747380636976775
      ],
      [
        "▁effekt",
        -9.74773864154764
      ],
      [
        "▁bygg",
        -9.748105467882594
      ],
      [
        "hus",
        -9.749047607279099
      ],
      [
        "▁Trots",
        -9.750688374872139
      ],
      [
        "▁chans",
        -9.75108775227161
      ],
      [
        "betydligt",
        -9.751141872866471
      ],
      [
        "▁Ingen",
        -9.75231728539646
      ],
      [
        "▁påverkar",
        -9.75425571404817
      ],
      [
        "val",
        -9.755583505079743
      ],
      [
        "▁död",
        -9.756452381713823
      ],
      [
        "▁äter",
        -9.758643658513153
      ],
      [
        "▁rent",
        -9.758724587991734
      ],
      [
        "▁trygg",
        -9.760147670287651
      ],
      [
        "▁hud",
        -9.760152544018245
      ],
      [
        "ras",
        -9.761610718309598
      ],
      [
        "▁värme",
        -9.761916383808325
      ],
      [
        "▁stan",
        -9.762497408605375
      ],
      [
        "▁lokal",
        -9.763383937444246
      ],
      [
        "▁ske",
        -9.763616872512186
      ],
      [
        "▁luft",
        -9.764834107798446
      ],
      [
        "▁trä",
        -9.766484152315744
      ],
      [
        "ökad",
        -9.766785202348748
      ],
      [
        "program",
        -9.766986797405954
      ],
      [
        "▁tankar",
        -9.767012677655506
      ],
      [
        "slutade",
        -9.767492244278097
      ],
      [
        "▁frukost",
        -9.76944303218147
      ],
      [
        "▁läge",
        -9.769589999954146
      ],
      [
        "jämfört",
        -9.770113073396889
      ],
      [
        "▁uttryck",
        -9.772590905756854
      ],
      [
        "▁personliga",
        -9.773549658173726
      ],
      [
        "lund",
        -9.774057268288857
      ],
      [
        "huset",
        -9.774308900753402
      ],
      [
        "vore",
        -9.774816589969982
      ],
      [
        "▁Två",
        -9.777118278676683
      ],
      [
        "▁natten",
        -9.778618775541442
      ],
      [
        "▁någonsin",
        -9.779277339710463
      ],
      [
        "▁Fortsätt",
        -9.780048838918852
      ],
      [
        "tydligt",
        -9.78008185749234
      ],
      [
        "▁funktion",
        -9.782348442624107
      ],
      [
        "▁verktyg",
        -9.783873573434356
      ],
      [
        "▁eventuell",
        -9.784425359169221
      ],
      [
        "▁kropp",
        -9.787055844752173
      ],
      [
        "▁bak",
        -9.787905988297325
      ],
      [
        "▁syn",
        -9.78995973068435
      ],
      [
        "▁New",
        -9.79050316192028
      ],
      [
        "▁variera",
        -9.791934229049085
      ],
      [
        "kändes",
        -9.792696848634082
      ],
      [
        "▁lista",
        -9.793491941067979
      ],
      [
        "▁vakna",
        -9.795078059614845
      ],
      [
        "▁härlig",
        -9.795321914710048
      ],
      [
        "starkt",
        -9.795461737645002
      ],
      [
        "▁skäl",
        -9.795950542644716
      ],
      [
        "▁Gud",
        -9.796106100477505
      ],
      [
        "▁bad",
        -9.797188873394145
      ],
      [
        "ch",
        -9.79903817763393
      ],
      [
        "▁fantastiskt",
        -9.800000191893407
      ],
      [
        "verket",
        -9.800032040969889
      ],
      [
        "▁boka",
        -9.801107979959687
      ],
      [
        "▁höst",
        -9.803136881866125
      ],
      [
        "▁ordning",
        -9.803146458986658
      ],
      [
        "▁hälso",
        -9.803430676939984
      ],
      [
        "▁förbi",
        -9.803640372908895
      ],
      [
        "▁starta",
        -9.804061137117328
      ],
      [
        "post",
        -9.804195094228895
      ],
      [
        "ell",
        -9.806043111457258
      ],
      [
        "▁våren",
        -9.806751686821995
      ],
      [
        "plats",
        -9.8069569808397
      ],
      [
        "▁bidrag",
        -9.809291792845102
      ],
      [
        "inklusive",
        -9.8094342522044
      ],
      [
        "därefter",
        -9.809488621969903
      ],
      [
        "▁klimat",
        -9.810316667802
      ],
      [
        "självklart",
        -9.810592402305288
      ],
      [
        "▁valde",
        -9.810639382100847
      ],
      [
        "▁Kina",
        -9.81087781604474
      ],
      [
        "▁drog",
        -9.811784393980234
      ],
      [
        "▁förutsättningar",
        -9.812840889332012
      ],
      [
        "hört",
        -9.813176703940886
      ],
      [
        "▁prova",
        -9.81363236470687
      ],
      [
        "▁Maria",
        -9.81378465888086
      ],
      [
        "▁priset",
        -9.81496418929877
      ],
      [
        "▁innehåll",
        -9.817636423504222
      ],
      [
        "Ibland",
        -9.818666073271109
      ],
      [
        "perioden",
        -9.818853597164022
      ],
      [
        "▁klass",
        -9.819179856893836
      ],
      [
        "ton",
        -9.81935476176761
      ],
      [
        "▁hotellet",
        -9.821654676335005
      ],
      [
        "▁personlig",
        -9.82179500953042
      ],
      [
        "▁Bara",
        -9.821881926829862
      ],
      [
        "▁medel",
        -9.822514556187194
      ],
      [
        "saknar",
        -9.822902052238062
      ],
      [
        "▁villkor",
        -9.82580541552139
      ],
      [
        "▁ben",
        -9.826541496752423
      ],
      [
        "▁konst",
        -9.826934049372614
      ],
      [
        "lämnar",
        -9.827710419034611
      ],
      [
        "drygt",
        -9.82798343750987
      ],
      [
        "rätt",
        -9.828054999001436
      ],
      [
        "ihåg",
        -9.82863302493295
      ],
      [
        "▁bolaget",
        -9.829296665199452
      ],
      [
        "▁uppskatta",
        -9.829917807804058
      ],
      [
        "▁Andersson",
        -9.831272299361013
      ],
      [
        "branschen",
        -9.832636727554306
      ],
      [
        "funnit",
        -9.832694961685325
      ],
      [
        "▁helg",
        -9.8327480797282
      ],
      [
        "▁ligga",
        -9.833477808437054
      ],
      [
        "▁billigt",
        -9.833928695286822
      ],
      [
        "▁talar",
        -9.834019532083929
      ],
      [
        "äntligen",
        -9.834655381825817
      ],
      [
        "▁syfte",
        -9.835095603796262
      ],
      [
        "▁avtal",
        -9.835285510383695
      ],
      [
        "▁etc",
        -9.83864223999307
      ],
      [
        "▁ändring",
        -9.839098738863305
      ],
      [
        "▁brott",
        -9.839887159561139
      ],
      [
        "arbete",
        -9.840718614851188
      ],
      [
        "▁utvecklas",
        -9.841300406606264
      ],
      [
        "▁kap",
        -9.841340606782602
      ],
      [
        "▁Lars",
        -9.841372504428023
      ],
      [
        "▁Finns",
        -9.841641263384831
      ],
      [
        "▁ungdomar",
        -9.84296071764767
      ],
      [
        "▁fantastisk",
        -9.843985918028197
      ],
      [
        "ge",
        -9.845050349160562
      ],
      [
        "trax",
        -9.845192048896195
      ],
      [
        "▁kärlek",
        -9.845653026151519
      ],
      [
        "▁projektet",
        -9.846207431348263
      ],
      [
        "▁kommentar",
        -9.846296990538184
      ],
      [
        "▁nej",
        -9.846361763087089
      ],
      [
        "▁dålig",
        -9.846961012350766
      ],
      [
        "▁privat",
        -9.847378875622876
      ],
      [
        "▁universitet",
        -9.849397652540631
      ],
      [
        "▁läkare",
        -9.849653777749166
      ],
      [
        "▁Lite",
        -9.850270486710986
      ],
      [
        "▁fönster",
        -9.850461653799629
      ],
      [
        "▁varmt",
        -9.852864550463318
      ],
      [
        "▁lyssna",
        -9.854103563693089
      ],
      [
        "förutom",
        -9.854207540750014
      ],
      [
        "▁färger",
        -9.856026290823104
      ],
      [
        "▁lager",
        -9.856437985702645
      ],
      [
        "▁sist",
        -9.85645403509934
      ],
      [
        "▁genomföra",
        -9.857889011769693
      ],
      [
        "▁uppgift",
        -9.85884755923407
      ],
      [
        "▁standard",
        -9.859007076502616
      ],
      [
        "▁Mitt",
        -9.860086798661593
      ],
      [
        "taget",
        -9.860588646206644
      ],
      [
        "▁tittar",
        -9.86137706073425
      ],
      [
        "▁sluta",
        -9.86203443649267
      ],
      [
        "▁slå",
        -9.86246955571533
      ],
      [
        "ring",
        -9.863332851138448
      ],
      [
        "företag",
        -9.865292778811916
      ],
      [
        "▁imorgon",
        -9.865729081097598
      ],
      [
        "▁kredit",
        -9.866696037269092
      ],
      [
        "▁ladda",
        -9.866821771819955
      ],
      [
        "skickade",
        -9.867195729284825
      ],
      [
        "erade",
        -9.86832443074992
      ],
      [
        "▁vinter",
        -9.86853043567665
      ],
      [
        "▁vattnet",
        -9.869474473386443
      ],
      [
        "▁politiska",
        -9.869859005233762
      ],
      [
        "▁solen",
        -9.870719012387008
      ],
      [
        "▁listan",
        -9.871328952823768
      ],
      [
        "▁medarbetare",
        -9.871344777762179
      ],
      [
        "köper",
        -9.871370134316656
      ],
      [
        "▁studie",
        -9.872148540250034
      ],
      [
        "▁mesta",
        -9.873323897530014
      ],
      [
        "Några",
        -9.8734361271674
      ],
      [
        "▁spelet",
        -9.873539727848184
      ],
      [
        "▁Fast",
        -9.874142228237993
      ],
      [
        "▁åtta",
        -9.874350591273227
      ],
      [
        "▁dagarna",
        -9.874411980780444
      ],
      [
        "använt",
        -9.87537410062041
      ],
      [
        "naturligtvis",
        -9.875394745682527
      ],
      [
        "▁hamna",
        -9.877333728555236
      ],
      [
        "undrar",
        -9.877522393659532
      ],
      [
        "▁barnet",
        -9.87757919288192
      ],
      [
        "fritt",
        -9.877817835687374
      ],
      [
        "▁kurs",
        -9.87795345259678
      ],
      [
        "▁aktiviteter",
        -9.87852953893471
      ],
      [
        "▁polis",
        -9.88057970395344
      ],
      [
        "▁kommentarer",
        -9.881468493132791
      ],
      [
        "▁tak",
        -9.882705921690574
      ],
      [
        "▁osv",
        -9.882883638782051
      ],
      [
        "det",
        -9.882993386777203
      ],
      [
        "▁gilla",
        -9.884637720251604
      ],
      [
        "▁sidor",
        -9.88682993801616
      ],
      [
        "▁vinst",
        -9.887027457445301
      ],
      [
        "▁glöm",
        -9.887069981213958
      ],
      [
        "▁försök",
        -9.887268600080247
      ],
      [
        "▁ensam",
        -9.887474776913876
      ],
      [
        "▁rejäl",
        -9.88878163316208
      ],
      [
        "klarar",
        -9.888961475552604
      ],
      [
        "▁tillstånd",
        -9.89193275222462
      ],
      [
        "kort",
        -9.892849602712653
      ],
      [
        "▁ingenting",
        -9.89419852652036
      ],
      [
        "pratar",
        -9.894496316342673
      ],
      [
        "▁öppen",
        -9.894913234924914
      ],
      [
        "▁fundera",
        -9.895362833000743
      ],
      [
        "▁sova",
        -9.895975197188193
      ],
      [
        "▁timme",
        -9.896278394553422
      ],
      [
        "▁väder",
        -9.8963105863428
      ],
      [
        "U",
        -9.896508384617261
      ],
      [
        "dvs",
        -9.896565609051494
      ],
      [
        "▁Välkommen",
        -9.89777792606282
      ],
      [
        "▁nåt",
        -9.897846988592132
      ],
      [
        "▁knappt",
        -9.897945749876381
      ],
      [
        "▁sjuk",
        -9.89827299658129
      ],
      [
        "▁dels",
        -9.898973434639018
      ],
      [
        "▁matcher",
        -9.900028559412375
      ],
      [
        "▁bit",
        -9.900635767623555
      ],
      [
        "▁undvika",
        -9.900949158980515
      ],
      [
        "▁populära",
        -9.901558338781866
      ],
      [
        "▁vita",
        -9.90159549716322
      ],
      [
        "Vilken",
        -9.901886096496058
      ],
      [
        "▁njuta",
        -9.902056695666952
      ],
      [
        "▁trafik",
        -9.902242924999301
      ],
      [
        "ansvarig",
        -9.902867615465286
      ],
      [
        "▁lördag",
        -9.903261114740202
      ],
      [
        "▁svara",
        -9.903761907465672
      ],
      [
        "▁omdöme",
        -9.904303699505796
      ],
      [
        "▁idé",
        -9.90528056341798
      ],
      [
        "växer",
        -9.905579617359635
      ],
      [
        "Klicka",
        -9.906023562632933
      ],
      [
        "antingen",
        -9.906568453809465
      ],
      [
        "▁huvudet",
        -9.906682265539198
      ],
      [
        "Ja",
        -9.909797636809431
      ],
      [
        "▁utför",
        -9.909914040371328
      ],
      [
        "▁annorlunda",
        -9.910928017551361
      ],
      [
        "▁internationella",
        -9.911914442165154
      ],
      [
        "skolan",
        -9.912069041235814
      ],
      [
        "▁koll",
        -9.912222730543853
      ],
      [
        "▁social",
        -9.91265143329094
      ],
      [
        "äger",
        -9.91295581602839
      ],
      [
        "räcker",
        -9.913037395309493
      ],
      [
        "ett",
        -9.913190717347744
      ],
      [
        "▁djup",
        -9.913523794395935
      ],
      [
        "▁passa",
        -9.913810038121229
      ],
      [
        "▁middag",
        -9.9140817272286
      ],
      [
        "▁häst",
        -9.914396178425106
      ],
      [
        "▁fantastiska",
        -9.915104359917903
      ],
      [
        "▁mark",
        -9.91583194874927
      ],
      [
        "▁period",
        -9.915939116147714
      ],
      [
        "▁längs",
        -9.91615399425285
      ],
      [
        "▁partner",
        -9.916632163574796
      ],
      [
        "▁bonus",
        -9.916853248495668
      ],
      [
        "▁ansökan",
        -9.91719914452696
      ],
      [
        "▁utvecklingen",
        -9.917264378942301
      ],
      [
        "▁Sätt",
        -9.917510337690016
      ],
      [
        "▁fredag",
        -9.918177685630495
      ],
      [
        "▁Skåne",
        -9.91856237693577
      ],
      [
        "▁Visst",
        -9.919265416524114
      ],
      [
        "▁värld",
        -9.919331198309482
      ],
      [
        "▁läs",
        -9.920302607910461
      ],
      [
        "ökat",
        -9.920916622096632
      ],
      [
        "hänt",
        -9.921911681952553
      ],
      [
        "▁uppdatera",
        -9.92224584090612
      ],
      [
        "ha",
        -9.923793886739949
      ],
      [
        "▁kommuner",
        -9.925946951496742
      ],
      [
        "▁mår",
        -9.926069731956881
      ],
      [
        "kallade",
        -9.92640811083601
      ],
      [
        "plötsligt",
        -9.926463532588116
      ],
      [
        "▁bloggen",
        -9.926900672074769
      ],
      [
        "ämre",
        -9.92694690461428
      ],
      [
        "▁kostnader",
        -9.928297331210368
      ],
      [
        "▁sjukdom",
        -9.929485742704792
      ],
      [
        "någonting",
        -9.929565122886226
      ],
      [
        "▁förmåga",
        -9.930638279253566
      ],
      [
        "▁parti",
        -9.931033552185784
      ],
      [
        "▁bank",
        -9.931265193262783
      ],
      [
        "▁drabba",
        -9.932747789568927
      ],
      [
        "gården",
        -9.934608850453722
      ],
      [
        "lyckades",
        -9.934872143954344
      ],
      [
        "▁önska",
        -9.935361244450345
      ],
      [
        "▁webbplats",
        -9.935406698438356
      ],
      [
        "▁samhälls",
        -9.936023453739939
      ],
      [
        "▁yrkes",
        -9.936235368797277
      ],
      [
        "▁Nya",
        -9.938142168583628
      ],
      [
        "▁samhälle",
        -9.938245767879206
      ],
      [
        "▁promenad",
        -9.939326496045847
      ],
      [
        "anses",
        -9.940330721486227
      ],
      [
        "▁risker",
        -9.940545058897756
      ],
      [
        "bo",
        -9.940841121299494
      ],
      [
        "▁bilar",
        -9.940870413249522
      ],
      [
        "▁tala",
        -9.941615143487665
      ],
      [
        "▁försäljning",
        -9.942773968998395
      ],
      [
        "🙂",
        -9.94284129994812
      ],
      [
        "▁högst",
        -9.94304206425821
      ],
      [
        "lyckat",
        -9.945305048706684
      ],
      [
        "▁kalla",
        -9.945442565097771
      ],
      [
        "▁lösning",
        -9.946408280043427
      ],
      [
        "▁princip",
        -9.946914181513748
      ],
      [
        "▁tvinga",
        -9.947309501490624
      ],
      [
        "▁huden",
        -9.947577394112951
      ],
      [
        "▁oro",
        -9.947829077254465
      ],
      [
        "fri",
        -9.950661753325617
      ],
      [
        "nuvarande",
        -9.954197408047653
      ],
      [
        "▁lösa",
        -9.95557615545653
      ],
      [
        "▁datorn",
        -9.956097343551594
      ],
      [
        "▁dam",
        -9.957073081733627
      ],
      [
        "▁Välj",
        -9.957901327980531
      ],
      [
        "▁grader",
        -9.958048158067529
      ],
      [
        "▁budget",
        -9.958242170344306
      ],
      [
        "▁ME",
        -9.958465741673734
      ],
      [
        "▁tillgängliga",
        -9.958678253627944
      ],
      [
        "▁Bland",
        -9.958826664420073
      ],
      [
        "▁våld",
        -9.959050792172727
      ],
      [
        "▁Finland",
        -9.959399357691174
      ],
      [
        "▁söndag",
        -9.96011561750078
      ],
      [
        "▁riktig",
        -9.960147728676324
      ],
      [
        "▁guld",
        -9.96128221796639
      ],
      [
        "▁himla",
        -9.96142356505752
      ],
      [
        "▁plus",
        -9.961957093808858
      ],
      [
        "▁skit",
        -9.96236097899589
      ],
      [
        "▁rättigheter",
        -9.962647144841048
      ],
      [
        "▁Jan",
        -9.963362453340734
      ],
      [
        "▁Andra",
        -9.963404567424627
      ],
      [
        "▁serie",
        -9.964135351310123
      ],
      [
        "finner",
        -9.964247704091532
      ],
      [
        "▁slag",
        -9.964561750748288
      ],
      [
        "▁situation",
        -9.965561375926015
      ],
      [
        "ökade",
        -9.965617844318707
      ],
      [
        "▁alkohol",
        -9.965644506658224
      ],
      [
        "möta",
        -9.966931414009379
      ],
      [
        "Igår",
        -9.967176522780894
      ],
      [
        "form",
        -9.967433883691438
      ],
      [
        "▁Först",
        -9.968080642793577
      ],
      [
        "▁bedriv",
        -9.968397189172356
      ],
      [
        "startade",
        -9.968967525084073
      ],
      [
        "▁Johansson",
        -9.970044994894154
      ],
      [
        "känt",
        -9.970982496489418
      ],
      [
        "Tack",
        -9.971361464022674
      ],
      [
        "såklart",
        -9.971439902150228
      ],
      [
        "▁köpt",
        -9.973049013933732
      ],
      [
        "▁Erik",
        -9.973564235789476
      ],
      [
        "▁lägenhet",
        -9.973930090717348
      ],
      [
        "▁öppet",
        -9.974288853413386
      ],
      [
        "▁klicka",
        -9.9751786228182
      ],
      [
        "▁inkludera",
        -9.975359509056602
      ],
      [
        "▁namnet",
        -9.97570063978971
      ],
      [
        "sättet",
        -9.975914003210892
      ],
      [
        "Mer",
        -9.977131729914994
      ],
      [
        "▁OK",
        -9.977304239911899
      ],
      [
        "nummer",
        -9.97756156209096
      ],
      [
        "▁sällan",
        -9.978331706124377
      ],
      [
        "lag",
        -9.97948804066666
      ],
      [
        "▁Köp",
        -9.980019910542067
      ],
      [
        "log",
        -9.98042286913689
      ],
      [
        "▁satte",
        -9.98237884330671
      ],
      [
        "nivå",
        -9.984003115757927
      ],
      [
        "▁stolt",
        -9.984425185901816
      ],
      [
        "▁miljarder",
        -9.984525706085181
      ],
      [
        "▁medlem",
        -9.984542005466695
      ],
      [
        "▁resultatet",
        -9.98471962543355
      ],
      [
        "bjuder",
        -9.985340549559458
      ],
      [
        "▁bi",
        -9.985653245351369
      ],
      [
        "▁special",
        -9.985888710877058
      ],
      [
        "▁föreslå",
        -9.986030292523134
      ],
      [
        "JL",
        -9.986156035870804
      ],
      [
        "▁bred",
        -9.98713523130614
      ],
      [
        "▁restaurang",
        -9.987739916030252
      ],
      [
        "▁utnyttja",
        -9.987866544833658
      ],
      [
        "▁intresserad",
        -9.988007436080178
      ],
      [
        "▁modell",
        -9.988522796489733
      ],
      [
        "▁förhållande",
        -9.989367012289843
      ],
      [
        "risken",
        -9.990715191926137
      ],
      [
        "numera",
        -9.990774958753363
      ],
      [
        "tar",
        -9.990973555709052
      ],
      [
        "utveckling",
        -9.991388916824059
      ],
      [
        "fattar",
        -9.992036108072766
      ],
      [
        "▁gett",
        -9.992649936083584
      ],
      [
        "▁omdömet",
        -9.993434619394572
      ],
      [
        "Vilka",
        -9.993879556603627
      ],
      [
        "▁säljer",
        -9.99506044863541
      ],
      [
        "http",
        -9.995068328280608
      ],
      [
        "visste",
        -9.995264684699961
      ],
      [
        "▁IT",
        -9.996775667283265
      ],
      [
        "▁enkla",
        -9.996945270312702
      ],
      [
        "▁smidig",
        -9.997736888140029
      ],
      [
        "▁lön",
        -9.997858926453587
      ],
      [
        "ADRESS",
        -9.99927287975577
      ],
      [
        "▁låna",
        -10.000108313262547
      ],
      [
        "▁patienter",
        -10.00014266146968
      ],
      [
        "fylla",
        -10.000151584211567
      ],
      [
        "▁lagt",
        -10.00085984707196
      ],
      [
        "▁havet",
        -10.000954552677424
      ],
      [
        "åtminstone",
        -10.001484892740434
      ],
      [
        "processen",
        -10.002133533818863
      ],
      [
        "Våra",
        -10.00219257504888
      ],
      [
        "▁utbud",
        -10.003478148036601
      ],
      [
        "▁lösningar",
        -10.004136947300521
      ],
      [
        "▁test",
        -10.004232251724623
      ],
      [
        "▁skydda",
        -10.004307978540734
      ],
      [
        "▁tillväxt",
        -10.004740829747636
      ],
      [
        "ka",
        -10.005764340288074
      ],
      [
        "▁medier",
        -10.005794842798782
      ],
      [
        "ordentligt",
        -10.006130693032603
      ],
      [
        "▁missa",
        -10.006420218276242
      ],
      [
        "ner",
        -10.00837306024169
      ],
      [
        "Vissa",
        -10.009073115457152
      ],
      [
        "▁livs",
        -10.009461785793619
      ],
      [
        "▁vacker",
        -10.01132028491437
      ],
      [
        "▁cykel",
        -10.011758121714056
      ],
      [
        "samt",
        -10.011802781090271
      ],
      [
        "be",
        -10.012067405422625
      ],
      [
        "▁trevligt",
        -10.012176571817268
      ],
      [
        "igen",
        -10.012212708082807
      ],
      [
        "▁säsong",
        -10.012287511869431
      ],
      [
        "Förutom",
        -10.012497753232422
      ],
      [
        "träffade",
        -10.012942122675986
      ],
      [
        "▁människa",
        -10.013384511452804
      ],
      [
        "▁slog",
        -10.01353307327543
      ],
      [
        "relativt",
        -10.013896351604414
      ],
      [
        "▁spår",
        -10.014404411862502
      ],
      [
        "kan",
        -10.015554939441522
      ],
      [
        "bok",
        -10.015791315175361
      ],
      [
        "▁mitten",
        -10.016215708427286
      ],
      [
        "▁blå",
        -10.017350638410342
      ],
      [
        "▁möte",
        -10.017919568365643
      ],
      [
        "▁skön",
        -10.019655882614355
      ],
      [
        "▁Dock",
        -10.020976670547876
      ],
      [
        "▁tjej",
        -10.021372342096843
      ],
      [
        "▁görs",
        -10.022346294510228
      ],
      [
        "produkter",
        -10.022405638796014
      ],
      [
        "ivetvis",
        -10.022666934986553
      ],
      [
        "▁Ö",
        -10.023708867280162
      ],
      [
        "▁amerikanska",
        -10.02414484139182
      ],
      [
        "▁pengarna",
        -10.024610467404278
      ],
      [
        "▁ges",
        -10.026957991034282
      ],
      [
        "Tyvärr",
        -10.028006320054152
      ],
      [
        "▁undan",
        -10.028079898370319
      ],
      [
        "▁far",
        -10.028560254682997
      ],
      [
        "▁Använd",
        -10.028631246144828
      ],
      [
        "▁förut",
        -10.029051363744466
      ],
      [
        "ella",
        -10.02978993886459
      ],
      [
        "▁acceptera",
        -10.029894715875972
      ],
      [
        "▁uppnå",
        -10.030036035646836
      ],
      [
        "aktuella",
        -10.030153453539949
      ],
      [
        "▁Kom",
        -10.030377568440635
      ],
      [
        "omfattande",
        -10.030536440294243
      ],
      [
        "▁följd",
        -10.03071170513583
      ],
      [
        "▁satsa",
        -10.031132075618837
      ],
      [
        "▁makt",
        -10.031730833738042
      ],
      [
        "slår",
        -10.032949505052917
      ],
      [
        "körde",
        -10.033174304951263
      ],
      [
        "del",
        -10.033725673840973
      ],
      [
        "▁sten",
        -10.035970452000614
      ],
      [
        "▁betalar",
        -10.036202178736165
      ],
      [
        "▁Över",
        -10.036533941245073
      ],
      [
        "▁sport",
        -10.036624974432575
      ],
      [
        "chef",
        -10.036881480211807
      ],
      [
        "yngre",
        -10.03688564464026
      ],
      [
        "▁besöka",
        -10.039509063462583
      ],
      [
        "lös",
        -10.03970834889731
      ],
      [
        "▁tryck",
        -10.03996264049309
      ],
      [
        "dagen",
        -10.04035939009287
      ],
      [
        "▁må",
        -10.040959958232316
      ],
      [
        "enklare",
        -10.041699084207528
      ],
      [
        "▁Lund",
        -10.041838419565737
      ],
      [
        "▁välkomna",
        -10.041849939860592
      ],
      [
        "skrevs",
        -10.043322806089737
      ],
      [
        "▁tillfälle",
        -10.043323632026423
      ],
      [
        "▁fixa",
        -10.04420170458733
      ],
      [
        "garantera",
        -10.044856034442025
      ],
      [
        "▁ses",
        -10.04526666948637
      ],
      [
        "▁normalt",
        -10.045497393362774
      ],
      [
        "erar",
        -10.046640841943136
      ],
      [
        "lämnade",
        -10.046876521677678
      ],
      [
        "▁Din",
        -10.046999924341899
      ],
      [
        "▁Örebro",
        -10.047249476782241
      ],
      [
        "▁Fredrik",
        -10.048164266326099
      ],
      [
        "skydd",
        -10.048653614212022
      ],
      [
        "Skulle",
        -10.049421048487812
      ],
      [
        "liggande",
        -10.04954278421204
      ],
      [
        "ler",
        -10.049587490411636
      ],
      [
        "▁brist",
        -10.050161272356561
      ],
      [
        "via",
        -10.051103817901723
      ],
      [
        "▁positiv",
        -10.05148273160579
      ],
      [
        "▁www",
        -10.051800151662759
      ],
      [
        "ställen",
        -10.052269559988416
      ],
      [
        "▁nämn",
        -10.052615323106105
      ],
      [
        "visas",
        -10.052847364877257
      ],
      [
        "▁rummet",
        -10.053236400779795
      ],
      [
        "▁leta",
        -10.053644203466803
      ],
      [
        "ständigt",
        -10.053670377083495
      ],
      [
        "▁Martin",
        -10.053926087050318
      ],
      [
        "vända",
        -10.053938748668589
      ],
      [
        "▁förvänta",
        -10.053944780709752
      ],
      [
        "▁morgonen",
        -10.054250065747802
      ],
      [
        "funkar",
        -10.054250318255894
      ],
      [
        "▁Anmäl",
        -10.054252998467605
      ],
      [
        "ur",
        -10.055797842702457
      ],
      [
        "▁organisation",
        -10.056438638963893
      ],
      [
        "▁La",
        -10.05692074101758
      ],
      [
        "▁plast",
        -10.057044118897242
      ],
      [
        "▁samla",
        -10.05743373882179
      ],
      [
        "möjliga",
        -10.058265089309508
      ],
      [
        "▁räkna",
        -10.059236922930735
      ],
      [
        "mötet",
        -10.05933068402686
      ],
      [
        "www",
        -10.059623092671556
      ],
      [
        "▁post",
        -10.060239241481963
      ],
      [
        "▁hänsyn",
        -10.061036099723346
      ],
      [
        "▁bakgrund",
        -10.061381150745557
      ],
      [
        "▁kombinera",
        -10.061628400344123
      ],
      [
        "jag",
        -10.061646340088458
      ],
      [
        "▁stress",
        -10.06168568513137
      ],
      [
        "▁utföra",
        -10.061941807325287
      ],
      [
        "titeln",
        -10.06216810891146
      ],
      [
        "▁ersättning",
        -10.063291397187978
      ],
      [
        "▁modern",
        -10.063798678273589
      ],
      [
        "▁Hade",
        -10.06477796609506
      ],
      [
        "▁ställe",
        -10.065309021269503
      ],
      [
        "▁nyligen",
        -10.066540002947136
      ],
      [
        "visat",
        -10.067644105354688
      ],
      [
        "▁läkemedel",
        -10.069916608545094
      ],
      [
        "▁Tre",
        -10.070431196864849
      ],
      [
        "tvung",
        -10.071030495386012
      ],
      [
        "tekniska",
        -10.0711751286114
      ],
      [
        "▁Nästa",
        -10.072003741738753
      ],
      [
        "▁haha",
        -10.072224313756829
      ],
      [
        "▁Lägg",
        -10.07398033661076
      ],
      [
        "▁varm",
        -10.07484363744853
      ],
      [
        "▁tjejer",
        -10.075490172289205
      ],
      [
        "▁Google",
        -10.076382741080272
      ],
      [
        "bestämt",
        -10.076516569897038
      ],
      [
        "▁blod",
        -10.076553298665766
      ],
      [
        "▁Tyskland",
        -10.076987434591828
      ],
      [
        "▁säkerhets",
        -10.07729327802454
      ],
      [
        "me",
        -10.07782592970632
      ],
      [
        "planen",
        -10.077974360618041
      ],
      [
        "▁regn",
        -10.079174259427518
      ],
      [
        "▁Gör",
        -10.080258283234727
      ],
      [
        "▁Hos",
        -10.080987503455964
      ],
      [
        "▁slags",
        -10.081955903867174
      ],
      [
        "▁snygg",
        -10.082583930390498
      ],
      [
        "möten",
        -10.082739470710171
      ],
      [
        "möjligheten",
        -10.084272450614002
      ],
      [
        "▁El",
        -10.084487710624753
      ],
      [
        "▁prov",
        -10.085765776255817
      ],
      [
        "▁tal",
        -10.086049891666445
      ],
      [
        "fall",
        -10.086254492948296
      ],
      [
        "▁mil",
        -10.086642587434689
      ],
      [
        "skor",
        -10.087422691655973
      ],
      [
        "ningen",
        -10.087631290672764
      ],
      [
        "ans",
        -10.087886647143486
      ],
      [
        "▁bas",
        -10.087992064715428
      ],
      [
        "▁rekommenderar",
        -10.088215163511514
      ],
      [
        "▁video",
        -10.088251049043954
      ],
      [
        "vi",
        -10.088873506300795
      ],
      [
        "▁besluta",
        -10.090018746408512
      ],
      [
        "▁brev",
        -10.091202790863182
      ],
      [
        "▁centrala",
        -10.091954569685166
      ],
      [
        "▁Själv",
        -10.092354903374533
      ],
      [
        "▁kontrollera",
        -10.09263475458509
      ],
      [
        "▁erbjud",
        -10.092772754842159
      ],
      [
        "allmänna",
        -10.09288736175348
      ],
      [
        "▁illa",
        -10.09314681931351
      ],
      [
        "▁problemet",
        -10.093654556995267
      ],
      [
        "▁översättning",
        -10.093979622510112
      ],
      [
        "▁inlägget",
        -10.094116829758919
      ],
      [
        "▁sjukhus",
        -10.094559485440776
      ],
      [
        "▁glädje",
        -10.094582968528035
      ],
      [
        "▁hot",
        -10.09516703729037
      ],
      [
        "▁röd",
        -10.09536472680511
      ],
      [
        "▁kök",
        -10.096312483650475
      ],
      [
        "▁måndag",
        -10.096784352548148
      ],
      [
        "▁frukt",
        -10.096861962155664
      ],
      [
        "myndigheten",
        -10.097773303671618
      ],
      [
        "▁Y",
        -10.099500943841296
      ],
      [
        "ernas",
        -10.100313034677177
      ],
      [
        "▁Carl",
        -10.101424656900498
      ],
      [
        "eleverna",
        -10.101862613372022
      ],
      [
        "▁Inga",
        -10.102193456040595
      ],
      [
        "▁mörk",
        -10.103075466304277
      ],
      [
        "▁konto",
        -10.103147599638
      ],
      [
        "situationen",
        -10.105084067479346
      ],
      [
        "▁Vet",
        -10.10532973981094
      ],
      [
        "var",
        -10.105677556683501
      ],
      [
        "aren",
        -10.106545848605776
      ],
      [
        "stad",
        -10.106627545096185
      ],
      [
        "befinner",
        -10.106895166377928
      ],
      [
        "▁by",
        -10.107742973964355
      ],
      [
        "▁miss",
        -10.108018165548836
      ],
      [
        "▁norr",
        -10.10831967479941
      ],
      [
        "tog",
        -10.108342280350689
      ],
      [
        "▁starka",
        -10.109150608520741
      ],
      [
        "▁ringa",
        -10.109599694744677
      ],
      [
        "▁gemensamma",
        -10.109802740344723
      ],
      [
        "▁nummer",
        -10.110079512622798
      ],
      [
        "▁studier",
        -10.110113732058688
      ],
      [
        "avseende",
        -10.110490922268815
      ],
      [
        "▁ung",
        -10.112541325790062
      ],
      [
        "idéer",
        -10.112792271347429
      ],
      [
        "berättade",
        -10.112907758012062
      ],
      [
        "▁styr",
        -10.114341434192083
      ],
      [
        "▁användare",
        -10.115055163359633
      ],
      [
        "▁stycken",
        -10.115464090502691
      ],
      [
        "▁använde",
        -10.117220641781639
      ],
      [
        "▁politiker",
        -10.117765097764783
      ],
      [
        "chansen",
        -10.11894526029393
      ],
      [
        "▁Norge",
        -10.12008384708648
      ],
      [
        "▁magen",
        -10.12100440844873
      ],
      [
        "ört",
        -10.121360992986427
      ],
      [
        "▁Första",
        -10.122418697423827
      ],
      [
        "▁motsvarande",
        -10.122514996794587
      ],
      [
        "▁Vem",
        -10.124718164747371
      ],
      [
        "konstigt",
        -10.124738772284063
      ],
      [
        "snabbare",
        -10.125321955658658
      ],
      [
        "▁kyrkan",
        -10.125579582419254
      ],
      [
        "▁nödvändigt",
        -10.128719545833269
      ],
      [
        "▁media",
        -10.12931042155672
      ],
      [
        "värre",
        -10.130367510375088
      ],
      [
        "▁säkra",
        -10.131092718595298
      ],
      [
        "▁Få",
        -10.131533250472069
      ],
      [
        "▁förändringar",
        -10.132196499189781
      ],
      [
        "svarade",
        -10.132739214616992
      ],
      [
        "▁roliga",
        -10.13298672373826
      ],
      [
        "▁År",
        -10.133440795601581
      ],
      [
        "▁Någon",
        -10.133733896179315
      ],
      [
        "▁genomför",
        -10.135109742443662
      ],
      [
        "▁Upp",
        -10.135166653801107
      ],
      [
        "▁ända",
        -10.135446875160824
      ],
      [
        "känslan",
        -10.135793530223516
      ],
      [
        "En",
        -10.136079367388051
      ],
      [
        "sam",
        -10.136182934499198
      ],
      [
        "▁snabba",
        -10.136353135801054
      ],
      [
        "▁fyller",
        -10.136445817461032
      ],
      [
        "▁röst",
        -10.1371369267122
      ],
      [
        "▁tjänst",
        -10.137200775019162
      ],
      [
        "förbundet",
        -10.138419936536822
      ],
      [
        "▁kombination",
        -10.139247230405342
      ],
      [
        "▁skogen",
        -10.139470770310476
      ],
      [
        "▁avgörande",
        -10.139910849502039
      ],
      [
        "▁Hem",
        -10.140676422668523
      ],
      [
        "▁ämnen",
        -10.140871928104481
      ],
      [
        "▁jämföra",
        -10.140875175492663
      ],
      [
        "Omdöme",
        -10.140899100030547
      ],
      [
        "▁minns",
        -10.141526797566812
      ],
      [
        "▁resurser",
        -10.141642621256729
      ],
      [
        "▁naturen",
        -10.141646875315159
      ],
      [
        "▁grupper",
        -10.142617965060076
      ],
      [
        "ering",
        -10.142935662581849
      ],
      [
        "▁vackert",
        -10.143109405385472
      ],
      [
        "▁upplevelse",
        -10.143808583175181
      ],
      [
        "▁funktioner",
        -10.143893529200763
      ],
      [
        "▁säkerställ",
        -10.144536768445384
      ],
      [
        "▁ägg",
        -10.144717744079497
      ],
      [
        "▁redo",
        -10.146488140176817
      ],
      [
        "priserna",
        -10.147099497564879
      ],
      [
        "▁röda",
        -10.147441090698813
      ],
      [
        "▁dyr",
        -10.147781712278624
      ],
      [
        "▁An",
        -10.147943427926233
      ],
      [
        "▁skatte",
        -10.14843089276405
      ],
      [
        "▁ledare",
        -10.148672572235528
      ],
      [
        "▁dejta",
        -10.148747410250806
      ],
      [
        "▁orsak",
        -10.14918294346657
      ],
      [
        "▁affärs",
        -10.149450628350856
      ],
      [
        "beskriver",
        -10.149519962064572
      ],
      [
        "▁hundra",
        -10.149741437975871
      ],
      [
        "▁Nilsson",
        -10.150983268961358
      ],
      [
        "mark",
        -10.151141407707671
      ],
      [
        "varken",
        -10.151745873518397
      ],
      [
        "▁förändring",
        -10.151753352353195
      ],
      [
        "nade",
        -10.152491375919315
      ],
      [
        "resa",
        -10.15250235985831
      ],
      [
        "hittills",
        -10.152918169370247
      ],
      [
        "tjänster",
        -10.154068289490477
      ],
      [
        "▁SVT",
        -10.154222606333603
      ],
      [
        "▁chef",
        -10.155157554554055
      ],
      [
        "stället",
        -10.156040459056598
      ],
      [
        "▁informationen",
        -10.156670582014733
      ],
      [
        "▁förklara",
        -10.157097048815539
      ],
      [
        "▁Stefan",
        -10.157435575877296
      ],
      [
        "Dålig",
        -10.157503117830995
      ],
      [
        "förmodligen",
        -10.15882293228378
      ],
      [
        "é",
        -10.159398361800282
      ],
      [
        "▁jord",
        -10.15954298725729
      ],
      [
        "▁digitala",
        -10.160435739863518
      ],
      [
        "bart",
        -10.161032796551078
      ],
      [
        "gen",
        -10.16126375071551
      ],
      [
        "▁beställa",
        -10.161539356809904
      ],
      [
        "▁grundläggande",
        -10.162156119087532
      ],
      [
        "lade",
        -10.162612789039994
      ],
      [
        "▁fart",
        -10.163198987557156
      ],
      [
        "framförallt",
        -10.164225254189413
      ],
      [
        "möter",
        -10.164426101556629
      ],
      [
        "positivt",
        -10.165386600570828
      ],
      [
        "tillfällen",
        -10.165893093048467
      ],
      [
        "perfekta",
        -10.166471565073998
      ],
      [
        "▁tecken",
        -10.16666326474441
      ],
      [
        "▁sån",
        -10.167445799781126
      ],
      [
        "nar",
        -10.167782056660261
      ],
      [
        "▁Bild",
        -10.168269355105295
      ],
      [
        "▁butik",
        -10.168434512210263
      ],
      [
        "▁dröm",
        -10.16879372080925
      ],
      [
        "▁hamnar",
        -10.169630366898492
      ],
      [
        "▁grad",
        -10.170197861945207
      ],
      [
        "▁botten",
        -10.170694373914621
      ],
      [
        "▁fördel",
        -10.171214322611108
      ],
      [
        "▁företags",
        -10.171344595266968
      ],
      [
        "▁ägare",
        -10.171579556097965
      ],
      [
        "▁perspektiv",
        -10.172041278355357
      ],
      [
        "▁långsiktig",
        -10.172516632558859
      ],
      [
        "▁Internet",
        -10.172742209106804
      ],
      [
        "▁rädda",
        -10.17278434230943
      ],
      [
        "Något",
        -10.173224297327671
      ],
      [
        "lösa",
        -10.174324117154494
      ],
      [
        "▁känslor",
        -10.174440023191025
      ],
      [
        "▁All",
        -10.174532024121554
      ],
      [
        "rakt",
        -10.17473762951028
      ],
      [
        "▁fisk",
        -10.175773034285509
      ],
      [
        "Vilket",
        -10.1760273010564
      ],
      [
        "▁hopp",
        -10.176580249910838
      ],
      [
        "▁driva",
        -10.177025936249795
      ],
      [
        "▁plocka",
        -10.178122480761287
      ],
      [
        "min",
        -10.179921351438693
      ],
      [
        "erat",
        -10.180061949022
      ],
      [
        "▁detaljer",
        -10.180118582063308
      ],
      [
        "▁choklad",
        -10.182233409649209
      ],
      [
        "sida",
        -10.182265770029453
      ],
      [
        "▁Stor",
        -10.182708101329217
      ],
      [
        "▁känd",
        -10.182829890827412
      ],
      [
        "▁Re",
        -10.182861342913007
      ],
      [
        "verksamhet",
        -10.182940185327396
      ],
      [
        "▁håret",
        -10.1832366533854
      ],
      [
        "▁båt",
        -10.183296460410855
      ],
      [
        "▁korrekt",
        -10.183580674664647
      ],
      [
        "ly",
        -10.184356896321182
      ],
      [
        "▁utomhus",
        -10.185202125956241
      ],
      [
        "▁framtid",
        -10.185282075837305
      ],
      [
        "▁betyd",
        -10.185305697428676
      ],
      [
        "▁Mat",
        -10.185627768505347
      ],
      [
        "nsåg",
        -10.18578565222356
      ],
      [
        "▁skydd",
        -10.185923228561633
      ],
      [
        "▁regel",
        -10.185927099890852
      ],
      [
        "▁hundar",
        -10.186081984535518
      ],
      [
        "faller",
        -10.186124353086397
      ],
      [
        "▁månaden",
        -10.186809395472173
      ],
      [
        "▁fot",
        -10.187339186735091
      ],
      [
        "grupp",
        -10.187902246895316
      ],
      [
        "▁springa",
        -10.188820837077378
      ],
      [
        "▁driver",
        -10.18937310021593
      ],
      [
        "▁leverera",
        -10.189890005674881
      ],
      [
        "▁träd",
        -10.190735313049522
      ],
      [
        "▁privata",
        -10.190878786032334
      ],
      [
        "partiet",
        -10.191565072547514
      ],
      [
        "én",
        -10.191643123455922
      ],
      [
        "link",
        -10.191968305663718
      ],
      [
        "▁inled",
        -10.192065950795907
      ],
      [
        "delas",
        -10.192163689643516
      ],
      [
        "▁mån",
        -10.193194606358214
      ],
      [
        "nu",
        -10.19391439371602
      ],
      [
        "kallar",
        -10.194495623932214
      ],
      [
        "▁Svensk",
        -10.194683069527338
      ],
      [
        "▁bar",
        -10.19543004036326
      ],
      [
        "▁cookies",
        -10.195889274858672
      ],
      [
        "▁omöjlig",
        -10.196041683063019
      ],
      [
        "▁tänk",
        -10.196247219239902
      ],
      [
        "enskilda",
        -10.196963383045048
      ],
      [
        "▁tillämpa",
        -10.197380097796776
      ],
      [
        "▁Spel",
        -10.19755858132632
      ],
      [
        "▁politik",
        -10.197628250077646
      ],
      [
        "tanken",
        -10.198189372776092
      ],
      [
        "▁erfarenheter",
        -10.198442300294902
      ],
      [
        "▁verksamheter",
        -10.200236892355436
      ],
      [
        "▁kunskaper",
        -10.20050167919098
      ],
      [
        "▁kött",
        -10.200565563250198
      ],
      [
        "▁Innan",
        -10.200626328002262
      ],
      [
        "letar",
        -10.20127618560465
      ],
      [
        "▁jorden",
        -10.201896420555864
      ],
      [
        "▁växa",
        -10.202053230861747
      ],
      [
        "▁svarar",
        -10.20272503758052
      ],
      [
        "▁resan",
        -10.202887005306467
      ],
      [
        "▁staten",
        -10.203155255875528
      ],
      [
        "granskar",
        -10.203192545776286
      ],
      [
        "härligt",
        -10.203276737519591
      ],
      [
        "▁underlätta",
        -10.203923068409017
      ],
      [
        "▁socker",
        -10.20448297618231
      ],
      [
        "minskar",
        -10.205302534457125
      ],
      [
        "▁Daniel",
        -10.205683566591107
      ],
      [
        "▁kommunikation",
        -10.206403177808992
      ],
      [
        "▁dotter",
        -10.206466452489892
      ],
      [
        "▁mail",
        -10.206586905425072
      ],
      [
        "▁världs",
        -10.207000524524494
      ],
      [
        "uppleva",
        -10.207004168716391
      ],
      [
        "bjöd",
        -10.207039101372505
      ],
      [
        "material",
        -10.20793787210766
      ],
      [
        "pris",
        -10.20871864596503
      ],
      [
        "▁mjuk",
        -10.209151033917648
      ],
      [
        "▁förlora",
        -10.210416820828966
      ],
      [
        "▁ikväll",
        -10.211073305989071
      ],
      [
        "▁erbjudanden",
        -10.211605841487755
      ],
      [
        "▁maten",
        -10.212096109558901
      ],
      [
        "▁sent",
        -10.212768495147442
      ],
      [
        "▁sikt",
        -10.213690131358883
      ],
      [
        "rådet",
        -10.21455497539033
      ],
      [
        "dörren",
        -10.215202966338571
      ],
      [
        "▁fett",
        -10.215797860748072
      ],
      [
        "▁närvarande",
        -10.216335416449908
      ],
      [
        "▁tycka",
        -10.216839438529266
      ],
      [
        "▁inspiration",
        -10.217284480798087
      ],
      [
        "▁toppen",
        -10.217397423387098
      ],
      [
        "lin",
        -10.21759081311543
      ],
      [
        "stämmer",
        -10.217921743129445
      ],
      [
        "▁organisationer",
        -10.21802893756232
      ],
      [
        "▁restauranger",
        -10.21834131350138
      ],
      [
        "▁inkomst",
        -10.219188624442673
      ],
      [
        "▁Pris",
        -10.219308378813185
      ],
      [
        "▁transport",
        -10.21992686691523
      ],
      [
        "▁rädd",
        -10.220265074595567
      ],
      [
        "sånt",
        -10.220594171296627
      ],
      [
        "▁nätdejting",
        -10.220699971781753
      ],
      [
        "▁leverans",
        -10.221128664408724
      ],
      [
        "▁dating",
        -10.221433129479628
      ],
      [
        "frågor",
        -10.22179340052854
      ],
      [
        "▁fest",
        -10.22190176008825
      ],
      [
        "▁vila",
        -10.223260701961953
      ],
      [
        "erad",
        -10.22379524130024
      ],
      [
        "frågade",
        -10.224014370824955
      ],
      [
        "▁tider",
        -10.224171948874432
      ],
      [
        "▁aktivt",
        -10.2243053241192
      ],
      [
        "mässigt",
        -10.22493822779562
      ],
      [
        "▁tids",
        -10.225882116077496
      ],
      [
        "▁nationella",
        -10.227403074727897
      ],
      [
        "liv",
        -10.228649013672044
      ],
      [
        "mängder",
        -10.229140408348046
      ],
      [
        "sättningar",
        -10.229204474255756
      ],
      [
        "rummet",
        -10.229264593296678
      ],
      [
        "▁överens",
        -10.229411526301886
      ],
      [
        "→",
        -10.229568024661535
      ],
      [
        "▁hyra",
        -10.229697196417497
      ],
      [
        "▁bilderna",
        -10.22987423592447
      ],
      [
        "▁effektivt",
        -10.23070909713303
      ],
      [
        "loppet",
        -10.231471709247607
      ],
      [
        "▁moderna",
        -10.232815397738543
      ],
      [
        "▁York",
        -10.23397115770487
      ],
      [
        "▁press",
        -10.23492683946169
      ],
      [
        "▁stoppa",
        -10.234965738031534
      ],
      [
        "▁bedöm",
        -10.235318565442281
      ],
      [
        "stått",
        -10.236108381674248
      ],
      [
        "▁säg",
        -10.236299277415307
      ],
      [
        "läste",
        -10.236299890537266
      ],
      [
        "▁London",
        -10.236318789381466
      ],
      [
        "▁tåg",
        -10.237046185933021
      ],
      [
        "▁insatser",
        -10.237147642819455
      ],
      [
        "▁rimlig",
        -10.237975156604412
      ],
      [
        "▁kost",
        -10.238568622653144
      ],
      [
        "▁avsnitt",
        -10.24017030886458
      ],
      [
        "öppnar",
        -10.240589334097622
      ],
      [
        "mål",
        -10.240951469363603
      ],
      [
        "▁bedömning",
        -10.241247964545412
      ],
      [
        "▁blommor",
        -10.24227607295835
      ],
      [
        "▁katt",
        -10.243279176101074
      ],
      [
        "▁sängen",
        -10.24348766459385
      ],
      [
        "ledes",
        -10.243563094145774
      ],
      [
        "hem",
        -10.243932756802788
      ],
      [
        "beslutet",
        -10.244487919778242
      ],
      [
        "▁nätverk",
        -10.24562932202623
      ],
      [
        "ling",
        -10.247371803446828
      ],
      [
        "▁butiker",
        -10.247863217441509
      ],
      [
        "läge",
        -10.247950047725078
      ],
      [
        "▁syns",
        -10.24863409960493
      ],
      [
        "▁Får",
        -10.248649553877076
      ],
      [
        "sta",
        -10.248752865852913
      ],
      [
        "▁vitt",
        -10.24912515641473
      ],
      [
        "ort",
        -10.249356119443904
      ],
      [
        "väg",
        -10.249472347496413
      ],
      [
        "orkar",
        -10.249691656466691
      ],
      [
        "▁rapport",
        -10.249860604349033
      ],
      [
        "▁köket",
        -10.250867090569239
      ],
      [
        "▁foto",
        -10.250921089841707
      ],
      [
        "▁jämför",
        -10.251402664028122
      ],
      [
        "▁startar",
        -10.251494476035573
      ],
      [
        "▁serien",
        -10.251924868509038
      ],
      [
        "▁unik",
        -10.252357945431068
      ],
      [
        "▁föreningen",
        -10.252884605774204
      ],
      [
        "dan",
        -10.25288874866425
      ],
      [
        "rätten",
        -10.252905305044692
      ],
      [
        "▁underbara",
        -10.252924211018758
      ],
      [
        "▁led",
        -10.253323551022193
      ],
      [
        "▁Dom",
        -10.25338085476464
      ],
      [
        "▁möjlig",
        -10.254026807263285
      ],
      [
        "kursen",
        -10.254219775946929
      ],
      [
        "▁tillgänglig",
        -10.254276981467589
      ],
      [
        "▁döda",
        -10.254528259863795
      ],
      [
        "▁John",
        -10.254852383018038
      ],
      [
        "lugnt",
        -10.255090795072384
      ],
      [
        "▁färdig",
        -10.25536895693744
      ],
      [
        "▁vintern",
        -10.255450012693826
      ],
      [
        "▁info",
        -10.25562335696024
      ],
      [
        "positiva",
        -10.255762050350437
      ],
      [
        "vinner",
        -10.256680992201607
      ],
      [
        "▁inre",
        -10.257436995150604
      ],
      [
        "full",
        -10.257811425410315
      ],
      [
        "▁reklam",
        -10.25807865861933
      ],
      [
        "▁mening",
        -10.25842290422526
      ],
      [
        "originalet",
        -10.258808519739052
      ],
      [
        "längst",
        -10.259119284002937
      ],
      [
        "▁värd",
        -10.25918162322724
      ],
      [
        "▁söder",
        -10.259462721368632
      ],
      [
        "▁extremt",
        -10.259720182421079
      ],
      [
        "▁utbildnings",
        -10.259923103714355
      ],
      [
        "▁analys",
        -10.260655490656637
      ],
      [
        "▁fa",
        -10.260779518742059
      ],
      [
        "▁punkt",
        -10.261415474245048
      ],
      [
        "framtida",
        -10.26175187087156
      ],
      [
        "▁tidningen",
        -10.261762818917237
      ],
      [
        "personen",
        -10.26187918407381
      ],
      [
        "rna",
        -10.261979004797743
      ],
      [
        "▁Björn",
        -10.262341176497397
      ],
      [
        "▁myndigheter",
        -10.262400638956091
      ],
      [
        "▁definitiv",
        -10.262523551008908
      ],
      [
        "▁nio",
        -10.262561827021901
      ],
      [
        "▁Z",
        -10.26328599476412
      ],
      [
        "▁allmän",
        -10.263791922061142
      ],
      [
        "▁säng",
        -10.2637968042151
      ],
      [
        "▁fira",
        -10.264029475572563
      ],
      [
        "sjö",
        -10.264149783879628
      ],
      [
        "▁Al",
        -10.26501670552509
      ],
      [
        "▁utrymme",
        -10.265525577816625
      ],
      [
        "unika",
        -10.26604614570551
      ],
      [
        "teknik",
        -10.266414031326454
      ],
      [
        "löst",
        -10.266936557572578
      ],
      [
        "▁tillåt",
        -10.268485343379263
      ],
      [
        "▁Svar",
        -10.269055596165073
      ],
      [
        "▁underbar",
        -10.269260948797168
      ],
      [
        "▁Jonas",
        -10.269863183291335
      ],
      [
        "område",
        -10.27075036222881
      ],
      [
        "▁svarta",
        -10.270845229693121
      ],
      [
        "▁skull",
        -10.271962131975094
      ],
      [
        "▁slutar",
        -10.272467201255058
      ],
      [
        "▁hård",
        -10.273062147812277
      ],
      [
        "▁våga",
        -10.273270053582134
      ],
      [
        "▁försökt",
        -10.273640643078034
      ],
      [
        "Både",
        -10.274106994036282
      ],
      [
        "▁datum",
        -10.274198507213026
      ],
      [
        "▁Bil",
        -10.274474492512908
      ],
      [
        "hörde",
        -10.274581546161969
      ],
      [
        "▁ordet",
        -10.274593775780335
      ],
      [
        "upplever",
        -10.274744392638745
      ],
      [
        "vädret",
        -10.274773946094944
      ],
      [
        "▁glada",
        -10.27488394064804
      ],
      [
        "orsaka",
        -10.275144783700247
      ],
      [
        "▁medför",
        -10.275686793882196
      ],
      [
        "▁SM",
        -10.276752530481563
      ],
      [
        "industrin",
        -10.277303481175359
      ],
      [
        "▁herr",
        -10.277567271254735
      ],
      [
        "▁ögonen",
        -10.278344767656453
      ],
      [
        "▁Dam",
        -10.278621726475333
      ],
      [
        "▁Frankrike",
        -10.28064231161407
      ],
      [
        "▁dubbel",
        -10.281119236056991
      ],
      [
        "▁hälften",
        -10.281159216969193
      ],
      [
        "officiell",
        -10.281848891159857
      ],
      [
        "pass",
        -10.282277157091384
      ],
      [
        "▁mönster",
        -10.282695587749412
      ],
      [
        "▁Umeå",
        -10.282932831441789
      ],
      [
        "▁frisk",
        -10.283578360586423
      ],
      [
        "dal",
        -10.283658881215889
      ],
      [
        "▁gäng",
        -10.283828334906772
      ],
      [
        "▁bekräfta",
        -10.284921538115608
      ],
      [
        "slagen",
        -10.285138936658203
      ],
      [
        "▁fakta",
        -10.287447975470755
      ],
      [
        "▁bära",
        -10.288164832772415
      ],
      [
        "▁hände",
        -10.288167334696006
      ],
      [
        "flyttade",
        -10.288361624927715
      ],
      [
        "▁filmer",
        -10.288602261839094
      ],
      [
        "▁Dagens",
        -10.289333500271391
      ],
      [
        "faktum",
        -10.289346257035966
      ],
      [
        "▁lek",
        -10.289419868368912
      ],
      [
        "▁allvar",
        -10.290162701835817
      ],
      [
        "politiken",
        -10.2903043011816
      ],
      [
        "vin",
        -10.290383631600944
      ],
      [
        "▁bevis",
        -10.291175644493118
      ],
      [
        "▁ton",
        -10.291351364820871
      ],
      [
        "▁svåra",
        -10.291366626698796
      ],
      [
        "▁Hela",
        -10.291573013115514
      ],
      [
        "▁underbart",
        -10.291980675324202
      ],
      [
        "jobbigt",
        -10.292028602688232
      ],
      [
        "intresserade",
        -10.292128092709659
      ],
      [
        "▁klubben",
        -10.293156619651317
      ],
      [
        "▁kapital",
        -10.293188369315352
      ],
      [
        "skaffa",
        -10.293345031225625
      ],
      [
        "▁offentliga",
        -10.294798082490798
      ],
      [
        "▁dokument",
        -10.295730682242091
      ],
      [
        "mat",
        -10.29605193038519
      ],
      [
        "bilder",
        -10.296651588318312
      ],
      [
        "valda",
        -10.29688525623617
      ],
      [
        "baserade",
        -10.296889893748864
      ],
      [
        "W",
        -10.297053716487854
      ],
      [
        "okej",
        -10.297227651875566
      ],
      [
        "▁dans",
        -10.298713882841662
      ],
      [
        "▁metod",
        -10.298804473031767
      ],
      [
        "▁badrum",
        -10.299219546059073
      ],
      [
        "▁total",
        -10.299407593894266
      ],
      [
        "vunnit",
        -10.299438730155149
      ],
      [
        "finansiella",
        -10.300050853575241
      ],
      [
        "▁process",
        -10.301309178343569
      ],
      [
        "områden",
        -10.301950589230712
      ],
      [
        "▁metoder",
        -10.301976777218725
      ],
      [
        "▁fotboll",
        -10.30204704384837
      ],
      [
        "▁vardag",
        -10.302945360666454
      ],
      [
        "▁tränings",
        -10.303033765554764
      ],
      [
        "riktiga",
        -10.303205556756586
      ],
      [
        "varande",
        -10.304832946286092
      ],
      [
        "ledde",
        -10.305074833126904
      ],
      [
        "▁sväng",
        -10.305594310051458
      ],
      [
        "arbetat",
        -10.306101441849401
      ],
      [
        "spelare",
        -10.306844620022167
      ],
      [
        "▁knapp",
        -10.307293436665075
      ],
      [
        "▁fjärde",
        -10.307632526524767
      ],
      [
        "Annars",
        -10.307775858246533
      ],
      [
        "▁mode",
        -10.3079141879061
      ],
      [
        "▁bestämma",
        -10.308083232447666
      ],
      [
        "utöver",
        -10.30848423394163
      ],
      [
        "▁hjärtat",
        -10.308548044637783
      ],
      [
        "▁City",
        -10.309008498320384
      ],
      [
        "▁egenskaper",
        -10.30928843400785
      ],
      [
        "▁rörelse",
        -10.309491625290823
      ],
      [
        "▁Kommer",
        -10.309535268693695
      ],
      [
        "hinner",
        -10.309657636354906
      ],
      [
        "▁mjölk",
        -10.310182646943899
      ],
      [
        "generell",
        -10.311218328249963
      ],
      [
        "▁Casino",
        -10.311704833402697
      ],
      [
        "tals",
        -10.311799037056977
      ],
      [
        "▁fordon",
        -10.312176097097405
      ],
      [
        "▁sammanhang",
        -10.312388675153175
      ],
      [
        "▁nät",
        -10.312462438540814
      ],
      [
        "▁dricka",
        -10.312743187675684
      ],
      [
        "▁relation",
        -10.31294272549917
      ],
      [
        "▁paket",
        -10.313028985216729
      ],
      [
        "▁Del",
        -10.313045121462629
      ],
      [
        "▁psykisk",
        -10.313342127092998
      ],
      [
        "▁sverige",
        -10.313481747194565
      ],
      [
        "▁David",
        -10.313501606125723
      ],
      [
        "soffan",
        -10.313856414273646
      ],
      [
        "tävlingen",
        -10.31411192791833
      ],
      [
        "grupper",
        -10.314350498884034
      ],
      [
        "▁Information",
        -10.314627351743713
      ],
      [
        "desto",
        -10.317140581687845
      ],
      [
        "▁Göteborgs",
        -10.317741991894325
      ],
      [
        "pga",
        -10.318013283637852
      ],
      [
        "För",
        -10.31814172927346
      ],
      [
        "▁straff",
        -10.31884300845566
      ],
      [
        "vänder",
        -10.318962755136116
      ],
      [
        "Bolaget",
        -10.319090809727419
      ],
      [
        "▁låga",
        -10.31912515113161
      ],
      [
        "bolag",
        -10.31914918835271
      ],
      [
        "ningar",
        -10.319272473177032
      ],
      [
        "landet",
        -10.320049014387985
      ],
      [
        "▁buss",
        -10.320074471537941
      ],
      [
        "Förbättra",
        -10.320101620561532
      ],
      [
        "modellen",
        -10.320207058851583
      ],
      [
        "▁hunn",
        -10.320585597913844
      ],
      [
        "serien",
        -10.321040650846532
      ],
      [
        "▁styrelsen",
        -10.321652724488777
      ],
      [
        "▁gäst",
        -10.321975940165931
      ],
      [
        "▁hållbar",
        -10.32229367912354
      ],
      [
        "Flera",
        -10.322930160781453
      ],
      [
        "släppa",
        -10.323109919656682
      ],
      [
        "▁VM",
        -10.32334549897946
      ],
      [
        "tittade",
        -10.323754929124274
      ],
      [
        "▁undantag",
        -10.324010529433217
      ],
      [
        "▁utom",
        -10.324288582862415
      ],
      [
        "▁Skriv",
        -10.324690600961215
      ],
      [
        "▁Danmark",
        -10.324953511368275
      ],
      [
        "aktörer",
        -10.325170642542734
      ],
      [
        "▁live",
        -10.325412358988025
      ],
      [
        "▁öl",
        -10.325521888804028
      ],
      [
        "▁snygga",
        -10.325664833015828
      ],
      [
        "skiljer",
        -10.325680821065282
      ],
      [
        "▁Mina",
        -10.325978444159007
      ],
      [
        "nått",
        -10.326346075313586
      ],
      [
        "texten",
        -10.326668514735823
      ],
      [
        "bild",
        -10.326867649543102
      ],
      [
        "golvet",
        -10.32695795247921
      ],
      [
        "nämnden",
        -10.327563205420645
      ],
      [
        "▁förrän",
        -10.327762610595395
      ],
      [
        "▁free",
        -10.328905414076502
      ],
      [
        "▁Park",
        -10.329108525305891
      ],
      [
        "har",
        -10.32937315550172
      ],
      [
        "▁euro",
        -10.329378771853234
      ],
      [
        "ytan",
        -10.329628634262342
      ],
      [
        "mera",
        -10.330237189363658
      ],
      [
        "hänger",
        -10.330569574532813
      ],
      [
        "▁grunden",
        -10.331261690402044
      ],
      [
        "▁naturligt",
        -10.33211484005061
      ],
      [
        "vid",
        -10.332263585017586
      ],
      [
        "▁former",
        -10.332740146230135
      ],
      [
        "▁hål",
        -10.332837376534155
      ],
      [
        "▁skador",
        -10.333061478524266
      ],
      [
        "Hotell",
        -10.33307184850833
      ],
      [
        "Därefter",
        -10.333600697135463
      ],
      [
        "▁informera",
        -10.334927164812981
      ],
      [
        "▁sjukt",
        -10.33550757345163
      ],
      [
        "sett",
        -10.335528897505888
      ],
      [
        "▁intressanta",
        -10.33616821783126
      ],
      [
        "utbildning",
        -10.33648413358933
      ],
      [
        "▁iaf",
        -10.336553667723205
      ],
      [
        "▁adress",
        -10.337104484667385
      ],
      [
        "▁ungdoms",
        -10.337863800965012
      ],
      [
        "bra",
        -10.338209267949113
      ],
      [
        "han",
        -10.33826234339428
      ],
      [
        "▁kille",
        -10.340057183751702
      ],
      [
        "hittat",
        -10.340691917756383
      ],
      [
        "▁tjäna",
        -10.341643550699517
      ],
      [
        "▁jakt",
        -10.341678420461106
      ],
      [
        "▁uppenbar",
        -10.341966674983897
      ],
      [
        "nivåer",
        -10.34238468435374
      ],
      [
        "rika",
        -10.342692319590817
      ],
      [
        "▁utsikt",
        -10.34385661255881
      ],
      [
        "▁ekonomisk",
        -10.344032679088105
      ],
      [
        "▁anti",
        -10.344896456175226
      ],
      [
        "▁tjänsten",
        -10.345664482598592
      ],
      [
        "▁hjärta",
        -10.345716013657603
      ],
      [
        "▁app",
        -10.346221988099686
      ],
      [
        "▁forskare",
        -10.34640418745058
      ],
      [
        "baserad",
        -10.34708374197397
      ],
      [
        "▁upplev",
        -10.347106450202125
      ],
      [
        "▁betalnings",
        -10.347192606845196
      ],
      [
        "▁Gå",
        -10.347219593113115
      ],
      [
        "▁enhet",
        -10.347289163046565
      ],
      [
        "▁Le",
        -10.347537556711242
      ],
      [
        "▁mått",
        -10.347920893652073
      ],
      [
        "brett",
        -10.348851147220334
      ],
      [
        "service",
        -10.349090016958314
      ],
      [
        "▁korta",
        -10.349393829379967
      ],
      [
        "▁Pro",
        -10.350782553285285
      ],
      [
        "▁nere",
        -10.351578486411695
      ],
      [
        "lämnat",
        -10.351606122886563
      ],
      [
        "▁släpp",
        -10.351845979418595
      ],
      [
        "▁skolor",
        -10.351846044326848
      ],
      [
        "▁aktier",
        -10.352034864282427
      ],
      [
        "▁Wi",
        -10.3522180421529
      ],
      [
        "▁bostäder",
        -10.352502140184315
      ],
      [
        "▁välkommen",
        -10.352562751298699
      ],
      [
        "▁gröna",
        -10.35375423618621
      ],
      [
        "▁utrustning",
        -10.354423940082379
      ],
      [
        "▁Namn",
        -10.355480211483915
      ],
      [
        "▁kompis",
        -10.355754758597792
      ],
      [
        "framöver",
        -10.356677554282005
      ],
      [
        "▁band",
        -10.356717671593541
      ],
      [
        "band",
        -10.357371064666546
      ],
      [
        "tillfället",
        -10.357580507989681
      ],
      [
        "världen",
        -10.357743014500281
      ],
      [
        "bolaget",
        -10.357919786363226
      ],
      [
        "▁TripAdvisor",
        -10.358607875956
      ],
      [
        "▁kostnad",
        -10.359569842756303
      ],
      [
        "bjuda",
        -10.360472694563247
      ],
      [
        "▁Bästa",
        -10.36084198007142
      ],
      [
        "närmast",
        -10.360948792058574
      ],
      [
        "förekommer",
        -10.361319411319819
      ],
      [
        "någonstans",
        -10.361329773520536
      ],
      [
        "▁bostad",
        -10.36140859545774
      ],
      [
        "▁effektiv",
        -10.361968442695124
      ],
      [
        "▁marken",
        -10.361987072502394
      ],
      [
        "▁kön",
        -10.362723054373742
      ],
      [
        "▁levande",
        -10.362931303925288
      ],
      [
        "▁Magnus",
        -10.363496965619651
      ],
      [
        "EN",
        -10.364698040985331
      ],
      [
        "▁offentlig",
        -10.364845334953634
      ],
      [
        "dla",
        -10.364976633786489
      ],
      [
        "▁Bygg",
        -10.36573052038625
      ],
      [
        "▁fika",
        -10.36611022147346
      ],
      [
        "gjorda",
        -10.366529840106088
      ],
      [
        "▁Ge",
        -10.366823239992014
      ],
      [
        "qvist",
        -10.367349772428854
      ],
      [
        "▁undersökning",
        -10.368435101079935
      ],
      [
        "▁hänga",
        -10.368704136523936
      ],
      [
        "▁varor",
        -10.369427516341757
      ],
      [
        "▁Berg",
        -10.369720831166635
      ],
      [
        "▁Nord",
        -10.371276379642428
      ],
      [
        "projekt",
        -10.372142388438014
      ],
      [
        "▁rygg",
        -10.37227287284739
      ],
      [
        "▁aktiv",
        -10.372769170547928
      ],
      [
        "▁vapen",
        -10.373232365067494
      ],
      [
        "åriga",
        -10.374390609574174
      ],
      [
        "▁tränar",
        -10.37448168995616
      ],
      [
        "▁bio",
        -10.374590657752567
      ],
      [
        "översättningen",
        -10.37461087337513
      ],
      [
        "fria",
        -10.37590354693339
      ],
      [
        "▁bostads",
        -10.376138467827074
      ],
      [
        "gränsen",
        -10.376357490201606
      ],
      [
        "▁Paris",
        -10.376595805713391
      ],
      [
        "▁lyfta",
        -10.377363133760493
      ],
      [
        "naturliga",
        -10.377420176885064
      ],
      [
        "▁deltagare",
        -10.377551656843412
      ],
      [
        "väntat",
        -10.377853789052825
      ],
      [
        "kontoret",
        -10.377996862207281
      ],
      [
        "▁kilometer",
        -10.378398417774529
      ],
      [
        "▁nyheter",
        -10.378754466271399
      ],
      [
        "klassiska",
        -10.378995469111295
      ],
      [
        "bestämde",
        -10.379001404323066
      ],
      [
        "▁Ryssland",
        -10.379051478113446
      ],
      [
        "medel",
        -10.379473224072749
      ],
      [
        "▁Jesus",
        -10.380002918720072
      ],
      [
        "nytta",
        -10.380122273265362
      ],
      [
        "▁Helt",
        -10.380132808792997
      ],
      [
        "▁papper",
        -10.380808103504506
      ],
      [
        "▁Storbritannien",
        -10.380910278211921
      ],
      [
        "▁marknads",
        -10.381511917041793
      ],
      [
        "▁höjd",
        -10.381595419296882
      ],
      [
        "▁Co",
        -10.381927947958648
      ],
      [
        "▁invånare",
        -10.382137977615972
      ],
      [
        "stärka",
        -10.382927114278791
      ],
      [
        "▁aktiva",
        -10.383653489362462
      ],
      [
        "sannolikt",
        -10.384076695304506
      ],
      [
        "slipper",
        -10.384818839920186
      ],
      [
        "Årets",
        -10.384836933802283
      ],
      [
        "▁team",
        -10.385677397462374
      ],
      [
        "▁lågt",
        -10.385785597733328
      ],
      [
        "▁artikeln",
        -10.386017954522332
      ],
      [
        "▁forsknings",
        -10.386329165672004
      ],
      [
        "▁kallad",
        -10.38675690934915
      ],
      [
        "▁växt",
        -10.386886389356524
      ],
      [
        "▁totala",
        -10.386981415562808
      ],
      [
        "gemensamt",
        -10.386988325108248
      ],
      [
        "stans",
        -10.386997937064523
      ],
      [
        "anges",
        -10.387036736476732
      ],
      [
        "skickar",
        -10.387056889643775
      ],
      [
        "▁tävling",
        -10.388094428680747
      ],
      [
        "▁torr",
        -10.388202930557624
      ],
      [
        "owa",
        -10.3882367146751
      ],
      [
        "linjen",
        -10.388540317495599
      ],
      [
        "▁personalen",
        -10.388621241399989
      ],
      [
        "▁Vårt",
        -10.390038664339968
      ],
      [
        "mysigt",
        -10.390220202883194
      ],
      [
        "▁lät",
        -10.390272838509794
      ],
      [
        "▁avgifter",
        -10.390529130596793
      ],
      [
        "▁personuppgifter",
        -10.390965325954527
      ],
      [
        "▁daglig",
        -10.391001357219663
      ],
      [
        "stöd",
        -10.391079380983536
      ],
      [
        "▁verkligheten",
        -10.391211527289189
      ],
      [
        "ina",
        -10.391288567180334
      ],
      [
        "▁karriär",
        -10.392011785937926
      ],
      [
        "▁Precis",
        -10.39291350800844
      ],
      [
        "sätt",
        -10.392990711798262
      ],
      [
        "nämnda",
        -10.39381691505307
      ],
      [
        "▁Eva",
        -10.393875298935605
      ],
      [
        "▁dejtingsajt",
        -10.394125852306583
      ],
      [
        "handlade",
        -10.394355999429223
      ],
      [
        "▁södra",
        -10.394371105705536
      ],
      [
        "Börja",
        -10.394715745766321
      ],
      [
        "▁banan",
        -10.394841782300182
      ],
      [
        "tips",
        -10.39497588062787
      ],
      [
        "bestämmer",
        -10.395735009735823
      ],
      [
        "▁koppla",
        -10.395976055666514
      ],
      [
        "▁motsvara",
        -10.396975176818918
      ],
      [
        "livet",
        -10.39699221790153
      ],
      [
        "▁särskild",
        -10.397824910407891
      ],
      [
        "särskilda",
        -10.398259389842133
      ],
      [
        "▁Larsson",
        -10.398804200381674
      ],
      [
        "▁Inom",
        -10.399694183423712
      ],
      [
        "▁duktig",
        -10.400600943579022
      ],
      [
        "▁behålla",
        -10.40076825845748
      ],
      [
        "tråkigt",
        -10.401244771053513
      ],
      [
        "▁alltför",
        -10.401329766672019
      ],
      [
        "ryggen",
        -10.40208512868312
      ],
      [
        "▁kontor",
        -10.402846265199564
      ],
      [
        "▁torsdag",
        -10.402905655168896
      ],
      [
        "Tror",
        -10.402943948709714
      ],
      [
        "center",
        -10.403633614298494
      ],
      [
        "▁linje",
        -10.403776104369548
      ],
      [
        "▁Kalmar",
        -10.403993559942906
      ],
      [
        "slag",
        -10.404186635760873
      ],
      [
        "▁Super",
        -10.404486707791063
      ],
      [
        "▁sömn",
        -10.404833465107558
      ],
      [
        "▁klubb",
        -10.40497188568926
      ],
      [
        "▁rese",
        -10.405495568465794
      ],
      [
        "pratade",
        -10.405743202696817
      ],
      [
        "Oavsett",
        -10.406068579269784
      ],
      [
        "▁gemensam",
        -10.406119851141858
      ],
      [
        "▁röra",
        -10.406935076960915
      ],
      [
        "andet",
        -10.407190630796565
      ],
      [
        "▁balans",
        -10.407303099368018
      ],
      [
        "▁industri",
        -10.407419030949796
      ],
      [
        "▁uppfyll",
        -10.408123324312946
      ],
      [
        "▁söt",
        -10.40814319133208
      ],
      [
        "▁sönder",
        -10.408432751685071
      ],
      [
        "▁Thomas",
        -10.408664666025219
      ],
      [
        "problem",
        -10.409581294819155
      ],
      [
        "▁grön",
        -10.410031681168068
      ],
      [
        "nöjda",
        -10.41019846285609
      ],
      [
        "▁seger",
        -10.411469415894581
      ],
      [
        "ämnet",
        -10.411500234979368
      ],
      [
        "▁Mikael",
        -10.411627208499848
      ],
      [
        "kväll",
        -10.411742372791785
      ],
      [
        "kraftigt",
        -10.411914259548315
      ],
      [
        "▁St",
        -10.412236412160865
      ],
      [
        "kategorin",
        -10.412443104168785
      ],
      [
        "oerh",
        -10.413142153685996
      ],
      [
        "▁stranden",
        -10.413162808756322
      ],
      [
        "banan",
        -10.413210652680783
      ],
      [
        "▁Tillsammans",
        -10.413840092249332
      ],
      [
        "uppgifter",
        -10.413857630123571
      ],
      [
        "▁laga",
        -10.415153982261954
      ],
      [
        "▁kallt",
        -10.415258607124029
      ],
      [
        "▁lokaler",
        -10.416525041371845
      ],
      [
        "pågår",
        -10.417353323356284
      ],
      [
        "▁fördelar",
        -10.41823519400666
      ],
      [
        "▁bröd",
        -10.41839329623485
      ],
      [
        "ley",
        -10.418691041092272
      ],
      [
        "▁tyst",
        -10.418711891805199
      ],
      [
        "jobbat",
        -10.419132482096407
      ],
      [
        "▁kritik",
        -10.419435276155573
      ],
      [
        "väntade",
        -10.419460728710286
      ],
      [
        "°",
        -10.41955003031704
      ],
      [
        "▁Nyheter",
        -10.420065479062137
      ],
      [
        "▁aning",
        -10.42025298673729
      ],
      [
        "▁avse",
        -10.420704463990866
      ],
      [
        "▁snyggt",
        -10.421085227683541
      ],
      [
        "rik",
        -10.421889519606605
      ],
      [
        "▁golv",
        -10.422516598423588
      ],
      [
        "FK",
        -10.424076906066226
      ],
      [
        "nivån",
        -10.425853125843112
      ],
      [
        "▁hoppa",
        -10.425963313781898
      ],
      [
        "klassen",
        -10.425975113274871
      ],
      [
        "mänskliga",
        -10.426169770669276
      ],
      [
        "▁återg",
        -10.42618569055077
      ],
      [
        "▁engagemang",
        -10.42654363017035
      ],
      [
        "▁insats",
        -10.426850131781304
      ],
      [
        "värsta",
        -10.427377308904475
      ],
      [
        "▁takt",
        -10.427429510600353
      ],
      [
        "anläggningar",
        -10.427452414743378
      ],
      [
        "hallen",
        -10.42779863039344
      ],
      [
        "automatiskt",
        -10.427800289715078
      ],
      [
        "▁wid",
        -10.427847431117833
      ],
      [
        "pekar",
        -10.42806320960359
      ],
      [
        "Om",
        -10.429079047353024
      ],
      [
        "▁version",
        -10.429382953477434
      ],
      [
        "förslaget",
        -10.429472102400029
      ],
      [
        "▁salt",
        -10.429823961409431
      ],
      [
        "▁syster",
        -10.429833054741954
      ],
      [
        "baserat",
        -10.430034683561882
      ],
      [
        "▁Kram",
        -10.430150708917662
      ],
      [
        "tycks",
        -10.430647963809022
      ],
      [
        "▁dollar",
        -10.430739557082031
      ],
      [
        "▁utmaningar",
        -10.430788052081155
      ],
      [
        "holm",
        -10.430914251276453
      ],
      [
        "kläder",
        -10.43095395467475
      ],
      [
        "▁Fri",
        -10.430993501951155
      ],
      [
        "kommit",
        -10.431076004165867
      ],
      [
        "▁avstånd",
        -10.431203841197469
      ],
      [
        "▁SD",
        -10.431267273673951
      ],
      [
        "▁tyska",
        -10.431521620106757
      ],
      [
        "▁skatt",
        -10.431548927020145
      ],
      [
        "▁bry",
        -10.431648940044175
      ],
      [
        "▁aktivitet",
        -10.43171137706387
      ],
      [
        "▁Sport",
        -10.432079307131556
      ],
      [
        "Redan",
        -10.43224303737778
      ],
      [
        "utvecklat",
        -10.432957498275343
      ],
      [
        "enlighet",
        -10.433463623354298
      ],
      [
        "▁familje",
        -10.433535059860922
      ],
      [
        "▁sekunder",
        -10.433900069332472
      ],
      [
        "▁arrangera",
        -10.43399699154222
      ],
      [
        "▁sko",
        -10.434290802655775
      ],
      [
        "verkade",
        -10.434671063787224
      ],
      [
        "▁Region",
        -10.435203336333998
      ],
      [
        "ökning",
        -10.435209854724839
      ],
      [
        "saknas",
        -10.436166968329898
      ],
      [
        "män",
        -10.436356196330069
      ],
      [
        "▁författare",
        -10.436554675695785
      ],
      [
        "▁spendera",
        -10.436827436836575
      ],
      [
        "▁webb",
        -10.436901259674405
      ],
      [
        "▁Västra",
        -10.438200150142487
      ],
      [
        "▁modeller",
        -10.438392647116494
      ],
      [
        "▁trolig",
        -10.438494312921916
      ],
      [
        "▁Stora",
        -10.438716705665263
      ],
      [
        "▁anpassa",
        -10.438912488070958
      ],
      [
        "▁tuff",
        -10.439015863227974
      ],
      [
        "▁lov",
        -10.43939938036376
      ],
      [
        "skatt",
        -10.439484234188757
      ],
      [
        "▁produktion",
        -10.439638938225261
      ],
      [
        "TV",
        -10.439661155947082
      ],
      [
        "▁berör",
        -10.439792494898265
      ],
      [
        "▁hästar",
        -10.43987971094661
      ],
      [
        "▁Sjö",
        -10.439934060376135
      ],
      [
        "▁finna",
        -10.440050939076416
      ],
      [
        "resultera",
        -10.441449740979106
      ],
      [
        "▁populär",
        -10.441514971760071
      ],
      [
        "räknas",
        -10.442083409886527
      ],
      [
        "▁Windows",
        -10.44254382756117
      ],
      [
        "▁bevilja",
        -10.442605723040838
      ],
      [
        "▁miljön",
        -10.443069009757133
      ],
      [
        "▁dusch",
        -10.443214293535636
      ],
      [
        "▁överallt",
        -10.443700610179237
      ],
      [
        "▁styrelse",
        -10.444467597241456
      ],
      [
        "reagera",
        -10.444835655082692
      ],
      [
        "▁Lag",
        -10.445139963987737
      ],
      [
        "talade",
        -10.445855899737932
      ],
      [
        "dagar",
        -10.446245763076437
      ],
      [
        "information",
        -10.4464807131576
      ],
      [
        "förvaltningen",
        -10.446965514133796
      ],
      [
        "▁van",
        -10.447142265757162
      ],
      [
        "▁kunden",
        -10.447142658467838
      ],
      [
        "tur",
        -10.447267005763058
      ],
      [
        "priset",
        -10.447271872364292
      ],
      [
        "▁sov",
        -10.447399964298512
      ],
      [
        "avtalet",
        -10.447551126093503
      ],
      [
        "▁planerar",
        -10.447661236183498
      ],
      [
        "▁styrka",
        -10.447895029837529
      ],
      [
        "frågorna",
        -10.447994082120978
      ],
      [
        "J",
        -10.448024664308543
      ],
      [
        "▁respekt",
        -10.448344103743235
      ],
      [
        "▁Sten",
        -10.448435945580103
      ],
      [
        "▁förståelse",
        -10.448862808288387
      ],
      [
        "▁Ju",
        -10.448868992900985
      ],
      [
        "▁SEK",
        -10.449412987433087
      ],
      [
        "föreningen",
        -10.450258252043296
      ],
      [
        "▁trädgård",
        -10.450912923583473
      ],
      [
        "frågan",
        -10.451095649705469
      ],
      [
        "▁planer",
        -10.451552743445175
      ],
      [
        "▁za",
        -10.451844709610079
      ],
      [
        "reglerna",
        -10.452296477581775
      ],
      [
        "▁normal",
        -10.452612652099159
      ],
      [
        "▁Fick",
        -10.45309101862208
      ],
      [
        "▁uppmärksamma",
        -10.453340721599842
      ],
      [
        "▁flertal",
        -10.45351429355338
      ],
      [
        "▁Karlsson",
        -10.4540662335089
      ],
      [
        "▁Spanien",
        -10.454134387288798
      ],
      [
        "▁presentera",
        -10.454756344121105
      ],
      [
        "åsikter",
        -10.454844225042093
      ],
      [
        "▁motor",
        -10.454959427551513
      ],
      [
        "årig",
        -10.455556168123186
      ],
      [
        "▁rosa",
        -10.456145366479015
      ],
      [
        "▁smart",
        -10.456163845673014
      ],
      [
        "▁rekommendera",
        -10.456337428928848
      ],
      [
        "▁Miljö",
        -10.456515836879268
      ],
      [
        "frågar",
        -10.45664289319831
      ],
      [
        "luften",
        -10.457631489608705
      ],
      [
        "▁felaktig",
        -10.457978439492578
      ],
      [
        "▁bod",
        -10.458037513316993
      ],
      [
        "▁näst",
        -10.458454424972363
      ],
      [
        "▁skuld",
        -10.458518583486779
      ],
      [
        "▁Er",
        -10.458636071208206
      ],
      [
        "▁servera",
        -10.458681015591411
      ],
      [
        "▁bredvid",
        -10.459306408850496
      ],
      [
        "▁skriv",
        -10.459324542322868
      ],
      [
        "▁vind",
        -10.45996122053465
      ],
      [
        "delvis",
        -10.459987912627223
      ],
      [
        "▁Aktiebolag",
        -10.460108854660026
      ],
      [
        "▁studenter",
        -10.460127799217794
      ],
      [
        "▁tränare",
        -10.460260672472748
      ],
      [
        "▁drift",
        -10.460418292085503
      ],
      [
        "▁produkten",
        -10.461133007156853
      ],
      [
        "sugen",
        -10.461146191657031
      ],
      [
        "omfattar",
        -10.46161051752851
      ],
      [
        "▁minsta",
        -10.46206303940321
      ],
      [
        "▁lagom",
        -10.462659439333981
      ],
      [
        "föll",
        -10.462688544470344
      ],
      [
        "▁vuxen",
        -10.462749444199474
      ],
      [
        "▁producera",
        -10.46286333824927
      ],
      [
        "▁förändra",
        -10.462974239922206
      ],
      [
        "rad",
        -10.462978099080223
      ],
      [
        "tagna",
        -10.463088749144188
      ],
      [
        "▁enskild",
        -10.46371074367879
      ],
      [
        "▁sjukdomar",
        -10.463968672882503
      ],
      [
        "▁uppmärksamhet",
        -10.464330561766744
      ],
      [
        "sten",
        -10.464928628226444
      ],
      [
        "▁moms",
        -10.465311728775342
      ],
      [
        "▁fastighets",
        -10.465439931857151
      ],
      [
        "▁Jämför",
        -10.46552615766001
      ],
      [
        "nych",
        -10.465625804506791
      ],
      [
        "▁mej",
        -10.465735075215678
      ],
      [
        "▁synd",
        -10.46610483311477
      ],
      [
        "▁funderar",
        -10.466307976480445
      ],
      [
        "▁brand",
        -10.466540119700126
      ],
      [
        "▁tillägg",
        -10.467265684326838
      ],
      [
        "▁lämplig",
        -10.467411267021406
      ],
      [
        "vågar",
        -10.467426111468395
      ],
      [
        "platser",
        -10.467441969397134
      ],
      [
        "härliga",
        -10.468100515606828
      ],
      [
        "ocz",
        -10.468323484657427
      ],
      [
        "männen",
        -10.468568903715774
      ],
      [
        "▁Hotels",
        -10.468749844217882
      ],
      [
        "Syftet",
        -10.46889823993871
      ],
      [
        "ansvarar",
        -10.469192296602404
      ],
      [
        "▁San",
        -10.469944947601958
      ],
      [
        "▁utredning",
        -10.470388667343663
      ],
      [
        "▁Persson",
        -10.471311787961046
      ],
      [
        "▁Kultur",
        -10.472540043333506
      ],
      [
        "▁Tidigare",
        -10.472553564083503
      ],
      [
        "namn",
        -10.47313534978534
      ],
      [
        "Tycker",
        -10.473427119115005
      ],
      [
        "fulla",
        -10.47352405678973
      ],
      [
        "arter",
        -10.473865323164917
      ],
      [
        "▁butiken",
        -10.473981540857404
      ],
      [
        "fullt",
        -10.474397366123481
      ],
      [
        "▁smärta",
        -10.475439755943025
      ],
      [
        "du",
        -10.475541340102085
      ],
      [
        "▁Billiga",
        -10.475689288357941
      ],
      [
        "▁Lind",
        -10.476407153800846
      ],
      [
        "▁resor",
        -10.47692085741806
      ],
      [
        "gång",
        -10.477309826496791
      ],
      [
        "▁leverantörer",
        -10.478013853398455
      ],
      [
        "▁webbplatsen",
        -10.478494815663941
      ],
      [
        "äkta",
        -10.479213768470814
      ],
      [
        "▁Utan",
        -10.479594402376032
      ],
      [
        "▁förtroende",
        -10.480018826428374
      ],
      [
        "kvinnan",
        -10.480242230854138
      ],
      [
        "▁karaktär",
        -10.480483839140671
      ],
      [
        "bordet",
        -10.481579311218441
      ],
      [
        "▁president",
        -10.481672007361594
      ],
      [
        "ord",
        -10.481773186358057
      ],
      [
        "▁fria",
        -10.481794508323407
      ],
      [
        "älskade",
        -10.482270806780168
      ],
      [
        "taket",
        -10.482440622303647
      ],
      [
        "blad",
        -10.482472080502564
      ],
      [
        "lar",
        -10.483577620283524
      ],
      [
        "orolig",
        -10.483828903457372
      ],
      [
        "▁artiklar",
        -10.48403612569757
      ],
      [
        "line",
        -10.48405236191909
      ],
      [
        "sserligen",
        -10.484089692674704
      ],
      [
        "▁städer",
        -10.484234478150476
      ],
      [
        "▁hemmet",
        -10.484589047305905
      ],
      [
        "kul",
        -10.484812294349439
      ],
      [
        "vatten",
        -10.484967351912555
      ],
      [
        "lades",
        -10.485220803656075
      ],
      [
        "backen",
        -10.485823672963463
      ],
      [
        "innehållet",
        -10.485846760126321
      ],
      [
        "saken",
        -10.486496549381215
      ],
      [
        "▁onsdag",
        -10.486522576145724
      ],
      [
        "▁träffar",
        -10.486902514513902
      ],
      [
        "kostnader",
        -10.48740877824078
      ],
      [
        "▁Totalt",
        -10.487697717770622
      ],
      [
        "▁statistik",
        -10.49125725735226
      ],
      [
        "försvinner",
        -10.491274082725942
      ],
      [
        "slaget",
        -10.492165289184651
      ],
      [
        "▁handen",
        -10.492291651804985
      ],
      [
        "ER",
        -10.493325493471778
      ],
      [
        "tjänst",
        -10.493485687515246
      ],
      [
        "▁norra",
        -10.493897932696951
      ],
      [
        "▁trygghet",
        -10.495166130658799
      ],
      [
        "▁Vidare",
        -10.49570415333492
      ],
      [
        "▁upptäcka",
        -10.496207425094957
      ],
      [
        "▁Mats",
        -10.49635495801152
      ],
      [
        "domstolen",
        -10.497567930488618
      ],
      [
        "▁sovrum",
        -10.49818404667489
      ],
      [
        "▁Karin",
        -10.498839182534004
      ],
      [
        "▁tex",
        -10.499030465844083
      ],
      [
        "▁kämpa",
        -10.49924834095176
      ],
      [
        "▁FN",
        -10.499317090011786
      ],
      [
        "co",
        -10.499967777702874
      ],
      [
        "▁påminn",
        -10.499967865280645
      ],
      [
        "▁lägenheten",
        -10.500073699514639
      ],
      [
        "utav",
        -10.500299986650347
      ],
      [
        "▁situationer",
        -10.500963935470763
      ],
      [
        "▁ränta",
        -10.502064403423836
      ],
      [
        "ägna",
        -10.502742054970158
      ],
      [
        "▁identifiera",
        -10.503289989089549
      ],
      [
        "ist",
        -10.503861788918504
      ],
      [
        "filer",
        -10.504303368424
      ],
      [
        "svaret",
        -10.504352018978723
      ],
      [
        "▁ställning",
        -10.50436262615741
      ],
      [
        "▁Fler",
        -10.504440239205742
      ],
      [
        "▁styra",
        -10.504659054627814
      ],
      [
        "▁räknar",
        -10.505434581219134
      ],
      [
        "spelat",
        -10.50568495598359
      ],
      [
        "ekonomiskt",
        -10.506003073357387
      ],
      [
        "▁sortiment",
        -10.506139436913728
      ],
      [
        "▁kall",
        -10.506594855797362
      ],
      [
        "▁Bank",
        -10.506627176478007
      ],
      [
        "▁utseende",
        -10.506822655602868
      ],
      [
        "▁utvecklings",
        -10.507857185111035
      ],
      [
        "▁Hotell",
        -10.50790494311391
      ],
      [
        "▁lägenheter",
        -10.508314817851527
      ],
      [
        "släppte",
        -10.508550167074757
      ],
      [
        "▁region",
        -10.50890999424848
      ],
      [
        "Alltså",
        -10.509220344094159
      ],
      [
        "behovet",
        -10.509433556866282
      ],
      [
        "▁uppfattning",
        -10.509591062643793
      ],
      [
        "individer",
        -10.509994099009827
      ],
      [
        "byn",
        -10.51025480695808
      ],
      [
        "▁intervju",
        -10.510885080136267
      ],
      [
        "▁radio",
        -10.511430266934394
      ],
      [
        "De",
        -10.51213079306045
      ],
      [
        "▁omsorg",
        -10.51289343364042
      ],
      [
        "▁arbetsgivare",
        -10.5135208614955
      ],
      [
        "▁önskemål",
        -10.51377772450868
      ],
      [
        "resor",
        -10.514736758555339
      ],
      [
        "borg",
        -10.514875308319644
      ],
      [
        "▁silver",
        -10.51504676053512
      ],
      [
        "▁stål",
        -10.515389177572347
      ],
      [
        "olja",
        -10.515499722723131
      ],
      [
        "givande",
        -10.51562634139779
      ],
      [
        "▁löne",
        -10.515656299210024
      ],
      [
        "▁tusen",
        -10.515818683933608
      ],
      [
        "Den",
        -10.516898790919164
      ],
      [
        "▁rena",
        -10.517051646122844
      ],
      [
        "fyllt",
        -10.517809403198765
      ],
      [
        "▁byggt",
        -10.517913438530588
      ],
      [
        "▁central",
        -10.518095207272534
      ],
      [
        "färg",
        -10.518240719963684
      ],
      [
        "▁digital",
        -10.518884416715352
      ],
      [
        "▁fru",
        -10.518911489928469
      ],
      [
        "▁faktorer",
        -10.519232828002737
      ],
      [
        "▁Karl",
        -10.519438681534794
      ],
      [
        "hunden",
        -10.51951504152197
      ],
      [
        "▁föremål",
        -10.519954073199383
      ],
      [
        "▁däck",
        -10.52042074005003
      ],
      [
        "▁Kort",
        -10.520499870276378
      ],
      [
        "▁kurser",
        -10.52083365788312
      ],
      [
        "▁trivs",
        -10.521015570309297
      ],
      [
        "▁undersöka",
        -10.52162779926595
      ],
      [
        "marknaden",
        -10.521710166252053
      ],
      [
        "▁Mo",
        -10.522381357533373
      ],
      [
        "up",
        -10.522919496822546
      ],
      [
        "▁sprid",
        -10.52366247746915
      ],
      [
        "eftermiddagen",
        -10.524314621313604
      ],
      [
        "▁samverkan",
        -10.525163456145126
      ],
      [
        "texter",
        -10.525221008744136
      ],
      [
        "▁miljon",
        -10.525650392280458
      ],
      [
        "▁grå",
        -10.526350961654275
      ],
      [
        "avser",
        -10.526502382489243
      ],
      [
        "märklig",
        -10.526629547223417
      ],
      [
        "uppgifterna",
        -10.5268355655154
      ],
      [
        "▁konkret",
        -10.52760282348388
      ],
      [
        "▁omedelbart",
        -10.527640845364038
      ],
      [
        "▁Ser",
        -10.52782494135122
      ],
      [
        "▁elev",
        -10.527939391566075
      ],
      [
        "▁separat",
        -10.528058523388085
      ],
      [
        "billigare",
        -10.5281604227958
      ],
      [
        "ovanligt",
        -10.52940228072577
      ],
      [
        "samlade",
        -10.529609579292547
      ],
      [
        "träffat",
        -10.529792881485744
      ],
      [
        "▁anslutning",
        -10.5298500079441
      ],
      [
        "▁besvär",
        -10.529975500353231
      ],
      [
        "▁global",
        -10.530432686563525
      ],
      [
        "satta",
        -10.53126355761235
      ],
      [
        "▁initiativ",
        -10.531868991518765
      ],
      [
        "▁komplett",
        -10.5319956132796
      ],
      [
        "▁ledning",
        -10.53312108676974
      ],
      [
        "färr",
        -10.533615009583603
      ],
      [
        "▁mor",
        -10.533678560135158
      ],
      [
        "▁organisationen",
        -10.533907909439469
      ],
      [
        "▁student",
        -10.534423211229136
      ],
      [
        "▁Italien",
        -10.534952462458621
      ],
      [
        "vård",
        -10.535361639057061
      ],
      [
        "▁cancer",
        -10.535627764665616
      ],
      [
        "mött",
        -10.535734869499345
      ],
      [
        "behandlas",
        -10.536122652949967
      ],
      [
        "samlat",
        -10.53669554062632
      ],
      [
        "stänga",
        -10.53692176674357
      ],
      [
        "▁rea",
        -10.537622205142853
      ],
      [
        "▁sök",
        -10.53782664442861
      ],
      [
        "tävla",
        -10.538006745811423
      ],
      [
        "hållit",
        -10.538021149033035
      ],
      [
        "▁sambo",
        -10.538819949252112
      ],
      [
        "ifall",
        -10.539085637584007
      ],
      [
        "▁marknadsföring",
        -10.539812951780545
      ],
      [
        "▁länk",
        -10.539863132803823
      ],
      [
        "▁Online",
        -10.541384689933126
      ],
      [
        "Frågan",
        -10.541792647404879
      ],
      [
        "arbetet",
        -10.542216521175003
      ],
      [
        "▁händelse",
        -10.542286187929017
      ],
      [
        "kanten",
        -10.542510539368742
      ],
      [
        "skett",
        -10.542696236697338
      ],
      [
        "europeiska",
        -10.542814555684457
      ],
      [
        "▁behandla",
        -10.543207813047369
      ],
      [
        "▁intill",
        -10.543237801619695
      ],
      [
        "▁Eriksson",
        -10.54347697772323
      ],
      [
        "▁Folk",
        -10.543762851874366
      ],
      [
        "▁fr",
        -10.54430950962593
      ],
      [
        "skillnaden",
        -10.544355505990154
      ],
      [
        "▁lagar",
        -10.544564050116994
      ],
      [
        "ringde",
        -10.544963013239805
      ],
      [
        "▁vägar",
        -10.545167550100802
      ],
      [
        "▁läsare",
        -10.545574352851855
      ],
      [
        "▁Henrik",
        -10.54604636681009
      ],
      [
        "befintliga",
        -10.546774948964698
      ],
      [
        "ytor",
        -10.546841502063572
      ],
      [
        "lån",
        -10.547247552367157
      ],
      [
        "följde",
        -10.54838431908923
      ],
      [
        "▁speciell",
        -10.548534816530006
      ],
      [
        "▁Exempel",
        -10.54896273289277
      ],
      [
        "avdelningen",
        -10.548977748104328
      ],
      [
        "▁historien",
        -10.548981911587768
      ],
      [
        "▁sällskap",
        -10.549483151139922
      ],
      [
        "▁skogs",
        -10.549757660313137
      ],
      [
        "onödig",
        -10.55015825376595
      ],
      [
        "▁lycka",
        -10.550372456546475
      ],
      [
        "▁ämne",
        -10.550418962895765
      ],
      [
        "▁bryta",
        -10.550878452227023
      ],
      [
        "▁belopp",
        -10.550890275165361
      ],
      [
        "▁utomlands",
        -10.551676877903565
      ],
      [
        "▁Apple",
        -10.552198909759483
      ],
      [
        "▁maskin",
        -10.552681009700782
      ],
      [
        "böcker",
        -10.553111343958554
      ],
      [
        "▁höj",
        -10.553243335202803
      ],
      [
        "▁fan",
        -10.553481549423262
      ],
      [
        "▁studera",
        -10.554050031094963
      ],
      [
        "X",
        -10.55453646243404
      ],
      [
        "▁framgång",
        -10.555107992629946
      ],
      [
        "▁människan",
        -10.55546609130854
      ],
      [
        "▁sprida",
        -10.55568819056683
      ],
      [
        "▁blanda",
        -10.556498526592812
      ],
      [
        "ism",
        -10.55657639771568
      ],
      [
        "vik",
        -10.556950680803403
      ],
      [
        "bil",
        -10.557050584075771
      ],
      [
        "▁dog",
        -10.557539813775772
      ],
      [
        "kortare",
        -10.557912068820604
      ],
      [
        "fokusera",
        -10.557997370696365
      ],
      [
        "ljuset",
        -10.558148395027967
      ],
      [
        "året",
        -10.558177808076435
      ],
      [
        "▁Sök",
        -10.559305055555368
      ],
      [
        "▁sms",
        -10.559622979933904
      ],
      [
        "▁billig",
        -10.560219457863411
      ],
      [
        "▁Andreas",
        -10.560772535328237
      ],
      [
        "▁varma",
        -10.561124845956599
      ],
      [
        "▁betrakta",
        -10.562119983787507
      ],
      [
        "▁komplettera",
        -10.562166341970235
      ],
      [
        "flyttar",
        -10.5625478723363
      ],
      [
        "kostnaden",
        -10.562816579707041
      ],
      [
        "▁dygnet",
        -10.562895978772739
      ],
      [
        "länderna",
        -10.56298017581883
      ],
      [
        "OCH",
        -10.563108048810655
      ],
      [
        "▁vägg",
        -10.563196622174065
      ],
      [
        "▁trädgården",
        -10.563290140464817
      ],
      [
        "▁fritt",
        -10.563678948071475
      ],
      [
        "mellertid",
        -10.565249694014394
      ],
      [
        "heten",
        -10.56525888998174
      ],
      [
        "▁jämförelse",
        -10.565363274724303
      ],
      [
        "historiska",
        -10.565555975325772
      ],
      [
        "▁publik",
        -10.565670920637151
      ],
      [
        "▁tema",
        -10.565777720576563
      ],
      [
        "ant",
        -10.565957730055384
      ],
      [
        "▁vardagen",
        -10.566058330144953
      ],
      [
        "▁svag",
        -10.567025965906327
      ],
      [
        "▁sant",
        -10.567557851688342
      ],
      [
        "▁Kontakta",
        -10.567612415748913
      ],
      [
        "benen",
        -10.567692206454558
      ],
      [
        "beskriva",
        -10.568588023055938
      ],
      [
        "▁verk",
        -10.568768340624127
      ],
      [
        "ländska",
        -10.568805170482085
      ],
      [
        "jobb",
        -10.569815085968235
      ],
      [
        "varav",
        -10.569905507691791
      ],
      [
        "▁ansiktet",
        -10.569949133562757
      ],
      [
        "▁riksdagen",
        -10.570243161616181
      ],
      [
        "formen",
        -10.570828756424506
      ],
      [
        "▁beskriv",
        -10.570962223865076
      ],
      [
        "▁krig",
        -10.571059744449048
      ],
      [
        "hinna",
        -10.572710698848406
      ],
      [
        "kommer",
        -10.573181737748664
      ],
      [
        "bandet",
        -10.573292181956258
      ],
      [
        "fysiska",
        -10.573334405241205
      ],
      [
        "Men",
        -10.573470332950027
      ],
      [
        "▁hy",
        -10.573480476101212
      ],
      [
        "▁Val",
        -10.5737157635409
      ],
      [
        "▁fängelse",
        -10.574408324593975
      ],
      [
        "▁medicin",
        -10.574782410308872
      ],
      [
        "▁lärande",
        -10.574863265803772
      ],
      [
        "▁Innehåll",
        -10.574934703988788
      ],
      [
        "kostnaderna",
        -10.575079053293967
      ],
      [
        "höja",
        -10.575419791509855
      ],
      [
        "▁kollegor",
        -10.576608764633324
      ],
      [
        "orter",
        -10.576993979466154
      ],
      [
        "Förra",
        -10.577042851099861
      ],
      [
        "▁Känn",
        -10.577181175886835
      ],
      [
        "▁andel",
        -10.57718435082898
      ],
      [
        "▁VD",
        -10.577211826129911
      ],
      [
        "▁agera",
        -10.57745641272408
      ],
      [
        "ellre",
        -10.577461672645773
      ],
      [
        "▁svenskar",
        -10.577658968066157
      ],
      [
        "fel",
        -10.578088370547032
      ],
      [
        "Blir",
        -10.57839081102683
      ],
      [
        "emellan",
        -10.578596640194396
      ],
      [
        "▁sjön",
        -10.578747196987624
      ],
      [
        "▁beteende",
        -10.579189138247461
      ],
      [
        "▁gravid",
        -10.57993469648946
      ],
      [
        "▁strategi",
        -10.58004084938567
      ],
      [
        "▁album",
        -10.580150021729485
      ],
      [
        "▁fiske",
        -10.580297342095484
      ],
      [
        "▁relationer",
        -10.580554688785
      ],
      [
        "▁Göran",
        -10.580606360817317
      ],
      [
        "▁föredra",
        -10.580818252489
      ],
      [
        "eras",
        -10.580937866650146
      ],
      [
        "kanaler",
        -10.581142358742644
      ],
      [
        "fors",
        -10.581968475248523
      ],
      [
        "märkt",
        -10.582377048332326
      ],
      [
        "▁kvalitets",
        -10.582774145449129
      ],
      [
        "▁hävd",
        -10.582962356658628
      ],
      [
        "upp",
        -10.583102504826204
      ],
      [
        "▁Emma",
        -10.584156380833884
      ],
      [
        "stannar",
        -10.58555578776295
      ],
      [
        "spelarna",
        -10.586209507739298
      ],
      [
        "▁Energi",
        -10.586791441091433
      ],
      [
        "▁Bar",
        -10.58708460569153
      ],
      [
        "verk",
        -10.58718776861125
      ],
      [
        "fyllda",
        -10.587345006061012
      ],
      [
        "starkare",
        -10.587822192701259
      ],
      [
        "täcker",
        -10.587999808135121
      ],
      [
        "dyker",
        -10.588117623741473
      ],
      [
        "skap",
        -10.588612909095422
      ],
      [
        "dagliga",
        -10.588878360378189
      ],
      [
        "▁händelser",
        -10.589081146323318
      ],
      [
        "förening",
        -10.589280667677727
      ],
      [
        "▁Sara",
        -10.58971559306896
      ],
      [
        "▁utbildningen",
        -10.589850697933864
      ],
      [
        "Måste",
        -10.58987241331219
      ],
      [
        "▁verksamhets",
        -10.590106841020475
      ],
      [
        "▁allmänt",
        -10.591585545502758
      ],
      [
        "▁raka",
        -10.591722721453445
      ],
      [
        "▁hemsidan",
        -10.59213050060079
      ],
      [
        "▁mysig",
        -10.592215813912892
      ],
      [
        "▁installera",
        -10.592486696972921
      ],
      [
        "▁oberoende",
        -10.592548321641948
      ],
      [
        "▁urval",
        -10.592930144405265
      ],
      [
        "bergs",
        -10.592961617268664
      ],
      [
        "▁tacka",
        -10.593156260037578
      ],
      [
        "▁utsträckning",
        -10.594188712026494
      ],
      [
        "▁frakt",
        -10.594411095158346
      ],
      [
        "▁God",
        -10.594481949638551
      ],
      [
        "enheten",
        -10.595489802405
      ],
      [
        "dåliga",
        -10.59550197676159
      ],
      [
        "▁fotbolls",
        -10.59577100776776
      ],
      [
        "mässan",
        -10.595979843822745
      ],
      [
        "miljö",
        -10.596359717228156
      ],
      [
        "bord",
        -10.596527340493056
      ],
      [
        "Inget",
        -10.59677340627634
      ],
      [
        "▁utländsk",
        -10.596922546018748
      ],
      [
        "banken",
        -10.596949817360732
      ],
      [
        "fattas",
        -10.596983256120517
      ],
      [
        "▁OS",
        -10.597111682280353
      ],
      [
        "▁typen",
        -10.598067807947416
      ],
      [
        "▁Herr",
        -10.598222471983846
      ],
      [
        "▁lust",
        -10.59832131110284
      ],
      [
        "traditionella",
        -10.59913351929807
      ],
      [
        "förklarar",
        -10.599612792140181
      ],
      [
        "▁Kommun",
        -10.600002658482532
      ],
      [
        "▁franska",
        -10.600209516523883
      ],
      [
        "ätit",
        -10.60054530482453
      ],
      [
        "uppmana",
        -10.601332871491095
      ],
      [
        "ges",
        -10.601702852302967
      ],
      [
        "eventuellt",
        -10.602257568382779
      ],
      [
        "▁förhoppningsvis",
        -10.602840230417327
      ],
      [
        "bollen",
        -10.602881682045018
      ],
      [
        "▁stopp",
        -10.603037603648328
      ],
      [
        "värde",
        -10.603373692575962
      ],
      [
        "delat",
        -10.604399810642914
      ],
      [
        "politik",
        -10.604760353367135
      ],
      [
        "rar",
        -10.604771171526188
      ],
      [
        "▁Sol",
        -10.604869679180478
      ],
      [
        "▁riktning",
        -10.604940298234293
      ],
      [
        "▁inomhus",
        -10.60512469826272
      ],
      [
        "▁varumärken",
        -10.605306404151564
      ],
      [
        "chefen",
        -10.605448469854332
      ],
      [
        "▁tisdag",
        -10.605463158204566
      ],
      [
        "▁välj",
        -10.605871803781008
      ],
      [
        "▁bekväm",
        -10.607058244765874
      ],
      [
        "▁omfatta",
        -10.607107528325592
      ],
      [
        "lita",
        -10.607213463333556
      ],
      [
        "lista",
        -10.607278643726575
      ],
      [
        "denne",
        -10.607488382778115
      ],
      [
        "▁förening",
        -10.608331029649175
      ],
      [
        "▁iallafall",
        -10.6084748916729
      ],
      [
        "materialet",
        -10.608804904667803
      ],
      [
        "▁folket",
        -10.609051281610633
      ],
      [
        "▁erbjudande",
        -10.60959902448512
      ],
      [
        "▁ledig",
        -10.609967229198805
      ],
      [
        "▁original",
        -10.61007810690294
      ],
      [
        "▁diskussion",
        -10.610233314623606
      ],
      [
        "sover",
        -10.610568371443026
      ],
      [
        "▁tillverkare",
        -10.610711887054757
      ],
      [
        "jättebra",
        -10.61080353177424
      ],
      [
        "▁fysisk",
        -10.61216274843753
      ],
      [
        "▁tävlings",
        -10.612307481656352
      ],
      [
        "▁IP",
        -10.613159163977986
      ],
      [
        "▁olja",
        -10.613504889745164
      ],
      [
        "ken",
        -10.613574392488701
      ],
      [
        "▁Väl",
        -10.6139560032058
      ],
      [
        "parken",
        -10.614668826248037
      ],
      [
        "▁rabatt",
        -10.615001712735953
      ],
      [
        "▁stads",
        -10.615768274044989
      ],
      [
        "efter",
        -10.616319001591872
      ],
      [
        "▁profil",
        -10.616761939365599
      ],
      [
        "Utöver",
        -10.618123305192336
      ],
      [
        "The",
        -10.619182245755828
      ],
      [
        "befolkningen",
        -10.619217589588107
      ],
      [
        "▁ersätta",
        -10.619432913736537
      ],
      [
        "träning",
        -10.619664982097397
      ],
      [
        "▁doft",
        -10.62030594193576
      ],
      [
        "▁sjunk",
        -10.621031468887894
      ],
      [
        "▁me",
        -10.621327060011742
      ],
      [
        "klass",
        -10.62193192667363
      ],
      [
        "åringen",
        -10.622482758172502
      ],
      [
        "▁Robert",
        -10.622724228426307
      ],
      [
        "begränsad",
        -10.622745542482978
      ],
      [
        "▁Västerås",
        -10.623404453693862
      ],
      [
        "heter",
        -10.624093450643338
[...]
