{
  "version": "1.0",
  "truncation": null,
  "padding": null,
  "added_tokens": [
    {
      "id": 0,
      "content": "[PAD]",
      "single_word": false,
      "lstrip": false,
      "rstrip": false,
      "normalized": false,
      "special": true
    },
    {
      "id": 1,
      "content": "[UNK]",
      "single_word": false,
      "lstrip": false,
      "rstrip": false,
      "normalized": false,
      "special": true
    },
    {
      "id": 2,
      "content": "[MASK]",
      "single_word": false,
      "lstrip": false,
      "rstrip": false,
      "normalized": false,
      "special": true
    },
    {
      "id": 3,
      "content": "[CLS]",
      "single_word": false,
      "lstrip": false,
      "rstrip": false,
      "normalized": false,
      "special": true
    },
    {
      "id": 4,
      "content": "[SEP]",
      "single_word": false,
      "lstrip": false,
      "rstrip": false,
      "normalized": false,
      "special": true
    }
  ],
  "normalizer": {
    "type": "Sequence",
    "normalizers": [
      {
        "type": "Nmt"
      },
      {
        "type": "NFKC"
      },
      {
        "type": "Replace",
        "pattern": {
          "Regex": " {2,}"
        },
        "content": " "
      }
    ]
  },
  "pre_tokenizer": {
    "type": "Sequence",
    "pretokenizers": [
      {
        "type": "Metaspace",
        "replacement": "▁",
        "add_prefix_space": true
      },
      {
        "type": "Split",
        "pattern": {
          "Regex": "\\d"
        },
        "behavior": "MergedWithPrevious",
        "invert": false
      },
      {
        "type": "Punctuation",
        "behavior": "Isolated"
      }
    ]
  },
  "post_processor": {
    "type": "TemplateProcessing",
    "single": [
      {
        "SpecialToken": {
          "id": "[CLS]",
          "type_id": 0
        }
      },
      {
        "Sequence": {
          "id": "A",
          "type_id": 0
        }
      },
      {
        "SpecialToken": {
          "id": "[SEP]",
          "type_id": 0
        }
      }
    ],
    "pair": [
      {
        "SpecialToken": {
          "id": "[CLS]",
          "type_id": 0
        }
      },
      {
        "Sequence": {
          "id": "A",
          "type_id": 0
        }
      },
      {
        "SpecialToken": {
          "id": "[SEP]",
          "type_id": 0
        }
      },
      {
        "Sequence": {
          "id": "B",
          "type_id": 1
        }
      },
      {
        "SpecialToken": {
          "id": "[SEP]",
          "type_id": 1
        }
      }
    ],
    "special_tokens": {
      "[CLS]": {
        "id": "[CLS]",
        "ids": [
          3
        ],
        "tokens": [
          "[CLS]"
        ]
      },
      "[SEP]": {
        "id": "[SEP]",
        "ids": [
          4
        ],
        "tokens": [
          "[SEP]"
        ]
      }
    }
  },
  "decoder": {
    "type": "Metaspace",
    "replacement": "▁",
    "add_prefix_space": true
  },
  "model": {
    "type": "Unigram",
    "unk_id": 1,
    "vocab": [
      [
        "[PAD]",
        0.0
      ],
      [
        "[UNK]",
        0.0
      ],
      [
        "[MASK]",
        0.0
      ],
      [
        "[CLS]",
        0.0
      ],
      [
        "[SEP]",
        0.0
      ],
      [
        "▁",
        -2.2019175358952268
      ],
      [
        ".",
        -3.24181189817552
      ],
      [
        ",",
        -3.8968235250332057
      ],
      [
        "s",
        -3.9774900414898404
      ],
      [
        "▁och",
        -3.9997723293006224
      ],
      [
        "i",
        -4.00419123658666
      ],
      [
        "▁att",
        -4.253677155535186
      ],
      [
        "a",
        -4.439804942824097
      ],
      [
        "t",
        -4.478859304806928
      ],
      [
        "▁är",
        -4.618831957209334
      ],
      [
        "▁som",
        -4.646796707112571
      ],
      [
        "▁på",
        -4.648894748509488
      ],
      [
        "▁för",
        -4.714516401756814
      ],
      [
        "0",
        -4.752324940284105
      ],
      [
        "▁en",
        -4.770841488420366
      ],
      [
        "▁det",
        -4.782922675741599
      ],
      [
        "1",
        -4.8464638357865155
      ],
      [
        "▁med",
        -4.911667104672439
      ],
      [
        "en",
        -4.916953796364712
      ],
      [
        "▁av",
        -4.927808828579412
      ],
      [
        "-",
        -5.003076699121227
      ],
      [
        "▁till",
        -5.069305378558312
      ],
      [
        "2",
        -5.123330894152058
      ],
      [
        "n",
        -5.146520540963195
      ],
      [
        "e",
        -5.171500744795587
      ],
      [
        "▁har",
        -5.209523105377016
      ],
      [
        "r",
        -5.361128285499262
      ],
      [
        "▁jag",
        -5.363195280156386
      ],
      [
        "▁inte",
        -5.423767352399487
      ],
      [
        "▁om",
        -5.451116400221082
      ],
      [
        "er",
        -5.472274116403327
      ],
      [
        "▁den",
        -5.5292116389531465
      ],
      [
        "▁ett",
        -5.575873098905262
      ],
      [
        ":",
        -5.6263272835341205
      ],
      [
        "▁så",
        -5.657898912784134
      ],
      [
        "▁du",
        -5.706095073263668
      ],
      [
        "▁kan",
        -5.725928808694807
      ],
      [
        "▁de",
        -5.737912363964263
      ],
      [
        "5",
        -5.795464444525695
      ],
      [
        "▁vi",
        -5.798391985401938
      ],
      [
        "3",
        -5.819677721349983
      ],
      [
        ")",
        -5.8397589018494855
      ],
      [
        "d",
        -5.8746415642978675
      ],
      [
        "▁var",
        -5.916988182886268
      ],
      [
        "!",
        -5.9364023558143835
      ],
      [
        "(",
        -5.9602066328201175
      ],
      [
        "4",
        -5.988657732528143
      ],
      [
        "▁Det",
        -5.996418968544294
      ],
      [
        "9",
        -6.036177079689509
      ],
      [
        "▁från",
        -6.038652075175452
      ],
      [
        "o",
        -6.041283066731523
      ],
      [
        "▁man",
        -6.0561430228933055
      ],
      [
        "\"",
        -6.066466015443638
      ],
      [
        "ar",
        -6.089248970337259
      ],
      [
        "6",
        -6.170332138991267
      ],
      [
        "▁eller",
        -6.171812053697046
      ],
      [
        "▁men",
        -6.1980503174331965
      ],
      [
        "m",
        -6.204622416921836
      ],
      [
        "8",
        -6.220916354516913
      ],
      [
        "7",
        -6.225944214264011
      ],
      [
        "?",
        -6.252149971061936
      ],
      [
        "/",
        -6.315665478056706
      ],
      [
        "▁ska",
        -6.351815750557394
      ],
      [
        "de",
        -6.370437092370258
      ],
      [
        "▁sig",
        -6.404234843304945
      ],
      [
        "▁in",
        -6.426963701687503
      ],
      [
        "▁ut",
        -6.488828851363326
      ],
      [
        "▁upp",
        -6.4950032075116315
      ],
      [
        "et",
        -6.501244642386855
      ],
      [
        "▁Jag",
        -6.521246260666608
      ],
      [
        "▁här",
        -6.524942141687077
      ],
      [
        "▁när",
        -6.5347148779829585
      ],
      [
        "–",
        -6.561208869528995
      ],
      [
        "▁kommer",
        -6.589786904685656
      ],
      [
        "k",
        -6.597125217055753
      ],
      [
        "g",
        -6.611768210924419
      ],
      [
        "▁I",
        -6.626355416829957
      ],
      [
        "p",
        -6.646508366718903
      ],
      [
        "l",
        -6.655866082457884
      ],
      [
        "▁Vi",
        -6.657404124931391
      ],
      [
        "▁vara",
        -6.658677799263948
      ],
      [
        "▁finns",
        -6.692389690046234
      ],
      [
        "▁mer",
        -6.693539736768985
      ],
      [
        "▁där",
        -6.715351678994223
      ],
      [
        "▁alla",
        -6.736511492311976
      ],
      [
        "▁han",
        -6.748313477868633
      ],
      [
        "v",
        -6.771280156427514
      ],
      [
        "▁nu",
        -6.78488173853502
      ],
      [
        "▁under",
        -6.788924337990226
      ],
      [
        "▁över",
        -6.817554928840062
      ],
      [
        "▁också",
        -6.84984360591301
      ],
      [
        "▁får",
        -6.858429821170889
      ],
      [
        "▁år",
        -6.864160750438156
      ],
      [
        "▁mycket",
        -6.868188237970964
      ],
      [
        "▁bra",
        -6.870332074195991
      ],
      [
        "▁mig",
        -6.8798601934330925
      ],
      [
        "▁efter",
        -6.8888344214671555
      ],
      [
        "▁lite",
        -6.8890480907687675
      ],
      [
        "▁ha",
        -6.895318411527642
      ],
      [
        "f",
        -6.89718733529021
      ],
      [
        "”",
        -6.903323676870031
      ],
      [
        "▁vill",
        -6.931870036753926
      ],
      [
        "h",
        -6.938763272168188
      ],
      [
        "▁då",
        -6.963203445244259
      ],
      [
        "▁andra",
        -6.965180147731802
      ],
      [
        "▁få",
        -6.968863683847527
      ],
      [
        "▁även",
        -6.981157316674864
      ],
      [
        "▁bara",
        -6.985683122779346
      ],
      [
        "▁hur",
        -6.99003025276842
      ],
      [
        "▁vid",
        -7.002189944595415
      ],
      [
        "▁dig",
        -7.036167135099069
      ],
      [
        "▁Men",
        -7.059620243153974
      ],
      [
        "y",
        -7.060336622611942
      ],
      [
        "▁vad",
        -7.094500234728798
      ],
      [
        "▁hade",
        -7.098670998480269
      ],
      [
        "▁skulle",
        -7.125893264636517
      ],
      [
        "u",
        -7.126136191050746
      ],
      [
        "erna",
        -7.130259376728539
      ],
      [
        "are",
        -7.1323158885745315
      ],
      [
        "▁än",
        -7.136980606923615
      ],
      [
        "▁blir",
        -7.143324386205739
      ],
      [
        "▁En",
        -7.160232736610496
      ],
      [
        "c",
        -7.162408834957095
      ],
      [
        "▁mot",
        -7.177209502823285
      ],
      [
        "▁sin",
        -7.19635130961888
      ],
      [
        "▁För",
        -7.197921151855386
      ],
      [
        "▁gör",
        -7.231246263170615
      ],
      [
        "▁många",
        -7.237222470806342
      ],
      [
        "▁göra",
        -7.239772433004353
      ],
      [
        "▁min",
        -7.252195272372404
      ],
      [
        "▁din",
        -7.273983207847456
      ],
      [
        "▁ju",
        -7.275281929700579
      ],
      [
        "▁De",
        -7.275990237304374
      ],
      [
        "▁Den",
        -7.281684285673165
      ],
      [
        "▁detta",
        -7.296475055263132
      ],
      [
        "▁S",
        -7.298699136763901
      ],
      [
        "▁hon",
        -7.308725265156092
      ],
      [
        "▁oss",
        -7.322462641188597
      ],
      [
        "▁utan",
        -7.323940895676014
      ],
      [
        "▁sedan",
        -7.333078007255692
      ],
      [
        "▁något",
        -7.333734443992462
      ],
      [
        "▁se",
        -7.334763302325795
      ],
      [
        "b",
        -7.373561010144032
      ],
      [
        "in",
        -7.375046883187936
      ],
      [
        "▁olika",
        -7.387621089218879
      ],
      [
        "▁två",
        -7.392088780683668
      ],
      [
        "▁allt",
        -7.397712587142344
      ],
      [
        "ade",
        -7.41918112410433
      ],
      [
        "▁bli",
        -7.434520799841543
      ],
      [
        "å",
        -7.450382831523518
      ],
      [
        "▁del",
        -7.453021091521537
      ],
      [
        "▁genom",
        -7.454337866814409
      ],
      [
        "▁någon",
        -7.457199561379271
      ],
      [
        "▁säger",
        -7.45798699583845
      ],
      [
        "▁går",
        -7.459191849982165
      ],
      [
        "▁helt",
        -7.4883511362101505
      ],
      [
        "ning",
        -7.489653485035859
      ],
      [
        "S",
        -7.501097629057348
      ],
      [
        "▁fick",
        -7.517872633532033
      ],
      [
        "▁fram",
        -7.521830707650478
      ],
      [
        "▁nya",
        -7.5247774406062735
      ],
      [
        "▁Om",
        -7.534396818969981
      ],
      [
        "▁hela",
        -7.543176929625211
      ],
      [
        "▁inom",
        -7.55978205640181
      ],
      [
        "arna",
        -7.570930234226816
      ],
      [
        "▁varit",
        -7.576920902176262
      ],
      [
        "▁blev",
        -7.577917195230732
      ],
      [
        "ande",
        -7.583226288501697
      ],
      [
        "▁första",
        -7.584437131516776
      ],
      [
        "▁måste",
        -7.585776557462138
      ],
      [
        "▁dem",
        -7.592899617188623
      ],
      [
        "▁några",
        -7.599461318559888
      ],
      [
        "▁samt",
        -7.614990276858515
      ],
      [
        "▁Du",
        -7.62455626406112
      ],
      [
        "▁denna",
        -7.627175016874668
      ],
      [
        "▁mellan",
        -7.63213998597023
      ],
      [
        "▁kunna",
        -7.648985981739756
      ],
      [
        "▁sätt",
        -7.668529378314988
      ],
      [
        "▁När",
        -7.687865792110175
      ],
      [
        "▁be",
        -7.689369918012213
      ],
      [
        "ur",
        -7.693266031700615
      ],
      [
        "j",
        -7.697246421577509
      ],
      [
        "▁själv",
        -7.6974213445630415
      ],
      [
        "▁barn",
        -7.698383741557594
      ],
      [
        "▁Sverige",
        -7.701943884400128
      ],
      [
        "▁Och",
        -7.714669346112878
      ],
      [
        "▁väl",
        -7.7149190041294915
      ],
      [
        "&",
        -7.719807038634562
      ],
      [
        "▁vår",
        -7.725297400647447
      ],
      [
        "ing",
        -7.731654234622884
      ],
      [
        "▁annat",
        -7.741557508761183
      ],
      [
        "▁tid",
        -7.741816468610573
      ],
      [
        "▁ser",
        -7.746214289054441
      ],
      [
        ";",
        -7.7506433365421685
      ],
      [
        "▁rätt",
        -7.7679169593912984
      ],
      [
        "▁dag",
        -7.771409977132336
      ],
      [
        "or",
        -7.781341484763741
      ],
      [
        "▁hos",
        -7.787911288359709
      ],
      [
        "▁Så",
        -7.788192915564595
      ],
      [
        "▁vilket",
        -7.790308524736831
      ],
      [
        "▁stor",
        -7.79070711152151
      ],
      [
        "▁sina",
        -7.799529058214029
      ],
      [
        "▁både",
        -7.80267209016397
      ],
      [
        "▁A",
        -7.803943039087686
      ],
      [
        "▁Nu",
        -7.811354171910326
      ],
      [
        "▁våra",
        -7.8375772390167455
      ],
      [
        "▁gå",
        -7.841277013468462
      ],
      [
        "▁ny",
        -7.842223355169702
      ],
      [
        "▁F",
        -7.857743967733905
      ],
      [
        "el",
        -7.857820662319289
      ],
      [
        "▁behöver",
        -7.868707743165324
      ],
      [
        "▁På",
        -7.877396916564452
      ],
      [
        "▁kanske",
        -7.880286670692037
      ],
      [
        "▁dessa",
        -7.8860477583277095
      ],
      [
        "▁bästa",
        -7.892195911883464
      ],
      [
        "▁hem",
        -7.893248525432744
      ],
      [
        "ens",
        -7.902658802601252
      ],
      [
        "▁innan",
        -7.906562857466989
      ],
      [
        "▁kom",
        -7.912494385511158
      ],
      [
        "▁vet",
        -7.914143011666237
      ],
      [
        "▁flera",
        -7.924446254301847
      ],
      [
        "▁idag",
        -7.935093221305795
      ],
      [
        "x",
        -7.942596500605472
      ],
      [
        "▁samma",
        -7.951257467435674
      ],
      [
        "▁sitt",
        -7.956959430477708
      ],
      [
        "▁hitta",
        -7.963605261399378
      ],
      [
        "▁E",
        -7.970553299286294
      ],
      [
        "▁tar",
        -7.973295912661435
      ],
      [
        "▁Han",
        -7.973681251806024
      ],
      [
        "%",
        -7.977397636147781
      ],
      [
        "▁G",
        -7.978584567714073
      ],
      [
        "▁ger",
        -7.982324872663369
      ],
      [
        "▁ner",
        -7.983189702862681
      ],
      [
        "▁alltid",
        -7.984099674030615
      ],
      [
        "▁B",
        -7.992647622586585
      ],
      [
        "▁bort",
        -7.993322292038986
      ],
      [
        "▁ditt",
        -7.994560745594736
      ],
      [
        "▁K",
        -7.997407828780355
      ],
      [
        "▁P",
        -8.001801432470934
      ],
      [
        "▁tre",
        -8.001924372779467
      ],
      [
        "▁Här",
        -8.006422069677058
      ],
      [
        "▁stora",
        -8.017146234974556
      ],
      [
        "▁bland",
        -8.021327198746011
      ],
      [
        "▁Läs",
        -8.022024236735216
      ],
      [
        "▁varje",
        -8.025039359548185
      ],
      [
        "▁Att",
        -8.027393919672637
      ],
      [
        "ö",
        -8.044725114842258
      ],
      [
        "▁väldigt",
        -8.046904076712343
      ],
      [
        "B",
        -8.047770211114349
      ],
      [
        "man",
        -8.05966201400661
      ],
      [
        "▁bättre",
        -8.061052529738781
      ],
      [
        "▁igen",
        -8.062323301029261
      ],
      [
        "on",
        -8.06351523890235
      ],
      [
        "▁Detta",
        -8.068562022090948
      ],
      [
        "▁M",
        -8.068828985116253
      ],
      [
        "▁tycker",
        -8.071148704994915
      ],
      [
        "▁C",
        -8.077670813500141
      ],
      [
        "▁ligger",
        -8.079889400468652
      ],
      [
        "▁fall",
        -8.092091818955774
      ],
      [
        "▁gäller",
        -8.096624040754246
      ],
      [
        "nde",
        -8.10175152784553
      ],
      [
        "▁nog",
        -8.109255919432877
      ],
      [
        "ä",
        -8.114093728866543
      ],
      [
        "▁just",
        -8.115806309790473
      ],
      [
        "▁tidigare",
        -8.119131674128367
      ],
      [
        "▁H",
        -8.123050493488229
      ],
      [
        "▁T",
        -8.124347262033
      ],
      [
        "▁fått",
        -8.129126748888622
      ],
      [
        "▁kr",
        -8.129175255827946
      ],
      [
        "▁mitt",
        -8.129419469372992
      ],
      [
        "▁Har",
        -8.130620458531537
      ],
      [
        "▁ge",
        -8.139039229429208
      ],
      [
        "för",
        -8.140449395933892
      ],
      [
        "▁hotell",
        -8.145030014139543
      ],
      [
        "▁gång",
        -8.149938069159141
      ],
      [
        "om",
        -8.153551687404969
      ],
      [
        "▁åt",
        -8.157194484473303
      ],
      [
        "des",
        -8.158883182395433
      ],
      [
        "la",
        -8.160000200206072
      ],
      [
        "▁komma",
        -8.160046085592386
      ],
      [
        "▁Med",
        -8.16214183337196
      ],
      [
        "|",
        -8.170976014605282
      ],
      [
        "▁ingen",
        -8.171547784083812
      ],
      [
        "▁riktigt",
        -8.181341589913773
      ],
      [
        "▁mest",
        -8.18391897313369
      ],
      [
        "▁tror",
        -8.184765145646839
      ],
      [
        "A",
        -8.187919718467969
      ],
      [
        "▁svenska",
        -8.18886848820675
      ],
      [
        "▁dock",
        -8.193972143200694
      ],
      [
        "D",
        -8.19758739451693
      ],
      [
        "▁skall",
        -8.19786561403435
      ],
      [
        "▁Vad",
        -8.200236659197541
      ],
      [
        "▁annan",
        -8.208046660931831
      ],
      [
        "'",
        -8.209131729413324
      ],
      [
        "▁enligt",
        -8.216099079638074
      ],
      [
        "▁eftersom",
        -8.216308955618464
      ],
      [
        "▁gick",
        -8.217597563605766
      ],
      [
        "▁redan",
        -8.22320955999358
      ],
      [
        "▁Ett",
        -8.225406360917646
      ],
      [
        "▁Hur",
        -8.23358499679976
      ],
      [
        "▁fler",
        -8.235341568892444
      ],
      [
        "▁plats",
        -8.23914752630352
      ],
      [
        "▁gratis",
        -8.23996882639769
      ],
      [
        "▁runt",
        -8.245890715101819
      ],
      [
        "▁hjälp",
        -8.25132462308125
      ],
      [
        "är",
        -8.25332284767988
      ],
      [
        "▁dom",
        -8.25599689713822
      ],
      [
        "▁personer",
        -8.256093498342548
      ],
      [
        "▁människor",
        -8.261333066826035
      ],
      [
        "▁kunde",
        -8.263841792054599
      ],
      [
        "▁dina",
        -8.263979744079894
      ],
      [
        "L",
        -8.264736576005928
      ],
      [
        "▁R",
        -8.268976409038759
      ],
      [
        "T",
        -8.269869050535176
      ],
      [
        "▁gjort",
        -8.284065783459203
      ],
      [
        "▁företag",
        -8.289823852818643
      ],
      [
        "▁deras",
        -8.29634815808669
      ],
      [
        "▁information",
        -8.298305100327859
      ],
      [
        "▁mat",
        -8.300045439717461
      ],
      [
        "▁Man",
        -8.30537719162705
      ],
      [
        "ut",
        -8.306796004443012
      ],
      [
        "M",
        -8.312413885220343
      ],
      [
        "▁lika",
        -8.314780899745788
      ],
      [
        "w",
        -8.315131824566466
      ],
      [
        "▁tillbaka",
        -8.316065758855668
      ],
      [
        "▁aldrig",
        -8.316808247640166
      ],
      [
        "▁tillsammans",
        -8.321540420135994
      ],
      [
        "▁grund",
        -8.330862520602011
      ],
      [
        "▁verkligen",
        -8.332370687315747
      ],
      [
        "▁senaste",
        -8.333209566787161
      ],
      [
        "com",
        -8.340746624107007
      ],
      [
        "▁gjorde",
        -8.341272497176984
      ],
      [
        "K",
        -8.341321570348494
      ],
      [
        "P",
        -8.3502248150367
      ],
      [
        "*",
        -8.3526385425971
      ],
      [
        "▁tiden",
        -8.357807484377265
      ],
      [
        "▁ofta",
        -8.358287906183751
      ],
      [
        "▁tog",
        -8.36938240045144
      ],
      [
        "▁lätt",
        -8.383235578536725
      ],
      [
        "·",
        -8.387133142692203
      ],
      [
        "▁spel",
        -8.38925521451468
      ],
      [
        "▁sen",
        -8.391536100601574
      ],
      [
        "▁mindre",
        -8.392276756070345
      ],
      [
        "▁direkt",
        -8.396501189788152
      ],
      [
        "▁mina",
        -8.399108498719443
      ],
      [
        "▁använda",
        -8.399584239393345
      ],
      [
        "ligt",
        -8.404846169434675
      ],
      [
        "liga",
        -8.405646830714188
      ],
      [
        "▁Stockholm",
        -8.408736284685071
      ],
      [
        "het",
        -8.415707268225495
      ],
      [
        "▁hemma",
        -8.418649197272876
      ],
      [
        "▁köpa",
        -8.422135236958741
      ],
      [
        "▁hög",
        -8.422486263567935
      ],
      [
        "▁läsa",
        -8.424807157175305
      ],
      [
        "ig",
        -8.428849577955436
      ],
      [
        "▁hand",
        -8.429568995555204
      ],
      [
        "▁därför",
        -8.42975203180944
      ],
      [
        "▁honom",
        -8.4348414523736
      ],
      [
        "▁små",
        -8.43578157793408
      ],
      [
        "▁vatten",
        -8.437451364124925
      ],
      [
        "▁kvar",
        -8.440553156953928
      ],
      [
        "[",
        -8.442163571171124
      ],
      [
        "]",
        -8.442583965289446
      ],
      [
        "lig",
        -8.445357858504819
      ],
      [
        "▁online",
        -8.445825283711779
      ],
      [
        "▁D",
        -8.447970806826786
      ],
      [
        "▁slut",
        -8.44925330097169
      ],
      [
        "▁mål",
        -8.450359566512736
      ],
      [
        "ska",
        -8.451971130673611
      ],
      [
        "▁enkelt",
        -8.458781085599947
      ],
      [
        "▁bör",
        -8.46079390734615
      ],
      [
        "▁L",
        -8.461551700727426
      ],
      [
        "▁säga",
        -8.462265453600622
      ],
      [
        "▁per",
        -8.463955691785445
      ],
      [
        "▁exempel",
        -8.46554717203271
      ],
      [
        "▁egen",
        -8.46802143844416
      ],
      [
        "berg",
        -8.47240871130021
      ],
      [
        "▁Som",
        -8.474038091326854
      ],
      [
        "▁större",
        -8.47476047411363
      ],
      [
        "känner",
        -8.47820547742106
      ],
      [
        "▁ändå",
        -8.481927337050829
      ],
      [
        "▁god",
        -8.486277421433568
      ],
      [
        "▁Efter",
        -8.488252459434163
      ],
      [
        "▁Hon",
        -8.489718439986033
      ],
      [
        "▁står",
        -8.494804785179504
      ],
      [
        "▁dagar",
        -8.500045554418612
      ],
      [
        "▁problem",
        -8.500711765607875
      ],
      [
        "▁Under",
        -8.507337079484648
      ],
      [
        "▁skapa",
        -8.507524567351279
      ],
      [
        "▁innebär",
        -8.509902627162887
      ],
      [
        "G",
        -8.510398202380625
      ],
      [
        "▁O",
        -8.51196931514743
      ],
      [
        "▁procent",
        -8.514192272293403
      ],
      [
        "▁hans",
        -8.519896514501191
      ],
      [
        "▁liv",
        -8.535262925823615
      ],
      [
        "▁stort",
        -8.537750940868282
      ],
      [
        "▁haft",
        -8.538294899489665
      ],
      [
        "ex",
        -8.541350260119394
      ],
      [
        "sk",
        -8.542445830858158
      ],
      [
        "▁längre",
        -8.544792308049205
      ],
      [
        "vis",
        -8.547843472698304
      ],
      [
        "▁kort",
        -8.548049051553576
      ],
      [
        "▁par",
        -8.54980803612772
      ],
      [
        "▁lång",
        -8.555648943104421
      ],
      [
        "▁V",
        -8.555673670427637
      ],
      [
        "ja",
        -8.55717821546291
      ],
      [
        "▁saker",
        -8.557690529060746
      ],
      [
        "F",
        -8.55779051487225
      ],
      [
        "▁ca",
        -8.560644236920673
      ],
      [
        "▁Då",
        -8.560776917001228
      ],
      [
        "▁pengar",
        -8.565154716717258
      ],
      [
        "▁sex",
        -8.568227661561608
      ],
      [
        "▁kommun",
        -8.568304030652081
      ],
      [
        "▁blivit",
        -8.575114900443795
      ],
      [
        "▁bil",
        -8.578879066162616
      ],
      [
        "▁folk",
        -8.587059289270565
      ],
      [
        "▁länge",
        -8.59246675859627
      ],
      [
        "▁kvinnor",
        -8.593911580479178
      ],
      [
        "▁N",
        -8.597696073824672
      ],
      [
        "▁visar",
        -8.598785419130548
      ],
      [
        "▁nytt",
        -8.599139051474557
      ],
      [
        "▁pris",
        -8.601081676671956
      ],
      [
        "▁faktiskt",
        -8.60382569355753
      ],
      [
        "▁of",
        -8.60661225020777
      ],
      [
        "I",
        -8.607826378103981
      ],
      [
        "▁möjligt",
        -8.609420588425989
      ],
      [
        "▁åter",
        -8.611378647877979
      ],
      [
        "H",
        -8.612277849970429
      ],
      [
        "be",
        -8.613337610226665
      ],
      [
        "ch",
        -8.615023437691583
      ],
      [
        "▁spela",
        -8.615700496579397
      ],
      [
        "N",
        -8.616369293186688
      ],
      [
        "son",
        -8.616631652584836
      ],
      [
        "iga",
        -8.621276933233135
      ],
      [
        "▁inget",
        -8.624239024591688
      ],
      [
        "­",
        -8.625160431714184
      ],
      [
        "▁In",
        -8.626139144787619
      ],
      [
        "ganska",
        -8.627664196872807
      ],
      [
        "▁form",
        -8.636019085802205
      ],
      [
        "▁Där",
        -8.636294037891261
      ],
      [
        "C",
        -8.636927662674138
      ],
      [
        "▁Ja",
        -8.638190133047466
      ],
      [
        "▁kl",
        -8.640822659130858
      ],
      [
        "▁ännu",
        -8.641677494106705
      ],
      [
        "▁liten",
        -8.641882702640176
      ],
      [
        "▁inför",
        -8.642188572635805
      ],
      [
        "▁the",
        -8.643111530741976
      ],
      [
        "▁väg",
        -8.644500834436442
      ],
      [
        "_",
        -8.645375874989627
      ],
      [
        "▁vårt",
        -8.64610724192158
      ],
      [
        "▁svårt",
        -8.648079624796573
      ],
      [
        "▁gärna",
        -8.650057745110944
      ],
      [
        "▁Är",
        -8.651052994218318
      ],
      [
        "▁börjar",
        -8.65319689576117
      ],
      [
        "▁känns",
        -8.655562764003236
      ],
      [
        "▁bilder",
        -8.656264840364248
      ],
      [
        "▁omdömen",
        -8.656404929101056
      ],
      [
        "men",
        -8.658201018973086
      ],
      [
        "▁extra",
        -8.661625049249883
      ],
      [
        "▁fast",
        -8.665770947281786
      ],
      [
        "▁frågor",
        -8.66848144655187
      ],
      [
        "▁Alla",
        -8.669034982734697
      ],
      [
        "▁hålla",
        -8.66983829346151
      ],
      [
        "iska",
        -8.677532359966378
      ],
      [
        "▁minst",
        -8.67806691574602
      ],
      [
        "hittar",
        -8.681838872991992
      ],
      [
        "▁Till",
        -8.68414032526705
      ],
      [
        "V",
        -8.69322733214552
      ],
      [
        "▁håller",
        -8.693683179073405
      ],
      [
        "▁nästan",
        -8.694833367989954
      ],
      [
        "▁fortfarande",
        -8.696365672612474
      ],
      [
        "▁ute",
        -8.697422040821095
      ],
      [
        "av",
        -8.702654589256467
      ],
      [
        "Hotell",
        -8.703727176011057
      ],
      [
        "+",
        -8.705486327461463
      ],
      [
        "▁dagen",
        -8.70623667630043
      ],
      [
        "▁vissa",
        -8.706387396176998
      ],
      [
        "gått",
        -8.70670413325174
      ],
      [
        "▁handlar",
        -8.70717183914747
      ],
      [
        "▁nära",
        -8.707241450804036
      ],
      [
        "ka",
        -8.707690957745202
      ],
      [
        "▁kronor",
        -8.70848387808688
      ],
      [
        "▁dess",
        -8.70873442938803
      ],
      [
        "▁gånger",
        -8.70956092204162
      ],
      [
        "att",
        -8.71090809079011
      ],
      [
        "▁först",
        -8.714150561981842
      ],
      [
        "▁vilken",
        -8.716527268864542
      ],
      [
        "▁vilka",
        -8.716915873170283
      ],
      [
        "▁precis",
        -8.718450967848307
      ],
      [
        "▁senare",
        -8.718676114762133
      ],
      [
        "▁söker",
        -8.71984600025407
      ],
      [
        "▁erbjuder",
        -8.722282126381783
      ],
      [
        "▁samtidigt",
        -8.722474476658714
      ],
      [
        "tal",
        -8.724433733022051
      ],
      [
        "▁Se",
        -8.724557786131058
      ],
      [
        "▁fel",
        -8.725958879863812
      ],
      [
        "▁använder",
        -8.727623646417287
      ],
      [
        "▁AB",
        -8.728837809890582
      ],
      [
        "▁bild",
        -8.73126156615003
      ],
      [
        "▁henne",
        -8.731339813076918
      ],
      [
        "▁vidare",
        -8.731706906906487
      ],
      [
        "▁person",
        -8.735249588806969
      ],
      [
        "▁jobb",
        -8.740742156111073
      ],
      [
        "talet",
        -8.74283000702678
      ],
      [
        "▁lag",
        -8.746525605446791
      ],
      [
        "▁alltså",
        -8.750674945876215
      ],
      [
        "▁sidan",
        -8.751874855545381
      ],
      [
        "▁hoppas",
        -8.75241306340719
      ],
      [
        "▁all",
        -8.75927080865244
      ],
      [
        "▁gott",
        -8.759818167088435
      ],
      [
        "▁största",
        -8.76245198440107
      ],
      [
        "▁istället",
        -8.762695911702995
      ],
      [
        "=",
        -8.764077639747818
      ],
      [
        "▁året",
        -8.76456873081489
      ],
      [
        "▁flesta",
        -8.76579707766401
      ],
      [
        "▁arbete",
        -8.768490015647924
      ],
      [
        "um",
        -8.77177695384163
      ],
      [
        "▁endast",
        -8.773674882553872
      ],
      [
        "▁skriver",
        -8.774503291694877
      ],
      [
        "▁fyra",
        -8.776717615542065
      ],
      [
        "▁viktigt",
        -8.777015080475662
      ],
      [
        "▁hel",
        -8.778264210064375
      ],
      [
        "X",
        -8.782597973271756
      ],
      [
        "▁rum",
        -8.783288237090709
      ],
      [
        "▁nästa",
        -8.78435396774966
      ],
      [
        "▁ihop",
        -8.785284749666252
      ],
      [
        ">",
        -8.785492117555286
      ],
      [
        "vägen",
        -8.785790324071971
      ],
      [
        "▁började",
        -8.788924985591581
      ],
      [
        "▁sista",
        -8.789249937635978
      ],
      [
        "▁dejting",
        -8.798142014543314
      ],
      [
        "verkar",
        -8.800584984294288
      ],
      [
        "▁km",
        -8.800594634839037
      ],
      [
        "▁stöd",
        -8.803242631185727
      ],
      [
        "▁fråga",
        -8.810972076317874
      ],
      [
        "▁fin",
        -8.814729473235783
      ],
      [
        "▁and",
        -8.818865627285508
      ],
      [
        "sta",
        -8.822009432415594
      ],
      [
        "▁snabbt",
        -8.824668490739093
      ],
      [
        "▁sett",
        -8.840857217216342
      ],
      [
        "▁kring",
        -8.842484934762766
      ],
      [
        "▁välja",
        -8.843503448780345
      ],
      [
        "▁kul",
        -8.84395891784895
      ],
      [
        "▁egna",
        -8.844513750465474
      ],
      [
        "E",
        -8.845264109579356
      ],
      [
        "▁Av",
        -8.847035494382107
      ],
      [
        "ger",
        -8.848727989150458
      ],
      [
        "▁hennes",
        -8.850682888706443
      ],
      [
        "igt",
        -8.855498986491428
      ],
      [
        "ej",
        -8.855940522572629
      ],
      [
        "▁Re",
        -8.856462155317633
      ],
      [
        "år",
        -8.859329504313477
      ],
      [
        "tid",
        -8.859842130259432
      ],
      [
        "▁börja",
        -8.86006815974805
      ],
      [
        "▁världen",
        -8.863340907163263
      ],
      [
        "▁tips",
        -8.864031781591924
      ],
      [
        "▁The",
        -8.86443444163616
      ],
      [
        "▁svar",
        -8.866416686289222
      ],
      [
        "▁Be",
        -8.866722254052329
      ],
      [
        "▁själva",
        -8.867060981968432
      ],
      [
        "▁såg",
        -8.869775824148814
      ],
      [
        "▁vecka",
        -8.870767244372564
      ],
      [
        "z",
        -8.871085965404882
      ],
      [
        "▁möjlighet",
        -8.87295358938794
      ],
      [
        "#",
        -8.873138043551162
      ],
      [
        "▁visa",
        -8.876859922660133
      ],
      [
        "▁J",
        -8.877185494906836
      ],
      [
        "tagit",
        -8.87809265089113
      ],
      [
        "▁gamla",
        -8.878853148686291
      ],
      [
        "▁dessutom",
        -8.880036605579075
      ],
      [
        "▁fem",
        -8.881771555204532
      ],
      [
        "ningen",
        -8.88227573567294
      ],
      [
        "▁Idag",
        -8.887096694149845
      ],
      [
        "▁beslut",
        -8.887695312072111
      ],
      [
        "▁miljö",
        -8.88834953148386
      ],
      [
        "▁borde",
        -8.890298419954451
      ],
      [
        "▁veckan",
        -8.89232874337139
      ],
      [
        "▁klart",
        -8.89277536241344
      ],
      [
        "inga",
        -8.897352594893784
      ],
      [
        "▁ned",
        -8.907687800563638
      ],
      [
        "▁män",
        -8.909176643294867
      ],
      [
        "orna",
        -8.910361604537824
      ],
      [
        "▁helst",
        -8.914085687904011
      ],
      [
        "▁typ",
        -8.918520961577013
      ],
      [
        "▁namn",
        -8.926395908704059
      ],
      [
        "▁minuter",
        -8.927395061644663
      ],
      [
        "▁lägga",
        -8.92744122887702
      ],
      [
        "land",
        -8.929704804142245
      ],
      [
        "▁val",
        -8.930948793594368
      ],
      [
        "ring",
        -8.931682765308912
      ],
      [
        "by",
        -8.932671270718094
      ],
      [
        "▁Var",
        -8.932952848766401
      ],
      [
        "den",
        -8.935789445440912
      ],
      [
        "▁långt",
        -8.93879912719021
      ],
      [
        "aste",
        -8.939267207536659
      ],
      [
        "▁to",
        -8.939638486294156
      ],
      [
        "sson",
        -8.940417400560634
      ],
      [
        "▁trots",
        -8.942417140102554
      ],
      [
        "▁behov",
        -8.942632568450119
      ],
      [
        "▁resultat",
        -8.942670334807959
      ],
      [
        "▁delar",
        -8.943583941404468
      ],
      [
        "▁Max",
        -8.943718740339547
      ],
      [
        "ge",
        -8.946074499415392
      ],
      [
        "▁varför",
        -8.946258521170389
      ],
      [
        "▁Även",
        -8.94675680291578
      ],
      [
        "▁priser",
        -8.949586413029637
      ],
      [
        "▁skriva",
        -8.949969923845568
      ],
      [
        "▁hjälpa",
        -8.950864364886419
      ],
      [
        "R",
        -8.952932139781261
      ],
      [
        "▁färg",
        -8.955156359230742
      ],
      [
        "▁kontakt",
        -8.957060681924338
      ],
      [
        "▁fina",
        -8.961126263684172
      ],
      [
        "▁Ta",
        -8.96182575740614
      ],
      [
        "▁energi",
        -8.963292642074004
      ],
      [
        "▁Air",
        -8.963638095208502
      ],
      [
        "▁Bo",
        -8.965970907390597
      ],
      [
        "▁arbetar",
        -8.971137263050665
      ],
      [
        "▁brukar",
        -8.971351864851036
      ],
      [
        "▁medan",
        -8.971584561593245
      ],
      [
        "▁Denna",
        -8.973406014026114
      ],
      [
        "“",
        -8.973626168530904
      ],
      [
        "▁början",
        -8.975073931442788
      ],
      [
        "▁Nike",
        -8.975718498603698
      ],
      [
        "▁ord",
        -8.97754905742822
      ],
      [
        "▁emot",
        -8.97827626175589
      ],
      [
        "▁Vid",
        -8.981088826319962
      ],
      [
        "ering",
        -8.981433214239525
      ],
      [
        "▁timmar",
        -8.981486201825005
      ],
      [
        "ste",
        -8.981858727766557
      ],
      [
        "▁snart",
        -8.982217260227754
      ],
      [
        "▁bok",
        -8.983450743262962
      ],
      [
        "▁enda",
        -8.98446889870279
      ],
      [
        "▁känna",
        -8.984757437110416
      ],
      [
        "▁ibland",
        -8.987484440005117
      ],
      [
        "▁Sveriges",
        -8.988620539961005
      ],
      [
        "min",
        -8.989603197470368
      ],
      [
        "▁Visa",
        -8.990024555417119
      ],
      [
        "hjälper",
        -8.991861495613403
      ],
      [
        "spel",
        -8.994333978075085
      ],
      [
        "▁bäst",
        -8.994753922169819
      ],
      [
        "rum",
        -8.995717680446665
      ],
      [
        "▁ville",
        -8.99707701547523
      ],
      [
        "▁maj",
        -8.997263171139698
      ],
      [
        "ras",
        -9.001836540613388
      ],
      [
        "▁tänka",
        -9.002125385144055
      ],
      [
        "▁W",
        -9.003229285083211
      ],
      [
        "▁Min",
        -9.005630313818934
      ],
      [
        "ör",
        -9.005645591593948
      ],
      [
        "▁tag",
        -9.006858618678681
      ],
      [
        "ell",
        -9.009477633069991
      ],
      [
        "▁låg",
        -9.00948485296669
      ],
      [
        "ton",
        -9.010412967596638
      ],
      [
        "▁nätet",
        -9.013256707442704
      ],
      [
        "▁Ut",
        -9.013828858117272
      ],
      [
        "▁film",
        -9.015743313527953
      ],
      [
        "▁heller",
        -9.016054248484727
      ],
      [
        "ly",
        -9.016370019189786
      ],
      [
        "hus",
        -9.01828363682165
      ],
      [
        "▁vanligt",
        -9.019221561976288
      ],
      [
        "▁antal",
        -9.020011412760317
      ],
      [
        "▁livet",
        -9.020808322970687
      ],
      [
        "▁miljoner",
        -9.020968146959943
      ],
      [
        "▁tur",
        -9.02328612477726
      ],
      [
        "▁hus",
        -9.023323831833364
      ],
      [
        "fanns",
        -9.02541259244195
      ],
      [
        "bo",
        -9.02621936304037
      ],
      [
        "▁landet",
        -9.02655970451785
      ],
      [
        "▁passar",
        -9.029432788622413
      ],
      [
        "▁betala",
        -9.030046870619419
      ],
      [
        "▁Tack",
        -9.03008311248287
      ],
      [
        "▁USA",
        -9.03043983053195
      ],
      [
        "▁Sedan",
        -9.03070667776023
      ],
      [
        "kar",
        -9.03093583335543
      ],
      [
        "var",
        -9.031472720667285
      ],
      [
        "▁egentligen",
        -9.03173285404261
      ],
      [
        "W",
        -9.037348876862438
      ],
      [
        "▁gången",
        -9.038335859431054
      ],
      [
        "▁arbets",
        -9.041106610269152
      ],
      [
        "▁sådan",
        -9.042109271451896
      ],
      [
        "▁EU",
        -9.045490169642507
      ],
      [
        "▁dags",
        -9.046164334758833
      ],
      [
        "ny",
        -9.046506727418333
      ],
      [
        "gen",
        -9.049575550650323
      ],
      [
        "▁framför",
        -9.051123728490857
      ],
      [
        "rätt",
        -9.051125805911365
      ],
      [
        "era",
        -9.051809622868529
      ],
      [
        "▁produkter",
        -9.051948056387142
      ],
      [
        "▁dating",
        -9.056036243487888
      ],
      [
        "▁inne",
        -9.05821740016872
      ],
      [
        "me",
        -9.060327867993356
      ],
      [
        "▁förslag",
        -9.063179749445455
      ],
      [
        "co",
        -9.06467946582197
      ],
      [
        "ion",
        -9.066481049446722
      ],
      [
        "och",
        -9.06775828261173
      ],
      [
        "▁veta",
        -9.068388847593702
      ],
      [
        "O",
        -9.06991449858201
      ],
      [
        "▁ansvar",
        -9.073243182408367
      ],
      [
        "med",
        -9.074718734008465
      ],
      [
        "▁for",
        -9.074826686111269
      ],
      [
        "▁utanför",
        -9.075013000093236
      ],
      [
        "▁Kan",
        -9.076099945483032
      ],
      [
        "del",
        -9.078580082625347
      ],
      [
        "▁ytterligare",
        -9.079067147033303
      ],
      [
        "▁varandra",
        -9.080119107259724
      ],
      [
        "sagt",
        -9.081017019734123
      ],
      [
        "▁fungerar",
        -9.081394850165411
      ],
      [
        "▁svensk",
        -9.082244121176316
      ],
      [
        "bar",
        -9.084180734289395
      ],
      [
        "▁gillar",
        -9.087252050540757
      ],
      [
        "▁jätte",
        -9.088225830003417
      ],
      [
        "sitter",
        -9.091400473682892
      ],
      [
        "▁U",
        -9.09695958713902
      ],
      [
        "▁Sen",
        -9.098531904200364
      ],
      [
        "▁resa",
        -9.099248822451774
      ],
      [
        "▁båda",
        -9.102550558305056
      ],
      [
        "▁särskilt",
        -9.103797388564749
      ],
      [
        "▁pa",
        -9.106250945419417
      ],
      [
        "ation",
        -9.106292995142503
      ],
      [
        "▁används",
        -9.108452102790396
      ],
      [
        "lagen",
        -9.10954994619386
      ],
      [
        "▁Inte",
        -9.118003885416748
      ],
      [
        "▁bor",
        -9.119292587100302
      ],
      [
        "▁bl",
        -9.12138805858592
      ],
      [
        "▁verksamhet",
        -9.121468218374636
      ],
      [
        "▁ja",
        -9.124279886966503
      ],
      [
        "▁veckor",
        -9.126993195572018
      ],
      [
        "än",
        -9.12740014049365
      ],
      [
        "▁besök",
        -9.12785657471359
      ],
      [
        "▁kommit",
        -9.13006506857884
      ],
      [
        "isk",
        -9.132723957498884
      ],
      [
        "val",
        -9.132986620557773
      ],
      [
        "▁Göteborg",
        -9.133255340776383
      ],
      [
        "▁natt",
        -9.133963731581254
      ],
      [
        "▁förra",
        -9.135372796446427
      ],
      [
        "dag",
        -9.136866157281476
      ],
      [
        "▁ljus",
        -9.137368470777703
      ],
      [
        "▁huvud",
        -9.137620575391644
      ],
      [
        "▁spelar",
        -9.140450986274542
      ],
      [
        "ström",
        -9.141181712783109
      ],
      [
        "▁äldre",
        -9.145103821134292
      ],
      [
        "▁dra",
        -9.148585260419358
      ],
      [
        "▁lämna",
        -9.150710091732263
      ],
      [
        "▁ex",
        -9.15126097425216
      ],
      [
        "▁arbeta",
        -9.151347914882473
      ],
      [
        "mer",
        -9.151609549454099
      ],
      [
        "J",
        -9.151732644866975
      ],
      [
        "▁sak",
        -9.15197296176448
      ],
      [
        "▁kör",
        -9.152078195637174
      ],
      [
        "▁bakom",
        -9.153155230605615
      ],
      [
        "▁Bra",
        -9.155095757870088
      ],
      [
        "▁mamma",
        -9.156747269023256
      ],
      [
        "▁Vill",
        -9.156926907162184
      ],
      [
        "▁jul",
        -9.15758643796401
      ],
      [
        "▁händer",
        -9.158977458590893
      ],
      [
        "▁musik",
        -9.159977885516842
      ],
      [
        "▁skolan",
        -9.160197001457432
      ],
      [
        "lan",
        -9.161239623657574
      ],
      [
        "ling",
        -9.16584420271783
      ],
      [
        "tänker",
        -9.17035968192585
      ],
      [
        "▁inlägg",
        -9.171408532126186
      ],
      [
        "▁sida",
        -9.175071726274611
      ],
      [
        "ningar",
        -9.175078644533253
      ],
      [
        "▁Svenska",
        -9.178446660025388
      ],
      [
        "ver",
        -9.179067449516138
      ],
      [
        "lar",
        -9.180611224922448
      ],
      [
        "▁projekt",
        -9.1807252030462
      ],
      [
        "▁igenom",
        -9.181781899461603
      ],
      [
        "▁lilla",
        -9.18403462567463
      ],
      [
        "▁full",
        -9.18442519304124
      ],
      [
        "▁åka",
        -9.186714992721498
      ],
      [
        "▁Ni",
        -9.186779646374898
      ],
      [
        "▁betyg",
        -9.186867253809963
      ],
      [
        "▁La",
        -9.187244780544226
      ],
      [
        "▁ovan",
        -9.191588264926963
      ],
      [
        "▁säkert",
        -9.192845038769827
      ],
      [
        "▁månader",
        -9.196404782572039
      ],
      [
        "▁utveckling",
        -9.196794152091218
      ],
      [
        "ner",
        -9.197864002195214
      ],
      [
        "▁innehåller",
        -9.20135381995678
      ],
      [
        "▁steg",
        -9.202553356514207
      ],
      [
        "▁barnen",
        -9.205165634623734
      ],
      [
        "mat",
        -9.20668304270892
      ],
      [
        "▁personal",
        -9.20721883238572
      ],
      [
        "tan",
        -9.209989161787018
      ],
      [
        "▁blogg",
        -9.210616993445475
      ],
      [
        "▁högre",
        -9.21138310407045
      ],
      [
        "▁perfekt",
        -9.211935640029152
      ],
      [
        "▁ingår",
        -9.213227525696249
      ],
      [
        "▁Malmö",
        -9.214987499459006
      ],
      [
        "▁Dessutom",
        -9.215098620147607
      ],
      [
        "samma",
        -9.215876489216908
      ],
      [
        "▁jobba",
        -9.21724220467739
      ],
      [
        "U",
        -9.21796132848001
      ],
      [
        "▁sommar",
        -9.218014622600194
      ],
      [
        "▁unga",
        -9.218868582141711
      ],
      [
        "ligen",
        -9.219107948147409
      ],
      [
        "▁krav",
        -9.220552558279811
      ],
      [
        "▁Hotel",
        -9.220944930274444
      ],
      [
        "▁alternativ",
        -9.2222184080471
      ],
      [
        "Enligt",
        -9.226565975518675
      ],
      [
        "▁äta",
        -9.227307140565504
      ],
      [
        "▁max",
        -9.232744635151075
      ],
      [
        "▁öppna",
        -9.233339843461234
      ],
      [
        "▁Jo",
        -9.237124311953071
      ],
      [
        "▁kroppen",
        -9.239060337651944
      ],
      [
        "é",
        -9.239955068322857
      ],
      [
        "<",
        -9.245872952631014
      ],
      [
        "▁tack",
        -9.24608014185341
      ],
      [
        "▁bygga",
        -9.248032732683873
      ],
      [
        "▁kunder",
        -9.249896905819295
      ],
      [
        "▁skrev",
        -9.250802532704167
      ],
      [
        "▁alls",
        -9.253746123927097
      ],
      [
        "tydligt",
        -9.255685188923593
      ],
      [
        "rna",
        -9.256118425581823
      ],
      [
        "▁bo",
        -9.259771110925309
      ],
      [
        "▁berättar",
        -9.25994971424799
      ],
      [
        "▁skicka",
        -9.264130740074776
      ],
      [
        "bok",
        -9.264365781830223
      ],
      [
        "▁service",
        -9.266674078852983
      ],
      [
        "Många",
        -9.268678974963647
      ],
      [
        "väljer",
        -9.27276077909891
      ],
      [
        "ler",
        -9.273038955385102
      ],
      [
        "▁lära",
        -9.274467916090542
      ],
      [
        "främst",
        -9.274701453631357
      ],
      [
        "▁Ha",
        -9.279862656296826
      ],
      [
        "▁roligt",
        -9.279930100099484
      ],
      [
        "erade",
        -9.281307508532471
      ],
      [
        "▁fr",
        -9.282982481653901
      ],
      [
        "▁Ska",
        -9.283661164825572
      ],
      [
        "▁åren",
        -9.283788207194041
      ],
      [
        "▁fri",
        -9.284026633783904
      ],
      [
        "else",
        -9.284228021829964
      ],
      [
        "sätta",
        -9.284449635979572
      ],
      [
        "upp",
        -9.284456167354827
      ],
      [
        "▁januari",
        -9.285384926490822
      ],
      [
        "▁kvinna",
        -9.285570316242552
      ],
      [
        "▁företaget",
        -9.286387237139369
      ],
      [
        "▁bonus",
        -9.287235130982207
      ],
      [
        "▁dejta",
        -9.287311210646145
      ],
      [
        "▁försöka",
        -9.287822528156191
      ],
      [
        "ol",
        -9.288434595107528
      ],
      [
        "▁viktig",
        -9.29326748569252
      ],
      [
        "▁Genom",
        -9.293429363120739
      ],
      [
        "ant",
        -9.293663781975116
      ],
      [
        "▁vänner",
        -9.294892808720679
      ],
      [
        "som",
        -9.29576003941614
      ],
      [
        "ha",
        -9.298844428256668
      ],
      [
        "ster",
        -9.298953659434352
      ],
      [
        "▁design",
        -9.299032394093114
      ],
      [
        "▁augusti",
        -9.299349668282197
      ],
      [
        "▁mars",
        -9.299431569853903
      ],
      [
        "▁följa",
        -9.300570447695742
      ],
      [
        "ett",
        -9.300767920744281
      ],
      [
        "ist",
        -9.301125059839569
      ],
      [
        "▁spelare",
        -9.301366963496088
      ],
      [
        "▁An",
        -9.302225698157322
      ],
      [
        "▁program",
        -9.302295841044492
      ],
      [
        "▁träffa",
        -9.302760577278312
      ],
      [
        "▁hotellet",
        -9.306146334049469
      ],
      [
        "Det",
        -9.306854913425742
      ],
      [
        "▁fint",
        -9.306901012917805
      ],
      [
        "▁Ny",
        -9.308743292404017
      ],
      [
        "▁öka",
        -9.311175778986433
      ],
      [
        "▁län",
        -9.312606070415685
      ],
      [
        "laget",
        -9.312638899471862
      ],
      [
        "up",
        -9.313078815867007
      ],
      [
        "▁lär",
        -9.31457791775356
      ],
      [
        "ans",
        -9.31785953400227
      ],
      [
        "▁va",
        -9.318316481493644
      ],
      [
        "kort",
        -9.31889063820188
      ],
      [
        "▁skor",
        -9.319913435388262
      ],
      [
        "▁samband",
        -9.320158687973649
      ],
      [
        "▁sker",
        -9.320485829094633
      ],
      [
        "$",
        -9.321283870722262
      ],
      [
        "▁kultur",
        -9.323028363330089
      ],
      [
        "▁fort",
        -9.323126990105244
      ],
      [
        "▁minska",
        -9.32342592552229
      ],
      [
        "▁titta",
        -9.323647924568549
      ],
      [
        "eller",
        -9.32463107606887
      ],
      [
        "▁sol",
        -9.32627255788304
      ],
      [
        "ats",
        -9.327366511261387
      ],
      [
        "▁följande",
        -9.328157347038541
      ],
      [
        "▁igång",
        -9.328961429038348
      ],
      [
        "▁spännande",
        -9.32994179882464
      ],
      [
        "▁poäng",
        -9.330167008634765
      ],
      [
        "▁frågan",
        -9.331075732227823
      ],
      [
        "▁roll",
        -9.331968636840953
      ],
      [
        "▁massa",
        -9.333693269600113
      ],
      [
        "nat",
        -9.335641918962923
      ],
      [
        "▁St",
        -9.33729081457052
      ],
      [
        "▁Allt",
        -9.338662518340588
      ],
      [
        "▁ifrån",
        -9.340029563191754
      ],
      [
        "▁års",
        -9.342870016496544
      ],
      [
        "▁tydlig",
        -9.343175878710424
      ],
      [
        "▁goda",
        -9.34318915035781
      ],
      [
        "slutet",
        -9.34420585369132
      ],
      [
        "▁start",
        -9.344527123600727
      ],
      [
        "▁området",
        -9.344744469503963
      ],
      [
        "▁Från",
        -9.345120447328215
      ],
      [
        "li",
        -9.347084931588773
      ],
      [
        "»",
        -9.347826250415059
      ],
      [
        "▁liknande",
        -9.34856070214736
      ],
      [
        "kan",
        -9.349447737534932
      ],
      [
        "lösa",
        -9.349826971083793
      ],
      [
        "slag",
        -9.350035050196396
      ],
      [
        "▁satt",
        -9.353788948764986
      ],
      [
        "fall",
        -9.354698711855313
      ],
      [
        "▁match",
        -9.354927974284472
      ],
      [
        "på",
        -9.357539833461159
      ],
      [
        "▁kolla",
        -9.357869241108258
      ],
      [
        "▁djur",
        -9.359710356488149
      ],
      [
        "▁tillgång",
        -9.360948327704046
      ],
      [
        "nas",
        -9.361453622303044
      ],
      [
        "▁erfarenhet",
        -9.361958480701464
      ],
      [
        "▁eget",
        -9.362703032429684
      ],
      [
        "▁uppgifter",
        -9.362746156465956
      ],
      [
        "▁casino",
        -9.365454807285438
      ],
      [
        "▁älskar",
        -9.366008256103811
      ],
      [
        "▁Mer",
        -9.367850126234035
      ],
      [
        "▁länder",
        -9.368339715242412
      ],
      [
        "tro",
        -9.369256922401114
      ],
      [
        "▁månad",
        -9.369506376790463
      ],
      [
        "▁cm",
        -9.370841707294623
      ],
      [
        "Vi",
        -9.371247951055928
      ],
      [
        "▁skol",
        -9.371854562493892
      ],
      [
        "ast",
        -9.372025552458897
      ],
      [
        "▁jobbet",
        -9.374235909239083
      ],
      [
        "▁kommunen",
        -9.374268579358926
      ],
      [
        "▁Dessa",
        -9.375059868469924
      ],
      [
        "▁TV",
        -9.375933180279418
      ],
      [
        "▁dit",
        -9.37787656675334
      ],
      [
        "•",
        -9.380073168015564
      ],
      [
        "▁vård",
        -9.380492773574124
      ],
      [
        "▁kvalitet",
        -9.380679949931361
      ],
      [
        "▁jobbar",
        -9.381010690137753
      ],
      [
        "sjön",
        -9.382141178026307
      ],
      [
        "▁glad",
        -9.382537905306213
      ],
      [
        "▁Vår",
        -9.384906708278077
      ],
      [
        "▁Nej",
        -9.385480555854425
      ],
      [
        "og",
        -9.385915989821134
      ],
      [
        "▁material",
        -9.387345941044197
      ],
      [
        "▁grupp",
        -9.388182861814519
      ],
      [
        "lin",
        -9.3904131091646
      ],
      [
        "▁hälsa",
        -9.391523548246457
      ],
      [
        "▁nedan",
        -9.393223977425894
      ],
      [
        "▁liksom",
        -9.39388332564077
      ],
      [
        "▁vem",
        -9.394231986500097
      ],
      [
        "system",
        -9.395266779046095
      ],
      [
        "▁fortsätta",
        -9.396022413322164
      ],
      [
        "▁utveckla",
        -9.39607941246446
      ],
      [
        "▁utbildning",
        -9.396454280383077
      ],
      [
        "▁tredje",
        -9.397873903628705
      ],
      [
        "▁stå",
        -9.398251123272841
      ],
      [
        "▁igår",
        -9.399444385588216
      ],
      [
        "▁stund",
        -9.40169187757597
      ],
      [
        "nar",
        -9.403586642254275
      ],
      [
        "lag",
        -9.40403074727563
      ],
      [
        "vin",
        -9.40602704133093
      ],
      [
        "läget",
        -9.40605450374473
      ],
      [
        "Jag",
        -9.40621629815438
      ],
      [
        "▁meter",
        -9.407437195938485
      ],
      [
        "▁vanliga",
        -9.409319791821414
      ],
      [
        "▁favorit",
        -9.409648121114088
      ],
      [
        "▁nätdejting",
        -9.409917328881825
      ],
      [
        "tar",
        -9.410395648328665
      ],
      [
        "▁juni",
        -9.411272508710885
      ],
      [
        "▁köp",
        -9.412348356139663
      ],
      [
        "bara",
        -9.412639565956653
      ],
      [
        "▁tro",
        -9.412987476753525
      ],
      [
        "▁rör",
        -9.413653932791384
      ],
      [
        "▁vanlig",
        -9.414615341776448
      ],
      [
        "▁halv",
        -9.415796432502017
      ],
      [
        "▁fortsätter",
        -9.416025147082417
      ],
      [
        "§",
        -9.41721361464306
      ],
      [
        "vi",
        -9.417763388024643
      ],
      [
        "▁vilja",
        -9.417833136911623
      ],
      [
        "ont",
        -9.418244185273375
      ],
      [
        "▁krävs",
        -9.419891466136763
      ],
      [
        "▁närheten",
        -9.420540104298587
      ],
      [
        "▁tio",
        -9.421393971647916
      ],
      [
        "försöker",
        -9.421976021115704
      ],
      [
        "låter",
        -9.42217447847388
      ],
      [
        "▁engelska",
        -9.424205100990596
      ],
      [
        "gruppen",
        -9.4243497447424
      ],
      [
        "betyder",
        -9.424416784481535
      ],
      [
        "programmet",
        -9.42607033295498
      ],
      [
        "höll",
        -9.426669678319179
      ],
      [
        "sam",
        -9.427040065534628
      ],
      [
        "▁Eller",
        -9.429490141562223
      ],
      [
        "▁hör",
        -9.429711464800382
      ],
      [
        "▁behövs",
        -9.430328499989022
      ],
      [
        "—",
        -9.430999991913112
      ],
      [
        "ll",
        -9.432295980318779
      ],
      [
        "▁samla",
        -9.433315628155974
      ],
      [
        "▁prata",
        -9.43332603574782
      ],
      [
        "▁råd",
        -9.43369438639645
      ],
      [
        "▁kontakta",
        -9.433841239765638
      ],
      [
        "▁kväll",
        -9.434453068457604
      ],
      [
        "ord",
        -9.434804888312712
      ],
      [
        "▁El",
        -9.435088552561226
      ],
      [
        "▁vän",
        -9.435210627357614
      ],
      [
        "ken",
        -9.435499823403246
      ],
      [
        "▁mobil",
        -9.440032466520393
      ],
      [
        "▁telefon",
        -9.441673581250985
      ],
      [
        "▁användas",
        -9.442315143053879
      ],
      [
        "visade",
        -9.442372062554423
      ],
      [
        "ran",
        -9.443033873904152
      ],
      [
        "▁heter",
        -9.445552636063173
      ],
      [
        "▁morgon",
        -9.446564996500406
      ],
      [
        "▁dejtingsajt",
        -9.448087210217917
      ],
      [
        "skap",
        -9.44928820989151
      ],
      [
        "Därför",
        -9.450202747104429
      ],
      [
        "▁bidra",
        -9.450260472222993
      ],
      [
        "▁april",
        -9.451596288242104
      ],
      [
        "▁oktober",
        -9.452595509957183
      ],
      [
        "▁recept",
        -9.452800578533822
      ],
      [
        "▁risk",
        -9.453122108203173
      ],
      [
        "▁Anna",
        -9.45400870062301
      ],
      [
        "ros",
        -9.45506525968604
      ],
      [
        "▁fortsatt",
        -9.456055972762615
      ],
      [
        "nike",
        -9.457121772386087
      ],
      [
        "▁data",
        -9.457152493182901
      ],
      [
        "▁samarbete",
        -9.457572414614916
      ],
      [
        "Y",
        -9.460750494283813
      ],
      [
        "▁arbetet",
        -9.461382979748079
      ],
      [
        "ju",
        -9.46166326584823
      ],
      [
        "mar",
        -9.461759708895473
      ],
      [
        "ho",
        -9.462218132835698
      ],
      [
        "▁snabb",
        -9.462283912615405
      ],
      [
        "gel",
        -9.464619229443779
      ],
      [
        "▁Per",
        -9.466432219834628
      ],
      [
        "▁september",
        -9.467893987644375
      ],
      [
        "▁Europa",
        -9.46846850817143
      ],
      [
        "▁köra",
        -9.468634475775877
      ],
      [
        "plats",
        -9.469938760671365
      ],
      [
        "illa",
        -9.470186103381092
      ],
      [
        "▁bilen",
        -9.471695492222853
      ],
      [
        "▁Ka",
        -9.472559605148424
      ],
      [
        "▁super",
        -9.472823319147153
      ],
      [
        "▁påverka",
        -9.473228188049761
      ],
      [
        "▁system",
        -9.473333533265889
      ],
      [
        "▁hår",
        -9.4733947265115
      ],
      [
        "till",
        -9.47355221901048
      ],
      [
        "▁natur",
        -9.473955049356706
      ],
      [
        "▁ungefär",
        -9.47477717914592
      ],
      [
        "▁gav",
        -9.475476977234875
      ],
      [
        "iskt",
        -9.47842929375467
      ],
      [
        "aren",
        -9.481364086257722
      ],
      [
        "▁regeringen",
        -9.484267409550561
      ],
      [
        "tyckte",
        -9.485501069878557
      ],
      [
        "Kanske",
        -9.487401265192108
      ],
      [
        "Varför",
        -9.488588390093017
      ],
      [
        "bolaget",
        -9.488638147155735
      ],
      [
        "▁kunskap",
        -9.4893123407702
      ],
      [
        "▁cirka",
        -9.49015406840282
      ],
      [
        "ort",
        -9.490323000132834
      ],
      [
        "▁rad",
        -9.490370118361577
      ],
      [
        "anser",
        -9.493001025197884
      ],
      [
        "itet",
        -9.493235551314202
      ],
      [
        "tor",
        -9.493588083538048
      ],
      [
        "▁bak",
        -9.493727072826418
      ],
      [
        "▁kund",
        -9.494030675581019
      ],
      [
        "stället",
        -9.494270014660438
      ],
      [
        "▁hemsida",
        -9.495012787381402
      ],
      [
        "▁hämta",
        -9.495052937494952
      ],
      [
        "▁internet",
        -9.495097838697658
      ],
      [
        "därmed",
        -9.495248296451281
      ],
      [
        "erad",
        -9.49572500986215
      ],
      [
        "▁app",
        -9.49638973749647
      ],
      [
        "▁svart",
        -9.49652490257866
      ],
      [
        "▁Le",
        -9.49654505046888
      ],
      [
        "▁intresse",
        -9.496670621888136
      ],
      [
        "ko",
        -9.497884612420881
      ],
      [
        "▁exempelvis",
        -9.49951061129105
      ],
      [
        "▁behandling",
        -9.500447206105571
      ],
      [
        "▁absolut",
        -9.500552867382579
      ],
      [
        "▁språk",
        -9.503390305680714
      ],
      [
        "▁viss",
        -9.503426604653402
      ],
      [
        "▁klar",
        -9.503606942108854
      ],
      [
        "gar",
        -9.505356532015917
      ],
      [
        "▁sommaren",
        -9.505410802377458
      ],
      [
        "▁fokus",
        -9.505753327071819
      ],
      [
        "▁februari",
        -9.50744276434833
      ],
      [
        "▁Mo",
        -9.508996508864422
      ],
      [
        "oftast",
        -9.509240391550486
      ],
      [
        "▁land",
        -9.509909990845957
      ],
      [
        "står",
        -9.511010649432786
      ],
      [
        "▁tanke",
        -9.511021831521504
      ],
      [
        "▁helgen",
        -9.51169437824762
      ],
      [
        "▁lever",
        -9.512234168154997
      ],
      [
        "mon",
        -9.51298040605038
      ],
      [
        "erat",
        -9.513672726350917
      ],
      [
        "så",
        -9.51367655645642
      ],
      [
        "▁air",
        -9.514229097875187
      ],
      [
        "▁boken",
        -9.515631999472882
      ],
      [
        "▁klara",
        -9.515936661241293
      ],
      [
        "▁senast",
        -9.516764516619027
      ],
      [
        "▁uppdrag",
        -9.519325918397788
      ],
      [
        "består",
        -9.519559979934597
      ],
      [
        "▁boende",
        -9.519774600699039
      ],
      [
        "finnas",
        -9.520449000628927
      ],
      [
        "▁plan",
        -9.526854186656472
      ],
      [
        "lägger",
        -9.528839532535933
      ],
      [
        "▁topp",
        -9.529314953212321
      ],
      [
        "▁speciellt",
        -9.531544943100148
      ],
      [
        "▁övriga",
        -9.532135165647349
      ],
      [
        "▁beroende",
        -9.532361492628812
      ],
      [
        "lund",
        -9.534130765836329
      ],
      [
        "van",
        -9.534551127132088
      ],
      [
        "▁vackra",
        -9.535284117652697
      ],
      [
        "stad",
        -9.535657527221467
      ],
      [
        "▁december",
        -9.535992058726688
      ],
      [
        "▁stil",
        -9.536996284792961
      ],
      [
        "▁familj",
        -9.537915805941951
      ],
      [
        "▁kvällen",
        -9.539448279154144
      ],
      [
        "▁framtiden",
        -9.540174655417543
      ],
      [
        "red",
        -9.540640875883915
      ],
      [
        "▁bilden",
        -9.541099018003784
      ],
      [
        "behöva",
        -9.542468232090808
      ],
      [
        "▁intressant",
        -9.543063368563722
      ],
      [
        "systemet",
        -9.544394892531097
      ],
      [
        "stående",
        -9.54441872877172
      ],
      [
        "▁berätta",
        -9.544791508475964
      ],
      [
        "ick",
        -9.545255943405113
      ],
      [
        "sel",
        -9.545267708614137
      ],
      [
        "▁ändra",
        -9.546498566357064
      ],
      [
        "▁följer",
        -9.546840852115187
      ],
      [
        "gående",
        -9.546887767939545
      ],
      [
        "ökar",
        -9.54743552778991
      ],
      [
        "▁Hitta",
        -9.548044456026268
      ],
      [
        "▁förstår",
        -9.548403854445384
      ],
      [
        "▁staden",
        -9.54981270824875
      ],
      [
        "emot",
        -9.554479453530014
      ],
      [
        "såsom",
        -9.55511789963657
      ],
      [
        "tänkte",
        -9.555656980724393
      ],
      [
        "▁värde",
        -9.556541935512884
      ],
      [
        "▁ställa",
        -9.558042701479016
      ],
      [
        "post",
        -9.558068203868906
      ],
      [
        "ifrån",
        -9.558290830945353
      ],
      [
        "lös",
        -9.559032031850272
      ],
      [
        "▁november",
        -9.560886899027185
      ],
      [
        "▁skönt",
        -9.561162910079712
      ],
      [
        "ker",
        -9.562182879355273
      ],
      [
        "▁lugn",
        -9.56236977962163
      ],
      [
        "säkra",
        -9.563342171855966
      ],
      [
        "åkte",
        -9.565839408407449
      ],
      [
        "▁kap",
        -9.56626939253863
      ],
      [
        "typer",
        -9.568195258640568
      ],
      [
        "Eftersom",
        -9.568625399516725
      ],
      [
        "▁trött",
        -9.5687029153782
      ],
      [
        "gång",
        -9.568858012946606
      ],
      [
        "ock",
        -9.5690981165593
      ],
      [
        "▁hund",
        -9.569559815640064
      ],
      [
        "▁förbättra",
        -9.569643415824961
      ],
      [
        "▁familjen",
        -9.570687909692163
      ],
      [
        "▁Hej",
        -9.571534030926687
      ],
      [
        "▁stod",
        -9.573114191809779
      ],
      [
        "▁Stockholms",
        -9.573201335645134
      ],
      [
        "▁tänkt",
        -9.573775561877662
      ],
      [
        "▁juli",
        -9.574132728054837
      ],
      [
        "nämligen",
        -9.574465010473666
      ],
      [
        "▁svår",
        -9.574557023701654
      ],
      [
        "▁stad",
        -9.575303974608028
      ],
      [
        "▁förstå",
        -9.57712768593314
      ],
      [
        "▁produkt",
        -9.577534239324027
      ],
      [
        "▁lan",
        -9.578301877375829
      ],
      [
        "▁träning",
        -9.579126235457242
      ],
      [
        "▁Sa",
        -9.57939535199066
      ],
      [
        "▁Co",
        -9.580924839009212
      ],
      [
        "▁sp",
        -9.582249536918999
      ],
      [
        "▁snö",
        -9.583538891184608
      ],
      [
        "form",
        -9.583918587078204
      ],
      [
        "▁anledning",
        -9.584770892987775
      ],
      [
        "alldeles",
        -9.585060524797436
      ],
      [
        "▁flytta",
        -9.585634182297548
      ],
      [
        "▁vänta",
        -9.587692405883832
      ],
      [
        "▁tjänster",
        -9.587871438498292
      ],
      [
        "annars",
        -9.5881896015619
      ],
      [
        "otroligt",
        -9.588705024241403
      ],
      [
        "▁skillnad",
        -9.588820017653726
      ],
      [
        "▁skapar",
        -9.589339933749569
      ],
      [
        "▁Å",
        -9.590136058083408
      ],
      [
        "plan",
        -9.591023672381818
      ],
      [
        "▁Y",
        -9.59345260675766
      ],
      [
        "går",
        -9.594513340530991
      ],
      [
        "band",
        -9.594618592291354
      ],
      [
        "▁Upp",
        -9.594788953898583
      ],
      [
        "▁Ra",
        -9.597241568873347
      ],
      [
        "▁Anders",
        -9.597721979811976
      ],
      [
        "program",
        -9.598020512285652
      ],
      [
        "kräver",
        -9.59896136027916
      ],
      [
        "ill",
        -9.599654683111211
      ],
      [
        "▁bi",
        -9.600520181333557
      ],
      [
        "▁Ar",
        -9.60258618985683
      ],
      [
        "▁flyg",
        -9.602942232400178
      ],
      [
        "▁låta",
        -9.603482816861643
      ],
      [
        "sten",
        -9.607741146663269
      ],
      [
        "▁tas",
        -9.609458093228362
      ],
      [
        "▁säker",
        -9.611593257552112
      ],
      [
        "▁kon",
        -9.615027219492925
      ],
      [
        "▁sociala",
        -9.615107213859714
      ],
      [
        "gatan",
        -9.615202843518084
      ],
      [
        "▁föräldrar",
        -9.615397830622495
      ],
      [
        "ung",
        -9.616057413926207
      ],
      [
        "▁vikt",
        -9.616367075249558
      ],
      [
        "beror",
        -9.618312884563542
      ],
      [
        "▁erbjuda",
        -9.619504852798022
      ],
      [
        "▁spara",
        -9.619522982277221
      ],
      [
        "pol",
        -9.619736518040272
      ],
      [
        "▁verksamheten",
        -9.62005226469791
      ],
      [
        "borg",
        -9.620155720836447
      ],
      [
        "▁Just",
        -9.620162037540018
      ],
      [
        "ets",
        -9.620484079484605
      ],
      [
        "▁delen",
        -9.62217356658161
      ],
      [
        "gren",
        -9.622202379153467
      ],
      [
        "per",
        -9.624089256987723
      ],
      [
        "▁samhället",
        -9.62448892562755
      ],
      [
        "maste",
        -9.62664839252545
      ],
      [
        "▁testa",
        -9.627106546868385
      ],
      [
        "oavsett",
        -9.627826334360579
      ],
      [
        "sch",
        -9.628081361338944
      ],
      [
        "▁fungera",
        -9.628312366116575
      ],
      [
        "▁planera",
        -9.62848815953254
      ],
      [
        "▁Köp",
        -9.62976668553114
      ],
      [
        "▁gammal",
        -9.632030088642171
      ],
      [
        "kände",
        -9.632735888397857
      ],
      [
        "▁kaffe",
        -9.633322689361348
      ],
      [
        "▁Al",
        -9.633913852933652
      ],
      [
        "▁höra",
        -9.635334548987096
      ],
      [
        "nu",
        -9.635915736602978
      ],
      [
        "▁klockan",
        -9.637322526716892
      ],
      [
        "▁leder",
        -9.6373481846807
      ],
      [
        "▁dagens",
        -9.638342114233037
      ],
      [
        "sätter",
        -9.638424855260904
      ],
      [
        "▁dator",
        -9.642757404184652
      ],
      [
        "såväl",
        -9.64277832291525
      ],
      [
        "▁nöjd",
        -9.643319701609348
      ],
      [
        "▁världens",
        -9.643599068215766
      ],
      [
        "▁Na",
        -9.64493313877251
      ],
      [
        "ledande",
        -9.64522455956279
      ],
      [
        "bb",
        -9.645450214532476
      ],
      [
        "▁Facebook",
        -9.646278762403185
      ],
      [
        "värt",
        -9.646655915519387
      ],
      [
        "▁hantera",
        -9.647667250406332
      ],
      [
        "▁samtal",
        -9.647887309243579
      ],
      [
        "▁Ö",
        -9.64902445805411
      ],
      [
        "skrivit",
        -9.64920194875367
      ],
      [
        "ium",
        -9.65055444075569
      ],
      [
        "TM",
        -9.65188036760432
      ],
      [
        "företag",
        -9.65205388283539
      ],
      [
        "▁ögon",
        -9.653217598994466
      ],
      [
        "▁möjligheter",
        -9.653967979273046
      ],
      [
        "▁huset",
        -9.655021317081244
      ],
      [
        "huset",
        -9.655335114269732
      ],
      [
        "▁Johan",
        -9.656058730072782
      ],
      [
        "▁visst",
        -9.656607210622767
      ],
      [
        "liv",
        -9.657184963428344
      ],
      [
        "▁regler",
        -9.658728508543751
      ],
      [
        "skolan",
        -9.660074243905141
      ],
      [
        "▁lån",
        -9.661418850031128
      ],
      [
        "▁New",
        -9.661677301109085
      ],
      [
        "ris",
        -9.662092188325255
      ],
      [
        "▁leva",
        -9.662217494556595
      ],
      [
        "rik",
        -9.662439627049364
      ],
      [
        "▁viktiga",
        -9.663814664694339
      ],
      [
        "▁utifrån",
        -9.664758326765272
      ],
      [
        "▁ordförande",
        -9.664763881645335
      ],
      [
        "sökte",
        -9.665175472281962
      ],
      [
        "▁by",
        -9.665370743156586
      ],
      [
        "tre",
        -9.666117609838548
      ],
      [
        "▁historia",
        -9.666180238502417
      ],
      [
        "▁samman",
        -9.666298341594027
      ],
      [
        "▁konst",
        -9.667921746129291
      ],
      [
        "drar",
        -9.668945105364095
      ],
      [
        "▁semester",
        -9.669849291507965
      ],
      [
        "▁kredit",
        -9.670812169849233
      ],
      [
        "▁luft",
        -9.671254884906029
      ],
      [
        "▁tjejer",
        -9.67139759463202
      ],
      [
        "▁icke",
        -9.672106524294488
      ],
      [
        "▁höga",
        -9.67255467780714
      ],
      [
        "ina",
        -9.67269991212662
      ],
      [
        "▁matchen",
        -9.67292419001194
      ],
      [
        "tion",
        -9.673280720758681
      ],
      [
        "▁marknaden",
        -9.673604107383959
      ],
      [
        "kon",
        -9.674681746288137
      ],
      [
        "▁uttryck",
        -9.67593806392985
      ],
      [
        "kom",
        -9.676452960152348
      ],
      [
        "▁medlemmar",
        -9.676894721458472
      ],
      [
        "▁elever",
        -9.677129446837325
      ],
      [
        "vård",
        -9.678232966662454
      ],
      [
        "▁iväg",
        -9.678545251694604
      ],
      [
        "▁högt",
        -9.6792560814548
      ],
      [
        "▁kallas",
        -9.680324167517277
      ],
      [
        "▁stark",
        -9.680570816638694
      ],
      [
        "ck",
        -9.681899841453685
      ],
      [
        "tyvärr",
        -9.683023136886252
      ],
      [
        "▁hälso",
        -9.684154961850723
      ],
      [
        "▁vinna",
        -9.684485970918384
      ],
      [
        "fri",
        -9.685132947199655
      ],
      [
        "Mycket",
        -9.68603675206201
      ],
      [
        "sidan",
        -9.686036905798701
      ],
      [
        "ER",
        -9.687053452549138
      ],
      [
        "▁billiga",
        -9.687533423157399
      ],
      [
        "▁All",
        -9.68792690583508
      ],
      [
        "▁vänster",
        -9.688081919150692
      ],
      [
        "ism",
        -9.688797502621874
      ],
      [
        "Ö",
        -9.6907038640264
      ],
      [
        "resten",
        -9.69168944856353
      ],
      [
        "▁Do",
        -9.693762266671769
      ],
      [
        "▁polisen",
        -9.694524460644297
      ],
      [
        "▁totalt",
        -9.694663156365266
      ],
      [
        "▁ljud",
        -9.694792886448038
      ],
      [
        "▁kläder",
        -9.69639704774554
      ],
      [
        "tittade",
        -9.696665969079307
      ],
      [
        "skydd",
        -9.697377091410477
      ],
      [
        "antalet",
        -9.697844200148227
      ],
      [
        "▁byta",
        -9.699033378200077
      ],
      [
        "▁glas",
        -9.69906991870834
      ],
      [
        "▁delta",
        -9.699889220602255
      ],
      [
        "▁pro",
        -9.700734316892195
      ],
      [
        "▁sju",
        -9.702259017388673
      ],
      [
        "▁frukost",
        -9.702646708274525
      ],
      [
        "▁stanna",
        -9.703255359935172
      ],
      [
        "▁tillhör",
        -9.70344037903548
      ],
      [
        "rakt",
        -9.704069708086816
      ],
      [
        "▁omkring",
        -9.705061211652955
      ],
      [
        "▁konto",
        -9.705272311728951
      ],
      [
        "mark",
        -9.705296176255905
      ],
      [
        "resenärer",
        -9.705300144836267
      ],
      [
        "▁bär",
        -9.706053556564072
      ],
      [
        "hem",
        -9.706304114524597
      ],
      [
        "dom",
        -9.706343186160314
      ],
      [
        "▁pappa",
        -9.706349394651271
      ],
      [
        "▁teknik",
        -9.706391276057154
      ],
      [
        "mål",
        -9.70692582488021
      ],
      [
        "vid",
        -9.706996345624974
      ],
      [
        "▁dejtingsajter",
        -9.707371169529594
      ],
      [
        "▁sjuk",
        -9.709387512799816
      ],
      [
        "du",
        -9.709428548193953
      ],
      [
        "allra",
        -9.709765544003163
      ],
      [
        "▁SEK",
        -9.709766116017372
      ],
      [
        "age",
        -9.71016462825509
      ],
      [
        "▁åker",
        -9.71046634990648
      ],
      [
        "sjö",
        -9.7112709537556
      ],
      [
        "▁artikel",
        -9.71259928243884
      ],
      [
        "satts",
        -9.71273287384731
      ],
      [
        "▁Pa",
        -9.713807171810931
      ],
      [
        "▁Barn",
        -9.71390721713768
      ],
      [
        "▁date",
        -9.714314463326211
      ],
      [
        "▁boka",
        -9.714914862488456
      ],
      [
        "▁håll",
        -9.715347154671047
      ],
      [
        "▁söka",
        -9.71573321683778
      ],
      [
        "▁fullt",
        -9.715791712023456
      ],
      [
        "▁hittade",
        -9.715901038365452
      ],
      [
        "▁lägre",
        -9.715924948013848
      ],
      [
        "▁storlek",
        -9.716817663112197
      ],
      [
        "▁Mar",
        -9.71777031867285
      ],
      [
        "▁lokal",
        -9.720609242839313
      ],
      [
        "ram",
        -9.721996896026564
      ],
      [
        "hända",
        -9.722097720436254
      ],
      [
        "vet",
        -9.723729596214133
      ],
      [
        "rar",
        -9.723837537630732
      ],
      [
        "▁Uppsala",
        -9.725200892726853
      ],
      [
        "▁säsongen",
        -9.727027553346678
      ],
      [
        "▁kontroll",
        -9.727204361754435
      ],
      [
        "ades",
        -9.729615547625496
      ],
      [
        "▁född",
        -9.729992950563846
      ],
      [
        "▁långa",
        -9.730047284365453
      ],
      [
        "sådana",
        -9.731834739567644
      ],
      [
        "▁Kina",
        -9.732254882511963
      ],
      [
        "▁mark",
        -9.732986725684935
      ],
      [
        "▁Pro",
        -9.733838656817575
      ],
      [
        "▁vuxna",
        -9.73507147044064
      ],
      [
        "▁böcker",
        -9.735796473523795
      ],
      [
        "▁vann",
        -9.735946897076797
      ],
      [
        "▁årets",
        -9.735986885065829
      ],
      [
        "▁lunch",
        -9.736841995836928
      ],
      [
        "▁områden",
        -9.73860096361703
      ],
      [
        "▁respektive",
        -9.739300278227564
      ],
      [
        "▁Fri",
        -9.739895181737165
      ],
      [
        "▁betydelse",
        -9.740019147493857
      ],
      [
        "politiska",
        -9.741591653233353
      ],
      [
        "väg",
        -9.741921608896098
      ],
      [
        "▁lokala",
        -9.742147093120375
      ],
      [
        "tidigt",
        -9.742291606198188
      ],
      [
        "▁hit",
        -9.742315094398121
      ],
      [
        "tiden",
        -9.742453321433153
      ],
      [
        "▁smak",
        -9.742802631492616
      ],
      [
        "log",
        -9.743081653527687
      ],
      [
        "▁studie",
        -9.743435953036983
      ],
      [
        "▁enkel",
        -9.743982965466257
      ],
      [
        "▁exakt",
        -9.745079275842695
      ],
      [
        "bil",
        -9.745791989325951
      ],
      [
        "▁text",
        -9.746405122573865
      ],
      [
        "’",
        -9.747031253771812
      ],
      [
        "▁trevlig",
        -9.747100880907423
      ],
      [
        "yl",
        -9.74715628767011
      ],
      [
        "▁diskutera",
        -9.747898411312184
      ],
      [
        "▁sitta",
        -9.750049309211304
      ],
      [
        "lån",
        -9.750144658290825
      ],
      [
        "EN",
        -9.751297071269478
      ],
      [
        "utveckling",
        -9.751482254540848
      ],
      [
        "▁hud",
        -9.752089875264042
      ],
      [
        "▁hösten",
        -9.752704829528394
      ],
      [
        "▁bygg",
        -9.75483357332798
      ],
      [
        "näs",
        -9.755246644443332
      ],
      [
        "▁användning",
        -9.755846115680662
      ],
      [
        "▁värme",
        -9.755975419133813
      ],
      [
        "▁billigt",
        -9.756802151456137
      ],
      [
        "▁träna",
        -9.757346782671855
      ],
      [
        "▁di",
        -9.757614268343762
      ],
      [
        "▁Ma",
        -9.757723929493588
      ],
      [
        "ella",
        -9.75857985851
      ],
      [
        "▁medel",
        -9.7585837350771
      ],
      [
        "bild",
        -9.75932150222685
      ],
      [
        "▁recensioner",
        -9.75953820531699
      ],
      [
        "efter",
        -9.760924221280455
      ],
      [
        "▁behöv",
        -9.761882119028213
      ],
      [
        "▁Över",
        -9.761930852377446
      ],
      [
        "dan",
        -9.76222463464478
      ],
      [
        "▁Me",
        -9.762235753894977
      ],
      [
        "samtliga",
        -9.762762871494
      ],
      [
        "lättare",
        -9.764729051741543
      ],
      [
        "gården",
        -9.765240353721968
      ],
      [
        "kända",
        -9.7655008078739
      ],
      [
        "erar",
        -9.765816690066343
      ],
      [
        "▁Di",
        -9.766034195883595
      ],
      [
        "▁dåligt",
        -9.766580200344139
      ],
      [
        "▁dela",
        -9.769059081331543
      ],
      [
        "ber",
        -9.769269209879145
      ],
      [
        "▁trä",
        -9.770671322783572
      ],
      [
        "▁sport",
        -9.77246604897095
      ],
      [
        "nivå",
        -9.77720808638522
      ],
      [
        "▁förstås",
        -9.778352998852947
      ],
      [
        "▁webbplats",
        -9.778764963012112
      ],
      [
        "▁syn",
        -9.779134181703686
      ],
      [
        "▁väntar",
        -9.779815462518517
      ],
      [
        "▁Foto",
        -9.780083008078819
      ],
      [
        "utmärkt",
        -9.780444209303734
      ],
      [
        "▁koll",
        -9.782086231793262
      ],
      [
        "▁läge",
        -9.782899705978569
      ],
      [
        "▁forskning",
        -9.783411973745272
      ],
      [
        "▁gäster",
        -9.783615282996582
      ],
      [
        "Hotels",
        -9.784543840511143
      ],
      [
        "▁Bi",
        -9.785148173370125
      ],
      [
        "▁far",
        -9.785199726054813
      ],
      [
        "▁ske",
        -9.785301001511032
      ],
      [
        "▁pass",
        -9.785959355618033
      ],
      [
        "▁Tänk",
        -9.786586721247902
      ],
      [
        "▁kraft",
        -9.78710805265918
      ],
      [
        "▁innehåll",
        -9.787647593637328
      ],
      [
        "▁bad",
        -9.787826617840972
      ],
      [
        "▁sverige",
        -9.788270481532475
      ],
      [
        "▁nivå",
        -9.788511102767114
      ],
      [
        "▁åtgärder",
        -9.789697864461905
      ],
      [
        "▁konstatera",
        -9.78980389280441
      ],
      [
        "▁centrum",
        -9.789940750279566
      ],
      [
        "▁ålder",
        -9.790931858337398
      ],
      [
        "enbart",
        -9.791609212809071
      ],
      [
        "▁område",
        -9.791853378859221
      ],
      [
        "▁Ro",
        -9.793343902103043
      ],
      [
        "▁Peter",
        -9.793421867890526
      ],
      [
        "köpte",
        -9.793631938763658
      ],
      [
        "▁sade",
        -9.79417291366247
      ],
      [
        "▁höger",
        -9.794380733380441
      ],
      [
        "▁fl",
        -9.795769311650066
      ],
      [
        "spelade",
        -9.79603425644468
      ],
      [
        "▁handla",
        -9.7968489059783
      ],
      [
        "▁massor",
        -9.798625944822222
      ],
      [
        "kostar",
        -9.79883171400251
      ],
      [
        "▁känsla",
        -9.799534935800615
      ],
      [
        "▁variera",
        -9.799733348553563
      ],
      [
        "fallet",
        -9.799958620048887
      ],
      [
        "▁privat",
        -9.801222955819126
      ],
      [
        "▁borta",
        -9.80252103565186
      ],
      [
        "skatt",
        -9.802762132784167
      ],
      [
        "▁högsta",
        -9.803049977345008
      ],
      [
        "▁dejtingsidor",
        -9.803964451825285
      ],
      [
        "▁maskin",
        -9.804689239252623
      ],
      [
        "▁Ga",
        -9.805046197836887
      ],
      [
        "akt",
        -9.805394823206793
      ],
      [
        "nummer",
        -9.807797767091412
      ],
      [
        "▁styr",
        -9.808335158213026
      ],
      [
        "▁He",
        -9.808379009208892
      ],
      [
        "▁snar",
        -9.809278628633196
      ],
      [
        "dal",
        -9.809328830755097
      ],
      [
        "▁Kom",
        -9.8093603935592
      ],
      [
        "tillräckligt",
        -9.809844288614299
      ],
      [
        "▁lärare",
        -9.811380958897155
      ],
      [
        "tur",
        -9.811674447877897
      ],
      [
        "bygger",
        -9.812168755058336
      ],
      [
        "▁ladda",
        -9.814012185041786
      ],
      [
        "▁låt",
        -9.81433409010402
      ],
      [
        "dagarna",
        -9.815080167898726
      ],
      [
        "En",
        -9.815928934772856
      ],
      [
        "▁video",
        -9.816032184197775
      ],
      [
        "▁klass",
        -9.816625954673695
      ],
      [
        "området",
        -9.817133994180196
      ],
      [
        "löst",
        -9.818881993561618
      ],
      [
        "▁härlig",
        -9.819036709591355
      ],
      [
        "läser",
        -9.820362826907052
      ],
      [
        "gre",
        -9.820474905917294
      ],
      [
        "▁ensam",
        -9.82072503314513
      ],
      [
        "Samtidigt",
        -9.821334521195613
      ],
      [
        "kor",
        -9.821795596080534
      ],
      [
        "▁lyckas",
        -9.82252615150151
      ],
      [
        "▁verktyg",
        -9.822870515057344
      ],
      [
        "▁Wi",
        -9.822978854157844
      ],
      [
        "▁utför",
        -9.823407133649626
      ],
      [
        "▁läs",
        -9.823816984477789
      ],
      [
        "▁bit",
        -9.82460940934027
      ],
      [
        "▁effekt",
        -9.824784715344455
      ],
      [
        "▁reda",
        -9.828797320102025
      ],
      [
        "▁Maria",
        -9.82910711365077
      ],
      [
        "▁platser",
        -9.829138442384677
      ],
      [
        "▁tak",
        -9.829615670323948
      ],
      [
        "▁besökare",
        -9.830621202656438
      ],
      [
        "ställer",
        -9.830659514489872
      ],
      [
        "fors",
        -9.830779929242594
      ],
      [
        "vatten",
        -9.831043792506453
      ],
      [
        "▁säkerhet",
        -9.831064851556754
      ],
      [
        "▁Z",
        -9.83183274368259
      ],
      [
        "▁kompetens",
        -9.832428865663326
      ],
      [
        "▁skada",
        -9.834029580003122
      ],
      [
        "▁läst",
        -9.834129448257015
      ],
      [
        "▁Hans",
        -9.834365755595526
      ],
      [
        "dagen",
        -9.83465371766827
      ],
      [
        "Varje",
        -9.835552465382063
      ],
      [
        "▁Ingen",
        -9.835645268309538
      ],
      [
        "▁bank",
        -9.835663915238177
      ],
      [
        "▁död",
        -9.836084350597142
      ],
      [
        "▁Två",
        -9.836583301757292
      ],
      [
        "▁ekonomi",
        -9.83683585460439
      ],
      [
        "han",
        -9.838252605939719
      ],
      [
        "Hoppas",
        -9.83863436455301
      ],
      [
        "▁standard",
        -9.838703653122012
      ],
      [
        "▁Sp",
        -9.83894581381484
      ],
      [
        "börjat",
        -9.83904425017716
      ],
      [
        "▁gällande",
        -9.839206004262294
      ],
      [
        "▁försök",
        -9.839499638092432
      ],
      [
        "menar",
        -9.84007512224558
      ],
      [
        "ank",
        -9.840854083078336
      ],
      [
        "pris",
        -9.841026910614923
      ],
      [
        "▁Låt",
        -9.842358357080494
      ],
      [
        "rad",
        -9.844078596513407
      ],
      [
        "▁framåt",
        -9.845067971228737
      ],
      [
        "▁populära",
        -9.845131497375693
      ],
      [
        "▁sälja",
        -9.845286977096292
      ],
      [
        "verket",
        -9.845907386962537
      ],
      [
        "gick",
        -9.847259707680259
      ],
      [
        "▁barnet",
        -9.84753752074783
      ],
      [
        "ite",
        -9.847882414105518
      ],
      [
        "lat",
        -9.848271492518489
      ],
      [
        "▁mängd",
        -9.848534144279846
      ],
      [
        "▁Su",
        -9.850951040526297
      ],
      [
        "▁chans",
        -9.851383876515307
      ],
      [
        "sida",
        -9.851442087422585
      ],
      [
        "▁lista",
        -9.851678197453852
      ],
      [
        "▁valt",
        -9.852239847611642
      ],
      [
        "▁ekonomiska",
        -9.853269719602338
      ],
      [
        "▁anställda",
        -9.854861686840765
      ],
      [
        "▁filmen",
        -9.855922837169446
      ],
      [
        "▁nån",
        -9.85728192967863
      ],
      [
        "▁ben",
        -9.857473050271818
      ],
      [
        "▁skola",
        -9.857812388061232
      ],
      [
        "▁hårt",
        -9.857986596514912
      ],
      [
        "ator",
        -9.858193505580243
      ],
      [
        "▁polis",
        -9.858445279755434
      ],
      [
        "▁kurs",
        -9.85893353629209
      ],
      [
        "▁önskar",
        -9.858944529336176
      ],
      [
        "ings",
        -9.859744231005974
      ],
      [
        "▁kommentar",
        -9.859883326296258
      ],
      [
        "▁dam",
        -9.859891214437473
      ],
      [
        "▁helg",
        -9.860068432950545
      ],
      [
        "pp",
        -9.861154042470309
      ],
      [
        "www",
        -9.861280569836191
      ],
      [
        "lade",
        -9.86186362672053
      ],
      [
        "▁tillgängliga",
        -9.862309400458365
      ],
      [
        "▁höst",
        -9.862453309837504
      ],
      [
        "▁trygg",
        -9.862754429316114
      ],
      [
        "▁prova",
        -9.86298478240167
      ],
      [
        "▁säkerhets",
        -9.863210094223128
      ],
      [
        "inklusive",
        -9.863482504155588
      ],
      [
        "viktigaste",
        -9.863808870352967
      ],
      [
        "én",
        -9.863832291137498
      ],
      [
        "ron",
        -9.863841950670023
      ],
      [
        "Z",
        -9.865141237683941
      ],
      [
        "est",
        -9.86576725357595
      ],
      [
        "▁Jan",
        -9.866385337286568
      ],
      [
        "▁lager",
        -9.866896366152352
      ],
      [
        "san",
        -9.868970171569462
      ],
      [
        "▁Li",
        -9.869071535962162
      ],
      [
        "namnet",
        -9.869618442250637
      ],
      [
        "▁Välkommen",
        -9.869785888081335
      ],
      [
        "▁bidrag",
        -9.869951426027157
      ],
      [
        "målet",
        -9.870591578448513
      ],
      [
        "▁stress",
        -9.871648466522878
      ],
      [
        "▁drog",
        -9.871649015791961
      ],
      [
        "▁regn",
        -9.872262351487956
      ],
      [
        "http",
        -9.872756186919531
      ],
      [
        "▁sidor",
        -9.872770521903808
      ],
      [
        "▁Sk",
        -9.872781300402456
      ],
      [
        "▁social",
        -9.872943334998878
      ],
      [
        "▁rolig",
        -9.873515238943112
      ],
      [
        "maskinöver",
        -9.874182776305787
      ],
      [
        "▁No",
        -9.874311747260082
      ],
      [
        "utgör",
        -9.874968445618933
      ],
      [
        "stod",
        -9.875192625805845
      ],
      [
        "▁Val",
        -9.876372810887608
      ],
      [
        "trodde",
        -9.87639755576094
      ],
      [
        "branschen",
        -9.876529806298658
      ],
      [
        "Å",
        -9.877327104639125
      ],
      [
        "▁Fortsätt",
        -9.877435147076069
      ],
      [
        "▁stan",
        -9.87888243284474
      ],
      [
        "▁övrigt",
        -9.879547415549368
      ],
      [
        "▁Gud",
        -9.87968907446385
      ],
      [
        "▁Lo",
        -9.879745692528745
      ],
      [
        "▁middag",
        -9.879869627436538
      ],
      [
        "sättning",
        -9.881099567581211
      ],
      [
        "▁Lars",
        -9.881360362636594
      ],
      [
        "▁lyssna",
        -9.881396704057641
      ],
      [
        "ingen",
        -9.881703466358337
      ],
      [
        "▁test",
        -9.881769922945747
      ],
      [
        "grupp",
        -9.882017843838728
      ],
      [
        "▁funktion",
        -9.88360838303848
      ],
      [
        "▁mil",
        -9.884325310895925
      ],
      [
        "▁leda",
        -9.884635178702394
      ],
      [
        "arbete",
        -9.886551738867444
      ],
      [
        "▁vinter",
        -9.88720277955879
      ],
      [
        "we",
        -9.88737692217891
      ],
      [
        "▁sjukdom",
        -9.888020936449832
      ],
      [
        "valet",
        -9.88854389705568
      ],
      [
        "▁Hem",
        -9.888785344753808
      ],
      [
        "▁Bar",
        -9.889049031525738
      ],
      [
        "▁bolag",
        -9.890748557535774
      ],
      [
        "▁tjej",
        -9.891142812017446
      ],
      [
        "äger",
        -9.89240161638994
      ],
      [
        "närmare",
        -9.8939529502454
      ],
      [
        "kul",
        -9.894168582788495
      ],
      [
        "▁Trots",
        -9.894804309304057
      ],
      [
        "▁kommande",
        -9.895019955795144
      ],
      [
        "▁universitet",
        -9.895659112002749
      ],
      [
        "Ä",
        -9.89578073034241
      ],
      [
        "▁Andersson",
        -9.895839770534785
      ],
      [
        "▁dejtingsida",
        -9.898865991852906
      ],
      [
        "▁Hög",
        -9.898987852186274
      ],
      [
        "sådant",
        -9.899282236571704
      ],
      [
        "▁Berg",
        -9.899674185149468
      ],
      [
        "Klicka",
        -9.900333470774282
      ],
      [
        "▁klimat",
        -9.90040806799391
      ],
      [
        "skor",
        -9.901738222764424
      ],
      [
        "▁äter",
        -9.902907296611485
      ],
      [
        "▁kropp",
        -9.903520499573624
      ],
      [
        "pass",
        -9.904210591212008
      ],
      [
        "▁Bara",
        -9.904576813041357
      ],
      [
        "▁Park",
        -9.90507369845789
      ],
      [
        "ting",
        -9.905193904239278
      ],
      [
        "▁personliga",
        -9.90539563231296
      ],
      [
        "pan",
        -9.906623103061332
      ],
      [
        "▁leverera",
        -9.90723868099599
      ],
      [
        "▁prov",
        -9.907279772795398
      ],
      [
        "chef",
        -9.907402637915315
      ],
      [
        "▁Finns",
        -9.90747952571498
      ],
      [
        "▁Sam",
        -9.907699571063308
      ],
      [
        "▁ordning",
        -9.907893145483742
      ],
      [
        "▁natten",
        -9.908528056022732
      ],
      [
        "and",
        -9.908829609597342
      ],
      [
        "▁partner",
        -9.910124612598777
      ],
      [
        "▁Car",
        -9.910261824357669
      ],
      [
        "▁rent",
        -9.910638626303411
      ],
      [
        "▁parti",
        -9.911452050618916
      ],
      [
        "▁Lund",
        -9.91166870370525
      ],
      [
        "verk",
        -9.912093544080363
      ],
      [
        "▁sist",
        -9.912411697655386
      ],
      [
        "▁starta",
        -9.912433624001896
      ],
      [
        "▁svara",
        -9.912476766843689
      ],
      [
        "vore",
        -9.913254735531162
      ],
      [
        "▁förvänta",
        -9.913686901109571
      ],
      [
        "material",
        -9.914401022166409
      ],
      [
        "äck",
        -9.915117409703772
      ],
      [
        "teknik",
        -9.915553456160003
      ],
      [
        "medel",
        -9.916349240963052
      ],
      [
        "▁tankar",
        -9.916675323355697
      ],
      [
        "perioden",
        -9.917778689737851
      ],
      [
        "ff",
        -9.917908733890346
      ],
      [
        "▁livs",
        -9.918172674872928
      ],
      [
        "Ja",
        -9.918883175181273
      ],
      [
        "▁tryck",
        -9.919642498308992
      ],
      [
        "▁slå",
        -9.919772799095465
      ],
      [
        "▁valde",
        -9.919793554071928
      ],
      [
        "ewards",
        -9.920178755928832
      ],
      [
        "▁Del",
        -9.920961589705708
      ],
      [
        "däremot",
        -9.921075097702074
      ],
      [
        "ow",
        -9.921097878652843
      ],
      [
        "▁Erik",
        -9.921139688032122
      ],
      [
        "▁någonsin",
        -9.921442530633124
      ],
      [
        "ansvarig",
        -9.921960133010582
      ],
      [
        "met",
        -9.922303724797631
      ],
      [
        "produkter",
        -9.922406143684292
      ],
      [
        "▁kommentarer",
        -9.922425232978343
      ],
      [
        "▁priset",
        -9.922929542700825
      ],
      [
        "ökad",
        -9.923097808438449
      ],
      [
        "▁special",
        -9.9232396648062
      ],
      [
        "all",
        -9.924383480273715
      ],
      [
        "▁serie",
        -9.92448108290223
      ],
      [
        "▁etc",
        -9.92493905868433
      ],
      [
        "▁Skåne",
        -9.925185685743626
      ],
      [
        "▁Lite",
        -9.925277837377148
      ],
      [
        "br",
        -9.927663291907248
      ],
      [
        "▁bas",
        -9.930203039446704
      ],
      [
        "▁skatte",
        -9.930949162237049
      ],
      [
        "▁personlig",
        -9.931525915701092
      ],
      [
        "▁Hi",
        -9.931861940648616
      ],
      [
        "▁uppskatta",
        -9.932023025893963
      ],
      [
        "▁samhälls",
        -9.932231442022669
      ],
      [
        "▁ändring",
        -9.932627534242942
      ],
      [
        "▁villkor",
        -9.933016074532897
      ],
      [
        "jämfört",
        -9.933285587244956
      ],
      [
        "▁timme",
        -9.933295793218567
      ],
      [
        "▁påverkar",
        -9.933413201597348
      ],
      [
        "▁lördag",
        -9.933929209701033
      ],
      [
        "▁guld",
        -9.934108679417033
      ],
      [
        "▁trafik",
        -9.93455748218304
      ],
      [
        "▁Nya",
        -9.934623877894445
      ],
      [
        "verksamhet",
        -9.93490029961248
      ],
      [
        "let",
        -9.935305077965113
      ],
      [
        "▁vakna",
        -9.935960604475175
      ],
      [
        "▁Pris",
        -9.936337445399525
      ],
      [
        "▁bar",
        -9.937411759453862
      ],
      [
        "▁free",
        -9.93821441103358
      ],
      [
        "tjänst",
        -9.938340342217964
      ],
      [
        "▁fantastiskt",
        -9.938575989145502
      ],
      [
        "▁kärlek",
        -9.939008267831626
      ],
      [
        "Få",
        -9.93932450085219
      ],
      [
        "▁bakgrund",
        -9.940447427357677
      ],
      [
        "nade",
        -9.940950566967837
      ],
      [
        "▁uppdatera",
        -9.942008291763228
      ],
      [
        "▁klicka",
        -9.942163877330444
      ],
      [
        "▁Ca",
        -9.942576588322089
      ],
      [
        "▁syfte",
        -9.944284134893016
      ],
      [
        "▁ligga",
        -9.945626661888861
      ],
      [
        "▁lön",
        -9.946229087708778
      ],
      [
        "▁Välj",
        -9.946408615916948
      ],
      [
        "tjänster",
        -9.946839240588012
      ],
      [
        "▁Tre",
        -9.947020190369924
      ],
      [
        "▁fantastisk",
        -9.947260054245037
      ],
      [
        "fritt",
        -9.94750044094266
      ],
      [
        "▁Mitt",
        -9.947553611799405
      ],
      [
        "gas",
        -9.947743474667158
      ],
      [
        "▁förbi",
        -9.947806703237289
      ],
      [
        "ledare",
        -9.949806109877171
      ],
      [
        "▁väder",
        -9.949903940964939
      ],
      [
        "▁Tor",
        -9.950120637518545
      ],
      [
        "▁Gr",
        -9.95034996530068
      ],
      [
        "▁fredag",
        -9.951231162703209
      ],
      [
        "▁färger",
        -9.951923075300016
      ],
      [
        "▁fa",
        -9.954327267890523
      ],
      [
        "Ibland",
        -9.954627288523799
      ],
      [
        "▁låna",
        -9.954671786686793
      ],
      [
        "▁blå",
        -9.95490043247919
      ],
      [
        "▁våren",
        -9.954989895327637
      ],
      [
        "▁vinst",
        -9.956282989692033
      ],
      [
        "▁Fast",
        -9.956328936145516
      ],
      [
        "▁fönster",
        -9.956513683379358
      ],
      [
        "▁ME",
        -9.95702716338985
      ],
      [
        "▁ungdomar",
        -9.95757274022242
      ],
      [
        "ive",
        -9.958430312502198
      ],
      [
        "stöd",
        -9.958739319935198
      ],
      [
        "▁våld",
        -9.959421719894296
      ],
      [
        "▁öppen",
        -9.959602387926706
      ],
      [
        "bolag",
        -9.95968598269427
      ],
      [
        "▁skäl",
        -9.959721930100422
      ],
      [
        "▁dålig",
        -9.959953379719614
      ],
      [
        "▁läkare",
        -9.960065512910253
      ],
      [
        "heten",
        -9.960308795379433
      ],
      [
        "kändes",
        -9.961293335209534
      ],
      [
        "▁omdömet",
        -9.961635901511649
      ],
      [
        "därefter",
        -9.9617098773602
      ],
      [
        "saknar",
        -9.962606115714546
      ],
      [
        "▁nej",
        -9.963089998179681
      ],
      [
        "▁tillstånd",
        -9.96377096237164
      ],
      [
        "▁talar",
        -9.966476281562816
      ],
      [
        "▁uppgift",
        -9.96696926309683
      ],
      [
        "▁listan",
        -9.96730489199374
      ],
      [
        "▁häst",
        -9.967687044315515
      ],
      [
        "▁risker",
        -9.967880395833742
      ],
      [
        "mor",
        -9.968040114797333
      ],
      [
        "▁Andra",
        -9.968266751544055
      ],
      [
        "resa",
        -9.968377938391303
      ],
      [
        "▁frukt",
        -9.970364269462118
      ],
      [
        "▁Stor",
        -9.970836783966956
      ],
      [
        "drygt",
        -9.971683744955358
      ],
      [
        "lad",
        -9.972391940989064
      ],
      [
        "lik",
        -9.972400740468306
      ],
      [
        "starkt",
        -9.972933541336863
      ],
      [
        "▁Te",
        -9.973286513650466
      ],
      [
        "funnit",
        -9.973771861729196
      ],
      [
        "ister",
        -9.97408715924432
      ],
      [
        "vik",
        -9.974286444086921
      ],
      [
        "tryck",
        -9.974508552511972
      ],
      [
        "ihåg",
        -9.974535422334496
      ],
      [
        "nor",
        -9.974672139763696
      ],
      [
        "▁cookies",
        -9.974743466762764
      ],
      [
        "▁skit",
        -9.976818790026293
      ],
      [
        "▁varmt",
        -9.97771140575273
      ],
      [
        "▁Sol",
        -9.978055884308272
      ],
      [
        "her",
        -9.978242640424407
      ],
      [
        "fin",
        -9.978263351034235
      ],
      [
        "▁erbjudanden",
        -9.978346222364841
      ],
      [
        "äntligen",
        -9.978732387854281
      ],
      [
        "▁förutsättningar",
        -9.978841495067535
      ],
      [
        "▁post",
        -9.980014941590271
      ],
      [
        "hört",
        -9.98003299063414
      ],
      [
        "▁brott",
        -9.980819546481166
      ],
      [
        "▁plus",
        -9.98117765563471
      ],
      [
        "bu",
        -9.982770776078903
      ],
      [
        "stra",
        -9.98309363485313
      ],
      [
        "one",
        -9.983107731622946
      ],
      [
        "Vilken",
        -9.983184816595857
      ],
      [
        "har",
        -9.983805321871417
      ],
      [
        "självklart",
        -9.983932766679938
      ],
      [
        "▁sluta",
        -9.984679940128729
      ],
      [
        "▁oro",
        -9.985106787584273
      ],
      [
        "ull",
        -9.985394422167996
      ],
      [
        "▁lägenhet",
        -9.985838221299518
      ],
      [
        "▁tittar",
        -9.985937352559665
      ],
      [
        "▁San",
        -9.986067672693023
      ],
      [
        "▁avtal",
        -9.98634850122739
      ],
      [
        "det",
        -9.986364685416703
      ],
      [
        "▁gilla",
        -9.986973410901259
      ],
      [
        "▁aktiviteter",
        -9.988967028862948
      ],
      [
        "▁passa",
        -9.989149247382732
      ],
      [
        "JL",
        -9.989548787586807
      ],
      [
        "▁grader",
        -9.99035752519939
      ],
      [
        "▁Hotels",
        -9.991077740103089
      ],
      [
        "▁Finland",
        -9.991202267176151
      ],
      [
        "undrar",
        -9.991210944695734
      ],
      [
        "▁omdöme",
        -9.993033595675932
      ],
      [
        "▁miss",
        -9.993529313977163
      ],
      [
        "▁Gratis",
        -9.993856967669979
      ],
      [
        "information",
        -9.99412146596007
      ],
      [
        "▁osv",
        -9.994406829999075
      ],
      [
        "▁imorgon",
        -9.998289011471662
      ],
      [
        "IN",
        -9.99878354805461
      ],
      [
        "kläder",
        -9.999015832653601
      ],
      [
        "▁fundera",
        -9.999037330995705
      ],
      [
        "▁medlem",
        -9.999359479107635
      ],
      [
        "alt",
        -9.999433003314923
      ],
      [
        "▁mjuk",
        -9.999631913429974
      ],
      [
        "▁medarbetare",
        -9.9998190085925
      ],
      [
        "▁period",
        -9.999965122898596
      ],
      [
        "din",
        -10.000271666450802
      ],
      [
        "par",
        -10.00035866963669
      ],
      [
        "trax",
        -10.000795531798692
      ],
      [
        "Mer",
        -10.001061494699593
      ],
      [
        "▁sova",
        -10.00195277746951
      ],
      [
        "▁vita",
        -10.002681328995813
      ],
      [
        "ekt",
        -10.002975492147227
      ],
      [
        "▁internationella",
        -10.003196981618979
      ],
      [
        "Några",
        -10.003204289804087
      ],
      [
        "▁norr",
        -10.003352748635168
      ],
      [
        "res",
        -10.003465682022572
      ],
      [
        "▁knappt",
        -10.00384188486224
      ],
      [
        "bet",
        -10.00420830415186
      ],
      [
        "▁lösning",
        -10.004288181182416
      ],
      [
        "▁utvecklas",
        -10.004522943606037
      ],
      [
        "▁solen",
        -10.005506826403378
      ],
      [
        "▁spelet",
        -10.005663055983838
      ],
      [
        "▁blod",
        -10.006076768311067
      ],
      [
        "▁vattnet",
        -10.006417015997506
      ],
      [
        "▁promenad",
        -10.00661179393734
      ],
      [
        "lämnar",
        -10.006891946354767
      ],
      [
        "köper",
        -10.007167192229376
      ],
      [
        "▁kalla",
        -10.007509951556555
      ],
      [
        "▁Din",
        -10.007686370170036
      ],
      [
        "▁stjärnor",
        -10.008870769790546
      ],
      [
        "förutom",
        -10.009151518978305
      ],
      [
        "▁djup",
        -10.009204816290172
      ],
      [
        "▁ingenting",
        -10.009497410666754
      ],
      [
        "▁nåt",
        -10.009690695444
      ],
      [
        "▁projektet",
        -10.009839233696923
      ],
      [
        "dvs",
        -10.010155396929756
      ],
      [
        "▁glöm",
        -10.011196187175644
      ],
      [
        "▁njuta",
        -10.012843813686503
      ],
      [
        "▁idé",
        -10.013290638717946
      ],
      [
        "ADRESS",
        -10.013738818598823
      ],
      [
        "▁sam",
        -10.014170265893405
      ],
      [
        "▁hamna",
        -10.014635113352911
      ],
      [
        "naturligtvis",
        -10.01473450737512
      ],
      [
        "utbildning",
        -10.017335921085827
      ],
      [
        "▁Er",
        -10.01746055811136
      ],
      [
        "bra",
        -10.018219903060068
      ],
      [
        "▁restaurang",
        -10.018263430679717
      ],
      [
        "led",
        -10.01890775951789
      ],
      [
        "sikt",
        -10.018955390291195
      ],
      [
        "▁eventuell",
        -10.019549074560361
      ],
      [
        "▁dejt",
        -10.019868804845299
      ],
      [
        "▁Fa",
        -10.019970803697099
      ],
      [
        "▁Or",
        -10.020345704240928
      ],
      [
        "▁yrkes",
        -10.02035720950224
      ],
      [
        "▁åtta",
        -10.020424838128415
      ],
      [
        "skickade",
        -10.020785297035355
      ],
      [
        "använt",
        -10.021257707783587
      ],
      [
        "känt",
        -10.021634699802947
      ],
      [
        "tog",
        -10.021690667157388
      ],
      [
        "▁fantastiska",
        -10.02181866743632
      ],
      [
        "▁längs",
        -10.023482754717413
      ],
      [
        "▁försäljning",
        -10.023519758035333
      ],
      [
        "▁Martin",
        -10.023600158594427
      ],
      [
        "antingen",
        -10.024295652523158
      ],
      [
        "▁budget",
        -10.024682419675061
      ],
      [
        "▁riktig",
        -10.024698467700501
      ],
      [
        "▁lagt",
        -10.024809878552638
      ],
      [
        "▁Använd",
        -10.02484792173048
      ],
      [
        "▁modern",
        -10.025761752797834
      ],
      [
        "▁modell",
        -10.026265022909516
      ],
      [
        "▁Nr",
        -10.026557295363812
      ],
      [
        "▁tala",
        -10.026573171302571
      ],
      [
        "körde",
        -10.027049899475651
      ],
      [
        "▁matcher",
        -10.02746991727101
      ],
      [
        "▁genomföra",
        -10.027706230973328
      ],
      [
        "fattar",
        -10.02837494272965
      ],
      [
        "▁År",
        -10.030730183988716
      ],
      [
        "▁spår",
        -10.031689614607288
      ],
      [
        "▁Nord",
        -10.031844634878464
      ],
      [
        "▁Först",
        -10.031865096125973
      ],
      [
        "andet",
        -10.032024808427806
      ],
      [
        "stått",
        -10.03239103024982
      ],
      [
        "rus",
        -10.032508897185135
      ],
      [
        "▁Johansson",
        -10.032561290856018
      ],
      [
        "▁Po",
        -10.0330764592152
      ],
      [
        "▁Bu",
        -10.033336916017133
      ],
      [
        "rejäl",
        -10.033755882714903
      ],
      [
        "▁To",
        -10.03388912625936
      ],
      [
        "▁skön",
        -10.033899967095383
      ],
      [
        "▁beställa",
        -10.03411094952895
      ],
      [
        "▁undvika",
        -10.035135651909997
      ],
      [
        "▁leta",
        -10.03553965743705
      ],
      [
        "▁mesta",
        -10.035850557640286
      ],
      [
        "äng",
        -10.037652564433257
      ],
      [
        "▁tids",
        -10.038300078958205
      ],
      [
        "▁söndag",
        -10.038871124379265
      ],
      [
        "▁utbud",
        -10.039066303873106
      ],
      [
        "▁tvinga",
        -10.03929090642304
      ],
      [
        "bart",
        -10.04019344723524
      ],
      [
        "les",
        -10.040503786111007
      ],
      [
        "ernas",
        -10.040579092095667
      ],
      [
        "▁Namn",
        -10.040591761969747
      ],
      [
        "finner",
        -10.042337321249653
      ],
      [
        "▁ställe",
        -10.042438958452399
      ],
      [
        "samt",
        -10.043704043630237
      ],
      [
        "▁mode",
        -10.044381689553402
      ],
      [
        "För",
        -10.0444769907563
      ],
      [
        "▁Visst",
        -10.046071372471161
      ],
      [
        "klass",
        -10.047136403723243
      ],
      [
        "▁alkohol",
        -10.047250093187364
      ],
      [
        "▁cykel",
        -10.048054943959277
      ],
      [
        "▁mörk",
        -10.048115253260764
      ],
      [
        "▁annorlunda",
        -10.048913775813402
      ],
      [
        "råd",
        -10.048967519657605
      ],
      [
        "▁Bland",
        -10.04910970393844
      ],
      [
        "▁ägg",
        -10.049391765446137
      ],
      [
        "▁drabba",
        -10.049627865744155
      ],
      [
        "holm",
        -10.049788872385799
      ],
      [
        "bjuder",
        -10.049946584004136
      ],
      [
        "▁sten",
        -10.049971604844353
      ],
      [
        "▁Mat",
        -10.050081610424433
      ],
      [
        "ack",
        -10.050604641898719
      ],
      [
        "▁rummet",
        -10.051260998936552
      ],
      [
        "▁datorn",
        -10.051425361804695
      ],
      [
        "pratar",
        -10.052047611033116
      ],
      [
        "▁Th",
        -10.054009730408348
      ],
      [
        "▁mannen",
        -10.054752032433246
      ],
      [
        "▁huden",
        -10.05487872540538
      ],
      [
        "▁ansökan",
        -10.054889732438014
      ],
      [
        "▁www",
        -10.055445134830732
      ],
      [
        "räcker",
        -10.05588808070666
      ],
      [
        "växer",
        -10.05593563498785
      ],
      [
        "▁huvudet",
        -10.056253862376975
      ],
      [
        "▁choklad",
        -10.057116620230758
      ],
      [
        "AR",
        -10.05859100003731
      ],
      [
        "kallade",
        -10.059153511795195
      ],
      [
        "▁samhälle",
        -10.059548912393044
      ],
      [
        "▁värld",
        -10.059910125495685
      ],
      [
        "▁företags",
        -10.060274156438272
      ],
      [
        "cy",
        -10.061232689902543
      ],
      [
        "▁patienter",
        -10.061447371339874
      ],
      [
        "▁Ko",
        -10.06201910650976
      ],
      [
        "lö",
        -10.06225222322776
      ],
      [
        "bord",
        -10.063044986480644
      ],
      [
        "za",
        -10.063488845301906
      ],
      [
        "gård",
        -10.063579699808745
      ],
      [
        "▁Con",
        -10.063605127830359
      ],
      [
        "jo",
        -10.063659767844127
      ],
      [
        "▁Carl",
        -10.063967304297753
      ],
      [
        "slut",
        -10.064135111749435
      ],
      [
        "▁Lägg",
        -10.064980338427974
      ],
      [
        "▁må",
        -10.06523032877691
      ],
      [
        "▁kommuner",
        -10.065338101943812
      ],
      [
        "ämre",
        -10.06566712097148
      ],
      [
        "garantera",
        -10.065699628807248
      ],
      [
        "dig",
        -10.06660111059639
      ],
      [
        "▁Tyskland",
        -10.066757644372792
      ],
      [
        "▁Norge",
        -10.06731076007761
      ],
      [
        "▁mår",
        -10.067370400261295
      ],
      [
        "▁Sätt",
        -10.068047222316205
      ],
      [
        "▁Svensk",
        -10.068300175306256
      ],
      [
        "Tack",
        -10.068378461153113
      ],
      [
        "ang",
        -10.069321947866477
      ],
      [
        "▁Bästa",
        -10.069392505519764
      ],
      [
        "▁skydda",
        -10.06946640208965
      ],
      [
        "▁Ge",
        -10.069520156190027
      ],
      [
        "▁affärs",
        -10.069708086833165
      ],
      [
        "▁bloggen",
        -10.071218979552457
      ],
      [
        "nder",
        -10.071978739589333
      ],
      [
        "▁öppet",
        -10.07251724865109
      ],
      [
        "lyckades",
        -10.07341370053488
      ],
      [
        "namn",
        -10.074086881704194
      ],
      [
        "▁förmåga",
        -10.07456885015694
      ],
      [
        "▁stockholm",
        -10.074777487826898
      ],
      [
        "▁Ad",
        -10.074843309172604
      ],
      [
        "▁bilar",
        -10.075094837625636
      ],
      [
        "▁utvecklingen",
        -10.076233128238218
      ],
      [
        "▁Fredrik",
        -10.077683734321573
      ],
      [
        "▁foto",
        -10.07811456796357
      ],
      [
        "▁live",
        -10.07907636941832
      ],
      [
        "▁OK",
        -10.080260680171877
      ],
      [
        "sol",
        -10.081300131554977
      ],
      [
        "▁köpt",
        -10.081501119886122
      ],
      [
        "plötsligt",
        -10.08181896017364
      ],
      [
        "▁Bild",
        -10.0823184476177
      ],
      [
        "▁högst",
        -10.082647473410336
      ],
      [
        "▁kost",
        -10.082943454868031
      ],
      [
        "nuvarande",
        -10.083430021470264
      ],
      [
        "🙂",
        -10.084763592885622
      ],
      [
        "▁intresserad",
        -10.085085820047594
      ],
      [
        "▁Örebro",
        -10.085120613480065
      ],
      [
        "klarar",
        -10.085423166387294
      ],
      [
        "▁brist",
        -10.085486869128468
      ],
      [
        "▁Dam",
        -10.086011117459078
      ],
      [
        "▁Sch",
        -10.086103540716715
      ],
      [
        "▁herr",
        -10.086114480069236
      ],
      [
        "▁hot",
        -10.086268671029988
      ],
      [
        "▁Hos",
        -10.086321252337616
      ],
      [
        "▁Anmäl",
        -10.086580801544436
      ],
      [
        "center",
        -10.086852578094634
      ],
      [
        "▁Gör",
        -10.08715174597417
      ],
      [
        "▁havet",
        -10.087502182252946
      ],
      [
        "▁Ba",
        -10.08763993766351
      ],
      [
        "hänt",
        -10.08832046115811
      ],
      [
        "▁situation",
        -10.088457340392337
      ],
      [
        "via",
        -10.089329341046232
      ],
      [
        "kombinera",
        -10.089968822002806
      ],
      [
        "tel",
        -10.090861066167138
      ],
      [
        "▁rättigheter",
        -10.09186308644911
      ],
      [
        "Igår",
        -10.093171615242147
      ],
      [
        "▁ma",
        -10.093215930104831
      ],
      [
        "▁mån",
        -10.093830009693242
      ],
      [
        "område",
        -10.094580722413824
      ],
      [
        "liggande",
        -10.094674696706022
      ],
      [
        "▁tillväxt",
        -10.095497361062357
      ],
      [
        "anses",
        -10.096307215795228
      ],
      [
        "kel",
        -10.09648384970072
      ],
      [
        "ökade",
        -10.097122033657058
      ],
      [
        "▁säsong",
        -10.097705205385772
      ],
      [
        "▁satte",
        -10.097900925547433
      ],
      [
        "rör",
        -10.098396559647316
      ],
      [
        "▁positiv",
        -10.098536485461478
      ],
      [
        "möta",
        -10.098684352120852
      ],
      [
        "ivetvis",
        -10.09869707943932
      ],
      [
        "▁tionde",
        -10.09894480312261
      ],
      [
        "▁enkla",
        -10.09951576339694
      ],
      [
        "▁avsluta",
        -10.09992978217846
      ],
      [
        "▁princip",
        -10.099981378322724
      ],
      [
        "▁förhållande",
        -10.101261228274325
      ],
      [
        "▁himla",
        -10.10337210075741
      ],
      [
        "▁kostnader",
        -10.10350726267655
      ],
      [
        "▁vacker",
        -10.103843482992758
      ],
      [
        "▁säljer",
        -10.104982191154077
      ],
      [
        "Vilka",
        -10.106341028942182
      ],
      [
        "▁amerikanska",
        -10.107039197312664
      ],
      [
        "▁kontrollera",
        -10.107902082901157
      ],
      [
        "▁Casino",
        -10.107961661225705
      ],
      [
        "någonting",
        -10.109289421552727
      ],
      [
        "▁miljarder",
        -10.109639855906961
      ],
      [
        "fylla",
        -10.110983658787331
      ],
      [
        "▁transport",
        -10.111116887476541
      ],
      [
        "line",
        -10.111180130994764
      ],
      [
        "▁Sport",
        -10.11127283386201
      ],
      [
        "▁Online",
        -10.111641764783233
      ],
      [
        "▁nyligen",
        -10.112610057412624
      ],
      [
        "▁Inn",
        -10.112921117115597
      ],
      [
        "▁slag",
        -10.113722355892579
      ],
      [
        "full",
        -10.114123983117791
      ],
      [
        "▁följd",
        -10.115649966752791
      ],
      [
        "igen",
        -10.11568552796644
      ],
      [
        "por",
        -10.115998038407001
      ],
      [
        "▁brand",
        -10.11714961710298
      ],
      [
        "▁Bil",
        -10.117460017606687
      ],
      [
        "▁räkna",
        -10.117819654758243
      ],
      [
        "▁utnyttja",
        -10.118326477280144
      ],
      [
        "▁undan",
        -10.118633272670234
      ],
      [
        "▁röd",
        -10.118649571505212
      ],
      [
        "▁fixa",
        -10.118823715782364
      ],
      [
        "lyckat",
        -10.11906870176871
      ],
      [
        "ski",
        -10.119815068944526
      ],
      [
        "▁trevligt",
        -10.119952498445196
      ],
      [
        "fl",
        -10.120145784166024
      ],
      [
        "▁Ti",
        -10.120175546196004
      ],
      [
        "▁måndag",
        -10.120745995427708
      ],
      [
        "▁Ru",
        -10.121084264926273
      ],
      [
        "▁startade",
        -10.12110690350119
      ],
      [
        "▁dels",
        -10.121712226962064
      ],
      [
        "▁plast",
        -10.121790628027243
      ],
      [
        "q",
        -10.122098056900407
      ],
      [
        "▁fest",
        -10.122253564656235
      ],
      [
        "▁stolt",
        -10.122821356839253
      ],
      [
        "▁såklart",
        -10.122992678706094
      ],
      [
        "▁gett",
        -10.125696567611847
      ],
      [
        "▁medier",
        -10.12570877734112
      ],
      [
        "slagen",
        -10.126383135244689
      ],
      [
        "▁IT",
        -10.12679492308024
      ],
      [
        "bedriv",
        -10.127795684401313
      ],
      [
        "Vissa",
        -10.127872598346833
      ],
      [
        "ört",
        -10.128502708316601
      ],
      [
        "▁missa",
        -10.129764932582185
      ],
      [
        "▁butik",
        -10.130602260275015
      ],
      [
        "hets",
        -10.130797963933448
      ],
      [
        "▁Google",
        -10.131013015726014
      ],
      [
        "▁pengarna",
        -10.131023788370365
      ],
      [
        "▁sällan",
        -10.131102019444072
      ],
      [
        "köp",
        -10.131102572993898
      ],
      [
        "▁pre",
        -10.131153031421535
      ],
      [
        "▁Internet",
        -10.131594693090033
      ],
      [
        "▁badrum",
        -10.131714952180024
      ],
      [
        "▁timmen",
        -10.132402034029534
      ],
      [
        "▁jord",
        -10.132522695115394
      ],
      [
        "▁fördel",
        -10.13293618879956
      ],
      [
        "▁resultatet",
        -10.133341644581147
      ],
      [
        "modligen",
        -10.133365142743306
      ],
      [
        "lov",
        -10.133686498206663
      ],
      [
        "▁slog",
        -10.133948304624417
      ],
      [
        "▁förklara",
        -10.134146102191522
      ],
      [
        "▁brev",
        -10.134252084957714
      ],
      [
        "numera",
        -10.134411568682626
      ],
      [
        "mötet",
        -10.135855572888007
      ],
      [
        "▁Vikt",
        -10.136355913212936
      ],
      [
        "priserna",
        -10.136953948938629
      ],
      [
        "blad",
        -10.137204078734007
      ],
      [
        "▁fisk",
        -10.137576098664054
      ],
      [
        "ess",
        -10.137594046113099
      ],
      [
        "▁Dock",
        -10.137796884275014
      ],
      [
        "ökat",
        -10.139048161807805
      ],
      [
        "ställen",
        -10.140789311649971
      ],
      [
        "▁kyrkan",
        -10.141127139649424
      ],
      [
        "▁Ne",
        -10.141392037961932
      ],
      [
        "TV",
        -10.141405068162577
      ],
      [
        "▁me",
        -10.141488803526155
      ],
      [
        "▁platsen",
        -10.141616274663672
      ],
      [
        "lopp",
        -10.142425373636517
      ],
      [
        "▁London",
        -10.142431705624482
      ],
      [
        "▁acceptera",
        -10.142719387264156
      ],
      [
        "▁roliga",
        -10.142948619124722
      ],
      [
        "Våra",
        -10.143008995169195
      ],
      [
        "▁massage",
        -10.144013759166908
      ],
      [
        "▁So",
        -10.144375066212515
      ],
      [
        "▁stads",
        -10.147356435264793
      ],
      [
        "▁kapital",
        -10.147418990516883
      ],
      [
        "uff",
        -10.147437532056554
      ],
      [
        "▁erbjud",
        -10.147464259333226
      ],
      [
        "skola",
        -10.147545651153365
      ],
      [
        "▁mitten",
        -10.147588700668289
      ],
      [
        "▁haha",
        -10.147610237034394
      ],
      [
        "behandling",
        -10.148192898943938
      ],
      [
        "▁kille",
        -10.14848547806638
      ],
      [
        "▁leverans",
        -10.148640543874526
      ],
      [
        "▁världs",
        -10.149041841155208
      ],
      [
        "service",
        -10.149878250124756
      ],
      [
        "▁dyr",
        -10.150761350146864
      ],
      [
        "slutade",
        -10.151381442100513
      ],
      [
        "jag",
        -10.152221089148528
      ],
      [
        "lit",
        -10.152264390269833
      ],
      [
        "träffade",
        -10.15338506975151
      ],
      [
        "▁lösningar",
        -10.154288050299414
      ],
      [
        "▁Ju",
        -10.155180926715229
      ],
      [
        "Omdöme",
        -10.155754917042174
      ],
      [
        "ions",
        -10.15578673961126
      ],
      [
        "▁välkomna",
        -10.155804023910642
      ],
      [
        "▁uppnå",
        -10.15660363689628
      ],
      [
        "▁normalt",
        -10.156982183838272
      ],
      [
        "risken",
        -10.157249117814246
      ],
      [
        "Förutom",
        -10.158480241568336
      ],
      [
        "funkar",
        -10.158961120248604
      ],
      [
        "▁tuff",
        -10.159004220141894
      ],
      [
        "jan",
        -10.159419417112607
      ],
      [
        "▁läkemedel",
        -10.159581300612977
      ],
      [
        "▁Inga",
        -10.159763761806754
      ],
      [
        "relativt",
        -10.160103984788028
      ],
      [
        "Tyvärr",
        -10.160140301249443
      ],
      [
        "▁betalar",
        -10.160332909676711
      ],
      [
        "▁Nästa",
        -10.160352449139811
      ],
      [
        "omfattande",
        -10.16083583781355
      ],
      [
        "▁nämn",
        -10.160952230435992
      ],
      [
        "▁förändring",
        -10.160989829280215
      ],
      [
        "▁utföra",
        -10.161888233530235
      ],
      [
        "▁föreslå",
        -10.161935767524945
      ],
      [
        "▁människa",
        -10.162151100403712
      ],
      [
        "▁tillfälle",
        -10.162317765600424
      ],
      [
        "link",
        -10.162732951772767
      ],
      [
        "ET",
        -10.163587646356204
      ],
      [
        "▁Spel",
        -10.16473284785506
      ],
      [
        "aktuella",
        -10.165463176147624
      ],
      [
        "ledning",
        -10.165487305917885
      ],
      [
        "▁media",
        -10.165590442293553
      ],
      [
        "▁Lind",
        -10.165636068287242
      ],
      [
        "åtminstone",
        -10.165713542156439
      ],
      [
        "▁vitt",
        -10.165926864233334
      ],
      [
        "bestämt",
        -10.166310664688439
      ],
      [
        "▁mening",
        -10.167879873570651
      ],
      [
        "isering",
        -10.167936256837043
      ],
      [
        "our",
        -10.168310566750268
      ],
      [
        "▁makt",
        -10.168637193933113
      ],
      [
        "▁centrala",
        -10.169552887886379
      ],
      [
        "▁lek",
        -10.170029016333872
      ],
      [
        "enklare",
        -10.170534097968066
      ],
      [
        "▁Pe",
        -10.172038154655976
      ],
      [
        "oc",
        -10.172100317076058
      ],
      [
        "ständigt",
        -10.172260896760331
      ],
      [
        "platser",
        -10.172440850403175
      ],
      [
        "▁gäst",
        -10.172625058240332
      ],
      [
        "stans",
        -10.172632971311305
      ],
      [
        "▁info",
        -10.172762494250982
      ],
      [
        "▁hopp",
        -10.173911497109083
      ],
      [
        "▁mor",
        -10.174468318564545
      ],
      [
        "▁York",
        -10.17490384139497
      ],
      [
        "▁dröm",
        -10.175156206467907
      ],
      [
        "▁hundra",
        -10.175185365745513
      ],
      [
        "ox",
        -10.17518739789605
      ],
      [
        "planen",
        -10.17558642819061
      ],
      [
        "Skulle",
        -10.176443668895793
      ],
      [
        "förbundet",
        -10.17673111352223
      ],
      [
        "▁besöka",
        -10.176827495458793
      ],
      [
        "wa",
        -10.177646127277185
      ],
      [
        "visste",
        -10.178334029683178
      ],
      [
        "De",
        -10.178708029772547
      ],
      [
        "▁tjänst",
        -10.178926494981479
      ],
      [
        "▁inspiration",
        -10.180111895065117
      ],
      [
        "▁slags",
        -10.18086910398969
      ],
      [
        "▁bred",
        -10.18133489193043
      ],
      [
        "lämnade",
        -10.18313620305215
      ],
      [
        "möjliga",
        -10.183880355211699
      ],
      [
        "värde",
        -10.183888784802555
      ],
      [
        "▁förut",
        -10.183912525854351
      ],
      [
        "▁Själv",
        -10.183966396296727
      ],
      [
        "▁fot",
        -10.184123616771128
      ],
      [
        "ley",
        -10.184365057813574
      ],
      [
        "sättet",
        -10.184500665697138
      ],
      [
        "mässigt",
        -10.18461933842404
      ],
      [
        "▁värd",
        -10.185136003881965
      ],
      [
        "▁sjukhus",
        -10.185236902540591
      ],
      [
        "▁you",
        -10.185950853561954
      ],
      [
        "▁webb",
        -10.18628600892506
      ],
      [
        "▁fysisk",
        -10.18651177954981
      ],
      [
        "▁adress",
        -10.186878206250386
      ],
      [
        "▁offentlig",
        -10.186887068377304
      ],
      [
        "▁Sex",
        -10.18709269408946
      ],
      [
        "▁glädje",
        -10.187415521918926
      ],
      [
        "▁straff",
        -10.187590508710288
      ],
      [
        "▁ordentligt",
        -10.188335071072277
      ],
      [
        "satsa",
        -10.188425161680318
      ],
      [
        "▁rekommenderar",
        -10.189010909285841
      ],
      [
        "kat",
        -10.18995001447089
      ],
      [
        "▁snygg",
        -10.190226782782387
      ],
      [
        "ång",
        -10.190289424888851
      ],
      [
        "▁användare",
        -10.190295800686842
      ],
      [
        "▁frisk",
        -10.190877770768951
      ],
      [
        "eras",
        -10.191382672915442
      ],
      [
        "▁snabba",
        -10.191452620799769
      ],
      [
        "män",
        -10.19149864415617
      ],
      [
        "▁nummer",
        -10.191530827733049
      ],
      [
        "försäkring",
        -10.191613090655547
      ],
      [
        "ze",
        -10.192189677582776
      ],
      [
        "Q",
        -10.194244383211469
      ],
      [
        "▁morgonen",
        -10.19439869769499
      ],
      [
        "tips",
        -10.195220706079972
      ],
      [
        "▁ges",
        -10.195650582560653
      ],
      [
        "ben",
        -10.196342109502552
      ],
      [
        "▁restauranger",
        -10.196406120109772
      ],
      [
        "▁familje",
        -10.19703367215961
      ],
      [
        "träd",
        -10.197227864896783
      ],
      [
        "lle",
        -10.197715040455888
      ],
      [
        "▁Dr",
        -10.198110602535483
      ],
      [
        "▁City",
        -10.198644946930552
      ],
      [
        "▁datum",
        -10.198780561881671
      ],
      [
        "▁ung",
        -10.198979813477344
      ],
      [
        "▁Dom",
        -10.19966321237758
      ],
      [
        "ong",
        -10.199929307686991
      ],
      [
        "slår",
        -10.20055644400995
      ],
      [
        "▁studier",
        -10.200959303512093
      ],
      [
        "sätt",
        -10.201280870083693
      ],
      [
        "▁möte",
        -10.201383192933095
      ],
      [
        "▁Första",
        -10.201386122115272
      ],
      [
        "▁socker",
        -10.201518751412847
      ],
      [
        "gemensamma",
        -10.201651918687658
      ],
      [
        "▁anti",
        -10.201746133346717
      ],
      [
        "▁inlägget",
        -10.201985770057801
      ],
      [
        "▁Hade",
        -10.20206066977489
      ],
      [
        "▁dans",
        -10.202370827286362
      ],
      [
        "▁frakt",
        -10.20307579819039
      ],
      [
        "▁kök",
        -10.20374553350324
      ],
      [
        "▁bio",
        -10.20455615329019
      ],
      [
        "världen",
        -10.204607050610077
      ],
      [
        "tas",
        -10.205196774536953
      ],
      [
        "rätten",
        -10.205840327175235
      ],
      [
        "fel",
        -10.206918994921422
      ],
      [
        "ika",
        -10.20776680197848
      ],
      [
        "▁hy",
        -10.207849009933433
      ],
      [
        "▁upplevelse",
        -10.208812339632548
      ],
      [
        "▁önska",
        -10.210314030931547
      ],
      [
        "▁bostads",
        -10.210363514525975
      ],
      [
        "typ",
        -10.210525472478746
      ],
      [
        "▁tränings",
        -10.211348955977039
      ],
      [
        "of",
        -10.211663489720316
      ],
      [
        "lägg",
        -10.212153407783873
      ],
      [
        "▁Nilsson",
        -10.212192345501032
      ],
      [
        "▁tal",
        -10.212359612520874
      ],
      [
        "→",
        -10.212525497718861
      ],
      [
        "kur",
        -10.213023318810933
      ],
      [
        "▁Vet",
        -10.213218539893841
      ],
      [
        "skrevs",
        -10.213238222860173
      ],
      [
        "kal",
        -10.213675978656866
      ],
      [
        "allmänna",
        -10.213779084209715
      ],
      [
        "rika",
        -10.21452380142899
      ],
      [
        "▁Ri",
        -10.214867500654933
      ],
      [
        "▁Bygg",
        -10.214926944460315
      ],
      [
        "OF",
        -10.215124080871869
      ],
      [
        "▁Am",
        -10.215780283304827
      ],
      [
        "▁sikt",
        -10.216635561836977
      ],
      [
        "▁båt",
        -10.216763312671656
      ],
      [
        "▁kombination",
        -10.216765038138464
      ],
      [
        "stig",
        -10.217189436711257
      ],
      [
        "out",
        -10.217729287124897
      ],
      [
        "▁US",
        -10.217991056779038
      ],
      [
        "▁relation",
        -10.218175298734824
      ],
      [
        "dla",
        -10.218332133661917
      ],
      [
        "▁Ålder",
        -10.218408632626328
      ],
      [
        "▁press",
        -10.21869449550432
      ],
      [
        "▁Gå",
        -10.21886899555719
      ],
      [
        "ica",
        -10.219134617533507
      ],
      [
        "tter",
        -10.220398664057921
      ],
      [
        "tvung",
        -10.221432024432985
      ],
      [
        "▁hänsyn",
        -10.221863450691863
      ],
      [
        "▁röst",
        -10.221870472708407
      ],
      [
        "▁jämför",
        -10.222389825937292
      ],
      [
        "erande",
        -10.222534125698191
      ],
      [
        "▁ämnen",
        -10.222676209735765
      ],
      [
        "hu",
        -10.222826556792347
      ],
      [
        "▁webbplatser",
        -10.22336863713979
      ],
      [
        "▁problemet",
        -10.223911698370054
      ],
      [
        "▁kol",
        -10.225611953198458
      ],
      [
        "kräm",
        -10.225631913250057
      ],
      [
        "▁Kon",
        -10.22597375968371
      ],
      [
        "ologi",
        -10.226379641024332
      ],
      [
        "▁ringa",
        -10.226951955190213
      ],
      [
        "▁jorden",
        -10.227179291504731
      ],
      [
        "start",
        -10.227786904126097
      ],
      [
        "▁varumärken",
        -10.227938528390025
      ],
      [
        "tic",
        -10.228208678260192
      ],
      [
        "▁korrekt",
        -10.228236622955318
      ],
      [
        "▁led",
        -10.228447515268579
      ],
      [
        "gan",
        -10.228886950203163
      ],
      [
        "pro",
        -10.22935975593588
      ],
      [
        "int",
        -10.229634943990712
      ],
      [
        "▁Vem",
        -10.229662051535612
      ],
      [
        "▁inkomst",
        -10.22967692520251
      ],
      [
        "▁mjölk",
        -10.230125448186183
      ],
      [
        "▁Ki",
        -10.230129622863984
      ],
      [
        "spelare",
        -10.230294674130082
      ],
      [
        "▁höjd",
        -10.230317165995018
      ],
      [
        "▁ägare",
        -10.230476617379974
      ],
      [
        "platsen",
        -10.231228343119259
      ],
      [
        "bergs",
        -10.231233624744227
      ],
      [
        "▁träd",
        -10.231869651641807
      ],
      [
        "▁funktioner",
        -10.232002014029897
      ],
      [
        "▁struktur",
        -10.232461259243411
      ],
      [
        "över",
        -10.23264348332527
      ],
      [
        "und",
        -10.232689334144109
      ],
      [
        "▁översättning",
        -10.232990498502357
      ],
      [
        "▁fett",
        -10.233003702480593
      ],
      [
        "▁styrelse",
        -10.233026624238429
      ],
      [
        "▁orsak",
        -10.233277764009658
      ],
      [
        "bor",
        -10.234188583411035
      ],
      [
        "▁utsikt",
        -10.234461973097387
      ],
      [
        "▁Stefan",
        -10.234473426872428
      ],
      [
        "▁stycken",
        -10.235683733988225
      ],
      [
        "▁Frankrike",
        -10.238099045653554
      ],
      [
        "hjälp",
        -10.23828813119666
      ],
      [
        "lett",
        -10.238362812883642
      ],
      [
        "▁Ed",
        -10.238647829532695
      ],
      [
        "▁dotter",
        -10.239461685289745
      ],
      [
        "▁fyller",
        -10.239538040068387
      ],
      [
        "zz",
        -10.239664416096275
      ],
      [
        "ight",
        -10.240038648609499
      ],
      [
        "avseende",
        -10.240202622057106
      ],
      [
        "▁buss",
        -10.240206303170556
      ],
      [
        "från",
        -10.240376365914951
      ],
      [
        "ations",
        -10.240481955656287
      ],
      [
        "▁nät",
        -10.240588532113701
      ],
      [
        "▁Daniel",
        -10.240911732098976
      ],
      [
        "vit",
        -10.241481697660962
      ],
      [
        "▁Ch",
        -10.24207491761194
      ],
      [
        "film",
        -10.242635447487414
      ],
      [
        "barn",
        -10.242876323005918
      ],
      [
        "▁Danmark",
        -10.243498192814313
      ],
      [
        "▁Kr",
        -10.244037691932933
      ],
      [
        "bilder",
        -10.244169729543435
      ],
      [
        "▁reklam",
        -10.244187893559857
      ],
      [
        "▁redo",
        -10.244849075896072
      ],
      [
        "dda",
        -10.245411604335407
      ],
      [
        "kallar",
        -10.2460230129804
      ],
      [
        "▁God",
        -10.246137641286397
      ],
      [
        "processen",
        -10.246519538902172
      ],
      [
        "gå",
        -10.246682535542066
      ],
      [
        "svarade",
        -10.246784657790053
      ],
      [
        "möte",
        -10.247376666843891
      ],
      [
        "for",
        -10.247579455706397
      ],
      [
        "▁Ex",
        -10.247605794421112
      ],
      [
        "▁utomhus",
        -10.247713981684527
      ],
      [
        "▁mag",
        -10.247891039072782
      ],
      [
        "▁politiker",
        -10.248113818827745
      ],
      [
        "▁Lag",
        -10.248148484973377
      ],
      [
        "▁grupper",
        -10.248789196064402
      ],
      [
        "befinner",
        -10.248915642011022
      ],
      [
        "▁motsvarande",
        -10.249633344114326
      ],
      [
        "risk",
        -10.24964184798427
      ],
      [
        "letar",
        -10.24972928446409
      ],
      [
        "▁genomför",
        -10.249992592253678
      ],
      [
        "▁Ku",
        -10.250235169327818
      ],
      [
        "titeln",
        -10.250669417922644
      ],
      [
        "▁ersättning",
        -10.251121428458884
      ],
      [
        "▁varm",
        -10.251446155678977
      ],
      [
        "▁starka",
        -10.252213388363327
      ],
      [
        "▁inled",
        -10.252288081809228
      ],
      [
        "läge",
        -10.252655679314492
      ],
      [
        "handel",
        -10.252827679005716
      ],
      [
        "vall",
        -10.253511765300535
      ],
      [
        "▁My",
        -10.253787023224016
      ],
      [
        "las",
        -10.253987082366377
      ],
      [
        "brott",
        -10.25404617843482
      ],
      [
        "▁Go",
        -10.255414937691823
      ],
      [
        "▁magen",
        -10.255584813433229
      ],
      [
        "▁tecken",
        -10.25559615062886
      ],
      [
        "▁SVT",
        -10.255982815411514
      ],
      [
        "▁använde",
        -10.256179663780278
      ],
      [
        "▁spa",
        -10.256258638587084
      ],
      [
        "▁rapport",
        -10.256562855793163
      ],
      [
        "▁snabbare",
        -10.256725897351478
      ],
      [
        "året",
        -10.257388418616756
      ],
      [
        "kraft",
        -10.25878514116029
      ],
      [
        "▁vackert",
        -10.259013959406
      ],
      [
        "öl",
        -10.259179831108389
      ],
      [
        "tik",
        -10.259404604381023
      ],
      [
        "ure",
        -10.259547674248322
      ],
      [
        "▁mail",
        -10.259852260950533
      ],
      [
        "▁sväng",
        -10.259976178048838
      ],
      [
        "▁motor",
        -10.260037555459155
      ],
      [
        "eleverna",
        -10.260061970750813
      ],
      [
        "▁katt",
        -10.260677508948277
      ],
      [
        "▁bedöm",
        -10.261388490994852
      ],
      [
        "håll",
        -10.261592626780274
      ],
      [
        "äll",
        -10.262386921061644
      ],
      [
        "▁springa",
        -10.263437088687246
      ],
      [
        "lista",
        -10.264321638649523
      ],
      [
        "byggnad",
        -10.26442425678589
      ],
      [
        "▁kilometer",
        -10.26524842804237
      ],
      [
        "▁Ab",
        -10.265273080917419
      ],
      [
        "rådet",
        -10.265486131512919
      ],
      [
        "▁ka",
        -10.266073453528024
      ],
      [
        "▁Samma",
        -10.266935208272036
      ],
      [
        "▁unik",
        -10.267233084906952
      ],
      [
        "▁ton",
        -10.267727500259998
      ],
      [
        "gon",
        -10.267753031206514
      ],
      [
        "▁Skriv",
        -10.267849549289318
      ],
      [
        "▁detaljer",
        -10.269076640339392
      ],
      [
        "▁skogen",
        -10.269617361405542
      ],
      [
        "▁jämföra",
        -10.269968916813543
      ],
      [
        "▁Kar",
        -10.270172310163272
      ],
      [
        "bygg",
        -10.27034446322958
      ],
      [
        "▁digitala",
        -10.270764267623813
      ],
      [
        "Någon",
        -10.271199916018302
      ],
      [
        "▁John",
        -10.271314507159824
      ],
      [
        "berättade",
        -10.27149200784547
      ],
      [
        "▁säng",
        -10.271579637290131
      ],
      [
        "▁känd",
        -10.271898545602081
      ],
      [
        "chansen",
        -10.272004464176305
      ],
      [
        "▁minns",
        -10.275017805291249
      ],
      [
        "▁organisation",
        -10.275182852443242
      ],
      [
        "▁röda",
        -10.275313832687978
      ],
      [
        "valda",
        -10.27552695725089
      ],
      [
        "serien",
        -10.275787149719616
      ],
      [
        "shop",
        -10.275874450826672
      ],
      [
        "▁säkerställ",
        -10.27652986777736
      ],
      [
        "visas",
        -10.276673935863315
      ],
      [
        "▁grad",
        -10.27676255012892
      ],
      [
        "▁Italien",
        -10.27714483497134
      ],
      [
        "▁naturen",
        -10.27759653949205
      ],
      [
        "▁rygg",
        -10.278598011718657
      ],
      [
        "▁profil",
        -10.279673965385452
      ],
      [
        "dagar",
        -10.279877942874986
      ],
      [
        "▁salt",
        -10.280179564310586
      ],
      [
        "▁Lu",
        -10.280324080570127
      ],
      [
        "myndigheten",
        -10.28066211264712
      ],
      [
        "situationen",
        -10.2814951971269
      ],
      [
        "Om",
        -10.281976285225554
      ],
      [
        "ity",
        -10.28218407448446
      ],
      [
        "▁Va",
        -10.282259182443486
      ],
      [
        "konstigt",
        -10.282291577349051
      ],
      [
        "tag",
        -10.283219906403524
      ],
      [
        "▁TripAdvisor",
        -10.283568704499736
      ],
      [
        "▁tåg",
        -10.284285113802792
      ],
      [
        "erings",
        -10.284618249691206
      ],
      [
        "▁Få",
        -10.284782268334883
      ],
      [
        "▁Sten",
        -10.285242065893046
      ],
      [
        "beskriver",
        -10.286182337003043
      ],
      [
        "ätt",
        -10.286223491018164
      ],
      [
        "▁söder",
        -10.286462036611601
      ],
      [
        "▁utbildnings",
        -10.286879682769243
      ],
      [
        "▁nödvändigt",
        -10.287246973965885
      ],
      [
        "▁ovanlig",
        -10.287360832061355
      ],
      [
        "sal",
        -10.287441637888975
      ],
      [
        "▁plocka",
        -10.287488154861697
      ],
      [
        "värre",
        -10.287940087139514
      ],
      [
        "partiet",
        -10.28817453706743
      ],
      [
        "▁förändringar",
        -10.288308567705041
      ],
      [
        "sport",
        -10.288582047164482
      ],
      [
        "läggning",
        -10.288907998963893
      ],
      [
        "▁framtid",
        -10.289759575145133
      ],
      [
        "industrin",
        -10.289843526406267
      ],
      [
        "▁bevis",
        -10.289916689408471
      ],
      [
        "▁Information",
        -10.290143153547378
      ],
      [
        "ställning",
        -10.290345208138433
      ],
      [
        "sett",
        -10.290938448262747
      ],
      [
        "▁butiker",
        -10.291026244352052
      ],
      [
        "bel",
        -10.291026681140654
      ],
      [
        "▁yngre",
        -10.291154885764136
      ],
      [
        "▁hyra",
        -10.291578002660598
      ],
      [
        "möter",
        -10.291653209043272
      ],
      [
        "vetenskap",
        -10.291844293036933
      ],
      [
        "▁idéer",
        -10.29276310456816
      ],
      [
        "▁resurser",
        -10.293113529555303
      ],
      [
        "ställ",
        -10.293484691845808
      ],
      [
        "▁vind",
        -10.29372659118531
      ],
      [
        "▁For",
        -10.294257823252707
      ],
      [
        "perfekta",
        -10.29451084851467
      ],
      [
        "tals",
        -10.294746289957232
      ],
      [
        "che",
        -10.295009189081753
      ],
      [
        "▁Tur",
        -10.2950295285857
      ],
      [
        "▁tänk",
        -10.296228641748897
      ],
      [
        "▁filmer",
        -10.296377196577511
      ],
      [
        "▁moderna",
        -10.296684382705658
      ],
      [
        "▁avgörande",
        -10.296722614849632
      ],
      [
        "▁Kram",
        -10.2968148938651
      ],
      [
        "färg",
        -10.297116294109863
      ],
      [
        "▁with",
        -10.297882592067804
      ],
      [
        "▁regel",
        -10.298938918798061
      ],
      [
        "▁kött",
        -10.299046753093874
      ],
      [
        "▁informationen",
        -10.299115485700028
      ],
      [
        "▁Umeå",
        -10.299206358652485
      ],
      [
        "kast",
        -10.299272867823834
      ],
      [
        "▁Karl",
        -10.29987098524853
      ],
      [
        "ökning",
        -10.299984068854664
      ],
      [
        "▁hundar",
        -10.300047782556593
      ],
      [
        "▁marknads",
        -10.300093015719224
      ],
      [
        "▁paket",
        -10.300233806010528
      ],
      [
        "aktion",
        -10.300241064083803
      ],
      [
        "▁Björn",
        -10.300317320741206
      ],
      [
        "FV",
        -10.301368616795594
      ],
      [
        "▁hittills",
        -10.301836704771627
      ],
      [
        "▁botten",
        -10.302693516960844
      ],
      [
        "▁go",
        -10.302741601170887
      ],
      [
        "hall",
        -10.303235243251505
      ],
      [
        "Innan",
        -10.303405597128554
      ],
      [
        "▁rädda",
        -10.304951196187243
      ],
      [
        "Re",
        -10.304968278097252
      ],
      [
        "▁aktivitet",
        -10.30507729013289
      ],
      [
        "▁avsnitt",
        -10.305230056670382
      ],
      [
        "▁staten",
        -10.305534081956397
      ],
      [
        "ake",
        -10.306882809597694
      ],
      [
        "bad",
        -10.307517633843654
      ],
      [
        "baserade",
        -10.307888017895285
      ],
      [
        "▁ses",
        -10.30797430887759
      ],
      [
        "AN",
        -10.308192239333335
      ],
      [
        "▁ungdoms",
        -10.308625503512259
      ],
      [
        "▁fart",
        -10.30874030301115
      ],
      [
        "möjligheten",
        -10.309182565422542
      ],
      [
        "▁grundläggande",
        -10.309340787124375
      ],
      [
        "▁drift",
        -10.309422899401676
      ],
      [
        "▁Paris",
        -10.309517191893352
      ],
      [
        "▁hamnar",
        -10.310401891129304
      ],
      [
        "▁Herr",
        -10.310571934695764
      ],
      [
        "▁webbplatsen",
        -10.31139929643799
      ],
      [
        "ller",
        -10.311431723578364
      ],
      [
        "kursen",
        -10.311981001278921
      ],
      [
        "varande",
        -10.312142383232825
      ],
      [
        "Vilket",
        -10.312155124267425
      ],
      [
        "▁driver",
        -10.312393688218975
      ],
      [
        "▁rörelse",
        -10.312575893006006
      ],
      [
        "▁kommunikation",
        -10.31267109737015
      ],
      [
        "▁bedömning",
        -10.313450984200514
      ],
      [
        "▁inre",
        -10.313489911139875
      ],
      [
        "ham",
        -10.313719249728775
      ],
      [
        "index",
        -10.314087761252168
      ],
      [
        "▁Sök",
        -10.31481796193161
      ],
      [
        "bas",
        -10.31505336350101
      ],
      [
        "vakt",
        -10.315687273087574
      ],
      [
        "▁tra",
        -10.316573138195674
      ],
      [
        "▁tillgänglig",
        -10.316774167612822
      ],
      [
        "▁hård",
        -10.316899427925328
      ],
      [
        "Något",
        -10.317020557656429
      ],
      [
        "▁snygga",
        -10.317388505834943
      ],
      [
        "visat",
        -10.317697958598593
      ],
      [
        "▁perspektiv",
        -10.31787895745742
      ],
      [
        "▁total",
        -10.31874344592296
      ],
      [
        "▁ända",
        -10.31885091697945
      ],
      [
        "▁radio",
        -10.320157036931437
      ],
      [
        "▁allmän",
        -10.320236685523732
      ],
      [
        "känslan",
        -10.32054775536957
      ],
      [
        "nationella",
        -10.320562094254502
      ],
      [
        "▁driva",
        -10.321953772150502
      ],
      [
        "▁chef",
        -10.322341484565
      ],
      [
        "▁tillåt",
        -10.322462675693508
      ],
      [
        "träning",
        -10.32262131480329
      ],
      [
        "▁svarar",
        -10.323308521317138
      ],
      [
        "port",
        -10.323329557922852
      ],
      [
        "▁privata",
        -10.323577131189335
      ],
      [
        "▁Br",
        -10.32396923063348
      ],
      [
        "bin",
        -10.324157007158169
      ],
      [
        "▁tycka",
        -10.324199008759077
      ],
      [
        "▁Dag",
        -10.324239283754068
      ],
      [
        "▁håret",
        -10.324424866815747
      ],
      [
        "▁Super",
        -10.324490439065467
      ],
      [
        "▁omedelbart",
        -10.324824117189491
      ],
      [
        "orter",
        -10.324884912524158
      ],
      [
        "▁analys",
        -10.324928967656342
      ],
      [
        "▁Helsingborg",
        -10.324932655906348
      ],
      [
        "▁ikväll",
        -10.325298752095279
      ],
      [
        "problem",
        -10.325903784016635
      ],
      [
        "lor",
        -10.325944126183943
      ],
      [
        "▁balans",
        -10.326146201123342
      ],
      [
        "▁politik",
        -10.326822561644505
      ],
      [
        "framförallt",
        -10.327197823460372
      ],
      [
        "▁David",
        -10.327562915950173
      ],
      [
        "sin",
        -10.3276406362908
      ],
      [
        "lighet",
        -10.32774159648956
      ],
      [
        "▁känslor",
        -10.327974498419156
      ],
      [
        "ala",
        -10.328400555391767
      ],
      [
        "strand",
        -10.32847593312404
      ],
      [
        "bruk",
        -10.328809162982466
      ],
      [
        "▁SM",
        -10.329596699680616
      ],
      [
        "▁torr",
        -10.329840587927704
      ],
      [
        "▁löne",
        -10.329950598261071
      ],
      [
        "▁långsiktig",
        -10.329954661576547
      ],
      [
        "▁stoppa",
        -10.330475606487084
      ],
      [
        "▁Arbets",
        -10.330625123302221
      ],
      [
        "▁bilderna",
        -10.330659006956735
      ],
      [
        "yck",
        -10.33080948341015
      ],
      [
        "▁band",
        -10.331615493454011
      ],
      [
        "ighet",
        -10.331855446316021
      ],
      [
        "▁månaden",
        -10.332486122494936
      ],
      [
        "öppnar",
        -10.332651354585732
      ],
      [
        "off",
        -10.332777742196393
      ],
      [
        "▁Ho",
        -10.333232234148708
      ],
      [
        "▁bry",
        -10.333443119873651
      ],
      [
        "▁Får",
        -10.333995574786568
      ],
      [
        "▁besluta",
        -10.334188373657133
      ],
      [
        "loppet",
        -10.334481246798564
      ],
      [
        "▁resan",
        -10.335128673696927
      ],
      [
        "▁toppen",
        -10.335158489779284
      ],
      [
        "miljö",
        -10.335976681107145
      ],
      [
        "▁Tro",
        -10.336224509485996
      ],
      [
        "ino",
        -10.33626359577953
      ],
      [
        "▁Plan",
        -10.336623102370966
      ],
      [
        "▁klubb",
        -10.336928274332926
      ],
      [
        "▁erfarenheter",
        -10.337092447250685
      ],
      [
        "sängen",
        -10.337183645646594
      ],
      [
        "▁fakta",
        -10.338637722711319
      ],
      [
        "app",
        -10.338968087164016
      ],
      [
        "▁startar",
        -10.339640115255024
      ],
      [
        "▁uppenbar",
        -10.340167003128359
      ],
      [
        "▁rädd",
        -10.340198210171785
      ],
      [
        "jobb",
        -10.340326623059603
      ],
      [
        "pon",
        -10.341609212141659
      ],
      [
        "▁aktie",
        -10.341804424688325
      ],
      [
        "▁dubbel",
        -10.341975216771422
      ],
      [
        "▁Ryssland",
        -10.342150677135848
      ],
      [
        "▁Gar",
        -10.342450957873885
      ],
      [
        "▁kritik",
        -10.342534795987124
      ],
      [
        "projekt",
        -10.342709275659967
      ],
      [
        "▁fotboll",
        -10.342723825355398
      ],
      [
        "▁underbara",
        -10.343011827502131
      ],
      [
        "bjöd",
        -10.343155712721487
      ],
      [
        "▁tillämpa",
        -10.343199817615549
      ],
      [
        "▁rese",
        -10.343638501644502
      ],
      [
        "▁Hu",
        -10.343786891738478
      ],
      [
        "▁karta",
        -10.343851745786674
      ],
      [
        "varken",
        -10.34430311249026
      ],
      [
        "ationer",
        -10.34468722411384
      ],
      [
        "▁blommor",
        -10.344708047669261
      ],
      [
        "▁Hall",
        -10.344938634525926
      ],
      [
        "press",
        -10.345077301547384
      ],
      [
        "▁förlora",
        -10.345841506304401
      ],
      [
        "▁Q",
        -10.345863013251574
      ],
      [
        "▁nätverk",
        -10.346281713081584
      ],
      [
        "stat",
        -10.346951773987156
      ],
      [
        "▁knä",
        -10.3471751582718
      ],
      [
        "▁punkt",
        -10.347575448665724
      ],
      [
        "▁Jonas",
        -10.349185470488683
      ],
      [
        "hy",
        -10.349363850441078
      ],
      [
        "▁skydd",
        -10.35054121096994
      ],
      [
        "▁billig",
        -10.350643968275877
      ],
      [
        "▁uppmärksamma",
        -10.350908771887116
      ],
      [
        "▁kris",
        -10.351243116242483
      ],
      [
        "▁svarta",
        -10.35153064946345
      ],
      [
        "qvist",
        -10.35160264434896
      ],
      [
        "▁kunskaper",
        -10.351640285723477
      ],
      [
        "positivt",
        -10.351734321546932
      ],
      [
        "▁sov",
        -10.352030814250579
      ],
      [
        "▁maten",
        -10.352643990520425
      ],
      [
        "▁döda",
        -10.353051169884234
      ],
      [
        "https",
        -10.353174612409497
      ],
      [
        "▁Mina",
        -10.353378779011651
      ],
      [
        "▁skuld",
        -10.353384271335607
      ],
      [
        "▁Dagens",
        -10.354557018024163
      ],
      [
        "frågor",
        -10.354741374323426
      ],
      [
        "▁Tu",
        -10.355709973400444
      ],
      [
        "▁servera",
        -10.3557988427099
      ],
      [
        "ket",
        -10.356309629023121
      ],
      [
        "▁verksamheter",
        -10.356864253895838
      ],
      [
        "orsaka",
        -10.35737348606074
      ],
      [
        "amp",
        -10.35745195596776
      ],
      [
        "▁publik",
        -10.35776687425919
      ],
      [
        "▁undantag",
        -10.35778058110962
      ],
      [
        "under",
        -10.357907944008359
      ],
      [
        "▁process",
        -10.358084354613792
      ],
      [
        "▁Svart",
        -10.358151179315438
      ],
      [
        "kostnader",
        -10.358354597950395
      ],
      [
        "▁dokument",
        -10.358535802515963
      ],
      [
        "▁Nyheter",
        -10.35856375768712
      ],
      [
        "▁aktivt",
        -10.358624631954886
      ],
      [
        "▁effektivt",
        -10.35867575751757
      ],
      [
        "▁överens",
        -10.359176960827122
      ],
      [
        "delen",
        -10.359559410354743
      ],
      [
        "▁Red",
        -10.359880153248243
      ],
      [
        "kop",
        -10.360232302855941
      ],
      [
        "närvarande",
        -10.361197471084521
      ],
      [
        "way",
        -10.361577766682306
      ],
      [
        "stan",
        -10.361877059199104
      ],
      [
        "▁nyheter",
        -10.362102499853938
      ],
      [
        "faller",
        -10.362487348059577
      ],
      [
        "▁skogs",
        -10.36261019098971
      ],
      [
        "delas",
        -10.362909501650194
      ],
      [
        "▁underbar",
        -10.363220460228975
      ],
      [
        "▁Windows",
        -10.363776246301134
      ],
      [
        "jer",
        -10.364251939714745
      ],
      [
        "▁växa",
        -10.364385822871444
      ],
      [
        "föreningen",
        -10.364660326806062
      ],
      [
        "dörren",
        -10.365049392051885
      ],
      [
        "▁undersökning",
        -10.365075481823466
      ],
      [
        "▁köket",
        -10.365235001083933
      ],
      [
        "▁organisationer",
        -10.365605632515669
      ],
      [
        "▁möjlig",
        -10.3665346774566
      ],
      [
        "▁tider",
        -10.366537340448964
      ],
      [
        "▁tand",
        -10.366807818125379
      ],
      [
        "▁Fin",
        -10.367165698288881
      ],
      [
        "rig",
        -10.367322214028533
      ],
      [
        "hög",
        -10.367350031048458
      ],
      [
        "kod",
        -10.367543170310428
      ],
      [
        "▁släpp",
        -10.367708587750654
      ],
      [
        "politiken",
        -10.367800035317408
      ],
      [
        "▁produkten",
        -10.36890240763123
      ],
      [
        "▁hjärt",
        -10.368958760703245
      ],
      [
        "grupper",
        -10.369274885529109
      ],
      [
        "tanken",
        -10.369413239673259
      ],
      [
        "stämmer",
        -10.369470204782816
      ],
      [
        "▁sent",
        -10.369770645379793
      ],
      [
        "▁jakt",
        -10.369847551542078
      ],
      [
        "▁Com",
        -10.370277841390457
      ],
      [
        "▁sko",
        -10.370645585733646
      ],
      [
        "unika",
        -10.370719176686604
      ],
      [
        "skaffa",
        -10.370989575605314
      ],
      [
        "▁tekniska",
        -10.371089500935216
      ],
      [
        "▁vila",
        -10.371175630615204
      ],
      [
        "▁ledare",
        -10.37135455494318
      ],
      [
        "rummet",
        -10.3714704279085
      ],
      [
        "▁Stora",
        -10.371495592844477
      ],
      [
        "bjuda",
        -10.372217690107409
      ],
      [
        "sko",
        -10.37224321236154
      ],
      [
        "▁industri",
        -10.372328277682135
      ],
      [
        "▁söt",
        -10.373610370313461
      ],
      [
        "mas",
        -10.374378823563466
      ],
      [
        "▁mönster",
        -10.37445745146487
      ],
      [
        "▁gäng",
        -10.37499995783906
      ],
      [
        "que",
        -10.37550979836712
      ],
      [
        "▁Svar",
        -10.375685685168971
      ],
      [
        "taket",
        -10.37612229119474
      ],
      [
        "uppleva",
        -10.376899342245517
      ],
      [
        "▁Hela",
        -10.377352871636111
      ],
      [
        "mängder",
        -10.377406395260998
      ],
      [
        "▁upplev",
        -10.377529258472526
      ],
      [
        "▁tillfällen",
        -10.377666790182865
      ],
      [
        "▁Ser",
        -10.377774892685283
      ],
      [
        "delar",
        -10.378515985683157
      ],
      [
        "▁fira",
        -10.378556573372823
      ],
      [
        "▁Jämför",
        -10.379271871178194
      ],
      [
        "frågade",
        -10.379316867526688
      ],
      [
        "▁ordet",
        -10.3793882689133
      ],
      [
        "männen",
        -10.379769815176376
      ],
      [
        "▁sjö",
        -10.380747534645394
      ],
      [
        "▁fil",
        -10.38120515580051
      ],
      [
        "▁säg",
        -10.381280822518919
      ],
      [
        "pröva",
        -10.381511916345634
      ],
      [
        "▁Jul",
        -10.381698027962823
      ],
      [
        "lek",
        -10.383651335957367
      ],
      [
        "bit",
        -10.383890138839131
      ],
      [
        "▁serien",
        -10.384317461080537
      ],
      [
        "▁betalnings",
        -10.384396094894914
      ],
      [
        "▁vardag",
        -10.38506357784652
      ],
      [
        "nät",
        -10.385652272432354
      ],
      [
        "priset",
        -10.385910134576951
      ],
      [
        "▁Mi",
        -10.385997636265227
      ],
      [
        "iz",
        -10.38673243290567
      ],
      [
        "▁Bal",
        -10.386870736870028
      ],
      [
        "▁vintern",
        -10.387046119590448
      ],
      [
        "▁fika",
        -10.387048946456531
      ],
      [
        "ice",
        -10.387061120295042
      ],
      [
        "kontroll",
        -10.387708860860558
      ],
      [
        "▁Rom",
        -10.387727840134497
      ],
      [
        "▁trans",
        -10.387826317154849
      ],
      [
        "granskar",
        -10.388193577855333
      ],
      [
        "givande",
        -10.38896727122231
      ],
      [
        "äkta",
        -10.388972665570707
      ],
      [
        "▁Göteborgs",
        -10.389419729983269
      ],
      [
        "minskar",
        -10.389830165771457
      ],
      [
        "duk",
        -10.389929876162732
      ],
      [
        "ble",
        -10.389977314080605
      ],
      [
        "▁syns",
        -10.39014334431226
      ],
      [
        "▁utom",
        -10.390265930363853
      ],
      [
        "▁rimlig",
        -10.390276538745495
      ],
      [
        "förening",
        -10.390323711816752
      ],
      [
        "▁anslutning",
        -10.390653335024647
      ],
      [
        "▁Storbritannien",
        -10.390717701553747
      ],
      [
        "▁myndigheter",
        -10.391026751640359
      ],
      [
        "ledes",
        -10.391092373670974
      ],
      [
        "▁nio",
        -10.392632328091668
      ],
      [
        "▁We",
        -10.393499961915717
      ],
      [
        "▁föreningen",
        -10.393778414538037
      ],
      [
        "▁Kommer",
        -10.395453983961222
      ],
      [
        "▁hållbar",
        -10.3959805315018
      ],
      [
        "▁extremt",
        -10.396133720518629
      ],
      [
        "▁dricka",
        -10.397289110494981
      ],
      [
        "▁insatser",
        -10.397580349116298
      ],
      [
        "▁glada",
        -10.397889281195244
      ],
      [
        "▁daglig",
        -10.398676871312114
      ],
      [
        "▁euro",
        -10.398914720437139
      ],
      [
        "mera",
        -10.39990049670023
      ],
      [
        "▁Kultur",
        -10.400013472042279
      ],
      [
        "enskilda",
        -10.400562737945014
      ],
      [
        "The",
        -10.400927315940494
      ],
      [
        "▁Eva",
        -10.40104032893104
      ],
      [
        "▁hål",
        -10.401223149221407
      ],
      [
        "drag",
        -10.401345368454717
      ],
      [
        "politik",
        -10.401794666083845
      ],
      [
        "kontoret",
        -10.402053881475888
      ],
      [
        "▁enskild",
        -10.40259284066157
      ],
      [
        "▁skull",
        -10.402822826281168
      ],
      [
        "torp",
        -10.403053858291557
      ],
      [
        "▁framgångsrik",
        -10.403076500066197
      ],
      [
        "▁kompis",
        -10.403158243739686
      ],
      [
        "▁definitiv",
        -10.403562305626433
      ],
      [
        "orkar",
        -10.403859338837892
      ],
      [
        "cker",
        -10.403935318671238
      ],
      [
        "domstolen",
        -10.40399924959275
      ],
      [
        "▁Mark",
        -10.40429522505571
      ],
      [
        "▁sur",
        -10.40440769540548
      ],
      [
        "▁Mål",
        -10.405191528509262
      ],
      [
        "▁vända",
        -10.405201456259816
      ],
      [
        "▁metod",
        -10.406171546705076
      ],
      [
        "NA",
        -10.40687780037067
      ],
      [
        "göra",
        -10.407269635733154
      ],
      [
        "▁tidningen",
        -10.407635246966311
      ],
      [
        "▁torsdag",
        -10.407829625278271
      ],
      [
        "▁FÖR",
        -10.408021928365855
      ],
      [
        "vädret",
        -10.408085394053586
      ],
      [
        "nsåg",
        -10.40809296310505
      ],
      [
        "▁version",
        -10.408194812120726
      ],
      [
        "▁utvecklings",
        -10.408728565774515
      ],
      [
        "▁singlar",
        -10.408857655357782
      ],
      [
        "▁klubben",
        -10.408923960263454
      ],
      [
        "▁rök",
        -10.408968045014085
      ],
      [
        "▁Bank",
        -10.409472538368457
      ],
      [
        "▁tillfällig",
        -10.410251237691952
      ],
      [
        "▁van",
        -10.410337981373598
      ],
      [
        "▁Miljö",
        -10.411105302438639
      ],
      [
        "▁dusch",
        -10.411271640015947
      ],
      [
        "▁hjärtat",
        -10.411843760514452
      ],
      [
        "▁slutar",
        -10.411934941549692
      ],
      [
        "kra",
        -10.412043209220737
      ],
      [
        "klubb",
        -10.412062241176532
      ],
      [
        "▁våga",
        -10.412672427363157
      ],
      [
        "▁underbart",
        -10.412792988636381
      ],
      [
        "glas",
        -10.413362580761095
      ],
      [
        "ske",
        -10.414867063950998
      ],
      [
        "▁egenskaper",
        -10.41505268687829
      ],
      [
        "▁bekräfta",
        -10.41573222492389
      ],
      [
        "Både",
        -10.415867195483537
      ],
      [
        "▁br",
        -10.415939685036411
      ],
      [
        "▁utredning",
        -10.416160586629026
      ],
      [
        "▁utrymme",
        -10.416228599206734
      ],
      [
        "sund",
        -10.416395126767094
      ],
      [
        "▁moms",
        -10.416505732068245
      ],
      [
        "ST",
        -10.416655701431067
      ],
      [
        "▁tvätt",
        -10.416799640194034
      ],
      [
        "böcker",
        -10.416875910645576
      ],
      [
        "årig",
        -10.416945833295845
      ],
      [
        "brett",
        -10.417001548282933
      ],
      [
        "▁låga",
        -10.418275373434895
      ],
      [
        "hallen",
        -10.418323811319379
      ],
      [
        "▁fullständig",
        -10.419064065195302
      ],
      [
        "▁forsknings",
        -10.419706300725636
      ],
      [
        "hantering",
        -10.419866730031655
      ],
      [
        "▁fordon",
        -10.419891811500651
      ],
      [
        "uppgifter",
        -10.419988869617603
      ],
      [
        "närmast",
        -10.420604662297354
      ],
      [
        "kväll",
        -10.420622154664102
      ],
      [
        "▁presentera",
        -10.420928519493756
      ],
      [
        "flyttade",
        -10.421222311861115
      ],
      [
        "▁vuxen",
        -10.421637151356762
      ],
      [
        "▁motion",
        -10.42188655536749
      ],
      [
        "intresserade",
        -10.421937449994028
      ],
      [
        "mannen",
        -10.422569877145376
      ],
      [
        "originalet",
        -10.422927666478186
      ],
      [
        "hal",
        -10.422953983475153
      ],
      [
        "avtalet",
        -10.422958831430025
      ],
      [
        "märken",
        -10.42309393771386
      ],
      [
        "ID",
        -10.424186763603105
      ],
      [
        "▁kostnad",
        -10.424254768321187
      ],
      [
        "härligt",
        -10.424256179772684
      ],
      [
        "riktiga",
        -10.424777723132573
      ],
      [
        "stånd",
        -10.424891458204293
      ],
      [
        "hälften",
        -10.424901732167468
      ],
      [
        "▁metoder",
        -10.425039103575589
      ],
      [
        "▁bära",
        -10.42584003077478
      ],
      [
        "▁framgång",
        -10.426150418681853
      ],
      [
        "▁avgifter",
        -10.42622627568996
      ],
      [
        "▁hunn",
        -10.42632270038653
      ],
      [
        "▁enhet",
        -10.42669048865246
      ],
      [
        "inte",
        -10.426908309061691
      ],
      [
        "▁Spanien",
        -10.427224851522448
      ],
      [
        "work",
        -10.427377367103073
      ],
      [
        "til",
        -10.427517512708915
      ],
      [
        "▁erbjudande",
        -10.427547193811362
      ],
      [
        "▁fru",
        -10.427806259896446
      ],
      [
        "▁Ver",
        -10.428002248574144
      ],
      [
        "▁Magnus",
        -10.428078104242617
      ],
      [
        "▁Hus",
        -10.42816114892794
      ],
      [
        "sånt",
        -10.428254836663026
      ],
      [
        "serie",
        -10.428287584102668
      ],
      [
        "▁behandla",
        -10.428300708995268
      ],
      [
        "änd",
        -10.429076734076812
      ],
      [
        "bandet",
        -10.429118559993915
      ],
      [
        "▁lågt",
        -10.429426647457262
      ],
      [
        "värd",
        -10.42956006635217
      ],
      [
        "ledde",
        -10.429792338160366
      ],
      [
        "ish",
        -10.429839047204624
      ],
      [
        "▁Da",
        -10.430025196164957
      ],
      [
        "▁Nor",
        -10.430549515294233
      ],
      [
        "hindra",
        -10.43081329106308
      ],
      [
        "▁trygghet",
        -10.430819827976611
      ],
      [
        "▁aktiv",
        -10.431028166282935
      ],
      [
        "con",
        -10.431146770878524
      ],
      [
        "▁golv",
        -10.431199711805146
      ],
      [
        "▁mått",
        -10.43227183025688
      ],
      [
        "baserat",
        -10.432355038658532
      ],
      [
        "▁offentliga",
        -10.432486390027512
      ],
      [
        "▁färdig",
        -10.432545068433742
      ],
      [
        "▁deltagare",
        -10.432582889914526
      ],
      [
        "psykisk",
        -10.43280919424272
      ],
      [
        "▁Västra",
        -10.433072008521592
      ],
      [
        "▁po",
        -10.433119685030643
      ],
      [
        "▁komplett",
        -10.433258056146672
      ],
      [
        "▁ekonomisk",
        -10.433648465876672
      ],
      [
        "Förbättra",
        -10.434004602929408
      ],
      [
        "pga",
        -10.43451472203124
      ],
      [
        "▁resor",
        -10.434827629826138
      ],
      [
        "fria",
        -10.434839325201777
      ],
      [
        "språk",
        -10.43496294584299
      ],
      [
        "▁skriv",
        -10.43523247783499
      ],
      [
        "framtida",
        -10.435385758704925
      ],
      [
        "▁lycka",
        -10.435565853399114
      ],
      [
        "▁Inom",
        -10.435679196028525
      ],
      [
        "hand",
        -10.435804111954985
      ],
      [
        "▁back",
        -10.435971432993973
      ],
      [
        "längst",
        -10.436064113413515
      ],
      [
        "analys",
        -10.436068033104302
      ],
      [
        "▁organ",
        -10.43607417027023
      ],
      [
        "läste",
        -10.436214945863226
      ],
      [
        "beslutet",
        -10.436339420074258
      ],
      [
        "vandring",
        -10.436385549431705
      ],
      [
        "▁tomt",
        -10.436449935099011
      ],
      [
        "▁bostäder",
        -10.436578982133609
      ],
      [
        "IT",
        -10.436626476269687
      ],
      [
        "▁Helt",
        -10.436647330877005
      ],
      [
        "modellen",
        -10.436908219040895
      ],
      [
        "bro",
        -10.437612737526555
      ],
      [
        "▁parkering",
        -10.438169144870823
      ],
      [
        "upplever",
        -10.439367961760679
      ],
      [
        "Årets",
        -10.439401108957684
      ],
      [
        "baserad",
        -10.439428310775847
      ],
      [
        "personen",
        -10.439543557334426
      ],
      [
        "▁studera",
        -10.439551203668936
      ],
      [
        "▁Kalmar",
        -10.439982401716088
      ],
      [
        "▁IP",
        -10.44059531749259
      ],
      [
        "faktum",
        -10.440943465116934
      ],
      [
        "fullt",
        -10.440957894894035
      ],
      [
        "▁växt",
        -10.442382077445679
      ],
      [
        "▁VM",
        -10.443253784426403
      ],
      [
        "▁fjärde",
        -10.443306069206441
      ],
      [
        "▁svåra",
        -10.443348897743753
      ],
      [
        "▁gemensam",
        -10.443371275412982
      ],
      [
        "▁allvar",
        -10.443562296616463
      ],
      [
        "soffan",
        -10.443982702654719
      ],
      [
        "▁cancer",
        -10.444186961603446
      ],
      [
        "hörde",
        -10.444244541012452
      ],
      [
        "hinner",
        -10.444268494496143
      ],
      [
        "▁papper",
        -10.444566450698622
      ],
      [
        "▁Tri",
        -10.445559029791305
      ],
      [
        "▁hände",
        -10.445687268886045
      ],
      [
        "▁fiske",
        -10.446497545823265
      ],
      [
        "▁intressanta",
        -10.446502905552713
      ],
      [
        "▁stål",
        -10.447270198555891
      ],
      [
        "▁kunden",
        -10.447301774829228
      ],
      [
        "pel",
        -10.447507923356039
      ],
      [
        "▁rabatt",
        -10.447728650215037
      ],
      [
        "▁marknadsföring",
        -10.44824170959492
      ],
      [
        "Annars",
        -10.448581003827139
      ],
      [
        "lev",
        -10.448584978580218
      ],
      [
        "▁utrustning",
        -10.44877957939815
      ],
      [
        "▁grön",
        -10.449051039508031
      ],
      [
        "SK",
        -10.44914059134768
      ],
      [
        "▁stranden",
        -10.44919992001067
      ],
      [
        "▁äventyr",
        -10.44977503893406
      ],
      [
        "djur",
        -10.450126802174667
      ],
      [
        "positiva",
        -10.450405709385832
      ],
      [
        "ace",
        -10.450931688683395
      ],
      [
        "▁pdf",
        -10.45094912748368
      ],
      [
        "▁öl",
        -10.451622381684054
      ],
      [
        "ägare",
        -10.451812125441823
      ],
      [
        "Utmärkt",
        -10.45212988358473
      ],
      [
        "fil",
        -10.452990951588948
      ],
      [
        "▁Tillväxt",
        -10.453111688678487
      ],
      [
        "marknaden",
        -10.453294362143316
      ],
      [
        "▁iaf",
        -10.453513598486397
      ],
      [
        "▁Sand",
        -10.453784417806746
      ],
      [
        "▁jämn",
        -10.453926170065714
      ],
      [
        "▁debatt",
        -10.4539618108256
      ],
      [
        "mes",
        -10.454163309628633
      ],
      [
        "▁vinner",
        -10.454198710615705
      ],
      [
        "test",
        -10.454436037366724
      ],
      [
        "okej",
        -10.454665367946868
      ],
      [
        "jobbigt",
        -10.454701432770873
      ],
      [
        "generell",
        -10.455732673938488
      ],
      [
        "the",
        -10.455768418809742
      ],
      [
        "▁effektiv",
        -10.456191783070485
      ],
      [
        "ytan",
        -10.456555867795057
      ],
      [
        "sidor",
        -10.456785916424487
      ],
      [
        "Visa",
        -10.45728113039228
      ],
      [
        "ljus",
        -10.45743232865626
      ],
      [
        "▁fastighets",
        -10.457781048690464
      ],
      [
        "▁Larsson",
        -10.457845040106545
      ],
      [
        "don",
        -10.458111348484206
      ],
      [
        "▁artikeln",
        -10.458307961032675
      ],
      [
        "finansiella",
        -10.458410930302044
      ],
      [
        "utöver",
        -10.458554531205614
      ],
      [
        "räkning",
        -10.45991677976835
      ],
      [
        "paket",
        -10.459997713842117
      ],
      [
        "▁skatt",
        -10.460047401229952
      ],
      [
        "▁anpassa",
        -10.460485638963398
      ],
      [
        "▁välkommen",
        -10.460538628774282
      ],
      [
        "▁tyst",
        -10.460575666866218
      ],
      [
        "Dålig",
        -10.460645409232761
      ],
      [
        "lugnt",
        -10.460801640086455
      ],
      [
        "▁bestämma",
        -10.460810705536076
      ],
      [
        "qu",
        -10.46168548819963
      ],
      [
        "dra",
        -10.463323793843905
      ],
      [
        "▁naturligt",
        -10.46340974473021
      ],
      [
        "▁grå",
        -10.46344614261688
      ],
      [
        "▁finna",
        -10.463701268842573
      ],
      [
        "▁team",
        -10.463704294811842
      ],
      [
        "mött",
        -10.463746214024958
      ],
      [
        "▁sammanhang",
        -10.463767453688606
      ],
      [
        "skiljer",
        -10.464176817466631
      ],
      [
        "▁styrelsen",
        -10.464317106952672
      ],
      [
        "▁Thomas",
        -10.464360064180566
      ],
      [
        "▁gröna",
        -10.464898293175581
      ],
      [
        "▁sällskap",
        -10.465625180514493
      ],
      [
        "▁jämförelse",
        -10.465847083475952
      ],
      [
        "▁banan",
        -10.466093189122564
      ],
      [
        "bon",
        -10.46632231489336
      ],
      [
        "▁möten",
        -10.466686435946933
      ],
      [
        "▁tjäna",
        -10.466728210840751
      ],
      [
        "▁sömn",
        -10.466734803424375
      ],
      [
        "▁Vårt",
        -10.466856641916713
      ],
      [
        "▁bröd",
        -10.467165019904748
      ],
      [
        "förvaltningen",
        -10.46721950340189
      ],
      [
        "fulla",
        -10.467275286171047
      ],
      [
        "▁sms",
        -10.46735024180808
      ],
      [
        "▁Natur",
        -10.467378705745576
      ],
      [
        "unt",
        -10.467490522493177
      ],
      [
        "pal",
        -10.468004637056561
      ],
      [
        "▁Sjö",
        -10.468057583392694
      ],
      [
        "AB",
        -10.468204085748454
      ],
      [
        "▁forskare",
        -10.468347432962206
      ],
      [
        "▁aktiva",
        -10.468402503099387
      ],
      [
        "▁aktier",
        -10.468852224697478
      ],
      [
        "▁drag",
        -10.468879368276212
      ],
      [
        "åriga",
        -10.46914461437745
      ],
      [
        "{",
        -10.469494760502855
      ],
      [
        "ägna",
        -10.470023339854304
      ],
      [
        "▁Hy",
        -10.470313543359426
      ],
      [
        "▁hjärta",
        -10.470615790153039
      ],
      [
        "banken",
        -10.470674787229031
      ],
      [
        "vara",
        -10.470781195115528
      ],
      [
        "aktörer",
        -10.470904198002078
      ],
      [
        "▁By",
        -10.471196117101545
      ],
      [
        "▁Gu",
        -10.471450130880577
      ],
      [
        "▁Fler",
        -10.471510525272468
      ],
      [
        "▁karriär",
        -10.471931510610899
      ],
      [
        "▁levande",
        -10.4720360303518
      ],
      [
        "Bolaget",
        -10.472122286171928
      ],
      [
        "▁Ac",
        -10.472189834921902
      ],
      [
        "vänder",
        -10.472434267670218
      ],
      [
        "Ladda",
        -10.472576022783008
      ],
      [
        "▁korta",
        -10.47347106385305
      ],
      [
        "ativ",
        -10.473626054231426
      ],
      [
        "pågår",
        -10.473991992067901
      ],
      [
        "grund",
        -10.474207434050658
      ],
      [
        "texten",
        -10.474295935990362
      ],
      [
        "Börja",
        -10.474504168030412
      ],
      [
        "desto",
        -10.474564644757423
      ],
      [
        "▁medför",
        -10.47487450173213
      ],
      [
        "områden",
        -10.47511331116949
      ],
      [
        "gam",
        -10.475511481051266
      ],
      [
        "▁kallad",
        -10.47673058129978
      ],
      [
        "ance",
        -10.476981611822191
      ],
      [
        "AT",
        -10.477321596170349
      ],
      [
        "Flera",
        -10.477331887763782
      ],
      [
        "▁onsdag",
        -10.47759572481095
      ],
      [
        "▁modeller",
        -10.477763581051603
      ],
      [
        "HL",
        -10.477953104339496
      ],
      [
        "linjen",
        -10.477978568833139
      ],
      [
        "▁skador",
        -10.478036280544236
      ],
      [
        "▁Gra",
        -10.478530675346482
      ],
      [
        "▁Väl",
        -10.478618351194255
      ],
      [
        "▁nere",
        -10.479100742345612
      ],
      [
        "▁former",
        -10.479110953247947
      ],
      [
        "▁Mac",
        -10.47914603629389
      ],
      [
        "▁gräns",
        -10.480437961224007
      ],
      [
        "lack",
        -10.480496272467681
      ],
      [
        "ost",
        -10.480988835775513
      ],
      [
        "ness",
        -10.48103013985751
      ],
      [
        "▁grunden",
        -10.48109320813211
      ],
      [
        "klassiska",
        -10.481172606058912
      ],
      [
        "get",
        -10.481304714599846
      ],
      [
        "inge",
        -10.481361448969498
      ],
      [
        "▁Lång",
        -10.481443619961624
      ],
      [
        "uni",
        -10.481539784088973
      ],
      [
        "▁bus",
        -10.482078213145327
      ],
      [
        "syra",
        -10.482279592367808
      ],
      [
        "hotell",
        -10.482467991858437
      ],
      [
        "▁karaktär",
        -10.482964288704387
      ],
      [
        "golvet",
        -10.48299344224881
      ],
      [
        "back",
        -10.483433602180305
      ],
      [
        "▁uppfyll",
        -10.483854133669182
      ],
      [
        "mmer",
        -10.483867111692565
      ],
      [
        "syn",
        -10.484309202986827
      ],
      [
        "kommit",
        -10.485403498531564
[...]
