{
  "version": "1.0",
  "truncation": null,
  "padding": null,
  "added_tokens": [
    {
      "id": 0,
      "content": "[PAD]",
      "single_word": false,
      "lstrip": false,
      "rstrip": false,
      "normalized": false,
      "special": true
    },
    {
      "id": 1,
      "content": "[UNK]",
      "single_word": false,
      "lstrip": false,
      "rstrip": false,
      "normalized": false,
      "special": true
    },
    {
      "id": 2,
      "content": "[MASK]",
      "single_word": false,
      "lstrip": false,
      "rstrip": false,
      "normalized": false,
      "special": true
    },
    {
      "id": 3,
      "content": "[CLS]",
      "single_word": false,
      "lstrip": false,
      "rstrip": false,
      "normalized": false,
      "special": true
    },
    {
      "id": 4,
      "content": "[SEP]",
      "single_word": false,
      "lstrip": false,
      "rstrip": false,
      "normalized": false,
      "special": true
    }
  ],
  "normalizer": {
    "type": "Sequence",
    "normalizers": [
      {
        "type": "Nmt"
      },
      {
        "type": "NFKC"
      },
      {
        "type": "Replace",
        "pattern": {
          "Regex": " {2,}"
        },
        "content": " "
      }
    ]
  },
  "pre_tokenizer": {
    "type": "Sequence",
    "pretokenizers": [
      {
        "type": "Metaspace",
        "replacement": "▁",
        "add_prefix_space": true
      }
    ]
  },
  "post_processor": {
    "type": "TemplateProcessing",
    "single": [
      {
        "SpecialToken": {
          "id": "[CLS]",
          "type_id": 0
        }
      },
      {
        "Sequence": {
          "id": "A",
          "type_id": 0
        }
      },
      {
        "SpecialToken": {
          "id": "[SEP]",
          "type_id": 0
        }
      }
    ],
    "pair": [
      {
        "SpecialToken": {
          "id": "[CLS]",
          "type_id": 0
        }
      },
      {
        "Sequence": {
          "id": "A",
          "type_id": 0
        }
      },
      {
        "SpecialToken": {
          "id": "[SEP]",
          "type_id": 0
        }
      },
      {
        "Sequence": {
          "id": "B",
          "type_id": 1
        }
      },
      {
        "SpecialToken": {
          "id": "[SEP]",
          "type_id": 1
        }
      }
    ],
    "special_tokens": {
      "[CLS]": {
        "id": "[CLS]",
        "ids": [
          3
        ],
        "tokens": [
          "[CLS]"
        ]
      },
      "[SEP]": {
        "id": "[SEP]",
        "ids": [
          4
        ],
        "tokens": [
          "[SEP]"
        ]
      }
    }
  },
  "decoder": {
    "type": "Metaspace",
    "replacement": "▁",
    "add_prefix_space": true
  },
  "model": {
    "type": "Unigram",
    "unk_id": 1,
    "vocab": [
      [
        "[PAD]",
        0.0
      ],
      [
        "[UNK]",
        0.0
      ],
      [
        "[MASK]",
        0.0
      ],
      [
        "[CLS]",
        0.0
      ],
      [
        "[SEP]",
        0.0
      ],
      [
        "▁",
        -2.5930609689857675
      ],
      [
        ".",
        -3.660465684540579
      ],
      [
        "▁och",
        -3.822295993066529
      ],
      [
        ",",
        -3.878842604629263
      ],
      [
        "i",
        -3.985194062263652
      ],
      [
        "▁att",
        -4.07538244304218
      ],
      [
        "s",
        -4.236867719572437
      ],
      [
        "▁är",
        -4.439280345544411
      ],
      [
        "▁som",
        -4.469529928734946
      ],
      [
        "▁på",
        -4.47194701642179
      ],
      [
        "▁en",
        -4.538775002204659
      ],
      [
        "▁för",
        -4.57138818656626
      ],
      [
        "▁det",
        -4.60668133521003
      ],
      [
        "▁med",
        -4.731594419014019
      ],
      [
        "▁av",
        -4.75800878556721
      ],
      [
        "▁till",
        -4.900574651963666
      ],
      [
        "a",
        -5.006137904708886
      ],
      [
        "▁har",
        -5.0316551871487825
      ],
      [
        "t",
        -5.073508111583138
      ],
      [
        "▁jag",
        -5.184106079837957
      ],
      [
        "▁inte",
        -5.24810207279058
      ],
      [
        "▁om",
        -5.278925516139587
      ],
      [
        "en",
        -5.339535205191247
      ],
      [
        "▁den",
        -5.345621890604825
      ],
      [
        "▁ett",
        -5.39464514877843
      ],
      [
        "▁så",
        -5.463906174036527
      ],
      [
        "▁du",
        -5.5329797388435935
      ],
      [
        "▁de",
        -5.551760243185964
      ],
      [
        "▁kan",
        -5.554096832710211
      ],
      [
        "r",
        -5.6786943637567155
      ],
      [
        "▁vi",
        -5.715855249309865
      ],
      [
        "e",
        -5.736609556833475
      ],
      [
        "▁var",
        -5.7605891423661895
      ],
      [
        "▁Det",
        -5.814775639280644
      ],
      [
        "▁från",
        -5.859452114799922
      ],
      [
        "n",
        -5.866787447934048
      ],
      [
        "er",
        -5.867693798916143
      ],
      [
        "▁man",
        -5.872704855543432
      ],
      [
        "-",
        -5.951201267729029
      ],
      [
        "▁eller",
        -5.9892172545508835
      ],
      [
        ":",
        -6.0288757022970145
      ],
      [
        "▁men",
        -6.042527640344304
      ],
      [
        "▁ska",
        -6.179828122676383
      ],
      [
        "!",
        -6.210222494668374
      ],
      [
        "▁sig",
        -6.266767821145173
      ],
      [
        "▁in",
        -6.328174355260254
      ],
      [
        "▁Jag",
        -6.339071441765382
      ],
      [
        "?",
        -6.387788859814611
      ],
      [
        "▁när",
        -6.390472098907484
      ],
      [
        "d",
        -6.4083863709628535
      ],
      [
        "▁kommer",
        -6.410423109901915
      ],
      [
        "▁upp",
        -6.424590649634606
      ],
      [
        "▁ut",
        -6.43021286227008
      ],
      [
        ")",
        -6.4558080101735715
      ],
      [
        "▁här",
        -6.457357487096964
      ],
      [
        "▁–",
        -6.467306937490244
      ],
      [
        "▁vara",
        -6.473259476859809
      ],
      [
        "▁-",
        -6.476562554512807
      ],
      [
        "de",
        -6.482345679941423
      ],
      [
        "ar",
        -6.487358280509545
      ],
      [
        "▁I",
        -6.488059974114051
      ],
      [
        "o",
        -6.508406928090414
      ],
      [
        "▁finns",
        -6.513419836039143
      ],
      [
        "▁Vi",
        -6.526300716006695
      ],
      [
        "▁mer",
        -6.554894574313526
      ],
      [
        "▁alla",
        -6.558264051530719
      ],
      [
        "▁han",
        -6.5722714619160865
      ],
      [
        "▁där",
        -6.6009549305203645
      ],
      [
        "▁under",
        -6.645074114875401
      ],
      [
        "▁får",
        -6.68020994331731
      ],
      [
        "▁mycket",
        -6.6908170675096805
      ],
      [
        "▁(",
        -6.710966260885179
      ],
      [
        "...",
        -6.7209567592805755
      ],
      [
        "▁lite",
        -6.726666715163924
      ],
      [
        "▁också",
        -6.731589322784215
      ],
      [
        "▁nu",
        -6.731628336529996
      ],
      [
        "▁över",
        -6.73528437028523
      ],
      [
        "▁efter",
        -6.73775713331333
      ],
      [
        "▁ha",
        -6.751393599643196
      ],
      [
        "▁vill",
        -6.7542828370792805
      ],
      [
        "▁andra",
        -6.787573242705248
      ],
      [
        "▁få",
        -6.792609063821285
      ],
      [
        "▁även",
        -6.80114531763164
      ],
      [
        "▁bara",
        -6.801339068347255
      ],
      [
        "▁bra",
        -6.81459805508382
      ],
      [
        "▁då",
        -6.814674725250288
      ],
      [
        "/",
        -6.816070700356155
      ],
      [
        "▁hur",
        -6.819087051193282
      ],
      [
        "▁vid",
        -6.837243030010903
      ],
      [
        "▁mig",
        -6.838756420627478
      ],
      [
        "▁Men",
        -6.882999972326928
      ],
      [
        "et",
        -6.912588776667592
      ],
      [
        "▁vad",
        -6.915548857912274
      ],
      [
        "▁hade",
        -6.920128067882102
      ],
      [
        "▁skulle",
        -6.947511295313657
      ],
      [
        "▁dig",
        -6.948800637749507
      ],
      [
        "▁än",
        -6.957419242472502
      ],
      [
        "▁blir",
        -6.963058015441959
      ],
      [
        "▁år",
        -6.970163687134619
      ],
      [
        "▁En",
        -6.985382295037075
      ],
      [
        "\"",
        -6.996407009072627
      ],
      [
        "▁sin",
        -7.020325928695431
      ],
      [
        "▁mot",
        -7.030080949281103
      ],
      [
        "▁många",
        -7.058244646437712
      ],
      [
        "▁ta",
        -7.092645219852045
      ],
      [
        "▁din",
        -7.093720021744744
      ],
      [
        "▁ju",
        -7.102107679911631
      ],
      [
        "▁Den",
        -7.105129381726043
      ],
      [
        "▁gör",
        -7.11040435969492
      ],
      [
        "m",
        -7.122214428915941
      ],
      [
        "▁min",
        -7.122922336205784
      ],
      [
        "▁hon",
        -7.129224895336966
      ],
      [
        "▁göra",
        -7.147196131404165
      ],
      [
        "▁utan",
        -7.149452732838901
      ],
      [
        "▁något",
        -7.1550777751673635
      ],
      [
        "▁1",
        -7.158097238566569
      ],
      [
        "▁sedan",
        -7.183039258834981
      ],
      [
        "▁detta",
        -7.185305753140909
      ],
      [
        "▁För",
        -7.186494382865396
      ],
      [
        "▁\"",
        -7.202797360529226
      ],
      [
        "▁De",
        -7.205995503730051
      ],
      [
        "▁se",
        -7.2063395496151
      ],
      [
        "▁olika",
        -7.209252053294563
      ],
      [
        "▁två",
        -7.223903528292674
      ],
      [
        "▁allt",
        -7.232840605593793
      ],
      [
        "▁bli",
        -7.25110097307757
      ],
      [
        "▁oss",
        -7.269164987274152
      ],
      [
        "▁någon",
        -7.279862676527884
      ],
      [
        "▁genom",
        -7.280017363812442
      ],
      [
        "▁säger",
        -7.2917172406480955
      ],
      [
        "▁går",
        -7.296678594194155
      ],
      [
        "▁del",
        -7.299502702444457
      ],
      [
        "▁nya",
        -7.340851767978977
      ],
      [
        "▁helt",
        -7.342693297325619
      ],
      [
        "▁fick",
        -7.3443516004429235
      ],
      [
        "▁hela",
        -7.364841651938118
      ],
      [
        "▁Om",
        -7.369112208968131
      ],
      [
        "▁inom",
        -7.381069832650375
      ],
      [
        "k",
        -7.387511161244895
      ],
      [
        "p",
        -7.394704683115805
      ],
      [
        "▁varit",
        -7.398021775971392
      ],
      [
        "▁fram",
        -7.398077677923208
      ],
      [
        "▁2",
        -7.398274034570667
      ],
      [
        "▁blev",
        -7.399095668024765
      ],
      [
        "an",
        -7.399425063691208
      ],
      [
        "▁måste",
        -7.406853450278412
      ],
      [
        "▁första",
        -7.408831987267517
      ],
      [
        "l",
        -7.414618349372988
      ],
      [
        "▁några",
        -7.420813766145985
      ],
      [
        "▁samt",
        -7.430811969099246
      ],
      [
        "erna",
        -7.435157580738368
      ],
      [
        "h",
        -7.4386745342588885
      ],
      [
        "▁denna",
        -7.448942497275365
      ],
      [
        "▁Du",
        -7.4526365310620495
      ],
      [
        "▁mellan",
        -7.460964214725783
      ],
      [
        "▁kunna",
        -7.470488633154417
      ],
      [
        "▁ni",
        -7.503860101042699
      ],
      [
        "g",
        -7.515991659484355
      ],
      [
        "v",
        -7.522018488844617
      ],
      [
        "en.",
        -7.532092804364476
      ],
      [
        "▁Och",
        -7.534691388902839
      ],
      [
        "▁När",
        -7.549142110471065
      ],
      [
        "▁vår",
        -7.550834393148593
      ],
      [
        "▁S",
        -7.554171116111849
      ],
      [
        "ade",
        -7.55892758998041
      ],
      [
        "▁ser",
        -7.562261708697179
      ],
      [
        "▁väl",
        -7.596507940169134
      ],
      [
        "▁dem",
        -7.598654845446971
      ],
      [
        "y",
        -7.599271412522752
      ],
      [
        "▁vilket",
        -7.608955346779004
      ],
      [
        "▁annat",
        -7.610207419307335
      ],
      [
        "▁hos",
        -7.611471479692957
      ],
      [
        "▁sina",
        -7.611592557726581
      ],
      [
        "▁3",
        -7.618231784839029
      ],
      [
        "▁både",
        -7.623915281733032
      ],
      [
        "▁våra",
        -7.661351771810148
      ],
      [
        "▁tid",
        -7.663697903102912
      ],
      [
        "▁gå",
        -7.6637957169172655
      ],
      [
        "▁Så",
        -7.66552728754699
      ],
      [
        "▁Nu",
        -7.667016224295969
      ],
      [
        "▁stor",
        -7.689772257657676
      ],
      [
        "▁behöver",
        -7.689928009720768
      ],
      [
        "▁På",
        -7.7042084927548355
      ],
      [
        "▁dessa",
        -7.705612201808604
      ],
      [
        "▁rätt",
        -7.706638528063959
      ],
      [
        "▁kanske",
        -7.71056871769332
      ],
      [
        "▁bästa",
        -7.7111267367890814
      ],
      [
        ").",
        -7.713745960891931
      ],
      [
        "▁ny",
        -7.725601652412697
      ],
      [
        "▁barn",
        -7.732214641681731
      ],
      [
        "▁flera",
        -7.742151049168781
      ],
      [
        "▁sätt",
        -7.743721714434411
      ],
      [
        "▁innan",
        -7.747162537104714
      ],
      [
        "▁vet",
        -7.749926674440516
      ],
      [
        "▁själv",
        -7.752396872183988
      ],
      [
        "▁&",
        -7.754552758609664
      ],
      [
        "”",
        -7.75471725611119
      ],
      [
        "▁samma",
        -7.766141480985064
      ],
      [
        "▁ger",
        -7.777285514512602
      ],
      [
        "▁Han",
        -7.781255256388766
      ],
      [
        "▁tar",
        -7.7852157576641865
      ],
      [
        "▁Sverige",
        -7.803826356506926
      ],
      [
        "▁kom",
        -7.804796158922933
      ],
      [
        "▁alltid",
        -7.805934493214721
      ],
      [
        "▁ditt",
        -7.8123745170168135
      ],
      [
        "▁tre",
        -7.819729990987833
      ],
      [
        "at",
        -7.82330786007963
      ],
      [
        "▁ner",
        -7.825232803147005
      ],
      [
        "▁stora",
        -7.8282483594446415
      ],
      [
        "▁sitt",
        -7.828340368455509
      ],
      [
        "ande",
        -7.830180725611033
      ],
      [
        "▁Läs",
        -7.845492803785152
      ],
      [
        "▁bland",
        -7.845514201027685
      ],
      [
        "▁varje",
        -7.847182121014022
      ],
      [
        "are",
        -7.847313873135585
      ],
      [
        "▁Här",
        -7.848177924499495
      ],
      [
        ";",
        -7.851590235610267
      ],
      [
        "▁Att",
        -7.855239565835875
      ],
      [
        "▁dag",
        -7.868302194058364
      ],
      [
        "arna",
        -7.868448719875769
      ],
      [
        "▁väldigt",
        -7.868746970764075
      ],
      [
        "▁5",
        -7.869348958136261
      ],
      [
        "▁Detta",
        -7.887011329870969
      ],
      [
        "▁tycker",
        -7.893090112967238
      ],
      [
        "f",
        -7.895162833052218
      ],
      [
        "▁ligger",
        -7.897503336714694
      ],
      [
        "ens",
        -7.898541347739625
      ],
      [
        "▁4",
        -7.903115559803062
      ],
      [
        "▁10",
        -7.917458692068891
      ],
      [
        "▁gäller",
        -7.918636126892128
      ],
      [
        "▁A",
        -7.9207102745598945
      ],
      [
        "▁just",
        -7.939666757964156
      ],
      [
        "▁bort",
        -7.942547377115757
      ],
      [
        "▁hem",
        -7.948403388915901
      ],
      [
        "▁fått",
        -7.95093268346386
      ],
      [
        "▁hotell",
        -7.960534051062094
      ],
      [
        "▁mitt",
        -7.963076298618862
      ],
      [
        "▁hitta",
        -7.969250541429524
      ],
      [
        "▁komma",
        -7.9748503493477045
      ],
      [
        "c",
        -7.975803451545703
      ],
      [
        "des",
        -7.979198425136451
      ],
      [
        "▁ingen",
        -7.995269182802044
      ],
      [
        "▁Med",
        -8.000473570828763
      ],
      [
        "▁Har",
        -8.00218340639138
      ],
      [
        "▁riktigt",
        -8.00277325964688
      ],
      [
        "▁tror",
        -8.006105352685765
      ],
      [
        "▁svenska",
        -8.007121027018302
      ],
      [
        "▁ge",
        -8.012495751836456
      ],
      [
        "▁mest",
        -8.013235174161014
      ],
      [
        "▁dock",
        -8.014060950588316
      ],
      [
        "▁nog",
        -8.016598224138272
      ],
      [
        "▁bättre",
        -8.017696216561593
      ],
      [
        "▁Vad",
        -8.017842623355715
      ],
      [
        "▁skall",
        -8.020217426861148
      ],
      [
        "▁”",
        -8.021560950600069
      ],
      [
        "▁åt",
        -8.026102322974424
      ],
      [
        "▁gick",
        -8.0313137067971
      ],
      [
        "▁enligt",
        -8.033911030432044
      ],
      [
        "▁f",
        -8.034190475052256
      ],
      [
        "▁eftersom",
        -8.037005161896685
      ],
      [
        "▁|",
        -8.043210841491033
      ],
      [
        "▁Ett",
        -8.043558982730714
      ],
      [
        "▁redan",
        -8.044649275571834
      ],
      [
        "▁tidigare",
        -8.048337256351823
      ],
      [
        "▁annan",
        -8.059551516625378
      ],
      [
        "u",
        -8.062209280516608
      ],
      [
        "▁Hur",
        -8.069529513186298
      ],
      [
        "▁dina",
        -8.071660829205129
      ],
      [
        "▁runt",
        -8.076908315992647
      ],
      [
        "▁fler",
        -8.081654856110996
      ],
      [
        "▁kunde",
        -8.089695867770713
      ],
      [
        "ing",
        -8.091989327235217
      ],
      [
        "å",
        -8.100747560387829
      ],
      [
        "▁F",
        -8.104873474002815
      ],
      [
        "▁B",
        -8.105480275429809
      ],
      [
        "in",
        -8.105532531430292
      ],
      [
        "▁idag",
        -8.108543732808458
      ],
      [
        "or",
        -8.110075481267872
      ],
      [
        "▁fall",
        -8.114038686095563
      ],
      [
        "▁C",
        -8.114805522741745
      ],
      [
        "▁deras",
        -8.11644538136438
      ],
      [
        "▁gratis",
        -8.119240985204172
      ],
      [
        "▁be",
        -8.121308281589817
      ],
      [
        "▁personer",
        -8.129605553187327
      ],
      [
        "▁aldrig",
        -8.138761292908036
      ],
      [
        "▁verkligen",
        -8.153596292111718
      ],
      [
        "▁senaste",
        -8.153984704587138
      ],
      [
        "▁gjorde",
        -8.157978342381707
      ],
      [
        "▁dom",
        -8.161597774991765
      ],
      [
        "▁Man",
        -8.167373114382647
      ],
      [
        "x",
        -8.182037744108815
      ],
      [
        "▁information",
        -8.187482988365366
      ],
      [
        "▁plats",
        -8.192779905314994
      ],
      [
        "▁hjälp",
        -8.19558517962775
      ],
      [
        "▁företag",
        -8.19720760680422
      ],
      [
        "▁tillsammans",
        -8.200692581373556
      ],
      [
        "▁människor",
        -8.201655676328365
      ],
      [
        "▁mina",
        -8.203736366380587
      ],
      [
        "▁gång",
        -8.204642811109109
      ],
      [
        "▁tog",
        -8.205500049339399
      ],
      [
        "·",
        -8.20869375284764
      ],
      [
        "▁mindre",
        -8.21448002655814
      ],
      [
        "▁ofta",
        -8.224878744783462
      ],
      [
        "▁gjort",
        -8.225840429892223
      ],
      [
        "▁använda",
        -8.230358404926765
      ],
      [
        "▁M",
        -8.232264963317833
      ],
      [
        "▁sen",
        -8.243871762107275
      ],
      [
        "▁köpa",
        -8.24478977849958
      ],
      [
        "▁ur",
        -8.249044746031153
      ],
      [
        "▁läsa",
        -8.249146410402037
      ],
      [
        "▁därför",
        -8.250326354622151
      ],
      [
        "▁20",
        -8.25088223889969
      ],
      [
        "▁lika",
        -8.251964061085715
      ],
      [
        "▁6",
        -8.254233122659834
      ],
      [
        "▁lätt",
        -8.266513918000216
      ],
      [
        "▁tillbaka",
        -8.26840009133102
      ],
      [
        "▁står",
        -8.285854324204845
      ],
      [
        "▁Som",
        -8.288539269903913
      ],
      [
        "▁P",
        -8.294866593613545
      ],
      [
        "▁K",
        -8.29644290537396
      ],
      [
        "▁större",
        -8.296615706474121
      ],
      [
        "▁bör",
        -8.301727705141971
      ],
      [
        "el",
        -8.305659677525922
      ],
      [
        "▁egen",
        -8.309958950211984
      ],
      [
        "▁hans",
        -8.315043574835192
      ],
      [
        "▁direkt",
        -8.321800477411994
      ],
      [
        "▁E",
        -8.325330164553977
      ],
      [
        "▁grund",
        -8.328216072589822
      ],
      [
        "▁Efter",
        -8.328742944511411
      ],
      [
        "▁innebär",
        -8.331460621449526
      ],
      [
        "▁exempel",
        -8.337911555751262
      ],
      [
        "on",
        -8.341945710287252
      ],
      [
        "▁säga",
        -8.343243998411326
      ],
      [
        "▁per",
        -8.348485585773805
      ],
      [
        "▁Hon",
        -8.351997834572948
      ],
      [
        "▁enkelt",
        -8.358983750193367
      ],
      [
        "▁haft",
        -8.36038742514316
      ],
      [
        "▁via",
        -8.372102486536827
      ],
      [
        "▁spel",
        -8.378362304306163
      ],
      [
        "▁känner",
        -8.378619664789012
      ],
      [
        "▁stort",
        -8.379041320319976
      ],
      [
        "▁hög",
        -8.382063570320334
      ],
      [
        "ning",
        -8.382719334398127
      ],
      [
        "▁Då",
        -8.382839938004931
      ],
      [
        "▁par",
        -8.383090908794744
      ],
      [
        "▁små",
        -8.384409177126159
      ],
      [
        "▁8",
        -8.391212507114822
      ],
      [
        "▁Under",
        -8.391807136694604
      ],
      [
        "▁L",
        -8.393000695635116
      ],
      [
        "▁kr",
        -8.393086060675113
      ],
      [
        "▁blivit",
        -8.397300403585044
      ],
      [
        "▁7",
        -8.39748721949676
      ],
      [
        "b",
        -8.404101879210629
      ],
      [
        "▁ändå",
        -8.405376932618557
      ],
      [
        "▁tiden",
        -8.406227149815937
      ],
      [
        "▁15",
        -8.406603702185542
      ],
      [
        "▁online",
        -8.410374422752279
      ],
      [
        "man",
        -8.41184124577574
      ],
      [
        "▁visar",
        -8.414911435658492
      ],
      [
        "▁18",
        -8.421149318169318
      ],
      [
        "▁honom",
        -8.424638993924756
      ],
      [
        "▁hittar",
        -8.428456965564989
      ],
      [
        "en,",
        -8.429032663877686
      ],
      [
        "▁sex",
        -8.434802225440116
      ],
      [
        "▁inget",
        -8.445260130089126
      ],
      [
        "▁liten",
        -8.446593988831903
      ],
      [
        "▁god",
        -8.447990139444295
      ],
      [
        "▁hemma",
        -8.450247977093715
      ],
      [
        "▁of",
        -8.453333188996224
      ],
      [
        "▁vårt",
        -8.455365963125749
      ],
      [
        "▁dagar",
        -8.45730957334384
      ],
      [
        "▁T",
        -8.458055020859385
      ],
      [
        "▁ganska",
        -8.459250890103114
      ],
      [
        "▁kvar",
        -8.461928861230804
      ],
      [
        "▁faktiskt",
        -8.463664938168627
      ],
      [
        "▁mål",
        -8.465021909727643
      ],
      [
        "▁saker",
        -8.465444442131261
      ],
      [
        "▁svårt",
        -8.468988260412974
      ],
      [
        "▁Är",
        -8.469671007680766
      ],
      [
        "▁längre",
        -8.470322157371914
      ],
      [
        "▁gärna",
        -8.47085253963801
      ],
      [
        "▁börjar",
        -8.473486144317594
      ],
      [
        "S",
        -8.476228919154657
      ],
      [
        "▁känns",
        -8.477618017194695
      ],
      [
        "▁nära",
        -8.478552891705547
      ],
      [
        "▁omdömen",
        -8.483488013199251
      ],
      [
        "▁ca",
        -8.484572827644628
      ],
      [
        "Hotell",
        -8.488102575053075
      ],
      [
        "▁ännu",
        -8.488142483785223
      ],
      [
        "▁hålla",
        -8.488417815156158
      ],
      [
        "▁mat",
        -8.490768795335738
      ],
      [
        "▁vatten",
        -8.49249833805795
      ],
      [
        "▁kort",
        -8.500206415311633
      ],
      [
        "▁extra",
        -8.501341510880295
      ],
      [
        "▁the",
        -8.50306244919288
      ],
      [
        "▁hand",
        -8.50365844963862
      ],
      [
        "▁30",
        -8.50546280266788
      ],
      [
        "▁Alla",
        -8.506253177964897
      ],
      [
        "er.",
        -8.506685443500121
      ],
      [
        "▁inför",
        -8.507799596929255
      ],
      [
        "▁håller",
        -8.508322087406953
      ],
      [
        "▁nästan",
        -8.513728070117201
      ],
      [
        "▁fortfarande",
        -8.517924140459707
      ],
      [
        "▁procent",
        -8.518543228715409
      ],
      [
        "▁H",
        -8.523937999515605
      ],
      [
        "▁kvinnor",
        -8.52585613531873
      ],
      [
        "),",
        -8.52629923655097
      ],
      [
        "▁vissa",
        -8.526677243082485
      ],
      [
        "▁länge",
        -8.526957838298948
      ],
      [
        "▁handlar",
        -8.52763834926654
      ],
      [
        "\".",
        -8.531379274295881
      ],
      [
        "▁slut",
        -8.535176235347675
      ],
      [
        "▁vilka",
        -8.537126065483802
      ],
      [
        "▁vilken",
        -8.537292133007858
      ],
      [
        "▁precis",
        -8.541663492575447
      ],
      [
        "▁söker",
        -8.54249919567694
      ],
      [
        "▁erbjuder",
        -8.542840071364783
      ],
      [
        "▁pengar",
        -8.54556378591128
      ],
      [
        "▁lång",
        -8.54664006137843
      ],
      [
        "▁använder",
        -8.548593526706663
      ],
      [
        "▁folk",
        -8.550624410451906
      ],
      [
        "▁igen",
        -8.551161772841494
      ],
      [
        "▁liv",
        -8.557789999166497
      ],
      [
        "▁nytt",
        -8.55809925860405
      ],
      [
        "▁D",
        -8.563614575747923
      ],
      [
        "▁G",
        -8.565103683710108
      ],
      [
        "▁fast",
        -8.565366298744944
      ],
      [
        "▁dess",
        -8.565521540387072
      ],
      [
        "▁kommun",
        -8.568447241233494
      ],
      [
        "▁bil",
        -8.569152496765579
      ],
      [
        "▁sa",
        -8.571761700845622
      ],
      [
        "▁12",
        -8.573497002018945
      ],
      [
        "▁hoppas",
        -8.573974886438588
      ],
      [
        "▁ute",
        -8.576841153118654
      ],
      [
        "▁Stockholm",
        -8.580505970992954
      ],
      [
        "%",
        -8.581958486353324
      ],
      [
        "▁största",
        -8.583497791510394
      ],
      [
        "▁samtidigt",
        -8.584734641245896
      ],
      [
        "▁flesta",
        -8.586951382647324
      ],
      [
        "▁pris",
        -8.590735414515262
      ],
      [
        "▁endast",
        -8.594081713584814
      ],
      [
        "▁skapa",
        -8.594753841106934
      ],
      [
        "▁året",
        -8.595389262860362
      ],
      [
        "▁frågor",
        -8.597801614596987
      ],
      [
        "▁problem",
        -8.598929470981222
      ],
      [
        "▁fyra",
        -8.600857759631538
      ],
      [
        "0",
        -8.601155371092416
      ],
      [
        "▁000",
        -8.603212086183689
      ],
      [
        "▁nästa",
        -8.608034142118214
      ],
      [
        "▁sista",
        -8.60883708270684
      ],
      [
        "▁började",
        -8.611657566461151
      ],
      [
        "j",
        -8.613396278871571
      ],
      [
        "▁dejting",
        -8.613628986134062
      ],
      [
        "▁alltså",
        -8.61541070535206
      ],
      [
        "▁senare",
        -8.617666315498282
      ],
      [
        "▁form",
        -8.61766975938054
      ],
      [
        "▁Till",
        -8.61934291244425
      ],
      [
        "▁viktigt",
        -8.622345711690738
      ],
      [
        "▁bilder",
        -8.623678322343535
      ],
      [
        "er,",
        -8.626127857106088
      ],
      [
        "▁väg",
        -8.626529114862043
      ],
      [
        "▁sidan",
        -8.626800571640318
      ],
      [
        "▁först",
        -8.627890127051824
      ],
      [
        "▁and",
        -8.631512013537728
      ],
      [
        "liga",
        -8.644793698094958
      ],
      [
        "▁R",
        -8.648161643535571
      ],
      [
        "▁sett",
        -8.65307739156277
      ],
      [
        "▁minst",
        -8.65342560262317
      ],
      [
        "▁bild",
        -8.655183303114693
      ],
      [
        "▁rum",
        -8.656892633943071
      ],
      [
        "▁stöd",
        -8.658313673382851
      ],
      [
        "▁skriver",
        -8.662971852564148
      ],
      [
        "▁kring",
        -8.663098494545373
      ],
      [
        "att",
        -8.663341404339507
      ],
      [
        "▁hennes",
        -8.664830027130108
      ],
      [
        "▁egna",
        -8.66689588541511
      ],
      [
        "▁hel",
        -8.669286171297777
      ],
      [
        "▁ihop",
        -8.67123861012177
      ],
      [
        "▁spela",
        -8.673102898570637
      ],
      [
        "▁9",
        -8.67539205047702
      ],
      [
        "▁välja",
        -8.678154206145042
      ],
      [
        "▁år.",
        -8.684361401804182
      ],
      [
        "▁såg",
        -8.69569525027809
      ],
      [
        "­",
        -8.69742211961788
      ],
      [
        "▁all",
        -8.698878509703214
      ],
      [
        "▁gamla",
        -8.699229358466956
      ],
      [
        "▁jobb",
        -8.699831113947646
      ],
      [
        "▁person",
        -8.70037362867435
      ],
      [
        "▁dessutom",
        -8.701597564413943
      ],
      [
        "▁km",
        -8.704828484116147
      ],
      [
        "▁tips",
        -8.705365537596975
      ],
      [
        "▁Idag",
        -8.706765484425256
      ],
      [
        "▁gånger",
        -8.707231405108523
      ],
      [
        "▁istället",
        -8.711129011648751
      ],
      [
        "▁vidare",
        -8.713716597585055
      ],
      [
        "▁snabbt",
        -8.715927734566376
      ],
      [
        "▁henne",
        -8.722145447082406
      ],
      [
        "nde",
        -8.728285743257198
      ],
      [
        "▁lag",
        -8.734641858967281
      ],
      [
        "▁gott",
        -8.73586012688895
      ],
      [
        "inga",
        -8.737661878004088
      ],
      [
        "▁fel",
        -8.741693959913983
      ],
      [
        "▁fråga",
        -8.744822813602184
      ],
      [
        "▁hjälper",
        -8.744866879149683
      ],
      [
        "▁arbete",
        -8.746767688394305
      ],
      [
        "▁själva",
        -8.750547562024563
      ],
      [
        "▁2016",
        -8.750798750831635
      ],
      [
        "▁möjlighet",
        -8.753682498565844
      ],
      [
        "▁borde",
        -8.754290599718898
      ],
      [
        "▁lägga",
        -8.75980622404808
      ],
      [
        "▁verkar",
        -8.760541286009467
      ],
      [
        "▁hjälpa",
        -8.760680426390175
      ],
      [
        "▁dagen",
        -8.763491063120126
      ],
      [
        "Denna",
        -8.7638564443977
      ],
      [
        "▁trots",
        -8.765292632532857
      ],
      [
        "ligt",
        -8.765396417214175
      ],
      [
        "▁Även",
        -8.76716369109932
      ],
      [
        "▁fem",
        -8.77060232270293
      ],
      [
        "▁Se",
        -8.77215659502054
      ],
      [
        "▁typ",
        -8.772583901628051
      ],
      [
        "▁börja",
        -8.775044789943722
      ],
      [
        "▁The",
        -8.775356530813498
      ],
      [
        "▁gått",
        -8.776276929454855
      ],
      [
        "▁skriva",
        -8.77686926368605
      ],
      [
        "▁O",
        -8.778403339433194
      ],
      [
        "▁emot",
        -8.779454901934491
      ],
      [
        "▁delar",
        -8.779692736162652
      ],
      [
        "▁Sveriges",
        -8.781829156295698
      ],
      [
        "▁fin",
        -8.782436403780359
      ],
      [
        "▁fina",
        -8.783680661810758
      ],
      [
        "1",
        -8.784211851165436
      ],
      [
        "▁varför",
        -8.78977862340023
      ],
      [
        "▁långt",
        -8.791622719960777
      ],
      [
        "▁ville",
        -8.792589080495281
      ],
      [
        "▁Vid",
        -8.792763683916682
      ],
      [
        "▁klart",
        -8.794755117368203
      ],
      [
        "▁AB",
        -8.794908109084947
      ],
      [
        "▁enda",
        -8.796192119418354
      ],
      [
        "▁Nike",
        -8.797883136586586
      ],
      [
        "2",
        -8.798683595044677
      ],
      [
        "▁Visa",
        -8.800959244063565
      ],
      [
        "▁känna",
        -8.80342293548364
      ],
      [
        "▁män",
        -8.806087969525086
      ],
      [
        "▁N",
        -8.808489572431078
      ],
      [
        "iga",
        -8.811579188913063
      ],
      [
        "▁beslut",
        -8.814809922578153
      ],
      [
        "▁Max",
        -8.81574295260517
      ],
      [
        "▁14",
        -8.81587992054036
      ],
      [
        "M",
        -8.817534469861345
      ],
      [
        "▁brukar",
        -8.818631617278406
      ],
      [
        "▁kronor",
        -8.819232297753869
      ],
      [
        "▁Air",
        -8.820284785938828
      ],
      [
        "▁tänka",
        -8.822684551768464
      ],
      [
        "▁medan",
        -8.824811108137284
      ],
      [
        "▁16",
        -8.825320206197445
      ],
      [
        "▁arbetar",
        -8.826233351592277
      ],
      [
        "▁:)",
        -8.829374340736186
      ],
      [
        "▁V",
        -8.831910146363319
      ],
      [
        "▁tagit",
        -8.832284436528528
      ],
      [
        "▁2017",
        -8.836058358348836
      ],
      [
        "▁visa",
        -8.837783298447048
      ],
      [
        "▁2015",
        -8.83786897517602
      ],
      [
        "▁betala",
        -8.839135294937092
      ],
      [
        "▁11",
        -8.839514172310675
      ],
      [
        "▁antal",
        -8.840190391380217
      ],
      [
        "▁möjligt",
        -8.840261740444834
      ],
      [
        "▁17",
        -8.842391223673033
      ],
      [
        "▁miljoner",
        -8.843156146011466
      ],
      [
        "▁100",
        -8.844017093162625
      ],
      [
        "▁passar",
        -8.850084204998126
      ],
      [
        "▁Sedan",
        -8.851397739551958
      ],
      [
        "▁fanns",
        -8.85144566047006
      ],
      [
        "▁vecka",
        -8.85453996418519
      ],
      [
        "▁Av",
        -8.855909732247216
      ],
      [
        "▁kul",
        -8.856349898827832
      ],
      [
        "A",
        -8.857251804945848
      ],
      [
        "▁snart",
        -8.86216714896726
      ],
      [
        "▁sitter",
        -8.864787378865897
      ],
      [
        "▁25",
        -8.867992236286025
      ],
      [
        "▁kontakt",
        -8.87232669689708
      ],
      [
        "▁b",
        -8.873641984098995
      ],
      [
        "▁svar",
        -8.874968537936656
      ],
      [
        "▁början",
        -8.876127013512278
      ],
      [
        "▁namn",
        -8.876431399399069
      ],
      [
        "▁Tack",
        -8.876589217746442
      ],
      [
        "▁priser",
        -8.877547211411919
      ],
      [
        "▁veta",
        -8.878916915689212
      ],
      [
        ".se",
        -8.883870940806556
      ],
      [
        "▁ibland",
        -8.883881106191753
      ],
      [
        "▁dating",
        -8.891170048840184
      ],
      [
        "▁50",
        -8.891298575128884
      ],
      [
        "▁Min",
        -8.892498236910596
      ],
      [
        "▁låg",
        -8.89363906961419
      ],
      [
        "3",
        -8.893798010951862
      ],
      [
        "▁hus",
        -8.896440898638254
      ],
      [
        "▁utanför",
        -8.896513431056942
      ],
      [
        "▁ytterligare",
        -8.900627324374076
      ],
      [
        "al",
        -8.902598874155325
      ],
      [
        "▁gillar",
        -8.903954981351468
      ],
      [
        "om",
        -8.90622151245814
      ],
      [
        "era",
        -8.907018429989376
      ],
      [
        "▁13",
        -8.91236413909418
      ],
      [
        "▁to",
        -8.916477561635467
      ],
      [
        "4",
        -8.922781675813308
      ],
      [
        "▁båda",
        -8.923101813355304
      ],
      [
        "▁framför",
        -8.924530815143106
      ],
      [
        "\",",
        -8.924784784034925
      ],
      [
        "är",
        -8.92622230416215
      ],
      [
        "▁särskilt",
        -8.92652355170881
      ],
      [
        "▁helst",
        -8.92705572122548
      ],
      [
        "▁behov",
        -8.929293443173695
      ],
      [
        "son",
        -8.934438649495373
      ],
      [
        "▁skicka",
        -8.935486248125061
      ],
      [
        "ska",
        -8.937022852630124
      ],
      [
        "▁ned",
        -8.938140978313147
      ],
      [
        "▁kommit",
        -8.939868819521404
      ],
      [
        "▁egentligen",
        -8.940242332747811
      ],
      [
        "▁2014",
        -8.940320909290756
      ],
      [
        "ig",
        -8.946133637446744
      ],
      [
        "▁svensk",
        -8.948510571559211
      ],
      [
        "▁tag",
        -8.951272238656633
      ],
      [
        "▁världen",
        -8.951917729390573
      ],
      [
        "▁Kan",
        -8.953482872227225
      ],
      [
        "▁förra",
        -8.95498628045646
      ],
      [
        "▁gången",
        -8.955835023405848
      ],
      [
        "iska",
        -8.956775138651984
      ],
      [
        "▁minuter",
        -8.956959567488488
      ],
      [
        "▁maj",
        -8.957936147687372
      ],
      [
        "▁lämna",
        -8.961627756047502
      ],
      [
        "▁bäst",
        -8.962119648473003
      ],
      [
        "▁miljö",
        -8.963217499054474
      ],
      [
        "▁sagt",
        -8.963222557226757
      ],
      [
        "▁bok",
        -8.963923295040644
      ],
      [
        "▁används",
        -8.966065212313056
      ],
      [
        "▁produkter",
        -8.967028824174164
      ],
      [
        "▁Inte",
        -8.970335474952218
      ],
      [
        "▁tur",
        -8.97157520960002
      ],
      [
        "▁ansvar",
        -8.971826246419608
      ],
      [
        "▁ord",
        -8.972289204245037
      ],
      [
        "▁bakom",
        -8.974574421779176
      ],
      [
        "▁heller",
        -8.976165230534118
      ],
      [
        "▁veckan",
        -8.978279209423604
      ],
      [
        "▁arbeta",
        -8.98337681530095
      ],
      [
        "▁In",
        -8.983838568522387
      ],
      [
        "]",
        -8.98450879815075
      ],
      [
        "▁inne",
        -8.985116259544672
      ],
      [
        "▁fungerar",
        -8.985551920487394
      ],
      [
        "▁åter",
        -8.988021065644077
      ],
      [
        "▁bor",
        -8.990484012848047
      ],
      [
        "▁spelar",
        -8.99086157138648
      ],
      [
        "▁timmar",
        -8.990935130413545
      ],
      [
        "för",
        -8.991502634949356
      ],
      [
        "et.",
        -8.991510332209065
      ],
      [
        "▁for",
        -8.994075218286723
      ],
      [
        "▁energi",
        -8.998376781613247
      ],
      [
        "▁Där",
        -8.999453062484802
      ],
      [
        "▁Svenska",
        -9.001897367667922
      ],
      [
        "▁2013",
        -9.005071287101131
      ],
      [
        "▁Sen",
        -9.006351406751442
      ],
      [
        "▁lilla",
        -9.00671467621782
      ],
      [
        "▁#",
        -9.007011850900597
      ],
      [
        "▁sätta",
        -9.007809612877029
      ],
      [
        "▁resultat",
        -9.010440232388966
      ],
      [
        "▁tänker",
        -9.011349933794182
      ],
      [
        "▁åka",
        -9.015273478578248
      ],
      [
        "▁innehåller",
        -9.021723041112196
      ],
      [
        "▁dags",
        -9.021943230562824
      ],
      [
        "▁val",
        -9.02254629622579
      ],
      [
        "lig",
        -9.022976918622566
      ],
      [
        "▁äldre",
        -9.02461712510294
      ],
      [
        "▁livet",
        -9.025633942645781
      ],
      [
        "▁igen.",
        -9.029606398629626
      ],
      [
        "▁full",
        -9.031464214058234
      ],
      [
        "ste",
        -9.031719036527036
      ],
      [
        "▁Vill",
        -9.03256054578061
      ],
      [
        "▁högre",
        -9.032829690121302
      ],
      [
        "▁film",
        -9.032958807597598
      ],
      [
        "▁säkert",
        -9.034689660554895
      ],
      [
        "▁Dessutom",
        -9.036107668686999
      ],
      [
        "▁Hotel",
        -9.04347335649181
      ],
      [
        "▁igenom",
        -9.046948338499288
      ],
      [
        "Enligt",
        -9.048365946530799
      ],
      [
        "▁betyg",
        -9.051604883328691
      ],
      [
        "us",
        -9.052186785332543
      ],
      [
        "▁max",
        -9.052539145968929
      ],
      [
        "ö",
        -9.054199452906175
      ],
      [
        "▁Ta",
        -9.054931395994243
      ],
      [
        "▁Var",
        -9.056528071476961
      ],
      [
        "▁unga",
        -9.058035232229035
      ],
      [
        "▁färg",
        -9.065127330213597
      ],
      [
        "▁bygga",
        -9.068882691288778
      ],
      [
        "▁J",
        -9.07092874822952
      ],
      [
        "▁kör",
        -9.070984646701923
      ],
      [
        "▁händer",
        -9.071694910046428
      ],
      [
        "väl",
        -9.074668719910777
      ],
      [
        "▁sådan",
        -9.079749258199827
      ],
      [
        "▁ja",
        -9.080595730644463
      ],
      [
        "▁24",
        -9.080735212793517
      ],
      [
        "▁berättar",
        -9.081277289140113
      ],
      [
        "▁äta",
        -9.08240136928063
      ],
      [
        "▁lära",
        -9.087171408100753
      ],
      [
        "▁ingår",
        -9.089168583494446
      ],
      [
        "▁barnen",
        -9.090921594154505
      ],
      [
        "▁huvud",
        -9.092161765995051
      ],
      [
        "Många",
        -9.0925152531218
      ],
      [
        "▁2012",
        -9.093093521305645
      ],
      [
        "!!",
        -9.094450632519965
      ],
      [
        "T",
        -9.100079563262247
      ],
      [
        "▁steg",
        -9.100827176747215
      ],
      [
        "▁väljer",
        -9.102624824320884
      ],
      [
        "▁krav",
        -9.104538742128712
      ],
      [
        "▁dejta",
        -9.104568710927367
      ],
      [
        "▁försöka",
        -9.106160950835289
      ],
      [
        "▁främst",
        -9.108469838701025
      ],
      [
        "berg",
        -9.110997752943769
      ],
      [
        "ger",
        -9.1125174232864
      ],
      [
        "▁nätet",
        -9.11454229775859
      ],
      [
        "aste",
        -9.114745970132365
      ],
      [
        "▁Ja",
        -9.115882179496994
      ],
      [
        "▁verksamhet",
        -9.11951819049196
      ],
      [
        "I",
        -9.121874180658343
      ],
      [
        "▁projekt",
        -9.12466839857013
      ],
      [
        "▁följa",
        -9.125782557560827
      ],
      [
        "w",
        -9.125928513761451
      ],
      [
        "▁jobba",
        -9.127039242478075
      ],
      [
        "▁musik",
        -9.12729637606728
      ],
      [
        "▁menar",
        -9.127621593752536
      ],
      [
        "▁Bra",
        -9.134699040117253
      ],
      [
        "5",
        -9.135572380121358
      ],
      [
        "▁bonus",
        -9.136784132742655
      ],
      [
        "▁19",
        -9.136790675223102
      ],
      [
        "▁veckor",
        -9.137125065894672
      ],
      [
        "▁sida",
        -9.137428380636113
      ],
      [
        "▁[",
        -9.141187133528716
      ],
      [
        "▁samband",
        -9.141277459096626
      ],
      [
        "▁titta",
        -9.14267168602388
      ],
      [
        "▁utveckling",
        -9.146793576285551
      ],
      [
        "▁års",
        -9.149078179043787
      ],
      [
        "▁satt",
        -9.149360022288798
      ],
      [
        "▁goda",
        -9.149989055348545
      ],
      [
        "z",
        -9.152515236883456
      ],
      [
        "▁pa",
        -9.152977682722621
      ],
      [
        "▁vanligt",
        -9.155601422937336
      ],
      [
        "▁21",
        -9.156428211678016
      ],
      [
        "▁massa",
        -9.157219034018567
      ],
      [
        "▁januari",
        -9.15755912784019
      ],
      [
        "▁st",
        -9.158655542465857
      ],
      [
        "▁kl",
        -9.159739873452038
      ],
      [
        "▁företaget",
        -9.165551060657014
      ],
      [
        "▁personal",
        -9.166087326284345
      ],
      [
        "▁sker",
        -9.166267952919494
      ],
      [
        "▁ej",
        -9.166874381658992
      ],
      [
        "ut",
        -9.168528029623076
      ],
      [
        "▁Från",
        -9.168952401562848
      ],
      [
        "▁Genom",
        -9.170955321775144
      ],
      [
        "▁ifrån",
        -9.173205990603156
      ],
      [
        "vis",
        -9.17415443338048
      ],
      [
        "▁40",
        -9.174819102164445
      ],
      [
        "▁skolan",
        -9.176283790925373
      ],
      [
        "▁råd",
        -9.177630758597441
      ],
      [
        "▁lär",
        -9.178748337410859
      ],
      [
        "▁nå",
        -9.179409729207107
      ],
      [
        "Dessa",
        -9.183671150077796
      ],
      [
        "▁eget",
        -9.186201175502035
      ],
      [
        "▁Malmö",
        -9.186401649804928
      ],
      [
        "▁Allt",
        -9.18919565942808
      ],
      [
        "▁skrev",
        -9.19079150695538
      ],
      [
        "▁öka",
        -9.191745633221398
      ],
      [
        "▁inlägg",
        -9.193961191203693
      ],
      [
        "▁Ni",
        -9.194968535145078
      ],
      [
        "▁kvinna",
        -9.195728383643173
      ],
      [
        "▁månader",
        -9.195773032464428
      ],
      [
        "▁augusti",
        -9.196375502542534
      ],
      [
        "▁kolla",
        -9.196612861449923
      ],
      [
        "▁tillgång",
        -9.1967742635377
      ],
      [
        "▁frågan",
        -9.200919489873174
      ],
      [
        "”.",
        -9.2038493649577
      ],
      [
        "▁jobbar",
        -9.204712317163262
      ],
      [
        "▁mamma",
        -9.206354749205724
      ],
      [
        "▁sak",
        -9.206422280912395
      ],
      [
        "▁spelare",
        -9.206589658870737
      ],
      [
        "▁ljus",
        -9.20723451173529
      ],
      [
        "▁hotellet",
        -9.20956398384832
      ],
      [
        "▁tack",
        -9.20964174650715
      ],
      [
        "▁älskar",
        -9.210298913431922
      ],
      [
        "▁förslag",
        -9.210784859232273
      ],
      [
        "▁öppna",
        -9.211630220288017
      ],
      [
        "▁tio",
        -9.212016858010438
      ],
      [
        "▁erfarenhet",
        -9.2144858191361
      ],
      [
        "▁“",
        -9.21490342920858
      ],
      [
        "▁kunder",
        -9.216828242349255
      ],
      [
        "▁fortsätta",
        -9.217187881805398
      ],
      [
        "▁vem",
        -9.217412632435165
      ],
      [
        "▁tredje",
        -9.21946845192083
      ],
      [
        "▁uppgifter",
        -9.220393445286803
      ],
      [
        "▁landet",
        -9.220507365774743
      ],
      [
        "▁dra",
        -9.222971534670071
      ],
      [
        "▁rör",
        -9.223003937323282
      ],
      [
        "▁försöker",
        -9.223830189854743
      ],
      [
        "▁90",
        -9.224161822339912
      ],
      [
        "▁spännande",
        -9.224268616620147
      ],
      [
        "▁Vår",
        -9.226635374306717
      ],
      [
        "▁nätdejting",
        -9.229782943436998
      ],
      [
        "▁mars",
        -9.232903133784198
      ],
      [
        "▁22",
        -9.233985168050967
      ],
      [
        "▁casino",
        -9.23532117196652
      ],
      [
        "ge",
        -9.236527153593151
      ],
      [
        "▁fortsätter",
        -9.237562191389014
      ],
      [
        "▁kroppen",
        -9.237566235668172
      ],
      [
        "▁utbildning",
        -9.23932648963639
      ],
      [
        "▁betyder",
        -9.239448806658977
      ],
      [
        "▁alternativ",
        -9.240879855576852
      ],
      [
        "▁roligt",
        -9.241267893622426
      ],
      [
        "▁kontakta",
        -9.242042890542978
      ],
      [
        "▁vilja",
        -9.24485758114331
      ],
      [
        "▁fint",
        -9.246073259579138
      ],
      [
        "höll",
        -9.248142913364564
      ],
      [
        "▁ex",
        -9.248899767143326
      ],
      [
        "▁Ska",
        -9.250658743802516
      ],
      [
        "▁Be",
        -9.2519728294871
      ],
      [
        "▁stå",
        -9.252546580542013
      ],
      [
        "▁jul",
        -9.252561047748953
      ],
      [
        "het",
        -9.25282191427425
      ],
      [
        "▁Eller",
        -9.25299962291627
      ],
      [
        "▁resa",
        -9.253568529971778
      ],
      [
        "▁perfekt",
        -9.253682949443888
      ],
      [
        "▁program",
        -9.253783671552588
      ],
      [
        "▁2018",
        -9.255717790005077
      ],
      [
        "▁igång",
        -9.256838522526156
      ],
      [
        "▁service",
        -9.258242645651112
      ],
      [
        "sk",
        -9.258720744110795
      ],
      [
        "▁bo",
        -9.259109402436438
      ],
      [
        "igt",
        -9.262031680098026
      ],
      [
        "le",
        -9.262787221421464
      ],
      [
        "▁liksom",
        -9.26421114990456
      ],
      [
        "▁låter",
        -9.266765389135609
      ],
      [
        "▁arbets",
        -9.26721874657129
      ],
      [
        "▁mig.",
        -9.26725965698627
      ],
      [
        "Därför",
        -9.268029224226622
      ],
      [
        "▁vägen",
        -9.268416715181285
      ],
      [
        "▁liknande",
        -9.269184212180614
      ],
      [
        "▁bidra",
        -9.26968052553042
      ],
      [
        "▁favorit",
        -9.269720195414848
      ],
      [
        "▁W",
        -9.270302316766834
      ],
      [
        "▁heter",
        -9.27111506895377
      ],
      [
        "▁sommar",
        -9.271595409679525
      ],
      [
        "▁Mer",
        -9.27181448730271
      ],
      [
        "▁fr",
        -9.272702917138234
      ],
      [
        "orna",
        -9.273294906708475
      ],
      [
        "▁slutet",
        -9.275777631386134
      ],
      [
        "▁alls",
        -9.27605618655269
      ],
      [
        "▁krävs",
        -9.277094575466695
      ],
      [
        "▁köra",
        -9.282193886615472
      ],
      [
        "ä",
        -9.282593804929054
      ],
      [
        "▁2011",
        -9.284269707395435
      ],
      [
        "by",
        -9.28545902947026
      ],
      [
        "▁Sverige.",
        -9.289241256291076
      ],
      [
        "se",
        -9.290128438716932
      ],
      [
        "▁finnas",
        -9.290365243220746
      ],
      [
        "▁roll",
        -9.293073620858019
      ],
      [
        "▁fri",
        -9.293443886627335
      ],
      [
        "K",
        -9.294280038484992
      ],
      [
        "tt",
        -9.294558263030433
      ],
      [
        "▁23",
        -9.295989377900801
      ],
      [
        "▁ungefär",
        -9.29819323089066
      ],
      [
        "'",
        -9.299114924900882
      ],
      [
        "▁material",
        -9.301052135165511
      ],
      [
        "▁USA",
        -9.301207366289002
      ],
      [
        "▁användas",
        -9.301755240980464
      ],
      [
        "▁fort",
        -9.30196686769542
      ],
      [
        "▁gav",
        -9.306440818168959
      ],
      [
        "▁Göteborg",
        -9.307676755923325
      ],
      [
        "men",
        -9.30811870996024
      ],
      [
        "tyckte",
        -9.308494455936625
      ],
      [
        "▁juni",
        -9.309375464392406
      ],
      [
        "▁cirka",
        -9.310939797256594
      ],
      [
        "därmed",
        -9.31149703652186
      ],
      [
        "▁grupp",
        -9.311519249522156
      ],
      [
        "▁maskinövers",
        -9.311854751819435
      ],
      [
        "▁hör",
        -9.312214417921492
      ],
      [
        "ja",
        -9.313039392430817
      ],
      [
        "▁viktig",
        -9.313254665478567
      ],
      [
        "▁dit",
        -9.314351594897591
      ],
      [
        "▁•",
        -9.314462024278132
      ],
      [
        "▁risk",
        -9.315756513382981
      ],
      [
        "B",
        -9.315780591867611
      ],
      [
        "▁kultur",
        -9.316091876856065
      ],
      [
        "▁skor",
        -9.316385309914368
      ],
      [
        "▁glad",
        -9.320094471200557
      ],
      [
        "ar.",
        -9.320176349039546
      ],
      [
        "▁åren",
        -9.321650757910245
      ],
      [
        "▁viss",
        -9.321737064176098
      ],
      [
        "▁utveckla",
        -9.321850134997684
      ],
      [
        "▁absolut",
        -9.322631666398864
      ],
      [
        "▁exempelvis",
        -9.322927708517398
      ],
      [
        "▁poäng",
        -9.323082198636145
      ],
      [
        "▁jätte",
        -9.323562823341497
      ],
      [
        "▁engelska",
        -9.32507284635459
      ],
      [
        "▁match",
        -9.33165539461856
      ],
      [
        "▁varandra",
        -9.332667126539626
      ],
      [
        "▁snabb",
        -9.333879598523403
      ],
      [
        "anser",
        -9.335473713434967
      ],
      [
        "▁prata",
        -9.337215930630554
      ],
      [
        "▁kände",
        -9.337934962083942
      ],
      [
        "består",
        -9.338572674224828
      ],
      [
        "▁Kanske",
        -9.338900217735477
      ],
      [
        "▁beroende",
        -9.339521057089117
      ],
      [
        "▁senast",
        -9.340668268749697
      ],
      [
        "▁halv",
        -9.342005783630068
      ],
      [
        "visade",
        -9.342315130650643
      ],
      [
        "▁Ny",
        -9.343321558630254
      ],
      [
        "▁kunskap",
        -9.343918668423207
      ],
      [
        "▁§",
        -9.344253133407197
      ],
      [
        "▁besök",
        -9.344522912675632
      ],
      [
        "▁klara",
        -9.344694121564693
      ],
      [
        "▁tänkte",
        -9.348550718748678
      ],
      [
        "▁oftast",
        -9.348803379113285
      ],
      [
        "▁dejtingsajt",
        -9.349436393241408
      ],
      [
        "▁samarbete",
        -9.352682290561814
      ],
      [
        "▁speciellt",
        -9.35276708975825
      ],
      [
        "▁övriga",
        -9.35317190665621
      ],
      [
        "▁stod",
        -9.35409815594512
      ],
      [
        "▁blogg",
        -9.356377517336917
      ],
      [
        "lägger",
        -9.356774105010325
      ],
      [
        "▁2010",
        -9.35752746750846
      ],
      [
        "▁air",
        -9.357653837194675
      ],
      [
        "▁april",
        -9.35868991258319
      ],
      [
        "▁regeringen",
        -9.3593992274585
      ],
      [
        "såsom",
        -9.359455990820038
      ],
      [
        "▁behövs",
        -9.36050865160713
      ],
      [
        "▁oktober",
        -9.361754968971834
      ],
      [
        "▁arbetet",
        -9.362143494417278
      ],
      [
        "▁förstår",
        -9.36291275254782
      ],
      [
        "▁vanliga",
        -9.36308912299264
      ],
      [
        "F",
        -9.363225136069698
      ],
      [
        "▁recept",
        -9.363738638851464
      ],
      [
        "▁start",
        -9.36547328215892
      ],
      [
        "av",
        -9.366528065532195
      ],
      [
        "▁Hitta",
        -9.367463801433555
      ],
      [
        "▁sådana",
        -9.369388891513005
      ],
      [
        "▁närheten",
        -9.369764251942215
      ],
      [
        "▁Anna",
        -9.370180168369886
      ],
      [
        "▁följer",
        -9.370290611523806
      ],
      [
        "▁tanke",
        -9.372573652358662
      ],
      [
        "na.",
        -9.373088414312738
      ],
      [
        "▁system",
        -9.373855517153913
      ],
      [
        "▁meter",
        -9.37454402104069
      ],
      [
        "▁månad",
        -9.375632055505669
      ],
      [
        "▁ställa",
        -9.376198225622618
      ],
      [
        "▁följande",
        -9.377006748598317
      ],
      [
        "P",
        -9.377548103414696
      ],
      [
        "▁län",
        -9.378655373955752
      ],
      [
        "▁va",
        -9.3821891483464
      ],
      [
        "▁nike",
        -9.382907016438558
      ],
      [
        "▁dem.",
        -9.383951244036021
      ],
      [
        "bar",
        -9.385780979036545
      ],
      [
        "_",
        -9.386973386200717
      ],
      [
        "▁cm",
        -9.387750624455736
      ],
      [
        "Eftersom",
        -9.38910800324322
      ],
      [
        "▁vård",
        -9.389407124574014
      ],
      [
        "▁kommunen",
        -9.390397706901469
      ],
      [
        "▁lever",
        -9.390568520502736
      ],
      [
        "▁området",
        -9.391595547614347
      ],
      [
        "▁september",
        -9.392574295652675
      ],
      [
        "▁boken",
        -9.392591990746803
      ],
      [
        "6",
        -9.39352494614611
      ],
      [
        "åkte",
        -9.395337619967236
      ],
      [
        "▁otroligt",
        -9.395738630592623
      ],
      [
        "▁nämligen",
        -9.397771696837076
      ],
      [
        "▁köp",
        -9.398012148815505
      ],
      [
        "▁februari",
        -9.40057322171369
      ],
      [
        "▁behöva",
        -9.400862298623474
      ],
      [
        "▁bilen",
        -9.402896889172666
      ],
      [
        "▁*",
        -9.402914642120177
      ],
      [
        "▁1.",
        -9.403265555040424
      ],
      [
        "▁lan",
        -9.404548784750713
      ],
      [
        "▁Ut",
        -9.404638988639265
      ],
      [
        "▁uppdrag",
        -9.40560331852428
      ],
      [
        "alldeles",
        -9.40603239969364
      ],
      [
        "▁vänner",
        -9.406516798966354
      ],
      [
        "▁kvalitet",
        -9.407196441655142
      ],
      [
        "be",
        -9.407839321892522
      ],
      [
        "▁skapar",
        -9.408416295123429
      ],
      [
        "▁tro",
        -9.40919698387651
      ],
      [
        "▁jobbet",
        -9.40927315230033
      ],
      [
        "ma",
        -9.410016513161846
      ],
      [
        "▁säker",
        -9.415909615267719
      ],
      [
        "D",
        -9.41593705829094
      ],
      [
        "▁här.",
        -9.4160750915371
      ],
      [
        "▁stund",
        -9.4168484340556
      ],
      [
        "▁+",
        -9.417745593657987
      ],
      [
        "▁kräver",
        -9.418357320916787
      ],
      [
        "▁dagens",
        -9.418601410146026
      ],
      [
        "▁Ja,",
        -9.418731755722295
      ],
      [
        "▁klar",
        -9.419387706683949
      ],
      [
        "ch",
        -9.420818842699829
      ],
      [
        "▁fokus",
        -9.423273808577258
      ],
      [
        "▁länder",
        -9.425698255629616
      ],
      [
        "▁Varför",
        -9.425703361962169
      ],
      [
        "▁hår",
        -9.426786225316874
      ],
      [
        "▁lån",
        -9.427000647684553
      ],
      [
        "▁boende",
        -9.427250054379835
      ],
      [
        "▁delen",
        -9.428171958939616
      ],
      [
        "sätter",
        -9.42864468620171
      ],
      [
        "▁data",
        -9.42986463270705
      ],
      [
        "▁hälsa",
        -9.429925587979119
      ],
      [
        "▁Stockholms",
        -9.431432212510447
      ],
      [
        "▁igår",
        -9.431585868730236
      ],
      [
        "▁minska",
        -9.433335740371692
      ],
      [
        "▁sociala",
        -9.433831278342858
      ],
      [
        "la",
        -9.434646222684515
      ],
      [
        "ring",
        -9.435293797233653
      ],
      [
        "den",
        -9.437903392805602
      ],
      [
        "▁djur",
        -9.43884873121534
      ],
      [
        "(",
        -9.438919577644405
      ],
      [
        "▁december",
        -9.439903001839728
      ],
      [
        "beror",
        -9.439982343600644
      ],
      [
        "▁morgon",
        -9.44202864216924
      ],
      [
        "▁Nej",
        -9.443571638151875
      ],
      [
        "▁behandling",
        -9.444329589419816
      ],
      [
        "ly",
        -9.44586515911123
      ],
      [
        "▁stället",
        -9.447064557267172
      ],
      [
        "går",
        -9.448129092791058
      ],
      [
        "▁28",
        -9.448255741281422
      ],
      [
        "▁»",
        -9.448896353113742
      ],
      [
        "▁höra",
        -9.450554428648253
      ],
      [
        "L",
        -9.451030788555887
      ],
      [
        "▁världens",
        -9.451519630122041
      ],
      [
        "▁juli",
        -9.451628168809348
      ],
      [
        "▁intressant",
        -9.451774410706399
      ],
      [
        "▁låta",
        -9.451825696708001
      ],
      [
        "▁leder",
        -9.451826615247564
      ],
      [
        "▁telefon",
        -9.452169045198067
      ],
      [
        "8",
        -9.452814571021062
      ],
      [
        "▁berätta",
        -9.45295849531776
      ],
      [
        "▁förstå",
        -9.455107637623122
      ],
      [
        "▁bilden",
        -9.455284585942724
      ],
      [
        "▁produkt",
        -9.459104051496963
      ],
      [
        "ningen",
        -9.459750472580035
      ],
      [
        "▁rad",
        -9.459991847594383
      ],
      [
        "▁sol",
        -9.460247113793177
      ],
      [
        "▁kund",
        -9.460332410493193
      ],
      [
        "▁land",
        -9.46042265038552
      ],
      [
        "▁vackra",
        -9.46135755592701
      ],
      [
        "▁annars",
        -9.462085144903954
      ],
      [
        "▁klockan",
        -9.462093136128134
      ],
      [
        "▁hantera",
        -9.46641046575273
      ],
      [
        "▁oavsett",
        -9.466903609099592
      ],
      [
        "▁svart",
        -9.467302317329468
      ],
      [
        "▁60",
        -9.46795469827656
      ],
      [
        "▁Johan",
        -9.470476692811513
      ],
      [
        "▁tänkt",
        -9.470548495857543
      ],
      [
        "▁Per",
        -9.471491841551392
      ],
      [
        "▁bra.",
        -9.47215776956679
      ],
      [
        "▁Anders",
        -9.475406333662567
      ],
      [
        "▁intresse",
        -9.476875169163076
      ],
      [
        "+",
        -9.477087944962962
      ],
      [
        "▁viktiga",
        -9.477626640482145
      ],
      [
        "▁november",
        -9.478723277849161
      ],
      [
        "▁erbjuda",
        -9.478748595505676
      ],
      [
        "7",
        -9.480267953683613
      ],
      [
        "▁höga",
        -9.48084893470892
      ],
      [
        "▁app",
        -9.482585220898661
      ],
      [
        "land",
        -9.483398362748892
      ],
      [
        "▁27",
        -9.483956978241846
      ],
      [
        "sta",
        -9.484539400336232
      ],
      [
        "▁utifrån",
        -9.485179495479896
      ],
      [
        "▁träffa",
        -9.485415565578888
      ],
      [
        "R",
        -9.486442530641202
      ],
      [
        "▁anledning",
        -9.487025378568056
      ],
      [
        "ledande",
        -9.487198809972964
      ],
      [
        "ton",
        -9.487861626700958
      ],
      [
        "▁leva",
        -9.489144962758642
      ],
      [
        "▁Europa",
        -9.489184813642941
      ],
      [
        "▁—",
        -9.490816627407906
      ],
      [
        "▁internet",
        -9.493294110063745
      ],
      [
        "▁staden",
        -9.493424419020089
      ],
      [
        "▁mm",
        -9.495564029204424
      ],
      [
        "▁26",
        -9.496139848888772
      ],
      [
        "hus",
        -9.496891039812436
      ],
      [
        "*",
        -9.497096455799461
      ],
      [
        "▁fullt",
        -9.497178062632361
      ],
      [
        "▁sommaren",
        -9.499748030482975
      ],
      [
        "▁tjänster",
        -9.5009078048111
      ],
      [
        "▁Just",
        -9.502447160946424
      ],
      [
        "▁helgen",
        -9.502739287557228
      ],
      [
        "▁familjen",
        -9.502937092835376
      ],
      [
        "▁kallas",
        -9.503702352189396
      ],
      [
        "▁vän",
        -9.503717413549742
      ],
      [
        "isk",
        -9.504619917293164
      ],
      [
        "▁kvällen",
        -9.50536264327824
      ],
      [
        "▁SEK",
        -9.506572182192471
      ],
      [
        "▁ökar",
        -9.511301723291703
      ],
      [
        "▁sätt.",
        -9.511492116380639
      ],
      [
        "▁nu.",
        -9.51323277318449
      ],
      [
        "ar,",
        -9.514053749780842
      ],
      [
        "▁totalt",
        -9.514538340015484
      ],
      [
        "▁åker",
        -9.516818552463679
      ],
      [
        "antalet",
        -9.519005578948983
      ],
      [
        "▁omkring",
        -9.519185557385656
      ],
      [
        "▁Ha",
        -9.51958790208873
      ],
      [
        "▁visst",
        -9.520012939159093
      ],
      [
        "▁2.",
        -9.520345910313571
      ],
      [
        "▁spara",
        -9.520745652019016
      ],
      [
        "ur",
        -9.521066272567687
      ],
      [
        "▁möjligheter",
        -9.52131510724107
      ],
      [
        "▁byta",
        -9.522384110842989
      ],
      [
        "▁super",
        -9.522461096349131
      ],
      [
        "▁vänta",
        -9.523928128598138
      ],
      [
        "▁dela",
        -9.524109659523457
      ],
      [
        "▁långa",
        -9.525144307445272
      ],
      [
        "▁föräldrar",
        -9.525576571094392
      ],
      [
        "tittade",
        -9.525927802163233
      ],
      [
        "▁New",
        -9.525975711348277
      ],
      [
        "▁språk",
        -9.526377833030233
      ],
      [
        "▁familj",
        -9.526396130034833
      ],
      [
        "▁design",
        -9.52745409279694
      ],
      [
        "▁hämta",
        -9.528156272430937
      ],
      [
        "▁skönt",
        -9.529134714265624
      ],
      [
        "Mycket",
        -9.529290957931403
      ],
      [
        "▁börjat",
        -9.530246511747954
      ],
      [
        "▁testa",
        -9.533563743998526
      ],
      [
        "▁vanlig",
        -9.534615754191876
      ],
      [
        "▁sig.",
        -9.535642347757573
      ],
      [
        "▁natt",
        -9.536994418841028
      ],
      [
        "▁hittade",
        -9.537966166912922
      ],
      [
        "▁sitta",
        -9.53884997595733
      ],
      [
        "sson",
        -9.539112373228877
      ],
      [
        "▁söka",
        -9.539166750054799
      ],
      [
        "▁billiga",
        -9.540449669694341
      ],
      [
        "C",
        -9.541768983896963
      ],
      [
        "▁boka",
        -9.542151011098419
      ],
      [
        "▁tillhör",
        -9.542256136677354
      ],
      [
        "▁idag.",
        -9.543942900154558
      ],
      [
        "▁ordförande",
        -9.544700740456866
      ],
      [
        "ats",
        -9.54565769545192
      ],
      [
        "▁planera",
        -9.54569133700864
      ],
      [
        "▁lägre",
        -9.547291807773373
      ],
      [
        "E",
        -9.547624427333263
      ],
      [
        "▁högt",
        -9.547910122588716
      ],
      [
        "▁2019",
        -9.548000552914472
      ],
      [
        "9",
        -9.548054495577558
      ],
      [
        "▁tjejer",
        -9.548290871294554
      ],
      [
        "▁artikel",
        -9.548733469772113
      ],
      [
        "allra",
        -9.550902707173003
      ],
      [
        "ter",
        -9.551720883489766
      ],
      [
        "▁sådant",
        -9.55234047692793
      ],
      [
        "▁hund",
        -9.553400043513944
      ],
      [
        "–",
        -9.553797940651204
      ],
      [
        "▁gammal",
        -9.554611361716452
      ],
      [
        "▁date",
        -9.555110783726477
      ],
      [
        "▁ovan",
        -9.555179812151755
      ],
      [
        "▁plan",
        -9.555397160534193
      ],
      [
        "▁lokala",
        -9.55702737365397
      ],
      [
        "▁vann",
        -9.557907435769726
      ],
      [
        "tal",
        -9.559052746518898
      ],
      [
        "▁Köp",
        -9.559399992915038
      ],
      [
        "▁respektive",
        -9.560848184362674
      ],
      [
        "▁kl.",
        -9.560915979012591
      ],
      [
        "▁flyg",
        -9.563519646610503
      ],
      [
        "▁flytta",
        -9.564128083145883
      ],
      [
        "▁skrivit",
        -9.564346505914306
      ],
      [
        "▁X",
        -9.564564016101347
      ],
      [
        "▁skillnad",
        -9.565357806055834
      ],
      [
        "▁exakt",
        -9.566568443865167
      ],
      [
        "ka",
        -9.56733101210789
      ],
      [
        "▁kväll",
        -9.568562861917025
      ],
      [
        "▁elever",
        -9.571627925480437
      ],
      [
        "▁natur",
        -9.57465431999416
      ],
      [
        "nas",
        -9.575146937447641
      ],
      [
        "va",
        -9.576452617018226
      ],
      [
        "▁iväg",
        -9.576670445910676
      ],
      [
        "▁recensioner",
        -9.578044776848758
      ],
      [
        "▁dejtingsajter",
        -9.57935120748755
      ],
      [
        "▁skol",
        -9.579359758015828
      ],
      [
        "▁förbättra",
        -9.579985617527312
      ],
      [
        "▁möjligt.",
        -9.581320634939328
      ],
      [
        "▁resenärer",
        -9.581753139348397
      ],
      [
        "▁U",
        -9.582325543979993
      ],
      [
        "▁typer",
        -9.585883393410976
      ],
      [
        "bo",
        -9.586090531393669
      ],
      [
        "'s",
        -9.58679903377765
      ],
      [
        "samtliga",
        -9.587045170600405
      ],
      [
        "ets",
        -9.587591359951732
      ],
      [
        "drar",
        -9.58897380350773
      ],
      [
        "▁tyvärr",
        -9.58907412139634
      ],
      [
        "▁t.ex.",
        -9.589162933332709
      ],
      [
        "▁värde",
        -9.589291561729679
      ],
      [
        "▁tas",
        -9.592080005678497
      ],
      [
        "▁träning",
        -9.592188917504993
      ],
      [
        "▁Jo",
        -9.593102330931458
      ],
      [
        "▁verksamheten",
        -9.593977198668274
      ],
      [
        "dag",
        -9.594997901700303
      ],
      [
        "▁polisen",
        -9.595546684580974
      ],
      [
        "▁La",
        -9.596367059134273
      ],
      [
        "▁by",
        -9.600654914439914
      ],
      [
        "▁lättare",
        -9.602009568087526
      ],
      [
        "▁köpte",
        -9.602066138253587
      ],
      [
        "▁2009",
        -9.602631500695654
      ],
      [
        "▁handla",
        -9.604379026175772
      ],
      [
        "▁född",
        -9.605568928666518
      ],
      [
        "▁stark",
        -9.60597141881149
      ],
      [
        "▁träna",
        -9.606299842783864
      ],
      [
        "▁dejtingsidor",
        -9.606451661711764
      ],
      [
        "ha",
        -9.607091780738479
      ],
      [
        "▁topp",
        -9.607421995051855
      ],
      [
        "▁utmärkt",
        -9.60853761605915
      ],
      [
        "▁sju",
        -9.608902283895162
      ],
      [
        "lan",
        -9.610922061257135
      ],
      [
        "▁kostar",
        -9.611653454312235
      ],
      [
        "▁väntar",
        -9.612102777351955
      ],
      [
        "▁massor",
        -9.615402920580966
      ],
      [
        "▁ändra",
        -9.617628524281766
      ],
      [
        "▁vinna",
        -9.620778796637854
      ],
      [
        "▁medlemmar",
        -9.621270857002784
      ],
      [
        "▁200",
        -9.621624932064844
      ],
      [
        "▁29",
        -9.622381217647094
      ],
      [
        "▁tidigt",
        -9.622848975870872
      ],
      [
        "▁enkel",
        -9.624652161533644
      ],
      [
        "ell",
        -9.625258127874055
      ],
      [
        "▁samtal",
        -9.625260797603122
      ],
      [
        "▁tillräckligt",
        -9.625298547859549
      ],
      [
        "▁spelade",
        -9.626330341602527
      ],
      [
        "▁bär",
        -9.626538184140157
      ],
      [
        "▁högsta",
        -9.627597539531799
      ],
      [
        "▁El",
        -9.628040336189953
      ],
      [
        "▁konstatera",
        -9.628883649865267
      ],
      [
        "▁ren",
        -9.62937944359181
      ],
      [
        "▁vikt",
        -9.630536131198943
      ],
      [
        "um",
        -9.631623405068051
      ],
      [
        "▁dag.",
        -9.631691922490129
      ],
      [
        "▁pappa",
        -9.631723857548835
      ],
      [
        "bygger",
        -9.632037946523383
      ],
      [
        "▁fortsatt",
        -9.632042101560245
      ],
      [
        "▁läser",
        -9.632802254270556
      ],
      [
        "▁lista",
        -9.635735460566158
      ],
      [
        "▁mobil",
        -9.636051349964152
      ],
      [
        "val",
        -9.637546627333863
      ],
      [
        "▁nedan",
        -9.638745668213675
      ],
      [
        "▁trä",
        -9.638998145469873
      ],
      [
        "▁bolag",
        -9.640278971941857
      ],
      [
        "▁användning",
        -9.640345845247527
      ],
      [
        "gatan",
        -9.642318280376404
      ],
      [
        "Samtidigt",
        -9.642508814822854
      ],
      [
        "▁huset",
        -9.643084430609806
      ],
      [
        "▁glas",
        -9.644199210467484
      ],
      [
        "▁Maria",
        -9.645757349172328
      ],
      [
        "▁Bo",
        -9.645805456567002
      ],
      [
        "▁hemsida",
        -9.64670527434486
      ],
      [
        "▁populära",
        -9.646736681229173
      ],
      [
        "▁dig.",
        -9.647765847752579
      ],
      [
        "erade",
        -9.647830775790952
      ],
      [
        "gen",
        -9.64831353425046
      ],
      [
        "▁31",
        -9.649566027829367
      ],
      [
        "▁lagen",
        -9.650760005955178
      ],
      [
        "▁la",
        -9.651783776174142
      ],
      [
        "▁Facebook",
        -9.65205598982284
      ],
      [
        "▁stil",
        -9.65222270937522
      ],
      [
        "▁reda",
        -9.652869126604227
      ],
      [
        "gående",
        -9.654303790853481
      ],
      [
        "▁teknik",
        -9.655932215781005
      ],
      [
        "▁håll",
        -9.656286063058943
      ],
      [
        "▁vuxna",
        -9.657386126709214
      ],
      [
        "enbart",
        -9.657539640809839
      ],
      [
        "Varje",
        -9.65795532057192
      ],
      [
        "▁valt",
        -9.658001836766893
      ],
      [
        "ställer",
        -9.658687813963871
      ],
      [
        "▁Uppsala",
        -9.658890446432768
      ],
      [
        "kända",
        -9.65978278655265
      ],
      [
        "▁gällande",
        -9.660677985800534
      ],
      [
        "▁oss.",
        -9.661146277930866
      ],
      [
        "▁böcker",
        -9.66115315567632
      ],
      [
        "▁matchen",
        -9.661228683848563
      ],
      [
        "▁Ingen",
        -9.661696342322001
      ],
      [
        "▁dator",
        -9.661799042905098
      ],
      [
        "▁Två",
        -9.662750988763626
      ],
      [
        "▁samhället",
        -9.663900984778333
      ],
      [
        "▁Re",
        -9.664119762964038
      ],
      [
        "tid",
        -9.66473347773215
      ],
      [
        "▁ekonomiska",
        -9.665031798814809
      ],
      [
        "N",
        -9.666746565325852
      ],
      [
        "▁hända",
        -9.667142911523872
      ],
      [
        "▁sälja",
        -9.66726818589273
      ],
      [
        "bara",
        -9.670130105929754
      ],
      [
        "▁samman",
        -9.671061178736805
      ],
      [
        "▁Peter",
        -9.671224944889591
      ],
      [
        "▁stad",
        -9.671660668973828
      ],
      [
        "Hoppas",
        -9.673265366059722
      ],
      [
        "▁text",
        -9.67342291147353
      ],
      [
        "aren",
        -9.67520542502386
      ],
      [
        "▁gäster",
        -9.675266947670458
      ],
      [
        "▁sade",
        -9.676499207723106
      ],
      [
        "▁viktigaste",
        -9.67723598215985
      ],
      [
        "▁ut.",
        -9.677410166065432
      ],
      [
        "▁år,",
        -9.67751779470962
      ],
      [
        "▁forskning",
        -9.679375232039598
      ],
      [
        "▁tv",
        -9.680050567774195
      ],
      [
        "▁tillgängliga",
        -9.680514701306166
      ],
      [
        "▁bak",
        -9.682472393606316
      ],
      [
        "▁snö",
        -9.682563629417343
      ],
      [
        "▁kredit",
        -9.683959924770758
      ],
      [
        "▁dåligt",
        -9.684737872180365
      ],
      [
        "inklusive",
        -9.685054400751254
      ],
      [
        "▁lunch",
        -9.685795738722279
      ],
      [
        "▁regler",
        -9.686878222736393
      ],
      [
        "▁förstås",
        -9.687831478144398
      ],
      [
        "▁leda",
        -9.688000843675331
      ],
      [
        "▁ögon",
        -9.688664743670083
      ],
      [
        "▁syn",
        -9.688762329666778
      ],
      [
        "▁ske",
        -9.689884045187728
      ],
      [
        "▁kaffe",
        -9.69002838895143
      ],
      [
        "▁lyckas",
        -9.690243568136166
      ],
      [
        "▁historia",
        -9.690732351462623
      ],
      [
        "▁Hans",
        -9.69077036384429
      ],
      [
        "▁åtgärder",
        -9.691148874955077
      ],
      [
        "▁Tänk",
        -9.691305132441327
      ],
      [
        "▁ljud",
        -9.694469245463226
      ],
      [
        "▁hösten",
        -9.695511680038507
      ],
      [
        "▁bygg",
        -9.695651701148499
      ],
      [
        "▁nöjd",
        -9.697636236819264
      ],
      [
        "spel",
        -9.697638560114799
      ],
      [
        "▁ladda",
        -9.698565306523399
      ],
      [
        "▁kommande",
        -9.698950804495633
      ],
      [
        "nings",
        -9.699303332097598
      ],
      [
        "▁pass",
        -9.700631893852975
      ],
      [
        "▁500",
        -9.701297275076842
      ],
      [
        "▁kontroll",
        -9.701779963444435
      ],
      [
        "▁läst",
        -9.701785193682191
      ],
      [
        "▁hit",
        -9.705430918204122
      ],
      [
        "ering",
        -9.706452414433702
      ],
      [
        "”,",
        -9.70673758613592
      ],
      [
        "▁Lars",
        -9.708491682279169
      ],
      [
        "▁rent",
        -9.709149255181272
      ],
      [
        "▁kraft",
        -9.709413606463247
      ],
      [
        "▁tydligt",
        -9.709983062422095
      ],
      [
        "▁Barn",
        -9.710767883690083
      ],
      [
        "▁Bara",
        -9.710871122120658
      ],
      [
        "▁trodde",
        -9.710946438590545
      ],
      [
        "▁verktyg",
        -9.711436076976426
      ],
      [
        "▁trevlig",
        -9.711659418435394
      ],
      [
        "var",
        -9.712884975216372
      ],
      [
        "▁luft",
        -9.713187637791467
      ],
      [
        "▁värme",
        -9.715096367044957
      ],
      [
        "▁barnet",
        -9.71666605436231
      ],
      [
        "▁närmare",
        -9.717244242301916
      ],
      [
        "mer",
        -9.717813581969185
      ],
      [
        "▁Trots",
        -9.71787417949415
      ],
      [
        "▁läge",
        -9.718400405318853
      ],
      [
        ".\"",
        -9.71841127911144
      ],
      [
        "▁dam",
        -9.718415165332791
      ],
      [
        "ström",
        -9.719034431067517
      ],
      [
        "▁personliga",
        -9.719652085178476
      ],
      [
        "▁områden",
        -9.72019350797945
      ],
      [
        "betydligt",
        -9.720943605632277
      ],
      [
        "▁påverka",
        -9.721540601910608
      ],
      [
        "▁lärare",
        -9.722357448260787
      ],
      [
        "▁platser",
        -9.722995393066034
      ],
      [
        "▁bit",
        -9.723144008369587
      ],
      [
        "▁låt",
        -9.723672152704566
      ],
      [
        "▁marknaden",
        -9.723693272260219
      ],
      [
        "▁semester",
        -9.72437980402359
      ],
      [
        "▁påverkar",
        -9.724875540184986
      ],
      [
        "▁lokal",
        -9.725173007269508
      ],
      [
        "!!!",
        -9.725522069860157
      ],
      [
        "▁dejtingsida",
        -9.725630978406052
      ],
      [
        "Klicka",
        -9.726031877003601
      ],
      [
        "▁också.",
        -9.726516669026221
      ],
      [
        "gick",
        -9.726576661436416
      ],
      [
        "▁äter",
        -9.726716379767604
      ],
      [
        "år",
        -9.726869355594708
      ],
      [
        "och",
        -9.727192007042351
      ],
      [
        "▁kläder",
        -9.727197380755877
      ],
      [
        "▁studie",
        -9.727749684719114
      ],
      [
        "▁eventuell",
        -9.729962129613629
      ],
      [
        "▁privat",
        -9.730185552387784
      ],
      [
        "rum",
        -9.730200703723485
      ],
      [
        "▁framtiden",
        -9.731170797521218
      ],
      [
        "▁hårt",
        -9.731248374914255
      ],
      [
        "▁Kina",
        -9.732289356155189
      ],
      [
        "▁däremot",
        -9.732303058796104
      ],
      [
        "▁Finns",
        -9.732588809786934
      ],
      [
        "▁video",
        -9.733091803565202
      ],
      [
        "vore",
        -9.733281720710893
      ],
      [
        "ett",
        -9.734235802814576
      ],
      [
        "H",
        -9.734746518766435
      ],
      [
        "▁kallade",
        -9.737911711715773
      ],
      [
        "▁kompetens",
        -9.737922615025086
      ],
      [
        "▁vänster",
        -9.73951382318501
      ],
      [
        "▁Upp",
        -9.740104070000859
      ],
      [
        "erad",
        -9.740220392824776
      ],
      [
        "jämfört",
        -9.741102503988527
      ],
      [
        "▁säsongen",
        -9.741254356683115
      ],
      [
        "ökad",
        -9.741309706759212
      ],
      [
        "utgör",
        -9.741624882950912
      ],
      [
        "▁skola",
        -9.741762486553315
      ],
      [
        "Reward",
        -9.741884604403154
      ],
      [
        "▁ensam",
        -9.742501468884296
      ],
      [
        "▁storlek",
        -9.742858470457048
      ],
      [
        "▁övrigt",
        -9.742923802211662
      ],
      [
        "▁önskar",
        -9.743451267429057
      ],
      [
        "▁Fortsätt",
        -9.744651501838915
      ],
      [
        "▁mängd",
        -9.745163146221271
      ],
      [
        "▁bad",
        -9.749412693125313
      ],
      [
        "del",
        -9.749450996832715
      ],
      [
        "▁bidrag",
        -9.7494687830251
      ],
      [
        "▁klicka",
        -9.750997453222098
      ],
      [
        "▁filmen",
        -9.751513690948915
      ],
      [
        "▁sport",
        -9.752201484627586
      ],
      [
        "▁billigt",
        -9.752211449151382
      ],
      [
        "▁skada",
        -9.753427020307317
      ],
      [
        "▁Fast",
        -9.75499692974854
      ],
      [
        "▁Å",
        -9.755417441970327
      ],
      [
        "▁Välkommen",
        -9.755706744849682
      ],
      [
        "▁ont",
        -9.757812621439907
      ],
      [
        "▁vin",
        -9.757976106758711
      ],
      [
        "W",
        -9.758899018175386
      ],
      [
        "erna.",
        -9.759337619469633
      ],
      [
        "▁tjej",
        -9.76143141415287
      ],
      [
        "▁valde",
        -9.761566586219185
      ],
      [
        "▁Välj",
        -9.762385319243185
      ],
      [
        "▁starkt",
        -9.763281067709451
      ],
      [
        "▁känsla",
        -9.763582157855318
      ],
      [
        "▁borta",
        -9.764320124696404
      ],
      [
        "Lägg",
        -9.76447580670722
      ],
      [
        "▁Nya",
        -9.764922681700776
      ],
      [
        "me",
        -9.765619835528978
      ],
      [
        "▁konst",
        -9.765941169310867
      ],
      [
        "rna",
        -9.766380355935114
      ],
      [
        "▁ligga",
        -9.76653246826546
      ],
      [
        "▁död",
        -9.767238602737692
      ],
      [
        "▁nån",
        -9.767301046596844
      ],
      [
        "O",
        -9.768254294019187
      ],
      [
        "▁test",
        -9.771550660051098
      ],
      [
        "▁låna",
        -9.772060654034759
      ],
      [
        "ades",
        -9.772414692329516
      ],
      [
        "▁Hotels.com",
        -9.772709604462634
      ],
      [
        "▁höger",
        -9.773412783261703
      ],
      [
        "▁drog",
        -9.773753475967771
      ],
      [
        "▁köper",
        -9.774055959125352
      ],
      [
        "▁prova",
        -9.774459879612095
      ],
      [
        "▁chans",
        -9.775625007264358
      ],
      [
        "med",
        -9.77682206605529
      ],
      [
        "▁saknar",
        -9.777009306274058
      ],
      [
        "Ibland",
        -9.777564951457643
      ],
      [
        "▁omdömet",
        -9.778076335371429
      ],
      [
        "▁fantastisk",
        -9.77923127480004
      ],
      [
        "▁område",
        -9.779247095288975
      ],
      [
        "▁klimat",
        -9.779877253239704
      ],
      [
        "▁självklart",
        -9.780056747101103
      ],
      [
        "▁lager",
        -9.78008303238759
      ],
      [
        "▁ekonomi",
        -9.780416225207313
      ],
      [
        "10",
        -9.780900769470241
      ],
      [
        "V",
        -9.780925923112486
      ],
      [
        "▁erbjudanden",
        -9.781088535550962
      ],
      [
        "one",
        -9.784081393312402
      ],
      [
        "▁free",
        -9.785039937877654
      ],
      [
        "▁mg",
        -9.785543035452614
      ],
      [
        "G",
        -9.785632575877953
      ],
      [
        "drygt",
        -9.78683494704305
      ],
      [
        "▁trafik",
        -9.786972711207259
      ],
      [
        "▁besökare",
        -9.789822727086888
      ],
      [
        "▁standard",
        -9.79132031734147
      ],
      [
        "▁bolaget",
        -9.791556903269477
      ],
      [
        "▁förutsättningar",
        -9.791609332325992
      ],
      [
        "▁medlem",
        -9.792542609219717
      ],
      [
        "▁Andra",
        -9.794040153426923
      ],
      [
        "▁Mitt",
        -9.794105006463809
      ],
      [
        "vägen",
        -9.794534691408652
      ],
      [
        "system",
        -9.794591851951317
      ],
      [
        "▁lyssna",
        -9.796003587148066
      ],
      [
        "▁Lite",
        -9.796260382939408
      ],
      [
        "▁2008",
        -9.796818931344898
      ],
      [
        "▁=",
        -9.798138400535358
      ],
      [
        "▁konto",
        -9.7984679267494
      ],
      [
        "▁fungera",
        -9.798958613234799
      ],
      [
        "▁talar",
        -9.799121922693407
      ],
      [
        "▁EU",
        -9.799841974388375
      ],
      [
        "▁tid.",
        -9.801812920546721
      ],
      [
        "▁säkerhet",
        -9.80225010647348
      ],
      [
        "äger",
        -9.802312137130208
      ],
      [
        "▁ihåg",
        -9.802896765871742
      ],
      [
        "▁slå",
        -9.803850225235358
      ],
      [
        "▁passa",
        -9.804150810067927
      ],
      [
        "ans",
        -9.804326694232982
      ],
      [
        "▁blå",
        -9.805410735091936
      ],
      [
        "▁anställda",
        -9.805710113080968
      ],
      [
        "▁avtal",
        -9.806239668038556
      ],
      [
        "▁serie",
        -9.806368293391317
      ],
      [
        "▁Låt",
        -9.806438871781243
      ],
      [
        "ist",
        -9.806461625392618
      ],
      [
        "Vilken",
        -9.806890027471631
      ],
      [
        "▁tittar",
        -9.807803677594562
      ],
      [
        "▁vita",
        -9.807841990930848
      ],
      [
        "▁TV",
        -9.80843006201569
      ],
      [
        "30",
        -9.808461574728375
      ],
      [
        "▁Gratis",
        -9.810402278893978
      ],
      [
        "▁trött",
        -9.810759155073983
      ],
      [
        "▁tryck",
        -9.811196423594323
      ],
      [
        "▁Gud",
        -9.813647451521813
      ],
      [
        "▁'",
        -9.814545990477564
      ],
      [
        "ven",
        -9.816496037834657
      ],
      [
        "▁uttryck",
        -9.816903523370101
      ],
      [
        "▁parti",
        -9.81781314161174
      ],
      [
        "▁Jan",
        -9.819477303191471
      ],
      [
        "▁social",
        -9.82001889785811
      ],
      [
        "▁äntligen",
        -9.820911937471658
      ],
      [
        "▁tankar",
        -9.8209974648206
      ],
      [
        "▁kurs",
        -9.821660054906724
      ],
      [
        "▁internationella",
        -9.822320406639713
      ],
      [
        "▁därefter",
        -9.822367740766829
      ],
      [
        "▁priset",
        -9.82301824241133
      ],
      [
        "▁nivå",
        -9.823238258444157
      ],
      [
        "log",
        -9.823973947893062
      ],
      [
        "▁politiska",
        -9.824288153287315
      ],
      [
        "Några",
        -9.824691696825859
      ],
      [
        "▁njuta",
        -9.825411231102958
      ],
      [
        "▁svara",
        -9.825534276941838
      ],
      [
        "▁starta",
        -9.825720553785368
      ],
      [
        "▁vinter",
        -9.826514965613011
      ],
      [
        "▁öppen",
        -9.826646208580444
      ],
      [
        "▁Andersson",
        -9.826722953329158
      ],
      [
        "ll",
        -9.82692991336159
      ],
      [
        "▁dejt",
        -9.828308267205077
      ],
      [
        "▁lösa",
        -9.828655042229057
      ],
      [
        "▁listan",
        -9.828672987487444
      ],
      [
        "▁sidor",
        -9.829713489727135
      ],
      [
        "▁försök",
        -9.829744160772226
      ],
      [
        "▁Hem",
        -9.829929957389817
      ],
      [
        "tes",
        -9.830387584261278
      ],
      [
        "▁själv.",
        -9.831693273332473
      ],
      [
        "lämnar",
        -9.83239291298155
      ],
      [
        "▁hud",
        -9.832741747857522
      ],
      [
        "▁kr.",
        -9.833438561137212
      ],
      [
        "▁Hej",
        -9.834786887175683
      ],
      [
        "▁lön",
        -9.835028978687289
      ],
      [
        "▁Din",
        -9.837028151161995
      ],
      [
        "▁hittat",
        -9.837074637933961
      ],
      [
        ".com",
        -9.837479663521833
      ],
      [
        "▁fantastiska",
        -9.837801396391924
      ],
      [
        "▁resten",
        -9.83843485048239
      ],
      [
        "▁hamna",
        -9.839073570728738
      ],
      [
        "ner",
        -9.839153001211217
      ],
      [
        "▁ben",
        -9.839623410950733
      ],
      [
        "▁bank",
        -9.840817639610457
      ],
      [
        "▁laget",
        -9.840826293500886
      ],
      [
        "plan",
        -9.84125292574917
      ],
      [
        "▁frukost",
        -9.84129658518287
      ],
      [
        "▁betydelse",
        -9.841408968475497
      ],
      [
        "klarar",
        -9.84164050746887
      ],
      [
        "▁kommentar",
        -9.841972958982694
      ],
      [
        "▁naturligtvis",
        -9.842677195622935
      ],
      [
        "▁sverige",
        -9.843540686679763
      ],
      [
        "▁mannen",
        -9.843563500381373
      ],
      [
        "▁effekt",
        -9.844009956973007
      ],
      [
        "lar",
        -9.844149550839594
      ],
      [
        "▁åtta",
        -9.84501993528736
      ],
      [
        "▁All",
        -9.845677817656505
      ],
      [
        "▁syfte",
        -9.845762372671174
      ],
      [
        "▁pratar",
        -9.84628983328552
      ],
      [
        "▁utbud",
        -9.848220062836814
      ],
      [
        "▁funktion",
        -9.849246850986036
      ],
      [
        "▁plus",
        -9.849892449403669
      ],
      [
        "▁tal",
        -9.851094364910672
      ],
      [
        "▁sluta",
        -9.851250028272238
      ],
      [
        "▁3.",
        -9.85192684435209
      ],
      [
        "▁www.",
        -9.85241469715414
      ],
      [
        "▁webbplats",
        -9.853279472055123
      ],
      [
        "▁antingen",
        -9.854786487644326
      ],
      [
        "▁fantastiskt",
        -9.855340549986492
      ],
      [
        "▁koll",
        -9.855667140692315
      ],
      [
        "▁samla",
        -9.856789278778022
      ],
      [
        "▁smak",
        -9.857435408931261
      ],
      [
        "▁undrar",
        -9.858001426972091
      ],
      [
        "▁knappt",
        -9.858030075399562
      ],
      [
        "på",
        -9.858633791762983
      ],
      [
        "▁stanna",
        -9.860089472743713
      ],
      [
        "▁guld",
        -9.86161677165945
      ],
      [
        "▁härlig",
        -9.862557287562423
      ],
      [
        "▁mån",
        -9.862592942440214
      ],
      [
        "ling",
        -9.864806776139103
      ],
      [
        "▁lagt",
        -9.86508486404348
      ],
      [
        "▁80",
        -9.86566222575908
      ],
      [
        "▁varmt",
        -9.866681897924165
      ],
      [
        "▁undvika",
        -9.866706256617334
      ],
      [
        "finner",
        -9.867662349868692
      ],
      [
        "▁svår",
        -9.86781153077597
      ],
      [
        "▁läs",
        -9.867836202215042
      ],
      [
        "▁beställa",
        -9.86836890092975
      ],
      [
        "▁skäl",
        -9.869109730838472
      ],
      [
        "EN",
        -9.869256982828661
      ],
      [
        "▁förbi",
        -9.8694349526506
      ],
      [
        "▁far",
        -9.86980728867244
      ],
      [
        "▁perfekta",
        -9.8700573897256
      ],
      [
        "▁;)",
        -9.870488420103788
      ],
      [
        "▁ungdomar",
        -9.870886531952465
      ],
      [
        "▁stan",
        -9.871146525558867
      ],
      [
        "ligen",
        -9.871176204857857
      ],
      [
        "▁leta",
        -9.872140852461603
      ],
      [
        "▁centrum",
        -9.872461069963235
      ],
      [
        "▁Bland",
        -9.872676834793078
      ],
      [
        "▁[...]",
        -9.87426184642198
      ],
      [
        "fri",
        -9.874353783525672
      ],
      [
        "▁post",
        -9.875394593157424
      ],
      [
        "▁Nr",
        -9.875598283182267
      ],
      [
        "▁våren",
        -9.87634606553671
      ],
      [
        "▁special",
        -9.876415666740801
      ],
      [
        "▁omdöme",
        -9.876426879246404
      ],
      [
        "▁fokusera",
        -9.876624114286765
      ],
      [
        "▁risker",
        -9.877064348433247
      ],
      [
        "▁medel",
        -9.878349605314007
      ],
      [
        "▁ålder",
        -9.879204909924185
      ],
      [
        "▁klass",
        -9.880944038403666
      ],
      [
        "▁dålig",
        -9.881354373445108
      ],
      [
        "▁kropp",
        -9.882694849562537
      ],
      [
        "▁växer",
        -9.884080941059976
      ],
      [
        "skickade",
        -9.884146294464335
      ],
      [
        "▁uppgift",
        -9.884245639584831
      ],
      [
        "▁delta",
        -9.885938352838464
      ],
      [
        "▁dels",
        -9.887401548978762
      ],
      [
        "▁sist",
        -9.8876159351477
      ],
      [
        "▁OK",
        -9.887981805470918
      ],
      [
        "▁tala",
        -9.888385655962997
      ],
      [
        "▁kärlek",
        -9.888718048441534
      ],
      [
        "ve",
        -9.889060157989594
      ],
      [
        "▁öppet",
        -9.889655789759814
      ],
      [
        "ella",
        -9.88979068387582
      ],
      [
        "▁tak",
        -9.889890650003524
      ],
      [
        "lag",
        -9.89029014362534
      ],
      [
        "▁Sätt",
        -9.890660120288477
      ],
      [
        "▁mesta",
        -9.89108691883273
      ],
      [
        "▁princip",
        -9.891379025454032
      ],
      [
        "▁polis",
        -9.891394913273128
      ],
      [
        "▁cykel",
        -9.89159503310344
      ],
      [
        "▁Foto:",
        -9.89236554709924
      ],
      [
        "iskt",
        -9.893093318777186
      ],
      [
        "▁mår",
        -9.893206870516956
      ],
      [
        "▁någonsin",
        -9.894304736311323
      ],
      [
        "förutom",
        -9.89436568909598
      ],
      [
        "▁villkor",
        -9.894497381824284
      ],
      [
        "Få",
        -9.89479886616663
      ],
      [
        "▁höst",
        -9.895335893184336
      ],
      [
        "▁universitet",
        -9.895416224418437
      ],
      [
        "▁Bästa",
        -9.895531880793431
      ],
      [
        "▁lugn",
        -9.89707615593717
      ],
      [
        "bjuder",
        -9.897304157389629
      ],
      [
        "▁namnet",
        -9.898056497289241
      ],
      [
        "é",
        -9.898917795951531
      ],
      [
        "samma",
        -9.898986711990624
      ],
      [
        "▁räcker",
        -9.899689854488257
      ],
      [
        "▁kalla",
        -9.900140529805244
      ],
      [
        "▁läkare",
        -9.900239926923248
      ],
      [
        "▁må",
        -9.900960531355341
      ],
      [
        "▁satte",
        -9.901796108007627
      ],
      [
        "▁partner",
        -9.902038006152324
      ],
      [
        "▁Pro",
        -9.903046402382046
      ],
      [
        "▁häst",
        -9.903274329181501
      ],
      [
        "▁Hos",
        -9.9039426633095
      ],
      [
        "▁visas",
        -9.904193897900372
      ],
      [
        "▁70",
        -9.904326689540687
      ],
      [
        "▁kronor.",
        -9.906053129025315
      ],
      [
        "🙂",
        -9.90632420304106
      ],
      [
        "▁plötsligt",
        -9.906511373864928
      ],
      [
        "▁35",
        -9.906646402651548
      ],
      [
        "nuvarande",
        -9.907153054437476
      ],
      [
        "▁Kom",
        -9.907606425868185
      ],
      [
        "▁prov",
        -9.909123313130738
      ],
      [
        "▁solen",
        -9.909242623984854
      ],
      [
        "ökade",
        -9.909704330840082
      ],
      [
        "▁Fredrik",
        -9.90980226361152
      ],
      [
        "▁2020",
        -9.909805871333079
      ],
      [
        "ökat",
        -9.910849297080212
      ],
      [
        "▁högst",
        -9.91116959329934
      ],
      [
        "▁mark",
        -9.912016164579114
      ],
      [
        "▁säkerhets",
        -9.912392942856963
      ],
      [
        "▁bar",
        -9.91289099123403
      ],
      [
        "▁MEJLADRESS",
        -9.913600518291535
      ],
      [
        "form",
        -9.913786373635046
      ],
      [
        "verket",
        -9.91380556332293
      ],
      [
        "program",
        -9.914050627195017
      ],
      [
        "stående",
        -9.914242613488852
      ],
      [
        "▁bas",
        -9.91449919278918
      ],
      [
        "▁bi",
        -9.914806096873585
      ],
      [
        "Hotels.comT",
        -9.915209468235645
      ],
      [
        "▁promenad",
        -9.91539015833044
      ],
      [
        "▁möjliga",
        -9.915525651166679
      ],
      [
        "anses",
        -9.915645998207099
      ],
      [
        "slutade",
        -9.916579785902423
      ],
      [
        "▁skydda",
        -9.917879271901235
      ],
      [
        "▁Över",
        -9.91828371667821
      ],
      [
        "▁Stockholm.",
        -9.92014976995151
      ],
      [
        "nar",
        -9.920602041718928
      ],
      [
        "▁nåt",
        -9.92066992341509
      ],
      [
        "▁lyckades",
        -9.921454544554619
      ],
      [
        "▁nej",
        -9.921700204827825
      ],
      [
        "▁mil",
        -9.921989909208285
      ],
      [
        "▁Z",
        -9.923430089932976
      ],
      [
        "rätt",
        -9.92348736855534
      ],
      [
        "▁himla",
        -9.924891680425057
      ],
      [
        "▁visste",
        -9.925617364735771
      ],
      [
        "▁plast",
        -9.92589742595931
      ],
      [
        "fall",
        -9.925900027584161
      ],
      [
        "▁säljer",
        -9.926086842884803
      ],
      [
        "▁Casino",
        -9.926106046289387
      ],
      [
        "▁uppnå",
        -9.926836989793726
      ],
      [
        "▁Online",
        -9.927145986880268
      ],
      [
        "et,",
        -9.927632619029948
      ],
      [
        "sjö",
        -9.928011086671717
      ],
      [
        "▁spelet",
        -9.928132605221478
      ],
      [
        "▁modell",
        -9.928226410086207
      ],
      [
        "▁restaurang",
        -9.93036720946105
      ],
      [
        "årets",
        -9.930400396846144
      ],
      [
        "▁Själv",
        -9.930793812543246
      ],
      [
        "▁Svensk",
        -9.930850002178804
      ],
      [
        "▁sjuk",
        -9.93118965866719
      ],
      [
        "Vilka",
        -9.931293626624365
      ],
      [
        "▁miljarder",
        -9.931354171458379
      ],
      [
        "▁Först",
        -9.931785617155231
      ],
      [
        "▁projektet",
        -9.932374313654117
      ],
      [
        "▁vacker",
        -9.93284579961327
      ],
      [
        "▁amerikanska",
        -9.933500617004931
      ],
      [
        "▁möjligheten",
        -9.933624928396782
      ],
      [
        "▁nyligen",
        -9.933643004724633
      ],
      [
        "▁bedriv",
        -9.933657583031383
      ],
      [
        "▁riktig",
        -9.933763679162277
      ],
      [
        "ver",
        -9.934879001145008
      ],
      [
        "▁blod",
        -9.935623846382494
      ],
      [
        "▁gett",
        -9.936103746461416
      ],
      [
        "▁enkla",
        -9.936840315894578
      ],
      [
        "plats",
        -9.93700968667124
      ],
      [
        "▁intresserad",
        -9.937684813167804
      ],
      [
        "▁ung",
        -9.937959196559756
      ],
      [
        "liggande",
        -9.938708557303679
      ],
      [
        "▁aktiviteter",
        -9.93873664022212
      ],
      [
        "▁framåt",
        -9.939456483252657
      ],
      [
        "▁utför",
        -9.939658717104916
      ],
      [
        "▁oro",
        -9.94174679554791
      ],
      [
        "▁brott",
        -9.942206517162353
      ],
      [
        "▁Erik",
        -9.942853069620243
      ],
      [
        "ler",
        -9.942892932566052
      ],
      [
        "▁startade",
        -9.94324864657091
      ],
      [
        "▁förmåga",
        -9.943280328100752
      ],
      [
        "känt",
        -9.94346439643966
      ],
      [
        "Igår",
        -9.943587825638467
      ],
      [
        "▁längs",
        -9.944258204714103
      ],
      [
        "▁modern",
        -9.94455419089166
      ],
      [
        "sidan",
        -9.944999917424646
      ],
      [
        "▁Mat",
        -9.946331617765454
      ],
      [
        "▁natten",
        -9.94637069385668
      ],
      [
        "▁norr",
        -9.947041746617815
      ],
      [
        "▁Y",
        -9.949124135468898
      ],
      [
        "▁eleverna",
        -9.949190226505635
      ],
      [
        "▁fönster",
        -9.949294743744623
      ],
      [
        "▁köpt",
        -9.949323383937788
      ],
      [
        "▁ansökan",
        -9.95022010689081
      ],
      [
        "▁timmen",
        -9.95048481995229
      ],
      [
        "▁skit",
        -9.95074579264075
      ],
      [
        "▁säkra",
        -9.950779055436712
      ],
      [
        "▁patienter",
        -9.950782169762853
      ],
      [
        "▁slog",
        -9.951319484125053
      ],
      [
        "kan",
        -9.951946039061239
      ],
      [
        "▁icke",
        -9.952376952383629
      ],
      [
        "▁sällan",
        -9.952707459489815
      ],
      [
        "▁tionde",
        -9.954494005250272
      ],
      [
        "▁(som",
        -9.954689781507014
      ],
      [
        "▁idé",
        -9.955513644548974
      ],
      [
        "▁ordning",
        -9.955915417982622
      ],
      [
        "▁utvecklingen",
        -9.956229024528646
      ],
      [
        "ernas",
        -9.956317093000166
      ],
      [
        "▁massage",
        -9.95647734160496
      ],
      [
        "▁sova",
        -9.9573693290499
      ],
      [
        "Vissa",
        -9.958321570348062
      ],
      [
        "▁Tre",
        -9.958815852210156
      ],
      [
        "▁brev",
        -9.959139123343736
      ],
      [
        "▁nummer",
        -9.960595876590013
      ],
      [
        "▁Dock",
        -9.960872255280874
      ],
      [
        "▁röd",
        -9.96167757450714
      ],
      [
        "▁mitten",
        -9.961890241558464
      ],
      [
        "▁tillstånd",
        -9.96246948113494
      ],
      [
        "▁Använd",
        -9.962592776870272
      ],
      [
        "▁utvecklas",
        -9.963780443938832
      ],
      [
        "▁medarbetare",
        -9.964756541167102
      ],
      [
        "▁spår",
        -9.965475355717412
      ],
      [
        "▁Anmäl",
        -9.96597135550444
      ],
      [
        "▁>",
        -9.96605862730072
      ],
      [
        "Våra",
        -9.966174321236211
      ],
      [
        "▁Visst",
        -9.966487090317052
      ],
      [
        "till",
        -9.966640347854337
      ],
      [
        "▁An",
        -9.966924866570064
      ],
      [
        "▁sten",
        -9.967852668404193
      ],
      [
        "▁Johansson",
        -9.967997865635343
      ],
      [
        "▁budget",
        -9.96858543049558
      ],
      [
        "▁funkar",
        -9.969726252161026
      ],
      [
        "ant",
        -9.970197837834679
      ],
      [
        "▁innehåll",
        -9.970660336104622
      ],
      [
        "▁kostnader",
        -9.970754067918145
      ],
      [
        "▁Inga",
        -9.970832766272576
      ],
      [
        "▁ingenting",
        -9.971233327109678
      ],
      [
        "▁hot",
        -9.971258301569028
      ],
      [
        "▁kombinera",
        -9.971618713300222
      ],
      [
        "ga",
        -9.973691798493409
      ],
      [
        "▁satsa",
        -9.973768777811268
      ],
      [
        "▁kommentarer",
        -9.974513226151828
      ],
      [
        "▁färger",
        -9.975013046319527
      ],
      [
        "▁Park",
        -9.975166933111419
      ],
      [
        "▁väder",
        -9.97548343166581
      ],
      [
        "erar",
        -9.976485863539862
      ],
      [
        "▁besöka",
        -9.976491160452351
      ],
      [
        "delade",
        -9.976604873352889
      ],
      [
        "▁middag",
        -9.976837461883303
      ],
      [
        "relativt",
        -9.977683217807549
      ],
      [
        "▁betalar",
        -9.978233245454465
      ],
      [
        "▁förhållande",
        -9.978539429407085
      ],
      [
        "skydd",
        -9.979978201702803
      ],
      [
        "Förutom",
        -9.980587238673476
      ],
      [
        "möta",
        -9.980632888454343
      ],
      [
        "▁Co",
        -9.981027676082569
      ],
      [
        "▁timme",
        -9.982052819982611
      ],
      [
        "▁ges",
        -9.982068928788967
      ],
      [
        "tog",
        -9.982597617726649
      ],
      [
        "▁föreslå",
        -9.982748828824253
      ],
      [
        "risken",
        -9.98395057926035
      ],
      [
        "gren",
        -9.9840347124774
      ],
      [
        "▁bestämt",
        -9.984753060509997
      ],
      [
        "▁Gör",
        -9.985323411562009
      ],
      [
        "Det",
        -9.985396955769028
      ],
      [
        "ningar",
        -9.98563224532055
      ],
      [
        "▁centrala",
        -9.986670998125517
      ],
      [
        "▁bilar",
        -9.986697885656842
      ],
      [
        "▁förklara",
        -9.986781988107442
      ],
      [
        "▁datum",
        -9.986949002400776
      ],
      [
        "▁snabba",
        -9.987634541347159
      ],
      [
        "▁försäljning",
        -9.987952182741694
      ],
      [
        "▁undan",
        -9.98795281208843
      ],
      [
        "tar",
        -9.989213308253245
      ],
      [
        "lade",
        -9.990590802385137
      ],
      [
        "mat",
        -9.99075492852497
      ],
      [
        "▁Nästa",
        -9.990995495740375
      ],
      [
        "▁numera",
        -9.991314893196575
      ],
      [
        "▁aktuella",
        -9.99140675330409
      ],
      [
        "▁vinst",
        -9.991725472771833
      ],
      [
        "strax",
        -9.993088267777456
      ],
      [
        "▁utnyttja",
        -9.993775444206987
      ],
      [
        "▁FV",
        -9.994942773178638
      ],
      [
        "▁Martin",
        -9.995389245705605
      ],
      [
        "ort",
        -9.996893984195253
      ],
      [
        "▁Google",
        -9.997449576788002
      ],
      [
        "▁kommuner",
        -9.997487072161114
      ],
      [
        "▁frukt",
        -9.997603593863241
      ],
      [
        "Skulle",
        -9.997620024650944
      ],
      [
        "▁alkohol",
        -9.997837455797407
      ],
      [
        "▁fylla",
        -9.998771059070197
      ],
      [
        "▁enklare",
        -9.999061670304059
      ],
      [
        "körde",
        -9.999195318584306
      ],
      [
        "▁fundera",
        -10.000842343104349
      ],
      [
        "snarare",
        -10.001770339373605
      ],
      [
        "▁Finland",
        -10.002322578659541
      ],
      [
        "co",
        -10.003123319685477
      ],
      [
        "▁hört",
        -10.003132428711414
      ],
      [
        "▁möte",
        -10.004181762124547
      ],
      [
        "lin",
        -10.004234740994303
      ],
      [
        "närmaste",
        -10.00429021797932
      ],
      [
        "▁2007",
        -10.004442381133046
      ],
      [
        "▁tiden.",
        -10.005208779039508
      ],
      [
        "▁cookies",
        -10.00549280999477
      ],
      [
        "▁samhälls",
        -10.005956474340879
      ],
      [
        "▁Inn",
        -10.006434900400077
      ],
      [
        "sam",
        -10.006961970632087
      ],
      [
        "▁lägenhet",
        -10.00753692379295
      ],
      [
        "▁görs",
        -10.008059046447958
      ],
      [
        "▁dagarna",
        -10.008224343895971
      ],
      [
        "▁Skåne",
        -10.009066420828079
      ],
      [
        "▁År",
        -10.009352961521072
      ],
      [
        "▁rekommenderar",
        -10.009423739386154
      ],
      [
        "▁helg",
        -10.009783376106386
      ],
      [
        "▁fredag",
        -10.01044514142708
      ],
      [
        "▁Örebro",
        -10.010445232339563
      ],
      [
        "▁skatte",
        -10.010591108198014
      ],
      [
        "▁varm",
        -10.011249598469877
      ],
      [
        "▁ägg",
        -10.011669465498347
      ],
      [
        "stod",
        -10.012310160992227
      ],
      [
        "▁ses",
        -10.01259404591164
      ],
      [
        "▁Tyvärr",
        -10.013433488614607
      ],
      [
        "▁skön",
        -10.013548051460578
      ],
      [
        "▁följd",
        -10.014643175234305
      ],
      [
        "chef",
        -10.014998640905793
      ],
      [
        "▁Vet",
        -10.015299621229973
      ],
      [
        "mm",
        -10.015492819247095
      ],
      [
        "företag",
        -10.016773424130992
      ],
      [
        "▁Första",
        -10.017232522650282
      ],
      [
        "▁översättning",
        -10.017887092800626
      ],
      [
        "upp",
        -10.017918065449233
      ],
      [
        "▁annorlunda",
        -10.01797640812852
      ],
      [
        "▁åtminstone",
        -10.018356718039039
      ],
      [
        "▁45",
        -10.018546910837985
      ],
      [
        "20",
        -10.020669926326311
      ],
      [
        "▁Hade",
        -10.02170808041194
      ],
      [
        "▁$",
        -10.022493820702396
      ],
      [
        "▁rummet",
        -10.022804916595772
      ],
      [
        "mar",
        -10.02307850114131
      ],
      [
        "slår",
        -10.023388864204083
      ],
      [
        "gemensamma",
        -10.023833978610723
      ],
      [
        "▁våld",
        -10.023856902859883
      ],
      [
        "▁matcher",
        -10.02411856090489
      ],
      [
        "▁City",
        -10.02489558589203
      ],
      [
        "▁inlägget",
        -10.025283914152435
      ],
      [
        "▁choklad",
        -10.02700170899465
      ],
      [
        "▁utföra",
        -10.02768092457489
      ],
      [
        "▁period",
        -10.027728563848685
      ],
      [
        "skrevs",
        -10.028771561670423
      ],
      [
        "▁liv.",
        -10.029324751851586
      ],
      [
        "▁uppe",
        -10.029673331918977
      ],
      [
        "▁info",
        -10.031079539116778
      ],
      [
        "▁styr",
        -10.031435340870134
      ],
      [
        "▁någonting",
        -10.031912459549085
      ],
      [
        "bok",
        -10.031934778547935
      ],
      [
        "▁makt",
        -10.032185307932586
      ],
      [
        "▁resultatet",
        -10.032337610795238
      ],
      [
        "▁Lund",
        -10.032996807351692
      ],
      [
        "▁chansen",
        -10.033336044675206
      ],
      [
        "▁fixa",
        -10.034022666828745
      ],
      [
        "→",
        -10.034086107874298
      ],
      [
        "bil",
        -10.035533684123802
      ],
      [
        "▁Internet",
        -10.035627366002707
      ],
      [
        "▁Fri",
        -10.03571120673445
      ],
      [
        "min",
        -10.037147220534056
      ],
      [
        "▁vattnet",
        -10.038011816436322
      ],
      [
        "▁allmänna",
        -10.039099600284985
      ],
      [
        ":s",
        -10.039272440659394
      ],
      [
        "ation",
        -10.040279530308277
      ],
      [
        "▁San",
        -10.040340581013725
      ],
      [
        "▁live",
        -10.040473301985696
      ],
      [
        "▁ringa",
        -10.041098730711886
      ],
      [
        "▁Dam",
        -10.041350463023255
      ],
      [
        "▁Norge",
        -10.04185136213494
      ],
      [
        "▁slags",
        -10.04203593322688
      ],
      [
        "▁platsen",
        -10.0420886704358
      ],
      [
        "lämnade",
        -10.042307613538954
      ],
      [
        "▁jämför",
        -10.042735028804447
      ],
      [
        "▁värt",
        -10.04291058863461
      ],
      [
        "▁jord",
        -10.043033333136014
      ],
      [
        "per",
        -10.044132210790101
      ],
      [
        "▁normalt",
        -10.044751906476359
      ],
      [
        "▁Le",
        -10.045180850783568
      ],
      [
        "▁röst",
        -10.045715851227781
      ],
      [
        "▁bakgrund",
        -10.045864902611152
      ],
      [
        "▁Vem",
        -10.046348469836175
      ],
      [
        "▁bloggen",
        -10.046501362991396
      ],
      [
        "▁avseende",
        -10.04695021106298
      ],
      [
        "▁kombination",
        -10.047216770025411
      ],
      [
        "lös",
        -10.04802900605978
      ],
      [
        "▁lyckats",
        -10.048837640664326
      ],
      [
        "liv",
        -10.049923843288388
      ],
      [
        "▁Gå",
        -10.050048732299201
      ],
      [
        "11",
        -10.051567649876308
      ],
      [
        "▁lördag",
        -10.051782955969557
      ],
      [
        "▁huvudet",
        -10.052571251831411
      ],
      [
        "kort",
        -10.05300001244249
      ],
      [
        "▁starka",
        -10.053841835625521
      ],
      [
        "▁personlig",
        -10.054709638701397
      ],
      [
        "Se",
        -10.054855662494539
      ],
      [
        "OF",
        -10.055651945394
      ],
      [
        "▁detta.",
        -10.055835210675038
      ],
      [
        "▁St",
        -10.05584772895924
      ],
      [
        "▁datorn",
        -10.056354178628554
      ],
      [
        "ER",
        -10.056398367657543
      ],
      [
        "▁Carl",
        -10.056857314527777
      ],
      [
        "nes",
        -10.057187153139175
      ],
      [
        "▁kyrkan",
        -10.057520941325304
      ],
      [
        "▁ton",
        -10.057830029411196
      ],
      [
        "▁Stefan",
        -10.058111768367157
      ],
      [
        "▁huden",
        -10.058599252941951
      ],
      [
        "▁you",
        -10.059468529732433
      ],
      [
        "▁omfattande",
        -10.06049294886664
      ],
      [
        "ck",
        -10.060799841035239
      ],
      [
        "pris",
        -10.060973060279512
      ],
      [
        "erat",
        -10.061179811183544
      ],
      [
        "▁mail",
        -10.062938747556762
      ],
      [
        "▁slag",
        -10.063045404749024
      ],
      [
        "▁Daniel",
        -10.064991276865946
      ],
      [
        "kändes",
        -10.067234202386034
      ],
      [
        "▁fyller",
        -10.06749535410773
      ],
      [
        "▁300",
        -10.06758553351058
      ],
      [
        "▁butik",
        -10.068151560565104
      ],
      [
        "▁lösning",
        -10.068264467255304
      ],
      [
        "ng",
        -10.068479654015144
      ],
      [
        "huset",
        -10.07004763460065
      ],
      [
        "befinner",
        -10.070185078993413
      ],
      [
        "▁kilometer",
        -10.070209426425954
      ],
      [
        "▁rättigheter",
        -10.072969358389976
      ],
      [
        "▁motsvarande",
        -10.07320302250879
      ],
      [
        "▁Pris",
        -10.074006605472988
      ],
      [
        "▁tydlig",
        -10.074750238664484
      ],
      [
        "▁redo",
        -10.075306537486002
      ],
      [
        "▁målet",
        -10.077015897582593
      ],
      [
        "ken",
        -10.07730951957971
      ],
      [
        "▁verifiera",
        -10.077314651416858
      ],
      [
        "▁Al",
        -10.07812860280895
      ],
      [
        "▁Ö",
        -10.078563831432339
      ],
      [
        "▁plats.",
        -10.07886043551838
      ],
      [
        "▁gång.",
        -10.079103708846871
      ],
      [
        "skolan",
        -10.079336021068444
      ],
      [
        "▁tillväxt",
        -10.079540992582087
      ],
      [
        "▁pengarna",
        -10.079849855417335
      ],
      [
        "▁grad",
        -10.080240837022258
      ],
      [
        "▁barn.",
        -10.080323850567975
      ],
      [
        "ion",
        -10.081179495327522
      ],
      [
        "▁läkemedel",
        -10.081629114960021
      ],
      [
        "▁sättet",
        -10.081765528677886
      ],
      [
        "▁Få",
        -10.081808295095687
      ],
      [
        "▁givetvis",
        -10.08189940721613
      ],
      [
        "▁SVT",
        -10.081917757834956
      ],
      [
        "▁kille",
        -10.082245101187214
      ],
      [
        "▁beskriver",
        -10.082672547255623
      ],
      [
        "▁diskutera",
        -10.083132662197169
      ],
      [
        "▁bl.a.",
        -10.083484815930602
      ],
      [
        "▁yngre",
        -10.083969725283266
      ],
      [
        "▁använt",
        -10.084601487304832
      ],
      [
        "mo",
        -10.084746870971854
      ],
      [
        "▁roliga",
        -10.08714290623467
      ],
      [
        "▁press",
        -10.087262094318808
      ],
      [
        "▁röda",
        -10.087446047430952
      ],
      [
        "▁ständigt",
        -10.087911743999078
      ],
      [
        "▁digitala",
        -10.08804085374615
      ],
      [
        "’",
        -10.088063404787166
      ],
      [
        "▁Någon",
        -10.088252980872497
      ],
      [
        "▁ända",
        -10.08839070024831
      ],
      [
        "▁såklart",
        -10.088613069477274
      ],
      [
        "▁jämföra",
        -10.088836397495024
      ],
      [
        "▁mera",
        -10.088919677515142
      ],
      [
        "letar",
        -10.089230249788189
      ],
      [
        "▁analys",
        -10.090701557406996
      ],
      [
        "▁nämn",
        -10.090849282360498
      ],
      [
        "15",
        -10.090853523530425
      ],
      [
        "▁Del",
        -10.091631154203869
      ],
      [
        "▁transport",
        -10.091826123473062
      ],
      [
        "ingen",
        -10.091859486380452
      ],
      [
        "skor",
        -10.092203553005552
      ],
      [
        "lund",
        -10.092996587910784
      ],
      [
        "der",
        -10.093120136019548
      ],
      [
        "▁staten",
        -10.093441306971298
      ],
      [
        "▁personen",
        -10.093471960377283
      ],
      [
        "link",
        -10.0936103513141
      ],
      [
        "▁hänt",
        -10.093740610202895
      ],
      [
        "▁minns",
        -10.093804009365682
      ],
      [
        "▁värld",
        -10.09417867981089
      ],
      [
        "og",
        -10.094417077905382
      ],
      [
        "▁hänsyn",
        -10.09451212769013
      ],
      [
        "▁räkna",
        -10.094818158226515
      ],
      [
        "ny",
        -10.094925672917359
      ],
      [
        "▁London",
        -10.095134845969831
      ],
      [
        "lösa",
        -10.095505539055402
      ],
      [
        "▁Stor",
        -10.095594550039886
      ],
      [
        "▁kontrollera",
        -10.09577021097631
      ],
      [
        "▁trevligt",
        -10.096313477841964
      ],
      [
        "▁kött",
        -10.096774705634617
      ],
      [
        "hem",
        -10.097732935838854
      ],
      [
        "▁lösningar",
        -10.098091919665908
      ],
      [
        "▁dröm",
        -10.099033619418613
      ],
      [
        "(och",
        -10.099176563771636
      ],
      [
        "▁TripAdvisor",
        -10.099312902255472
      ],
      [
        "▁välkomna",
        -10.10019023693978
      ],
      [
        "▁sjukdom",
        -10.100460075622212
      ],
      [
        "▁världen.",
        -10.100954650147395
      ],
      [
        "berättade",
        -10.10111195239134
      ],
      [
        "▁ersättning",
        -10.10138384542479
      ],
      [
        "Däremot",
        -10.10154629219531
      ],
      [
        "▁programmet",
        -10.10242506855998
      ],
      [
        "▁brist",
        -10.103777221530283
      ],
      [
        "▁livs",
        -10.103858130441234
      ],
      [
        "oerhör",
        -10.104147763348106
      ],
      [
        "▁imorgon",
        -10.104196937302143
      ],
      [
        "▁foto",
        -10.104450668605152
      ],
      [
        "▁herr",
        -10.104499466708075
      ],
      [
        "tt*",
        -10.104847967491645
      ],
      [
        "kar",
        -10.105471447279259
      ],
      [
        "▁härligt",
        -10.106131381294675
      ],
      [
        "▁studier",
        -10.106503418055661
      ],
      [
        "its",
        -10.106907711281883
      ],
      [
        "▁glädje",
        -10.107207178381623
      ],
      [
        "▁adress",
        -10.10843543319136
      ],
      [
        "▁samhälle",
        -10.108881533577355
      ],
      [
        "▁chef",
        -10.108965393811163
      ],
      [
        "tur",
        -10.10940974759955
      ],
      [
        "▁rädda",
        -10.109992444107155
      ],
      [
        "▁söndag",
        -10.110453500371847
      ],
      [
        "▁fisk",
        -10.110944309815121
      ],
      [
        "▁restauranger",
        -10.11119272905185
      ],
      [
        "▁båt",
        -10.111324811646586
      ],
      [
        "ord",
        -10.111823050994236
      ],
      [
        "▁plocka",
        -10.112223271482206
      ],
      [
        "▁moderna",
        -10.112269707748714
      ],
      [
        "▁mode",
        -10.11308342985737
      ],
      [
        "sten",
        -10.114036529570251
      ],
      [
        "▁regn",
        -10.114200707845328
      ],
      [
        "▁(1)",
        -10.114461665519913
      ],
      [
        "▁inled",
        -10.11469311819668
      ],
      [
        "▁hyra",
        -10.11501183155669
      ],
      [
        "bild",
        -10.11537087254856
      ],
      [
        "natt!",
        -10.115438829016446
      ],
      [
        "ca",
        -10.115675862295719
      ],
      [
        "▁fett",
        -10.11594456609735
      ],
      [
        "▁York",
        -10.11601237474486
      ],
      [
        "▁inkomst",
        -10.116281054865661
      ],
      [
        "▁människa",
        -10.116313854686313
      ],
      [
        "▁nytta",
        -10.116565277115143
      ],
      [
        "▁Ge",
        -10.116639017858859
      ],
      [
        "▁informationen",
        -10.116977540498715
      ],
      [
        "▁resa.",
        -10.117631010368875
      ],
      [
        "▁paket",
        -10.118028221157658
      ],
      [
        "12",
        -10.118267709092073
      ],
      [
        "▁organisation",
        -10.11855853120792
      ],
      [
        "▁honom.",
        -10.118655586892064
      ],
      [
        "▁stockholm",
        -10.118720225158546
      ],
      [
        "Mer",
        -10.11905155743546
      ],
      [
        "▁dvs",
        -10.119272041184262
      ],
      [
        "ör",
        -10.120838989120388
      ],
      [
        "visat",
        -10.121097556244962
      ],
      [
        "▁avgörande",
        -10.12115487190983
      ],
      [
        "▁with",
        -10.121686410418887
      ],
      [
        "▁dans",
        -10.12190893855249
      ],
      [
        "▁Umeå",
        -10.12265822882223
      ],
      [
        "▁minskar",
        -10.122812476583896
      ],
      [
        "▁leverans",
        -10.123761931411746
      ],
      [
        "▁djup",
        -10.125067840292783
      ],
      [
        "▁politiker",
        -10.125259660884275
      ],
      [
        "▁bio",
        -10.127365022475306
      ],
      [
        "▁pågår",
        -10.12765710321159
      ],
      [
        "▁tids",
        -10.1276961917832
      ],
      [
        "▁uppleva",
        -10.127970429956152
      ],
      [
        "▁hamnar",
        -10.128090523600909
      ],
      [
        "▁bedömning",
        -10.128517919969413
      ],
      [
        "▁öppnar",
        -10.129714229630189
      ],
      [
        "lån",
        -10.13005478390348
      ],
      [
        "ast",
        -10.130627083131548
      ],
      [
        "▁grundläggande",
        -10.130921128395498
      ],
      [
        "▁grader",
        -10.131030070276049
      ],
      [
        "▁straff",
        -10.131222511505468
      ],
      [
        "▁kapital",
        -10.131377914128016
      ],
      [
        "▁avsnitt",
        -10.131849957946635
      ],
      [
        "▁genomföra",
        -10.132197296529673
      ],
      [
        "▁känd",
        -10.132610544770191
      ],
      [
        "▁led",
        -10.132844023961184
      ],
      [
        "▁rapport",
        -10.13344915704585
      ],
      [
        "▁Tyskland",
        -10.13356248859774
      ],
      [
        "stad",
        -10.133810107162738
      ],
      [
        "gått",
        -10.134127793306448
      ],
      [
        "Vilket",
        -10.134339388923959
      ],
      [
        "arna.",
        -10.134847797929726
      ],
      [
        "▁media",
        -10.135121865199904
      ],
      [
        "▁karta",
        -10.13526076783475
      ],
      [
        "▁privata",
        -10.135433906782465
      ],
      [
        "▁Björn",
        -10.135832602452822
      ],
      [
        "▁förmodligen",
        -10.136017793775693
      ],
      [
        "▁Dom",
        -10.136775768266613
      ],
      [
        "▁längst",
        -10.136820408053644
      ],
      [
        "▁Nilsson",
        -10.137036003736053
      ],
      [
        "▁driver",
        -10.137094692441062
      ],
      [
        "▁socker",
        -10.137322914334268
      ],
      [
        "▁hundra",
        -10.137505189453172
      ],
      [
        "▁EU-",
        -10.137596366812504
      ],
      [
        "▁sikt",
        -10.137809284286517
      ],
      [
        "▁svarar",
        -10.138080146219782
      ],
      [
        "▁(1",
        -10.138316498120721
      ],
      [
        "▁etc.",
        -10.138445063883538
      ],
      [
        "Något",
        -10.138549659380809
      ],
      [
        "ry",
        -10.138780749722994
      ],
      [
        "▁mig,",
        -10.139399469912034
      ],
      [
        "▁positiv",
        -10.139650006928544
      ],
      [
        "▁vitt",
        -10.139679416252456
      ],
      [
        "dal",
        -10.14094498184356
      ],
      [
        "▁priserna",
        -10.141180364036016
      ],
      [
        "=",
        -10.141298757653813
      ],
      [
        "resa",
        -10.141568796092333
      ],
      [
        "▁värd",
        -10.141855857302044
      ],
      [
        "▁varumärken",
        -10.142051472077743
      ],
      [
        "▁valet",
        -10.142055285332095
      ],
      [
        ".se/",
        -10.142221120964562
      ],
      [
        "▁tjänst",
        -10.142500026418139
      ],
      [
        "▁springa",
        -10.142522913235524
      ],
      [
        "▁tecken",
        -10.143261204817351
      ],
      [
        "varken",
        -10.143979279796826
      ],
      [
        "tro",
        -10.145179349390045
      ],
      [
        "tor",
        -10.145921998963338
      ],
      [
        "lagen",
        -10.146393653659208
      ],
      [
        "▁vackert",
        -10.14676917689545
      ],
      [
        "▁driva",
        -10.146935037603727
      ],
      [
        "vi",
        -10.147171204794804
      ],
      [
        "▁kök",
        -10.147249310446224
      ],
      [
        "verk",
        -10.14881998700215
      ],
      [
        "▁göras",
        -10.150448612836362
      ],
      [
        "▁Bygg",
        -10.151243363992164
      ],
      [
        "▁titeln",
        -10.151420362886554
      ],
      [
        "Innan",
        -10.151472250199607
      ],
      [
        "▁relation",
        -10.152794603593584
      ],
      [
        "▁fakta",
        -10.152930504408138
      ],
      [
        "▁skydd",
        -10.153011899222198
      ],
      [
        "▁bedöm",
        -10.153356301959162
      ],
      [
        "▁funnits",
        -10.153606900687247
      ],
      [
        "▁tillgänglig",
        -10.153897577950664
      ],
      [
        "▁döda",
        -10.154006036594463
      ],
      [
        "▁kallar",
        -10.154235934525165
      ],
      [
        "vin",
        -10.155143394334399
      ],
      [
        "▁Sex",
        -10.156207505359028
      ],
      [
        "▁startar",
        -10.156218051636523
      ],
      [
        "Jag",
        -10.157781634964401
      ],
      [
        "▁stycken",
        -10.157909346421981
      ],
      [
        "▁underbara",
        -10.158024767898386
      ],
      [
        "▁ställe",
        -10.158265110861581
      ],
      [
        "▁situation",
        -10.158828847541082
      ],
      [
        "▁fallet",
        -10.159103915118635
      ],
      [
        "▁32",
        -10.159178986300269
      ],
      [
        "▁kunskaper",
        -10.159618993892698
      ],
      [
        "▁Mina",
        -10.160403876123423
      ],
      [
        "▁stress",
        -10.160786882857435
      ],
      [
        "▁stoppa",
        -10.161054816270758
      ],
      [
        "▁framförallt",
        -10.16109640283612
      ],
      [
        "▁grupper",
        -10.161142695564793
      ],
      [
        "▁4.",
        -10.16158008426002
      ],
      [
        "▁världs",
        -10.162300649999867
      ],
      [
        "bjöd",
        -10.164714782558907
      ],
      [
        "q",
        -10.164949632286833
      ],
      [
        "▁nationella",
        -10.165125951473302
      ],
      [
        "▁svarta",
        -10.165722219172315
      ],
      [
        "mål",
        -10.166405920857251
      ],
      [
        "▁punkt",
        -10.167491365683196
      ],
      [
        "▁havet",
        -10.168093506469061
      ],
      [
        "pass",
        -10.168533510092809
      ],
      [
        "▁gilla",
        -10.168787843491913
      ],
      [
        "möter",
        -10.1696262872716
      ],
      [
        "▁Dagens",
        -10.169761824989768
      ],
      [
        "▁dotter",
        -10.16999238396887
      ],
      [
        "rik",
        -10.170793600448436
      ],
      [
        "slag",
        -10.171774526429903
      ],
      [
        "▁sjukhus",
        -10.172367787077558
      ],
      [
        "▁användare",
        -10.172424805583715
      ],
      [
        "så",
        -10.17278631681432
      ],
      [
        "▁tycka",
        -10.172853913403063
      ],
      [
        "▁Jonas",
        -10.172930844733331
      ],
      [
        "utveckling",
        -10.173892507425816
      ],
      [
        "▁funktioner",
        -10.174357487732696
      ],
      [
        "▁fördel",
        -10.174390328414933
      ],
      [
        "▁inre",
        -10.175378250413065
      ],
      [
        "ret",
        -10.175445829538422
      ],
      [
        "▁katt",
        -10.175756814884739
      ],
      [
        "▁utsikt",
        -10.176903318657482
      ],
      [
        "▁glada",
        -10.176937911035726
      ],
      [
        "▁leverera",
        -10.17749312387788
      ],
      [
        "▁koppla",
        -10.178104874093224
      ],
      [
        "▁öl",
        -10.178438249355118
      ],
      [
        "▁snabbare",
        -10.178451499094278
      ],
      [
        "▁ledare",
        -10.179110578614349
      ],
      [
        "▁fira",
        -10.179636934195088
      ],
      [
        "▁sämre",
        -10.17994322960289
      ],
      [
        "▁positiva",
        -10.179974905215373
      ],
      [
        "▁tekniska",
        -10.180595791665299
      ],
      [
        "▁medier",
        -10.180766782917146
      ],
      [
        "▁Super",
        -10.18101591126082
      ],
      [
        "▁erbjuds",
        -10.181314351422088
      ],
      [
        "▁2006",
        -10.181848446500302
      ],
      [
        "ol",
        -10.182081006561141
      ],
      [
        "▁filmer",
        -10.182196304771171
      ],
      [
        "▁positivt",
        -10.18242542098978
      ],
      [
        "bart",
        -10.182471711913612
      ],
      [
        "▁fa",
        -10.182536433121612
      ],
      [
        "tra",
        -10.182857082543817
      ],
      [
        "▁aktivt",
        -10.182987099639874
      ],
      [
        "▁hävda",
        -10.183327248348952
      ],
      [
        "mark",
        -10.183559219171155
      ],
      [
        "▁John",
        -10.183705248107282
      ],
      [
        "▁rädd",
        -10.183795381498065
      ],
      [
        "▁säg",
        -10.18380984237602
      ],
      [
        "▁måndag",
        -10.183989652971388
      ],
      [
        "▁förändringar",
        -10.184432315127413
      ],
      [
        "▁hälso",
        -10.18447527795753
      ],
      [
        "▁unika",
        -10.184890751050585
      ],
      [
        "▁nödvändigt",
        -10.185033433575784
      ],
      [
        "▁Får",
        -10.185158459700444
      ],
      [
        "ts.",
        -10.185320708403133
      ],
      [
        "▁växa",
        -10.186305938002851
      ],
      [
        "▁igen,",
        -10.187039325428604
      ],
      [
        "▁mjölk",
        -10.187545516934163
      ],
      [
        "▁Nord",
        -10.187951789806585
      ],
      [
        "▁illa",
        -10.187965088945788
      ],
      [
        "▁Hela",
        -10.18817863018464
      ],
      [
        "▁tåg",
        -10.189583933683691
      ],
      [
        "▁jobbat",
        -10.18978665219403
      ],
      [
        "▁stjärnor",
        -10.189999156210957
      ],
      [
        "▁behövde",
        -10.190055932618758
      ],
      [
        "5(",
        -10.190328187491122
      ],
      [
        "▁Bil",
        -10.190657906116178
      ],
      [
        "X",
        -10.190939995310227
      ],
      [
        "▁svarade",
        -10.190949338997807
      ],
      [
        "▁Spel",
        -10.191577871366958
      ],
      [
        "▁förslag.",
        -10.192553538739874
      ],
      [
        "▁buss",
        -10.194594895303936
      ],
      [
        "▁Sök",
        -10.19473186467196
      ],
      [
        "je",
        -10.195311731439627
      ],
      [
        "arbete",
        -10.195979700590506
      ],
      [
        "▁morgonen",
        -10.19609236594614
      ],
      [
        "▁gäng",
        -10.19636483030303
      ],
      [
        "▁lugnt",
        -10.196388933175268
      ],
      [
        "▁profil",
        -10.198313992183603
      ],
      [
        "▁underbar",
        -10.198407190547865
      ],
      [
        "▁Jämför",
        -10.19919755674228
      ],
      [
        "▁syns",
        -10.199540924608238
      ],
      [
        "▁Val",
        -10.19992512457101
      ],
      [
        "▁svåra",
        -10.200217206401557
      ],
      [
        "området",
        -10.201172773007565
      ],
      [
        "▁hål",
        -10.202346551807638
      ],
      [
        "▁orsaka",
        -10.20248868971541
      ],
      [
        "▁fot",
        -10.203014596627245
      ],
      [
        "▁billig",
        -10.204008814867137
      ],
      [
        "tiden",
        -10.204311301305708
      ],
      [
        "▁ämnen",
        -10.204667941320457
      ],
      [
        "▁spelat",
        -10.204905253799318
      ],
      [
        "▁hopp",
        -10.205642001017246
      ],
      [
        "än",
        -10.20609826638059
      ],
      [
        "▁snygg",
        -10.206646977197448
      ],
      [
        "as.",
        -10.207067599679954
      ],
      [
        "▁härliga",
        -10.207653983361396
      ],
      [
        "▁utrymme",
        -10.207905227286139
      ],
      [
        "du",
        -10.208381935596645
      ],
      [
        "▁botten",
        -10.208432894332399
      ],
      [
        "▁kap.",
        -10.208524022786838
      ],
      [
        "▁dubbel",
        -10.20876558445793
      ],
      [
        "▁ordet",
        -10.208849035740295
      ],
      [
        "framtida",
        -10.20887836115232
      ],
      [
        "▁Stora",
        -10.209025191943649
      ],
      [
        "nivå",
        -10.209509641150573
      ],
      [
        "▁fart",
        -10.209526534406018
      ],
      [
        "▁pro",
        -10.209538501481992
      ],
      [
        "18",
        -10.210914388296052
      ],
      [
        "▁variera",
        -10.211269818147374
      ],
      [
        "▁Frankrike",
        -10.21219176227917
      ],
      [
        "▁gruppen",
        -10.21282713202452
      ],
      [
        "▁problemet",
        -10.212955250462542
      ],
      [
        "granskar",
        -10.213865382925569
      ],
      [
        "▁flertal",
        -10.213929770472904
      ],
      [
        "▁extremt",
        -10.214663875706957
      ],
      [
        "▁besluta",
        -10.215087714490595
      ],
      [
        "band",
        -10.215175411207104
      ],
      [
        "na,",
        -10.215532304400753
      ],
      [
        "▁snygga",
        -10.215651780184318
      ],
      [
        "ledes",
        -10.215687332615962
      ],
      [
        "▁mängder",
        -10.216218011342699
      ],
      [
        "▁detaljer",
        -10.216753687680308
      ],
      [
        "▁konstigt",
        -10.217760556606601
      ],
      [
        "vatten",
        -10.218027850609657
      ],
      [
        "▁unik",
        -10.21860756230454
      ],
      [
        "▁avgifter",
        -10.219224632240657
      ],
      [
        "som",
        -10.21945736620324
      ],
      [
        "▁vända",
        -10.219545364517195
      ],
      [
        "▁rakt",
        -10.219943661654773
      ],
      [
        "▁sent",
        -10.220790839540781
      ],
      [
        "▁di",
        -10.221423794911166
      ],
      [
        "▁resurser",
        -10.221539791431587
      ],
      [
        "▁undersökning",
        -10.221768237799445
      ],
      [
        "▁företags",
        -10.22195239655988
      ],
      [
        "▁jakt",
        -10.223276689856178
      ],
      [
        "▁David",
        -10.223348740054568
      ],
      [
        "▁slutar",
        -10.223677246234358
      ],
      [
        "▁spendera",
        -10.223845228922634
      ],
      [
        "len",
        -10.224712696423309
      ],
      [
        "▁Berg",
        -10.224990245044381
      ],
      [
        "rar",
        -10.225451274216928
      ],
      [
        "U",
        -10.225540717946233
      ],
      [
        "▁Er",
        -10.226025561646097
      ],
      [
        "▁hundar",
        -10.226098228404496
      ],
      [
        "▁studera",
        -10.226802263120556
      ],
      [
        "▁säsong",
        -10.226851296230173
      ],
      [
        "▁ägare",
        -10.227138986579968
      ],
      [
        "▁sånt",
        -10.22714527320438
      ],
      [
        "▁jorden",
        -10.227289746245765
      ],
      [
        "▁hittills",
        -10.227312465876023
      ],
      [
        "enskilda",
        -10.2281007459077
      ],
      [
        "ledde",
        -10.230056708304657
      ],
      [
        "▁korrekt",
        -10.230315989017603
      ],
      [
        "▁metod",
        -10.232735007127996
      ],
      [
        "slagen",
        -10.23322161644889
      ],
      [
        "▁reklam",
        -10.233319553392505
      ],
      [
        "Både",
        -10.233674673647142
      ],
      [
        "▁lågt",
        -10.233864162692889
      ],
      [
        "▁låga",
        -10.234366588637942
      ],
      [
        "▁badrum",
        -10.235019169524314
      ],
      [
        "▁pdf",
        -10.23515884165019
      ],
      [
        "▁Sverige,",
        -10.235615549456977
      ],
      [
        "▁Ju",
        -10.235628156235977
      ],
      [
        "▁Eva",
        -10.23622463169135
      ],
      [
        "▁upplevelse",
        -10.236615734351044
      ],
      [
        "sch",
        -10.236816456660758
      ],
      [
        "▁Sa",
        -10.236964987925113
      ],
      [
        "▁Sport",
        -10.237573963466888
      ],
      [
        "förbundet",
        -10.237942774510417
      ],
      [
        "▁affärs",
        -10.238094603077284
      ],
      [
        "upplever",
        -10.238430664539688
      ],
      [
        "▁överens",
        -10.238573525582362
      ],
      [
        "▁band",
        -10.238602140423307
      ],
      [
        "▁Kommun",
        -10.238623074875521
      ],
      [
        "▁originalet",
        -10.238889219492105
      ],
      [
        "▁där.",
        -10.239072903322052
      ],
      [
        "▁släppa",
        -10.239441159742608
      ],
      [
        "▁bära",
        -10.239845799725733
      ],
      [
        "▁kunden",
        -10.23985932033507
      ],
      [
        "▁idéer",
        -10.240125542783948
      ],
      [
        "▁färdig",
        -10.240425898611457
      ],
      [
        "▁skaffa",
        -10.240755953830647
      ],
      [
        "▁nu,",
        -10.240996033601734
      ],
      [
        "▁webb",
        -10.24099842492214
      ],
      [
        "▁moms",
        -10.241704611902536
      ],
      [
        "▁sjö",
        -10.242238683764622
      ],
      [
        "▁tränings",
        -10.242284452644695
      ],
      [
        "▁ungdoms",
        -10.242553696917126
      ],
      [
        "▁möt",
        -10.24343302216257
      ],
      [
        "▁det?",
        -10.243495708376656
      ],
      [
        "▁läste",
        -10.243662301003052
      ],
      [
        "▁utbildnings",
        -10.243678217477372
      ],
      [
        "▁ordentligt",
        -10.244241798201902
      ],
      [
        "▁offentliga",
        -10.244879228966486
      ],
      [
        "▁butiker",
        -10.245287016073188
      ],
      [
        "▁allmän",
        -10.245296234418454
      ],
      [
        "▁serien",
        -10.245511267963524
      ],
      [
        "▁perioden",
        -10.24566314130779
      ],
      [
        "▁säng",
        -10.245913028354769
      ],
      [
        "&",
        -10.247795991846253
      ],
      [
        "▁Skriv",
        -10.248262878365793
      ],
      [
        "▁Paris",
        -10.24830388295349
      ],
      [
        "andet",
        -10.248389052883327
      ],
      [
        "▁kvinnan",
        -10.248433821436272
      ],
      [
        "▁dokument",
        -10.24865522859042
      ],
      [
        "▁total",
        -10.24890805335068
      ],
      [
        "pga",
        -10.248918961776097
      ],
      [
        "▁singlar",
        -10.248980719888536
      ],
      [
        "▁kompis",
        -10.249022347603656
      ],
      [
        "väg",
        -10.249116056530417
      ],
      [
        "▁varandra.",
        -10.250322296669326
      ],
      [
        "▁närvarande",
        -10.250408826664586
      ],
      [
        "▁utomhus",
        -10.251535861517427
      ],
      [
        "▁hälften",
        -10.251728608483193
      ],
      [
        "▁intressanta",
        -10.251959438933637
      ],
      [
        "are.",
        -10.25270835929026
      ],
      [
        "▁Magnus",
        -10.253147034027107
      ],
      [
        "▁mörk",
        -10.253372722362192
      ],
      [
        "verkade",
        -10.253690501791448
      ],
      [
        "ley",
        -10.25384492286103
      ],
      [
        "▁bra,",
        -10.254067912092486
      ],
      [
        "▁nät",
        -10.254345671514809
      ],
      [
        "age",
        -10.254788153934278
      ],
      [
        "▁Information",
        -10.25483454507113
      ],
      [
        "▁medför",
        -10.255156270629291
      ],
      [
        "Förbättra",
        -10.255788035880197
      ],
      [
        "▁Kommer",
        -10.255892544596511
      ],
      [
        "▁dricka",
        -10.25633340483379
      ],
      [
        "▁träd",
        -10.256345018981401
      ],
      [
        "▁korta",
        -10.257123444598063
      ],
      [
        "baserade",
        -10.258021071320638
      ],
      [
        "▁nio",
        -10.258405807937761
      ],
      [
        "▁håret",
        -10.258415434314115
      ],
      [
        "▁enhet",
        -10.258486664605682
      ],
      [
        "▁effektivt",
        -10.258774452946936
      ],
      [
        "▁Västra",
        -10.25885508774002
      ],
      [
        "▁växt",
        -10.258855938091358
      ],
      [
        "vid",
        -10.259676413443387
      ],
      [
        "försökte",
        -10.260054006020841
      ],
      [
        "▁Ca",
        -10.260189758595594
      ],
      [
        "Årets",
        -10.260357275101619
      ],
      [
        "baserat",
        -10.260910925533254
      ],
      [
        "▁No",
        -10.261197151332526
      ],
      [
        "▁Go",
        -10.261339052636982
      ],
      [
        "▁resan",
        -10.261374196831715
      ],
      [
        "▁150",
        -10.262068869461604
      ],
      [
        "▁skapat",
        -10.262444973983545
      ],
      [
        "Z",
        -10.263475734242927
      ],
      [
        "▁betalnings",
        -10.263678987279713
      ],
      [
        "▁rolig",
        -10.263685796543612
      ],
      [
        "lades",
        -10.263821537044475
      ],
      [
        "▁möten",
        -10.264001913291027
      ],
      [
        "ala",
        -10.26414554524052
      ],
      [
        "▁fjärde",
        -10.264855144443779
      ],
      [
        "▁magen",
        -10.26519053297878
      ],
      [
        "flyttade",
        -10.265406055925752
      ],
      [
        "▁Windows",
        -10.265736994479079
      ],
      [
        "▁knulla",
        -10.266433358331307
      ],
      [
        "▁2000",
        -10.267101122950493
      ],
      [
        "▁tanken",
        -10.267639402500235
      ],
      [
        "▁Karl",
        -10.26765418044451
      ],
      [
        "▁nyheter",
        -10.26782933189279
      ],
      [
        "▁faktum",
        -10.267930779414398
      ],
      [
        "▁nere",
        -10.268138021002102
      ],
      [
        "▁tjäna",
        -10.269072228294506
      ],
      [
        "▁Helt",
        -10.269109323425514
      ],
      [
        "Annars",
        -10.269456139883593
      ],
      [
        "▁förut",
        -10.26952387486169
      ],
      [
        "▁industri",
        -10.269870110747913
      ],
      [
        "▁af",
        -10.27067781251952
      ],
      [
        "▁team",
        -10.271335483482565
      ],
      [
        "▁garantera",
        -10.271348077507888
      ],
      [
        "produkter",
        -10.271415511305728
      ],
      [
        "▁bilderna",
        -10.27144049291817
      ],
      [
        "▁våga",
        -10.272104983863622
      ],
      [
        "▁vila",
        -10.272232684490687
      ],
      [
        "▁Vårt",
        -10.272297432018647
      ],
      [
        "▁aktier",
        -10.272357654472422
      ],
      [
        "hörde",
        -10.272613126678266
      ],
      [
        "▁anpassa",
        -10.272832039096174
      ],
      [
        "▁(S",
        -10.272851509340624
      ],
      [
        "▁golv",
        -10.27321832646924
      ],
      [
        "▁Tillväxt",
        -10.273749143563899
      ],
      [
        "▁tydligen",
        -10.273991960669571
      ],
      [
        "▁mått",
        -10.27434920662897
      ],
      [
        "▁webbplatsen",
        -10.274416278440512
      ],
      [
        "16",
        -10.274465532089664
      ],
      [
        "▁Sol",
        -10.27524888349627
      ],
      [
        "op",
        -10.275373681727375
      ],
      [
        "rad",
        -10.275514134254387
      ],
      [
        "utöver",
        -10.27592879840066
      ],
      [
        "▁gröna",
        -10.276037615516543
      ],
      [
        "▁vuxen",
        -10.276681317287409
      ],
      [
        "▁tillfälle",
        -10.276709162126695
      ],
      [
        "▁Sten",
        -10.277233826198492
      ],
      [
        "grupp",
        -10.277269982721199
      ],
      [
        "▁riktiga",
        -10.277305422219547
      ],
      [
        "▁blommor",
        -10.277366841696393
      ],
      [
        "▁fest",
        -10.278036645448061
      ],
      [
        "finansiella",
        -10.278177586105372
      ],
      [
        "▁hinner",
        -10.278995362138255
      ],
      [
        "Flera",
        -10.279851991154535
      ],
      [
        "▁organisationer",
        -10.279964062538555
      ],
      [
        "▁erfarenheter",
        -10.280054905969983
      ],
      [
        "▁produkten",
        -10.28132910016814
      ],
      [
        "▁bostäder",
        -10.281578720071405
      ],
      [
        "▁bestämma",
        -10.28166263849572
      ],
      [
        "▁toppen",
        -10.281916777411528
      ],
      [
        "▁föreningen",
        -10.282155893589525
      ],
      [
        "▁idag,",
        -10.282167213664014
      ],
      [
        "▁forskare",
        -10.282220586247513
      ],
      [
        "▁välkommen",
        -10.282267985454085
      ],
      [
        "▁vinner",
        -10.282268655246106
      ],
      [
        "▁naturligt",
        -10.282307600450238
      ],
      [
        "rådet",
        -10.282453471029129
      ],
      [
        "ings",
        -10.282870570921844
      ],
      [
        "▁naturen",
        -10.284263410665254
      ],
      [
        "▁sväng",
        -10.284650533267266
      ],
      [
        "desto",
        -10.284718953337554
      ],
      [
        "når",
        -10.28508677832458
      ],
      [
        "klassiska",
        -10.285376035819642
      ],
      [
        "definitivt",
        -10.285390860781547
      ],
      [
        "▁process",
        -10.286061046739716
      ],
      [
        "▁anges",
        -10.286093390310956
      ],
      [
        "▁klubb",
        -10.286107748368275
      ],
      [
        "▁familje",
        -10.286942001343057
      ],
      [
        "▁orkar",
        -10.287108906262375
      ],
      [
        "▁Thomas",
        -10.288847944096867
      ],
      [
        "▁sko",
        -10.2889649603888
      ],
      [
        "▁artiklar",
        -10.289319107356063
      ],
      [
        "▁tider",
        -10.289386721083636
      ],
      [
        "Dålig",
        -10.289744442729766
      ],
      [
        "ses",
        -10.289748356474611
      ],
      [
        "samt",
        -10.290229246795427
      ],
      [
        "25",
        -10.290530278159604
      ],
      [
        "uk",
        -10.290652513614853
      ],
      [
        "▁skogen",
        -10.290744243704289
      ],
      [
        "skiljer",
        -10.290774035898028
      ],
      [
        "▁maten",
        -10.290975555710158
      ],
      [
        "baserad",
        -10.291039416945608
      ],
      [
        "▁yrkes",
        -10.29126289693155
      ],
      [
        "▁systemet",
        -10.291795894604336
      ],
      [
        "delas",
        -10.291959885031483
      ],
      [
        "Bolaget",
        -10.292287226742005
      ],
      [
        "▁lek",
        -10.292364185587639
      ],
      [
        "▁frisk",
        -10.292460199932034
      ],
      [
        "▁aktiva",
        -10.292470233177244
      ],
      [
        "▁hunn",
        -10.292998396642993
      ],
      [
        "▁rygg",
        -10.293284769066213
      ],
      [
        "▁acceptera",
        -10.29378519563931
      ],
      [
        "▁Danmark",
        -10.294378998161402
      ],
      [
        "▁aktiv",
        -10.294660049814182
      ],
      [
        "▁Göteborgs",
        -10.294925999442265
      ],
      [
        "▁sjukt",
        -10.296038214977003
      ],
      [
        "▁städer",
        -10.29604230149362
      ],
      [
        "▁skatt",
        -10.297305356353053
      ],
      [
        "▁insatser",
        -10.29759736562855
      ],
      [
        "▁salt",
        -10.29802497254175
      ],
      [
        "▁drift",
        -10.29838048624253
      ],
      [
        "▁Bar",
        -10.298492075037357
      ],
      [
        "▁ändring",
        -10.299208653263072
      ],
      [
        "▁2017.",
        -10.29973488558747
      ],
      [
        "▁Miljö",
        -10.29976858276934
      ],
      [
        "▁nätverk",
        -10.300074797392059
      ],
      [
        "▁grunden",
        -10.300092766941358
      ],
      [
        "▁Nyheter",
        -10.300868822939208
      ],
      [
        "▁Me",
        -10.300891189315607
      ],
      [
        "Därefter",
        -10.301202698111936
      ],
      [
        "▁levande",
        -10.301422711941223
      ],
      [
        "arbetat",
        -10.302458297688654
      ],
      [
        "fors",
        -10.302501804412385
      ],
      [
        "▁Kalmar",
        -10.302899933235418
      ],
      [
        "▁Pa",
        -10.302966624642705
      ],
      [
        "▁grön",
        -10.303865991750335
      ],
      [
        "▁bevis",
        -10.303938505449947
      ],
      [
        "▁mjuk",
        -10.304112594397504
      ],
      [
        "ras",
        -10.30439814705452
      ],
      [
        "▁rese",
        -10.304556705363678
      ],
      [
        "▁känslor",
        -10.304574993403385
      ],
      [
        "14",
        -10.304672037153637
      ],
      [
        "gruppen",
        -10.305033226674063
      ],
      [
        "bolag",
        -10.30535405278939
      ],
      [
        "▁:-)",
        -10.305620741366376
      ],
      [
        "▁Ser",
        -10.30572792819737
      ],
      [
        "▁procent.",
        -10.305961221815874
      ],
      [
        "▁känslan",
        -10.306074939272673
      ],
      [
        "▁inspiration",
        -10.306789151633955
      ],
      [
        "50",
        -10.306811725638005
      ],
      [
        "▁Bild",
        -10.307098878381863
      ],
      [
        "▁08",
        -10.30737229673921
      ],
      [
        "▁brand",
        -10.307850191198291
      ],
      [
        "▁förändring",
        -10.307950817484352
      ],
      [
        "▁skriv",
        -10.308283697624569
      ],
      [
        "Ja",
        -10.308510339081439
      ],
      [
        "▁Aktiebolag",
        -10.308898836474583
      ],
      [
        "▁version",
        -10.309012746213858
      ],
      [
        "▁gemensamt",
        -10.309220217530928
      ],
      [
        "färg",
        -10.309360066558364
      ],
      [
        "▁forsknings",
        -10.309722756117587
      ],
      [
        "▁regel",
        -10.310019788836128
      ],
      [
        "förrän",
        -10.31038393434529
      ],
      [
        "sett",
        -10.310452214819037
      ],
      [
        ".”",
        -10.310889368419334
      ],
      [
        "▁Kontakta",
        -10.31117346454019
      ],
      [
        "vård",
        -10.311281951493838
      ],
      [
        "▁arrangera",
        -10.31175003732656
      ],
      [
        "▁normal",
        -10.311781915503788
      ],
      [
        "▁mönster",
        -10.312374027829023
      ],
      [
        "▁Fler",
        -10.314081632536585
      ],
      [
        "▁36",
        -10.314096352520624
      ],
      [
        "J",
        -10.314214037611524
      ],
      [
        "▁anslutning",
        -10.314549584177358
      ],
      [
        "▁sök",
        -10.314958355310916
      ],
      [
        "▁kommunikation",
        -10.314974488202504
      ],
      [
        "▁motsvara",
        -10.315078563847859
      ],
      [
        "vänder",
        -10.315385648138886
      ],
      [
        "▁bred",
        -10.316054673554353
      ],
      [
        "▁Sam",
        -10.316394938765187
      ],
      [
        "▁verksamheter",
        -10.316826985408325
      ],
      [
        "▁kön",
        -10.316892218735761
      ],
      [
        "▁linje",
        -10.31720358359061
      ],
      [
        "▁syft",
        -10.318243044774178
      ],
      [
        "▁metoder",
        -10.318536205899308
      ],
      [
        "▁rosa",
        -10.31875754728053
      ],
      [
        "dla",
        -10.31922572248202
      ],
      [
        "bolaget",
        -10.319271036085443
      ],
      [
        "vanligaste",
        -10.319288344030392
      ],
      [
        "▁400",
        -10.319559127231672
      ],
      [
        "▁motor",
        -10.31976540193611
      ],
      [
        "laget",
        -10.319767137019321
      ],
      [
        "▁marknads",
        -10.319985655885453
      ],
      [
        "▁personuppgifter",
        -10.320571720075344
      ],
      [
        "▁maskin",
        -10.320675920561508
      ],
      [
        "▁vapen",
        -10.320760668177044
      ],
      [
        "vit",
        -10.320776938592246
      ],
      [
        "▁tränar",
        -10.32090224240705
      ],
      [
        "▁webbplatser",
        -10.321221233371661
      ],
      [
        "▁insats",
        -10.32176803216261
      ],
      [
        "▁vind",
        -10.322356835047566
      ],
      [
        "bra",
        -10.323066297282498
      ],
      [
        "har",
        -10.323675508098642
      ],
      [
        "▁hem.",
        -10.323760780585326
      ],
      [
        "▁omedelbart",
        -10.32398055308697
      ],
      [
        "pa",
        -10.324515336841584
      ],
      [
        "▁radio",
        -10.324526761056765
      ],
      [
        "▁fordon",
        -10.324960384880818
      ],
      [
        "Visa",
        -10.325634149824076
      ],
      [
        "▁uppmärksamma",
        -10.325783413145102
      ],
      [
        "▁Mikael",
        -10.32579247860545
      ],
      [
        "hänger",
        -10.326189812377121
      ],
      [
        "▁södra",
        -10.326411436787504
      ],
      [
        "▁brett",
        -10.326667978896394
      ],
      [
        "▁takt",
        -10.327324061450133
      ],
      [
        "ina",
        -10.32770438023004
      ],
      [
        "▁tyska",
        -10.327991178686114
      ],
      [
        "paket",
        -10.328218110156762
      ],
      [
        "▁erbjudande",
        -10.328348985366508
      ],
      [
        "▁frågade",
        -10.32840135506801
      ],
      [
        "▁Jesus",
        -10.328420826021688
      ],
      [
        "▁frakt",
        -10.32856250368353
      ],
      [
        "▁gånger.",
        -10.328936378017454
      ],
      [
        "▁grå",
        -10.330094987921957
      ],
      [
        "▁bättre.",
        -10.330170623928453
      ],
      [
        "line",
        -10.33059444047174
      ],
      [
        "varande",
        -10.330711183197167
      ],
      [
        "▁Region",
        -10.33089337065935
      ],
      [
        "▁mor",
        -10.331121042279847
      ],
      [
        "slipper",
        -10.33142919724933
      ],
      [
        "▁myndigheter",
        -10.331942288158391
      ],
      [
        "▁kost",
        -10.332130229071138
      ],
      [
        "ex",
        -10.332176084007944
      ],
      [
        "service",
        -10.332732219265882
      ],
      [
        "föreningen",
        -10.332813601251384
      ],
      [
        "▁laga",
        -10.332854093608312
      ],
      [
        "▁totala",
        -10.333463361792615
      ],
      [
        "Utmärkt",
        -10.33348882580366
      ],
      [
        "▁Namn:",
        -10.333654705100699
      ],
      [
        "nummer",
        -10.333722167464757
      ],
      [
        "▁gäst",
        -10.333795507465014
      ],
      [
        "▁Black",
        -10.33485960777395
      ],
      [
        "▁Kultur",
        -10.334973687864192
      ],
      [
        "▁hoppa",
        -10.335187205642791
      ],
      [
        "▁balans",
        -10.335301508978503
      ],
      [
        "Vikt:",
        -10.335304268831974
      ],
      [
        "go",
        -10.335634457070148
      ],
      [
        "område",
        -10.335848783057992
      ],
      [
        "▁Beach",
        -10.3364371040658
      ],
      [
        "▁Billiga",
        -10.336758876662932
      ],
      [
        "▁van",
        -10.337140510129199
      ],
      [
        "▁rätta",
        -10.337540290166961
      ],
      [
        "▁förekommer",
        -10.338548709239905
      ],
      [
        "▁rörelse",
        -10.33892247219877
      ],
      [
        "▁hänga",
        -10.339530248376414
      ],
      [
        "▁osv.",
        -10.339984573238155
      ],
      [
        "gar",
        -10.340098943830965
      ],
      [
        "▁ställen",
        -10.340570186262816
      ],
      [
        "▁aning",
        -10.340704816226198
      ],
      [
        "dagen",
        -10.340895670604887
      ],
      [
        "▁Mar",
        -10.340971638232885
      ],
      [
        "▁kg",
        -10.341676835045119
      ],
      [
        "▁personalen",
        -10.341801629790087
      ],
      [
        "material",
        -10.34195618267822
      ],
      [
        "▁politik",
        -10.341974214315847
      ],
      [
        "▁året.",
        -10.342460401331225
      ],
      [
        "▁me",
        -10.342505254617809
      ],
      [
        "▁tidningen",
        -10.342562456817207
      ],
      [
        "40",
        -10.342705355415443
      ],
      [
        "Oavsett",
        -10.342744234287236
      ],
      [
        "▁fria",
        -10.343177977189272
      ],
      [
        "▁seger",
        -10.343863898027227
      ],
      [
        "▁hållbar",
        -10.344507988883288
      ],
      [
        "▁33",
        -10.345387277452401
      ],
      [
        "▁Precis",
        -10.345935020070115
      ],
      [
        "?Tack",
        -10.3460356606855
      ],
      [
        "▁dagar.",
        -10.346076228689213
      ],
      [
        "gel",
        -10.346098556754944
      ],
      [
        "▁särskild",
        -10.346298340374409
      ],
      [
        "▁hände",
        -10.346486822174967
      ],
      [
        "▁omfatta",
        -10.347151745230132
      ],
      [
        "och/eller",
        -10.347540613937305
      ],
      [
        "17",
        -10.34754568870225
      ],
      [
        "göra",
        -10.348005965111765
      ],
      [
        "▁e-post",
        -10.348310465442456
      ],
      [
        "▁Inom",
        -10.348333687552902
      ],
      [
        "▁fika",
        -10.348359936952988
      ],
      [
        "00",
        -10.348719055786097
      ],
      [
        "▁silver",
        -10.348990985561812
      ],
      [
        "står",
        -10.349404702212407
      ],
      [
        "▁kallad",
        -10.349873839817658
      ],
      [
        "Y",
        -10.349944577473488
      ],
      [
        "▁höjd",
        -10.350730851192512
      ],
      [
        "▁Mark",
        -10.350849561786523
      ],
      [
        "▁Ed",
        -10.351300794284704
      ],
      [
        "▁naturliga",
        -10.35175125982612
      ],
      [
        "▁styrelsen",
        -10.352144611546244
      ],
      [
        "90",
        -10.353177544154327
      ],
      [
        "gjorda",
        -10.353352276908387
      ],
      [
        "▁stads",
        -10.353587301694766
      ],
      [
        "▁100%",
        -10.353664501737281
      ],
      [
        "(eller",
        -10.354018214418408
      ],
      [
        "ster",
        -10.35414184581858
      ],
      [
        "19",
        -10.3544197374513
      ],
      [
        "▁sp",
        -10.354674071952944
      ],
      [
        "▁göteborg",
        -10.355287844950364
      ],
      [
        "▁länk",
        -10.355747037734012
      ],
      [
        "▁sömn",
        -10.356426110229604
      ],
      [
        "▁lyfta",
        -10.356648262013646
      ],
      [
        "▁pratade",
        -10.357359935180448
      ],
      [
        "▁klubben",
        -10.357630465679355
      ],
      [
        "▁träffar",
        -10.357643585818378
      ],
      [
        "▁Tillsammans",
        -10.357837787898099
      ],
      [
        "▁ekonomisk",
        -10.358332985618922
      ],
      [
        "jo",
        -10.358526448957905
      ],
      [
        "▁tillfällen",
        -10.359085643274721
      ],
      [
        "▁dagen.",
        -10.359493638439929
      ],
      [
        "▁My",
        -10.359679512633967
      ],
      [
        "▁skuld",
        -10.360099592344783
      ],
      [
        "han",
        -10.360474832962424
      ],
      [
        "24",
        -10.36118143108339
      ],
      [
        "▁bry",
        -10.361630156435401
      ],
      [
        "▁mening",
        -10.362756661966925
      ],
      [
        "information",
        -10.363493135797277
      ],
      [
        "▁artikeln",
        -10.364855543448504
      ],
      [
        "▁ange",
        -10.364926255321265
      ],
      [
        "▁FÖR",
        -10.364961466810712
      ],
      [
        "▁miljon",
        -10.36506679721353
      ],
      [
        "heten",
        -10.36574841329717
      ],
      [
        "▁bevilja",
        -10.366591403225904
      ],
      [
        "▁perspektiv",
        -10.366607645415032
      ],
      [
        "▁Svart",
        -10.36670922008444
      ],
      [
        "▁fotboll",
        -10.368578684830107
      ],
      [
        "eras",
        -10.369099497306156
      ],
      [
        "stöd",
        -10.369662575808507
      ],
      [
        "▁bostads",
        -10.36988172850686
      ],
      [
        "▁Totalt",
        -10.370260408438936
      ],
      [
        "dig",
        -10.37066631201856
      ],
      [
        "▁bestämmer",
        -10.370828844030806
      ],
      [
        "▁za",
        -10.370870360691052
      ],
      [
        "Tror",
        -10.37088279483469
      ],
      [
        "....",
        -10.371135720581602
      ],
      [
        "ros",
        -10.371263061736048
      ],
      [
        "▁varor",
        -10.371284581551658
      ],
      [
        "näs",
        -10.37158713633537
      ],
      [
        "▁bekräfta",
        -10.371788418031313
      ],
      [
        "bestämde",
        -10.372135202573157
      ],
      [
        "▁studenter",
        -10.372136837227817
      ],
      [
        "▁månaden",
        -10.37218575242913
      ],
      [
        "▁rea",
        -10.372196930495303
      ],
      [
        "vik",
        -10.372456297929853
      ],
      [
        "sida",
        -10.37252490960266
      ],
      [
        "ium",
        -10.372609320451527
      ],
      [
        "else",
        -10.37285282794874
      ],
      [
        "▁röra",
        -10.373457429181824
      ],
      [
        "▁urval",
        -10.373718359812601
      ],
      [
        "▁mötet",
        -10.374356828996005
      ],
      [
        "▁Ladda",
        -10.374470893031576
      ],
      [
        "män",
        -10.375178120156223
      ],
      [
        "OCH",
        -10.375390331523906
      ],
      [
        "▁mej",
        -10.375548865415608
      ],
      [
        "givande",
        -10.375748930406566
      ],
      [
        "▁sms",
        -10.376672023639248
      ],
      [
        "nämnda",
        -10.376866754260023
      ],
      [
        "▁metall",
        -10.377073506118982
      ],
      [
        "löst",
        -10.377180481891253
      ],
      [
        "▁smart",
        -10.37771728251249
      ],
      [
        "▁försökt",
        -10.378030108435874
      ],
      [
        "▁stål",
        -10.378044266174895
      ],
      [
        "▁däck",
        -10.378302598033263
      ],
      [
        "▁lät",
        -10.378553432597052
      ],
      [
        "▁Fick",
        -10.378715041494818
      ],
      [
        "▁album",
        -10.378756490664824
      ],
      [
        "▁räknas",
        -10.378774835233923
      ],
      [
        "▁behålla",
        -10.37895354625179
      ],
      [
        "verksamhet",
        -10.379047512504975
      ],
      [
        "up",
        -10.379485691598715
      ],
      [
        "▁Kort",
        -10.379729179841195
      ],
      [
        "▁ikväll",
        -10.380343091966706
      ],
      [
        "▁värsta",
        -10.381032019388577
      ],
      [
        "▁använde",
        -10.381100502092538
      ],
      [
        "▁sängen",
        -10.381321006991877
      ],
      [
        "▁komplett",
        -10.381423436466534
      ],
      [
        "▁Larsson",
        -10.381712145109145
      ],
      [
        "▁kraftigt",
        -10.381792091320266
      ],
      [
        "▁Henrik",
        -10.382422214617055
      ],
      [
        "handlade",
        -10.382750134630495
      ],
      [
        "▁Mo",
        -10.383199638796185
      ],
      [
        "särskilda",
        -10.383334236398122
      ],
      [
        "▁former",
        -10.383488933714665
      ],
      [
        "▁fru",
        -10.383527043604605
      ],
      [
        "▁syster",
        -10.383607643304373
      ],
      [
        "▁effektiv",
        -10.383677892008647
      ],
      [
        "▁beskriv",
        -10.38411212673852
      ],
      [
        "omfattar",
        -10.384338264014012
      ],
      [
        "▁statistik",
        -10.384451243623298
      ],
      [
        "▁Karin",
        -10.384768754442662
      ],
      [
        "▁andel",
        -10.384914071688176
      ],
      [
        "▁leverantörer",
        -10.38553159505646
      ],
      [
        "▁tillverkare",
        -10.385607469976502
      ],
      [
        "mannen",
        -10.385786997878517
      ],
      [
        "programmet",
        -10.386291727898156
      ],
      [
        "▁Italien",
        -10.386482565719936
      ],
      [
        "▁God",
        -10.38679072459575
      ],
      [
        "▁utom",
        -10.387108472397514
      ],
      [
        "▁Utan",
        -10.387174397541795
      ],
      [
        "▁rabatt",
        -10.387769745572937
      ],
      [
        "▁Mats",
        -10.38789896524594
      ],
      [
        "▁hunden",
        -10.38802691640971
      ],
      [
        "Ålder:",
        -10.38803866668206
      ],
      [
        "▁löne",
        -10.388549341477349
      ],
      [
        "▁fl",
        -10.389133396839046
      ],
      [
        "start",
        -10.390324902472232
      ],
      [
        "▁skogs",
        -10.390358781115665
      ],
      [
        "▁hjärtat",
        -10.390488385605572
      ],
      [
        "red",
        -10.390546969465241
      ],
      [
        "nämnden",
        -10.390875283003167
      ],
      [
        "▁stärka",
        -10.39147665018212
      ],
      [
        "skickar",
        -10.39332013694152
      ],
      [
        "▁återg",
        -10.393840224330733
      ],
      [
        "én",
        -10.39401416564698
      ],
      [
        "ba",
        -10.394112935339276
      ],
      [
        "21",
        -10.395026934887632
      ],
      [
        "▁fiske",
        -10.395835418055489
      ],
      [
        "▁planer",
        -10.396086832954104
      ],
      [
        "par",
        -10.396674251014957
      ],
      [
        "holm",
        -10.396758962608851
      ],
      [
        "▁jämn",
        -10.39677639022169
      ],
      [
        "▁34",
        -10.3976847353934
      ],
      [
        "▁fritt",
        -10.397772638795846
      ],
      [
        "▁mm.",
        -10.397829623261247
      ],
      [
        "medel",
        -10.3978744421408
      ],
      [
        "bodde",
        -10.398456355763528
      ],
      [
        "▁skolor",
        -10.398560086945288
      ],
      [
        "▁By",
        -10.398752850939745
      ],
      [
        "mänskliga",
        -10.398821548674363
      ],
      [
        "▁ränta",
        -10.39934847713974
      ],
      [
        "▁He",
        -10.399423032114667
      ],
      [
        "▁lagom",
        -10.39957645001982
      ],
      [
        "Incheckning",
        -10.399677905734404
      ],
      [
        "▁tränare",
        -10.399889053856711
      ],
      [
        "▁2005",
        -10.39998373959292
      ],
      [
        "mon",
        -10.400212384732432
      ],
      [
        "▁minsta",
        -10.400584211525212
      ],
      [
        "Redan",
        -10.400637600141414
      ],
      [
        "▁inkluderar",
        -10.401047952207316
      ],
      [
        "▁student",
        -10.401482843836126
      ],
      [
        "delvis",
        -10.401630712551889
      ],
      [
        "▁euro",
        -10.402067058721089
      ],
      [
        "▁wid",
        -10.402585009378557
      ],
      [
        "▁torr",
        -10.403046836312194
      ],
      [
        "tycks",
        -10.403114394423282
      ],
      [
        "systemet",
        -10.403181205678246
      ],
      [
        "ism",
        -10.403529920550795
      ],
      [
        "▁planerar",
        -10.405120791376966
      ],
      [
        "▁deltagare",
        -10.406121209714975
      ],
      [
        "▁offentlig",
        -10.406136654729137
      ],
      [
        "▁Tidigare",
        -10.406544363264715
      ],
      [
        "resultera",
        -10.407951995345984
      ],
      [
        "översättningen",
        -10.40825122984149
      ],
      [
        "▁bredvid",
        -10.40902198029515
      ],
      [
        "▁fastighets",
        -10.409074462310576
      ],
      [
        "▁kontor",
        -10.409107937782366
      ],
      [
        "bilder",
        -10.409108154775675
      ],
      [
        "▁utrustning",
        -10.409322580853994
      ],
      [
        "▁synd",
        -10.40972255877532
      ],
      [
        "▁Herr",
        -10.409765568147497
      ],
      [
        "bjuda",
        -10.409953079845245
      ],
      [
        "▁situationen",
        -10.410436613310369
      ],
      [
        "▁gas",
        -10.411516638752328
      ],
      [
        "▁modeller",
        -10.411789031324115
      ],
      [
        "▁killar",
        -10.411956051261205
      ],
      [
        "ko",
        -10.411958197536638
      ],
      [
        "▁Hög",
        -10.412180088075411
      ],
      [
        "▁köket",
        -10.412350673164756
      ],
      [
        "▁problem.",
        -10.41278428918983
      ],
      [
        ":)",
        -10.412803567551633
      ],
      [
        "▁aktörer",
        -10.412992234780274
      ],
      [
        "lämnat",
        -10.413429510533254
      ],
      [
        "alltför",
        -10.413494065749093
      ],
      [
        "▁onsdag",
        -10.413496153713606
      ],
      [
        "ben",
        -10.413684654099871
      ],
      [
        "talade",
        -10.414515400784465
      ],
      [
        "▁ögonen",
        -10.414638681329551
      ],
      [
        "▁Spanien",
        -10.415793227446269
      ],
      [
        "▁m.m.",
        -10.415972251650874
      ],
      [
        "▁sam",
        -10.415998601502782
      ],
      [
        "▁papper",
        -10.416761445400432
      ],
      [
        "▁Lind",
        -10.416872462646651
      ],
      [
        "bord",
        -10.417310608964678
      ],
      [
        "▁gemensam",
        -10.417413034399997
      ],
      [
        "▁Q",
        -10.418092256005943
      ],
      [
        "▁duktig",
        -10.418154579591882
      ],
      [
        "▁svårare",
        -10.418347878980965
      ],
      [
        "he",
        -10.418532528189903
      ],
      [
        "▁torsdag",
        -10.418648058672902
      ],
      [
        "▁separat",
        -10.41872450384592
      ],
      [
        "▁ledning",
        -10.41876275763711
      ],
      [
        "▁kostnad",
        -10.419000212109179
      ],
      [
        "▁Apple",
        -10.419275167224368
      ],
      [
        "föll",
        -10.419779184225181
      ],
      [
        "▁kurser",
        -10.4201506106561
      ],
      [
        "▁resor",
        -10.420156570673146
      ],
      [
        "▁Kram",
        -10.420290981856954
      ],
      [
        "▁digital",
        -10.420690133361484
      ],
      [
        "teknik",
        -10.42083140642705
      ],
      [
        "▁To",
        -10.420998806649628
      ],
      [
        "▁vintern",
        -10.421109761135812
      ],
      [
        "▁dåliga",
        -10.421199077243733
      ],
      [
        "vanligtvis",
        -10.421484751485398
      ],
      [
        "\"Det",
        -10.42200998245805
      ],
      [
        "lo",
        -10.422677004108191
      ],
      [
        "ul",
        -10.423090162869821
      ],
      [
        "Tycker",
        -10.423513439385204
      ],
      [
        "▁underbart",
        -10.423798109029773
      ],
      [
        "▁frågar",
        -10.424392889091534
      ],
      [
        "▁faller",
        -10.425102614349147
      ],
      [
        "13",
        -10.425189046749468
      ],
      [
        "▁näst",
        -10.425458846939376
      ],
      [
        "▁saknas",
        -10.425530585345259
      ],
      [
        "▁söder",
        -10.425558265977616
      ],
      [
        "▁sov",
        -10.42619537897464
      ],
      [
        "▁Ryssland",
        -10.426833993080459
      ],
      [
        "gång",
        -10.427303587606833
      ],
      [
        "▁=)",
        -10.427547612941764
      ],
      [
        "est",
        -10.42781792990427
      ],
      [
        "▁apotek",
        -10.427830931544436
      ],
      [
        "fritt",
        -10.427847719711087
      ],
      [
        "skap",
        -10.428259467969015
      ],
      [
        "▁hjärta",
        -10.428551876121237
      ],
      [
        "▁undantag",
        -10.428816706015484
      ],
      [
        "▁förståelse",
        -10.429230435102742
      ],
      [
        "tagit",
        -10.429406002282027
      ],
      [
        "▁sortiment",
        -10.429637089628958
      ],
      [
        "Utcheckning",
        -10.429656377367413
      ],
      [
        "▁funderar",
        -10.430947421518947
      ],
      [
        "▁landet.",
        -10.43145320335423
      ],
      [
        "▁enskild",
        -10.43145419961485
      ],
      [
        "ju",
        -10.431550421154954
      ],
      [
        "enlighet",
        -10.43178435623098
      ],
      [
        "▁kall",
        -10.432124863094241
      ],
      [
        "▁1:",
        -10.43216492373619
      ],
      [
        "ych",
        -10.432758954170003
      ],
      [
        "utbildning",
        -10.432818340542912
      ],
      [
        "fria",
        -10.433189976141255
      ],
      [
        "▁människan",
        -10.43358483600903
      ],
      [
        "▁noga",
        -10.433680949646105
      ],
      [
        "mot",
        -10.43368397734932
      ],
      [
        "råd",
        -10.434858993311988
      ],
      [
        "▁billigare",
        -10.435113509822097
      ],
      [
        "▁president",
        -10.435575043876861
      ],
      [
        "▁Dating",
        -10.436078176576038
      ],
      [
        "▁tema",
        -10.436187296739057
      ],
      [
        "förening",
        -10.43668655093737
      ],
      [
        "▁75",
        -10.43670475097752
      ],
      [
        "▁behandlas",
        -10.437038186295704
      ],
      [
        "▁ber",
        -10.437053997401268
      ],
      [
        "▁automatiskt",
        -10.437844489865954
      ],
      [
        "namn",
        -10.438105408087223
      ],
      [
        "Logga",
        -10.438195229947024
      ],
      [
        "▁parkering",
        -10.438249984217482
      ],
      [
        "▁skador",
        -10.438409340903355
      ],
      [
        "pekar",
        -10.438665433668499
      ],
      [
        "▁stolt",
        -10.438764079895195
      ],
      [
        "▁ras",
        -10.439250899174462
      ],
      [
        "▁vågar",
        -10.439341454822522
      ],
      [
        "▁kol",
        -10.439689828542363
      ],
      [
        "sjön",
        -10.439846115682608
      ],
      [
        "▁tjänsten",
        -10.440020907196592
      ],
      [
        "▁besökt",
        -10.44039069000742
      ],
      [
        "▁jobbigt",
        -10.440724908168265
      ],
      [
        "▁sovrum",
        -10.440902205366973
      ],
      [
        "sin",
        -10.440970651054771
      ],
      [
        "▁egenskaper",
        -10.441198881096495
      ],
      [
        "▁närmast",
        -10.44140962750162
      ],
      [
        "delar",
        -10.441410986298514
      ],
      [
        "▁flashback",
        -10.442094566825212
      ],
      [
        "▁Bi",
        -10.442232307066577
      ],
      [
        "delat",
        -10.442474167847129
      ],
      [
        "▁förvänta",
        -10.44268415768604
      ],
      [
        "▁berör",
        -10.442709877721336
      ],
      [
        "▁trygg",
        -10.442870618511565
      ],
      [
        "▁fan",
        -10.443155739494953
      ],
      [
        "▁karriär",
        -10.444146036479111
      ],
      [
        "knappast",
        -10.445175709104397
      ],
      [
        "▁(se",
        -10.44549252909102
      ],
      [
        "▁träffade",
        -10.445504193087272
      ],
      [
        "▁dag,",
        -10.446558545905603
      ],
      [
        "▁bröd",
        -10.44661105557906
      ],
      [
        "▁framtid",
        -10.447011109546148
      ],
      [
        "▁Folk",
        -10.44827652815237
      ],
      [
        "▁region",
        -10.448516634512634
      ],
      [
        "▁minuter.",
        -10.44881871617483
      ],
      [
        "utav",
        -10.449962759954815
      ],
      [
        "▁styrelse",
        -10.450572484916798
      ],
      [
        "▁avstånd",
        -10.450704918202577
      ],
      [
        "Syftet",
        -10.450912462529983
      ],
      [
        "kommit",
        -10.451190448911941
      ],
      [
        "såg",
        -10.45129341836521
      ],
      [
        "▁aktivitet",
        -10.451818581980394
      ],
      [
        "▁tvinga",
        -10.452872419706512
      ],
      [
        "▁registrera",
        -10.453455863120483
      ],
      [
        "ledare",
        -10.45397696398268
      ],
      [
        "▁utvecklings",
        -10.454193026050069
      ],
      [
        "▁central",
        -10.454526558271503
      ],
      [
        "▁beslutet",
        -10.45462806597295
      ],
      [
        "▁sönder",
        -10.45476091721384
      ],
      [
        "▁tänk",
        -10.454858172621703
      ],
      [
        "▁veckan.",
        -10.454931654717019
      ],
      [
        "▁dog",
        -10.454936286945825
      ],
      [
        "▁utredning",
        -10.454999544459943
      ],
      [
        "▁Rom",
        -10.455574518390902
      ],
      [
        "▁intresserade",
        -10.455971833661827
      ],
      [
        "▁henne.",
        -10.456058280282825
      ],
      [
        "▁lämplig",
        -10.456065687633082
      ],
      [
        "▁nått",
        -10.457716356162408
      ],
      [
        "ok",
        -10.458608709583318
      ],
      [
        "itet",
        -10.458786539663613
      ],
      [
        "▁Karlsson",
        -10.4588366655481
      ],
      [
        "▁singel",
        -10.46010867659605
      ],
      [
        "▁uppfattning",
        -10.460546551481645
      ],
      [
        "▁fördelar",
        -10.460576737166734
      ],
      [
        "▁ok",
        -10.4608906724486
      ],
      [
        "▁original",
        -10.46091218214835
      ],
      [
        "samlat",
        -10.460948930849224
      ],
      [
        "▁rena",
        -10.461371368739897
      ],
      [
        "▁patienten",
        -10.461398947993395
      ],
      [
        "klass",
        -10.461495448548844
      ],
      [
        "▁samverkan",
        -10.4618284869453
      ],
      [
        "▁banan",
        -10.462021830835033
      ],
      [
        "▁upptäcka",
        -10.462083129330734
      ],
      [
        "▁styra",
        -10.462364830468317
      ],
      [
        "kr",
        -10.462405339712944
      ],
      [
        "▁objekt",
        -10.462818206321291
      ],
      [
        "▁Väl",
        -10.463848360423851
      ],
      [
        "▁Andreas",
        -10.4639824284826
      ],
      [
        "▁kallt",
        -10.46462691223196
      ],
      [
        "▁bl",
        -10.464797086079335
      ],
      [
        "▁dusch",
        -10.465002558624686
      ],
      [
        "▁kursen",
        -10.465041699949294
      ],
      [
        "▁cancer",
        -10.465895131724698
      ],
      [
        "▁Radio",
        -10.466978609837655
      ],
      [
        "delen",
        -10.467149985951012
      ],
      [
        "▁sprid",
        -10.467167592433004
      ],
      [
        "projekt",
        -10.4672639529729
      ],
      [
        "film",
        -10.467290996769162
      ],
      [
        "tips",
        -10.46765931822163
      ],
      [
        "▁dygnet",
        -10.467917857424581
      ],
      [
        "ker",
        -10.468056387587586
      ],
      [
        "▁Bank",
        -10.468434703043684
      ],
      [
        "▁åsikter",
        -10.468795290276542
      ],
      [
        "▁beskriva",
        -10.468886952444619
      ],
      [
        "▁doft",
        -10.469671164970153
      ],
      [
        "ber",
        -10.47017675037653
      ],
      [
        "▁Ring",
        -10.470338017630286
      ],
      [
        "säkerställa",
        -10.470453693594068
      ],
      [
        "▁ansvarig",
        -10.471149592958492
      ],
      [
        "▁Helsingborg",
        -10.471227150850686
      ],
      [
        "▁Lag",
        -10.471363760596443
      ],
      [
        "owan",
        -10.471722801280071
      ],
      [
        "\"Jag",
        -10.472267788359963
      ],
      [
        "▁föremål",
        -10.472669293769956
      ],
      [
        "▁Vidare",
        -10.473329672764686
      ],
      [
        "full",
        -10.47388377183472
      ],
      [
        "▁jämförelse",
        -10.473928874339787
      ],
      [
        "färre",
        -10.474110459436291
      ],
      [
        "▁förhindra",
        -10.474328390500125
      ],
      [
        "▁ovanligt",
        -10.474589367823391
      ],
      [
        "▁ställning",
        -10.47469435992862
      ],
      [
        "▁söt",
        -10.475143281081582
      ],
      [
        "▁varma",
        -10.47519868064701
      ],
      [
        "▁uppstår",
        -10.47531256823805
      ],
      [
        "ze",
        -10.475429812231978
      ],
      [
        "fyllt",
        -10.47554686317425
      ],
      [
        "talet",
        -10.475779130184534
      ],
      [
        "▁Sweden",
        -10.476723790098578
      ],
      [
        "ges",
        -10.476839522911293
      ],
      [
        "▁kämpa",
        -10.477015492073646
      ],
      [
        "▁tävling",
        -10.477135897918561
      ],
      [
        "▁Persson",
        -10.477829148345236
      ],
      [
        "▁Stockholm,",
        -10.478289189618817
      ],
      [
        "▁soffan",
        -10.478314432039229
      ],
      [
        "sannolikt",
        -10.478381722446425
      ],
      [
        "▁Följ",
        -10.479178656090058
      ],
      [
        "za",
        -10.479264793293742
      ],
      [
        "▁intill",
        -10.47950396085954
      ],
      [
        "▁faktorer",
        -10.480828231038103
      ],
      [
        "▁stannar",
        -10.480884088242622
      ],
      [
        "▁iaf",
        -10.480918713634136
      ],
      [
        "släppte",
        -10.481245002663213
      ],
      [
        "▁stämmer",
        -10.481399402621252
      ],
      [
        "▁Sven",
        -10.481412541082983
      ],
      [
        "an.",
        -10.48149524701202
      ],
      [
        "▁gift",
        -10.481784861521215
      ],
      [
        "▁kortare",
        -10.481801478498127
      ],
      [
        "▁engagemang",
        -10.48289779230951
      ],
      [
        "▁byggt",
        -10.483099974779803
      ],
      [
        "▁lik",
        -10.483191275456152
      ],
      [
        "▁rekommendera",
        -10.483204075484288
      ],
      [
        "▁räknar",
        -10.483236064186073
      ],
      [
        "▁tävla",
        -10.483291791337399
      ],
      [
        "▁produktion",
        -10.483834100808773
      ],
      [
        "fortsatte",
        -10.483846247276526
      ],
      [
        "ram",
        -10.483884988503988
      ],
      [
        "▁speciell",
        -10.484596910339523
      ],
      [
        "▁Ben",
        -10.484810168929029
      ],
      [
        "▁älskade",
        -10.484817872337558
      ],
      [
        "▁lagar",
        -10.484980391065571
      ],
      [
        "▁snyggt",
        -10.485236316533522
      ],
      [
        "▁uppfyll",
        -10.485476482073643
      ],
      [
        "ning.",
        -10.485857459053843
      ],
      [
        "▁stranden",
        -10.486788044258164
      ],
      [
        "▁intervju",
        -10.487279794310007
      ],
      [
        "ifrån",
[...]
