{
  "version": "1.0",
  "truncation": null,
  "padding": null,
  "added_tokens": [
    {
      "id": 0,
      "content": "[PAD]",
      "single_word": false,
      "lstrip": false,
      "rstrip": false,
      "normalized": false,
      "special": true
    },
    {
      "id": 1,
      "content": "[UNK]",
      "single_word": false,
      "lstrip": false,
      "rstrip": false,
      "normalized": false,
      "special": true
    },
    {
      "id": 2,
      "content": "[MASK]",
      "single_word": false,
      "lstrip": false,
      "rstrip": false,
      "normalized": false,
      "special": true
    },
    {
      "id": 3,
      "content": "[CLS]",
      "single_word": false,
      "lstrip": false,
      "rstrip": false,
      "normalized": false,
      "special": true
    },
    {
      "id": 4,
      "content": "[SEP]",
      "single_word": false,
      "lstrip": false,
      "rstrip": false,
      "normalized": false,
      "special": true
    }
  ],
  "normalizer": {
    "type": "Sequence",
    "normalizers": [
      {
        "type": "Nmt"
      },
      {
        "type": "NFKC"
      },
      {
        "type": "Replace",
        "pattern": {
          "Regex": " {2,}"
        },
        "content": " "
      }
    ]
  },
  "pre_tokenizer": {
    "type": "Sequence",
    "pretokenizers": [
      {
        "type": "Metaspace",
        "replacement": "▁",
        "add_prefix_space": true
      },
      {
        "type": "Split",
        "pattern": {
          "Regex": "\\d"
        },
        "behavior": "MergedWithPrevious",
        "invert": false
      },
      {
        "type": "Punctuation",
        "behavior": "Isolated"
      }
    ]
  },
  "post_processor": {
    "type": "TemplateProcessing",
    "single": [
      {
        "SpecialToken": {
          "id": "[CLS]",
          "type_id": 0
        }
      },
      {
        "Sequence": {
          "id": "A",
          "type_id": 0
        }
      },
      {
        "SpecialToken": {
          "id": "[SEP]",
          "type_id": 0
        }
      }
    ],
    "pair": [
      {
        "SpecialToken": {
          "id": "[CLS]",
          "type_id": 0
        }
      },
      {
        "Sequence": {
          "id": "A",
          "type_id": 0
        }
      },
      {
        "SpecialToken": {
          "id": "[SEP]",
          "type_id": 0
        }
      },
      {
        "Sequence": {
          "id": "B",
          "type_id": 1
        }
      },
      {
        "SpecialToken": {
          "id": "[SEP]",
          "type_id": 1
        }
      }
    ],
    "special_tokens": {
      "[CLS]": {
        "id": "[CLS]",
        "ids": [
          3
        ],
        "tokens": [
          "[CLS]"
        ]
      },
      "[SEP]": {
        "id": "[SEP]",
        "ids": [
          4
        ],
        "tokens": [
          "[SEP]"
        ]
      }
    }
  },
  "decoder": {
    "type": "Metaspace",
    "replacement": "▁",
    "add_prefix_space": true
  },
  "model": {
    "type": "BPE",
    "dropout": null,
    "unk_token": null,
    "continuing_subword_prefix": null,
    "end_of_word_suffix": null,
    "fuse_unk": false,
    "vocab": {
      "[PAD]": 0,
      "[UNK]": 1,
      "[MASK]": 2,
      "[CLS]": 3,
      "[SEP]": 4,
      "\u0000": 5,
      "!": 6,
      "\"": 7,
      "#": 8,
      "$": 9,
      "%": 10,
      "&": 11,
      "'": 12,
      "(": 13,
      ")": 14,
      "*": 15,
      "+": 16,
      ",": 17,
      "-": 18,
      ".": 19,
      "/": 20,
      "0": 21,
      "1": 22,
      "2": 23,
      "3": 24,
      "4": 25,
      "5": 26,
      "6": 27,
      "7": 28,
      "8": 29,
      "9": 30,
      ":": 31,
      ";": 32,
      "<": 33,
      "=": 34,
      ">": 35,
      "?": 36,
      "@": 37,
      "A": 38,
      "B": 39,
      "C": 40,
      "D": 41,
      "E": 42,
      "F": 43,
      "G": 44,
      "H": 45,
      "I": 46,
      "J": 47,
      "K": 48,
      "L": 49,
      "M": 50,
      "N": 51,
      "O": 52,
      "P": 53,
      "Q": 54,
      "R": 55,
      "S": 56,
      "T": 57,
      "U": 58,
      "V": 59,
      "W": 60,
      "X": 61,
      "Y": 62,
      "Z": 63,
      "[": 64,
      "\\": 65,
      "]": 66,
      "^": 67,
      "_": 68,
      "`": 69,
      "a": 70,
      "b": 71,
      "c": 72,
      "d": 73,
      "e": 74,
      "f": 75,
      "g": 76,
      "h": 77,
      "i": 78,
      "j": 79,
      "k": 80,
      "l": 81,
      "m": 82,
      "n": 83,
      "o": 84,
      "p": 85,
      "q": 86,
      "r": 87,
      "s": 88,
      "t": 89,
      "u": 90,
      "v": 91,
      "w": 92,
      "x": 93,
      "y": 94,
      "z": 95,
      "{": 96,
      "|": 97,
      "}": 98,
      "~": 99,
      "": 100,
      "": 101,
      "": 102,
      "": 103,
      "": 104,
      "": 105,
      "": 106,
      "": 107,
      "": 108,
      "": 109,
      "": 110,
      "": 111,
      "": 112,
      "": 113,
      "": 114,
      "": 115,
      "": 116,
      "": 117,
      "": 118,
      "": 119,
      "": 120,
      "": 121,
      "": 122,
      "": 123,
      "": 124,
      "": 125,
      "": 126,
      "": 127,
      "": 128,
      "": 129,
      "¡": 130,
      "¢": 131,
      "£": 132,
      "¤": 133,
      "¥": 134,
      "¦": 135,
      "§": 136,
      "©": 137,
      "«": 138,
      "¬": 139,
      "­": 140,
      "®": 141,
      "°": 142,
      "±": 143,
      "¶": 144,
      "·": 145,
      "»": 146,
      "¿": 147,
      "À": 148,
      "Á": 149,
      "Â": 150,
      "Ã": 151,
      "Ä": 152,
      "Å": 153,
      "Æ": 154,
      "Ç": 155,
      "È": 156,
      "É": 157,
      "Ê": 158,
      "Ë": 159,
      "Ì": 160,
      "Í": 161,
      "Î": 162,
      "Ï": 163,
      "Ð": 164,
      "Ñ": 165,
      "Ò": 166,
      "Ó": 167,
      "Ô": 168,
      "Õ": 169,
      "Ö": 170,
      "×": 171,
      "Ø": 172,
      "Ù": 173,
      "Ú": 174,
      "Û": 175,
      "Ü": 176,
      "Ý": 177,
      "Þ": 178,
      "ß": 179,
      "à": 180,
      "á": 181,
      "â": 182,
      "ã": 183,
      "ä": 184,
      "å": 185,
      "æ": 186,
      "ç": 187,
      "è": 188,
      "é": 189,
      "ê": 190,
      "ë": 191,
      "ì": 192,
      "í": 193,
      "î": 194,
      "ï": 195,
      "ð": 196,
      "ñ": 197,
      "ò": 198,
      "ó": 199,
      "ô": 200,
      "õ": 201,
      "ö": 202,
      "÷": 203,
      "ø": 204,
      "ù": 205,
      "ú": 206,
      "û": 207,
      "ü": 208,
      "ý": 209,
      "þ": 210,
      "ÿ": 211,
      "Ā": 212,
      "ā": 213,
      "Ă": 214,
      "ă": 215,
      "Ą": 216,
      "ą": 217,
      "Ć": 218,
      "ć": 219,
      "Ĉ": 220,
      "ĉ": 221,
      "Ċ": 222,
      "ċ": 223,
      "Č": 224,
      "č": 225,
      "Ď": 226,
      "ď": 227,
      "Đ": 228,
      "đ": 229,
      "Ē": 230,
      "ē": 231,
      "Ĕ": 232,
      "ĕ": 233,
      "Ė": 234,
      "ė": 235,
      "Ę": 236,
      "ę": 237,
      "Ě": 238,
      "ě": 239,
      "Ĝ": 240,
      "ĝ": 241,
      "Ğ": 242,
      "ğ": 243,
      "Ġ": 244,
      "ġ": 245,
      "Ģ": 246,
      "ģ": 247,
      "Ĥ": 248,
      "ĥ": 249,
      "Ħ": 250,
      "ħ": 251,
      "Ĩ": 252,
      "ĩ": 253,
      "Ī": 254,
      "ī": 255,
      "Ĭ": 256,
      "ĭ": 257,
      "Į": 258,
      "į": 259,
      "İ": 260,
      "ı": 261,
      "Ĵ": 262,
      "ĵ": 263,
      "Ķ": 264,
      "ķ": 265,
      "ĸ": 266,
      "Ĺ": 267,
      "ĺ": 268,
      "Ļ": 269,
      "ļ": 270,
      "Ľ": 271,
      "ľ": 272,
      "Ł": 273,
      "ł": 274,
      "Ń": 275,
      "ń": 276,
      "Ņ": 277,
      "ņ": 278,
      "Ň": 279,
      "ň": 280,
      "Ŋ": 281,
      "ŋ": 282,
      "Ō": 283,
      "ō": 284,
      "Ŏ": 285,
      "ŏ": 286,
      "Ő": 287,
      "ő": 288,
      "Œ": 289,
      "œ": 290,
      "ŕ": 291,
      "Ŗ": 292,
      "ŗ": 293,
      "Ř": 294,
      "ř": 295,
      "Ś": 296,
      "ś": 297,
      "Ŝ": 298,
      "ŝ": 299,
      "Ş": 300,
      "ş": 301,
      "Š": 302,
      "š": 303,
      "Ţ": 304,
      "ţ": 305,
      "Ť": 306,
      "ť": 307,
      "Ŧ": 308,
      "ŧ": 309,
      "ũ": 310,
      "Ū": 311,
      "ū": 312,
      "Ŭ": 313,
      "ŭ": 314,
      "Ů": 315,
      "ů": 316,
      "ű": 317,
      "ų": 318,
      "ŵ": 319,
      "Ŷ": 320,
      "ŷ": 321,
      "Ÿ": 322,
      "Ź": 323,
      "ź": 324,
      "Ż": 325,
      "ż": 326,
      "Ž": 327,
      "ž": 328,
      "Ƃ": 329,
      "Ƅ": 330,
      "ƅ": 331,
      "Ɔ": 332,
      "ƈ": 333,
      "Ɖ": 334,
      "ƌ": 335,
      "Ǝ": 336,
      "Ə": 337,
      "Ɛ": 338,
      "ƒ": 339,
      "Ɣ": 340,
      "Ɨ": 341,
      "ƙ": 342,
      "ƚ": 343,
      "ƞ": 344,
      "Ɵ": 345,
      "Ơ": 346,
      "ơ": 347,
      "Ƨ": 348,
      "Ʃ": 349,
      "Ƭ": 350,
      "Ư": 351,
      "ư": 352,
      "Ƶ": 353,
      "ƶ": 354,
      "Ƹ": 355,
      "ƺ": 356,
      "Ƽ": 357,
      "ƿ": 358,
      "ǀ": 359,
      "ǁ": 360,
      "ǎ": 361,
      "ǐ": 362,
      "ǒ": 363,
      "ǔ": 364,
      "ǘ": 365,
      "ǚ": 366,
      "ǜ": 367,
      "ǝ": 368,
      "Ǟ": 369,
      "ǟ": 370,
      "ǣ": 371,
      "Ǥ": 372,
      "ǥ": 373,
      "Ǧ": 374,
      "ǧ": 375,
      "Ǩ": 376,
      "ǩ": 377,
      "Ǫ": 378,
      "ǫ": 379,
      "Ǭ": 380,
      "ǭ": 381,
      "ǯ": 382,
      "ǰ": 383,
      "Ǵ": 384,
      "ǵ": 385,
      "ǹ": 386,
      "Ǻ": 387,
      "ǻ": 388,
      "Ǽ": 389,
      "ǽ": 390,
      "Ǿ": 391,
      "ǿ": 392,
      "Ȁ": 393,
      "ȁ": 394,
      "Ȃ": 395,
      "ȃ": 396,
      "ȅ": 397,
      "ȇ": 398,
      "Ȉ": 399,
      "ȉ": 400,
      "Ȋ": 401,
      "ȋ": 402,
      "ȏ": 403,
      "ȕ": 404,
      "Ș": 405,
      "ș": 406,
      "Ț": 407,
      "ț": 408,
      "Ȝ": 409,
      "ȝ": 410,
      "ȟ": 411,
      "Ȣ": 412,
      "ȧ": 413,
      "ȩ": 414,
      "ȫ": 415,
      "ȳ": 416,
      "ȷ": 417,
      "Ƀ": 418,
      "Ʌ": 419,
      "ɉ": 420,
      "ɋ": 421,
      "Ɍ": 422,
      "ʹ": 423,
      "ʺ": 424,
      "ʻ": 425,
      "ʼ": 426,
      "ʽ": 427,
      "ʾ": 428,
      "ʿ": 429,
      "ˀ": 430,
      "ˁ": 431,
      "˂": 432,
      "˃": 433,
      "˄": 434,
      "˅": 435,
      "ˆ": 436,
      "ˇ": 437,
      "ˈ": 438,
      "ˉ": 439,
      "ˊ": 440,
      "ˋ": 441,
      "ˌ": 442,
      "ˍ": 443,
      "ˎ": 444,
      "ˏ": 445,
      "ː": 446,
      "ˑ": 447,
      "˗": 448,
      "˭": 449,
      "ˮ": 450,
      "Ḃ": 451,
      "Ḉ": 452,
      "Ḋ": 453,
      "ḋ": 454,
      "Ḍ": 455,
      "ḍ": 456,
      "Ḏ": 457,
      "ḏ": 458,
      "Ḑ": 459,
      "ḑ": 460,
      "ḗ": 461,
      "Ḟ": 462,
      "ḟ": 463,
      "ḡ": 464,
      "Ḣ": 465,
      "Ḥ": 466,
      "ḥ": 467,
      "ḧ": 468,
      "Ḩ": 469,
      "ḩ": 470,
      "Ḫ": 471,
      "ḫ": 472,
      "ḯ": 473,
      "Ḱ": 474,
      "ḱ": 475,
      "Ḳ": 476,
      "ḳ": 477,
      "ḵ": 478,
      "ḷ": 479,
      "ḻ": 480,
      "Ḿ": 481,
      "ḿ": 482,
      "Ṁ": 483,
      "ṁ": 484,
      "ṃ": 485,
      "Ṅ": 486,
      "ṅ": 487,
      "ṇ": 488,
      "Ṉ": 489,
      "ṓ": 490,
      "Ṕ": 491,
      "ṕ": 492,
      "Ṗ": 493,
      "ṛ": 494,
      "ṟ": 495,
      "Ṡ": 496,
      "Ṣ": 497,
      "ṣ": 498,
      "Ṩ": 499,
      "Ṫ": 500,
      "Ṭ": 501,
      "ṭ": 502,
      "ṯ": 503,
      "ṿ": 504,
      "Ẁ": 505,
      "ẋ": 506,
      "ẍ": 507,
      "ẏ": 508,
      "Ẓ": 509,
      "ẓ": 510,
      "Ẕ": 511,
      "ẕ": 512,
      "ẖ": 513,
      "ẗ": 514,
      "ẞ": 515,
      "Ạ": 516,
      "ạ": 517,
      "Ả": 518,
      "ả": 519,
      "Ấ": 520,
      "ấ": 521,
      "Ầ": 522,
      "ầ": 523,
      "Ẩ": 524,
      "ẩ": 525,
      "Ẫ": 526,
      "ẫ": 527,
      "Ậ": 528,
      "ậ": 529,
      "ắ": 530,
      "ằ": 531,
      "ẳ": 532,
      "ẵ": 533,
      "ặ": 534,
      "Ẹ": 535,
      "ẹ": 536,
      "Ẻ": 537,
      "ẻ": 538,
      "Ẽ": 539,
      "ẽ": 540,
      "Ế": 541,
      "ế": 542,
      "ề": 543,
      "ể": 544,
      "Ễ": 545,
      "ễ": 546,
      "Ệ": 547,
      "ệ": 548,
      "ỉ": 549,
      "Ị": 550,
      "ị": 551,
      "Ọ": 552,
      "ọ": 553,
      "ỏ": 554,
      "ố": 555,
      "Ồ": 556,
      "ồ": 557,
      "Ổ": 558,
      "ổ": 559,
      "Ỗ": 560,
      "ỗ": 561,
      "Ộ": 562,
      "ộ": 563,
      "Ớ": 564,
      "ớ": 565,
      "Ờ": 566,
      "ờ": 567,
      "ở": 568,
      "Ỡ": 569,
      "ỡ": 570,
      "ợ": 571,
      "Ụ": 572,
      "ụ": 573,
      "Ủ": 574,
      "ủ": 575,
      "Ứ": 576,
      "ứ": 577,
      "ừ": 578,
      "ử": 579,
      "Ữ": 580,
      "ữ": 581,
      "Ự": 582,
      "ự": 583,
      "ỳ": 584,
      "ỵ": 585,
      "Ỷ": 586,
      "ỷ": 587,
      "Ỹ": 588,
      "ỹ": 589,
      "‐": 590,
      "‒": 591,
      "–": 592,
      "—": 593,
      "―": 594,
      "‖": 595,
      "‘": 596,
      "’": 597,
      "‚": 598,
      "‛": 599,
      "“": 600,
      "”": 601,
      "„": 602,
      "‟": 603,
      "†": 604,
      "‡": 605,
      "•": 606,
      "‣": 607,
      "‧": 608,
      "‪": 609,
      "‫": 610,
      "‬": 611,
      "‭": 612,
      "‮": 613,
      "‰": 614,
      "′": 615,
      "‹": 616,
      "›": 617,
      "※": 618,
      "‽": 619,
      "‿": 620,
      "⁂": 621,
      "⁃": 622,
      "⁄": 623,
      "⁅": 624,
      "⁆": 625,
      "⁎": 626,
      "⁓": 627,
      "⁕": 628,
      "⁝": 629,
      "⁞": 630,
      "⁠": 631,
      "⁡": 632,
      "⁢": 633,
      "⁣": 634,
      "⁦": 635,
      "⁨": 636,
      "⁩": 637,
      "⁪": 638,
      "⁫": 639,
      "⁬": 640,
      "⁭": 641,
      "⁯": 642,
      "⁲": 643,
      "₝": 644,
      "₠": 645,
      "₡": 646,
      "₣": 647,
      "₤": 648,
      "₦": 649,
      "₩": 650,
      "₪": 651,
      "₫": 652,
      "€": 653,
      "₭": 654,
      "₮": 655,
      "₱": 656,
      "₴": 657,
      "₹": 658,
      "₺": 659,
      "₽": 660,
      "₿": 661,
      "⃗": 662,
      "⃝": 663,
      "⃣": 664,
      "⃰": 665,
      "⃺": 666,
      "℔": 667,
      "℗": 668,
      "℘": 669,
      "℞": 670,
      "℥": 671,
      "℧": 672,
      "℮": 673,
      "←": 674,
      "↑": 675,
      "→": 676,
      "↓": 677,
      "↔": 678,
      "↕": 679,
      "↗": 680,
      "↘": 681,
      "↙": 682,
      "↝": 683,
      "↞": 684,
      "↠": 685,
      "↡": 686,
      "↤": 687,
      "↥": 688,
      "↦": 689,
      "↧": 690,
      "↨": 691,
      "↩": 692,
      "↪": 693,
      "↲": 694,
      "↳": 695,
      "↴": 696,
      "↵": 697,
      "↷": 698,
      "↺": 699,
      "↻": 700,
      "⇄": 701,
      "⇆": 702,
      "⇊": 703,
      "⇌": 704,
      "⇐": 705,
      "⇑": 706,
      "⇒": 707,
      "⇓": 708,
      "⇔": 709,
      "⇗": 710,
      "⇘": 711,
      "⇙": 712,
      "⇛": 713,
      "⇞": 714,
      "⇠": 715,
      "⇡": 716,
      "⇢": 717,
      "⇣": 718,
      "⇥": 719,
      "⇧": 720,
      "⇨": 721,
      "⇩": 722,
      "⇱": 723,
      "⇻": 724,
      "⇼": 725,
      "⇾": 726,
      "∀": 727,
      "∁": 728,
      "∂": 729,
      "∃": 730,
      "∅": 731,
      "∆": 732,
      "∇": 733,
      "∈": 734,
      "∉": 735,
      "∋": 736,
      "∎": 737,
      "∏": 738,
      "∑": 739,
      "−": 740,
      "∓": 741,
      "∔": 742,
      "∕": 743,
      "∖": 744,
      "∗": 745,
      "∘": 746,
      "∙": 747,
      "√": 748,
      "∛": 749,
      "∜": 750,
      "∝": 751,
      "∞": 752,
      "∠": 753,
      "∣": 754,
      "∥": 755,
      "∧": 756,
      "∨": 757,
      "∩": 758,
      "∪": 759,
      "∫": 760,
      "∴": 761,
      "∷": 762,
      "∼": 763,
      "≁": 764,
      "≃": 765,
      "≅": 766,
      "≈": 767,
      "≙": 768,
      "≚": 769,
      "≠": 770,
      "≡": 771,
      "≢": 772,
      "≤": 773,
      "≥": 774,
      "≦": 775,
      "≧": 776,
      "≪": 777,
      "≫": 778,
      "≮": 779,
      "≶": 780,
      "≻": 781,
      "⊂": 782,
      "⊃": 783,
      "⊄": 784,
      "⊆": 785,
      "⊇": 786,
      "⊎": 787,
      "⊕": 788,
      "⊗": 789,
      "⊙": 790,
      "⊛": 791,
      "⊞": 792,
      "⊟": 793,
      "⊡": 794,
      "⊢": 795,
      "⊥": 796,
      "⊧": 797,
      "⊨": 798,
      "⊬": 799,
      "⊭": 800,
      "⊰": 801,
      "⊱": 802,
      "⊲": 803,
      "⊳": 804,
      "⊽": 805,
      "⋅": 806,
      "⋆": 807,
      "⋘": 808,
      "⋙": 809,
      "⋝": 810,
      "⋮": 811,
      "⋯": 812,
      "⌀": 813,
      "⌂": 814,
      "⌃": 815,
      "⌅": 816,
      "⌉": 817,
      "⌊": 818,
      "⌋": 819,
      "⌐": 820,
      "⌒": 821,
      "⌕": 822,
      "⌘": 823,
      "⌚": 824,
      "⌛": 825,
      "⌢": 826,
      "⌥": 827,
      "⌧": 828,
      "⌨": 829,
      "⌲": 830,
      "⍅": 831,
      "⍰": 832,
      "⎋": 833,
      "⎓": 834,
      "⎜": 835,
      "⎝": 836,
      "⎟": 837,
      "⎢": 838,
      "⎥": 839,
      "⎧": 840,
      "⎨": 841,
      "⎩": 842,
      "⎪": 843,
      "⎫": 844,
      "⎯": 845,
      "⎷": 846,
      "⎸": 847,
      "⎼": 848,
      "⎿": 849,
      "⏋": 850,
      "⏎": 851,
      "⏏": 852,
      "⏐": 853,
      "⏚": 854,
      "⏤": 855,
      "⏩": 856,
      "⏪": 857,
      "⏬": 858,
      "⏰": 859,
      "⏱": 860,
      "⏲": 861,
      "⏳": 862,
      "⏹": 863,
      "⏺": 864,
      "␀": 865,
      "␍": 866,
      "␣": 867,
      "⓵": 868,
      "⓶": 869,
      "⓷": 870,
      "⓸": 871,
      "⓹": 872,
      "⓺": 873,
      "⓻": 874,
      "⓼": 875,
      "⓽": 876,
      "⓾": 877,
      "─": 878,
      "━": 879,
      "│": 880,
      "┃": 881,
      "┇": 882,
      "┊": 883,
      "┌": 884,
      "┐": 885,
      "└": 886,
      "┕": 887,
      "┘": 888,
      "┣": 889,
      "┼": 890,
      "╌": 891,
      "═": 892,
      "║": 893,
      "╔": 894,
      "╠": 895,
      "╥": 896,
      "╩": 897,
      "╬": 898,
      "╭": 899,
      "╮": 900,
      "╰": 901,
      "╱": 902,
      "╳": 903,
      "▀": 904,
      "▁": 905,
      "▂": 906,
      "▃": 907,
      "▄": 908,
      "▅": 909,
      "▆": 910,
      "▇": 911,
      "█": 912,
      "▌": 913,
      "▐": 914,
      "░": 915,
      "▒": 916,
      "▓": 917,
      "■": 918,
      "□": 919,
      "▢": 920,
      "▣": 921,
      "▤": 922,
      "▦": 923,
      "▪": 924,
      "▫": 925,
      "▬": 926,
      "▭": 927,
      "▮": 928,
      "▲": 929,
      "△": 930,
      "▴": 931,
      "▶": 932,
      "▷": 933,
      "▸": 934,
      "▹": 935,
      "►": 936,
      "▻": 937,
      "▼": 938,
      "▽": 939,
      "▾": 940,
      "◀": 941,
      "◁": 942,
      "◂": 943,
      "◄": 944,
      "◅": 945,
      "◆": 946,
      "◇": 947,
      "◈": 948,
      "◉": 949,
      "◊": 950,
      "○": 951,
      "◌": 952,
      "◎": 953,
      "●": 954,
      "◐": 955,
      "◑": 956,
      "◔": 957,
      "◕": 958,
      "◗": 959,
      "◘": 960,
      "◙": 961,
      "◠": 962,
      "◡": 963,
      "◢": 964,
      "◣": 965,
      "◤": 966,
      "◦": 967,
      "◩": 968,
      "◪": 969,
      "◴": 970,
      "◻": 971,
      "◼": 972,
      "◽": 973,
      "◾": 974,
      "☀": 975,
      "☁": 976,
      "☂": 977,
      "☃": 978,
      "☄": 979,
      "★": 980,
      "☆": 981,
      "☇": 982,
      "☈": 983,
      "☉": 984,
      "☊": 985,
      "☋": 986,
      "☎": 987,
      "☏": 988,
      "☐": 989,
      "☑": 990,
      "☒": 991,
      "☓": 992,
      "☔": 993,
      "☕": 994,
      "☘": 995,
      "☙": 996,
      "☚": 997,
      "☛": 998,
      "☜": 999,
      "☝": 1000,
      "☞": 1001,
      "☟": 1002,
      "☠": 1003,
      "☢": 1004,
      "☣": 1005,
      "☥": 1006,
      "☧": 1007,
      "☪": 1008,
      "☭": 1009,
      "☮": 1010,
      "☯": 1011,
      "☰": 1012,
      "☴": 1013,
      "☷": 1014,
      "☹": 1015,
      "☺": 1016,
      "☻": 1017,
      "☼": 1018,
      "☽": 1019,
      "☾": 1020,
      "☿": 1021,
      "♀": 1022,
      "♁": 1023,
      "♂": 1024,
      "♃": 1025,
      "♅": 1026,
      "♆": 1027,
      "♈": 1028,
      "♊": 1029,
      "♋": 1030,
      "♍": 1031,
      "♏": 1032,
      "♐": 1033,
      "♓": 1034,
      "♔": 1035,
      "♕": 1036,
      "♘": 1037,
      "♙": 1038,
      "♚": 1039,
      "♛": 1040,
      "♜": 1041,
      "♞": 1042,
      "♟": 1043,
      "♠": 1044,
      "♡": 1045,
      "♢": 1046,
      "♣": 1047,
      "♤": 1048,
      "♥": 1049,
      "♦": 1050,
      "♧": 1051,
      "♨": 1052,
      "♩": 1053,
      "♪": 1054,
      "♫": 1055,
      "♬": 1056,
      "♭": 1057,
      "♮": 1058,
      "♯": 1059,
      "♱": 1060,
      "♲": 1061,
      "♺": 1062,
      "♻": 1063,
      "♿": 1064,
      "⚄": 1065,
      "⚅": 1066,
      "⚇": 1067,
      "⚊": 1068,
      "⚐": 1069,
      "⚒": 1070,
      "⚓": 1071,
      "⚔": 1072,
      "⚕": 1073,
      "⚖": 1074,
      "⚘": 1075,
      "⚙": 1076,
      "⚚": 1077,
      "⚜": 1078,
      "⚠": 1079,
      "⚡": 1080,
      "⚧": 1081,
      "⚪": 1082,
      "⚫": 1083,
      "⚬": 1084,
      "⚭": 1085,
      "⚲": 1086,
      "⚷": 1087,
      "⚹": 1088,
      "⚽": 1089,
      "⚾": 1090,
      "⛄": 1091,
      "⛅": 1092,
      "⛆": 1093,
      "⛈": 1094,
      "⛎": 1095,
      "⛏": 1096,
      "⛐": 1097,
      "⛑": 1098,
      "⛔": 1099,
      "⛢": 1100,
      "⛦": 1101,
      "⛩": 1102,
      "⛪": 1103,
      "⛰": 1104,
      "⛱": 1105,
      "⛲": 1106,
      "⛳": 1107,
      "⛴": 1108,
      "⛵": 1109,
      "⛷": 1110,
      "⛸": 1111,
      "⛹": 1112,
      "⛺": 1113,
      "⛽": 1114,
      "✁": 1115,
      "✂": 1116,
      "✄": 1117,
      "✅": 1118,
      "✆": 1119,
      "✈": 1120,
      "✉": 1121,
      "✊": 1122,
      "✋": 1123,
      "✌": 1124,
      "✍": 1125,
      "✎": 1126,
      "✏": 1127,
      "✐": 1128,
      "✒": 1129,
      "✓": 1130,
      "✔": 1131,
      "✕": 1132,
      "✖": 1133,
      "✗": 1134,
      "✘": 1135,
      "✚": 1136,
      "✜": 1137,
      "✝": 1138,
      "✞": 1139,
      "✟": 1140,
      "✠": 1141,
      "✢": 1142,
      "✣": 1143,
      "✤": 1144,
      "✥": 1145,
      "✦": 1146,
      "✧": 1147,
      "✨": 1148,
      "✩": 1149,
      "✪": 1150,
      "✫": 1151,
      "✭": 1152,
      "✮": 1153,
      "✯": 1154,
      "✰": 1155,
      "✱": 1156,
      "✲": 1157,
      "✳": 1158,
      "✴": 1159,
      "✵": 1160,
      "✶": 1161,
      "✷": 1162,
      "✸": 1163,
      "✹": 1164,
      "✺": 1165,
      "✻": 1166,
      "✼": 1167,
      "✽": 1168,
      "✾": 1169,
      "✿": 1170,
      "❀": 1171,
      "❁": 1172,
      "❂": 1173,
      "❃": 1174,
      "❄": 1175,
      "❅": 1176,
      "❆": 1177,
      "❇": 1178,
      "❈": 1179,
      "❉": 1180,
      "❊": 1181,
      "❋": 1182,
      "❌": 1183,
      "❍": 1184,
      "❎": 1185,
      "❏": 1186,
      "❐": 1187,
      "❑": 1188,
      "❒": 1189,
      "❓": 1190,
      "❔": 1191,
      "❕": 1192,
      "❖": 1193,
      "❗": 1194,
      "❘": 1195,
      "❙": 1196,
      "❚": 1197,
      "❜": 1198,
      "❝": 1199,
      "❞": 1200,
      "❠": 1201,
      "❣": 1202,
      "❤": 1203,
      "❥": 1204,
      "❦": 1205,
      "❧": 1206,
      "❭": 1207,
      "❯": 1208,
      "❰": 1209,
      "❱": 1210,
      "❶": 1211,
      "❷": 1212,
      "❸": 1213,
      "❹": 1214,
      "❺": 1215,
      "❻": 1216,
      "❼": 1217,
      "❽": 1218,
      "❾": 1219,
      "❿": 1220,
      "➀": 1221,
      "➁": 1222,
      "➂": 1223,
      "➃": 1224,
      "➄": 1225,
      "➅": 1226,
      "➆": 1227,
      "➇": 1228,
      "➈": 1229,
      "➉": 1230,
      "➊": 1231,
      "➋": 1232,
      "➌": 1233,
      "➍": 1234,
      "➎": 1235,
      "➏": 1236,
      "➐": 1237,
      "➑": 1238,
      "➒": 1239,
      "➓": 1240,
      "➔": 1241,
      "➕": 1242,
      "➖": 1243,
      "➙": 1244,
      "➚": 1245,
      "➛": 1246,
      "➜": 1247,
      "➝": 1248,
      "➞": 1249,
      "➟": 1250,
      "➠": 1251,
      "➡": 1252,
      "➢": 1253,
      "➣": 1254,
      "➤": 1255,
      "➥": 1256,
      "➦": 1257,
      "➧": 1258,
      "➨": 1259,
      "➩": 1260,
      "➪": 1261,
      "➫": 1262,
      "➭": 1263,
      "➯": 1264,
      "➰": 1265,
      "➳": 1266,
      "➵": 1267,
      "➸": 1268,
      "➹": 1269,
      "➺": 1270,
      "➻": 1271,
      "➼": 1272,
      "➽": 1273,
      "➾": 1274,
      "⟐": 1275,
      "⟨": 1276,
      "⟩": 1277,
      "⟲": 1278,
      "⟵": 1279,
      "⟶": 1280,
      "⟹": 1281,
      "⟿": 1282,
      "⤡": 1283,
      "⤴": 1284,
      "⤵": 1285,
      "⤷": 1286,
      "⥤": 1287,
      "⦁": 1288,
      "⦆": 1289,
      "⦠": 1290,
      "⦾": 1291,
      "⦿": 1292,
      "⧐": 1293,
      "⧫": 1294,
      "⨀": 1295,
      "⨉": 1296,
      "⨠": 1297,
      "⨯": 1298,
      "⪢": 1299,
      "⫸": 1300,
      "⬅": 1301,
      "⬆": 1302,
      "⬇": 1303,
      "⬈": 1304,
      "⬛": 1305,
      "⬤": 1306,
      "⭐": 1307,
      "⭑": 1308,
      "⭕": 1309,
      "⭖": 1310,
      "⭳": 1311,
      "⮃": 1312,
      "⮕": 1313,
      "⮞": 1314,
      "⯆": 1315,
      "⯈": 1316,
      "ⱱ": 1317,
      "⸗": 1318,
      "ꝺ": 1319,
      "꞉": 1320,
      "ꞌ": 1321,
      "ꟷ": 1322,
      "𝄞": 1323,
      "𝅘": 1324,
      "𝅥": 1325,
      "𝅮": 1326,
      "𝅯": 1327,
      "𝅰": 1328,
      "𝅱": 1329,
      "𝅲": 1330,
      "🃏": 1331,
      "🅰": 1332,
      "🅿": 1333,
      "🆑": 1334,
      "🆒": 1335,
      "🆓": 1336,
      "🆕": 1337,
      "🆗": 1338,
      "🆘": 1339,
      "🇦": 1340,
      "🇧": 1341,
      "🇨": 1342,
      "🇩": 1343,
      "🇪": 1344,
      "🇫": 1345,
      "🇬": 1346,
      "🇭": 1347,
      "🇮": 1348,
      "🇯": 1349,
      "🇰": 1350,
      "🇱": 1351,
      "🇲": 1352,
      "🇳": 1353,
      "🇴": 1354,
      "🇵": 1355,
      "🇶": 1356,
      "🇷": 1357,
      "🇸": 1358,
      "🇹": 1359,
      "🇺": 1360,
      "🇻": 1361,
      "🇼": 1362,
      "🇽": 1363,
      "🇾": 1364,
      "🇿": 1365,
      "🌀": 1366,
      "🌁": 1367,
      "🌂": 1368,
      "🌃": 1369,
      "🌄": 1370,
      "🌅": 1371,
      "🌆": 1372,
      "🌇": 1373,
      "🌈": 1374,
      "🌉": 1375,
      "🌊": 1376,
      "🌋": 1377,
      "🌌": 1378,
      "🌍": 1379,
      "🌎": 1380,
      "🌏": 1381,
      "🌐": 1382,
      "🌑": 1383,
      "🌒": 1384,
      "🌓": 1385,
      "🌔": 1386,
      "🌕": 1387,
      "🌖": 1388,
      "🌗": 1389,
      "🌘": 1390,
      "🌙": 1391,
      "🌚": 1392,
      "🌛": 1393,
      "🌜": 1394,
      "🌝": 1395,
      "🌞": 1396,
      "🌟": 1397,
      "🌠": 1398,
      "🌡": 1399,
      "🌤": 1400,
      "🌥": 1401,
      "🌦": 1402,
      "🌧": 1403,
      "🌨": 1404,
      "🌩": 1405,
      "🌪": 1406,
      "🌫": 1407,
      "🌬": 1408,
      "🌭": 1409,
      "🌮": 1410,
      "🌯": 1411,
      "🌰": 1412,
      "🌱": 1413,
      "🌲": 1414,
      "🌳": 1415,
      "🌴": 1416,
      "🌵": 1417,
      "🌶": 1418,
      "🌷": 1419,
      "🌸": 1420,
      "🌹": 1421,
      "🌺": 1422,
      "🌻": 1423,
      "🌼": 1424,
      "🌽": 1425,
      "🌾": 1426,
      "🌿": 1427,
      "🍀": 1428,
      "🍁": 1429,
      "🍂": 1430,
      "🍃": 1431,
      "🍄": 1432,
      "🍅": 1433,
      "🍆": 1434,
      "🍇": 1435,
      "🍈": 1436,
      "🍉": 1437,
      "🍊": 1438,
      "🍋": 1439,
      "🍌": 1440,
      "🍍": 1441,
      "🍎": 1442,
      "🍏": 1443,
      "🍐": 1444,
      "🍑": 1445,
      "🍒": 1446,
      "🍓": 1447,
      "🍔": 1448,
      "🍕": 1449,
      "🍖": 1450,
      "🍗": 1451,
      "🍘": 1452,
      "🍙": 1453,
      "🍚": 1454,
      "🍛": 1455,
      "🍜": 1456,
      "🍝": 1457,
      "🍞": 1458,
      "🍟": 1459,
      "🍠": 1460,
      "🍡": 1461,
      "🍢": 1462,
      "🍣": 1463,
      "🍤": 1464,
      "🍥": 1465,
      "🍦": 1466,
      "🍧": 1467,
      "🍨": 1468,
      "🍩": 1469,
      "🍪": 1470,
      "🍫": 1471,
      "🍬": 1472,
      "🍭": 1473,
      "🍮": 1474,
      "🍯": 1475,
      "🍰": 1476,
      "🍱": 1477,
      "🍲": 1478,
      "🍳": 1479,
      "🍴": 1480,
      "🍵": 1481,
      "🍶": 1482,
      "🍷": 1483,
      "🍸": 1484,
      "🍹": 1485,
      "🍺": 1486,
      "🍻": 1487,
      "🍼": 1488,
      "🍽": 1489,
      "🍾": 1490,
      "🍿": 1491,
      "🎀": 1492,
      "🎁": 1493,
      "🎂": 1494,
      "🎃": 1495,
      "🎄": 1496,
      "🎅": 1497,
      "🎆": 1498,
      "🎇": 1499,
      "🎈": 1500,
      "🎉": 1501,
      "🎊": 1502,
      "🎋": 1503,
      "🎌": 1504,
      "🎍": 1505,
      "🎎": 1506,
      "🎏": 1507,
      "🎐": 1508,
      "🎒": 1509,
      "🎓": 1510,
      "🎖": 1511,
      "🎗": 1512,
      "🎙": 1513,
      "🎞": 1514,
      "🎟": 1515,
      "🎠": 1516,
      "🎡": 1517,
      "🎢": 1518,
      "🎣": 1519,
      "🎤": 1520,
      "🎥": 1521,
      "🎦": 1522,
      "🎧": 1523,
      "🎨": 1524,
      "🎩": 1525,
      "🎪": 1526,
      "🎫": 1527,
      "🎬": 1528,
      "🎭": 1529,
      "🎮": 1530,
      "🎯": 1531,
      "🎰": 1532,
      "🎱": 1533,
      "🎲": 1534,
      "🎳": 1535,
      "🎴": 1536,
      "🎵": 1537,
      "🎶": 1538,
      "🎷": 1539,
      "🎸": 1540,
      "🎹": 1541,
      "🎺": 1542,
      "🎻": 1543,
      "🎼": 1544,
      "🎽": 1545,
      "🎾": 1546,
      "🎿": 1547,
      "🏀": 1548,
      "🏁": 1549,
      "🏂": 1550,
      "🏃": 1551,
      "🏄": 1552,
      "🏅": 1553,
      "🏆": 1554,
      "🏇": 1555,
      "🏈": 1556,
      "🏉": 1557,
      "🏊": 1558,
      "🏋": 1559,
      "🏌": 1560,
      "🏍": 1561,
      "🏎": 1562,
      "🏐": 1563,
      "🏑": 1564,
      "🏒": 1565,
      "🏓": 1566,
      "🏔": 1567,
      "🏕": 1568,
      "🏖": 1569,
      "🏗": 1570,
      "🏘": 1571,
      "🏙": 1572,
      "🏚": 1573,
      "🏜": 1574,
      "🏝": 1575,
      "🏞": 1576,
      "🏟": 1577,
      "🏠": 1578,
      "🏡": 1579,
      "🏢": 1580,
      "🏣": 1581,
      "🏤": 1582,
      "🏥": 1583,
      "🏨": 1584,
      "🏩": 1585,
      "🏪": 1586,
      "🏫": 1587,
      "🏬": 1588,
      "🏰": 1589,
      "🏵": 1590,
      "🏷": 1591,
      "🏸": 1592,
      "🏹": 1593,
      "🏺": 1594,
      "🏻": 1595,
      "🏼": 1596,
      "🏽": 1597,
      "🏾": 1598,
      "🏿": 1599,
      "🐀": 1600,
      "🐁": 1601,
      "🐂": 1602,
      "🐃": 1603,
      "🐄": 1604,
      "🐅": 1605,
      "🐆": 1606,
      "🐇": 1607,
      "🐈": 1608,
      "🐉": 1609,
      "🐊": 1610,
      "🐋": 1611,
      "🐌": 1612,
      "🐍": 1613,
      "🐎": 1614,
      "🐏": 1615,
      "🐐": 1616,
      "🐑": 1617,
      "🐒": 1618,
      "🐓": 1619,
      "🐔": 1620,
      "🐕": 1621,
      "🐖": 1622,
      "🐗": 1623,
      "🐘": 1624,
      "🐙": 1625,
      "🐚": 1626,
      "🐛": 1627,
      "🐜": 1628,
      "🐝": 1629,
      "🐞": 1630,
      "🐟": 1631,
      "🐠": 1632,
      "🐡": 1633,
      "🐢": 1634,
      "🐣": 1635,
      "🐤": 1636,
      "🐥": 1637,
      "🐦": 1638,
      "🐧": 1639,
      "🐨": 1640,
      "🐩": 1641,
      "🐬": 1642,
      "🐭": 1643,
      "🐮": 1644,
      "🐯": 1645,
      "🐰": 1646,
      "🐱": 1647,
      "🐲": 1648,
      "🐳": 1649,
      "🐴": 1650,
      "🐵": 1651,
      "🐶": 1652,
      "🐷": 1653,
      "🐸": 1654,
      "🐹": 1655,
      "🐺": 1656,
      "🐻": 1657,
      "🐼": 1658,
      "🐽": 1659,
      "🐾": 1660,
      "🐿": 1661,
      "👀": 1662,
      "👁": 1663,
      "👂": 1664,
      "👃": 1665,
      "👄": 1666,
      "👅": 1667,
      "👆": 1668,
      "👇": 1669,
      "👈": 1670,
      "👉": 1671,
      "👊": 1672,
      "👋": 1673,
      "👌": 1674,
      "👍": 1675,
      "👎": 1676,
      "👏": 1677,
      "👐": 1678,
      "👑": 1679,
      "👒": 1680,
      "👓": 1681,
      "👔": 1682,
      "👕": 1683,
      "👖": 1684,
      "👗": 1685,
      "👘": 1686,
      "👙": 1687,
      "👚": 1688,
      "👛": 1689,
      "👜": 1690,
      "👞": 1691,
      "👟": 1692,
      "👠": 1693,
      "👡": 1694,
      "👢": 1695,
      "👣": 1696,
      "👤": 1697,
      "👥": 1698,
      "👦": 1699,
      "👧": 1700,
      "👨": 1701,
      "👩": 1702,
      "👪": 1703,
      "👫": 1704,
      "👬": 1705,
      "👭": 1706,
      "👮": 1707,
      "👯": 1708,
      "👰": 1709,
      "👱": 1710,
      "👲": 1711,
      "👳": 1712,
      "👴": 1713,
      "👵": 1714,
      "👶": 1715,
      "👷": 1716,
      "👸": 1717,
      "👹": 1718,
      "👺": 1719,
      "👻": 1720,
      "👼": 1721,
      "👽": 1722,
      "👾": 1723,
      "👿": 1724,
      "💀": 1725,
      "💁": 1726,
      "💂": 1727,
      "💃": 1728,
      "💄": 1729,
      "💅": 1730,
      "💆": 1731,
      "💇": 1732,
      "💈": 1733,
      "💉": 1734,
      "💊": 1735,
      "💋": 1736,
      "💌": 1737,
      "💍": 1738,
      "💎": 1739,
      "💏": 1740,
      "💐": 1741,
      "💑": 1742,
      "💒": 1743,
      "💓": 1744,
      "💔": 1745,
      "💕": 1746,
      "💖": 1747,
      "💗": 1748,
      "💘": 1749,
      "💙": 1750,
      "💚": 1751,
      "💛": 1752,
      "💜": 1753,
      "💝": 1754,
      "💞": 1755,
      "💟": 1756,
      "💠": 1757,
      "💡": 1758,
      "💢": 1759,
      "💣": 1760,
      "💤": 1761,
      "💥": 1762,
      "💦": 1763,
      "💧": 1764,
      "💨": 1765,
      "💩": 1766,
      "💪": 1767,
      "💫": 1768,
      "💬": 1769,
      "💭": 1770,
      "💮": 1771,
      "💯": 1772,
      "💰": 1773,
      "💱": 1774,
      "💲": 1775,
      "💳": 1776,
      "💴": 1777,
      "💵": 1778,
      "💶": 1779,
      "💷": 1780,
      "💸": 1781,
      "💹": 1782,
      "💻": 1783,
      "💼": 1784,
      "💾": 1785,
      "💿": 1786,
      "📀": 1787,
      "📃": 1788,
      "📄": 1789,
      "📅": 1790,
      "📆": 1791,
      "📈": 1792,
      "📉": 1793,
      "📊": 1794,
      "📋": 1795,
      "📌": 1796,
      "📍": 1797,
      "📏": 1798,
      "📐": 1799,
      "📑": 1800,
      "📒": 1801,
      "📓": 1802,
      "📔": 1803,
      "📕": 1804,
      "📖": 1805,
      "📗": 1806,
      "📘": 1807,
      "📙": 1808,
      "📚": 1809,
      "📛": 1810,
      "📜": 1811,
      "📝": 1812,
      "📞": 1813,
      "📟": 1814,
      "📠": 1815,
      "📡": 1816,
      "📢": 1817,
      "📣": 1818,
      "📦": 1819,
      "📧": 1820,
      "📨": 1821,
      "📩": 1822,
      "📪": 1823,
      "📬": 1824,
      "📮": 1825,
      "📯": 1826,
      "📰": 1827,
      "📱": 1828,
      "📲": 1829,
      "📳": 1830,
      "📶": 1831,
      "📷": 1832,
      "📸": 1833,
      "📹": 1834,
      "📺": 1835,
      "📻": 1836,
      "📽": 1837,
      "📿": 1838,
      "🔁": 1839,
      "🔃": 1840,
      "🔄": 1841,
      "🔅": 1842,
      "🔆": 1843,
      "🔇": 1844,
      "🔈": 1845,
      "🔉": 1846,
      "🔊": 1847,
      "🔋": 1848,
      "🔌": 1849,
      "🔍": 1850,
      "🔎": 1851,
      "🔐": 1852,
      "🔑": 1853,
      "🔒": 1854,
      "🔔": 1855,
      "🔖": 1856,
      "🔗": 1857,
      "🔘": 1858,
      "🔙": 1859,
      "🔛": 1860,
      "🔜": 1861,
      "🔝": 1862,
      "🔞": 1863,
      "🔢": 1864,
      "🔥": 1865,
      "🔦": 1866,
      "🔧": 1867,
      "🔨": 1868,
      "🔩": 1869,
      "🔪": 1870,
      "🔫": 1871,
      "🔬": 1872,
      "🔭": 1873,
      "🔮": 1874,
      "🔰": 1875,
      "🔱": 1876,
      "🔲": 1877,
      "🔴": 1878,
      "🔵": 1879,
      "🔶": 1880,
      "🔷": 1881,
      "🔸": 1882,
      "🔹": 1883,
      "🔺": 1884,
      "🔻": 1885,
      "🔽": 1886,
      "🕆": 1887,
      "🕇": 1888,
      "🕉": 1889,
      "🕊": 1890,
      "🕋": 1891,
      "🕌": 1892,
      "🕍": 1893,
      "🕑": 1894,
      "🕒": 1895,
      "🕓": 1896,
      "🕕": 1897,
      "🕖": 1898,
      "🕗": 1899,
      "🕚": 1900,
      "🕛": 1901,
      "🕜": 1902,
      "🕞": 1903,
      "🕥": 1904,
      "🕦": 1905,
      "🕭": 1906,
      "🕯": 1907,
      "🕰": 1908,
      "🕴": 1909,
      "🕵": 1910,
      "🕶": 1911,
      "🕷": 1912,
      "🕸": 1913,
      "🕹": 1914,
      "🕺": 1915,
      "🖋": 1916,
      "🖌": 1917,
      "🖍": 1918,
      "🖐": 1919,
      "🖑": 1920,
      "🖒": 1921,
      "🖓": 1922,
      "🖕": 1923,
      "🖖": 1924,
      "🖤": 1925,
      "🖥": 1926,
      "🖨": 1927,
      "🖱": 1928,
      "🖼": 1929,
      "🗂": 1930,
      "🗃": 1931,
      "🗄": 1932,
      "🗑": 1933,
      "🗓": 1934,
      "🗗": 1935,
      "🗙": 1936,
      "🗝": 1937,
      "🗞": 1938,
      "🗣": 1939,
      "🗯": 1940,
      "🗳": 1941,
      "🗸": 1942,
      "🗺": 1943,
      "🗻": 1944,
      "🗼": 1945,
      "🗽": 1946,
      "🗾": 1947,
      "🗿": 1948,
      "😀": 1949,
      "😁": 1950,
      "😂": 1951,
      "😃": 1952,
      "😄": 1953,
      "😅": 1954,
      "😆": 1955,
      "😇": 1956,
      "😈": 1957,
      "😉": 1958,
      "😊": 1959,
      "😋": 1960,
      "😌": 1961,
      "😍": 1962,
      "😎": 1963,
      "😏": 1964,
      "😐": 1965,
      "😑": 1966,
      "😒": 1967,
      "😓": 1968,
      "😔": 1969,
      "😕": 1970,
      "😖": 1971,
      "😗": 1972,
      "😘": 1973,
      "😙": 1974,
      "😚": 1975,
      "😛": 1976,
      "😜": 1977,
      "😝": 1978,
      "😞": 1979,
      "😟": 1980,
      "😠": 1981,
      "😡": 1982,
      "😢": 1983,
      "😣": 1984,
      "😤": 1985,
      "😥": 1986,
      "😦": 1987,
      "😧": 1988,
      "😨": 1989,
      "😩": 1990,
      "😪": 1991,
      "😫": 1992,
      "😬": 1993,
      "😭": 1994,
      "😮": 1995,
      "😯": 1996,
      "😰": 1997,
      "😱": 1998,
      "😲": 1999,
      "😳": 2000,
      "😴": 2001,
      "😵": 2002,
      "😶": 2003,
      "😷": 2004,
      "😸": 2005,
      "😹": 2006,
      "😺": 2007,
      "😻": 2008,
      "😼": 2009,
      "😽": 2010,
      "😾": 2011,
      "😿": 2012,
      "🙀": 2013,
      "🙁": 2014,
      "🙂": 2015,
      "🙃": 2016,
      "🙄": 2017,
      "🙅": 2018,
      "🙆": 2019,
      "🙇": 2020,
      "🙈": 2021,
      "🙉": 2022,
      "🙊": 2023,
      "🙋": 2024,
      "🙌": 2025,
      "🙍": 2026,
      "🙎": 2027,
      "🙏": 2028,
      "🚀": 2029,
      "🚁": 2030,
      "🚂": 2031,
      "🚃": 2032,
      "🚄": 2033,
      "🚅": 2034,
      "🚊": 2035,
      "🚋": 2036,
      "🚌": 2037,
      "🚍": 2038,
      "🚎": 2039,
      "🚏": 2040,
      "🚐": 2041,
      "🚑": 2042,
      "🚒": 2043,
      "🚓": 2044,
      "🚔": 2045,
      "🚕": 2046,
      "🚗": 2047,
      "🚘": 2048,
      "🚙": 2049,
      "🚚": 2050,
      "🚛": 2051,
      "🚜": 2052,
      "🚞": 2053,
      "🚡": 2054,
      "🚢": 2055,
      "🚣": 2056,
      "🚤": 2057,
      "🚦": 2058,
      "🚧": 2059,
      "🚨": 2060,
      "🚩": 2061,
      "🚪": 2062,
      "🚫": 2063,
      "🚬": 2064,
      "🚭": 2065,
      "🚮": 2066,
      "🚯": 2067,
      "🚰": 2068,
      "🚲": 2069,
      "🚴": 2070,
      "🚵": 2071,
      "🚶": 2072,
      "🚸": 2073,
      "🚺": 2074,
      "🚽": 2075,
      "🚾": 2076,
      "🚿": 2077,
      "🛀": 2078,
      "🛁": 2079,
      "🛃": 2080,
      "🛋": 2081,
      "🛌": 2082,
      "🛍": 2083,
      "🛏": 2084,
      "🛐": 2085,
      "🛑": 2086,
      "🛒": 2087,
      "🛕": 2088,
      "🛠": 2089,
      "🛣": 2090,
      "🛥": 2091,
      "🛩": 2092,
      "🛫": 2093,
      "🛬": 2094,
      "🛰": 2095,
      "🛳": 2096,
      "🛴": 2097,
      "🛵": 2098,
      "🛶": 2099,
      "🛷": 2100,
      "🛺": 2101,
      "🟠": 2102,
      "🟢": 2103,
      "🟣": 2104,
      "🟥": 2105,
      "🟦": 2106,
      "🟩": 2107,
      "🡆": 2108,
      "🤍": 2109,
      "🤎": 2110,
      "🤏": 2111,
      "🤐": 2112,
      "🤑": 2113,
      "🤒": 2114,
      "🤓": 2115,
      "🤔": 2116,
      "🤕": 2117,
      "🤖": 2118,
      "🤗": 2119,
      "🤘": 2120,
      "🤙": 2121,
      "🤚": 2122,
      "🤛": 2123,
      "🤜": 2124,
      "🤝": 2125,
      "🤞": 2126,
      "🤟": 2127,
      "🤠": 2128,
      "🤡": 2129,
      "🤢": 2130,
      "🤣": 2131,
      "🤤": 2132,
      "🤥": 2133,
      "🤦": 2134,
      "🤧": 2135,
      "🤨": 2136,
      "🤩": 2137,
      "🤪": 2138,
      "🤫": 2139,
      "🤬": 2140,
      "🤭": 2141,
      "🤮": 2142,
      "🤯": 2143,
      "🤰": 2144,
      "🤱": 2145,
      "🤲": 2146,
      "🤳": 2147,
      "🤴": 2148,
      "🤵": 2149,
      "🤶": 2150,
      "🤷": 2151,
      "🤸": 2152,
      "🤹": 2153,
      "🤺": 2154,
      "🤽": 2155,
      "🤾": 2156,
      "🥀": 2157,
      "🥁": 2158,
      "🥂": 2159,
      "🥃": 2160,
      "🥄": 2161,
      "🥅": 2162,
      "🥇": 2163,
      "🥈": 2164,
      "🥉": 2165,
      "🥊": 2166,
      "🥋": 2167,
      "🥐": 2168,
      "🥑": 2169,
      "🥒": 2170,
      "🥓": 2171,
      "🥔": 2172,
      "🥕": 2173,
      "🥖": 2174,
      "🥗": 2175,
      "🥘": 2176,
      "🥚": 2177,
      "🥛": 2178,
      "🥜": 2179,
      "🥝": 2180,
      "🥞": 2181,
      "🥟": 2182,
      "🥠": 2183,
      "🥡": 2184,
      "🥢": 2185,
      "🥣": 2186,
      "🥤": 2187,
      "🥥": 2188,
      "🥦": 2189,
      "🥧": 2190,
      "🥩": 2191,
      "🥪": 2192,
      "🥫": 2193,
      "🥬": 2194,
      "🥭": 2195,
      "🥮": 2196,
      "🥯": 2197,
      "🥰": 2198,
      "🥱": 2199,
      "🥲": 2200,
      "🥳": 2201,
      "🥴": 2202,
      "🥵": 2203,
      "🥶": 2204,
      "🥺": 2205,
      "🥼": 2206,
      "🥿": 2207,
      "🦀": 2208,
      "🦁": 2209,
      "🦂": 2210,
      "🦃": 2211,
      "🦄": 2212,
      "🦅": 2213,
      "🦆": 2214,
      "🦇": 2215,
      "🦈": 2216,
      "🦉": 2217,
      "🦊": 2218,
      "🦋": 2219,
      "🦌": 2220,
      "🦍": 2221,
      "🦎": 2222,
      "🦏": 2223,
      "🦐": 2224,
      "🦒": 2225,
      "🦓": 2226,
      "🦔": 2227,
      "🦕": 2228,
      "🦖": 2229,
      "🦗": 2230,
      "🦙": 2231,
      "🦚": 2232,
      "🦜": 2233,
      "🦝": 2234,
      "🦞": 2235,
      "🦟": 2236,
      "🦠": 2237,
      "🦡": 2238,
      "🦢": 2239,
      "🦥": 2240,
      "🦩": 2241,
      "🦫": 2242,
      "🦮": 2243,
      "🦯": 2244,
      "🦰": 2245,
      "🦱": 2246,
      "🦲": 2247,
      "🦳": 2248,
      "🦴": 2249,
      "🦵": 2250,
      "🦶": 2251,
      "🦸": 2252,
      "🦻": 2253,
      "🦼": 2254,
      "🦽": 2255,
      "🧀": 2256,
      "🧁": 2257,
      "🧈": 2258,
      "🧍": 2259,
      "🧏": 2260,
      "🧐": 2261,
      "🧑": 2262,
      "🧒": 2263,
      "🧔": 2264,
      "🧕": 2265,
      "🧖": 2266,
      "🧘": 2267,
      "🧙": 2268,
      "🧚": 2269,
      "🧛": 2270,
      "🧝": 2271,
      "🧠": 2272,
      "🧡": 2273,
      "🧢": 2274,
      "🧣": 2275,
      "🧤": 2276,
      "🧦": 2277,
      "🧨": 2278,
      "🧩": 2279,
      "🧪": 2280,
      "🧫": 2281,
      "🧬": 2282,
      "🧭": 2283,
      "🧱": 2284,
      "🧲": 2285,
      "🧳": 2286,
      "🧴": 2287,
      "🧵": 2288,
      "🧶": 2289,
      "🧸": 2290,
      "🧹": 2291,
      "🧺": 2292,
      "🧻": 2293,
      "🧾": 2294,
      "🧿": 2295,
      "🩳": 2296,
      "🩸": 2297,
      "🩺": 2298,
      "🪨": 2299,
      "🪳": 2300,
      "🪴": 2301,
      "🫀": 2302,
      "er": 2303,
      "en": 2304,
      "▁s": 2305,
      "ar": 2306,
      "an": 2307,
      "et": 2308,
      "in": 2309,
      "▁d": 2310,
      "▁f": 2311,
      "▁m": 2312,
      "at": 2313,
      "▁o": 2314,
      "ll": 2315,
      "▁h": 2316,
      "ör": 2317,
      "▁v": 2318,
      "är": 2319,
      "▁t": 2320,
      "▁b": 2321,
      "st": 2322,
      "ch": 2323,
      "▁k": 2324,
      "om": 2325,
      "▁p": 2326,
      "▁och": 2327,
      "ig": 2328,
      "att": 2329,
      "or": 2330,
      "ag": 2331,
      "de": 2332,
      "▁att": 2333,
      "▁i": 2334,
      "ing": 2335,
      "on": 2336,
      "▁för": 2337,
      "▁a": 2338,
      "ed": 2339,
      "▁l": 2340,
      "ka": 2341,
      "▁g": 2342,
      "▁n": 2343,
      "tt": 2344,
      "än": 2345,
      "ill": 2346,
      "▁en": 2347,
      "▁in": 2348,
      "na": 2349,
      "ra": 2350,
      "▁u": 2351,
      "▁är": 2352,
      "el": 2353,
      "▁som": 2354,
      "▁på": 2355,
      "kt": 2356,
      "▁det": 2357,
      "is": 2358,
      "ck": 2359,
      "re": 2360,
      "▁med": 2361,
      "te": 2362,
      "▁av": 2363,
      "▁j": 2364,
      "▁till": 2365,
      "▁S": 2366,
      "al": 2367,
      "pp": 2368,
      "ning": 2369,
      "▁D": 2370,
      "år": 2371,
      "ån": 2372,
      "am": 2373,
      "id": 2374,
      "▁e": 2375,
      "ss": 2376,
      "ter": 2377,
      "▁st": 2378,
      "lig": 2379,
      "il": 2380,
      "un": 2381,
      "der": 2382,
      "it": 2383,
      "and": 2384,
      "ro": 2385,
      "▁var": 2386,
      "▁har": 2387,
      "ver": 2388,
      "▁de": 2389,
      "▁om": 2390,
      "ett": 2391,
      "▁r": 2392,
      "sk": 2393,
      "▁M": 2394,
      "▁jag": 2395,
      "ol": 2396,
      "as": 2397,
      "äl": 2398,
      "iv": 2399,
      "▁inte": 2400,
      "▁den": 2401,
      "ade": 2402,
      "▁ut": 2403,
      "ad": 2404,
      "ion": 2405,
      "▁sk": 2406,
      "ätt": 2407,
      "▁så": 2408,
      "em": 2409,
      "▁V": 2410,
      "▁H": 2411,
      "ur": 2412,
      "are": 2413,
      "▁fr": 2414,
      "▁an": 2415,
      "▁ett": 2416,
      "▁A": 2417,
      "▁kan": 2418,
      "li": 2419,
      "▁F": 2420,
      "ot": 2421,
      "ller": 2422,
      "▁vi": 2423,
      "åg": 2424,
      "ik": 2425,
      "äg": 2426,
      "omm": 2427,
      "ut": 2428,
      "ande": 2429,
      "▁du": 2430,
      "▁B": 2431,
      "▁1": 2432,
      "▁E": 2433,
      "▁be": 2434,
      "ens": 2435,
      "het": 2436,
      "▁T": 2437,
      "ta": 2438,
      "för": 2439,
      "▁2": 2440,
      "▁J": 2441,
      "▁all": 2442,
      "▁I": 2443,
      "▁upp": 2444,
      "▁ö": 2445,
      "ång": 2446,
      "▁N": 2447,
      "▁L": 2448,
      "▁K": 2449,
      "itt": 2450,
      "sta": 2451,
      "da": 2452,
      "▁P": 2453,
      "▁ska": 2454,
      "ent": 2455,
      "ort": 2456,
      "▁Det": 2457,
      "▁komm": 2458,
      "▁re": 2459,
      "ans": 2460,
      "▁man": 2461,
      "äll": 2462,
      "us": 2463,
      "▁från": 2464,
      "ns": 2465,
      "äm": 2466,
      "▁un": 2467,
      "um": 2468,
      "▁men": 2469,
      "es": 2470,
      "▁sp": 2471,
      "fter": 2472,
      "yck": 2473,
      "la": 2474,
      "ri": 2475,
      "og": 2476,
      "▁sam": 2477,
      "ation": 2478,
      "▁eller": 2479,
      "art": 2480,
      "ligt": 2481,
      "igt": 2482,
      "▁O": 2483,
      "ell": 2484,
      "▁G": 2485,
      "le": 2486,
      "▁när": 2487,
      "▁fin": 2488,
      "den": 2489,
      "▁någ": 2490,
      "ak": 2491,
      "▁min": 2492,
      "ul": 2493,
      "▁R": 2494,
      "yg": 2495,
      "▁tr": 2496,
      "sl": 2497,
      "bet": 2498,
      "ram": 2499,
      "var": 2500,
      "▁sig": 2501,
      "äng": 2502,
      "isk": 2503,
      "ster": 2504,
      "▁pro": 2505,
      "▁bar": 2506,
      "änd": 2507,
      "sp": 2508,
      "▁där": 2509,
      "ats": 2510,
      "ma": 2511,
      "ull": 2512,
      "bb": 2513,
      "all": 2514,
      "▁hel": 2515,
      "▁över": 2516,
      "arna": 2517,
      "▁C": 2518,
      "ff": 2519,
      "äv": 2520,
      "▁här": 2521,
      "jäl": 2522,
      "era": 2523,
      "ju": 2524,
      "▁år": 2525,
      "▁Jag": 2526,
      "▁å": 2527,
      "dag": 2528,
      "▁under": 2529,
      "erna": 2530,
      "ft": 2531,
      "▁gör": 2532,
      "ers": 2533,
      "ste": 2534,
      "▁li": 2535,
      "▁ny": 2536,
      "▁bli": 2537,
      "▁kon": 2538,
      "und": 2539,
      "▁efter": 2540,
      "så": 2541,
      "arbet": 2542,
      "▁kommer": 2543,
      "▁c": 2544,
      "sa": 2545,
      "ok": 2546,
      "▁bl": 2547,
      "▁gr": 2548,
      "▁vara": 2549,
      "os": 2550,
      "▁ha": 2551,
      "del": 2552,
      "els": 2553,
      "ger": 2554,
      "ne": 2555,
      "ekt": 2556,
      "▁fl": 2557,
      "▁U": 2558,
      "▁han": 2559,
      "▁tid": 2560,
      "▁må": 2561,
      "liga": 2562,
      "▁Vi": 2563,
      "ningen": 2564,
      "od": 2565,
      "▁finns": 2566,
      "▁få": 2567,
      "ud": 2568,
      "▁kr": 2569,
      "äk": 2570,
      "ick": 2571,
      "orm": 2572,
      "edan": 2573,
      "▁sin": 2574,
      "änn": 2575,
      "▁väl": 2576,
      "ycket": 2577,
      "ist": 2578,
      "sam": 2579,
      "▁mer": 2580,
      "ling": 2581,
      "cka": 2582,
      "▁allt": 2583,
      "ök": 2584,
      "ska": 2585,
      "▁vill": 2586,
      "▁sl": 2587,
      "▁alla": 2588,
      "iska": 2589,
      "▁nu": 2590,
      "opp": 2591,
      "ock": 2592,
      "▁För": 2593,
      "öj": 2594,
      "▁ju": 2595,
      "pa": 2596,
      "ru": 2597,
      "▁dag": 2598,
      "▁se": 2599,
      "andra": 2600,
      "▁ock": 2601,
      "▁del": 2602,
      "▁då": 2603,
      "ilj": 2604,
      "lar": 2605,
      "iga": 2606,
      "▁kun": 2607,
      "im": 2608,
      "▁också": 2609,
      "▁sv": 2610,
      "▁vid": 2611,
      "▁fram": 2612,
      "▁får": 2613,
      "▁mig": 2614,
      "▁beh": 2615,
      "akt": 2616,
      "yr": 2617,
      "▁pl": 2618,
      "▁mot": 2619,
      "▁mycket": 2620,
      "ikt": 2621,
      "ark": 2622,
      "▁St": 2623,
      "enom": 2624,
      "eck": 2625,
      "ningar": 2626,
      "▁bra": 2627,
      "▁ta": 2628,
      "▁En": 2629,
      "▁3": 2630,
      "▁tv": 2631,
      "ost": 2632,
      "ber": 2633,
      "▁äv": 2634,
      "åll": 2635,
      "dr": 2636,
      "▁arbet": 2637,
      "▁ver": 2638,
      "gen": 2639,
      "ga": 2640,
      "▁or": 2641,
      "ön": 2642,
      "▁pr": 2643,
      "▁vis": 2644,
      "bl": 2645,
      "▁andra": 2646,
      "ånga": 2647,
      "▁bara": 2648,
      "▁även": 2649,
      "▁lite": 2650,
      "ant": 2651,
      "▁ex": 2652,
      "est": 2653,
      "▁dig": 2654,
      "ligen": 2655,
      "äs": 2656,
      "öd": 2657,
      "ov": 2658,
      "▁hur": 2659,
      "öm": 2660,
      "▁din": 2661,
      "▁hon": 2662,
      "ce": 2663,
      "ingen": 2664,
      "ord": 2665,
      "▁bör": 2666,
      "▁än": 2667,
      "▁hö": 2668,
      "per": 2669,
      "ir": 2670,
      "kar": 2671,
      "ast": 2672,
      "▁ann": 2673,
      "erson": 2674,
      "ulle": 2675,
      "▁In": 2676,
      "tal": 2677,
      "▁Men": 2678,
      "rå": 2679,
      "▁anv": 2680,
      "ställ": 2681,
      "▁säg": 2682,
      "äst": 2683,
      "eg": 2684,
      "▁vil": 2685,
      "▁De": 2686,
      "yn": 2687,
      "▁hade": 2688,
      "▁vad": 2689,
      "org": 2690,
      "▁kv": 2691,
      "▁vär": 2692,
      "ket": 2693,
      "itet": 2694,
      "bil": 2695,
      "▁vår": 2696,
      "▁stor": 2697,
      "▁skulle": 2698,
      "▁kl": 2699,
      "▁bil": 2700,
      "ek": 2701,
      "▁hem": 2702,
      "▁Den": 2703,
      "ci": 2704,
      "vis": 2705,
      "▁blir": 2706,
      "jälv": 2707,
      "▁er": 2708,
      "aren": 2709,
      "▁sm": 2710,
      "▁genom": 2711,
      "ja": 2712,
      "ott": 2713,
      "av": 2714,
      "ass": 2715,
      "▁bet": 2716,
      "▁kom": 2717,
      "op": 2718,
      "ser": 2719,
      "lev": 2720,
      "▁utan": 2721,
      "je": 2722,
      "▁An": 2723,
      "▁br": 2724,
      "▁spel": 2725,
      "ygg": 2726,
      "ress": 2727,
      "du": 2728,
      "nad": 2729,
      "oll": 2730,
      "ack": 2731,
      "▁förs": 2732,
      "▁samt": 2733,
      "▁många": 2734,
      "yd": 2735,
      "▁ser": 2736,
      "▁person": 2737,
      "öl": 2738,
      "nings": 2739,
      "▁själv": 2740,
      "riv": 2741,
      "äd": 2742,
      "sätt": 2743,
      "ägg": 2744,
      "▁någon": 2745,
      "ier": 2746,
      "pl": 2747,
      "iskt": 2748,
      "▁göra": 2749,
      "kl": 2750,
      "▁dess": 2751,
      "▁sen": 2752,
      "▁detta": 2753,
      "gi": 2754,
      "▁verk": 2755,
      "▁ber": 2756,
      "som": 2757,
      "se": 2758,
      "inn": 2759,
      "▁något": 2760,
      "vär": 2761,
      "▁4": 2762,
      "ende": 2763,
      "▁kän": 2764,
      "ighet": 2765,
      "▁5": 2766,
      "man": 2767,
      "ef": 2768,
      "ken": 2769,
      "▁sedan": 2770,
      "ic": 2771,
      "ets": 2772,
      "▁oss": 2773,
      "över": 2774,
      "lika": 2775,
      "fr": 2776,
      "▁går": 2777,
      "form": 2778,
      "▁mat": 2779,
      "▁sätt": 2780,
      "ring": 2781,
      "▁hand": 2782,
      "▁två": 2783,
      "▁barn": 2784,
      "åt": 2785,
      "▁W": 2786,
      "etag": 2787,
      "▁olika": 2788,
      "verig": 2789,
      "▁ig": 2790,
      "▁rätt": 2791,
      "ytt": 2792,
      "alt": 2793,
      "▁säger": 2794,
      "sb": 2795,
      "öp": 2796,
      "sm": 2797,
      "ult": 2798,
      "lighet": 2799,
      "▁gång": 2800,
      "sen": 2801,
      "ästa": 2802,
      "▁dem": 2803,
      "ym": 2804,
      "ia": 2805,
      "enska": 2806,
      "ät": 2807,
      "▁helt": 2808,
      "nar": 2809,
      "▁hjäl": 2810,
      "▁inne": 2811,
      "ål": 2812,
      "▁jo": 2813,
      "äck": 2814,
      "gr": 2815,
      "str": 2816,
      "ering": 2817,
      "▁hitt": 2818,
      "mar": 2819,
      "erade": 2820,
      "▁al": 2821,
      "sson": 2822,
      "▁Sverig": 2823,
      "▁ing": 2824,
      "▁gå": 2825,
      "▁gj": 2826,
      "▁vet": 2827,
      "▁fick": 2828,
      "ala": 2829,
      "▁Om": 2830,
      "▁hög": 2831,
      "ug": 2832,
      "ellan": 2833,
      "des": 2834,
      "eras": 2835,
      "änder": 2836,
      "▁läng": 2837,
      "▁nya": 2838,
      "upp": 2839,
      "▁lag": 2840,
      "▁ro": 2841,
      "▁inom": 2842,
      "▁Sk": 2843,
      "▁fort": 2844,
      "▁ra": 2845,
      "▁möj": 2846,
      "▁bå": 2847,
      "▁int": 2848,
      "det": 2849,
      "veck": 2850,
      "▁börj": 2851,
      "▁hela": 2852,
      "▁ma": 2853,
      "land": 2854,
      "ts": 2855,
      "ie": 2856,
      "▁fun": 2857,
      "▁sitt": 2858,
      "mer": 2859,
      "▁ty": 2860,
      "▁varit": 2861,
      "håll": 2862,
      "▁först": 2863,
      "▁måste": 2864,
      "▁blev": 2865,
      "ske": 2866,
      "▁några": 2867,
      "▁första": 2868,
      "▁Ä": 2869,
      "▁fråg": 2870,
      "▁pre": 2871,
      "nan": 2872,
      "▁0": 2873,
      "▁liv": 2874,
      "▁mellan": 2875,
      "▁ni": 2876,
      "ang": 2877,
      "▁läg": 2878,
      "nas": 2879,
      "va": 2880,
      "▁led": 2881,
      "▁sn": 2882,
      "ativ": 2883,
      "tern": 2884,
      "▁denna": 2885,
      "▁När": 2886,
      "eri": 2887,
      "▁w": 2888,
      "▁vikt": 2889,
      "ote": 2890,
      "åra": 2891,
      "jän": 2892,
      "bar": 2893,
      "ys": 2894,
      "slut": 2895,
      "kon": 2896,
      "▁Du": 2897,
      "▁le": 2898,
      "ella": 2899,
      "▁reg": 2900,
      "jer": 2901,
      "▁slut": 2902,
      "▁el": 2903,
      "ktion": 2904,
      "▁rikt": 2905,
      "▁gl": 2906,
      "pel": 2907,
      "▁företag": 2908,
      "▁Och": 2909,
      "verk": 2910,
      "ida": 2911,
      "▁6": 2912,
      "▁kommun": 2913,
      "ien": 2914,
      "▁åt": 2915,
      "▁tre": 2916,
      "▁sak": 2917,
      "pt": 2918,
      "juk": 2919,
      "hol": 2920,
      "▁annat": 2921,
      "änt": 2922,
      "orna": 2923,
      "▁of": 2924,
      "erar": 2925,
      "▁tän": 2926,
      "ven": 2927,
      "▁Sverige": 2928,
      "kel": 2929,
      "▁stör": 2930,
      "▁kunna": 2931,
      "▁änd": 2932,
      "br": 2933,
      "else": 2934,
      "äker": 2935,
      "slag": 2936,
      "▁jobb": 2937,
      "sten": 2938,
      "▁sina": 2939,
      "ann": 2940,
      "▁akt": 2941,
      "▁vilket": 2942,
      "utom": 2943,
      "ex": 2944,
      "▁eg": 2945,
      "▁mo": 2946,
      "▁di": 2947,
      "samhet": 2948,
      "atur": 2949,
      "▁både": 2950,
      "äller": 2951,
      "▁ans": 2952,
      "skap": 2953,
      "▁Så": 2954,
      "igare": 2955,
      "bju": 2956,
      "äx": 2957,
      "atten": 2958,
      "ika": 2959,
      "orde": 2960,
      "▁milj": 2961,
      "kte": 2962,
      "gång": 2963,
      "▁lång": 2964,
      "ej": 2965,
      "▁vin": 2966,
      "▁Fr": 2967,
      "ända": 2968,
      "dre": 2969,
      "erad": 2970,
      "tid": 2971,
      "▁sy": 2972,
      "jär": 2973,
      "ård": 2974,
      "▁ner": 2975,
      "▁res": 2976,
      "▁bland": 2977,
      "▁Ö": 2978,
      "▁åter": 2979,
      "ip": 2980,
      "▁använd": 2981,
      "lägg": 2982,
      "rat": 2983,
      "digt": 2984,
      "lin": 2985,
      "tro": 2986,
      "▁behöver": 2987,
      "▁lig": 2988,
      "ap": 2989,
      "▁utveck": 2990,
      "▁hos": 2991,
      "ycker": 2992,
      "gar": 2993,
      "▁7": 2994,
      "ös": 2995,
      "bild": 2996,
      "▁väg": 2997,
      "▁ch": 2998,
      "ades": 2999,
      "ött": 3000,
      "unt": 3001,
      "▁kanske": 3002,
      "▁männ": 3003,
      "▁håll": 3004,
      "ank": 3005,
      "▁Nu": 3006,
      "rum": 3007,
      "sh": 3008,
      "▁per": 3009,
      "▁dessa": 3010,
      "men": 3011,
      "▁ly": 3012,
      "▁All": 3013,
      "▁plats": 3014,
      "me": 3015,
      "▁tro": 3016,
      "▁föl": 3017,
      "öv": 3018,
      "eter": 3019,
      "▁våra": 3020,
      "▁innan": 3021,
      "sv": 3022,
      "anska": 3023,
      "▁pol": 3024,
      "led": 3025,
      "▁lär": 3026,
      "▁fär": 3027,
      "▁tar": 3028,
      "oka": 3029,
      "▁flera": 3030,
      "▁På": 3031,
      "komm": 3032,
      "▁Han": 3033,
      "fatt": 3034,
      "▁ord": 3035,
      "formation": 3036,
      "▁mål": 3037,
      "▁Un": 3038,
      "if": 3039,
      "dom": 3040,
      "olag": 3041,
      "min": 3042,
      "▁produ": 3043,
      "olk": 3044,
      "▁van": 3045,
      "holm": 3046,
      "lag": 3047,
      "andet": 3048,
      "stem": 3049,
      "tra": 3050,
      "uv": 3051,
      "äder": 3052,
      "▁idag": 3053,
      "▁samma": 3054,
      "etta": 3055,
      "▁fall": 3056,
      "ub": 3057,
      "tr": 3058,
      "pro": 3059,
      "▁pris": 3060,
      "ker": 3061,
      "▁Här": 3062,
      "▁Å": 3063,
      "cent": 3064,
      "▁ger": 3065,
      "▁8": 3066,
      "änner": 3067,
      "▁sna": 3068,
      "▁9": 3069,
      "▁mitt": 3070,
      "▁alltid": 3071,
      "▁pass": 3072,
      "rekt": 3073,
      "iken": 3074,
      "ld": 3075,
      "▁dom": 3076,
      "▁bästa": 3077,
      "ämn": 3078,
      "åller": 3079,
      "ust": 3080,
      "▁dr": 3081,
      "▁ur": 3082,
      "ars": 3083,
      "ättre": 3084,
      "sök": 3085,
      "par": 3086,
      "skar": 3087,
      "eb": 3088,
      "▁stora": 3089,
      "▁nog": 3090,
      "kter": 3091,
      "▁fakt": 3092,
      "▁bort": 3093,
      "▁väldigt": 3094,
      "▁ställ": 3095,
      "▁Att": 3096,
      "jekt": 3097,
      "▁ditt": 3098,
      "ba": 3099,
      "met": 3100,
      "▁Med": 3101,
      "jt": 3102,
      "blem": 3103,
      "sför": 3104,
      "▁människ": 3105,
      "▁säker": 3106,
      "otell": 3107,
      "▁varje": 3108,
      "▁best": 3109,
      "io": 3110,
      "erat": 3111,
      "▁bättre": 3112,
      "tag": 3113,
      "▁erbju": 3114,
      "▁plan": 3115,
      "he": 3116,
      "▁igen": 3117,
      "ppen": 3118,
      "nader": 3119,
      "mans": 3120,
      "▁hen": 3121,
      "▁lätt": 3122,
      "empel": 3123,
      "▁tycker": 3124,
      "▁Detta": 3125,
      "▁fil": 3126,
      "årt": 3127,
      "lass": 3128,
      "ellt": 3129,
      "rik": 3130,
      "▁lä": 3131,
      "▁fy": 3132,
      "▁mark": 3133,
      "amn": 3134,
      "▁fast": 3135,
      "▁tag": 3136,
      "▁so": 3137,
      "▁snabb": 3138,
      "red": 3139,
      "ung": 3140,
      "ors": 3141,
      "▁gäller": 3142,
      "öt": 3143,
      "▁dat": 3144,
      "hand": 3145,
      "▁par": 3146,
      "▁ligger": 3147,
      "rätt": 3148,
      "▁grund": 3149,
      "eci": 3150,
      "ina": 3151,
      "gram": 3152,
      "▁skol": 3153,
      "▁tidigare": 3154,
      "▁just": 3155,
      "ings": 3156,
      "dan": 3157,
      "▁ofta": 3158,
      "skil": 3159,
      "ektiv": 3160,
      "▁fått": 3161,
      "▁svar": 3162,
      "▁val": 3163,
      "hus": 3164,
      "pr": 3165,
      "▁god": 3166,
      "ationer": 3167,
      "▁ingen": 3168,
      "▁Har": 3169,
      "berg": 3170,
      "med": 3171,
      "▁Ar": 3172,
      "yt": 3173,
      "kr": 3174,
      "▁bok": 3175,
      "edel": 3176,
      "ionen": 3177,
      "▁komma": 3178,
      "äns": 3179,
      "▁form": 3180,
      "rav": 3181,
      "▁skriv": 3182,
      "▁äl": 3183,
      "iss": 3184,
      "uvud": 3185,
      "▁information": 3186,
      "tera": 3187,
      "idan": 3188,
      "raf": 3189,
      "▁intress": 3190,
      "ab": 3191,
      "▁sjuk": 3192,
      "▁fan": 3193,
      "▁kall": 3194,
      "rev": 3195,
      "▁fler": 3196,
      "ockholm": 3197,
      "▁bak": 3198,
      "▁tror": 3199,
      "▁str": 3200,
      "aste": 3201,
      "▁Jo": 3202,
      "▁exempel": 3203,
      "▁riktigt": 3204,
      "▁trän": 3205,
      "takt": 3206,
      "ärk": 3207,
      "fl": 3208,
      "▁hjälp": 3209,
      "kom": 3210,
      "▁ge": 3211,
      "▁veck": 3212,
      "▁enda": 3213,
      "ow": 3214,
      "▁kör": 3215,
      "▁dock": 3216,
      "▁gick": 3217,
      "▁Vad": 3218,
      "▁skall": 3219,
      "▁on": 3220,
      "▁pen": 3221,
      "▁Efter": 3222,
      "▁enligt": 3223,
      "öka": 3224,
      "nade": 3225,
      "▁for": 3226,
      "▁eftersom": 3227,
      "ingar": 3228,
      "sn": 3229,
      "sammans": 3230,
      "▁Läs": 3231,
      "▁förb": 3232,
      "ob": 3233,
      "rott": 3234,
      "rar": 3235,
      "▁konst": 3236,
      "gifter": 3237,
      "ås": 3238,
      "▁Ma": 3239,
      "▁hör": 3240,
      "gör": 3241,
      "far": 3242,
      "▁redan": 3243,
      "▁mest": 3244,
      "kade": 3245,
      "satt": 3246,
      "väg": 3247,
      "▁hopp": 3248,
      "▁runt": 3249,
      "▁ar": 3250,
      "▁annan": 3251,
      "▁enkel": 3252,
      "plats": 3253,
      "åd": 3254,
      "▁Ett": 3255,
      "ester": 3256,
      "▁Hur": 3257,
      "borg": 3258,
      "anden": 3259,
      "amilj": 3260,
      "▁kost": 3261,
      "heten": 3262,
      "app": 3263,
      "talet": 3264,
      "▁koll": 3265,
      "▁Var": 3266,
      "▁svenska": 3267,
      "från": 3268,
      "▁lik": 3269,
      "▁kö": 3270,
      "▁Där": 3271,
      "▁berätt": 3272,
      "las": 3273,
      "nen": 3274,
      "▁bygg": 3275,
      "bo": 3276,
      "dagen": 3277,
      "▁möjlighet": 3278,
      "▁gjort": 3279,
      "▁kunde": 3280,
      "öte": 3281,
      "▁Man": 3282,
      "drig": 3283,
      "ående": 3284,
      "▁problem": 3285,
      "▁fot": 3286,
      "kv": 3287,
      "älj": 3288,
      "äff": 3289,
      "▁verksamhet": 3290,
      "▁Stockholm": 3291,
      "▁dina": 3292,
      "ari": 3293,
      "▁land": 3294,
      "▁hus": 3295,
      "▁Till": 3296,
      "▁läm": 3297,
      "ultat": 3298,
      "uss": 3299,
      "baka": 3300,
      "▁speci": 3301,
      "äkt": 3302,
      "▁deras": 3303,
      "ind": 3304,
      "iker": 3305,
      "skol": 3306,
      "naden": 3307,
      "amp": 3308,
      "öst": 3309,
      "bär": 3310,
      "▁människor": 3311,
      "giv": 3312,
      "uter": 3313,
      "vet": 3314,
      "▁lika": 3315,
      "▁Ch": 3316,
      "▁lever": 3317,
      "▁full": 3318,
      "raft": 3319,
      "dat": 3320,
      "▁aldrig": 3321,
      "river": 3322,
      "hör": 3323,
      "▁red": 3324,
      "▁tjän": 3325,
      "sy": 3326,
      "ner": 3327,
      "rakt": 3328,
      "▁hitta": 3329,
      "elsen": 3330,
      "▁verkligen": 3331,
      "döm": 3332,
      "van": 3333,
      "▁stad": 3334,
      "▁gam": 3335,
      "sf": 3336,
      "lem": 3337,
      "▁direkt": 3338,
      "▁tillbaka": 3339,
      "▁tillsammans": 3340,
      "går": 3341,
      "res": 3342,
      "ubb": 3343,
      "▁nytt": 3344,
      "▁tiden": 3345,
      "ationen": 3346,
      "uro": 3347,
      "▁kli": 3348,
      "orn": 3349,
      "ard": 3350,
      "rist": 3351,
      "iten": 3352,
      "ånd": 3353,
      "ler": 3354,
      "▁tog": 3355,
      "ha": 3356,
      "▁natur": 3357,
      "▁huvud": 3358,
      "▁hal": 3359,
      "rad": 3360,
      "▁ung": 3361,
      "orr": 3362,
      "▁mina": 3363,
      "▁komp": 3364,
      "alen": 3365,
      "ike": 3366,
      "stad": 3367,
      "▁kvinn": 3368,
      "▁lå": 3369,
      "▁id": 3370,
      "ydd": 3371,
      "nes": 3372,
      "mat": 3373,
      "▁förv": 3374,
      "▁egen": 3375,
      "ition": 3376,
      "olog": 3377,
      "eller": 3378,
      "anis": 3379,
      "▁Sam": 3380,
      "▁kro": 3381,
      "illa": 3382,
      "iver": 3383,
      "▁vän": 3384,
      "▁hotell": 3385,
      "▁därför": 3386,
      "▁si": 3387,
      "▁beslut": 3388,
      "▁små": 3389,
      "▁Då": 3390,
      "ister": 3391,
      "▁personer": 3392,
      "▁tim": 3393,
      "▁gjorde": 3394,
      "▁Ut": 3395,
      "▁mindre": 3396,
      "▁kort": 3397,
      "bland": 3398,
      "▁kvar": 3399,
      "▁Pro": 3400,
      "ebb": 3401,
      "▁match": 3402,
      "▁hans": 3403,
      "▁använda": 3404,
      "▁häl": 3405,
      "▁områ": 3406,
      "▁honom": 3407,
      "be": 3408,
      "▁Re": 3409,
      "▁öpp": 3410,
      "heter": 3411,
      "▁jäm": 3412,
      "skin": 3413,
      "▁rum": 3414,
      "▁gen": 3415,
      "yrk": 3416,
      "▁bo": 3417,
      "drag": 3418,
      "klar": 3419,
      "orgon": 3420,
      "▁Under": 3421,
      "▁står": 3422,
      "▁klar": 3423,
      "sikt": 3424,
      "▁inv": 3425,
      "▁läsa": 3426,
      "▁kontakt": 3427,
      "▁väx": 3428,
      "▁inför": 3429,
      "net": 3430,
      "▁ändå": 3431,
      "cis": 3432,
      "▁större": 3433,
      "häll": 3434,
      "▁ih": 3435,
      "▁köp": 3436,
      "▁familj": 3437,
      "spel": 3438,
      "▁nät": 3439,
      "enter": 3440,
      "▁Sp": 3441,
      "▁Hon": 3442,
      "öker": 3443,
      "▁rör": 3444,
      "▁po": 3445,
      "jur": 3446,
      "äster": 3447,
      "äpp": 3448,
      "▁rel": 3449,
      "▁Vis": 3450,
      "▁Som": 3451,
      "atis": 3452,
      "alitet": 3453,
      "ivit": 3454,
      "▁säga": 3455,
      "yl": 3456,
      "lingen": 3457,
      "▁ute": 3458,
      "ynd": 3459,
      "ips": 3460,
      "orter": 3461,
      "▁vatten": 3462,
      "▁enkelt": 3463,
      "▁bor": 3464,
      "▁innebär": 3465,
      "▁Y": 3466,
      "skriv": 3467,
      "konom": 3468,
      "lek": 3469,
      "iva": 3470,
      "istor": 3471,
      "änk": 3472,
      "▁folk": 3473,
      "▁hemma": 3474,
      "▁blog": 3475,
      "pen": 3476,
      "▁mass": 3477,
      "ras": 3478,
      "▁te": 3479,
      "arl": 3480,
      "int": 3481,
      "ärna": 3482,
      "oner": 3483,
      "ära": 3484,
      "han": 3485,
      "▁Upp": 3486,
      "▁procent": 3487,
      "▁eff": 3488,
      "eln": 3489,
      "mot": 3490,
      "▁tur": 3491,
      "▁stort": 3492,
      "▁part": 3493,
      "▁ytt": 3494,
      "ekn": 3495,
      "▁senaste": 3496,
      "▁via": 3497,
      "▁kron": 3498,
      "ög": 3499,
      "spl": 3500,
      "▁längre": 3501,
      "▁haft": 3502,
      "icka": 3503,
      "fall": 3504,
      "▁mus": 3505,
      "ligare": 3506,
      "▁fle": 3507,
      "▁känner": 3508,
      "▁sa": 3509,
      "▁hy": 3510,
      "bart": 3511,
      "▁dagar": 3512,
      "▁äg": 3513,
      "▁behand": 3514,
      "▁Dess": 3515,
      "▁näst": 3516,
      "kor": 3517,
      "ong": 3518,
      "▁bilder": 3519,
      "vi": 3520,
      "fekt": 3521,
      "idigt": 3522,
      "▁Kan": 3523,
      "ib": 3524,
      "▁fortsätt": 3525,
      "▁bild": 3526,
      "kommen": 3527,
      "▁saker": 3528,
      "▁tal": 3529,
      "jus": 3530,
      "▁fel": 3531,
      "▁utbild": 3532,
      "▁webb": 3533,
      "▁sol": 3534,
      "▁öv": 3535,
      "stället": 3536,
      "stånd": 3537,
      "▁förl": 3538,
      "▁kväll": 3539,
      "▁blivit": 3540,
      "▁ned": 3541,
      "ons": 3542,
      "▁följ": 3543,
      "▁omdöm": 3544,
      "▁bru": 3545,
      "iet": 3546,
      "▁Sv": 3547,
      "▁su": 3548,
      "alm": 3549,
      "edag": 3550,
      "▁möjligt": 3551,
      "ara": 3552,
      "by": 3553,
      "▁fem": 3554,
      "▁sär": 3555,
      "ioner": 3556,
      "▁faktiskt": 3557,
      "▁sex": 3558,
      "vänd": 3559,
      "lden": 3560,
      "▁stöd": 3561,
      "▁Mar": 3562,
      "farande": 3563,
      "▁låg": 3564,
      "▁länge": 3565,
      "▁ansvar": 3566,
      "▁pengar": 3567,
      "drar": 3568,
      "▁Ja": 3569,
      "▁styr": 3570,
      "▁visar": 3571,
      "▁soci": 3572,
      "▁mis": 3573,
      "vent": 3574,
      "▁start": 3575,
      "▁ekonom": 3576,
      "▁org": 3577,
      "ess": 3578,
      "▁flyg": 3579,
      "ont": 3580,
      "▁svårt": 3581,
      "▁polit": 3582,
      "▁liten": 3583,
      "istr": 3584,
      "▁värld": 3585,
      "igheter": 3586,
      "▁art": 3587,
      "▁titt": 3588,
      "▁im": 3589,
      "nat": 3590,
      "▁känns": 3591,
      "ubli": 3592,
      "▁ganska": 3593,
      "ännu": 3594,
      "▁Tr": 3595,
      "▁loka": 3596,
      "ata": 3597,
      "ämt": 3598,
      "▁Är": 3599,
      "▁ännu": 3600,
      "▁börjar": 3601,
      "▁köpa": 3602,
      "sättning": 3603,
      "▁resultat": 3604,
      "sak": 3605,
      "▁stud": 3606,
      "under": 3607,
      "asin": 3608,
      "ått": 3609,
      "of": 3610,
      "▁gärna": 3611,
      "▁ca": 3612,
      "mäl": 3613,
      "▁risk": 3614,
      "▁disk": 3615,
      "▁inget": 3616,
      "▁syn": 3617,
      "ena": 3618,
      "▁förm": 3619,
      "▁håller": 3620,
      "gift": 3621,
      "▁bed": 3622,
      "köp": 3623,
      "▁medlem": 3624,
      "▁vårt": 3625,
      "oder": 3626,
      "▁intern": 3627,
      "▁namn": 3628,
      "▁dejt": 3629,
      "▁samhäll": 3630,
      "▁vidare": 3631,
      "▁dagen": 3632,
      "▁projekt": 3633,
      "▁extra": 3634,
      "fäll": 3635,
      "▁sådan": 3636,
      "▁nästan": 3637,
      "inner": 3638,
      "ix": 3639,
      "▁besök": 3640,
      "▁Ny": 3641,
      "▁frågor": 3642,
      "▁grupp": 3643,
      "▁precis": 3644,
      "▁lu": 3645,
      "sin": 3646,
      "▁kont": 3647,
      "▁dra": 3648,
      "▁bill": 3649,
      "▁hittar": 3650,
      "▁fortfarande": 3651,
      "tast": 3652,
      "lla": 3653,
      "andel": 3654,
      "fråg": 3655,
      "ument": 3656,
      "▁off": 3657,
      "▁Al": 3658,
      "▁särskil": 3659,
      "▁Br": 3660,
      "ostad": 3661,
      "▁fa": 3662,
      "▁klass": 3663,
      "cess": 3664,
      "amma": 3665,
      "▁vissa": 3666,
      "lad": 3667,
      "gär": 3668,
      "▁handlar": 3669,
      "ygga": 3670,
      "ternativ": 3671,
      "ider": 3672,
      "ever": 3673,
      "fär": 3674,
      "age": 3675,
      "sats": 3676,
      "▁ant": 3677,
      "▁hund": 3678,
      "▁kronor": 3679,
      "▁Av": 3680,
      "▁gånger": 3681,
      "▁stat": 3682,
      "▁hålla": 3683,
      "spro": 3684,
      "▁träff": 3685,
      "unkt": 3686,
      "ivå": 3687,
      "ivt": 3688,
      "▁vilka": 3689,
      "▁före": 3690,
      "ite": 3691,
      "ecka": 3692,
      "▁samtidigt": 3693,
      "elef": 3694,
      "illar": 3695,
      "elser": 3696,
      "▁alltså": 3697,
      "▁läs": 3698,
      "ffär": 3699,
      "▁program": 3700,
      "förs": 3701,
      "▁ka": 3702,
      "▁hoppas": 3703,
      "port": 3704,
      "ädd": 3705,
      "▁tekn": 3706,
      "eta": 3707,
      "▁istället": 3708,
      "ct": 3709,
      "▁ä": 3710,
      "▁nära": 3711,
      "▁Gr": 3712,
      "▁året": 3713,
      "▁eng": 3714,
      "line": 3715,
      "▁viktigt": 3716,
      "erial": 3717,
      "▁bel": 3718,
      "▁betal": 3719,
      "▁fru": 3720,
      "ensk": 3721,
      "▁använder": 3722,
      "▁senare": 3723,
      "cept": 3724,
      "▁henne": 3725,
      "▁samman": 3726,
      "▁lö": 3727,
      "jut": 3728,
      "▁sidan": 3729,
      "ten": 3730,
      "▁vilken": 3731,
      "ron": 3732,
      "band": 3733,
      "ral": 3734,
      "▁by": 3735,
      "▁flytt": 3736,
      "ultur": 3737,
      "▁arbete": 3738,
      "dera": 3739,
      "▁kons": 3740,
      "▁bef": 3741,
      "▁gott": 3742,
      "▁tyd": 3743,
      "▁började": 3744,
      "▁ytter": 3745,
      "▁Alla": 3746,
      "ori": 3747,
      "SA": 3748,
      "▁cent": 3749,
      "ert": 3750,
      "▁Min": 3751,
      "ux": 3752,
      "▁föränd": 3753,
      "▁nästa": 3754,
      "▁skriver": 3755,
      "▁sj": 3756,
      "sst": 3757,
      "▁kn": 3758,
      "▁hjär": 3759,
      "▁bety": 3760,
      "▁län": 3761,
      "▁förut": 3762,
      "▁behov": 3763,
      "▁minuter": 3764,
      "▁ad": 3765,
      "fil": 3766,
      "▁typ": 3767,
      "▁framför": 3768,
      "▁fyra": 3769,
      "▁sista": 3770,
      "äss": 3771,
      "▁ihop": 3772,
      "arbete": 3773,
      "▁största": 3774,
      "▁funger": 3775,
      "▁gratis": 3776,
      "etter": 3777,
      "▁Vid": 3778,
      "▁jätt": 3779,
      "▁utt": 3780,
      "unn": 3781,
      "råk": 3782,
      "ater": 3783,
      "▁själva": 3784,
      "▁såg": 3785,
      "▁pla": 3786,
      "ian": 3787,
      "▁endast": 3788,
      "ift": 3789,
      "▁sett": 3790,
      "ita": 3791,
      "▁erbjuder": 3792,
      "ivet": 3793,
      "reg": 3794,
      "fin": 3795,
      "▁spr": 3796,
      "agen": 3797,
      "▁flesta": 3798,
      "▁snabbt": 3799,
      "▁and": 3800,
      "▁vack": 3801,
      "▁ste": 3802,
      "okus": 3803,
      "pass": 3804,
      "ningarna": 3805,
      "▁Fin": 3806,
      "gru": 3807,
      "bara": 3808,
      "▁star": 3809,
      "▁främ": 3810,
      "▁bid": 3811,
      "▁hennes": 3812,
      "▁jämför": 3813,
      "varande": 3814,
      "▁minst": 3815,
      "elefon": 3816,
      "▁kring": 3817,
      "▁go": 3818,
      "öjd": 3819,
      "its": 3820,
      "▁spela": 3821,
      "ppar": 3822,
      "▁behöv": 3823,
      "▁läk": 3824,
      "err": 3825,
      "▁histor": 3826,
      "▁tex": 3827,
      "faren": 3828,
      "▁förslag": 3829,
      "▁Se": 3830,
      "håller": 3831,
      "nande": 3832,
      "▁organis": 3833,
      "ifrån": 3834,
      "▁egna": 3835,
      "ember": 3836,
      "itu": 3837,
      "ER": 3838,
      "ris": 3839,
      "▁kul": 3840,
      "▁AB": 3841,
      "▁jul": 3842,
      "val": 3843,
      "ore": 3844,
      "▁bad": 3845,
      "▁tips": 3846,
      "▁bolag": 3847,
      "▁män": 3848,
      "pe": 3849,
      "▁världen": 3850,
      "▁bestäm": 3851,
      "▁skapa": 3852,
      "män": 3853,
      "▁ind": 3854,
      "▁pos": 3855,
      "verka": 3856,
      "▁klart": 3857,
      "rade": 3858,
      "▁hår": 3859,
      "öteborg": 3860,
      "get": 3861,
      "▁kär": 3862,
      "▁utveckling": 3863,
      "inna": 3864,
      "▁funktion": 3865,
      "▁dessutom": 3866,
      "▁ener": 3867,
      "▁kvinnor": 3868,
      "▁fantast": 3869,
      "ölj": 3870,
      "▁mö": 3871,
      "▁ol": 3872,
      "gon": 3873,
      "▁kar": 3874,
      "gäng": 3875,
      "▁skicka": 3876,
      "▁Sen": 3877,
      "▁Ber": 3878,
      "▁Euro": 3879,
      "▁Idag": 3880,
      "▁fören": 3881,
      "▁halv": 3882,
      "▁satt": 3883,
      "bud": 3884,
      "▁emot": 3885,
      "▁gamla": 3886,
      "enskap": 3887,
      "▁vecka": 3888,
      "▁forsk": 3889,
      "▁Ex": 3890,
      "▁Komm": 3891,
      "▁välja": 3892,
      "vård": 3893,
      "örer": 3894,
      "▁långt": 3895,
      "entligen": 3896,
      "urs": 3897,
      "▁bes": 3898,
      "ström": 3899,
      "lade": 3900,
      "▁maj": 3901,
      "▁kor": 3902,
      "▁maskin": 3903,
      "ssk": 3904,
      "full": 3905,
      "▁räk": 3906,
      "▁inlägg": 3907,
      "▁alternativ": 3908,
      "▁delar": 3909,
      "▁fråga": 3910,
      "vice": 3911,
      "orer": 3912,
      "▁Air": 3913,
      "▁helst": 3914,
      "▁gått": 3915,
      "▁hjälper": 3916,
      "▁Z": 3917,
      "▁hän": 3918,
      "▁varför": 3919,
      "up": 3920,
      "▁Även": 3921,
      "bolag": 3922,
      "▁föräl": 3923,
      "▁ren": 3924,
      "▁övr": 3925,
      "terna": 3926,
      "▁täv": 3927,
      "gård": 3928,
      "▁ville": 3929,
      "sol": 3930,
      "▁färg": 3931,
      "▁system": 3932,
      "▁verkar": 3933,
      "▁kontro": 3934,
      "rikt": 3935,
      "▁Vil": 3936,
      "▁Bar": 3937,
      "▁Max": 3938,
      "▁pat": 3939,
      "▁lös": 3940,
      "▁kraft": 3941,
      "ckt": 3942,
      "▁borde": 3943,
      "▁lycka": 3944,
      "▁vänt": 3945,
      "ckte": 3946,
      "ond": 3947,
      "klart": 3948,
      "▁trots": 3949,
      "mark": 3950,
      "ivitet": 3951,
      "one": 3952,
      "▁met": 3953,
      "märk": 3954,
      "▁ön": 3955,
      "▁Bo": 3956,
      "▁skön": 3957,
      "▁ljus": 3958,
      "▁början": 3959,
      "▁sag": 3960,
      "▁ob": 3961,
      "▁skr": 3962,
      "cer": 3963,
      "▁timmar": 3964,
      "▁pa": 3965,
      "▁Le": 3966,
      "yss": 3967,
      "staur": 3968,
      "ny": 3969,
      "▁ovan": 3970,
      "unden": 3971,
      "▁papp": 3972,
      "▁upplev": 3973,
      "▁vård": 3974,
      "▁polis": 3975,
      "▁Be": 3976,
      "▁börja": 3977,
      "▁stan": 3978,
      "▁hjälpa": 3979,
      "bygg": 3980,
      "▁veckan": 3981,
      "ummer": 3982,
      "derar": 3983,
      "mär": 3984,
      "uella": 3985,
      "▁ibland": 3986,
      "▁Nike": 3987,
      "lingar": 3988,
      "skatt": 3989,
      "ställning": 3990,
      "ins": 3991,
      "idor": 3992,
      "ruk": 3993,
      "▁erfaren": 3994,
      "rag": 3995,
      "▁kap": 3996,
      "ystem": 3997,
      "▁tack": 3998,
      "väx": 3999,
      "▁perfekt": 4000,
      "▁tänka": 4001,
      "▁Bl": 4002,
      "▁viktiga": 4003,
      "sch": 4004,
      "▁snart": 4005,
      "▁kna": 4006,
      "▁und": 4007,
      "ge": 4008,
      "▁gången": 4009,
      "rukt": 4010,
      "▁ab": 4011,
      "▁gar": 4012,
      "▁inga": 4013,
      "lat": 4014,
      "▁fina": 4015,
      "▁händer": 4016,
      "fri": 4017,
      "▁rapp": 4018,
      "▁ja": 4019,
      "äkring": 4020,
      "▁Kon": 4021,
      "▁cy": 4022,
      "iner": 4023,
      "▁kräv": 4024,
      "entar": 4025,
      "▁brukar": 4026,
      "öder": 4027,
      "tering": 4028,
      "▁lägga": 4029,
      "▁genomför": 4030,
      "▁arbetar": 4031,
      "lder": 4032,
      "▁publi": 4033,
      "▁vanligt": 4034,
      "ren": 4035,
      "▁heller": 4036,
      "▁öka": 4037,
      "▁fokus": 4038,
      "▁EU": 4039,
      "ivers": 4040,
      "▁morgon": 4041,
      "▁y": 4042,
      "ital": 4043,
      "▁sov": 4044,
      "▁skrev": 4045,
      "▁ens": 4046,
      "▁Göteborg": 4047,
      "sett": 4048,
      "okrat": 4049,
      "▁kvalitet": 4050,
      "cker": 4051,
      "▁rad": 4052,
      "▁Sveriges": 4053,
      "▁max": 4054,
      "▁Fl": 4055,
      "amm": 4056,
      "▁far": 4057,
      "agn": 4058,
      "▁Denna": 4059,
      "▁Tack": 4060,
      "ret": 4061,
      "▁tillfäll": 4062,
      "ännande": 4063,
      "▁mode": 4064,
      "▁egentligen": 4065,
      "▁tot": 4066,
      "▁Ty": 4067,
      "unda": 4068,
      "▁kopp": 4069,
      "▁mobil": 4070,
      "▁utanför": 4071,
      "▁gener": 4072,
      "sig": 4073,
      "▁månader": 4074,
      "▁arbets": 4075,
      "▁fanns": 4076,
      "▁Sedan": 4077,
      "▁reger": 4078,
      "▁blogg": 4079,
      "én": 4080,
      "co": 4081,
      "boll": 4082,
      "▁moder": 4083,
      "ds": 4084,
      "▁skriva": 4085,
      "▁säs": 4086,
      "▁miljoner": 4087,
      "ine": 4088,
      "plan": 4089,
      "ograf": 4090,
      "▁träd": 4091,
      "oende": 4092,
      "▁sitter": 4093,
      "▁medan": 4094,
      "bin": 4095,
      "fer": 4096,
      "▁kunder": 4097,
      "▁Hel": 4098,
      "com": 4099,
      "▁tem": 4100,
      "kn": 4101,
      "▁skatt": 4102,
      "iden": 4103,
      "▁but": 4104,
      "tem": 4105,
      "▁Ska": 4106,
      "▁priv": 4107,
      "▁artik": 4108,
      "▁bred": 4109,
      "EN": 4110,
      "▁ögon": 4111,
      "▁miljö": 4112,
      "områ": 4113,
      "▁gem": 4114,
      "åga": 4115,
      "▁antal": 4116,
      "rift": 4117,
      "▁Per": 4118,
      "▁glad": 4119,
      "▁km": 4120,
      "▁bostad": 4121,
      "▁framtid": 4122,
      "▁produkter": 4123,
      "▁produkt": 4124,
      "▁Or": 4125,
      "spektiv": 4126,
      "yll": 4127,
      "▁livet": 4128,
      "▁Johan": 4129,
      "▁varandra": 4130,
      "▁film": 4131,
      "▁Ro": 4132,
      "jör": 4133,
      "▁tagit": 4134,
      "ension": 4135,
      "gre": 4136,
      "ersätt": 4137,
      "▁online": 4138,
      "ämp": 4139,
      "▁resa": 4140,
      "▁sju": 4141,
      "▁Vill": 4142,
      "▁topp": 4143,
      "ay": 4144,
      "▁sön": 4145,
      "▁passar": 4146,
      "▁veta": 4147,
      "▁särskilt": 4148,
      "▁hems": 4149,
      "▁ytterligare": 4150,
      "ärer": 4151,
      "verket": 4152,
      "▁lju": 4153,
      "ateg": 4154,
      "▁Ander": 4155,
      "▁finans": 4156,
      "dags": 4157,
      "uff": 4158,
      "▁häls": 4159,
      "▁sem": 4160,
      "▁bäst": 4161,
      "▁trev": 4162,
      "▁fungerar": 4163,
      "ork": 4164,
      "▁pop": 4165,
      "▁sommar": 4166,
      "▁råd": 4167,
      "hopp": 4168,
      "▁kommit": 4169,
      "▁affär": 4170,
      "▁Inte": 4171,
      "snitt": 4172,
      "▁Någ": 4173,
      "▁trans": 4174,
      "ilja": 4175,
      "▁skolan": 4176,
      "▁marknad": 4177,
      "▁förra": 4178,
      "emang": 4179,
      "▁rekommen": 4180,
      "▁båda": 4181,
      "una": 4182,
      "▁används": 4183,
      "▁lug": 4184,
      "kla": 4185,
      "önster": 4186,
      "▁äldre": 4187,
      "mt": 4188,
      "olv": 4189,
      "styr": 4190,
      "ledning": 4191,
      "▁utför": 4192,
      "uld": 4193,
      "▁et": 4194,
      "batt": 4195,
      "qu": 4196,
      "LA": 4197,
      "▁gillar": 4198,
      "ww": 4199,
      "bund": 4200,
      "igheten": 4201,
      "als": 4202,
      "▁slag": 4203,
      "vara": 4204,
      "▁bas": 4205,
      "▁lägen": 4206,
      "▁alls": 4207,
      "IN": 4208,
      "▁sagt": 4209,
      "▁känna": 4210,
      "▁test": 4211,
      "iks": 4212,
      "spir": 4213,
      "ansk": 4214,
      "▁Allt": 4215,
      "ke": 4216,
      "▁omfatt": 4217,
      "▁USA": 4218,
      "tar": 4219,
      "tre": 4220,
      "äcker": 4221,
      "jö": 4222,
      "▁död": 4223,
      "▁tills": 4224,
      "ium": 4225,
      "bok": 4226,
      "▁skill": 4227,
      "ocka": 4228,
      "▁svensk": 4229,
      "▁telefon": 4230,
      "ev": 4231,
      "▁visa": 4232,
      "uni": 4233,
      "▁förbätt": 4234,
      "▁uppgifter": 4235,
      "▁tillgäng": 4236,
      "kort": 4237,
      "▁låt": 4238,
      "▁släpp": 4239,
      "ps": 4240,
      "ora": 4241,
      "lick": 4242,
      "aket": 4243,
      "▁Bil": 4244,
      "▁bakom": 4245,
      "▁dejting": 4246,
      "▁söker": 4247,
      "ansen": 4248,
      "lut": 4249,
      "ity": 4250,
      "oss": 4251,
      "▁elever": 4252,
      "▁inter": 4253,
      "▁Th": 4254,
      "▁kunskap": 4255,
      "▁säkerhet": 4256,
      "▁ring": 4257,
      "▁avslut": 4258,
      "▁tänker": 4259,
      "▁igenom": 4260,
      "▁månad": 4261,
      "åk": 4262,
      "ran": 4263,
      "▁posit": 4264,
      "▁allmän": 4265,
      "▁Lin": 4266,
      "▁effektiv": 4267,
      "▁cir": 4268,
      "▁förklar": 4269,
      "▁roll": 4270,
      "▁krav": 4271,
      "omen": 4272,
      "▁vägen": 4273,
      "syk": 4274,
      "▁åka": 4275,
      "älla": 4276,
      "▁träning": 4277,
      "▁mör": 4278,
      "▁gre": 4279,
      "▁omdömen": 4280,
      "chen": 4281,
      "ator": 4282,
      "dar": 4283,
      "ou": 4284,
      "kost": 4285,
      "▁säkert": 4286,
      "terar": 4287,
      "▁betyg": 4288,
      "▁kultur": 4289,
      "▁energi": 4290,
      "▁Res": 4291,
      "samma": 4292,
      "▁sätta": 4293,
      "▁dags": 4294,
      "▁anställ": 4295,
      "▁skap": 4296,
      "spr": 4297,
      "usk": 4298,
      "▁Malm": 4299,
      "▁The": 4300,
      "splats": 4301,
      "ält": 4302,
      "▁mån": 4303,
      "▁vanliga": 4304,
      "ängd": 4305,
      "▁kund": 4306,
      "len": 4307,
      "▁skog": 4308,
      "ärt": 4309,
      "värr": 4310,
      "lan": 4311,
      "▁stu": 4312,
      "▁prakt": 4313,
      "▁häst": 4314,
      "▁förstå": 4315,
      "▁ungdom": 4316,
      "▁sida": 4317,
      "▁Fa": 4318,
      "▁co": 4319,
      "▁uppdat": 4320,
      "▁lån": 4321,
      "▁inkl": 4322,
      "▁föd": 4323,
      "sla": 4324,
      "ringar": 4325,
      "▁veckor": 4326,
      "▁spelar": 4327,
      "till": 4328,
      "▁va": 4329,
      "stol": 4330,
      "▁fördel": 4331,
      "▁näm": 4332,
      "delse": 4333,
      "sättningar": 4334,
      "asino": 4335,
      "arnas": 4336,
      "▁rep": 4337,
      "▁bi": 4338,
      "for": 4339,
      "▁So": 4340,
      "▁innehåller": 4341,
      "▁Enligt": 4342,
      "▁Dessutom": 4343,
      "▁lilla": 4344,
      "skott": 4345,
      "emot": 4346,
      "▁skydd": 4347,
      "▁uppdrag": 4348,
      "▁fav": 4349,
      "end": 4350,
      "▁tred": 4351,
      "ive": 4352,
      "▁Dan": 4353,
      "olit": 4354,
      "mal": 4355,
      "ry": 4356,
      "▁högre": 4357,
      "väl": 4358,
      "hl": 4359,
      "ugust": 4360,
      "▁fatt": 4361,
      "ies": 4362,
      "rip": 4363,
      "oden": 4364,
      "▁situ": 4365,
      "ovis": 4366,
      "▁desig": 4367,
      "▁restaur": 4368,
      "ösa": 4369,
      "alis": 4370,
      "▁material": 4371,
      "▁norm": 4372,
      "▁prat": 4373,
      "▁am": 4374,
      "▁djur": 4375,
      "▁äta": 4376,
      "▁åren": 4377,
      "▁jan": 4378,
      "ban": 4379,
      "▁åtgär": 4380,
      "▁driv": 4381,
      "▁ifrån": 4382,
      "▁ingår": 4383,
      "äcka": 4384,
      "▁menar": 4385,
      "kur": 4386,
      "▁vux": 4387,
      "▁arbeta": 4388,
      "▁Hot": 4389,
      "vs": 4390,
      "vid": 4391,
      "grupp": 4392,
      "▁försöka": 4393,
      "AR": 4394,
      "alet": 4395,
      "▁värde": 4396,
      "▁lin": 4397,
      "▁länder": 4398,
      "▁års": 4399,
      "▁landet": 4400,
      "▁berättar": 4401,
      "atan": 4402,
      "▁personal": 4403,
      "▁luft": 4404,
      "part": 4405,
      "och": 4406,
      "▁ersätt": 4407,
      "▁roligt": 4408,
      "▁utbildning": 4409,
      "▁tje": 4410,
      "▁Mo": 4411,
      "rafik": 4412,
      "▁lära": 4413,
      "skan": 4414,
      "cen": 4415,
      "▁the": 4416,
      "▁mid": 4417,
      "▁bal": 4418,
      "▁anal": 4419,
      "▁Tro": 4420,
      "örj": 4421,
      "öva": 4422,
      "▁musik": 4423,
      "förande": 4424,
      "▁mil": 4425,
      "dem": 4426,
      "▁goda": 4427,
      "▁popul": 4428,
      "iz": 4429,
      "▁lad": 4430,
      "ew": 4431,
      "▁sats": 4432,
      "ernas": 4433,
      "▁kommentar": 4434,
      "▁frågan": 4435,
      "▁väljer": 4436,
      "▁Väl": 4437,
      "▁peri": 4438,
      "▁tillgång": 4439,
      "▁häng": 4440,
      "▁ben": 4441,
      "nt": 4442,
      "ativa": 4443,
      "▁effekt": 4444,
      "efter": 4445,
      "▁bud": 4446,
      "verkar": 4447,
      "ationella": 4448,
      "spekt": 4449,
      "lex": 4450,
      "▁Genom": 4451,
      "▁dy": 4452,
      "▁to": 4453,
      "▁El": 4454,
      "▁Många": 4455,
      "▁indiv": 4456,
      "▁tredje": 4457,
      "▁Karl": 4458,
      "avsett": 4459,
      "▁poäng": 4460,
      "▁spelare": 4461,
      "▁innehåll": 4462,
      "stan": 4463,
      "läg": 4464,
      "öter": 4465,
      "▁kök": 4466,
      "▁inspir": 4467,
      "skolan": 4468,
      "öcker": 4469,
      "▁ban": 4470,
      "ständ": 4471,
      "▁utom": 4472,
      "rust": 4473,
      "räck": 4474,
      "▁rå": 4475,
      "handling": 4476,
      "äver": 4477,
      "▁presen": 4478,
      "▁steg": 4479,
      "▁barnen": 4480,
      "öda": 4481,
      "ppa": 4482,
      "▁tank": 4483,
      "▁Ha": 4484,
      "utveck": 4485,
      "▁Ta": 4486,
      "uari": 4487,
      "efär": 4488,
      "iversitet": 4489,
      "▁uppf": 4490,
      "elska": 4491,
      "▁fint": 4492,
      "▁fri": 4493,
      "▁tan": 4494,
      "pan": 4495,
      "▁säl": 4496,
      "▁igång": 4497,
      "▁gemens": 4498,
      "▁kur": 4499,
      "▁gym": 4500,
      "produ": 4501,
      "▁området": 4502,
      "▁sjukdom": 4503,
      "öts": 4504,
      "▁spännande": 4505,
      "ökt": 4506,
      "▁jobba": 4507,
      "mare": 4508,
      "▁otro": 4509,
      "▁registr": 4510,
      "skor": 4511,
      "bel": 4512,
      "▁sker": 4513,
      "▁event": 4514,
      "ES": 4515,
      "▁lör": 4516,
      "öll": 4517,
      "▁vit": 4518,
      "lands": 4519,
      "▁recept": 4520,
      "▁följande": 4521,
      "▁pri": 4522,
      "▁besk": 4523,
      "▁blod": 4524,
      "köping": 4525,
      "bbet": 4526,
      "jen": 4527,
      "uppgifter": 4528,
      "ktyg": 4529,
      "▁Arbet": 4530,
      "ugusti": 4531,
      "▁kroppen": 4532,
      "▁webbplats": 4533,
      "▁dit": 4534,
      "oc": 4535,
      "▁nätet": 4536,
      "▁fisk": 4537,
      "▁kred": 4538,
      "▁anmäl": 4539,
      "itta": 4540,
      "ongen": 4541,
      "▁kropp": 4542,
      "▁mamma": 4543,
      "▁pres": 4544,
      "▁sök": 4545,
      "▁ej": 4546,
      "▁medel": 4547,
      "▁Ste": 4548,
      "lös": 4549,
      "▁vänner": 4550,
      "▁bedöm": 4551,
      "▁smak": 4552,
      "igh": 4553,
      "▁klubb": 4554,
      "företag": 4555,
      "▁Gu": 4556,
      "▁betala": 4557,
      "▁förhåll": 4558,
      "▁utman": 4559,
      "ton": 4560,
      "▁skär": 4561,
      "▁detal": 4562,
      "arm": 4563,
      "▁ag": 4564,
      "cc": 4565,
      "▁minska": 4566,
      "▁samband": 4567,
      "tjän": 4568,
      "▁svår": 4569,
      "▁stra": 4570,
      "▁fredag": 4571,
      "▁inst": 4572,
      "▁bygga": 4573,
      "▁knapp": 4574,
      "▁liknande": 4575,
      "gående": 4576,
      "▁jobbet": 4577,
      "ober": 4578,
      "gräns": 4579,
      "ställa": 4580,
      "▁jobbar": 4581,
      "▁lyck": 4582,
      "▁säll": 4583,
      "▁sym": 4584,
      "▁erfarenhet": 4585,
      "▁mars": 4586,
      "jöl": 4587,
      "▁juni": 4588,
      "▁eget": 4589,
      "▁Svenska": 4590,
      "▁vem": 4591,
      "▁följa": 4592,
      "po": 4593,
      "står": 4594,
      "▁januari": 4595,
      "▁brott": 4596,
      "otten": 4597,
      "otter": 4598,
      "▁försöker": 4599,
      "▁aktivitet": 4600,
      "▁såd": 4601,
      "▁lyss": 4602,
      "ko": 4603,
      "▁skad": 4604,
      "▁massa": 4605,
      "kan": 4606,
      "värd": 4607,
      "▁invester": 4608,
      "▁mär": 4609,
      "▁nöd": 4610,
      "▁misst": 4611,
      "▁skor": 4612,
      "▁behandling": 4613,
      "vin": 4614,
      "stid": 4615,
      "▁jord": 4616,
      "▁uppt": 4617,
      "▁priser": 4618,
      "▁fortsätta": 4619,
      "dra": 4620,
      "▁mynd": 4621,
      "▁användas": 4622,
      "▁Dessa": 4623,
      "ligtvis": 4624,
      "AN": 4625,
      "orit": 4626,
      "▁Nej": 4627,
      "▁augusti": 4628,
      "▁liksom": 4629,
      "ägen": 4630,
      "endet": 4631,
      "▁park": 4632,
      "ey": 4633,
      "▁ham": 4634,
      "▁älskar": 4635,
      "▁Malmö": 4636,
      "▁Bra": 4637,
      "sav": 4638,
      "itter": 4639,
      "▁igår": 4640,
      "mi": 4641,
      "▁behövs": 4642,
      "▁Ad": 4643,
      "grund": 4644,
      "▁teck": 4645,
      "▁fortsätter": 4646,
      "▁X": 4647,
      "itut": 4648,
      "book": 4649,
      "▁ålder": 4650,
      "▁ok": 4651,
      "▁försv": 4652,
      "▁stäm": 4653,
      "▁kombin": 4654,
      "▁utred": 4655,
      "▁beskriv": 4656,
      "af": 4657,
      "ferens": 4658,
      "ruktur": 4659,
      "▁slutet": 4660,
      "▁ök": 4661,
      "råd": 4662,
      "▁arbetet": 4663,
      "gå": 4664,
      "▁krävs": 4665,
      "▁tra": 4666,
      "icin": 4667,
      "our": 4668,
      "▁maskinöver": 4669,
      "solut": 4670,
      "ukt": 4671,
      "▁lämna": 4672,
      "alog": 4673,
      "▁stå": 4674,
      "▁trött": 4675,
      "▁Från": 4676,
      "äft": 4677,
      "▁nivå": 4678,
      "uellt": 4679,
      "ism": 4680,
      "▁lokal": 4681,
      "komst": 4682,
      "▁nov": 4683,
      "▁Fot": 4684,
      "mål": 4685,
      "aga": 4686,
      "▁gav": 4687,
      "▁betyder": 4688,
      "ET": 4689,
      "utt": 4690,
      "▁fyll": 4691,
      "▁Mat": 4692,
      "▁färd": 4693,
      "bord": 4694,
      "▁låter": 4695,
      "▁heter": 4696,
      "ativt": 4697,
      "▁känsl": 4698,
      "ockan": 4699,
      "▁kam": 4700,
      "▁dju": 4701,
      "▁mon": 4702,
      "▁mor": 4703,
      "▁trygg": 4704,
      "▁stol": 4705,
      "▁Eller": 4706,
      "splan": 4707,
      "▁allvar": 4708,
      "utbild": 4709,
      "▁Sh": 4710,
      "▁Därför": 4711,
      "på": 4712,
      "▁vilja": 4713,
      "▁okt": 4714,
      "▁plac": 4715,
      "▁unga": 4716,
      "▁dec": 4717,
      "sel": 4718,
      "▁vä": 4719,
      "▁krit": 4720,
      "kas": 4721,
      "▁tom": 4722,
      "▁psyk": 4723,
      "▁dör": 4724,
      "▁z": 4725,
      "▁dro": 4726,
      "eder": 4727,
      "enden": 4728,
      "aler": 4729,
      "▁ske": 4730,
      "▁anpass": 4731,
      "öna": 4732,
      "▁Vär": 4733,
      "▁fortsatt": 4734,
      "pril": 4735,
      "▁kol": 4736,
      "▁erbjud": 4737,
      "▁bär": 4738,
      "Det": 4739,
      "▁därmed": 4740,
      "▁idé": 4741,
      "ide": 4742,
      "ations": 4743,
      "▁nedan": 4744,
      "▁godk": 4745,
      "▁finnas": 4746,
      "▁ungefär": 4747,
      "okument": 4748,
      "▁tjänster": 4749,
      "▁stark": 4750,
      "▁press": 4751,
      "▁tio": 4752,
      "▁skick": 4753,
      "skr": 4754,
      "ycka": 4755,
      "ure": 4756,
      "lik": 4757,
      "▁miss": 4758,
      "▁förvänt": 4759,
      "▁Nord": 4760,
      "▁Sven": 4761,
      "but": 4762,
      "växt": 4763,
      "▁Dag": 4764,
      "atta": 4765,
      "ptem": 4766,
      "ykt": 4767,
      "ille": 4768,
      "▁meter": 4769,
      "▁fi": 4770,
      "▁Visa": 4771,
      "▁sli": 4772,
      "▁prov": 4773,
      "▁Mer": 4774,
      "person": 4775,
      "ptember": 4776,
      "allt": 4777,
      "▁oro": 4778,
      "▁TV": 4779,
      "ich": 4780,
      "fess": 4781,
      "▁service": 4782,
      "▁me": 4783,
      "▁process": 4784,
      "▁kredit": 4785,
      "uell": 4786,
      "fte": 4787,
      "▁Ol": 4788,
      "▁mm": 4789,
      "▁samarbet": 4790,
      "▁företaget": 4791,
      "▁exempelvis": 4792,
      "▁vatt": 4793,
      "verkan": 4794,
      "ue": 4795,
      "▁utl": 4796,
      "▁viktig": 4797,
      "järn": 4798,
      "llen": 4799,
      "▁gra": 4800,
      "pet": 4801,
      "▁Fast": 4802,
      "▁feb": 4803,
      "inci": 4804,
      "maren": 4805,
      "lare": 4806,
      "▁Kl": 4807,
      "▁stod": 4808,
      "▁blå": 4809,
      "▁köra": 4810,
      "▁cirka": 4811,
      "▁stund": 4812,
      "anter": 4813,
      "▁mag": 4814,
      "▁meddel": 4815,
      "▁kommunen": 4816,
      "▁deltag": 4817,
      "ach": 4818,
      "onus": 4819,
      "▁air": 4820,
      "▁privat": 4821,
      "▁super": 4822,
      "cebook": 4823,
      "▁dröm": 4824,
      "▁bit": 4825,
      "▁stil": 4826,
      "dde": 4827,
      "vå": 4828,
      "merik": 4829,
      "▁Reg": 4830,
      "▁ämn": 4831,
      "▁tänkte": 4832,
      "ugg": 4833,
      "▁log": 4834,
      "▁bju": 4835,
      "enten": 4836,
      "▁ins": 4837,
      "nam": 4838,
      "▁kyrk": 4839,
      "rym": 4840,
      "▁stäng": 4841,
      "skydd": 4842,
      "▁la": 4843,
      "▁Europa": 4844,
      "deles": 4845,
      "▁absolut": 4846,
      "huset": 4847,
      "▁Kanske": 4848,
      "▁engelska": 4849,
      "▁fys": 4850,
      "ffe": 4851,
      "▁År": 4852,
      "▁bilen": 4853,
      "märkt": 4854,
      "▁boken": 4855,
      "ph": 4856,
      "▁säng": 4857,
      "▁viss": 4858,
      "▁sådana": 4859,
      "▁tillhör": 4860,
      "▁trad": 4861,
      "▁tvätt": 4862,
      "▁Vår": 4863,
      "▁delen": 4864,
      "▁förstår": 4865,
      "▁drabb": 4866,
      "▁betyd": 4867,
      "▁chef": 4868,
      "▁nå": 4869,
      "▁tyckte": 4870,
      "▁består": 4871,
      "▁offent": 4872,
      "unch": 4873,
      "öja": 4874,
      "▁stället": 4875,
      "▁försälj": 4876,
      "▁oftast": 4877,
      "åld": 4878,
      "▁natt": 4879,
      "▁Fort": 4880,
      "▁dubb": 4881,
      "▁social": 4882,
      "▁nike": 4883,
      "▁fix": 4884,
      "▁speciellt": 4885,
      "▁Ni": 4886,
      "▁följer": 4887,
      "▁enskil": 4888,
      "▁Co": 4889,
      "▁övriga": 4890,
      "rör": 4891,
      "▁glas": 4892,
      "▁semester": 4893,
      "ink": 4894,
      "▁öppna": 4895,
      "▁mots": 4896,
      "▁bilden": 4897,
      "▁svart": 4898,
      "gården": 4899,
      "▁hot": 4900,
      "▁Em": 4901,
      "▁tillräck": 4902,
      "▁skönt": 4903,
      "erades": 4904,
      "iel": 4905,
      "▁Stor": 4906,
      "▁kläder": 4907,
      "use": 4908,
      "hem": 4909,
      "▁Gud": 4910,
      "▁såsom": 4911,
      "▁Sa": 4912,
      "▁gäll": 4913,
      "▁avgör": 4914,
      "▁anser": 4915,
      "Jag": 4916,
      "iljö": 4917,
      "▁beroende": 4918,
      "▁senast": 4919,
      "▁löp": 4920,
      "▁april": 4921,
      "blad": 4922,
      "▁intressant": 4923,
      "ökte": 4924,
      "▁märk": 4925,
      "▁Go": 4926,
      "▁Varför": 4927,
      "pris": 4928,
      "▁nämn": 4929,
      "▁bank": 4930,
      "ige": 4931,
      "▁gran": 4932,
      "ruari": 4933,
      "▁oktober": 4934,
      "▁post": 4935,
      "erande": 4936,
      "▁samarbete": 4937,
      "▁Ser": 4938,
      "▁regel": 4939,
      "▁nämligen": 4940,
      "onen": 4941,
      "▁orsak": 4942,
      "▁pe": 4943,
      "▁app": 4944,
      "▁åkte": 4945,
      "▁september": 4946,
      "klag": 4947,
      "press": 4948,
      "ören": 4949,
      "▁public": 4950,
      "▁föres": 4951,
      "▁Lund": 4952,
      "▁lan": 4953,
      "san": 4954,
      "▁påverka": 4955,
      "▁Hej": 4956,
      "▁Del": 4957,
      "▁inf": 4958,
      "ryck": 4959,
      "▁hjärt": 4960,
      "▁do": 4961,
      "▁him": 4962,
      "kring": 4963,
      "▁otroligt": 4964,
      "ligheten": 4965,
      "vik": 4966,
      "▁lek": 4967,
      "▁höst": 4968,
      "▁ac": 4969,
      "▁lägger": 4970,
      "▁stopp": 4971,
      "▁vide": 4972,
      "▁rädd": 4973,
      "stri": 4974,
      "iera": 4975,
      "▁dagens": 4976,
      "▁närma": 4977,
      "▁utveckla": 4978,
      "▁behöva": 4979,
      "mo": 4980,
      "▁fotboll": 4981,
      "oms": 4982,
      "▁favorit": 4983,
      "▁titta": 4984,
      "isen": 4985,
      "▁Pl": 4986,
      "▁lön": 4987,
      "lever": 4988,
      "olf": 4989,
      "▁vackra": 4990,
      "terade": 4991,
      "▁Eftersom": 4992,
      "▁kräver": 4993,
      "▁helgen": 4994,
      "▁gäster": 4995,
      "▁Pol": 4996,
      "▁alldeles": 4997,
      "▁nödvänd": 4998,
      "▁Jon": 4999,
      "ST": 5000,
      "betal": 5001,
      "▁grav": 5002,
      "▁framgång": 5003,
      "▁Sw": 5004,
      "▁intresse": 5005,
      "ions": 5006,
      "▁universitet": 5007,
      "▁främst": 5008,
      "demokrat": 5009,
      "▁Jan": 5010,
      "▁tänkt": 5011,
      "bro": 5012,
      "ekomm": 5013,
      "▁Öster": 5014,
      "▁hud": 5015,
      "jor": 5016,
      "▁spar": 5017,
      "▁sommaren": 5018,
      "▁visade": 5019,
      "▁avtal": 5020,
      "▁möjligheter": 5021,
      "vist": 5022,
      "skola": 5023,
      "▁annars": 5024,
      "ifier": 5025,
      "▁For": 5026,
      "samt": 5027,
      "äget": 5028,
      "▁billiga": 5029,
      "orten": 5030,
      "▁kostnad": 5031,
      "▁Lu": 5032,
      "so": 5033,
      "kväll": 5034,
      "▁kompet": 5035,
      "▁områden": 5036,
      "eställ": 5037,
      "▁cm": 5038,
      "▁skapar": 5039,
      "▁engag": 5040,
      "▁insta": 5041,
      "▁yrk": 5042,
      "teck": 5043,
      "▁text": 5044,
      "▁ökar": 5045,
      "▁närheten": 5046,
      "▁februari": 5047,
      "ygger": 5048,
      "alla": 5049,
      "▁mar": 5050,
      "▁undersök": 5051,
      "ikation": 5052,
      "▁beror": 5053,
      "▁Hen": 5054,
      "licka": 5055,
      "▁sociala": 5056,
      "ategor": 5057,
      "▁La": 5058,
      "▁låta": 5059,
      "▁sån": 5060,
      "▁insats": 5061,
      "teras": 5062,
      "delning": 5063,
      "▁beg": 5064,
      "▁konkur": 5065,
      "▁boende": 5066,
      "▁Q": 5067,
      "▁språk": 5068,
      "medel": 5069,
      "cens": 5070,
      "▁tor": 5071,
      "▁hemsida": 5072,
      "rateg": 5073,
      "▁kolla": 5074,
      "▁världens": 5075,
      "bruk": 5076,
      "▁klimat": 5077,
      "eringen": 5078,
      "▁vak": 5079,
      "enn": 5080,
      "▁kvällen": 5081,
      "anta": 5082,
      "▁verksamheten": 5083,
      "▁Norr": 5084,
      "▁Kom": 5085,
      "verksamhet": 5086,
      "▁dist": 5087,
      "▁Hem": 5088,
      "▁begräns": 5089,
      "▁Erik": 5090,
      "▁Sm": 5091,
      "▁Själv": 5092,
      "▁uppmärk": 5093,
      "ly": 5094,
      "▁tradition": 5095,
      "ash": 5096,
      "▁huset": 5097,
      "▁leder": 5098,
      "seende": 5099,
      "▁Kar": 5100,
      "▁klara": 5101,
      "▁kompl": 5102,
      "nytt": 5103,
      "emedel": 5104,
      "▁ton": 5105,
      "▁defin": 5106,
      "▁familjen": 5107,
      "let": 5108,
      "▁lev": 5109,
      "chef": 5110,
      "▁Än": 5111,
      "▁december": 5112,
      "▁Köp": 5113,
      "▁gammal": 5114,
      "▁möt": 5115,
      "serv": 5116,
      "igin": 5117,
      "▁utifrån": 5118,
      "unnit": 5119,
      "▁ansök": 5120,
      "ften": 5121,
      "▁amerik": 5122,
      "▁kamp": 5123,
      "▁föräldrar": 5124,
      "▁såväl": 5125,
      "yld": 5126,
      "▁författ": 5127,
      "▁oavsett": 5128,
      "▁ram": 5129,
      "ump": 5130,
      "▁högt": 5131,
      "▁prata": 5132,
      "gel": 5133,
      "▁sälj": 5134,
      "program": 5135,
      "▁juli": 5136,
      "juta": 5137,
      "over": 5138,
      "▁Anna": 5139,
      "▁sådant": 5140,
      "▁förr": 5141,
      "ald": 5142,
      "▁ba": 5143,
      "still": 5144,
      "ktioner": 5145,
      "änkt": 5146,
      "▁interv": 5147,
      "yp": 5148,
      "cke": 5149,
      "▁fullt": 5150,
      "ningss": 5151,
      "▁kal": 5152,
      "▁mys": 5153,
      "▁höga": 5154,
      "▁glöm": 5155,
      "▁iväg": 5156,
      "▁resen": 5157,
      "▁spår": 5158,
      "ierna": 5159,
      "▁ek": 5160,
      "▁Tid": 5161,
      "sområ": 5162,
      "▁vare": 5163,
      "▁buss": 5164,
      "▁november": 5165,
      "▁Sy": 5166,
      "▁euro": 5167,
      "orl": 5168,
      "▁tas": 5169,
      "▁Pre": 5170,
      "▁Kv": 5171,
      "punkt": 5172,
      "▁ter": 5173,
      "▁klockan": 5174,
      "▁skillnad": 5175,
      "▁höra": 5176,
      "▁oper": 5177,
      "ager": 5178,
      "▁fastighet": 5179,
      "▁kontakta": 5180,
      "uden": 5181,
      "▁Su": 5182,
      "bur": 5183,
      "fa": 5184,
      "▁chans": 5185,
      "ca": 5186,
      "▁ställa": 5187,
      "▁kärlek": 5188,
      "ottag": 5189,
      "▁leva": 5190,
      "▁staden": 5191,
      "▁våg": 5192,
      "skon": 5193,
      "LL": 5194,
      "system": 5195,
      "gren": 5196,
      "▁Er": 5197,
      "obb": 5198,
      "▁Just": 5199,
      "ON": 5200,
      "▁internet": 5201,
      "▁kände": 5202,
      "▁åtgärder": 5203,
      "▁Mot": 5204,
      "▁infl": 5205,
      "satts": 5206,
      "▁sitta": 5207,
      "▁börjat": 5208,
      "cy": 5209,
      "läggning": 5210,
      "▁sta": 5211,
      "otek": 5212,
      "fta": 5213,
      "▁Ju": 5214,
      "back": 5215,
      "▁långa": 5216,
      "bes": 5217,
      "ING": 5218,
      "▁rapporter": 5219,
      "pper": 5220,
      "▁verktyg": 5221,
      "▁Par": 5222,
      "stans": 5223,
      "▁at": 5224,
      "▁framtiden": 5225,
      "dagar": 5226,
      "mid": 5227,
      "ila": 5228,
      "▁vänster": 5229,
      "OR": 5230,
      "CK": 5231,
      "▁uppskatt": 5232,
      "▁historia": 5233,
      "▁blomm": 5234,
      "▁Intern": 5235,
      "▁arbetsm": 5236,
      "▁fest": 5237,
      "ona": 5238,
      "likt": 5239,
      "iella": 5240,
      "▁Krist": 5241,
      "▁sch": 5242,
      "▁visst": 5243,
      "▁Ver": 5244,
      "▁vart": 5245,
      "jan": 5246,
      "▁Gör": 5247,
      "stå": 5248,
      "▁bekv": 5249,
      "▁hälsa": 5250,
      "▁design": 5251,
      "▁våld": 5252,
      "▁Över": 5253,
      "▁möte": 5254,
      "▁helg": 5255,
      "▁Sch": 5256,
      "ias": 5257,
      "▁od": 5258,
      "▁matchen": 5259,
      "▁ör": 5260,
      "▁gu": 5261,
      "▁hårt": 5262,
      "▁omkring": 5263,
      "▁kval": 5264,
      "▁kvinna": 5265,
      "▁Fil": 5266,
      "▁sten": 5267,
      "▁pot": 5268,
      "▁regeringen": 5269,
      "▁os": 5270,
      "her": 5271,
      "▁årets": 5272,
      "åde": 5273,
      "ekv": 5274,
      "▁tyvärr": 5275,
      "▁kallas": 5276,
      "▁teknik": 5277,
      "emål": 5278,
      "iti": 5279,
      "mor": 5280,
      "▁ordförande": 5281,
      "▁Sn": 5282,
      "▁böcker": 5283,
      "▁åker": 5284,
      "▁fjär": 5285,
      "bundet": 5286,
      "▁sport": 5287,
      "▁totalt": 5288,
      "pon": 5289,
      "▁Akt": 5290,
      "utomat": 5291,
      "▁stand": 5292,
      "▁höll": 5293,
      "givare": 5294,
      "allen": 5295,
      "▁dryg": 5296,
      "▁snygg": 5297,
      "▁New": 5298,
      "▁Anders": 5299,
      "▁samtal": 5300,
      "▁inled": 5301,
      "▁x": 5302,
      "▁dam": 5303,
      "▁Car": 5304,
      "ibli": 5305,
      "ho": 5306,
      "▁tanke": 5307,
      "▁medlemmar": 5308,
      "▁ena": 5309,
      "▁ident": 5310,
      "▁kostnader": 5311,
      "▁Joh": 5312,
      "▁båt": 5313,
      "enser": 5314,
      "▁lättare": 5315,
      "arbetare": 5316,
      "stående": 5317,
      "▁fart": 5318,
      "▁anslut": 5319,
      "aget": 5320,
      "sättningen": 5321,
      "▁produktion": 5322,
      "▁uppe": 5323,
      "▁litet": 5324,
      "▁erbjuda": 5325,
      "▁Hotel": 5326,
      "▁tidigt": 5327,
      "följ": 5328,
      "ander": 5329,
      "brott": 5330,
      "▁samhället": 5331,
      "▁konkurr": 5332,
      "▁kontroller": 5333,
      "▁redovis": 5334,
      "rummet": 5335,
      "▁stress": 5336,
      "▁dator": 5337,
      "▁lov": 5338,
      "ocker": 5339,
      "▁anledning": 5340,
      "▁individ": 5341,
      "▁Lind": 5342,
      "▁Sol": 5343,
      "▁Facebook": 5344,
      "▁antalet": 5345,
      "ligheter": 5346,
      "▁ensam": 5347,
      "ffa": 5348,
      "▁hända": 5349,
      "▁forskning": 5350,
      "▁profess": 5351,
      "cial": 5352,
      "maskin": 5353,
      "oppet": 5354,
      "garna": 5355,
      "▁nöjd": 5356,
      "ate": 5357,
      "▁marknaden": 5358,
      "▁söka": 5359,
      "▁Mark": 5360,
      "▁opt": 5361,
      "▁lagen": 5362,
      "▁fas": 5363,
      "▁lokala": 5364,
      "öta": 5365,
      "▁princi": 5366,
      "▁tit": 5367,
      "▁Bill": 5368,
      "▁Kommun": 5369,
      "▁ansikt": 5370,
      "delar": 5371,
      "▁Hög": 5372,
      "▁kri": 5373,
      "itid": 5374,
      "sg": 5375,
      "oj": 5376,
      "peratur": 5377,
      "▁fre": 5378,
      "▁frukt": 5379,
      "eringar": 5380,
      "▁höger": 5381,
      "▁dåligt": 5382,
      "AT": 5383,
      "▁spring": 5384,
      "▁Väst": 5385,
      "▁Nor": 5386,
      "▁sort": 5387,
      "▁förstås": 5388,
      "▁förvalt": 5389,
      "ärn": 5390,
      "▁lämp": 5391,
      "▁allra": 5392,
      "▁ide": 5393,
      "edd": 5394,
      "▁dri": 5395,
      "iteten": 5396,
      "▁Pa": 5397,
      "uten": 5398,
      "▁vinter": 5399,
      "▁villkor": 5400,
      "igen": 5401,
      "▁Te": 5402,
      "ägare": 5403,
      "äkra": 5404,
      "▁vinna": 5405,
      "smedel": 5406,
      "lande": 5407,
      "uk": 5408,
      "▁indu": 5409,
      "▁num": 5410,
      "▁strateg": 5411,
      "▁lärare": 5412,
      "▁exakt": 5413,
      "▁beräk": 5414,
      "sled": 5415,
      "yra": 5416,
      "▁förel": 5417,
      "▁exper": 5418,
      "▁sätter": 5419,
      "▁Str": 5420,
      "ände": 5421,
      "▁icke": 5422,
      "▁samtliga": 5423,
      "▁väntar": 5424,
      "▁kart": 5425,
      "▁sade": 5426,
      "▁Ann": 5427,
      "anda": 5428,
      "omenad": 5429,
      "DR": 5430,
      "▁em": 5431,
      "▁Stockholms": 5432,
      "▁Björ": 5433,
      "▁köpte": 5434,
      "▁server": 5435,
      "▁utmärkt": 5436,
      "▁cykel": 5437,
      "▁bek": 5438,
      "▁data": 5439,
      "▁Söder": 5440,
      "äckt": 5441,
      "ären": 5442,
      "▁område": 5443,
      "▁casino": 5444,
      "tidigt": 5445,
      "▁typer": 5446,
      "yta": 5447,
      "▁lägre": 5448,
      "värt": 5449,
      "▁gläd": 5450,
      "entet": 5451,
      "▁tillräckligt": 5452,
      "▁ljud": 5453,
      "▁underhåll": 5454,
      "etar": 5455,
      "ham": 5456,
      "▁varum": 5457,
      "ycken": 5458,
      "▁rut": 5459,
      "▁Hopp": 5460,
      "▁frukost": 5461,
      "▁kunnat": 5462,
      "▁Di": 5463,
      "▁utgör": 5464,
      "▁uppgift": 5465,
      "▁platser": 5466,
      "▁säsongen": 5467,
      "▁kontroll": 5468,
      "▁uppfatt": 5469,
      "mm": 5470,
      "▁Berg": 5471,
      "kad": 5472,
      "▁Väster": 5473,
      "usive": 5474,
      "▁känsla": 5475,
      "IS": 5476,
      "▁nån": 5477,
      "▁berätta": 5478,
      "▁sur": 5479,
      "Om": 5480,
      "▁bidrag": 5481,
      "▁artikel": 5482,
      "ologi": 5483,
      "sala": 5484,
      "▁gro": 5485,
      "▁avl": 5486,
      "▁respektiv": 5487,
      "▁vitt": 5488,
      "▁Förs": 5489,
      "▁enbart": 5490,
      "▁respektive": 5491,
      "▁läser": 5492,
      "▁elekt": 5493,
      "sidan": 5494,
      "▁region": 5495,
      "post": 5496,
      "ården": 5497,
      "▁krig": 5498,
      "stag": 5499,
      "▁boka": 5500,
      "▁tävling": 5501,
      "grepp": 5502,
      "▁förber": 5503,
      "ingens": 5504,
      "▁Bland": 5505,
      "▁Pris": 5506,
      "▁origin": 5507,
      "▁bygger": 5508,
      "▁nation": 5509,
      "▁dans": 5510,
      "▁medvet": 5511,
      "fritt": 5512,
      "▁resenärer": 5513,
      "▁Hans": 5514,
      "▁makt": 5515,
      "▁medicin": 5516,
      "▁is": 5517,
      "vika": 5518,
      "▁dokument": 5519,
      "stjän": 5520,
      "ogg": 5521,
      "ish": 5522,
      "▁polisen": 5523,
      "▁drag": 5524,
      "▁fj": 5525,
      "▁leverant": 5526,
      "▁lyckas": 5527,
      "▁säsong": 5528,
      "▁tåg": 5529,
      "▁Samtidigt": 5530,
      "▁dela": 5531,
      "▁ont": 5532,
      "▁ått": 5533,
      "▁lunch": 5534,
      "▁Ben": 5535,
      "▁centrum": 5536,
      "larna": 5537,
      "▁regler": 5538,
      "▁massor": 5539,
      "srätt": 5540,
      "▁riks": 5541,
      "ädda": 5542,
      "▁lägg": 5543,
      "resent": 5544,
      "ordon": 5545,
      "▁konstat": 5546,
      "▁Använd": 5547,
      "▁ekonomiska": 5548,
      "▁skola": 5549,
      "visning": 5550,
      "▁vann": 5551,
      "▁produc": 5552,
      "ox": 5553,
      "lack": 5554,
      "iter": 5555,
      "▁hämt": 5556,
      "▁skrivit": 5557,
      "▁mera": 5558,
      "utveckling": 5559,
      "hov": 5560,
      "usen": 5561,
      "ills": 5562,
      "isar": 5563,
      "▁gemensam": 5564,
      "▁integr": 5565,
      "▁tj": 5566,
      "▁försvar": 5567,
      "isa": 5568,
      "▁trä": 5569,
      "▁gällande": 5570,
      "▁röst": 5571,
      "▁framåt": 5572,
      "▁rik": 5573,
      "▁förekomm": 5574,
      "ola": 5575,
      "anc": 5576,
      "dering": 5577,
      "▁borta": 5578,
      "ipp": 5579,
      "▁värme": 5580,
      "▁född": 5581,
      "▁maskinöversatts": 5582,
      "▁förlor": 5583,
      "▁högsta": 5584,
      "▁byta": 5585,
      "handel": 5586,
      "▁valt": 5587,
      "▁tors": 5588,
      "EK": 5589,
      "ric": 5590,
      "inder": 5591,
      "▁Ingen": 5592,
      "ningsvis": 5593,
      "▁Fred": 5594,
      "▁tillverk": 5595,
      "▁snar": 5596,
      "lor": 5597,
      "cep": 5598,
      "ringen": 5599,
      "ienter": 5600,
      "▁reda": 5601,
      "hets": 5602,
      "▁brans": 5603,
      "▁grän": 5604,
      "▁träffa": 5605,
      "etr": 5606,
      "delen": 5607,
      "sprung": 5608,
      "▁Eng": 5609,
      "▁katt": 5610,
      "▁rull": 5611,
      "▁sek": 5612,
      "▁ko": 5613,
      "amin": 5614,
      "ica": 5615,
      "▁kompetens": 5616,
      "styrelsen": 5617,
      "ting": 5618,
      "▁hit": 5619,
      "ake": 5620,
      "änning": 5621,
      "▁anställda": 5622,
      "▁vägg": 5623,
      "▁viktigaste": 5624,
      "▁handel": 5625,
      "▁tving": 5626,
      "▁scen": 5627,
      "IK": 5628,
      "▁betydelse": 5629,
      "▁övrigt": 5630,
      "stor": 5631,
      "slös": 5632,
      "▁hum": 5633,
      "▁sann": 5634,
      "▁Nil": 5635,
      "▁trafik": 5636,
      "▁vers": 5637,
      "▁trädgård": 5638,
      "▁kommande": 5639,
      "▁ak": 5640,
      "ätta": 5641,
      "▁storlek": 5642,
      "▁väder": 5643,
      "▁pappa": 5644,
      "▁läst": 5645,
      "▁pension": 5646,
      "▁nöj": 5647,
      "▁önskar": 5648,
      "▁dels": 5649,
      "▁Barn": 5650,
      "▁kostar": 5651,
      "▁triv": 5652,
      "ordning": 5653,
      "▁hösten": 5654,
      "▁ark": 5655,
      "▁försäkring": 5656,
      "▁tydligt": 5657,
      "urser": 5658,
      "▁sh": 5659,
      "edagog": 5660,
      "▁hittade": 5661,
      "ement": 5662,
      "▁öppen": 5663,
      "ood": 5664,
      "▁kil": 5665,
      "ställd": 5666,
      "önt": 5667,
      "▁bonus": 5668,
      "▁nor": 5669,
      "▁platt": 5670,
      "▁neg": 5671,
      "▁port": 5672,
      "marna": 5673,
      "▁ons": 5674,
      "▁enkla": 5675,
      "rustning": 5676,
      "entligt": 5677,
      "▁no": 5678,
      "▁vuxna": 5679,
      "urna": 5680,
      "▁amb": 5681,
      "visor": 5682,
      "▁skäl": 5683,
      "nummer": 5684,
      "▁närmare": 5685,
      "▁drar": 5686,
      "kraft": 5687,
      "▁Person": 5688,
      "sc": 5689,
      "▁hållbar": 5690,
      "ämta": 5691,
      "▁bord": 5692,
      "▁mjöl": 5693,
      "▁organisation": 5694,
      "▁påverkar": 5695,
      "ÖR": 5696,
      "▁priset": 5697,
      "▁däremot": 5698,
      "bas": 5699,
      "▁sjun": 5700,
      "fören": 5701,
      "▁läkemedel": 5702,
      "▁jämfört": 5703,
      "rika": 5704,
      "orlunda": 5705,
      "▁trodde": 5706,
      "▁dotter": 5707,
      "▁Sl": 5708,
      "za": 5709,
      "▁san": 5710,
      "▁leda": 5711,
      "▁Skån": 5712,
      "▁läge": 5713,
      "▁rom": 5714,
      "▁ME": 5715,
      "▁extre": 5716,
      "▁rabatt": 5717,
      "oret": 5718,
      "ve": 5719,
      "▁Varje": 5720,
      "ancer": 5721,
      "istik": 5722,
      "▁utbud": 5723,
      "▁äter": 5724,
      "▁Peter": 5725,
      "arder": 5726,
      "organis": 5727,
      "istiska": 5728,
      "▁lördag": 5729,
      "▁Trots": 5730,
      "▁ändra": 5731,
      "▁butik": 5732,
      "▁Carl": 5733,
      "▁mej": 5734,
      "▁Uppsala": 5735,
      "▁försök": 5736,
      "▁testa": 5737,
      "▁personliga": 5738,
      "valt": 5739,
      "jul": 5740,
      "▁laget": 5741,
      "ötsligt": 5742,
      "▁Bes": 5743,
      "▁idrott": 5744,
      "änta": 5745,
      "▁prote": 5746,
      "oklad": 5747,
      "jting": 5748,
      "▁ställer": 5749,
      "▁punkt": 5750,
      "▁Kal": 5751,
      "▁vardag": 5752,
      "▁special": 5753,
      "▁rö": 5754,
      "▁brev": 5755,
      "anger": 5756,
      "server": 5757,
      "året": 5758,
      "▁betydligt": 5759,
      "häl": 5760,
      "▁He": 5761,
      "▁tankar": 5762,
      "ici": 5763,
      "▁besökare": 5764,
      "▁tryck": 5765,
      "öns": 5766,
      "åda": 5767,
      "iot": 5768,
      "bjud": 5769,
      "▁tjej": 5770,
      "▁användning": 5771,
      "lay": 5772,
      "nov": 5773,
      "platsen": 5774,
      "orge": 5775,
      "▁SV": 5776,
      "iat": 5777,
      "▁kött": 5778,
      "enting": 5779,
      "▁Hoppas": 5780,
      "▁fönster": 5781,
      "unkter": 5782,
      "▁röd": 5783,
      "▁planera": 5784,
      "St": 5785,
      "▁någonsin": 5786,
      "▁Am": 5787,
      "örd": 5788,
      "▁nag": 5789,
      "▁Två": 5790,
      "▁Fortsätt": 5791,
      "▁specif": 5792,
      "lic": 5793,
      "trakt": 5794,
      "▁tjänst": 5795,
      "▁budget": 5796,
      "▁slå": 5797,
      "igg": 5798,
      "rala": 5799,
      "sd": 5800,
      "stift": 5801,
      "▁Företag": 5802,
      "▁höj": 5803,
      "aker": 5804,
      "▁sal": 5805,
      "pat": 5806,
      "hav": 5807,
      "▁vore": 5808,
      "▁kaffe": 5809,
      "▁filmen": 5810,
      "kast": 5811,
      "▁ev": 5812,
      "▁intervju": 5813,
      "▁regl": 5814,
      "stra": 5815,
      "▁kommuna": 5816,
      "skapet": 5817,
      "ftet": 5818,
      "▁Gre": 5819,
      "▁träna": 5820,
      "▁säm": 5821,
      "▁diskuss": 5822,
      "▁flytta": 5823,
      "▁Tänk": 5824,
      "▁ständ": 5825,
      "▁ses": 5826,
      "▁lägenhet": 5827,
      "frågan": 5828,
      "▁starkt": 5829,
      "▁avs": 5830,
      "inge": 5831,
      "▁back": 5832,
      "▁kvart": 5833,
      "uren": 5834,
      "▁guld": 5835,
      "▁fantastiskt": 5836,
      "▁ång": 5837,
      "▁Spel": 5838,
      "▁drog": 5839,
      "kopp": 5840,
      "▁poj": 5841,
      "ges": 5842,
      "bol": 5843,
      "elat": 5844,
      "out": 5845,
      "färd": 5846,
      "▁Mycket": 5847,
      "slagen": 5848,
      "lam": 5849,
      "▁självklart": 5850,
      "▁därefter": 5851,
      "▁tis": 5852,
      "▁Hall": 5853,
      "▁fir": 5854,
      "ial": 5855,
      "▁natten": 5856,
      "▁yt": 5857,
      "▁Ul": 5858,
      "▁mängd": 5859,
      "▁utrym": 5860,
      "klam": 5861,
      "▁bev": 5862,
      "▁ändring": 5863,
      "▁gymnas": 5864,
      "In": 5865,
      "▁Anmäl": 5866,
      "▁rym": 5867,
      "▁tak": 5868,
      "▁sist": 5869,
      "▁önsk": 5870,
      "▁tillstånd": 5871,
      "gn": 5872,
      "ingsl": 5873,
      "sr": 5874,
      "▁dejtingsa": 5875,
      "▁my": 5876,
      "▁ret": 5877,
      "minst": 5878,
      "ötter": 5879,
      "▁förutsättningar": 5880,
      "pren": 5881,
      "arens": 5882,
      "▁nej": 5883,
      "▁söndag": 5884,
      "▁handla": 5885,
      "▁htt": 5886,
      "▁intr": 5887,
      "▁drygt": 5888,
      "▁politik": 5889,
      "▁göras": 5890,
      "▁billigt": 5891,
      "son": 5892,
      "▁görs": 5893,
      "ana": 5894,
      "▁motor": 5895,
      "▁utvecklas": 5896,
      "ckar": 5897,
      "▁mäng": 5898,
      "rang": 5899,
      "etabl": 5900,
      "▁saknar": 5901,
      "▁föresl": 5902,
      "▁tillämp": 5903,
      "▁rent": 5904,
      "▁boll": 5905,
      "ydda": 5906,
      "▁vanlig": 5907,
      "▁Hitta": 5908,
      "▁fotograf": 5909,
      "vakt": 5910,
      "itar": 5911,
      "▁ass": 5912,
      "▁nord": 5913,
      "▁hård": 5914,
      "▁sidor": 5915,
      "▁listan": 5916,
      "derna": 5917,
      "kam": 5918,
      "▁karakt": 5919,
      "▁Bok": 5920,
      "▁ursprung": 5921,
      "▁Mitt": 5922,
      "▁ordning": 5923,
      "skning": 5924,
      "▁tand": 5925,
      "åter": 5926,
      "▁politiska": 5927,
      "▁ligga": 5928,
      "▁Andersson": 5929,
      "▁vänta": 5930,
      "▁present": 5931,
      "we": 5932,
      "▁ägg": 5933,
      "▁pati": 5934,
      "▁Finns": 5935,
      "lund": 5936,
      "▁SM": 5937,
      "▁lager": 5938,
      "tligen": 5939,
      "ändska": 5940,
      "▁lugn": 5941,
      "kohol": 5942,
      "▁förbättra": 5943,
      "onom": 5944,
      "▁snö": 5945,
      "kont": 5946,
      "▁etc": 5947,
      "▁läkare": 5948,
      "ansvar": 5949,
      "▁ihåg": 5950,
      "▁Ibland": 5951,
      "▁spelade": 5952,
      "XX": 5953,
      "▁käll": 5954,
      "▁hantera": 5955,
      "▁kändes": 5956,
      "rapp": 5957,
      "▁mesta": 5958,
      "▁varmt": 5959,
      "▁våren": 5960,
      "▁färger": 5961,
      "▁mång": 5962,
      "▁Kina": 5963,
      "agg": 5964,
      "stav": 5965,
      "▁bolaget": 5966,
      "▁ne": 5967,
      "▁vir": 5968,
      "▁middag": 5969,
      "▁Foto": 5970,
      "▁gravid": 5971,
      "tryck": 5972,
      "▁köper": 5973,
      "▁inred": 5974,
      "hang": 5975,
      "▁lämnar": 5976,
      "ssystem": 5977,
      "▁adress": 5978,
      "samling": 5979,
      "gången": 5980,
      "▁Bet": 5981,
      "▁Tre": 5982,
      "▁tuff": 5983,
      "slaget": 5984,
      "▁sikt": 5985,
      "▁talar": 5986,
      "ologiska": 5987,
      "▁Ham": 5988,
      "oo": 5989,
      "▁aktiviteter": 5990,
      "ämm": 5991,
      "▁leg": 5992,
      "▁äntligen": 5993,
      "▁Tor": 5994,
      "▁sälja": 5995,
      "▁dej": 5996,
      "▁Gl": 5997,
      "▁utnytt": 5998,
      "▁vattnet": 5999,
      "▁bekväm": 6000,
      "▁siff": 6001,
      "▁digit": 6002,
      "▁detalj": 6003,
      "▁förh": 6004,
      "▁Mart": 6005,
      "aten": 6006,
      "▁Social": 6007,
      "▁uppn": 6008,
      "området": 6009,
      "▁inklu": 6010,
      "▁Stad": 6011,
      "▁Ge": 6012,
      "skaper": 6013,
      "▁Fråg": 6014,
      "ställningar": 6015,
      "elt": 6016,
      "▁ökad": 6017,
      "▁sim": 6018,
      "tes": 6019,
      "skär": 6020,
      "stitut": 6021,
      "▁ekonomi": 6022,
      "▁Bara": 6023,
      "▁fantastisk": 6024,
      "gruppen": 6025,
      "▁imorgon": 6026,
      "när": 6027,
      "▁stabil": 6028,
      "inar": 6029,
      "ödra": 6030,
      "▁marknadsför": 6031,
      "▁vars": 6032,
      "färg": 6033,
      "TT": 6034,
      "▁givet": 6035,
      "▁dagarna": 6036,
      "ktor": 6037,
      "kommer": 6038,
      "▁trevlig": 6039,
      "ec": 6040,
      "▁kommentarer": 6041,
      "uta": 6042,
      "vägen": 6043,
      "▁solen": 6044,
      "▁Fram": 6045,
      "▁Vet": 6046,
      "▁osv": 6047,
      "▁Först": 6048,
      "verige": 6049,
      "▁Maria": 6050,
      "▁jur": 6051,
      "▁grader": 6052,
      "tv": 6053,
      "Vi": 6054,
      "▁Tur": 6055,
      "fan": 6056,
      "▁Hotell": 6057,
      "▁kat": 6058,
      "▁yn": 6059,
      "▁Ed": 6060,
      "ula": 6061,
      "dels": 6062,
      "nämn": 6063,
      "▁demokrat": 6064,
      "▁vind": 6065,
      "▁Lars": 6066,
      "▁naturligtvis": 6067,
      "uts": 6068,
      "▁utvecklingen": 6069,
      "▁välkom": 6070,
      "deras": 6071,
      "börj": 6072,
      "▁matcher": 6073,
      "▁resten": 6074,
      "rande": 6075,
      "uset": 6076,
      "▁försäljning": 6077,
      "▁Mål": 6078,
      "▁pratar": 6079,
      "gera": 6080,
      "▁IN": 6081,
      "▁ungdomar": 6082,
      "▁rejäl": 6083,
      "▁automat": 6084,
      "▁sil": 6085,
      "▁vinst": 6086,
      "▁yrkes": 6087,
      "▁kre": 6088,
      "▁analys": 6089,
      "▁Välkommen": 6090,
      "▁varier": 6091,
      "läs": 6092,
      "▁medarbetare": 6093,
      "▁studie": 6094,
      "▁njuta": 6095,
      "▁Ka": 6096,
      "▁sova": 6097,
      "▁glob": 6098,
      "▁kategor": 6099,
      "vr": 6100,
      "minstone": 6101,
      "fton": 6102,
      "▁Land": 6103,
      "▁knappt": 6104,
      "▁partner": 6105,
      "▁inklusive": 6106,
      "▁avsnitt": 6107,
      "▁prest": 6108,
      "▁ges": 6109,
      "▁bem": 6110,
      "▁Äl": 6111,
      "▁ingenting": 6112,
      "▁huvudet": 6113,
      "▁dukt": 6114,
      "▁mjuk": 6115,
      "ight": 6116,
      "▁restaurang": 6117,
      "ep": 6118,
      "sut": 6119,
      "▁genomsnitt": 6120,
      "▁sål": 6121,
      "▁förbi": 6122,
      "▁undvika": 6123,
      "▁period": 6124,
      "▁vita": 6125,
      "▁fritid": 6126,
      "ilt": 6127,
      "omas": 6128,
      "ESS": 6129,
      "▁mun": 6130,
      "▁platsen": 6131,
      "▁Några": 6132,
      "▁IT": 6133,
      "▁bevis": 6134,
      "▁internationella": 6135,
      "▁promenad": 6136,
      "▁arg": 6137,
      "▁enhet": 6138,
      "▁tänk": 6139,
      "▁undrar": 6140,
      "ungen": 6141,
      "▁dest": 6142,
      "▁musk": 6143,
      "▁kyl": 6144,
      "eden": 6145,
      "▁kurs": 6146,
      "▁rygg": 6147,
      "▁tittar": 6148,
      "ogle": 6149,
      "pack": 6150,
      "▁accep": 6151,
      "▁åsikt": 6152,
      "▁Mon": 6153,
      "▁dyg": 6154,
      "▁bilar": 6155,
      "▁fantastiska": 6156,
      "▁åtta": 6157,
      "▁spelet": 6158,
      "▁mänsk": 6159,
      "▁sluta": 6160,
      "▁ansökan": 6161,
      "gj": 6162,
      "åp": 6163,
      "hy": 6164,
      "▁Matt": 6165,
      "ette": 6166,
      "▁aktie": 6167,
      "▁nr": 6168,
      "▁sid": 6169,
      "▁tråk": 6170,
      "▁Mal": 6171,
      "▁växer": 6172,
      "▁starka": 6173,
      "▁nyck": 6174,
      "▁varm": 6175,
      "▁Låt": 6176,
      "▁projektet": 6177,
      "nu": 6178,
      "▁bloggen": 6179,
      "▁fungera": 6180,
      "▁antingen": 6181,
      "▁Lite": 6182,
      "fors": 6183,
      "▁Hol": 6184,
      "rister": 6185,
      "sida": 6186,
      "▁matt": 6187,
      "▁Produ": 6188,
      "skv": 6189,
      "▁bakgrund": 6190,
      "▁annorlunda": 6191,
      "ometer": 6192,
      "uck": 6193,
      "▁förmåga": 6194,
      "klass": 6195,
      "▁straff": 6196,
      "ura": 6197,
      "▁princip": 6198,
      "▁central": 6199,
      "▁syfte": 6200,
      "▁dålig": 6201,
      "tim": 6202,
      "▁balans": 6203,
      "sprogram": 6204,
      "▁Jes": 6205,
      "CH": 6206,
      "skri": 6207,
      "stån": 6208,
      "▁plötsligt": 6209,
      "▁förutom": 6210,
      "▁Folk": 6211,
      "▁tråd": 6212,
      "äning": 6213,
      "▁dyr": 6214,
      "▁underl": 6215,
      "▁anses": 6216,
      "amen": 6217,
      "utbildning": 6218,
      "▁standard": 6219,
      "▁valde": 6220,
      "▁Nya": 6221,
      "▁växt": 6222,
      "▁mår": 6223,
      "ostäder": 6224,
      "hamn": 6225,
      "handa": 6226,
      "▁räcker": 6227,
      "▁kommuner": 6228,
      "▁lösa": 6229,
      "▁paket": 6230,
      "▁Hand": 6231,
      "▁Sund": 6232,
      "▁Ek": 6233,
      "▁utform": 6234,
      "▁berör": 6235,
      "ice": 6236,
      "ident": 6237,
      "▁funn": 6238,
      "▁stär": 6239,
      "▁ökat": 6240,
      "▁Bygg": 6241,
      "▁regn": 6242,
      "▁Ba": 6243,
      "▁förändring": 6244,
      "anten": 6245,
      "▁haha": 6246,
      "▁mod": 6247,
      "▁möjligheten": 6248,
      "▁ap": 6249,
      "▁roliga": 6250,
      "emat": 6251,
      "▁etabl": 6252,
      "▁omdöme": 6253,
      "tter": 6254,
      "▁Sätt": 6255,
      "▁prova": 6256,
      "▁🙂": 6257,
      "▁ry": 6258,
      "▁Christ": 6259,
      "▁någonting": 6260,
      "▁Dom": 6261,
      "▁konf": 6262,
      "▁www": 6263,
      "▁Ans": 6264,
      "▁Vilken": 6265,
      "▁dejtings": 6266,
      "▁högst": 6267,
      "▁namnet": 6268,
      "▁hittat": 6269,
      "▁värd": 6270,
      "▁alkohol": 6271,
      "▁bro": 6272,
      "ssa": 6273,
      "gin": 6274,
      "polit": 6275,
      "▁mannen": 6276,
      "▁internation": 6277,
      "▁Pat": 6278,
      "▁nåt": 6279,
      "gt": 6280,
      "▁Finland": 6281,
      "▁Tysk": 6282,
      "▁Fredrik": 6283,
      "▁kapital": 6284,
      "▁lyckades": 6285,
      "▁band": 6286,
      "▁Frank": 6287,
      "▁tillgängliga": 6288,
      "▁lyssna": 6289,
      "▁klarar": 6290,
      "▁dusch": 6291,
      "▁skickade": 6292,
      "▁OK": 6293,
      "▁bekr": 6294,
      "tiden": 6295,
      "äde": 6296,
      "▁lösningar": 6297,
      "RA": 6298,
      "iment": 6299,
      "enskaper": 6300,
      "▁Ph": 6301,
      "rim": 6302,
      "▁visste": 6303,
      "▁bestämm": 6304,
      "▁starta": 6305,
      "▁resultatet": 6306,
      "▁flick": 6307,
      "sbolag": 6308,
      "▁pan": 6309,
      "▁kallade": 6310,
      "mäss": 6311,
      "▁Hels": 6312,
      "▁rättigheter": 6313,
      "ledare": 6314,
      "▁patienter": 6315,
      "irekt": 6316,
      "tida": 6317,
      "▁choklad": 6318,
      "▁Val": 6319,
      "▁terr": 6320,
      "igur": 6321,
      "▁brand": 6322,
      "orden": 6323,
      "▁ST": 6324,
      "iens": 6325,
      "▁he": 6326,
      "▁målet": 6327,
      "▁norr": 6328,
      "▁bidra": 6329,
      "▁lagt": 6330,
      "▁nyhet": 6331,
      "ign": 6332,
      "liggör": 6333,
      "▁släkt": 6334,
      "▁slog": 6335,
      "bert": 6336,
      "▁Igår": 6337,
      "ele": 6338,
      "fun": 6339,
      "▁dö": 6340,
      "▁härlig": 6341,
      "▁Våra": 6342,
      "▁nuvarande": 6343,
      "Mer": 6344,
      "delningen": 6345,
      "ministr": 6346,
      "dret": 6347,
      "▁Sc": 6348,
      "ild": 6349,
      "▁medborg": 6350,
      "yter": 6351,
      "▁hänt": 6352,
      "▁Johansson": 6353,
      "leken": 6354,
      "arbetet": 6355,
      "ment": 6356,
      "▁Da": 6357,
      "▁söm": 6358,
      "▁känd": 6359,
      "▁barnet": 6360,
      "▁struktur": 6361,
      "▁kommunikation": 6362,
      "▁svara": 6363,
      "▁miljarder": 6364,
      "▁mitten": 6365,
      "▁kass": 6366,
      "▁nummer": 6367,
      "▁reklam": 6368,
      "▁fe": 6369,
      "▁häv": 6370,
      "▁Andra": 6371,
      "▁sla": 6372,
      "rätten": 6373,
      "▁lista": 6374,
      "▁såklart": 6375,
      "▁takt": 6376,
      "▁möjliga": 6377,
      "▁arm": 6378,
      "oga": 6379,
      "▁studier": 6380,
      "▁Bor": 6381,
      "▁modell": 6382,
      "▁Kung": 6383,
      "▁situation": 6384,
      "▁förtro": 6385,
      "ern": 6386,
      "▁myndighet": 6387,
      "skrivning": 6388,
      "▁fallet": 6389,
      "▁satte": 6390,
      "off": 6391,
      "▁sällan": 6392,
      "▁klicka": 6393,
      "add": 6394,
      "OM": 6395,
      "hel": 6396,
      "▁städ": 6397,
      "▁passa": 6398,
      "här": 6399,
      "minister": 6400,
      "▁spara": 6401,
      "satta": 6402,
      "▁omdömet": 6403,
      "IG": 6404,
      "▁fö": 6405,
      "porter": 6406,
      "▁öppet": 6407,
      "▁kast": 6408,
      "ire": 6409,
      "▁plast": 6410,
      "▁visas": 6411,
      "▁sannol": 6412,
      "▁datorn": 6413,
      "▁Con": 6414,
      "jälp": 6415,
      "▁App": 6416,
      "▁konsum": 6417,
      "erier": 6418,
      "▁plus": 6419,
      "▁hotellet": 6420,
      "▁fordon": 6421,
      "▁rummet": 6422,
      "delser": 6423,
      "▁eftermid": 6424,
      "▁Helsing": 6425,
      "▁sättet": 6426,
      "▁IF": 6427,
      "▁säljer": 6428,
      "dejting": 6429,
      "▁välj": 6430,
      "▁föred": 6431,
      "▁gäst": 6432,
      "▁övert": 6433,
      "▁medier": 6434,
      "▁transport": 6435,
      "blick": 6436,
      "▁trevligt": 6437,
      "klare": 6438,
      "star": 6439,
      "▁Red": 6440,
      "▁lock": 6441,
      "▁timme": 6442,
      "▁lans": 6443,
      "klubb": 6444,
      "ledningen": 6445,
      "givning": 6446,
      "odligen": 6447,
      "▁beställ": 6448,
      "▁delta": 6449,
      "▁älska": 6450,
      "qvist": 6451,
      "▁tum": 6452,
      "▁längs": 6453,
      "ID": 6454,
      "▁människa": 6455,
      "▁himla": 6456,
      "▁antag": 6457,
      "▁perfekta": 6458,
      "frågor": 6459,
      "lats": 6460,
      "rike": 6461,
      "▁korrekt": 6462,
      "▁skrevs": 6463,
      "DRESS": 6464,
      "bum": 6465,
      "SS": 6466,
      "▁detaljer": 6467,
      "▁intresserad": 6468,
      "▁kra": 6469,
      "sting": 6470,
      "park": 6471,
      "▁San": 6472,
      "tekn": 6473,
      "▁Im": 6474,
      "▁gett": 6475,
      "▁modern": 6476,
      "▁Fär": 6477,
      "▁upprätt": 6478,
      "ruktion": 6479,
      "okies": 6480,
      "▁plocka": 6481,
      "▁inl": 6482,
      "ror": 6483,
      "▁journa": 6484,
      "▁mottag": 6485,
      "lir": 6486,
      "▁Kr": 6487,
      "dell": 6488,
      "▁tung": 6489,
      "▁normalt": 6490,
      "En": 6491,
      "åå": 6492,
      "äkerhet": 6493,
      "▁nyf": 6494,
      "TE": 6495,
      "▁måndag": 6496,
      "▁mail": 6497,
      "cher": 6498,
      "ikro": 6499,
      "▁inform": 6500,
      "elsens": 6501,
      "list": 6502,
      "JLA": 6503,
      "▁Natur": 6504,
      "▁vol": 6505,
      "JLADRESS": 6506,
      "▁Pr": 6507,
      "▁Ra": 6508,
      "änga": 6509,
      "▁fett": 6510,
      "▁lösning": 6511,
      "arv": 6512,
      "läggande": 6513,
      "umm": 6514,
      "▁Öre": 6515,
      "▁visat": 6516,
      "▁bröst": 6517,
      "iven": 6518,
      "ffan": 6519,
      "▁relativt": 6520,
      "▁relig": 6521,
      "por": 6522,
      "▁vacker": 6523,
      "peiska": 6524,
      "▁Din": 6525,
      "isering": 6526,
      "▁son": 6527,
      "▁populära": 6528,
      "▁Inne": 6529,
      "▁järn": 6530,
      "▁perspektiv": 6531,
      "▁ras": 6532,
      "▁risken": 6533,
      "▁amerikanska": 6534,
      "osen": 6535,
      "▁skilj": 6536,
      "▁havet": 6537,
      "nal": 6538,
      "▁pengarna": 6539,
      "▁förhållande": 6540,
      "▁fack": 6541,
      "nivå": 6542,
      "▁dvs": 6543,
      "▁närmaste": 6544,
      "▁Vilka": 6545,
      "▁programmet": 6546,
      "ED": 6547,
      "▁arbetsplats": 6548,
      "▁ledande": 6549,
      "▁syns": 6550,
      "▁riktig": 6551,
      "▁besöka": 6552,
      "ogen": 6553,
      "▁Ob": 6554,
      "▁Förutom": 6555,
      "▁avsl": 6556,
      "SK": 6557,
      "▁finansier": 6558,
      "antag": 6559,
      "▁uppen": 6560,
      "▁stanna": 6561,
      "▁sång": 6562,
      "▁gäng": 6563,
      "▁snarare": 6564,
      "rick": 6565,
      "hört": 6566,
      "▁numera": 6567,
      "läk": 6568,
      "▁samhälle": 6569,
      "▁åtminstone": 6570,
      "smål": 6571,
      "▁lo": 6572,
      "▁Dock": 6573,
      "▁ill": 6574,
      "▁ir": 6575,
      "▁kända": 6576,
      "▁tillväxt": 6577,
      "▁Visst": 6578,
      "vers": 6579,
      "▁huden": 6580,
      "▁körde": 6581,
      "▁ordentligt": 6582,
      "akta": 6583,
      "▁Skåne": 6584,
      "▁sjukhus": 6585,
      "▁strax": 6586,
      "▁bete": 6587,
      "▁Stud": 6588,
      "▁Ind": 6589,
      "▁förvär": 6590,
      "terat": 6591,
      "▁djup": 6592,
      "entera": 6593,
      "▁last": 6594,
      "bi": 6595,
      "yser": 6596,
      "▁Klicka": 6597,
      "▁Vin": 6598,
      "▁köpt": 6599,
      "▁nätverk": 6600,
      "▁Fal": 6601,
      "▁Post": 6602,
      "▁Välj": 6603,
      "▁betalar": 6604,
      "▁väst": 6605,
      "▁objekt": 6606,
      "sorg": 6607,
      "▁aktuella": 6608,
      "▁enklare": 6609,
      "▁sammanhang": 6610,
      "▁frisk": 6611,
      "▁stats": 6612,
      "fot": 6613,
      "▁vetenskap": 6614,
      "träd": 6615,
      "▁installer": 6616,
      "▁överens": 6617,
      "▁motstånd": 6618,
      "▁hört": 6619,
      "▁jakt": 6620,
      "▁behåll": 6621,
      "▁valet": 6622,
      "ista": 6623,
      "▁Vissa": 6624,
      "önstr": 6625,
      "▁diskuter": 6626,
      "▁herr": 6627,
      "▁brist": 6628,
      "▁bidrar": 6629,
      "▁finner": 6630,
      "bor": 6631,
      "aken": 6632,
      "derade": 6633,
      "behör": 6634,
      "▁inrikt": 6635,
      "stöd": 6636,
      "brik": 6637,
      "▁funkar": 6638,
      "▁optim": 6639,
      "▁häns": 6640,
      "stat": 6641,
      "▁papper": 6642,
      "▁stig": 6643,
      "▁Park": 6644,
      "ise": 6645,
      "▁Tyvärr": 6646,
      "▁gjor": 6647,
      "▁Örebro": 6648,
      "▁kollektiv": 6649,
      "▁värt": 6650,
      "jter": 6651,
      "▁mått": 6652,
      "sterna": 6653,
      "kret": 6654,
      "indra": 6655,
      "äta": 6656,
      "▁bibli": 6657,
      "varo": 6658,
      "▁ov": 6659,
      "▁fört": 6660,
      "resen": 6661,
      "säg": 6662,
      "lo": 6663,
      "natt": 6664,
      "▁nyligen": 6665,
      "▁äger": 6666,
      "▁On": 6667,
      "▁skyld": 6668,
      "▁tjejer": 6669,
      "För": 6670,
      "hålla": 6671,
      "▁äkt": 6672,
      "▁höjd": 6673,
      "gra": 6674,
      "sköter": 6675,
      "▁Jön": 6676,
      "ingarna": 6677,
      "▁skada": 6678,
      "▁rim": 6679,
      "pos": 6680,
      "▁erk": 6681,
      "▁utgång": 6682,
      "▁smart": 6683,
      "▁slags": 6684,
      "syn": 6685,
      "Ja": 6686,
      "▁Bolag": 6687,
      "▁huvudsak": 6688,
      "▁innov": 6689,
      "▁intens": 6690,
      "▁temperatur": 6691,
      "olket": 6692,
      "▁tunn": 6693,
      "▁uttal": 6694,
      "bergs": 6695,
      "▁kalla": 6696,
      "▁ät": 6697,
      "dex": 6698,
      "▁Hade": 6699,
      "▁industri": 6700,
      "änna": 6701,
      "▁oer": 6702,
      "▁utsikt": 6703,
      "▁Art": 6704,
      "gande": 6705,
      "▁morgonen": 6706,
      "▁Kontakt": 6707,
      "▁undan": 6708,
      "kör": 6709,
      "ättra": 6710,
      "▁Tyskland": 6711,
      "sor": 6712,
      "▁Magn": 6713,
      "AL": 6714,
      "mg": 6715,
      "▁härligt": 6716,
      "▁MEJLADRESS": 6717,
      "▁smör": 6718,
      "▁ökade": 6719,
      "ots": 6720,
      "▁centrala": 6721,
      "▁chansen": 6722,
      "▁US": 6723,
      "sbe": 6724,
      "riär": 6725,
      "unga": 6726,
      "ståndet": 6727,
      "yggen": 6728,
      "▁lyckats": 6729,
      "öf": 6730,
      "▁problemet": 6731,
      "▁ledare": 6732,
      "▁hyr": 6733,
      "▁mät": 6734,
      "rådet": 6735,
      "ith": 6736,
      "▁flykt": 6737,
      "▁Gen": 6738,
      "▁befolk": 6739,
      "▁tala": 6740,
      "trepren": 6741,
      "▁dis": 6742,
      "▁sämre": 6743,
      "▁hamn": 6744,
      "derat": 6745,
      "▁Nästa": 6746,
      "▁Lar": 6747,
      "▁tyst": 6748,
      "▁slutade": 6749,
      "▁profession": 6750,
      "▁sorter": 6751,
      "▁Skulle": 6752,
      "▁inlägget": 6753,
      "▁sing": 6754,
      "ids": 6755,
      "▁ersättning": 6756,
      "▁fåg": 6757,
      "▁ställe": 6758,
      "ensen": 6759,
      "▁möta": 6760,
      "onn": 6761,
      "▁Cent": 6762,
      "ome": 6763,
      "inne": 6764,
      "▁rekommenderar": 6765,
      "▁omöj": 6766,
      "▁förändringar": 6767,
      "äckning": 6768,
      "▁ladd": 6769,
      "itionen": 6770,
      "barn": 6771,
      "▁Må": 6772,
      "▁anl": 6773,
      "▁vand": 6774,
      "▁omfattande": 6775,
      "▁sent": 6776,
      "▁renover": 6777,
      "▁Her": 6778,
      "▁konsekv": 6779,
      "▁team": 6780,
      "spelare": 6781,
      "Tack": 6782,
      "▁leverans": 6783,
      "ific": 6784,
      "▁torr": 6785,
      "gatan": 6786,
      "▁berättade": 6787,
      "▁klipp": 6788,
      "▁positivt": 6789,
      "▁förhand": 6790,
      "▁hämta": 6791,
      "tjänst": 6792,
      "▁Tim": 6793,
      "▁förhopp": 6794,
      "▁vinn": 6795,
      "anken": 6796,
      "▁seger": 6797,
      "uc": 6798,
      "zz": 6799,
      "▁Bro": 6800,
      "▁skul": 6801,
      "jöd": 6802,
      "dern": 6803,
      "öllop": 6804,
      "ycke": 6805,
      "▁batt": 6806,
      "▁ladda": 6807,
      "▁jätte": 6808,
      "▁gemensamma": 6809,
      "▁allmänna": 6810,
      "▁kontor": 6811,
      "▁ständigt": 6812,
      "▁Ins": 6813,
      "schef": 6814,
      "▁funktioner": 6815,
      "ytande": 6816,
      "ysning": 6817,
      "▁politiker": 6818,
      "vården": 6819,
      "▁hål": 6820,
      "stolen": 6821,
      "▁slår": 6822,
      "▁shopp": 6823,
      "▁öns": 6824,
      "ands": 6825,
      "släpp": 6826,
      "▁Resultat": 6827,
      "▁användare": 6828,
      "▁botten": 6829,
      "▁rev": 6830,
      "▁studen": 6831,
      "äp": 6832,
      "ben": 6833,
      "mäkt": 6834,
      "bell": 6835,
      "▁seg": 6836,
      "försälj": 6837,
      "▁föreläs": 6838,
      "▁Vem": 6839,
      "▁erbjudanden": 6840,
      "▁färdig": 6841,
      "värde": 6842,
      "eff": 6843,
      "▁vist": 6844,
      "▁ström": 6845,
      "laget": 6846,
      "▁ägare": 6847,
      "▁tillhanda": 6848,
      "▁illa": 6849,
      "▁sub": 6850,
      "▁Daniel": 6851,
      "▁Svar": 6852,
      "ätter": 6853,
      "▁digital": 6854,
      "▁informationen": 6855,
      "▁gill": 6856,
      "▁grupper": 6857,
      "▁svåra": 6858,
      "▁nödvändigt": 6859,
      "▁invån": 6860,
      "vatten": 6861,
      "▁magen": 6862,
      "▁låna": 6863,
      "▁snabbare": 6864,
      "EL": 6865,
      "▁tillfälle": 6866,
      "etten": 6867,
      "▁bestämt": 6868,
      "▁röda": 6869,
      "▁kem": 6870,
      "▁respekt": 6871,
      "▁hälso": 6872,
      "▁ref": 6873,
      "▁givetvis": 6874,
      "ckade": 6875,
      "issa": 6876,
      "räk": 6877,
      "▁sekt": 6878,
      "▁livsmedel": 6879,
      "aller": 6880,
      "▁varumär": 6881,
      "▁debatt": 6882,
      "▁bekräft": 6883,
      "▁motsvarande": 6884,
      "demokraterna": 6885,
      "▁SK": 6886,
      "▁tillåt": 6887,
      "▁resurser": 6888,
      "▁badrum": 6889,
      "▁unders": 6890,
      "rib": 6891,
      "▁utomhus": 6892,
      "start": 6893,
      "▁datum": 6894,
      "▁Dav": 6895,
      "▁Inga": 6896,
      "område": 6897,
      "linjer": 6898,
      "vikt": 6899,
      "▁drift": 6900,
      "▁Sta": 6901,
      "fel": 6902,
      "▁fyller": 6903,
      "▁lugnt": 6904,
      "enskt": 6905,
      "▁hänsyn": 6906,
      "▁strå": 6907,
      "▁Däremot": 6908,
      "▁beskriver": 6909,
      "▁Gam": 6910,
      "▁Första": 6911,
      "▁vackert": 6912,
      "ower": 6913,
      "▁skratt": 6914,
      "▁sånt": 6915,
      "▁socker": 6916,
      "resa": 6917,
      "▁lopp": 6918,
      "▁överra": 6919,
      "föra": 6920,
      "▁John": 6921,
      "▁minns": 6922,
      "▁tecken": 6923,
      "▁pågår": 6924,
      "▁gruppen": 6925,
      "ställningen": 6926,
      "▁utvär": 6927,
      "platser": 6928,
      "itivt": 6929,
      "ikat": 6930,
      "▁Sim": 6931,
      "vand": 6932,
      "oteket": 6933,
      "▁säkra": 6934,
      "▁vardags": 6935,
      "▁enskilda": 6936,
      "▁stycken": 6937,
      "▁ringa": 6938,
      "▁era": 6939,
      "▁konstigt": 6940,
      "▁lyx": 6941,
      "god": 6942,
      "▁potent": 6943,
      "fulla": 6944,
      "▁konto": 6945,
      "▁vari": 6946,
      "▁Norge": 6947,
      "▁Martin": 6948,
      "anen": 6949,
      "ulär": 6950,
      "ows": 6951,
      "världen": 6952,
      "▁digitala": 6953,
      "visa": 6954,
      "▁fing": 6955,
      "ommar": 6956,
      "nät": 6957,
      "▁SVT": 6958,
      "▁döm": 6959,
      "edda": 6960,
      "▁Hos": 6961,
      "fyll": 6962,
      "▁glädje": 6963,
      "ama": 6964,
      "▁uttryck": 6965,
      "▁bjuder": 6966,
      "mon": 6967,
      "▁spen": 6968,
      "bilar": 6969,
      "▁Sand": 6970,
      "sprocess": 6971,
      "hög": 6972,
      "mänt": 6973,
      "▁skogen": 6974,
      "kass": 6975,
      "▁följd": 6976,
      "▁upplevelse": 6977,
      "▁försökte": 6978,
      "icy": 6979,
      "ondon": 6980,
      "äls": 6981,
      "▁genomföra": 6982,
      "▁nytta": 6983,
      "▁parti": 6984,
      "projekt": 6985,
      "▁eleverna": 6986,
      "▁Internet": 6987,
      "▁Nilsson": 6988,
      "▁Fören": 6989,
      "▁inkomst": 6990,
      "kap": 6991,
      "▁omedel": 6992,
      "▁snabba": 6993,
      "▁kampan": 6994,
      "▁ru": 6995,
      "dömet": 6996,
      "änderna": 6997,
      "traf": 6998,
      "▁Ur": 6999,
      "▁ända": 7000,
      "fest": 7001,
      "▁begär": 7002,
      "▁titeln": 7003,
      "▁personlig": 7004,
      "AS": 7005,
      "jag": 7006,
      "entyr": 7007,
      "▁Kram": 7008,
      "▁God": 7009,
      "hi": 7010,
      "▁minskar": 7011,
      "▁ämnen": 7012,
      "ya": 7013,
      "▁idéer": 7014,
      "▁känslor": 7015,
      "▁Google": 7016,
      "▁parkering": 7017,
      "▁kunskaper": 7018,
      "▁Gun": 7019,
      "▁befinner": 7020,
      "▁stjärn": 7021,
      "▁möter": 7022,
      "An": 7023,
      "▁bilj": 7024,
      "änker": 7025,
      "▁varken": 7026,
      "gl": 7027,
      "▁systemet": 7028,
      "bler": 7029,
      "fält": 7030,
      "▁hittills": 7031,
      "▁försikt": 7032,
      "▁Stefan": 7033,
      "▁svag": 7034,
      "använd": 7035,
      "▁långsikt": 7036,
      "▁Tot": 7037,
      "▁grundläggande": 7038,
      "▁förmodligen": 7039,
      "▁th": 7040,
      "▁startade": 7041,
      "▁hyres": 7042,
      "ollar": 7043,
      "▁syss": 7044,
      "Ad": 7045,
      "▁Alex": 7046,
      "▁flex": 7047,
      "▁hamnar": 7048,
      "▁priori": 7049,
      "▁fjärde": 7050,
      "▁kram": 7051,
      "ines": 7052,
      "▁Dal": 7053,
      "äda": 7054,
      "▁sjön": 7055,
      "dela": 7056,
      "▁Jäm": 7057,
      "▁metoder": 7058,
      "▁översättning": 7059,
      "aktion": 7060,
      "kläder": 7061,
      "▁kyrkan": 7062,
      "▁profil": 7063,
      "låt": 7064,
      "▁initi": 7065,
      "▁Kat": 7066,
      "lov": 7067,
      "▁Svensk": 7068,
      "▁stick": 7069,
      "▁separ": 7070,
      "odde": 7071,
      "central": 7072,
      "vak": 7073,
      "▁Van": 7074,
      "sked": 7075,
      "ctor": 7076,
      "oritet": 7077,
      "▁juster": 7078,
      "centr": 7079,
      "ämpa": 7080,
      "ekonom": 7081,
      "▁skit": 7082,
      "struktur": 7083,
      "▁tider": 7084,
      "bilder": 7085,
      "språk": 7086,
      "▁lekt": 7087,
      "löst": 7088,
      "▁grad": 7089,
      "▁maten": 7090,
      "▁Få": 7091,
      "▁Lägg": 7092,
      "▁städer": 7093,
      "▁övertyg": 7094,
      "▁modeller": 7095,
      "▁Någon": 7096,
      "▁Vikt": 7097,
      "www": 7098,
      "▁framförallt": 7099,
      "▁hundar": 7100,
      "▁Information": 7101,
      "▁sjukvård": 7102,
      "▁förvar": 7103,
      "▁driver": 7104,
      "ada": 7105,
      "▁pedagog": 7106,
      "▁privata": 7107,
      "▁mjölk": 7108,
      "pol": 7109,
      "områden": 7110,
      "▁cookies": 7111,
      "▁känt": 7112,
      "▁perioden": 7113,
      "▁olyck": 7114,
      "▁ax": 7115,
      "▁butiker": 7116,
      "▁verksamheter": 7117,
      "sfören": 7118,
      "▁Förb": 7119,
      "ublic": 7120,
      "▁moderna": 7121,
      "▁avgift": 7122,
      "▁byggnad": 7123,
      "fria": 7124,
      "▁framtida": 7125,
      "onser": 7126,
      "troll": 7127,
      "eda": 7128,
      "beroende": 7129,
      "th": 7130,
      "▁tillverka": 7131,
      "rare": 7132,
      "▁funnits": 7133,
      "▁omsorg": 7134,
      "▁casin": 7135,
      "gas": 7136,
      "itekt": 7137,
      "äkter": 7138,
      "föring": 7139,
      "▁oför": 7140,
      "NING": 7141,
      "aden": 7142,
      "▁personen": 7143,
      "▁öppnar": 7144,
      "deringar": 7145,
      "▁enorm": 7146,
      "▁tol": 7147,
      "byggnad": 7148,
      "▁grå": 7149,
      "▁serien": 7150,
      "▁kombination": 7151,
      "▁inspiration": 7152,
      "pac": 7153,
      "▁organisationer": 7154,
      "▁Något": 7155,
      "▁oerhört": 7156,
      "▁nack": 7157,
      "▁erfarenheter": 7158,
      "staden": 7159,
      "▁minim": 7160,
      "jukdom": 7161,
      "▁Trip": 7162,
      "▁http": 7163,
      "▁grön": 7164,
      "▁hast": 7165,
      "▁aktivt": 7166,
      "▁rekr": 7167,
      "ea": 7168,
      "▁förutsättning": 7169,
      "▁vap": 7170,
      "▁rapport": 7171,
      "▁Innan": 7172,
      "▁svarar": 7173,
      "mel": 7174,
      "▁toppen": 7175,
      "▁fylla": 7176,
      "▁insatser": 7177,
      "undersök": 7178,
      "iff": 7179,
      "▁Ryss": 7180,
      "uth": 7181,
      "▁positiv": 7182,
      "yndigheten": 7183,
      "▁Is": 7184,
      "▁jobbat": 7185,
      "▁hav": 7186,
      "▁Herr": 7187,
      "▁golv": 7188,
      "angen": 7189,
      "▁jäv": 7190,
      "▁tapp": 7191,
      "ningens": 7192,
      "▁springa": 7193,
      "nars": 7194,
      "lipp": 7195,
      "▁nationella": 7196,
      "▁lämn": 7197,
      "ningsk": 7198,
      "▁Vän": 7199,
      "▁uts": 7200,
      "▁restauranger": 7201,
      "fred": 7202,
      "▁karaktär": 7203,
      "▁Skol": 7204,
      "▁växa": 7205,
      "▁fris": 7206,
      "IF": 7207,
      "▁iP": 7208,
      "▁Fri": 7209,
      "▁positiva": 7210,
      "▁effektivt": 7211,
      "▁ikväll": 7212,
      "ällen": 7213,
      "▁Sal": 7214,
      "▁fukt": 7215,
      "▁cit": 7216,
      "▁ot": 7217,
      "▁handling": 7218,
      "▁bruk": 7219,
      "▁tyg": 7220,
      "▁bilderna": 7221,
      "har": 7222,
      "▁dejta": 7223,
      "▁befint": 7224,
      "▁motiver": 7225,
      "gick": 7226,
      "▁korta": 7227,
      "▁Får": 7228,
      "bra": 7229,
      "▁glada": 7230,
      "▁räkna": 7231,
      "▁Andre": 7232,
      "▁fäng": 7233,
      "olut": 7234,
      "▁media": 7235,
      "▁håret": 7236,
      "omb": 7237,
      "öld": 7238,
      "dagens": 7239,
      "bladet": 7240,
      "▁Met": 7241,
      "▁aktiv": 7242,
      "fullt": 7243,
      "AD": 7244,
      "aterna": 7245,
      "atet": 7246,
      "arknaden": 7247,
      "ekan": 7248,
      "▁tekniska": 7249,
      "▁vå": 7250,
      "▁avgörande": 7251,
      "▁tycka": 7252,
      "▁snygga": 7253,
      "▁milit": 7254,
      "▁resan": 7255,
      "▁begrepp": 7256,
      "▁sväng": 7257,
      "▁närvarande": 7258,
      "juka": 7259,
      "▁metod": 7260,
      "strin": 7261,
      "▁Vilket": 7262,
      "▁administr": 7263,
      "intress": 7264,
      "▁fixa": 7265,
      "▁skrift": 7266,
      "gress": 7267,
      "▁Lär": 7268,
      "▁position": 7269,
      "oster": 7270,
      "▁redo": 7271,
      "delsen": 7272,
      "▁behövde": 7273,
      "djur": 7274,
      "▁bur": 7275,
      "▁söder": 7276,
      "egående": 7277,
      "andid": 7278,
      "▁nätdejting": 7279,
      "▁video": 7280,
      "meå": 7281,
      "▁blommor": 7282,
      "ema": 7283,
      "talien": 7284,
      "▁letar": 7285,
      "▁Plan": 7286,
      "ose": 7287,
      "äcken": 7288,
      "äckte": 7289,
      "old": 7290,
      "▁hyll": 7291,
      "skat": 7292,
      "arskap": 7293,
      "▁mening": 7294,
      "▁it": 7295,
      "isten": 7296,
      "udd": 7297,
      "isera": 7298,
      "▁represent": 7299,
      "anschen": 7300,
      "istan": 7301,
      "▁kallar": 7302,
      "fi": 7303,
      "elserna": 7304,
      "▁relation": 7305,
      "▁kontin": 7306,
      "▁Gar": 7307,
      "yrå": 7308,
      "▁föreningen": 7309,
      "▁sängen": 7310,
      "▁→": 7311,
      "▁Lag": 7312,
      "amål": 7313,
      "▁mönster": 7314,
      "yrka": 7315,
      "▁framgångs": 7316,
      "▁skiv": 7317,
      "go": 7318,
      "▁Danmark": 7319,
      "naderna": 7320,
      "▁Sport": 7321,
      "ockey": 7322,
      "ologisk": 7323,
      "▁besvär": 7324,
      "▁situationen": 7325,
      "▁London": 7326,
      "▁avseende": 7327,
      "▁Syd": 7328,
      "gångar": 7329,
      "ius": 7330,
      "▁startar": 7331,
      "usten": 7332,
      "RO": 7333,
      "▁Verk": 7334,
      "kyl": 7335,
      "▁filmer": 7336,
      "▁månaden": 7337,
      "tex": 7338,
      "kat": 7339,
      "uer": 7340,
      "▁förbund": 7341,
      "▁driva": 7342,
      "▁svarade": 7343,
      "äsch": 7344,
      "▁mött": 7345,
      "▁lämnade": 7346,
      "▁stött": 7347,
      "▁Väx": 7348,
      "▁Tel": 7349,
      "▁tillb": 7350,
      "olvet": 7351,
      "usik": 7352,
      "▁kak": 7353,
      "▁köket": 7354,
      "▁återv": 7355,
      "▁serie": 7356,
      "▁upplever": 7357,
      "lim": 7358,
      "▁York": 7359,
      "▁granskar": 7360,
      "▁extremt": 7361,
      "makt": 7362,
      "any": 7363,
      "▁kolleg": 7364,
      "▁naturen": 7365,
      "▁rakt": 7366,
      "▁härliga": 7367,
      "▁mängder": 7368,
      "▁dubbel": 7369,
      "▁arrang": 7370,
      "shus": 7371,
      "▁underbara": 7372,
      "punkter": 7373,
      "▁gräs": 7374,
      "▁skador": 7375,
      "▁ledam": 7376,
      "▁undantag": 7377,
      "▁vd": 7378,
      "▁Bild": 7379,
      "▁äm": 7380,
      "▁muse": 7381,
      "enhet": 7382,
      "tion": 7383,
      "material": 7384,
      "▁svarta": 7385,
      "▁bröd": 7386,
      "▁orsa": 7387,
      "▁konferens": 7388,
      "▁berg": 7389,
      "ledes": 7390,
      "▁klin": 7391,
      "▁Mich": 7392,
      "jung": 7393,
      "partiet": 7394,
      "▁beställa": 7395,
      "inen": 7396,
      "ners": 7397,
      "▁gal": 7398,
      "utera": 7399,
      "▁smitt": 7400,
      "slan": 7401,
      "▁föreb": 7402,
      "▁bostäder": 7403,
      "grupper": 7404,
      "▁veg": 7405,
      "då": 7406,
      "ira": 7407,
      "ICK": 7408,
      "▁avgifter": 7409,
      "▁arbetat": 7410,
      "ustr": 7411,
      "▁skydda": 7412,
      "▁utfor": 7413,
      "kommande": 7414,
      "▁skull": 7415,
      "▁anlägg": 7416,
      "▁originalet": 7417,
      "ftar": 7418,
      "resultat": 7419,
      "▁kön": 7420,
      "tom": 7421,
      "▁supp": 7422,
      "▁eventuella": 7423,
      "▁tillfällen": 7424,
      "unk": 7425,
      "▁institut": 7426,
      "försäkring": 7427,
      "anna": 7428,
      "▁ställen": 7429,
      "▁Int": 7430,
      "▁grunden": 7431,
      "ht": 7432,
      "Omdömet": 7433,
      "▁rid": 7434,
      "▁varor": 7435,
      "▁Dagens": 7436,
      "icro": 7437,
      "vit": 7438,
      "▁Dam": 7439,
      "▁skjut": 7440,
      "▁hyra": 7441,
      "miär": 7442,
      "▁vända": 7443,
      "▁unika": 7444,
      "▁avanc": 7445,
      "▁motsvar": 7446,
      "▁entrepren": 7447,
      "▁diagn": 7448,
      "▁bröllop": 7449,
      "▁bedriv": 7450,
      "taget": 7451,
      "anti": 7452,
      "▁fullständ": 7453,
      "sliga": 7454,
      "▁Moder": 7455,
      "▁Liv": 7456,
      "▁ställning": 7457,
      "▁betrakt": 7458,
      "▁seri": 7459,
      "▁salt": 7460,
      "▁kompis": 7461,
      "▁Åter": 7462,
      "▁hälften": 7463,
      "▁underbar": 7464,
      "▁stads": 7465,
      "▁ögonen": 7466,
      "▁uppfy": 7467,
      "illkor": 7468,
      "▁läste": 7469,
      "eran": 7470,
      "oth": 7471,
      "▁mom": 7472,
      "▁yngre": 7473,
      "▁VM": 7474,
      "▁tidningen": 7475,
      "AG": 7476,
      "▁sverige": 7477,
      "▁egenskaper": 7478,
      "▁underbart": 7479,
      "bör": 7480,
      "ärta": 7481,
      "▁gud": 7482,
      "▁former": 7483,
      "sj": 7484,
      "▁Skriv": 7485,
      "ktionen": 7486,
      "▁förmån": 7487,
      "▁total": 7488,
      "▁her": 7489,
      "▁låga": 7490,
      "▁Gro": 7491,
      "namn": 7492,
      "smäss": 7493,
      "▁Super": 7494,
      "▁Både": 7495,
      "rid": 7496,
      "ugga": 7497,
      "▁Bak": 7498,
      "yk": 7499,
      "▁skolor": 7500,
      "▁tydlig": 7501,
      "▁pool": 7502,
      "▁offentliga": 7503,
      "▁symbol": 7504,
      "▁intressanta": 7505,
      "▁Flera": 7506,
      "IT": 7507,
      "▁staten": 7508,
      "▁Li": 7509,
      "▁dating": 7510,
      "dens": 7511,
      "▁fika": 7512,
      "▁vila": 7513,
      "▁No": 7514,
      "▁Fre": 7515,
      "▁tanken": 7516,
      "ccin": 7517,
      "▁FÖR": 7518,
      "▁Slut": 7519,
      "ega": 7520,
      "▁Hela": 7521,
      "▁tittade": 7522,
      "jar": 7523,
      "imul": 7524,
      "▁utrymme": 7525,
      "rass": 7526,
      "kall": 7527,
      "▁hände": 7528,
      "registr": 7529,
      "▁Mina": 7530,
      "ction": 7531,
      "kta": 7532,
      "otta": 7533,
      "▁kop": 7534,
      "spolit": 7535,
      "umma": 7536,
      "▁skickar": 7537,
      "▁faktum": 7538,
      "▁slutar": 7539,
      "▁inköp": 7540,
      "▁ordet": 7541,
      "▁uppleva": 7542,
      "▁taget": 7543,
      "▁hushåll": 7544,
      "rep": 7545,
      "▁sjukt": 7546,
      "mannen": 7547,
      "▁grym": 7548,
      "▁varav": 7549,
      "▁frakt": 7550,
      "▁jorden": 7551,
      "▁förtroende": 7552,
      "▁inre": 7553,
      "▁Projekt": 7554,
      "förl": 7555,
      "stiden": 7556,
      "ivån": 7557,
      "▁myndigheter": 7558,
      "▁Com": 7559,
      "▁vuxen": 7560,
      "▁öl": 7561,
      "sfri": 7562,
      "▁styrelsen": 7563,
      "▁hunnit": 7564,
      "ängen": 7565,
      "▁hundra": 7566,
      "▁Följ": 7567,
      "▁Led": 7568,
      "▁klubben": 7569,
      "ube": 7570,
      "rarna": 7571,
      "▁nio": 7572,
      "bon": 7573,
      "meddel": 7574,
      "skrifter": 7575,
      "▁Id": 7576,
      "▁Utan": 7577,
      "lades": 7578,
      "▁erbjuds": 7579,
      "nabb": 7580,
      "▁känslan": 7581,
      "yper": 7582,
      "▁banan": 7583,
      "▁kok": 7584,
      "▁Rum": 7585,
      "▁vintern": 7586,
      "fe": 7587,
      "▁använt": 7588,
      "▁tydligen": 7589,
      "ställda": 7590,
      "▁mikro": 7591,
      "▁David": 7592,
      "▁Dålig": 7593,
      "ssan": 7594,
      "▁Aktie": 7595,
      "ävle": 7596,
      "▁nere": 7597,
      "▁hinner": 7598,
      "▁uppman": 7599,
      "▁äventyr": 7600,
      "▁bedömning": 7601,
      "▁populär": 7602,
      "▁Stat": 7603,
      "rodu": 7604,
      "ational": 7605,
      "indows": 7606,
      "▁desto": 7607,
      "istisk": 7608,
      "▁gröna": 7609,
      "▁aktier": 7610,
      "bit": 7611,
      "▁definitivt": 7612,
      "lösa": 7613,
      "▁orkar": 7614,
      "briken": 7615,
      "own": 7616,
      "▁uppmärksam": 7617,
      "yrkan": 7618,
      "▁dricka": 7619,
      "liv": 7620,
      "▁Kultur": 7621,
      "▁sc": 7622,
      "▁tillägg": 7623,
      "▁fång": 7624,
      "▁tjänsten": 7625,
      "▁tår": 7626,
      "▁översättningen": 7627,
      "inarie": 7628,
      "▁Hus": 7629,
      "varor": 7630,
      "▁Inom": 7631,
      "satser": 7632,
      "▁Umeå": 7633,
      "▁naturligt": 7634,
      "▁lagstift": 7635,
      "sken": 7636,
      "▁finansiella": 7637,
      "ännen": 7638,
      "▁Jonas": 7639,
      "hund": 7640,
      "▁Na": 7641,
      "▁tillgänglig": 7642,
      "änka": 7643,
      "▁samla": 7644,
      "▁Ener": 7645,
      "skl": 7646,
      "▁syd": 7647,
      "▁utföra": 7648,
      "▁Pass": 7649,
      "▁når": 7650,
      "▁torsdag": 7651,
      "▁kg": 7652,
      "OS": 7653,
      "▁album": 7654,
      "strument": 7655,
      "brit": 7656,
      "vän": 7657,
      "åriga": 7658,
      "▁DN": 7659,
      "▁engagemang": 7660,
      "▁Kommer": 7661,
      "▁Eg": 7662,
      "▁sällskap": 7663,
      "▁patient": 7664,
      "▁energ": 7665,
      "▁Henrik": 7666,
      "▁info": 7667,
      "▁rök": 7668,
      "▁jämföra": 7669,
      "▁rund": 7670,
      "bolaget": 7671,
      "▁Annars": 7672,
      "▁exkl": 7673,
      "▁Rad": 7674,
      "▁kvalit": 7675,
      "ream": 7676,
      "▁kommunens": 7677,
      "▁iaf": 7678,
      "▁skiljer": 7679,
      "▁tri": 7680,
      "AM": 7681,
      "ssätt": 7682,
      "▁spelat": 7683,
      "▁smärt": 7684,
      "▁jobbigt": 7685,
      "▁rätta": 7686,
      "byte": 7687,
      "▁rek": 7688,
      "▁personuppgifter": 7689,
      "▁länk": 7690,
      "▁söt": 7691,
      "▁använ": 7692,
      "usin": 7693,
      "▁särskilda": 7694,
      "▁beslutet": 7695,
      "ordningen": 7696,
      "▁socialt": 7697,
      "▁And": 7698,
      "▁grann": 7699,
      "▁mol": 7700,
      "▁vinner": 7701,
      "beh": 7702,
      "▁Mika": 7703,
      "▁återger": 7704,
      "upplev": 7705,
      "grip": 7706,
      "▁recens": 7707,
      "▁klassiska": 7708,
      "▁noggr": 7709,
      "▁skil": 7710,
      "sund": 7711,
      "▁Ord": 7712,
      "▁civ": 7713,
      "råket": 7714,
      "▁offici": 7715,
      "smat": 7716,
      "skad": 7717,
      "▁onöd": 7718,
      "▁Rik": 7719,
      "▁Därefter": 7720,
      "▁jämn": 7721,
      "▁anges": 7722,
      "▁sand": 7723,
      "ängning": 7724,
      "▁artikeln": 7725,
      "▁Rätt": 7726,
      "idrag": 7727,
      "▁Kn": 7728,
      "▁Gå": 7729,
      "ND": 7730,
      "wa": 7731,
      "▁hänger": 7732,
      "▁okej": 7733,
      "britann": 7734,
      "▁mörk": 7735,
      "▁välkommen": 7736,
      "▁kärn": 7737,
      "▁priserna": 7738,
      "▁förrän": 7739,
      "▁hall": 7740,
      "▁arbetsl": 7741,
      "▁urval": 7742,
      "▁forskare": 7743,
      "erats": 7744,
      "▁pga": 7745,
      "▁SD": 7746,
      "▁gemensamt": 7747,
      "▁frågade": 7748,
      "sland": 7749,
      "ac": 7750,
      "ningsför": 7751,
      "▁Mag": 7752,
      "sjö": 7753,
      "entals": 7754,
      "PP": 7755,
      "▁lågt": 7756,
      "▁rolig": 7757,
      "link": 7758,
      "önstret": 7759,
      "▁miljön": 7760,
      "▁nyheter": 7761,
      "unskap": 7762,
      "▁levande": 7763,
      "▁Björn": 7764,
      "sid": 7765,
      "▁litter": 7766,
      "anien": 7767,
      "▁pröv": 7768,
      "sätter": 7769,
      "ÄR": 7770,
      "▁barns": 7771,
      "eriet": 7772,
      "steg": 7773,
      "kul": 7774,
      "ssons": 7775,
      "arknad": 7776,
      "▁undersökning": 7777,
      "nsam": 7778,
      "grän": 7779,
      "▁sven": 7780,
      "▁TripAd": 7781,
      "▁framöver": 7782,
      "ee": 7783,
      "olja": 7784,
      "▁Magnus": 7785,
      "spunkt": 7786,
      "▁Precis": 7787,
      "▁omgiv": 7788,
      "fart": 7789,
      "▁möten": 7790,
      "▁utrustning": 7791,
      "▁Bästa": 7792,
      "▁Region": 7793,
      "▁Vårt": 7794,
      "ission": 7795,
      "eten": 7796,
      "ävling": 7797,
      "▁hjärta": 7798,
      "▁skade": 7799,
      "▁sprid": 7800,
      "▁Sten": 7801,
      "▁fritt": 7802,
      "bank": 7803,
      "▁Frankrike": 7804,
      "ängt": 7805,
      "▁Djur": 7806,
      "▁gräns": 7807,
      "▁gröns": 7808,
      "Hotell": 7809,
      "▁tyck": 7810,
      "ötet": 7811,
      "▁nyckel": 7812,
      "▁hjärtat": 7813,
      "avtal": 7814,
      "▁förstör": 7815,
      "kod": 7816,
      "huvud": 7817,
      "svall": 7818,
      "stäm": 7819,
      "▁dörren": 7820,
      "onym": 7821,
      "▁rädda": 7822,
      "itel": 7823,
      "OL": 7824,
      "▁skid": 7825,
      "▁forum": 7826,
      "▁out": 7827,
      "botten": 7828,
      "▁riktiga": 7829,
      "▁aktiva": 7830,
      "▁satsa": 7831,
      "▁vanligaste": 7832,
      "▁inträff": 7833,
      "▁bära": 7834,
      "▁landets": 7835,
      "▁Förbättra": 7836,
      "▁lokaler": 7837,
      "▁någonstans": 7838,
      "▁tät": 7839,
      "▁Utbild": 7840,
      "lista": 7841,
      "ugan": 7842,
      "änns": 7843,
      "rats": 7844,
      "▁City": 7845,
      "▁bytt": 7846,
      "▁marken": 7847,
      "komma": 7848,
      "▁Public": 7849,
      "▁dram": 7850,
      "▁skickas": 7851,
      "▁sönder": 7852,
      "▁SEK": 7853,
      "▁syster": 7854,
      "▁stolt": 7855,
      "▁förening": 7856,
      "venemang": 7857,
      "▁grill": 7858,
      "rimin": 7859,
      "besök": 7860,
      "▁läget": 7861,
      "▁diskutera": 7862,
      "okal": 7863,
      "service": 7864,
      "▁Ryssland": 7865,
      "▁Reger": 7866,
      "ordet": 7867,
      "▁Helt": 7868,
      "ax": 7869,
      "års": 7870,
      "▁nerv": 7871,
      "mant": 7872,
      "betalning": 7873,
      "ior": 7874,
      "▁Qu": 7875,
      "skost": 7876,
      "▁saknas": 7877,
      "▁kille": 7878,
      "lagt": 7879,
      "▁Jesus": 7880,
      "▁Storbritann": 7881,
      "▁förekommer": 7882,
      "▁Gävle": 7883,
      "▁Kalmar": 7884,
      "▁invånare": 7885,
      "▁aut": 7886,
      "▁omfattar": 7887,
      "▁Tekn": 7888,
      "oris": 7889,
      "▁rengör": 7890,
      "▁Namn": 7891,
      "▁totala": 7892,
      "hal": 7893,
      "▁IP": 7894,
      "▁Ho": 7895,
      "▁Ung": 7896,
      "▁trygghet": 7897,
      "▁varma": 7898,
      "▁deltagare": 7899,
      "▁ox": 7900,
      "▁gn": 7901,
      "▁elektron": 7902,
      "▁Des": 7903,
      "▁mötet": 7904,
      "tur": 7905,
      "▁Dr": 7906,
      "ranger": 7907,
      "bal": 7908,
      "▁tvungen": 7909,
      "speri": 7910,
      "cel": 7911,
      "▁resor": 7912,
      "ögon": 7913,
      "mäktige": 7914,
      "onden": 7915,
      "▁Koll": 7916,
      "stall": 7917,
      "▁soffan": 7918,
      "▁II": 7919,
      "▁ål": 7920,
      "burg": 7921,
      "▁initiativ": 7922,
      "▁längst": 7923,
      "sbruk": 7924,
      "▁Jämför": 7925,
      "▁röra": 7926,
      "terad": 7927,
      "ikal": 7928,
      "▁elev": 7929,
      "lagd": 7930,
      "▁maskinöversättningar": 7931,
      "▁ifråg": 7932,
      "▁södra": 7933,
      "▁räknas": 7934,
      "drarna": 7935,
      "▁uppstår": 7936,
      "▁Part": 7937,
      "▁kontrollera": 7938,
      "▁kontrakt": 7939,
      "▁slipper": 7940,
      "▁Göteborgs": 7941,
      "▁publik": 7942,
      "▁invand": 7943,
      "▁Ab": 7944,
      "▁studenter": 7945,
      "▁bestämma": 7946,
      "▁motiv": 7947,
      "▁Rom": 7948,
      "▁nöjda": 7949,
      "kro": 7950,
      "shop": 7951,
      "▁uppmärksamhet": 7952,
      "▁Sil": 7953,
      "▁helhet": 7954,
      "▁faller": 7955,
      "▁balkon": 7956,
      "▁Paris": 7957,
      "▁stämmer": 7958,
      "▁förklara": 7959,
      "indu": 7960,
      "▁unik": 7961,
      "▁represen": 7962,
      "▁gas": 7963,
      "rikes": 7964,
      "fir": 7965,
      "▁vänder": 7966,
      "▁vapen": 7967,
      "▁Pe": 7968,
      "▁bestämmer": 7969,
      "▁besked": 7970,
      "▁Styr": 7971,
      "▁lämnat": 7972,
      "▁cancer": 7973,
      "▁version": 7974,
      "▁Sara": 7975,
      "▁framgår": 7976,
      "▁tju": 7977,
      "▁snyggt": 7978,
      "nare": 7979,
      "▁kallad": 7980,
      "jande": 7981,
      "förbundet": 7982,
      "▁företags": 7983,
      "▁kris": 7984,
      "film": 7985,
      "▁alltför": 7986,
      "▁stranden": 7987,
      "▁träffar": 7988,
      "rael": 7989,
      "iam": 7990,
      "▁wid": 7991,
      "▁kallt": 7992,
      "batten": 7993,
      "▁Sof": 7994,
      "▁strand": 7995,
      "▁Bir": 7996,
      "▁Tw": 7997,
      "▁ug": 7998,
      "▁fördelar": 7999,
      "▁pul": 8000,
      "▁planer": 8001,
      "▁onsdag": 8002,
      "▁lust": 8003,
      "les": 8004,
      "▁Kost": 8005,
      "▁värsta": 8006,
      "▁kilometer": 8007,
      "▁kritik": 8008,
      "▁Kvinn": 8009,
      "enskomm": 8010,
      "▁Rikt": 8011,
      "▁ekonomisk": 8012,
      "▁Hotels": 8013,
      "stud": 8014,
      "prov": 8015,
      "▁noga": 8016,
      "▁leta": 8017,
      "anser": 8018,
      "▁enlighet": 8019,
      "ebra": 8020,
      "usentals": 8021,
      "årig": 8022,
      "▁sekunder": 8023,
      "▁pratade": 8024,
      "köpings": 8025,
      "▁naturliga": 8026,
      "liggande": 8027,
      "ool": 8028,
      "▁avstånd": 8029,
      "▁författare": 8030,
      "▁kommunal": 8031,
      "▁saken": 8032,
      "▁Tillsammans": 8033,
      "▁free": 8034,
      "▁speg": 8035,
      "▁misstänkt": 8036,
      "▁block": 8037,
      "▁minsta": 8038,
      "▁student": 8039,
      "▁miljon": 8040,
      "▁verkligheten": 8041,
      "▁skru": 8042,
      "▁dejtingsajt": 8043,
      "▁släppa": 8044,
      "onder": 8045,
      "ros": 8046,
      "▁bu": 8047,
      "produkter": 8048,
      "jobb": 8049,
      "spart": 8050,
      "▁ort": 8051,
      "▁förny": 8052,
      "oker": 8053,
      "▁karriär": 8054,
      "▁sjukdomar": 8055,
      "▁dollar": 8056,
      "▁kraftigt": 8057,
      "lagen": 8058,
      "anal": 8059,
      "sport": 8060,
      "▁sjö": 8061,
      "▁automatiskt": 8062,
      "ked": 8063,
      "▁stål": 8064,
      "▁föremål": 8065,
      "▁Kur": 8066,
      "sverket": 8067,
      "▁ment": 8068,
      "▁Håll": 8069,
      "▁känn": 8070,
      "ivare": 8071,
      "▁försökt": 8072,
      "▁Trans": 8073,
      "▁utmaningar": 8074,
      "▁uppm": 8075,
      "▁Mats": 8076,
      "▁fräsch": 8077,
      "▁landsting": 8078,
      "ics": 8079,
      "▁förklarar": 8080,
      "▁Thomas": 8081,
      "▁överlev": 8082,
      "▁personalen": 8083,
      "kadem": 8084,
      "ene": 8085,
      "adrat": 8086,
      "▁själ": 8087,
      "▁grov": 8088,
      "▁Oavsett": 8089,
      "▁At": 8090,
      "▁utbildnings": 8091,
      "▁Övr": 8092,
      "▁skaffa": 8093,
      "▁hänga": 8094,
      "▁Mikael": 8095,
      "▁påbörj": 8096,
      "▁betalnings": 8097,
      "mos": 8098,
      "ämna": 8099,
      "vision": 8100,
      "TV": 8101,
      "▁fakta": 8102,
      "▁bestämde": 8103,
      "fort": 8104,
      "fattning": 8105,
      "▁install": 8106,
      "▁tränar": 8107,
      "▁dåliga": 8108,
      "spris": 8109,
      "▁fält": 8110,
      "▁rosa": 8111,
      "histor": 8112,
      "saker": 8113,
      "▁tränare": 8114,
      "▁rörelse": 8115,
      "▁Västra": 8116,
      "gat": 8117,
      "örerna": 8118,
      "▁op": 8119,
      "▁brett": 8120,
      "▁ansvarar": 8121,
      "skole": 8122,
      "▁lät": 8123,
      "▁avser": 8124,
      "ategori": 8125,
      "▁svårare": 8126,
      "▁Star": 8127,
      "▁frågar": 8128,
      "pten": 8129,
      "▁fant": 8130,
      "ivande": 8131,
      "▁Tror": 8132,
      "skraft": 8133,
      "tok": 8134,
      "ibel": 8135,
      "dju": 8136,
      "▁resul": 8137,
      "▁Kron": 8138,
      "vil": 8139,
      "▁artiklar": 8140,
      "▁behålla": 8141,
      "resor": 8142,
      "▁noll": 8143,
      "▁fortsatte": 8144,
      "éer": 8145,
      "▁Bel": 8146,
      "▁hästar": 8147,
      "▁fria": 8148,
      "alj": 8149,
      "▁Värm": 8150,
      "▁maxim": 8151,
      "CA": 8152,
      "oom": 8153,
      "▁inner": 8154,
      "▁gift": 8155,
      "igera": 8156,
      "HL": 8157,
      "risk": 8158,
      "takter": 8159,
      "ännisk": 8160,
      "bef": 8161,
      "▁infekt": 8162,
      "måga": 8163,
      "▁överallt": 8164,
      "▁Ing": 8165,
      "▁tycks": 8166,
      "▁Eva": 8167,
      "▁fundera": 8168,
      "jud": 8169,
      "▁väs": 8170,
      "last": 8171,
      "▁arranger": 8172,
      "▁delvis": 8173,
      "▁Gö": 8174,
      "▁rese": 8175,
      "▁rejält": 8176,
      "▁planerar": 8177,
      "▁Bank": 8178,
      "▁president": 8179,
      "må": 8180,
      "▁Redan": 8181,
      "▁varumärken": 8182,
      "▁Sök": 8183,
      "▁missl": 8184,
      "värme": 8185,
      "▁uppnå": 8186,
      "▁åsikter": 8187,
      "▁värre": 8188,
      "▁Ant": 8189,
      "▁Stora": 8190,
      "pot": 8191,
      "▁närings": 8192,
      "ekr": 8193,
      "▁Nyheter": 8194,
      "▁reag": 8195,
      "ationerna": 8196,
      "▁sömn": 8197,
      "hämt": 8198,
      "▁felakt": 8199,
      "oper": 8200,
      "entil": 8201,
      "▁aktörer": 8202,
      "▁na": 8203,
      "▁texten": 8204,
      "fisk": 8205,
      "▁styrka": 8206,
      "IL": 8207,
      "juter": 8208,
      "▁arbetsgiv": 8209,
      "▁hann": 8210,
      "▁Speci": 8211,
      "▁gransk": 8212,
      "kurs": 8213,
      "▁kläd": 8214,
      "▁företr": 8215,
      "EM": 8216,
      "▁Windows": 8217,
      "▁mysigt": 8218,
      "sprodu": 8219,
      "lån": 8220,
      "▁rem": 8221,
      "▁Net": 8222,
      "▁lärt": 8223,
      "hall": 8224,
      "rak": 8225,
      "▁utav": 8226,
      "astro": 8227,
      "▁Mel": 8228,
      "▁Fick": 8229,
      "egr": 8230,
      "▁däck": 8231,
      "skrift": 8232,
      "▁omständ": 8233,
      "▁vädret": 8234,
      "ästare": 8235,
      "tog": 8236,
      "▁skapat": 8237,
      "▁skott": 8238,
      "▁Billiga": 8239,
      "▁krist": 8240,
      "lekt": 8241,
      "fs": 8242,
      "▁leverantörer": 8243,
      "▁Flyg": 8244,
      "▁golf": 8245,
      "ämnden": 8246,
      "flytt": 8247,
      "inister": 8248,
      "▁Bör": 8249,
      "▁handen": 8250,
      "▁kurser": 8251,
      "egång": 8252,
      "åren": 8253,
      "onger": 8254,
      "▁bredvid": 8255,
      "▁System": 8256,
      "▁lagom": 8257,
      "▁kvadrat": 8258,
      "▁fyr": 8259,
      "ppet": 8260,
      "gu": 8261,
      "änger": 8262,
      "▁flyttade": 8263,
      "savgift": 8264,
      "issionen": 8265,
      "▁Helsingborg": 8266,
      "▁skatte": 8267,
      "EG": 8268,
      "sspel": 8269,
      "▁vågar": 8270,
      "▁koncentr": 8271,
      "▁Sjö": 8272,
      "▁Mil": 8273,
      "äter": 8274,
      "öster": 8275,
      "▁tråkigt": 8276,
      "▁läns": 8277,
      "▁födels": 8278,
      "▁Årets": 8279,
      "▁ryggen": 8280,
      "▁forsknings": 8281,
      "ival": 8282,
      "▁regering": 8283,
      "▁eventuellt": 8284,
      "▁kors": 8285,
      "▁tyska": 8286,
      "▁Handel": 8287,
      "xor": 8288,
      "do": 8289,
      "▁butiken": 8290,
      "▁behandlas": 8291,
      "center": 8292,
      "▁marknadsföring": 8293,
      "▁Larsson": 8294,
      "zny": 8295,
      "▁förståelse": 8296,
      "▁omöjligt": 8297,
      "▁Nik": 8298,
      "▁hemmet": 8299,
      "ares": 8300,
      "▁Skatt": 8301,
      "▁Tidigare": 8302,
      "rafiken": 8303,
      "▁näringsl": 8304,
      "▁skuld": 8305,
      "▁snitt": 8306,
      "iger": 8307,
      "ls": 8308,
      "dal": 8309,
      "▁lyfta": 8310,
      "▁Storbritannien": 8311,
      "▁sko": 8312,
      "▁Totalt": 8313,
      "unna": 8314,
      "▁nått": 8315,
      "▁folket": 8316,
      "▁dla": 8317,
      "▁aning": 8318,
      "▁samling": 8319,
      "▁lägenheter": 8320,
      "▁dialog": 8321,
      "anych": 8322,
      "▁Mad": 8323,
      "Den": 8324,
      "▁särskild": 8325,
      "owanych": 8326,
      "▁zalog": 8327,
      "oczny": 8328,
      "▁widoczny": 8329,
      "▁zalogowanych": 8330,
      "▁välkomna": 8331,
      "▁yr": 8332,
      "▁mäss": 8333,
      "ii": 8334,
      "▁situationer": 8335,
      "öjligheter": 8336,
      "sförs": 8337,
      "▁ämnet": 8338,
      "box": 8339,
      "änkte": 8340,
      "▁mänskliga": 8341,
      "pacitet": 8342,
      "serligen": 8343,
      "▁bodde": 8344,
      "▁Syftet": 8345,
      "serien": 8346,
      "▁händelser": 8347,
      "▁knappast": 8348,
      "slam": 8349,
      "▁britt": 8350,
      "▁golvet": 8351,
      "▁Pri": 8352,
      "ness": 8353,
      "▁linje": 8354,
      "boken": 8355,
      "behandling": 8356,
      "set": 8357,
      "Se": 8358,
      "formen": 8359,
      "▁toal": 8360,
      "▁Gusta": 8361,
      "▁blom": 8362,
      "▁uppfölj": 8363,
      "▁vägar": 8364,
      "ämpar": 8365,
      "rop": 8366,
      "▁besv": 8367,
      "▁sovrum": 8368,
      "▁intresserade": 8369,
      "banan": 8370,
      "▁förmed": 8371,
      "▁FN": 8372,
      "änsla": 8373,
      "▁norra": 8374,
      "▁skar": 8375,
      "▁Ac": 8376,
      "▁främsta": 8377,
      "▁organ": 8378,
      "▁kvinnan": 8379,
      "▁konser": 8380,
      "▁Casino": 8381,
      "▁vanligtvis": 8382,
      "▁silver": 8383,
      "▁sortiment": 8384,
      "▁tillfället": 8385,
      "tokoll": 8386,
      "▁förhållanden": 8387,
      "ocken": 8388,
      "iller": 8389,
      "bana": 8390,
      "ode": 8391,
      "sbygg": 8392,
      "▁Ne": 8393,
      "▁gyn": 8394,
      "▁OS": 8395,
      "▁medför": 8396,
      "▁Will": 8397,
      "▁hat": 8398,
      "▁stärka": 8399,
      "▁uttry": 8400,
      "pre": 8401,
      "▁säkerställa": 8402,
      "▁Vidare": 8403,
      "▁familjer": 8404,
      "▁ledning": 8405,
      "▁föreställ": 8406,
      "▁Tex": 8407,
      "▁mult": 8408,
      "▁funderar": 8409,
      "vok": 8410,
      "▁tisdag": 8411,
      "▁självständ": 8412,
      "branschen": 8413,
      "skåp": 8414,
      "▁Ax": 8415,
      "▁smärta": 8416,
      "▁hell": 8417,
      "▁bransch": 8418,
      "▁kunden": 8419,
      "▁ränta": 8420,
      "▁trivs": 8421,
      "platt": 8422,
      "utan": 8423,
      "▁löne": 8424,
      "▁försvinner": 8425,
      "▁således": 8426,
      "▁diskussion": 8427,
      "▁ändamål": 8428,
      "▁produkten": 8429,
      "sätta": 8430,
      "ifiera": 8431,
      "▁luften": 8432,
      "ums": 8433,
      "▁laga": 8434,
      "▁ovanligt": 8435,
      "▁stimul": 8436,
      "▁utstr": 8437,
      "▁önskemål": 8438,
      "▁reserv": 8439,
      "verkade": 8440,
      "▁lagar": 8441,
      "valda": 8442,
      "landet": 8443,
      "▁TripAdvisor": 8444,
      "au": 8445,
      "▁af": 8446,
      "▁Dat": 8447,
      "▁motion": 8448,
      "▁jurid": 8449,
      "▁hej": 8450,
      "▁dim": 8451,
      "▁loss": 8452,
      "▁Tra": 8453,
      "träff": 8454,
      "anmäl": 8455,
      "▁ingred": 8456,
      "▁planering": 8457,
      "inter": 8458,
      "▁Spanien": 8459,
      "▁tjäna": 8460,
      "▁belopp": 8461,
      "▁sägs": 8462,
      "▁varv": 8463,
      "▁hunden": 8464,
      "allafall": 8465,
      "▁imp": 8466,
      "▁Karlsson": 8467,
      "▁slit": 8468,
      "▁fred": 8469,
      "ssam": 8470,
      "▁bostadsrätt": 8471,
      "▁påsk": 8472,
      "ange": 8473,
      "▁webbplatsen": 8474,
      "▁innebära": 8475,
      "▁Col": 8476,
      "▁inkluderar": 8477,
      "vag": 8478,
      "ance": 8479,
      "ertifier": 8480,
      "▁upptäcka": 8481,
      "ley": 8482,
      "▁behör": 8483,
      "▁ekonomiskt": 8484,
      "▁nyfiken": 8485,
      "yckt": 8486,
      "sbyg": 8487,
      "lösning": 8488,
      "▁Milj": 8489,
      "vor": 8490,
      "▁Tycker": 8491,
      "▁Italien": 8492,
      "ladd": 8493,
      "▁riskerar": 8494,
      "▁Aktiebolag": 8495,
      "▁styrelse": 8496,
      "▁processen": 8497,
      "ullar": 8498,
      "orget": 8499,
      "värm": 8500,
      "äste": 8501,
      "▁Län": 8502,
      "▁rekry": 8503,
      "▁pär": 8504,
      "▁faktorer": 8505,
      "▁intill": 8506,
      "▁avslöj": 8507,
      "lå": 8508,
      "troller": 8509,
      "▁tusen": 8510,
      "▁Off": 8511,
      "▁anslutning": 8512,
      "skottet": 8513,
      "▁drabbas": 8514,
      "▁färre": 8515,
      "▁omedelbart": 8516,
      "▁Dig": 8517,
      "▁bakt": 8518,
      "uft": 8519,
      "▁Black": 8520,
      "problem": 8521,
      "▁billigare": 8522,
      "▁ul": 8523,
      "▁lämnas": 8524,
      "ence": 8525,
      "▁kortare": 8526,
      "▁Bengt": 8527,
      "▁Do": 8528,
      "artik": 8529,
      "▁arbetsgivare": 8530,
      "▁hjul": 8531,
      "▁närmast": 8532,
      "▁offentlig": 8533,
      "▁andel": 8534,
      "▁aktiver": 8535,
      "ismen": 8536,
      "▁beb": 8537,
      "▁isol": 8538,
      "iox": 8539,
      "ynt": 8540,
      "▁äpp": 8541,
      "▁lägenheten": 8542,
      "▁sannolikt": 8543,
      "▁Pet": 8544,
      "▁Wh": 8545,
      "▁tydliga": 8546,
      "aner": 8547,
      "matt": 8548,
      "PS": 8549,
      "▁räknar": 8550,
      "▁undersöka": 8551,
      "ward": 8552,
      "▁utöver": 8553,
      "▁kab": 8554,
      "vä": 8555,
      "▁Tom": 8556,
      "▁utrust": 8557,
      "igaste": 8558,
      "▁assist": 8559,
      "▁synd": 8560,
      "omma": 8561,
      "ötterna": 8562,
      "▁rätten": 8563,
      "▁skyl": 8564,
      "▁bom": 8565,
      "▁inomhus": 8566,
      "▁volym": 8567,
      "ael": 8568,
      "▁statistik": 8569,
      "▁dog": 8570,
      "▁tax": 8571,
      "▁kursen": 8572,
      "▁Istället": 8573,
      "▁älskade": 8574,
      "▁IS": 8575,
      "▁Port": 8576,
      "konst": 8577,
      "▁Nr": 8578,
      "ärare": 8579,
      "▁påm": 8580,
      "iell": 8581,
      "▁attack": 8582,
      "▁normal": 8583,
      "▁utredning": 8584,
      "▁individer": 8585,
      "AB": 8586,
      "▁Fler": 8587,
      "▁dekor": 8588,
      "bered": 8589,
      "▁Alltså": 8590,
      "cken": 8591,
      "▁allmänt": 8592,
      "yrån": 8593,
      "▁Huvud": 8594,
      "▁bevilj": 8595,
      "sar": 8596,
      "▁fysiska": 8597,
      "▁allmänhet": 8598,
      "▁appar": 8599,
      "▁Bolaget": 8600,
      "sprojekt": 8601,
      "umer": 8602,
      "▁tål": 8603,
      "▁längd": 8604,
      "ony": 8605,
      "▁föra": 8606,
      "▁dos": 8607,
      "ärke": 8608,
      "familj": 8609,
      "▁stannar": 8610,
      "åring": 8611,
      "▁Persson": 8612,
      "▁Kro": 8613,
      "äva": 8614,
      "räd": 8615,
      "mas": 8616,
      "▁introdu": 8617,
      "▁VD": 8618,
      "draget": 8619,
      "igheterna": 8620,
      "▁Mari": 8621,
      "▁Center": 8622,
      "iget": 8623,
      "▁Konst": 8624,
      "▁dikt": 8625,
      "▁bön": 8626,
      "▁konstnär": 8627,
      "▁live": 8628,
      "▁döda": 8629,
      "atu": 8630,
      "▁fira": 8631,
      "▁Exempel": 8632,
      "▁vät": 8633,
      "▁sorg": 8634,
      "▁Micro": 8635,
      "skolor": 8636,
      "fast": 8637,
      "▁kompletter": 8638,
      "▁olja": 8639,
      "▁typen": 8640,
      "edia": 8641,
      "▁sma": 8642,
      "allad": 8643,
      "▁Ag": 8644,
      "▁Kontakta": 8645,
      "eckning": 8646,
      "▁termin": 8647,
      "▁ringde": 8648,
      "▁We": 8649,
      "▁skett": 8650,
      "▁förvå": 8651,
      "▁Lång": 8652,
      "ino": 8653,
      "▁räd": 8654,
      "dition": 8655,
      "▁trädgården": 8656,
      "▁Karin": 8657,
      "personer": 8658,
      "ivis": 8659,
      "▁präg": 8660,
      "pool": 8661,
      "▁relationer": 8662,
      "glas": 8663,
      "▁läsare": 8664,
      "▁svenskar": 8665,
      "▁litteratur": 8666,
      "▁beröm": 8667,
      "▁överväg": 8668,
      "kra": 8669,
      "aser": 8670,
      "alle": 8671,
      "▁gjorts": 8672,
      "▁uppfattning": 8673,
      "▁Frågan": 8674,
      "▁tolk": 8675,
      "▁hant": 8676,
      "▁leverantör": 8677,
      "▁krimin": 8678,
      "llertid": 8679,
      "▁återigen": 8680,
      "▁finna": 8681,
      "▁Jack": 8682,
      "ättning": 8683,
      "▁Samman": 8684,
      "▁damm": 8685,
      "▁ansvarig": 8686,
      "▁og": 8687,
      "sfull": 8688,
      "▁ämne": 8689,
      "mun": 8690,
      "▁utomlands": 8691,
      "aa": 8692,
      "omin": 8693,
      "vel": 8694,
      "▁ledde": 8695,
      "▁förslaget": 8696,
      "▁dum": 8697,
      "▁tävlingen": 8698,
      "mellertid": 8699,
      "▁kollegor": 8700,
      "▁gif": 8701,
      "jänst": 8702,
      "urt": 8703,
      "lister": 8704,
      "▁traditionella": 8705,
      "▁smar": 8706,
      "▁befintliga": 8707,
      "▁historien": 8708,
      "kär": 8709,
      "▁mobilt": 8710,
      "▁sant": 8711,
      "▁osäker": 8712,
      "▁bjöd": 8713,
      "slig": 8714,
      "▁minuters": 8715,
      "▁anord": 8716,
      "ase": 8717,
      "värda": 8718,
      "▁Express": 8719,
      "▁verklighet": 8720,
      "▁julkla": 8721,
      "värk": 8722,
      "sföretag": 8723,
      "▁Cam": 8724,
      "▁bag": 8725,
      "lekar": 8726,
      "vic": 8727,
      "▁Familj": 8728,
      "▁kört": 8729,
      "▁skåde": 8730,
      "▁påverkas": 8731,
      "grunden": 8732,
      "▁Uppdat": 8733,
      "ini": 8734,
      "▁trapp": 8735,
      "BS": 8736,
      "lac": 8737,
      "istiskt": 8738,
      "▁sajt": 8739,
      "meter": 8740,
      "pas": 8741,
      "▁frihet": 8742,
      "▁regi": 8743,
      "▁Mån": 8744,
      "väst": 8745,
      "sbr": 8746,
      "syl": 8747,
      "▁hoppa": 8748,
      "▁OCH": 8749,
      "▁flyttar": 8750,
      "ulture": 8751,
      "isterna": 8752,
      "▁Got": 8753,
      "▁ifall": 8754,
      "▁Paul": 8755,
      "▁stoppa": 8756,
      "▁Emma": 8757,
      "▁handlade": 8758,
      "iabet": 8759,
      "▁upptäckt": 8760,
      "▁billig": 8761,
      "▁hörde": 8762,
      "▁grej": 8763,
      "▁föreslår": 8764,
      "▁potatis": 8765,
      "äsk": 8766,
      "▁beteende": 8767,
      "▁utbildningen": 8768,
      "pi": 8769,
      "▁organisationen": 8770,
      "▁My": 8771,
      "▁Eriksson": 8772,
      "▁qu": 8773,
      "▁analyser": 8774,
      "fallet": 8775,
      "▁Program": 8776,
      "häng": 8777,
      "▁förhoppningsvis": 8778,
      "▁domstol": 8779,
      "cykel": 8780,
      "▁cor": 8781,
      "gripande": 8782,
      "▁IK": 8783,
      "▁arkitekt": 8784,
      "ockar": 8785,
      "▁Me": 8786,
      "▁duktig": 8787,
      "▁Hör": 8788,
      "tan": 8789,
      "▁synner": 8790,
      "▁attrakt": 8791,
      "▁Innehåll": 8792,
      "▁Trum": 8793,
      "▁aller": 8794,
      "▁starkare": 8795,
      "▁komplex": 8796,
      "▁Bal": 8797,
      "▁tyn": 8798,
      "▁metall": 8799,
      "▁smid": 8800,
      "▁oberoende": 8801,
      "▁anmälan": 8802,
      "spol": 8803,
      "rin": 8804,
      "▁Tv": 8805,
      "▁iallafall": 8806,
      "▁benen": 8807,
      "ekul": 8808,
      "satsen": 8809,
      "ij": 8810,
      "▁utseende": 8811,
      "▁kandid": 8812,
      "äckar": 8813,
      "▁uppmunt": 8814,
      "▁Förra": 8815,
      "▁hemsidan": 8816,
      "▁vaccin": 8817,
      "▁sugen": 8818,
      "▁moms": 8819,
      "gått": 8820,
      "▁innehållet": 8821,
      "▁Läk": 8822,
      "åringen": 8823,
      "▁Play": 8824,
      "▁repar": 8825,
      "▁To": 8826,
      "▁utsträckning": 8827,
      "▁franska": 8828,
      "▁stockholm": 8829,
      "systemet": 8830,
      "▁ansiktet": 8831,
      "▁storm": 8832,
      "▁SE": 8833,
      "▁utgår": 8834,
      "▁koncept": 8835,
      "▁betalning": 8836,
      "▁kung": 8837,
      "aktioner": 8838,
      "▁dyker": 8839,
      "▁Blir": 8840,
      "orld": 8841,
      "ivalen": 8842,
      "värden": 8843,
      "▁Kons": 8844,
      "▁karta": 8845,
      "▁vardagen": 8846,
      "öck": 8847,
      "▁konsument": 8848,
      "IV": 8849,
      "▁syftar": 8850,
      "▁Juli": 8851,
      "▁fokusera": 8852,
      "▁födelsedag": 8853,
      "▁dygnet": 8854,
      "▁kill": 8855,
      "hop": 8856,
      "släget": 8857,
      "uel": 8858,
      "vetenskap": 8859,
      "rot": 8860,
      "▁godis": 8861,
      "▁Andreas": 8862,
      "▁gjordes": 8863,
      "▁Vatten": 8864,
      "▁Riks": 8865,
      "▁con": 8866,
      "▁förstär": 8867,
      "ommun": 8868,
      "▁företagen": 8869,
      "▁ångest": 8870,
      "zon": 8871,
      "▁löpande": 8872,
      "▁eld": 8873,
      "▁rekommend": 8874,
      "▁träffade": 8875,
      "ova": 8876,
      "▁yta": 8877,
      "▁väster": 8878,
      "▁pil": 8879,
      "▁sign": 8880,
      "▁skillnaden": 8881,
      "▁Pen": 8882,
      "sområdet": 8883,
      "▁planen": 8884,
      "centrum": 8885,
      "▁Samt": 8886,
      "▁glass": 8887,
      "▁sover": 8888,
      "▁effekter": 8889,
      "stekn": 8890,
      "▁koppla": 8891,
      "▁tillverkare": 8892,
      "▁styra": 8893,
      "skill": 8894,
      "iteter": 8895,
      "▁svenskt": 8896,
      "▁tjock": 8897,
      "böcker": 8898,
      "▁Olof": 8899,
      "▁använde": 8900,
      "limat": 8901,
      "anne": 8902,
      "osof": 8903,
      "▁samverkan": 8904,
      "US": 8905,
      "▁MS": 8906,
      "▁Göran": 8907,
      "▁Online": 8908,
      "▁Mac": 8909,
      "▁ätit": 8910,
      "dast": 8911,
      "▁Jul": 8912,
      "läkare": 8913,
      "▁gälla": 8914,
      "▁förändra": 8915,
      "▁Inget": 8916,
      "▁jättebra": 8917,
      "▁Rob": 8918,
      "▁sms": 8919,
      "uga": 8920,
      "▁Västerås": 8921,
      "yrning": 8922,
      "▁bos": 8923,
      "▁betalas": 8924,
      "▁stadens": 8925,
      "▁inkom": 8926,
      "▁Inter": 8927,
      "▁retur": 8928,
      "▁reser": 8929,
      "▁expl": 8930,
      "▁Et": 8931,
      "▁motsvarar": 8932,
      "▁Utöver": 8933,
      "änkande": 8934,
      "trafik": 8935,
      "▁företagets": 8936,
      "oriter": 8937,
      "ssp": 8938,
      "▁NICK": 8939,
      "▁raka": 8940,
      "miljö": 8941,
      "lerna": 8942,
      "▁avst": 8943,
      "▁egendom": 8944,
      "▁jack": 8945,
      "ned": 8946,
      "▁paus": 8947,
      "▁tvingas": 8948,
      "▁leverera": 8949,
      "▁minne": 8950,
      "▁Beslut": 8951,
      "▁Cor": 8952,
      "▁inslag": 8953,
      "FF": 8954,
      "▁Linköping": 8955,
      "▁dejtingsajter": 8956,
      "▁gård": 8957,
      "mande": 8958,
      "gnos": 8959,
      "▁rena": 8960,
      "▁enheter": 8961,
      "▁garanter": 8962,
      "erings": 8963,
      "rastruktur": 8964,
      "▁Marie": 8965,
      "▁wh": 8966,
      "▁tillbehör": 8967,
      "▁fäst": 8968,
      "▁speciella": 8969,
      "▁locka": 8970,
      "▁rob": 8971,
      "▁speciell": 8972,
      "▁sevärd": 8973,
      "▁syr": 8974,
      "leå": 8975,
      "▁stre": 8976,
      "blå": 8977,
      "information": 8978,
      "▁arbetslös": 8979,
      "▁lukt": 8980,
      "▁Lid": 8981,
      "hone": 8982,
      "rit": 8983,
      "skam": 8984,
      "inte": 8985,
      "▁utöka": 8986,
      "▁anstr": 8987,
      "▁angående": 8988,
      "▁Samma": 8989,
      "▁trevliga": 8990,
      "▁inser": 8991,
      "▁Mellan": 8992,
      "edöm": 8993,
      "▁strategi": 8994,
      "asa": 8995,
      "▁dejtingsidor": 8996,
      "visar": 8997,
      "▁flertal": 8998,
      "öden": 8999,
      "▁slippa": 9000,
      "▁gränsen": 9001,
      "▁Åh": 9002,
      "▁ifrågas": 9003,
      "▁anhör": 9004,
      "▁passade": 9005,
      "annen": 9006,
      "▁tolv": 9007,
      "▁oj": 9008,
      "▁vården": 9009,
      "vention": 9010,
      "Sk": 9011,
      "institut": 9012,
      "▁demon": 9013,
      "▁Måste": 9014,
      "▁europeiska": 9015,
      "▁ledningen": 9016,
      "▁hinna": 9017,
      "▁praktiken": 9018,
      "stjänst": 9019,
      "ågan": 9020,
      "asy": 9021,
      "▁premiär": 9022,
      "▁åtgärd": 9023,
      "produktion": 9024,
      "▁mobilen": 9025,
      "oppa": 9026,
      "▁underlag": 9027,
      "▁alli": 9028,
      "▁föll": 9029,
      "varna": 9030,
      "▁kontra": 9031,
      "▁Kort": 9032,
      "skron": 9033,
      "lle": 9034,
      "▁umg": 9035,
      "▁varierar": 9036,
      "▁Bad": 9037,
      "▁kommunala": 9038,
      "▁siffror": 9039,
      "attis": 9040,
      "▁förändras": 9041,
      "▁troligen": 9042,
      "ms": 9043,
      "▁tvärt": 9044,
      "▁människan": 9045,
      "▁hinder": 9046,
      "▁sty": 9047,
      "▁anpassa": 9048,
      "disk": 9049,
      "▁Rör": 9050,
      "▁Lena": 9051,
      "▁exp": 9052,
      "ustra": 9053,
      "supp": 9054,
      "▁lades": 9055,
      "▁Grat": 9056,
      "▁lyft": 9057,
      "▁slott": 9058,
      "jänsten": 9059,
      "skog": 9060,
      "▁efteråt": 9061,
      "▁växter": 9062,
      "äger": 9063,
      "▁snäll": 9064,
      "jas": 9065,
      "▁överenskomm": 9066,
      "▁Volv": 9067,
      "▁skatter": 9068,
      "▁dagligen": 9069,
      "▁England": 9070,
      "spelet": 9071,
      "▁hellre": 9072,
      "yggande": 9073,
      "OT": 9074,
      "sfall": 9075,
      "▁tomt": 9076,
      "▁allting": 9077,
      "▁riktning": 9078,
      "▁anställning": 9079,
      "▁Bu": 9080,
      "▁exklus": 9081,
      "emed": 9082,
      "näs": 9083,
      "▁råder": 9084,
      "frika": 9085,
      "ensa": 9086,
      "ortera": 9087,
      "▁eleg": 9088,
      "▁Problem": 9089,
      "ano": 9090,
      "▁Jord": 9091,
      "▁negativa": 9092,
      "▁erbjudande": 9093,
      "▁emellan": 9094,
      "▁Hitt": 9095,
      "båt": 9096,
      "▁Ca": 9097,
      "sre": 9098,
      "▁Robert": 9099,
      "▁Lad": 9100,
      "▁bist": 9101,
      "▁Jönköping": 9102,
      "▁utvecklar": 9103,
      "▁möjliggör": 9104,
      "▁Restaur": 9105,
      "▁killar": 9106,
      "▁avses": 9107,
      "▁sked": 9108,
      "▁mätt": 9109,
      "▁Försäkring": 9110,
      "▁lärande": 9111,
      "arken": 9112,
      "▁protein": 9113,
      "▁As": 9114,
      "▁Log": 9115,
      "vall": 9116,
      "▁märkt": 9117,
      "tgär": 9118,
      "▁behovet": 9119,
      "▁tränings": 9120,
      "▁SS": 9121,
      "▁exem": 9122,
      "▁Vit": 9123,
      "▁kontakter": 9124,
      "rax": 9125,
      "äckande": 9126,
      "▁tunga": 9127,
      "olin": 9128,
      "bad": 9129,
      "▁regelbundet": 9130,
      "förbund": 9131,
      "▁Cat": 9132,
      "rog": 9133,
      "▁annonser": 9134,
      "ush": 9135,
      "▁spelas": 9136,
      "änningar": 9137,
      "sal": 9138,
      "▁Fastighet": 9139,
      "▁praktiska": 9140,
      "▁Skog": 9141,
      "▁argument": 9142,
      "▁ränt": 9143,
      "▁äkta": 9144,
      "former": 9145,
      "▁Skor": 9146,
      "ansvarig": 9147,
      "▁emellertid": 9148,
      "▁shopping": 9149,
      "▁sår": 9150,
      "▁lant": 9151,
      "▁Kul": 9152,
      "▁akut": 9153,
      "▁bio": 9154,
      "sområde": 9155,
      "▁kontinuer": 9156,
      "ologiskt": 9157,
      "▁konsult": 9158,
      "▁ventil": 9159,
      "▁kommunic": 9160,
      "▁Trafik": 9161,
      "itim": 9162,
      "▁bryta": 9163,
      "▁häft": 9164,
      "AND": 9165,
      "▁garan": 9166,
      "tagen": 9167,
      "▁bollen": 9168,
      "▁fla": 9169,
      "ustrali": 9170,
      "▁vag": 9171,
      "▁webbplatser": 9172,
      "iserade": 9173,
      "▁Gustav": 9174,
      "▁utmaning": 9175,
      "▁West": 9176,
      "rapport": 9177,
      "rom": 9178,
      "▁as": 9179,
      "▁kyck": 9180,
      "▁teater": 9181,
      "▁evenemang": 9182,
      "▁deltar": 9183,
      "▁vunnit": 9184,
      "aska": 9185,
      "▁riksdagen": 9186,
      "▁😉": 9187,
      "▁bekant": 9188,
      "▁svaret": 9189,
      "▁agera": 9190,
      "▁Emil": 9191,
      "▁trend": 9192,
      "▁spets": 9193,
      "▁besöker": 9194,
      "sbrev": 9195,
      "▁Gustaf": 9196,
      "▁Mc": 9197,
      "sförmed": 9198,
      "sområden": 9199,
      "ual": 9200,
      "▁kreativ": 9201,
      "imm": 9202,
      "▁syssels": 9203,
      "▁smidigt": 9204,
      "▁ost": 9205,
      "▁Wik": 9206,
      "▁göm": 9207,
      "sarbete": 9208,
      "▁församling": 9209,
      "▁mask": 9210,
      "strand": 9211,
      "▁sprang": 9212,
      "skt": 9213,
      "äsong": 9214,
      "▁bloggar": 9215,
      "▁samlat": 9216,
      "▁Hell": 9217,
      "▁rea": 9218,
      "verse": 9219,
      "▁Spar": 9220,
      "umin": 9221,
      "innan": 9222,
      "▁Hal": 9223,
      "▁rekommendera": 9224,
      "shand": 9225,
      "▁Olsson": 9226,
      "ape": 9227,
      "itioner": 9228,
      "hn": 9229,
      "svägen": 9230,
      "▁Håk": 9231,
      "ppna": 9232,
      "▁aspekt": 9233,
      "idande": 9234,
      "▁länken": 9235,
      "▁bibliotek": 9236,
      "▁halva": 9237,
      "ray": 9238,
      "▁kamera": 9239,
      "▁EM": 9240,
      "▁jämställd": 9241,
      "strateg": 9242,
      "▁Eric": 9243,
      "▁Fun": 9244,
      "edom": 9245,
      "▁släpper": 9246,
      "▁Best": 9247,
      "programmet": 9248,
      "stin": 9249,
      "▁Ström": 9250,
      "mode": 9251,
      "förvalt": 9252,
      "cil": 9253,
      "▁tryggt": 9254,
      "▁bott": 9255,
      "▁friv": 9256,
      "▁Självklart": 9257,
      "▁föregående": 9258,
      "anke": 9259,
      "▁kompon": 9260,
      "▁praktiskt": 9261,
      "▁Snabb": 9262,
      "meddelande": 9263,
      "▁kines": 9264,
      "venskan": 9265,
      "▁därifrån": 9266,
      "▁väggen": 9267,
      "▁SP": 9268,
      "ross": 9269,
      "▁åk": 9270,
      "▁Ålder": 9271,
      "▁VI": 9272,
      "▁utgångspunkt": 9273,
      "Men": 9274,
      "servera": 9275,
      "fakt": 9276,
      "▁delas": 9277,
      "fo": 9278,
      "▁beskrivning": 9279,
      "▁intressen": 9280,
      "▁Lo": 9281,
      "regler": 9282,
      "atiskt": 9283,
      "▁ansåg": 9284,
      "▁surf": 9285,
      "sskydd": 9286,
      "▁foto": 9287,
      "▁beläget": 9288,
      "bryt": 9289,
      "best": 9290,
      "▁klag": 9291,
      "gav": 9292,
      "fattare": 9293,
      "▁gul": 9294,
      "ekom": 9295,
      "▁box": 9296,
      "hantering": 9297,
      "tals": 9298,
      "▁civil": 9299,
      "▁sticka": 9300,
      "▁ho": 9301,
      "▁händelse": 9302,
      "▁inbland": 9303,
      "sstil": 9304,
      "▁texter": 9305,
      "ivna": 9306,
      "▁Marc": 9307,
      "▁irri": 9308,
      "▁Hö": 9309,
      "▁förpack": 9310,
      "▁medveten": 9311,
      "▁Gener": 9312,
      "▁kvitt": 9313,
      "▁jämförelse": 9314,
      "jörn": 9315,
      "▁Ör": 9316,
      "▁Haha": 9317,
      "▁internationell": 9318,
      "paket": 9319,
      "▁Holm": 9320,
      "mak": 9321,
      "▁Ren": 9322,
      "▁uppåt": 9323,
      "▁webbläs": 9324,
      "▁Beh": 9325,
      "öde": 9326,
      "▁kännas": 9327,
      "▁levererar": 9328,
      "kval": 9329,
      "▁sänd": 9330,
      "▁hållbarhet": 9331,
      "▁Bostad": 9332,
      "atiska": 9333,
      "▁stödja": 9334,
      "▁värden": 9335,
      "ektion": 9336,
      "▁Sundsvall": 9337,
      "▁intell": 9338,
      "▁rekommenderas": 9339,
      "FS": 9340,
      "▁inredning": 9341,
      "▁konsekvenser": 9342,
      "atch": 9343,
      "▁ändras": 9344,
      "▁Häl": 9345,
      "▁instrument": 9346,
      "▁gjord": 9347,
      "andin": 9348,
      "▁gymnasie": 9349,
      "▁fasta": 9350,
      "▁utnyttja": 9351,
      "▁träningen": 9352,
      "▁Verksamhet": 9353,
      "▁hyp": 9354,
      "▁partiet": 9355,
      "flyg": 9356,
      "▁stall": 9357,
      "▁Start": 9358,
      "▁Hy": 9359,
      "ödet": 9360,
      "bror": 9361,
      "▁formul": 9362,
      "▁kära": 9363,
      "▁Linda": 9364,
      "▁Götal": 9365,
      "mässigt": 9366,
      "▁lätta": 9367,
      "▁byggt": 9368,
      "▁bestämmelser": 9369,
      "▁ställde": 9370,
      "▁kartan": 9371,
      "entlig": 9372,
      "visningen": 9373,
      "▁konstaterar": 9374,
      "▁referens": 9375,
      "▁behandla": 9376,
      "▁branschen": 9377,
      "umenter": 9378,
      "verktyg": 9379,
      "▁landsbyg": 9380,
      "redovis": 9381,
      "▁resp": 9382,
      "▁kameran": 9383,
      "▁utforska": 9384,
      "UN": 9385,
      "▁support": 9386,
      "▁sträck": 9387,
      "▁Växjö": 9388,
      "▁Ok": 9389,
      "▁verka": 9390,
      "▁turn": 9391,
      "▁entr": 9392,
      "▁vaknade": 9393,
      "ION": 9394,
      "▁följde": 9395,
      "EA": 9396,
      "▁globala": 9397,
      "▁varan": 9398,
      "▁upphov": 9399,
      "▁com": 9400,
      "▁brister": 9401,
      "▁förlust": 9402,
      "▁finansiering": 9403,
      "▁fastigheten": 9404,
      "▁följt": 9405,
      "▁Don": 9406,
      "olution": 9407,
      "funktion": 9408,
      "▁koncer": 9409,
      "▁säk": 9410,
      "▁taket": 9411,
      "▁mord": 9412,
      "▁uppl": 9413,
      "ribut": 9414,
      "▁Wall": 9415,
      "▁presenteras": 9416,
      "▁Jos": 9417,
      "adress": 9418,
      "egräns": 9419,
      "▁förhindra": 9420,
      "ävar": 9421,
      "▁Rapp": 9422,
      "öken": 9423,
      "▁låtar": 9424,
      "▁symtom": 9425,
      "▁Mass": 9426,
      "▁sjuksköter": 9427,
      "▁söta": 9428,
      "▁expert": 9429,
      "▁inriktning": 9430,
      "▁Hammar": 9431,
      "▁HD": 9432,
      "bordet": 9433,
      "▁internationellt": 9434,
      "inari": 9435,
      "jo": 9436,
      "▁Hennes": 9437,
      "▁plattform": 9438,
      "▁distans": 9439,
      "ökan": 9440,
      "litter": 9441,
      "ders": 9442,
      "utik": 9443,
      "▁vikten": 9444,
      "▁Apple": 9445,
      "sex": 9446,
      "▁föddes": 9447,
      "kommit": 9448,
      "oci": 9449,
      "▁jävla": 9450,
      "berätt": 9451,
      "▁alternativt": 9452,
      "▁beställning": 9453,
      "▁bjuda": 9454,
      "▁Företaget": 9455,
      "▁ky": 9456,
      "df": 9457,
      "▁länkar": 9458,
      "▁uppenbar": 9459,
      "innande": 9460,
      "▁beskriva": 9461,
      "alk": 9462,
      "änsle": 9463,
      "▁ledarskap": 9464,
      "▁medborgare": 9465,
      "▁stänga": 9466,
      "▁fördju": 9467,
      "ämma": 9468,
      "▁sprida": 9469,
      "priset": 9470,
      "con": 9471,
      "Hur": 9472,
      "▁mamm": 9473,
      "sko": 9474,
      "way": 9475,
      "▁still": 9476,
      "▁Petter": 9477,
      "teknik": 9478,
      "cell": 9479,
      "orier": 9480,
      "▁lyssnar": 9481,
      "▁strid": 9482,
      "▁förväntas": 9483,
      "▁prem": 9484,
      "▁påpe": 9485,
      "trän": 9486,
      "▁ledig": 9487,
      "▁Ali": 9488,
      "▁boendet": 9489,
      "▁byggnader": 9490,
      "ärskil": 9491,
      "skande": 9492,
      "byt": 9493,
      "▁djupt": 9494,
      "▁Luleå": 9495,
      "stjärn": 9496,
      "järt": 9497,
      "▁Michael": 9498,
      "▁arv": 9499,
      "▁jud": 9500,
      "eterare": 9501,
      "▁Borås": 9502,
      "blogg": 9503,
      "ikationer": 9504,
      "▁fabrik": 9505,
      "▁fran": 9506,
      "▁obeh": 9507,
      "uster": 9508,
      "föränd": 9509,
      "onde": 9510,
      "▁självklar": 9511,
      "▁enskild": 9512,
      "▁längtar": 9513,
      "UT": 9514,
      "▁beräknas": 9515,
      "▁njut": 9516,
      "öljer": 9517,
      "▁Håkan": 9518,
      "▁Ass": 9519,
      "sted": 9520,
      "sem": 9521,
      "▁licens": 9522,
      "▁tidiga": 9523,
      "asen": 9524,
      "▁hamnade": 9525,
      "kät": 9526,
      "▁sjuka": 9527,
      "▁mångf": 9528,
      "ile": 9529,
      "▁leka": 9530,
      "igger": 9531,
      "▁reson": 9532,
      "▁människors": 9533,
      "pad": 9534,
      "▁regionen": 9535,
      "▁relev": 9536,
      "▁ordinarie": 9537,
      "▁sky": 9538,
      "▁Sweden": 9539,
      "▁behandlingen": 9540,
      "skop": 9541,
      "▁Plats": 9542,
      "▁Grund": 9543,
      "ställande": 9544,
      "ländska": 9545,
      "▁lediga": 9546,
      "▁garder": 9547,
      "ove": 9548,
      "▁frivill": 9549,
      "nr": 9550,
      "listan": 9551,
      "▁Bre": 9552,
      "öckerna": 9553,
      "▁Fråga": 9554,
      "koppling": 9555,
      "▁lamp": 9556,
      "▁ökning": 9557,
      "▁Finans": 9558,
      "▁Sex": 9559,
      "▁förmid": 9560,
      "▁dagliga": 9561,
      "▁drivs": 9562,
      "▁Cl": 9563,
      "▁Je": 9564,
      "andinav": 9565,
      "▁Bur": 9566,
      "▁höja": 9567,
      "▁Utveck": 9568,
      "▁affärer": 9569,
      "▁färgen": 9570,
      "▁konsumenter": 9571,
      "▁Gratis": 9572,
      "▁Polisen": 9573,
      "ställt": 9574,
      "aby": 9575,
      "▁träffas": 9576,
      "▁verkliga": 9577,
      "▁behandlar": 9578,
      "▁velat": 9579,
      "imin": 9580,
      "sålder": 9581,
      "skrav": 9582,
      "hälsa": 9583,
      "skrona": 9584,
      "▁lämplig": 9585,
      "▁betydande": 9586,
      "▁förf": 9587,
      "sna": 9588,
      "▁minut": 9589,
      "byggd": 9590,
      "▁Swed": 9591,
      "▁togs": 9592,
      "kons": 9593,
      "▁morm": 9594,
      "jäll": 9595,
      "soft": 9596,
      "ställer": 9597,
      "▁recensioner": 9598,
      "läge": 9599,
      "▁bered": 9600,
      "▁ställs": 9601,
      "▁Ga": 9602,
      "▁Svensson": 9603,
      "▁ärenden": 9604,
      "▁kvartalet": 9605,
      "▁förskolan": 9606,
      "▁verket": 9607,
      "▁tabell": 9608,
      "enomen": 9609,
      "▁Karlstad": 9610,
      "ettider": 9611,
      "iets": 9612,
      "▁registrering": 9613,
      "aks": 9614,
      "▁jobbade": 9615,
      "ody": 9616,
      "skare": 9617,
      "▁camp": 9618,
      "gym": 9619,
      "vitt": 9620,
      "▁Går": 9621,
      "▁eftermiddagen": 9622,
      "▁Eli": 9623,
      "säkt": 9624,
      "▁kommers": 9625,
      "▁Pal": 9626,
      "▁anställd": 9627,
      "▁mörka": 9628,
      "inspekt": 9629,
      "▁radio": 9630,
      "▁terror": 9631,
      "TM": 9632,
      "▁AIK": 9633,
      "▁larm": 9634,
      "▁samlar": 9635,
      "▁rost": 9636,
      "▁kompisar": 9637,
      "iabetes": 9638,
      "▁farligt": 9639,
      "▁riktlinjer": 9640,
      "▁måltid": 9641,
      "oten": 9642,
      "▁fysisk": 9643,
      "▁Israel": 9644,
      "nor": 9645,
      "▁duktiga": 9646,
      "▁förskola": 9647,
      "▁Båda": 9648,
      "cia": 9649,
      "▁liter": 9650,
      "▁specifika": 9651,
      "▁ep": 9652,
      "▁ert": 9653,
      "▁bussen": 9654,
      "▁original": 9655,
      "igr": 9656,
      "ribent": 9657,
      "▁flygplats": 9658,
      "punkten": 9659,
      "▁publiken": 9660,
      "ptom": 9661,
      "▁insikt": 9662,
      "▁vinster": 9663,
      "▁läggs": 9664,
      "▁tusentals": 9665,
      "oren": 9666,
      "▁investeringar": 9667,
      "▁tel": 9668,
      "station": 9669,
      "hr": 9670,
      "▁tema": 9671,
      "elle": 9672,
      "▁handlingar": 9673,
      "konto": 9674,
      "vad": 9675,
      "▁Gru": 9676,
      "▁Ger": 9677,
      "älje": 9678,
      "▁frågorna": 9679,
      "atör": 9680,
      "derande": 9681,
      "▁Ytter": 9682,
      "▁avtalet": 9683,
      "irur": 9684,
      "▁naturlig": 9685,
      "▁Vård": 9686,
      "▁Ram": 9687,
      "The": 9688,
      "försäljare": 9689,
      "ullen": 9690,
      "▁spelarna": 9691,
      "▁asyl": 9692,
      "▁meddelande": 9693,
      "pade": 9694,
      "ney": 9695,
      "▁Ofta": 9696,
      "fé": 9697,
      "▁cell": 9698,
      "▁rekord": 9699,
      "fullmäktige": 9700,
      "sug": 9701,
      "styrelsens": 9702,
      "dör": 9703,
      "▁Ros": 9704,
      "▁oblig": 9705,
      "handlingar": 9706,
      "▁lördagen": 9707,
      "enta": 9708,
      "▁Po": 9709,
      "smed": 9710,
      "spar": 9711,
      "▁generellt": 9712,
      "▁kristna": 9713,
      "▁uteslut": 9714,
      "UR": 9715,
      "▁anläggning": 9716,
      "▁domin": 9717,
      "änsl": 9718,
      "▁maskinöversättningarJa": 9719,
      "▁Nat": 9720,
      "▁Värld": 9721,
      "inal": 9722,
      "▁hin": 9723,
      "värld": 9724,
      "▁hundrat": 9725,
      "▁nivåer": 9726,
      "▁upplevelser": 9727,
      "▁mix": 9728,
      "celler": 9729,
[...]
