{
  "version": "1.0",
  "truncation": null,
  "padding": null,
  "added_tokens": [
    {
      "id": 0,
      "content": "[PAD]",
      "single_word": false,
      "lstrip": false,
      "rstrip": false,
      "normalized": false,
      "special": true
    },
    {
      "id": 1,
      "content": "[UNK]",
      "single_word": false,
      "lstrip": false,
      "rstrip": false,
      "normalized": false,
      "special": true
    },
    {
      "id": 2,
      "content": "[MASK]",
      "single_word": false,
      "lstrip": false,
      "rstrip": false,
      "normalized": false,
      "special": true
    },
    {
      "id": 3,
      "content": "[CLS]",
      "single_word": false,
      "lstrip": false,
      "rstrip": false,
      "normalized": false,
      "special": true
    },
    {
      "id": 4,
      "content": "[SEP]",
      "single_word": false,
      "lstrip": false,
      "rstrip": false,
      "normalized": false,
      "special": true
    }
  ],
  "normalizer": {
    "type": "Sequence",
    "normalizers": [
      {
        "type": "Nmt"
      },
      {
        "type": "NFKC"
      },
      {
        "type": "Replace",
        "pattern": {
          "Regex": " {2,}"
        },
        "content": " "
      }
    ]
  },
  "pre_tokenizer": {
    "type": "Sequence",
    "pretokenizers": [
      {
        "type": "Metaspace",
        "replacement": "▁",
        "add_prefix_space": true
      },
      {
        "type": "Split",
        "pattern": {
          "Regex": "\\d"
        },
        "behavior": "MergedWithPrevious",
        "invert": false
      },
      {
        "type": "Punctuation",
        "behavior": "Isolated"
      }
    ]
  },
  "post_processor": {
    "type": "TemplateProcessing",
    "single": [
      {
        "SpecialToken": {
          "id": "[CLS]",
          "type_id": 0
        }
      },
      {
        "Sequence": {
          "id": "A",
          "type_id": 0
        }
      },
      {
        "SpecialToken": {
          "id": "[SEP]",
          "type_id": 0
        }
      }
    ],
    "pair": [
      {
        "SpecialToken": {
          "id": "[CLS]",
          "type_id": 0
        }
      },
      {
        "Sequence": {
          "id": "A",
          "type_id": 0
        }
      },
      {
        "SpecialToken": {
          "id": "[SEP]",
          "type_id": 0
        }
      },
      {
        "Sequence": {
          "id": "B",
          "type_id": 1
        }
      },
      {
        "SpecialToken": {
          "id": "[SEP]",
          "type_id": 1
        }
      }
    ],
    "special_tokens": {
      "[CLS]": {
        "id": "[CLS]",
        "ids": [
          3
        ],
        "tokens": [
          "[CLS]"
        ]
      },
      "[SEP]": {
        "id": "[SEP]",
        "ids": [
          4
        ],
        "tokens": [
          "[SEP]"
        ]
      }
    }
  },
  "decoder": {
    "type": "Metaspace",
    "replacement": "▁",
    "add_prefix_space": true
  },
  "model": {
    "type": "Unigram",
    "unk_id": 1,
    "vocab": [
      [
        "[PAD]",
        0.0
      ],
      [
        "[UNK]",
        0.0
      ],
      [
        "[MASK]",
        0.0
      ],
      [
        "[CLS]",
        0.0
      ],
      [
        "[SEP]",
        0.0
      ],
      [
        "▁",
        -2.204228286876912
      ],
      [
        ".",
        -3.1955648771230045
      ],
      [
        ",",
        -3.8793326422173067
      ],
      [
        "▁och",
        -3.910818587522897
      ],
      [
        "i",
        -4.029944532089598
      ],
      [
        "s",
        -4.128011643836043
      ],
      [
        "▁att",
        -4.143982225754105
      ],
      [
        "▁är",
        -4.49949013834425
      ],
      [
        "▁som",
        -4.553480702701048
      ],
      [
        "▁på",
        -4.569078818602968
      ],
      [
        "a",
        -4.586588651388897
      ],
      [
        "t",
        -4.64040065991302
      ],
      [
        "▁för",
        -4.644707229359298
      ],
      [
        "▁en",
        -4.666715315692873
      ],
      [
        "▁det",
        -4.6747357918894785
      ],
      [
        "▁med",
        -4.840461151970171
      ],
      [
        "0",
        -4.846977626678406
      ],
      [
        "▁av",
        -4.85876128957025
      ],
      [
        "1",
        -4.973257684189111
      ],
      [
        "▁till",
        -5.000453847871167
      ],
      [
        "en",
        -5.009229055205157
      ],
      [
        "-",
        -5.0721507343934
      ],
      [
        "▁har",
        -5.110826270268532
      ],
      [
        "2",
        -5.236912998087629
      ],
      [
        "▁jag",
        -5.250914075355368
      ],
      [
        "▁inte",
        -5.31839695354288
      ],
      [
        "▁om",
        -5.364136729889612
      ],
      [
        "n",
        -5.393497941614868
      ],
      [
        "e",
        -5.4295263902632165
      ],
      [
        "▁den",
        -5.442196758655452
      ],
      [
        "▁ett",
        -5.4783762844058295
      ],
      [
        "▁så",
        -5.545242584964811
      ],
      [
        "▁kan",
        -5.647523457535836
      ],
      [
        "▁du",
        -5.64873615755949
      ],
      [
        "▁de",
        -5.652820999620019
      ],
      [
        "er",
        -5.6661305592724105
      ],
      [
        "r",
        -5.690987506916276
      ],
      [
        ":",
        -5.717916392249592
      ],
      [
        "▁vi",
        -5.719855117752829
      ],
      [
        "▁var",
        -5.843438271913623
      ],
      [
        "▁Det",
        -5.882279368962394
      ],
      [
        "!",
        -5.896545573499658
      ],
      [
        ")",
        -5.938920032142832
      ],
      [
        "5",
        -5.946478012859991
      ],
      [
        "3",
        -5.961587543744983
      ],
      [
        "▁man",
        -5.96228270796702
      ],
      [
        "▁från",
        -5.966974647598555
      ],
      [
        "\"",
        -6.011687111136531
      ],
      [
        "(",
        -6.085014773761593
      ],
      [
        "▁men",
        -6.0966254244614255
      ],
      [
        "▁eller",
        -6.100062690100245
      ],
      [
        "4",
        -6.1399960698560125
      ],
      [
        "9",
        -6.147190975491306
      ],
      [
        "o",
        -6.200178247936439
      ],
      [
        "?",
        -6.206566603306655
      ],
      [
        "d",
        -6.240108537235441
      ],
      [
        "▁ska",
        -6.24553117191083
      ],
      [
        "ar",
        -6.288878300103665
      ],
      [
        "▁sig",
        -6.298909631156684
      ],
      [
        "6",
        -6.329069832684096
      ],
      [
        "8",
        -6.371383347884052
      ],
      [
        "7",
        -6.384818804332912
      ],
      [
        "▁Jag",
        -6.410003262730262
      ],
      [
        "de",
        -6.414051162666816
      ],
      [
        "▁när",
        -6.419591849610823
      ],
      [
        "▁in",
        -6.428665347055071
      ],
      [
        "▁ut",
        -6.4295086218584085
      ],
      [
        "▁upp",
        -6.440496974021981
      ],
      [
        "▁här",
        -6.456577186775117
      ],
      [
        "–",
        -6.47342471270151
      ],
      [
        "▁kommer",
        -6.4831178587473275
      ],
      [
        "m",
        -6.517952505625862
      ],
      [
        "/",
        -6.521661165387718
      ],
      [
        "▁vara",
        -6.550098207237685
      ],
      [
        "▁där",
        -6.555019875596855
      ],
      [
        "▁I",
        -6.56553102114613
      ],
      [
        "▁finns",
        -6.596281326063334
      ],
      [
        "▁Vi",
        -6.621483269075522
      ],
      [
        "▁han",
        -6.639095742926685
      ],
      [
        "▁mer",
        -6.644241230419416
      ],
      [
        "et",
        -6.647444032729814
      ],
      [
        "▁alla",
        -6.670887927446987
      ],
      [
        "▁nu",
        -6.701047464931008
      ],
      [
        "▁under",
        -6.721277409990968
      ],
      [
        "▁också",
        -6.735730114089671
      ],
      [
        "▁får",
        -6.751210654863465
      ],
      [
        "▁över",
        -6.755882493947279
      ],
      [
        "▁mycket",
        -6.76167557644388
      ],
      [
        "▁mig",
        -6.770881972337236
      ],
      [
        "▁år",
        -6.7985528038154985
      ],
      [
        "▁lite",
        -6.798614836082656
      ],
      [
        "▁bra",
        -6.799447807010839
      ],
      [
        "▁efter",
        -6.8146333395212135
      ],
      [
        "”",
        -6.820696958799969
      ],
      [
        "▁ha",
        -6.833652247287024
      ],
      [
        "▁då",
        -6.843681007198086
      ],
      [
        "▁vill",
        -6.865751887849374
      ],
      [
        "▁även",
        -6.872974169919306
      ],
      [
        "▁få",
        -6.873550950565445
      ],
      [
        "▁andra",
        -6.874176907263429
      ],
      [
        "▁bara",
        -6.880729048140818
      ],
      [
        "▁hur",
        -6.889589598698134
      ],
      [
        "▁vid",
        -6.9291735682468385
      ],
      [
        "▁Men",
        -6.946374382865667
      ],
      [
        "▁dig",
        -6.975770535155711
      ],
      [
        "▁hade",
        -6.991182836799693
      ],
      [
        "▁vad",
        -6.991501699163177
      ],
      [
        "k",
        -7.006689126966878
      ],
      [
        "▁skulle",
        -7.014358661092979
      ],
      [
        "▁än",
        -7.021868222445747
      ],
      [
        "▁blir",
        -7.036834153315558
      ],
      [
        "g",
        -7.074190530428417
      ],
      [
        "▁En",
        -7.079869141019486
      ],
      [
        "▁sin",
        -7.095313009984013
      ],
      [
        "▁mot",
        -7.1060405568024105
      ],
      [
        "▁många",
        -7.120631844831992
      ],
      [
        "▁göra",
        -7.1225019567423296
      ],
      [
        "▁min",
        -7.164861818476735
      ],
      [
        "▁ju",
        -7.171436038027515
      ],
      [
        "▁gör",
        -7.17431880502464
      ],
      [
        "▁För",
        -7.191075384739085
      ],
      [
        "v",
        -7.192622037077152
      ],
      [
        "are",
        -7.196025681272303
      ],
      [
        "▁detta",
        -7.19732685942982
      ],
      [
        "▁hon",
        -7.200884795106274
      ],
      [
        "▁Den",
        -7.2025679787222305
      ],
      [
        "▁något",
        -7.210466594406983
      ],
      [
        "p",
        -7.2108135900718615
      ],
      [
        "l",
        -7.219911308493776
      ],
      [
        "▁din",
        -7.220134923662338
      ],
      [
        "▁sedan",
        -7.243908843429473
      ],
      [
        "erna",
        -7.244831629923331
      ],
      [
        "▁oss",
        -7.252878295675538
      ],
      [
        "▁utan",
        -7.26154822389624
      ],
      [
        "▁De",
        -7.265495090390775
      ],
      [
        "▁två",
        -7.291200478477345
      ],
      [
        "▁olika",
        -7.292626985110525
      ],
      [
        "h",
        -7.298646689262917
      ],
      [
        "▁se",
        -7.305883852610664
      ],
      [
        "▁allt",
        -7.307290487931006
      ],
      [
        "▁säger",
        -7.318633707494932
      ],
      [
        "▁del",
        -7.332227303063775
      ],
      [
        "▁någon",
        -7.339930905636569
      ],
      [
        "▁bli",
        -7.343510643516112
      ],
      [
        "▁genom",
        -7.366604736609185
      ],
      [
        "▁går",
        -7.367788663479592
      ],
      [
        "▁helt",
        -7.393277736662679
      ],
      [
        "▁fick",
        -7.421319074072256
      ],
      [
        "▁nya",
        -7.443297044835001
      ],
      [
        "▁hela",
        -7.448290546759528
      ],
      [
        "▁fram",
        -7.449631243831851
      ],
      [
        "▁måste",
        -7.4646761117916025
      ],
      [
        "▁varit",
        -7.465123435318784
      ],
      [
        "▁Om",
        -7.46950734373414
      ],
      [
        "▁blev",
        -7.4785478072993214
      ],
      [
        "ade",
        -7.480492669846532
      ],
      [
        "▁första",
        -7.483523753860593
      ],
      [
        "▁några",
        -7.484897278949184
      ],
      [
        "▁inom",
        -7.4877442149311175
      ],
      [
        "f",
        -7.490099678017419
      ],
      [
        "▁dem",
        -7.490867647279062
      ],
      [
        "y",
        -7.516352907272763
      ],
      [
        "c",
        -7.525676470427815
      ],
      [
        "▁kunna",
        -7.531403518026188
      ],
      [
        "▁samt",
        -7.535362741460254
      ],
      [
        "▁S",
        -7.544932036413975
      ],
      [
        "▁mellan",
        -7.545483603598944
      ],
      [
        "▁denna",
        -7.551937153537407
      ],
      [
        "u",
        -7.577689666919895
      ],
      [
        "▁Du",
        -7.578562374680629
      ],
      [
        "▁När",
        -7.584470704915999
      ],
      [
        "▁själv",
        -7.591533251039955
      ],
      [
        "▁rätt",
        -7.599540798707801
      ],
      [
        "å",
        -7.604090084279587
      ],
      [
        "▁Och",
        -7.612281789626852
      ],
      [
        "arna",
        -7.612523152823844
      ],
      [
        "▁sätt",
        -7.622637641011684
      ],
      [
        "▁väl",
        -7.626173621533626
      ],
      [
        "▁ser",
        -7.638384175633947
      ],
      [
        "▁annat",
        -7.638628119310374
      ],
      [
        "▁vår",
        -7.648753056162011
      ],
      [
        "▁tid",
        -7.64963516751814
      ],
      [
        "ande",
        -7.650361960882737
      ],
      [
        "▁barn",
        -7.653327789863628
      ],
      [
        "▁Sverige",
        -7.654825627735862
      ],
      [
        "▁vilket",
        -7.684564881073822
      ],
      [
        "▁Så",
        -7.6846763497457005
      ],
      [
        "▁både",
        -7.688770623496971
      ],
      [
        "▁sina",
        -7.696516815565406
      ],
      [
        "▁dag",
        -7.7082953575195585
      ],
      [
        "▁gå",
        -7.7380230830297005
      ],
      [
        "▁stor",
        -7.745539974721693
      ],
      [
        "▁Nu",
        -7.745585225867881
      ],
      [
        "▁hos",
        -7.74777604840202
      ],
      [
        "▁behöver",
        -7.759162848119075
      ],
      [
        "▁våra",
        -7.770171495764185
      ],
      [
        "▁kanske",
        -7.776289718702063
      ],
      [
        "▁dessa",
        -7.787273065491176
      ],
      [
        "▁ny",
        -7.807342096412388
      ],
      [
        "▁innan",
        -7.807963167732877
      ],
      [
        "S",
        -7.810582636979383
      ],
      [
        "▁vet",
        -7.810892688864406
      ],
      [
        "ingen",
        -7.81537536874457
      ],
      [
        "b",
        -7.821223565634348
      ],
      [
        "▁På",
        -7.821956188401396
      ],
      [
        "▁flera",
        -7.825656393839832
      ],
      [
        "ens",
        -7.840772030208628
      ],
      [
        "▁idag",
        -7.846411785296267
      ],
      [
        "▁kom",
        -7.852231096877093
      ],
      [
        "in",
        -7.854210684633632
      ],
      [
        "▁hem",
        -7.85780552148573
      ],
      [
        "▁Han",
        -7.860499941616002
      ],
      [
        "▁sitt",
        -7.869668585930356
      ],
      [
        "▁tar",
        -7.871392541215467
      ],
      [
        "▁samma",
        -7.871880588245517
      ],
      [
        ";",
        -7.880595559083105
      ],
      [
        "▁alltid",
        -7.880733579779477
      ],
      [
        "▁bästa",
        -7.893350472138589
      ],
      [
        "▁A",
        -7.899066391778531
      ],
      [
        "ning",
        -7.9029862258745975
      ],
      [
        "▁ger",
        -7.905552395767501
      ],
      [
        "▁tre",
        -7.9209627513291565
      ],
      [
        "▁väldigt",
        -7.921005927520177
      ],
      [
        "▁ner",
        -7.922757495901255
      ],
      [
        "▁be",
        -7.926981396569602
      ],
      [
        "▁stora",
        -7.9286738235311045
      ],
      [
        "▁ditt",
        -7.929377905726561
      ],
      [
        "&",
        -7.92938981005028
      ],
      [
        "▁bort",
        -7.9299328422697855
      ],
      [
        "▁Att",
        -7.932863729226257
      ],
      [
        "▁Här",
        -7.935733239497187
      ],
      [
        "▁bland",
        -7.938332730939347
      ],
      [
        "▁varje",
        -7.939742811987399
      ],
      [
        "▁bättre",
        -7.946173591175867
      ],
      [
        "ing",
        -7.947562266960089
      ],
      [
        "or",
        -7.954266850020186
      ],
      [
        "▁tycker",
        -7.95573908373845
      ],
      [
        "▁igen",
        -7.9666693147822585
      ],
      [
        "▁Detta",
        -7.968823381167242
      ],
      [
        "▁fall",
        -7.982915076284243
      ],
      [
        "▁gäller",
        -7.9896133109707375
      ],
      [
        "▁ligger",
        -8.000109584188847
      ],
      [
        "▁nog",
        -8.004325696973748
      ],
      [
        "▁tidigare",
        -8.014619223222514
      ],
      [
        "▁fått",
        -8.01818636398324
      ],
      [
        "▁just",
        -8.024030101334056
      ],
      [
        "▁mitt",
        -8.029989596895994
      ],
      [
        "▁gång",
        -8.03584643207043
      ],
      [
        "%",
        -8.036707874479323
      ],
      [
        "▁komma",
        -8.040377001350345
      ],
      [
        "▁hitta",
        -8.060470816456386
      ],
      [
        "▁Läs",
        -8.064574592904048
      ],
      [
        "▁åt",
        -8.068873382673662
      ],
      [
        "▁B",
        -8.071669218115797
      ],
      [
        "▁tror",
        -8.072176982455044
      ],
      [
        "▁riktigt",
        -8.07898618450494
      ],
      [
        "▁ge",
        -8.090320163739712
      ],
      [
        "▁dock",
        -8.091751870392109
      ],
      [
        "▁skall",
        -8.095012331065242
      ],
      [
        "▁eftersom",
        -8.101422327432344
      ],
      [
        "▁Har",
        -8.104357502265339
      ],
      [
        "▁Vad",
        -8.104934656391938
      ],
      [
        "▁annan",
        -8.105566659618532
      ],
      [
        "▁enligt",
        -8.107251583939659
      ],
      [
        "▁P",
        -8.107740994955348
      ],
      [
        "▁plats",
        -8.111446822621831
      ],
      [
        "▁gick",
        -8.113134974525877
      ],
      [
        "▁mest",
        -8.114927011432918
      ],
      [
        "des",
        -8.117352778617253
      ],
      [
        "▁Med",
        -8.121158669044718
      ],
      [
        "▁redan",
        -8.123397037784098
      ],
      [
        "▁E",
        -8.134061553647793
      ],
      [
        "▁C",
        -8.14068923776927
      ],
      [
        "▁människor",
        -8.143535771766796
      ],
      [
        "▁Hur",
        -8.145135114989284
      ],
      [
        "▁Ett",
        -8.147248099063173
      ],
      [
        "▁svenska",
        -8.149099134675913
      ],
      [
        "▁runt",
        -8.15900233923226
      ],
      [
        "el",
        -8.159880681706934
      ],
      [
        "▁kunde",
        -8.160407921990421
      ],
      [
        "j",
        -8.168867647570456
      ],
      [
        "▁fler",
        -8.170706319497196
      ],
      [
        "▁M",
        -8.17105923792842
      ],
      [
        "man",
        -8.174055044006867
      ],
      [
        "▁gjort",
        -8.175729913060797
      ],
      [
        "▁deras",
        -8.195124408420805
      ],
      [
        "▁dina",
        -8.199787462697504
      ],
      [
        "▁företag",
        -8.200206126865046
      ],
      [
        "▁G",
        -8.201305536667235
      ],
      [
        "▁F",
        -8.203463367613699
      ],
      [
        "▁aldrig",
        -8.211119301694712
      ],
      [
        "▁hjälp",
        -8.217342338224844
      ],
      [
        "▁lika",
        -8.218839081081756
      ],
      [
        "▁verkligen",
        -8.222456719311406
      ],
      [
        "▁dom",
        -8.223116643470366
      ],
      [
        "▁tillbaka",
        -8.227746487335605
      ],
      [
        "▁tillsammans",
        -8.232479366634626
      ],
      [
        "▁gjorde",
        -8.239770189518769
      ],
      [
        "▁Man",
        -8.250775594606733
      ],
      [
        "▁tiden",
        -8.261679689380237
      ],
      [
        "▁ofta",
        -8.270509103491783
      ],
      [
        "▁information",
        -8.284967771700268
      ],
      [
        "▁tog",
        -8.289782875147965
      ],
      [
        "▁mina",
        -8.292825216245765
      ],
      [
        "▁lätt",
        -8.293077879198078
      ],
      [
        "▁därför",
        -8.295397618453906
      ],
      [
        "▁personer",
        -8.29693787649998
      ],
      [
        "▁använda",
        -8.299881538780772
      ],
      [
        "▁mindre",
        -8.304023002845877
      ],
      [
        "▁sen",
        -8.316812662857036
      ],
      [
        "▁läsa",
        -8.317827807585683
      ],
      [
        "▁honom",
        -8.325465173609397
      ],
      [
        "▁K",
        -8.329451931961597
      ],
      [
        "för",
        -8.331979362903652
      ],
      [
        "▁säga",
        -8.334353181110048
      ],
      [
        "ö",
        -8.334529833538834
      ],
      [
        "▁mat",
        -8.335554481073943
      ],
      [
        "▁grund",
        -8.338699006218421
      ],
      [
        "'",
        -8.338868088522851
      ],
      [
        "om",
        -8.339953222618975
      ],
      [
        "▁hemma",
        -8.343191654534145
      ],
      [
        "x",
        -8.343621325905374
      ],
      [
        "▁direkt",
        -8.347724878105195
      ],
      [
        "▁ur",
        -8.35038444029462
      ],
      [
        "▁ändå",
        -8.352190384812618
      ],
      [
        "▁större",
        -8.355817187364686
      ],
      [
        "▁T",
        -8.356336491638515
      ],
      [
        "▁bör",
        -8.360391005979103
      ],
      [
        "▁slut",
        -8.373806349849374
      ],
      [
        "▁små",
        -8.374129975684223
      ],
      [
        "▁kvar",
        -8.380460514803499
      ],
      [
        "▁mål",
        -8.380508734901069
      ],
      [
        "▁står",
        -8.384048890927025
      ],
      [
        "▁egen",
        -8.38512172251471
      ],
      [
        "▁Som",
        -8.387009180955832
      ],
      [
        "▁enkelt",
        -8.387791620812257
      ],
      [
        "▁innebär",
        -8.3888087855045
      ],
      [
        "▁exempel",
        -8.390316663427758
      ],
      [
        "▁hög",
        -8.391039309992989
      ],
      [
        "▁spel",
        -8.391631804403373
      ],
      [
        "▁kr",
        -8.39348052897376
      ],
      [
        "▁Efter",
        -8.393711135864535
      ],
      [
        "▁Hon",
        -8.400671640715087
      ],
      [
        "▁hans",
        -8.405463788299581
      ],
      [
        "on",
        -8.41088433595223
      ],
      [
        "▁vatten",
        -8.41591831375911
      ],
      [
        "▁par",
        -8.420537540846546
      ],
      [
        "▁senaste",
        -8.421530162131413
      ],
      [
        "▁procent",
        -8.424296627329843
      ],
      [
        "▁längre",
        -8.428377846789552
      ],
      [
        "▁haft",
        -8.4284844227127
      ],
      [
        "▁känner",
        -8.431120269219504
      ],
      [
        "▁liv",
        -8.431284311463092
      ],
      [
        "▁dagar",
        -8.43924827554641
      ],
      [
        "▁Då",
        -8.439920126474052
      ],
      [
        "▁stort",
        -8.443830253423366
      ],
      [
        "▁problem",
        -8.445659492365706
      ],
      [
        "håller",
        -8.448718084388975
      ],
      [
        "▁hand",
        -8.448778855354108
      ],
      [
        "▁god",
        -8.452457817633084
      ],
      [
        "▁saker",
        -8.457640845708491
      ],
      [
        "▁Under",
        -8.46823485302531
      ],
      [
        "▁blivit",
        -8.470562765979336
      ],
      [
        "liga",
        -8.471396334481405
      ],
      [
        "▁länge",
        -8.478833312608426
      ],
      [
        "▁per",
        -8.480369334078157
      ],
      [
        "▁Stockholm",
        -8.48187536586154
      ],
      [
        "▁lång",
        -8.481980925740388
      ],
      [
        "▁möjligt",
        -8.48472829341214
      ],
      [
        "▁faktiskt",
        -8.487230368607062
      ],
      [
        "▁skapa",
        -8.48880329491797
      ],
      [
        "▁H",
        -8.492101694118146
      ],
      [
        "ligt",
        -8.49710873603763
      ],
      [
        "]",
        -8.498219143392763
      ],
      [
        "[",
        -8.499382967180082
      ],
      [
        "B",
        -8.500971176811397
      ],
      [
        "▁pengar",
        -8.506351444195978
      ],
      [
        "▁visar",
        -8.506536139344066
      ],
      [
        "|",
        -8.506741376814697
      ],
      [
        "▁kort",
        -8.509609777074557
      ],
      [
        "▁köpa",
        -8.512663663539024
      ],
      [
        "▁svårt",
        -8.52113284139851
      ],
      [
        "▁ganska",
        -8.522889715236458
      ],
      [
        "▁känns",
        -8.525819637430699
      ],
      [
        "▁ännu",
        -8.530426551250157
      ],
      [
        "▁liten",
        -8.5401462158792
      ],
      [
        "▁börjar",
        -8.54024295683859
      ],
      [
        "▁nytt",
        -8.541031545489547
      ],
      [
        "▁hålla",
        -8.546695417035576
      ],
      [
        "nde",
        -8.54697530667422
      ],
      [
        "▁inför",
        -8.548199763029032
      ],
      [
        "▁folk",
        -8.548388400327548
      ],
      [
        "▁gärna",
        -8.548400954106699
      ],
      [
        "ig",
        -8.551586195216437
      ],
      [
        "A",
        -8.552208074410316
      ],
      [
        "▁inget",
        -8.555424874436323
      ],
      [
        "▁Är",
        -8.558792862081749
      ],
      [
        "▁L",
        -8.559051738338558
      ],
      [
        "▁ca",
        -8.569299741436595
      ],
      [
        "▁väg",
        -8.577975419607316
      ],
      [
        "▁spela",
        -8.579918402957535
      ],
      [
        "▁nästan",
        -8.582142384569636
      ],
      [
        "▁hotell",
        -8.582308490561191
      ],
      [
        "gått",
        -8.586519920926918
      ],
      [
        "▁Ja",
        -8.587157548670794
      ],
      [
        "▁extra",
        -8.587971947178488
      ],
      [
        "▁fortfarande",
        -8.588244830629295
      ],
      [
        "▁vårt",
        -8.594090426356868
      ],
      [
        "▁kommun",
        -8.59562756341764
      ],
      [
        "▁ute",
        -8.596273689435227
      ],
      [
        "är",
        -8.597940650477074
      ],
      [
        "▁handlar",
        -8.598394275461898
      ],
      [
        "▁bil",
        -8.599135914885146
      ],
      [
        "D",
        -8.600099628138768
      ],
      [
        "▁frågor",
        -8.6002748807135
      ],
      [
        "▁dagen",
        -8.601431791357443
      ],
      [
        "▁vissa",
        -8.602777002133944
      ],
      [
        "▁fast",
        -8.603811443089556
      ],
      [
        "▁N",
        -8.605705269163735
      ],
      [
        "la",
        -8.607678402043561
      ],
      [
        "▁O",
        -8.609877230823821
      ],
      [
        "▁dess",
        -8.612242477165886
      ],
      [
        "▁kronor",
        -8.613816442025039
      ],
      [
        "▁först",
        -8.614784691419871
      ],
      [
        "▁gånger",
        -8.617642646349303
      ],
      [
        "▁precis",
        -8.621497036448243
      ],
      [
        "▁vilka",
        -8.621522369393096
      ],
      [
        "▁samtidigt",
        -8.62652916861381
      ],
      [
        "▁åter",
        -8.627314380373756
      ],
      [
        "vägen",
        -8.629325918118672
      ],
      [
        "▁alltså",
        -8.632067285781108
      ],
      [
        "▁D",
        -8.632521127961983
      ],
      [
        "▁vidare",
        -8.633034163896411
      ],
      [
        "▁fel",
        -8.633841487435815
      ],
      [
        "▁henne",
        -8.63536750259956
      ],
      [
        "▁istället",
        -8.635445296170095
      ],
      [
        "▁hoppas",
        -8.637297237079562
      ],
      [
        "*",
        -8.638205666374464
      ],
      [
        "hittar",
        -8.638739634700904
      ],
      [
        "▁senare",
        -8.644109311158545
      ],
      [
        "▁bilder",
        -8.644670618152276
      ],
      [
        "▁Alla",
        -8.64483348455599
      ],
      [
        "▁form",
        -8.646438306941546
      ],
      [
        "▁använder",
        -8.646513197449178
      ],
      [
        "▁året",
        -8.647357790765826
      ],
      [
        "▁viktigt",
        -8.648277396268668
      ],
      [
        "▁person",
        -8.655686439589067
      ],
      [
        "▁vilken",
        -8.657331734936188
      ],
      [
        "ut",
        -8.658032180051
      ],
      [
        "▁lag",
        -8.661304589331984
      ],
      [
        "▁nästa",
        -8.671021562325002
      ],
      [
        "▁arbete",
        -8.671215012924538
      ],
      [
        "▁gott",
        -8.67341051099436
      ],
      [
        "▁började",
        -8.675931523409147
      ],
      [
        "▁fyra",
        -8.67783203172527
      ],
      [
        "▁Till",
        -8.679213723995161
      ],
      [
        "▁skriver",
        -8.68047070353761
      ],
      [
        "ex",
        -8.682557579640763
      ],
      [
        "▁stöd",
        -8.683682125734212
      ],
      [
        "talet",
        -8.685954916550465
      ],
      [
        "▁sidan",
        -8.687166801091541
      ],
      [
        "­",
        -8.690868280981261
      ],
      [
        "son",
        -8.690906395686016
      ],
      [
        "het",
        -8.691677176647858
      ],
      [
        "▁gratis",
        -8.693156303407491
      ],
      [
        "▁ihop",
        -8.693386878957751
      ],
      [
        "▁sista",
        -8.695840969886483
      ],
      [
        "▁största",
        -8.69724941649233
      ],
      [
        "▁pris",
        -8.69978463321155
      ],
      [
        "▁Där",
        -8.699814861984349
      ],
      [
        "området",
        -8.701035173913011
      ],
      [
        "▁endast",
        -8.704047125753622
      ],
      [
        "K",
        -8.7045576980689
      ],
      [
        "▁fråga",
        -8.705779674136885
      ],
      [
        "▁jobb",
        -8.706598253756455
      ],
      [
        "ä",
        -8.710841752492964
      ],
      [
        "berg",
        -8.713403857410965
      ],
      [
        "▁kvinnor",
        -8.71537985138946
      ],
      [
        "▁V",
        -8.718142739892603
      ],
      [
        "▁erbjuder",
        -8.718928107473134
      ],
      [
        "▁flesta",
        -8.719383318745262
      ],
      [
        "▁nära",
        -8.722578465585102
      ],
      [
        "vis",
        -8.724289136543783
      ],
      [
        "▁bild",
        -8.728405910759186
      ],
      [
        "▁minst",
        -8.728918505006037
      ],
      [
        "▁själva",
        -8.73481009145007
      ],
      [
        "▁sett",
        -8.735503968297316
      ],
      [
        "▁kring",
        -8.73878733472426
      ],
      [
        "▁R",
        -8.740748518096868
      ],
      [
        "▁hel",
        -8.740817784818876
      ],
      [
        "▁snabbt",
        -8.742241796848209
      ],
      [
        "▁beslut",
        -8.747941855064793
      ],
      [
        "▁såg",
        -8.750408358196996
      ],
      [
        "▁egna",
        -8.750784649287633
      ],
      [
        "P",
        -8.750813881671993
      ],
      [
        "▁hennes",
        -8.753747491582095
      ],
      [
        "M",
        -8.756226011813231
      ],
      [
        "▁välja",
        -8.756379527547251
      ],
      [
        "▁möjlighet",
        -8.757694890889749
      ],
      [
        "T",
        -8.761292699808841
      ],
      [
        "lig",
        -8.762396466731055
      ],
      [
        "ska",
        -8.765658624924306
      ],
      [
        "▁världen",
        -8.769893506893133
      ],
      [
        "▁börja",
        -8.772357880131992
      ],
      [
        "▁all",
        -8.773646024760536
      ],
      [
        "▁dessutom",
        -8.77507786780923
      ],
      [
        "▁borde",
        -8.779439225356498
      ],
      [
        "▁klart",
        -8.78023355862542
      ],
      [
        "tagit",
        -8.780909435018552
      ],
      [
        "▁Idag",
        -8.79000614506154
      ],
      [
        "aste",
        -8.790541156521643
      ],
      [
        "C",
        -8.794848160070094
      ],
      [
        "▁gamla",
        -8.796333385898315
      ],
      [
        "▁vecka",
        -8.797541597851533
      ],
      [
        "iga",
        -8.799945956459023
      ],
      [
        "▁kul",
        -8.801904363719988
      ],
      [
        "▁sex",
        -8.805168613415455
      ],
      [
        "▁kl",
        -8.806715886882262
      ],
      [
        "▁fin",
        -8.809044623567418
      ],
      [
        "▁svar",
        -8.812907337922981
      ],
      [
        "iska",
        -8.813599696803664
      ],
      [
        "▁AB",
        -8.814884229374892
      ],
      [
        "▁miljö",
        -8.81633010067851
      ],
      [
        "▁långt",
        -8.820296471158894
      ],
      [
        "▁helst",
        -8.822161169223179
      ],
      [
        "▁hjälper",
        -8.825465941895786
      ],
      [
        "L",
        -8.827084354476417
      ],
      [
        "▁varför",
        -8.827353684982603
      ],
      [
        "▁Även",
        -8.827847518800754
      ],
      [
        "▁tips",
        -8.827851527382116
      ],
      [
        "▁lägga",
        -8.830421028282286
      ],
      [
        "inga",
        -8.830861343170016
      ],
      [
        "▁visa",
        -8.834572002190532
      ],
      [
        "▁behov",
        -8.83594101288085
      ],
      [
        "▁trots",
        -8.836501026409158
      ],
      [
        "▁fem",
        -8.837350728994794
      ],
      [
        "ja",
        -8.839334862788352
      ],
      [
        "sk",
        -8.84232531451835
      ],
      [
        "▁verkar",
        -8.842415189897713
      ],
      [
        "▁delar",
        -8.845187651943279
      ],
      [
        "▁rum",
        -8.845736022265529
      ],
      [
        "▁typ",
        -8.852500138917923
      ],
      [
        "▁början",
        -8.855006040989844
      ],
      [
        "▁minuter",
        -8.855030040959127
      ],
      [
        "▁Air",
        -8.858329566213605
      ],
      [
        "▁brukar",
        -8.858432189560379
      ],
      [
        "com",
        -8.858643587627522
      ],
      [
        "_",
        -8.859174440873643
      ],
      [
        "▁känna",
        -8.862274994684816
      ],
      [
        "▁Nike",
        -8.863234666717487
      ],
      [
        "▁hjälpa",
        -8.864208345611347
      ],
      [
        "▁ville",
        -8.866712654958276
      ],
      [
        "emot",
        -8.868162809781273
      ],
      [
        "▁veckan",
        -8.868446420368125
      ],
      [
        "▁namn",
        -8.8697033995446
      ],
      [
        "▁Max",
        -8.869892338603787
      ],
      [
        "▁skriva",
        -8.871470736403129
      ],
      [
        "▁tänka",
        -8.875725159487255
      ],
      [
        "▁medan",
        -8.878241133777056
      ],
      [
        "▁val",
        -8.880157133787025
      ],
      [
        "▁ibland",
        -8.88367863669376
      ],
      [
        "sson",
        -8.884975893404517
      ],
      [
        "Denna",
        -8.888678095769455
      ],
      [
        "▁enda",
        -8.88889828070029
      ],
      [
        "▁snart",
        -8.889316809799938
      ],
      [
        "▁fina",
        -8.889868587945873
      ],
      [
        "▁Se",
        -8.892743419759244
      ],
      [
        "▁Vid",
        -8.893501449175645
      ],
      [
        "▁of",
        -8.895533533502075
      ],
      [
        "ej",
        -8.896388400069108
      ],
      [
        "▁heller",
        -8.898534411749198
      ],
      [
        "w",
        -8.900726228421501
      ],
      [
        "▁tag",
        -8.901900625608006
      ],
      [
        "▁arbetar",
        -8.90244124544227
      ],
      [
        "▁Av",
        -8.910005473565727
      ],
      [
        "tal",
        -8.914830785250203
      ],
      [
        "▁gången",
        -8.915104787757114
      ],
      [
        "fanns",
        -8.915462390410214
      ],
      [
        "▁egentligen",
        -8.916886364027063
      ],
      [
        "stod",
        -8.918200913679527
      ],
      [
        "▁vanligt",
        -8.922752813234501
      ],
      [
        "▁Sedan",
        -8.925278305788094
      ],
      [
        "igt",
        -8.925842904119856
      ],
      [
        "▁förslag",
        -8.92624355806808
      ],
      [
        "▁livet",
        -8.926259939879685
      ],
      [
        "▁färg",
        -8.927792882354984
      ],
      [
        "▁emot",
        -8.930384075372809
      ],
      [
        "▁ord",
        -8.935523644233463
      ],
      [
        "▁online",
        -8.935948205530641
      ],
      [
        "▁miljoner",
        -8.937459868700863
      ],
      [
        "▁inne",
        -8.93812061514666
      ],
      [
        "ch",
        -8.939732217514678
      ],
      [
        "▁timmar",
        -8.944185446986024
      ],
      [
        "▁energi",
        -8.945342595376008
      ],
      [
        "men",
        -8.945639828014105
      ],
      [
        "▁dags",
        -8.946135529590661
      ],
      [
        "▁In",
        -8.947018873040793
      ],
      [
        "▁resultat",
        -8.949160381056874
      ],
      [
        "▁bäst",
        -8.949396548788
      ],
      [
        "▁EU",
        -8.94944604198942
      ],
      [
        "▁låg",
        -8.951184380062598
      ],
      [
        "+",
        -8.951310044519
      ],
      [
        "▁ned",
        -8.954733429421875
      ],
      [
        "·",
        -8.955124903869953
      ],
      [
        "I",
        -8.955716283497186
      ],
      [
        "▁antal",
        -8.956881980787555
      ],
      [
        "▁hus",
        -8.957259469901683
      ],
      [
        "F",
        -8.959157542850864
      ],
      [
        "▁utanför",
        -8.96259264167162
      ],
      [
        "G",
        -8.964665398957768
      ],
      [
        "att",
        -8.96530538376766
      ],
      [
        "▁Tack",
        -8.96681937905628
      ],
      [
        "▁km",
        -8.967998689861005
      ],
      [
        "=",
        -8.968297637549034
      ],
      [
        "▁veta",
        -8.969740450718106
      ],
      [
        "sagt",
        -8.970606384583888
      ],
      [
        "▁Min",
        -8.971606457313221
      ],
      [
        "▁J",
        -8.97333458358542
      ],
      [
        "▁jätte",
        -8.973383923119126
      ],
      [
        "▁varandra",
        -8.973764686371416
      ],
      [
        "▁bok",
        -8.975576452982404
      ],
      [
        "▁framför",
        -8.976063812897673
      ],
      [
        "sitter",
        -8.976894795855214
      ],
      [
        "▁Sveriges",
        -8.977548614881632
      ],
      [
        "▁särskilt",
        -8.978247954387337
      ],
      [
        "▁passar",
        -8.97910544911904
      ],
      [
        "år",
        -8.979975149484142
      ],
      [
        "▁ytterligare",
        -8.982570847894984
      ],
      [
        "▁fungerar",
        -8.992206287755215
      ],
      [
        "▁båda",
        -8.992599298815831
      ],
      [
        "av",
        -8.993369387464165
      ],
      [
        "“",
        -8.996327239309476
      ],
      [
        "▁verksamhet",
        -8.99828538090632
      ],
      [
        "▁kontakt",
        -9.002515800574216
      ],
      [
        "▁betala",
        -9.00437614744002
      ],
      [
        "▁förra",
        -9.005502114659942
      ],
      [
        "▁resa",
        -9.006865012653863
      ],
      [
        "ger",
        -9.010262072172313
      ],
      [
        "▁används",
        -9.011631275361212
      ],
      [
        "▁produkter",
        -9.012810546192554
      ],
      [
        "▁gillar",
        -9.0152616776945
      ],
      [
        "▁Sen",
        -9.019316590284726
      ],
      [
        "orna",
        -9.020239629754373
      ],
      [
        "▁kommit",
        -9.020812179413038
      ],
      [
        "z",
        -9.02554008885222
      ],
      [
        "▁USA",
        -9.029519414792626
      ],
      [
        "▁skolan",
        -9.040380082214666
      ],
      [
        "tänker",
        -9.040421173627305
      ],
      [
        "tid",
        -9.04564040970612
      ],
      [
        "▁besök",
        -9.046730353110608
      ],
      [
        "▁sådan",
        -9.046784002753617
      ],
      [
        "▁händer",
        -9.048072891712314
      ],
      [
        "▁tur",
        -9.048792829633681
      ],
      [
        "lagen",
        -9.050896120626122
      ],
      [
        "▁arbeta",
        -9.051024737165942
      ],
      [
        "▁maj",
        -9.051814758024259
      ],
      [
        "▁Inte",
        -9.053554716087081
      ],
      [
        "▁bakom",
        -9.056492277646734
      ],
      [
        "▁omdömen",
        -9.058143299480518
      ],
      [
        "▁spelar",
        -9.05871131995755
      ],
      [
        "▁landet",
        -9.061333419147047
      ],
      [
        "och",
        -9.062629330735323
      ],
      [
        "▁söker",
        -9.063473434493634
      ],
      [
        "▁Kan",
        -9.065125041486038
      ],
      [
        "▁skicka",
        -9.068815673558984
      ],
      [
        "▁bor",
        -9.073851083858306
      ],
      [
        "▁utveckling",
        -9.074434436245275
      ],
      [
        "▁projekt",
        -9.075722256171213
      ],
      [
        "▁igenom",
        -9.082742897844456
      ],
      [
        "▁ja",
        -9.084552127663004
      ],
      [
        "▁svensk",
        -9.08564418584485
      ],
      [
        "▁åka",
        -9.08566990342961
      ],
      [
        "▁sak",
        -9.087781834671961
      ],
      [
        "▁barnen",
        -9.088979057280278
      ],
      [
        "▁lämna",
        -9.090344388356053
      ],
      [
        "▁huvud",
        -9.090984289735294
      ],
      [
        "▁säkert",
        -9.091043388391524
      ],
      [
        "▁ljus",
        -9.09236094701502
      ],
      [
        "um",
        -9.092609719529115
      ],
      [
        "era",
        -9.092652463882127
      ],
      [
        "▁dra",
        -9.09515342962024
      ],
      [
        "▁inlägg",
        -9.097512080257308
      ],
      [
        "▁män",
        -9.098537174954108
      ],
      [
        "▁ovan",
        -9.099263912558959
      ],
      [
        "▁veckor",
        -9.101131368080392
      ],
      [
        "▁sätta",
        -9.10567194703684
      ],
      [
        "Dessutom",
        -9.106255526929735
      ],
      [
        "▁Var",
        -9.106481146786495
      ],
      [
        "▁film",
        -9.106929947499415
      ],
      [
        "▁lilla",
        -9.108476719530884
      ],
      [
        "Enligt",
        -9.109095647245077
      ],
      [
        "▁U",
        -9.110872575949886
      ],
      [
        "H",
        -9.113974206005238
      ],
      [
        "▁The",
        -9.115615243121182
      ],
      [
        "▁högre",
        -9.11595921537807
      ],
      [
        "▁steg",
        -9.120270473765984
      ],
      [
        "▁innehåller",
        -9.121440974165749
      ],
      [
        "▁jobba",
        -9.12178702484987
      ],
      [
        "▁månader",
        -9.122696583671306
      ],
      [
        "▁äta",
        -9.122841225971568
      ],
      [
        "▁krav",
        -9.123518091691931
      ],
      [
        "▁kör",
        -9.124307512645515
      ],
      [
        "▁arbets",
        -9.12949615257991
      ],
      [
        "ström",
        -9.129932769453786
      ],
      [
        "▁kroppen",
        -9.130589072957997
      ],
      [
        "▁sida",
        -9.132520082739713
      ],
      [
        "▁bygga",
        -9.133324474196474
      ],
      [
        "be",
        -9.135867858653373
      ],
      [
        "▁the",
        -9.137545745212778
      ],
      [
        "▁berättar",
        -9.138533292518973
      ],
      [
        "▁öppna",
        -9.140256363595723
      ],
      [
        "rum",
        -9.141939486156003
      ],
      [
        "samma",
        -9.144147894746586
      ],
      [
        "▁alls",
        -9.144376351472454
      ],
      [
        "▁ingår",
        -9.145042476794261
      ],
      [
        ">",
        -9.147191210159258
      ],
      [
        "▁personal",
        -9.149099540631616
      ],
      [
        "▁betyg",
        -9.150322171224127
      ],
      [
        "▁lära",
        -9.151289708278076
      ],
      [
        "ell",
        -9.151399638169211
      ],
      [
        "▁Vill",
        -9.152976157094743
      ],
      [
        "▁max",
        -9.1539801824418
      ],
      [
        "▁försöka",
        -9.154339500626369
      ],
      [
        "Många",
        -9.15701639964
      ],
      [
        "▁äldre",
        -9.158479753356911
      ],
      [
        "▁mamma",
        -9.159189736078726
      ],
      [
        "▁kunder",
        -9.160006459200968
      ],
      [
        "by",
        -9.163799460702753
      ],
      [
        "▁åren",
        -9.167544919824486
      ],
      [
        "väljer",
        -9.167956361609901
      ],
      [
        "V",
        -9.169231532145897
      ],
      [
        "▁musik",
        -9.170669163138136
      ],
      [
        "E",
        -9.173022555069958
      ],
      [
        "▁roligt",
        -9.173138052014009
      ],
      [
        "▁alternativ",
        -9.17550105053384
      ],
      [
        "▁främst",
        -9.176562903630664
      ],
      [
        "▁viktig",
        -9.178103112109829
      ],
      [
        "▁full",
        -9.179064834114042
      ],
      [
        "▁följa",
        -9.181521453842048
      ],
      [
        "▁Göteborg",
        -9.182055556519208
      ],
      [
        "▁tack",
        -9.184387809062063
      ],
      [
        "▁skrev",
        -9.184597988925509
      ],
      [
        "▁frågan",
        -9.185899290283738
      ],
      [
        "▁Ta",
        -9.18755337013431
      ],
      [
        "▁perfekt",
        -9.188266561163369
      ],
      [
        "▁blogg",
        -9.197935878759905
      ],
      [
        "▁tydlig",
        -9.199657366470396
      ],
      [
        "spel",
        -9.200347541444321
      ],
      [
        "▁sommar",
        -9.201217435792461
      ],
      [
        "▁Ska",
        -9.202299676099946
      ],
      [
        "▁ansvar",
        -9.204122852787627
      ],
      [
        "läget",
        -9.20717061461621
      ],
      [
        "▁igång",
        -9.211456002002299
      ],
      [
        "▁spelare",
        -9.21510044498759
      ],
      [
        "▁lär",
        -9.221041937516894
      ],
      [
        "▁spännande",
        -9.221881971698142
      ],
      [
        "ligen",
        -9.22345542860789
      ],
      [
        "rätt",
        -9.223460216089807
      ],
      [
        "▁ifrån",
        -9.225428112374473
      ],
      [
        "▁vänner",
        -9.226171891455099
      ],
      [
        "ny",
        -9.226970050492003
      ],
      [
        "▁sker",
        -9.22783809048319
      ],
      [
        "▁fint",
        -9.228471130947455
      ],
      [
        "som",
        -9.228518403316693
      ],
      [
        "ast",
        -9.228818255097691
      ],
      [
        "laget",
        -9.230370258572322
      ],
      [
        "▁Malmö",
        -9.23081861969709
      ],
      [
        "▁Be",
        -9.23094315149128
      ],
      [
        "ge",
        -9.232935411091038
      ],
      [
        "▁samband",
        -9.236921359315486
      ],
      [
        "slutet",
        -9.237602669360564
      ],
      [
        "▁Ni",
        -9.237937243330377
      ],
      [
        "▁Bra",
        -9.238315031398828
      ],
      [
        "▁poäng",
        -9.239031065464522
      ],
      [
        "▁fort",
        -9.241126157497803
      ],
      [
        "▁massa",
        -9.241156355152013
      ],
      [
        "▁följande",
        -9.243334349357617
      ],
      [
        "Det",
        -9.244019561328553
      ],
      [
        "▁Genom",
        -9.246249816129062
      ],
      [
        "▁nätet",
        -9.246528158580302
      ],
      [
        "▁minska",
        -9.247183455772195
      ],
      [
        "▁uppgifter",
        -9.248101623043464
      ],
      [
        "▁goda",
        -9.248652529712668
      ],
      [
        "▁satt",
        -9.251581584825418
      ],
      [
        "ering",
        -9.251627268991793
      ],
      [
        "▁W",
        -9.251910664891811
      ],
      [
        "▁roll",
        -9.252922426643199
      ],
      [
        "▁januari",
        -9.25375571048448
      ],
      [
        "ningen",
        -9.254556423550751
      ],
      [
        "▁Bo",
        -9.255543149082959
      ],
      [
        "▁Svenska",
        -9.255593093279696
      ],
      [
        "▁öka",
        -9.256551588273798
      ],
      [
        "▁dit",
        -9.25750920403924
      ],
      [
        "▁pa",
        -9.264548359155052
      ],
      [
        "▁jobbar",
        -9.265783317674021
      ],
      [
        "▁kommunen",
        -9.26589941490941
      ],
      [
        "land",
        -9.267059855546423
      ],
      [
        "▁eget",
        -9.26911812110674
      ],
      [
        "▁jobbet",
        -9.271071954778295
      ],
      [
        "▁titta",
        -9.271589996322955
      ],
      [
        "▁erfarenhet",
        -9.271882560301586
      ],
      [
        "▁Allt",
        -9.272644576486089
      ],
      [
        "▁fri",
        -9.27409143674073
      ],
      [
        "▁års",
        -9.274250166096465
      ],
      [
        "▁vanlig",
        -9.274544669508108
      ],
      [
        "R",
        -9.274556323956148
      ],
      [
        "▁stå",
        -9.275447721288353
      ],
      [
        "▁månad",
        -9.277747509803921
      ],
      [
        "▁utbildning",
        -9.278109070446845
      ],
      [
        "den",
        -9.27895392662195
      ],
      [
        "▁län",
        -9.279576403219801
      ],
      [
        "▁augusti",
        -9.279772274112434
      ],
      [
        "dag",
        -9.281027577870796
      ],
      [
        "▁liknande",
        -9.281667755564984
      ],
      [
        "går",
        -9.282359943475306
      ],
      [
        "▁älskar",
        -9.282741513660346
      ],
      [
        "▁liksom",
        -9.28418202034308
      ],
      [
        "▁fortsätta",
        -9.284781576498256
      ],
      [
        "▁glad",
        -9.286436205481301
      ],
      [
        "▁Dessa",
        -9.28793991291245
      ],
      [
        "försöker",
        -9.287952386745106
      ],
      [
        "▁unga",
        -9.290145560890679
      ],
      [
        "eller",
        -9.290460843906343
      ],
      [
        "§",
        -9.292909567732835
      ],
      [
        "bar",
        -9.293819369052034
      ],
      [
        "▁jul",
        -9.293858553803005
      ],
      [
        "▁bl",
        -9.29733337713266
      ],
      [
        "▁fortsätter",
        -9.297434018784093
      ],
      [
        "▁utveckla",
        -9.298279137308274
      ],
      [
        "▁igår",
        -9.29843471789626
      ],
      [
        "låter",
        -9.299704778515334
      ],
      [
        "▁tredje",
        -9.299730383761501
      ],
      [
        "▁vem",
        -9.303116748393936
      ],
      [
        "▁kultur",
        -9.303221241659324
      ],
      [
        "▁Nej",
        -9.303242037664523
      ],
      [
        "▁behövs",
        -9.304375468328384
      ],
      [
        "▁tio",
        -9.304494872863119
      ],
      [
        "▁kolla",
        -9.311290021542534
      ],
      [
        "▁tro",
        -9.311949043797467
      ],
      [
        "▁rör",
        -9.313266891751832
      ],
      [
        "sta",
        -9.313536299647744
      ],
      [
        "▁material",
        -9.314088143254184
      ],
      [
        "▁vilja",
        -9.314451346502546
      ],
      [
        "▁krävs",
        -9.315817035057137
      ],
      [
        "ste",
        -9.316529966363657
      ],
      [
        "▁Visa",
        -9.316765659345775
      ],
      [
        "val",
        -9.316786013890486
      ],
      [
        "▁priser",
        -9.317579161326758
      ],
      [
        "▁start",
        -9.318147706933837
      ],
      [
        "står",
        -9.318973882472752
      ],
      [
        "▁Från",
        -9.319552252423211
      ],
      [
        "Därför",
        -9.321946839470938
      ],
      [
        "▁program",
        -9.322174427183452
      ],
      [
        "delen",
        -9.323187292237241
      ],
      [
        "▁maskinöver",
        -9.324516439386734
      ],
      [
        "Jag",
        -9.325424081427414
      ],
      [
        "▁mars",
        -9.325641140737183
      ],
      [
        "#",
        -9.326460789151714
      ],
      [
        "▁vård",
        -9.329243592562506
      ],
      [
        "▁användas",
        -9.332208349616803
      ],
      [
        "nas",
        -9.33245282969677
      ],
      [
        "betyder",
        -9.332922310299455
      ],
      [
        "▁kvalitet",
        -9.333013139065217
      ],
      [
        "▁arbetet",
        -9.333324455414305
      ],
      [
        "▁service",
        -9.33334180830263
      ],
      [
        "▁länder",
        -9.334101557408916
      ],
      [
        "▁Eller",
        -9.335512325679813
      ],
      [
        "isk",
        -9.337407254901237
      ],
      [
        "▁bo",
        -9.338618213468857
      ],
      [
        "N",
        -9.344564616365695
      ],
      [
        "▁hör",
        -9.345440643468812
      ],
      [
        "▁bidra",
        -9.346107420923012
      ],
      [
        "▁kväll",
        -9.347626111139235
      ],
      [
        "▁fortsatt",
        -9.348334720785498
      ],
      [
        "nike",
        -9.348969047355888
      ],
      [
        "▁köra",
        -9.34902435561366
      ],
      [
        "▁ungefär",
        -9.350730269964885
      ],
      [
        "▁va",
        -9.350952151722689
      ],
      [
        "hus",
        -9.35227345627422
      ],
      [
        "bo",
        -9.352563011301884
      ],
      [
        "▁tillgång",
        -9.353314231805053
      ],
      [
        "▁nedan",
        -9.353941216577248
      ],
      [
        "▁and",
        -9.358608141714456
      ],
      [
        "▁djur",
        -9.359046555129906
      ],
      [
        "▁stund",
        -9.360471646366385
      ],
      [
        "därmed",
        -9.360745622826276
      ],
      [
        "▁påverka",
        -9.362471349083869
      ],
      [
        "▁heter",
        -9.362630917430671
      ],
      [
        "▁grupp",
        -9.364361400840794
      ],
      [
        "▁råd",
        -9.364605328026295
      ],
      [
        "anser",
        -9.365311466477637
      ],
      [
        "▁prata",
        -9.366904506156905
      ],
      [
        "ur",
        -9.368349048534546
      ],
      [
        "▁kontakta",
        -9.368649509495425
      ],
      [
        "▁meter",
        -9.369320487044988
      ],
      [
        "»",
        -9.369387188120452
      ],
      [
        "▁bilen",
        -9.370978763745999
      ],
      [
        "▁ex",
        -9.374742463048536
      ],
      [
        "ring",
        -9.377276441629816
      ],
      [
        "Kanske",
        -9.378460540375434
      ],
      [
        "med",
        -9.37976720581593
      ],
      [
        "O",
        -9.380428228871548
      ],
      [
        "▁vanliga",
        -9.380882601841268
      ],
      [
        "▁risk",
        -9.381553423944903
      ],
      [
        "▁engelska",
        -9.381893614564971
      ],
      [
        "▁halv",
        -9.381921624323978
      ],
      [
        "ha",
        -9.383109116128274
      ],
      [
        "▁samarbete",
        -9.384356028189996
      ],
      [
        "tyckte",
        -9.384822615290403
      ],
      [
        "▁exempelvis",
        -9.385111994206417
      ],
      [
        "Varför",
        -9.388366447220477
      ],
      [
        "▁gav",
        -9.389115148974753
      ],
      [
        "▁cirka",
        -9.393326956618886
      ],
      [
        "▁kunskap",
        -9.393596016676662
      ],
      [
        "▁Vår",
        -9.394063704336896
      ],
      [
        "▁skor",
        -9.396088000240827
      ],
      [
        "lan",
        -9.396639816573476
      ],
      [
        "▁klar",
        -9.398221433129475
      ],
      [
        "▁telefon",
        -9.398982760546636
      ],
      [
        "▁favorit",
        -9.399035580214965
      ],
      [
        "ats",
        -9.399054806820848
      ],
      [
        "finnas",
        -9.399116043887242
      ],
      [
        "▁viss",
        -9.399302538511964
      ],
      [
        "oftast",
        -9.400627920062579
      ],
      [
        "▁juni",
        -9.404436851542162
      ],
      [
        "▁uppdrag",
        -9.404540936533461
      ],
      [
        "▁företaget",
        -9.404555975716436
      ],
      [
        "▁hälsa",
        -9.404775443427068
      ],
      [
        "▁absolut",
        -9.407609074778305
      ],
      [
        "▁boken",
        -9.408946687582418
      ],
      [
        "▁sommaren",
        -9.41007662394948
      ],
      [
        "▁morgon",
        -9.410364452069242
      ],
      [
        "▁TV",
        -9.41119837835063
      ],
      [
        "▁air",
        -9.411802013752634
      ],
      [
        "på",
        -9.414222678951383
      ],
      [
        "▁fokus",
        -9.418300478111671
      ],
      [
        "lägger",
        -9.419570333281358
      ],
      [
        "visade",
        -9.41982406355724
      ],
      [
        "▁helgen",
        -9.42065932214743
      ],
      [
        "▁lan",
        -9.421481748819513
      ],
      [
        "behöva",
        -9.421550312287584
      ],
      [
        "▁system",
        -9.42246176663456
      ],
      [
        "tänkte",
        -9.423009477730606
      ],
      [
        "system",
        -9.42328204590677
      ],
      [
        "▁tanke",
        -9.425091132965754
      ],
      [
        "▁övriga",
        -9.425262780120596
      ],
      [
        "mer",
        -9.425527039790074
      ],
      [
        "▁land",
        -9.426563212536918
      ],
      [
        "▁berätta",
        -9.426851460150774
      ],
      [
        "▁ställa",
        -9.427349920839259
      ],
      [
        "▁Europa",
        -9.427606371602948
      ],
      [
        "▁Ha",
        -9.428902259080514
      ],
      [
        "▁sådana",
        -9.429218838765486
      ],
      [
        "▁kvällen",
        -9.429593656659975
      ],
      [
        "består",
        -9.430154916850164
      ],
      [
        "▁Anna",
        -9.430692224893923
      ],
      [
        "▁förstår",
        -9.430837699451724
      ],
      [
        "▁behandling",
        -9.431271990366264
      ],
      [
        "▁framtiden",
        -9.43157344912184
      ],
      [
        "▁hår",
        -9.432653562558414
      ],
      [
        "▁klara",
        -9.432860345781124
      ],
      [
        "▁följer",
        -9.43364112365685
      ],
      [
        "▁intressant",
        -9.435365155708597
      ],
      [
        "ton",
        -9.435802286439717
      ],
      [
        "▁speciellt",
        -9.43637893467001
      ],
      [
        "▁match",
        -9.438825926417804
      ],
      [
        "▁beroende",
        -9.439787145241281
      ],
      [
        "▁familj",
        -9.440176265652298
      ],
      [
        "gruppen",
        -9.440442238856955
      ],
      [
        "▁svår",
        -9.440461236310307
      ],
      [
        "▁april",
        -9.441195269838893
      ],
      [
        "▁Ut",
        -9.44256364892173
      ],
      [
        "min",
        -9.443444336263163
      ],
      [
        "▁senast",
        -9.44453292093937
      ],
      [
        "▁data",
        -9.445501519552534
      ],
      [
        "ifrån",
        -9.446104413488456
      ],
      [
        "▁skönt",
        -9.449609486852617
      ],
      [
        "▁oktober",
        -9.45089743787187
      ],
      [
        "ka",
        -9.451170419712778
      ],
      [
        "▁september",
        -9.451343606565844
      ],
      [
        "ont",
        -9.452599426169673
      ],
      [
        "▁nämligen",
        -9.45370294581556
      ],
      [
        "bara",
        -9.454329906291285
      ],
      [
        "gående",
        -9.455952003388854
      ],
      [
        "▁snabb",
        -9.456205783436488
      ],
      [
        "▁tänkt",
        -9.45782118186867
      ],
      [
        "▁förstå",
        -9.458216686526242
      ],
      [
        "▁Ny",
        -9.458901632514502
      ],
      [
        "åkte",
        -9.459604270883982
      ],
      [
        "Eftersom",
        -9.461020525506632
      ],
      [
        "▁intresse",
        -9.461548836396336
      ],
      [
        "▁bilden",
        -9.462316841623311
      ],
      [
        "•",
        -9.465807891285815
      ],
      [
        "såsom",
        -9.467327633314842
      ],
      [
        "▁familjen",
        -9.468079994920393
      ],
      [
        "▁vackra",
        -9.468854650823964
      ],
      [
        "é",
        -9.469050660701255
      ],
      [
        "▁sol",
        -9.469592003771155
      ],
      [
        "programmet",
        -9.470068909918753
      ],
      [
        "stående",
        -9.474227803896857
      ],
      [
        "▁lever",
        -9.474395194349315
      ],
      [
        "systemet",
        -9.47499977990445
      ],
      [
        "▁natur",
        -9.476649118697466
      ],
      [
        "tiden",
        -9.476775324867361
      ],
      [
        "▁staden",
        -9.476792579267517
      ],
      [
        "otroligt",
        -9.477992169340592
      ],
      [
        "alldeles",
        -9.478299166017443
      ],
      [
        "▁kund",
        -9.47849506194394
      ],
      [
        "kräver",
        -9.47860174331455
      ],
      [
        "▁stället",
        -9.479054310410431
      ],
      [
        "▁regeringen",
        -9.480329020471993
      ],
      [
        "▁Mer",
        -9.481036935021956
      ],
      [
        "gen",
        -9.481072867671331
      ],
      [
        "ling",
        -9.48258623492171
      ],
      [
        "▁skapar",
        -9.482624408293036
      ],
      [
        "annars",
        -9.482771926182648
      ],
      [
        "▁skol",
        -9.483217061563389
      ],
      [
        "—",
        -9.48333957923072
      ],
      [
        "del",
        -9.484941285599888
      ],
      [
        "höll",
        -9.48690454941586
      ],
      [
        "▁värde",
        -9.48698421261819
      ],
      [
        "▁verksamheten",
        -9.487851389201941
      ],
      [
        "▁anledning",
        -9.488264482911504
      ],
      [
        "▁träffa",
        -9.488292423495661
      ],
      [
        "ningar",
        -9.48892547972762
      ],
      [
        "▁plan",
        -9.489728748522396
      ],
      [
        "▁samhället",
        -9.491293077447908
      ],
      [
        "sätter",
        -9.49152881502798
      ],
      [
        "▁språk",
        -9.491665274858438
      ],
      [
        "▁boende",
        -9.491775236065678
      ],
      [
        "▁köp",
        -9.493125727314245
      ],
      [
        "▁februari",
        -9.495898247574674
      ],
      [
        "ly",
        -9.496349450706333
      ],
      [
        "▁hemsida",
        -9.496980253171838
      ],
      [
        "▁Re",
        -9.498004279563107
      ],
      [
        "▁skillnad",
        -9.498016137114925
      ],
      [
        "▁design",
        -9.502285747513435
      ],
      [
        "▁cm",
        -9.50254566732326
      ],
      [
        "▁lugn",
        -9.503820109506556
      ],
      [
        "▁hund",
        -9.50461895290995
      ],
      [
        "▁föräldrar",
        -9.504656760664696
      ],
      [
        "▁närheten",
        -9.505102463615884
      ],
      [
        "värt",
        -9.506262491659195
      ],
      [
        "▁säker",
        -9.507689087990151
      ],
      [
        "▁tjänster",
        -9.508298305556547
      ],
      [
        "ler",
        -9.509612750616219
      ],
      [
        "▁ökar",
        -9.50968236339769
      ],
      [
        "beror",
        -9.510956447422368
      ],
      [
        "erade",
        -9.511399209770886
      ],
      [
        "▁sociala",
        -9.512001332682821
      ],
      [
        "W",
        -9.512731955701
      ],
      [
        "▁Hej",
        -9.51337791893072
      ],
      [
        "ras",
        -9.513594215833978
      ],
      [
        "▁låta",
        -9.514066687263382
      ],
      [
        "▁planera",
        -9.515445513333145
      ],
      [
        "▁träning",
        -9.51605021181302
      ],
      [
        "▁dagens",
        -9.516058826627349
      ],
      [
        "kände",
        -9.51657713526721
      ],
      [
        "▁natt",
        -9.519188517325953
      ],
      [
        "kar",
        -9.519317507192046
      ],
      [
        "till",
        -9.520528772466019
      ],
      [
        "▁super",
        -9.521335633944922
      ],
      [
        "▁möjligheter",
        -9.522227353229543
      ],
      [
        "oavsett",
        -9.522608419778853
      ],
      [
        "kort",
        -9.52465847422789
      ],
      [
        "▁höra",
        -9.526590038216078
      ],
      [
        "▁fungera",
        -9.526629892232188
      ],
      [
        "▁produkt",
        -9.527575576905338
      ],
      [
        "typer",
        -9.528549006136952
      ],
      [
        "▁erbjuda",
        -9.530102179125246
      ],
      [
        "▁Jo",
        -9.530236949201937
      ],
      [
        "▁förbättra",
        -9.530650229359402
      ],
      [
        "ades",
        -9.531358254556809
      ],
      [
        "lag",
        -9.534678562179149
      ],
      [
        "ets",
        -9.535537670480164
      ],
      [
        "▁kvinna",
        -9.536082173805417
      ],
      [
        "▁ändra",
        -9.53620483903047
      ],
      [
        "▁vän",
        -9.53763677943044
      ],
      [
        "▁leder",
        -9.537986042334802
      ],
      [
        "▁december",
        -9.53925288443557
      ],
      [
        "▁utifrån",
        -9.541257638544916
      ],
      [
        "kommande",
        -9.541467887973443
      ],
      [
        "ett",
        -9.54256052146985
      ],
      [
        "▁Per",
        -9.542612384819844
      ],
      [
        "ner",
        -9.542765353774183
      ],
      [
        "▁nöjd",
        -9.543100379788783
      ],
      [
        "platsen",
        -9.543862845061769
      ],
      [
        "satts",
        -9.543983445801311
      ],
      [
        "▁huset",
        -9.545900738850007
      ],
      [
        "▁hantera",
        -9.548325231310196
      ],
      [
        "▁viktiga",
        -9.54855582591097
      ],
      [
        "▁samman",
        -9.549637124799188
      ],
      [
        "menar",
        -9.549793850910552
      ],
      [
        "▁Stockholms",
        -9.550894675200832
      ],
      [
        "såväl",
        -9.551079411400677
      ],
      [
        "▁testa",
        -9.551361446532319
      ],
      [
        "mannen",
        -9.552535273862656
      ],
      [
        "Vi",
        -9.554110570312076
      ],
      [
        "▁flyg",
        -9.555363676041026
      ],
      [
        "▁tas",
        -9.555792503677631
      ],
      [
        "co",
        -9.557451434783413
      ],
      [
        "ans",
        -9.557514583166052
      ],
      [
        "▁november",
        -9.558741736009521
      ],
      [
        "▁världens",
        -9.55875652666644
      ],
      [
        "▁leva",
        -9.559431101263671
      ],
      [
        "▁iväg",
        -9.560340119476882
      ],
      [
        "▁juli",
        -9.560470317476534
      ],
      [
        "▁vikt",
        -9.56326938343822
      ],
      [
        "▁klockan",
        -9.564264153782924
      ],
      [
        "▁gammal",
        -9.564436556880905
      ],
      [
        "▁håll",
        -9.564541452609808
      ],
      [
        "▁flytta",
        -9.564590202463144
      ],
      [
        "gatan",
        -9.56468499151279
      ],
      [
        "▁matchen",
        -9.566556209633335
      ],
      [
        "▁elever",
        -9.566671632227306
      ],
      [
        "▁for",
        -9.566671918193999
      ],
      [
        "lar",
        -9.568777195636809
      ],
      [
        "▁stad",
        -9.569468772408408
      ],
      [
        "▁polisen",
        -9.571314643575118
      ],
      [
        "▁visst",
        -9.571810694482648
      ],
      [
        "▁Tänk",
        -9.573204031644314
      ],
      [
        "plats",
        -9.573302777186873
      ],
      [
        "▁högt",
        -9.574712002351749
      ],
      [
        "▁stil",
        -9.575764315150533
      ],
      [
        "▁rad",
        -9.57656794849501
      ],
      [
        "log",
        -9.579032243950321
      ],
      [
        "kan",
        -9.58002032251051
      ],
      [
        "▁mobil",
        -9.580158656993346
      ],
      [
        "▁höga",
        -9.580724779069293
      ],
      [
        "tyvärr",
        -9.581381329082156
      ],
      [
        "resten",
        -9.582429879281182
      ],
      [
        "▁svart",
        -9.582857501081307
      ],
      [
        "hända",
        -9.58350331575388
      ],
      [
        "▁topp",
        -9.585496374631358
      ],
      [
        "gren",
        -9.586644447553237
      ],
      [
        "▁X",
        -9.587786066052635
      ],
      [
        "▁An",
        -9.588005507956309
      ],
      [
        "antalet",
        -9.588186684271413
      ],
      [
        "▁marknaden",
        -9.588936496227621
      ],
      [
        "▁ordförande",
        -9.589904366115853
      ],
      [
        "▁stark",
        -9.59199980000279
      ],
      [
        "▁historia",
        -9.593752923067754
      ],
      [
        "var",
        -9.594244651569653
      ],
      [
        "så",
        -9.594836107780848
      ],
      [
        "▁kallas",
        -9.5949526684102
      ],
      [
        "drar",
        -9.59698221865745
      ],
      [
        "▁åker",
        -9.597324681237636
      ],
      [
        "▁La",
        -9.600776459748248
      ],
      [
        "▁säsongen",
        -9.602331794833884
      ],
      [
        "▁luft",
        -9.604106249557542
      ],
      [
        "▁omkring",
        -9.605038839097281
      ],
      [
        "▁byta",
        -9.605258420824354
      ],
      [
        "▁internet",
        -9.605983683696612
      ],
      [
        "▁snö",
        -9.60817657463037
      ],
      [
        "rna",
        -9.609849168992058
      ],
      [
        "▁stanna",
        -9.610087916216608
      ],
      [
        "▁Anders",
        -9.611289937839068
      ],
      [
        "sidan",
        -9.61350091634963
      ],
      [
        "▁fullt",
        -9.61382911569898
      ],
      [
        "▁kap",
        -9.615840937802425
      ],
      [
        "▁trött",
        -9.616407646025989
      ],
      [
        "▁totalt",
        -9.616682638058151
      ],
      [
        "▁pappa",
        -9.616920515850143
      ],
      [
        "▁Hotel",
        -9.617174794583862
      ],
      [
        "plan",
        -9.618278711814481
      ],
      [
        "▁Johan",
        -9.618836361213123
      ],
      [
        "tar",
        -9.62000058000135
      ],
      [
        "▁icke",
        -9.620067555161588
      ],
      [
        "▁bär",
        -9.621920355757306
      ],
      [
        "▁lägre",
        -9.623832457883244
      ],
      [
        "▁tidigt",
        -9.62441954257268
      ],
      [
        "börjat",
        -9.624499169070292
      ],
      [
        "▁kraft",
        -9.625332206551699
      ],
      [
        "▁långa",
        -9.625784966837275
      ],
      [
        "▁sitta",
        -9.626531775251722
      ],
      [
        "▁medlemmar",
        -9.627860638744885
      ],
      [
        "ledande",
        -9.627938350128016
      ],
      [
        "lättare",
        -9.630846729221357
      ],
      [
        "▁Just",
        -9.632015337282327
      ],
      [
        "▁teknik",
        -9.632591084267238
      ],
      [
        "▁diskutera",
        -9.633305630456718
      ],
      [
        "resenärer",
        -9.634068180966672
      ],
      [
        "▁Facebook",
        -9.634917184406744
      ],
      [
        "▁borta",
        -9.636293443771832
      ],
      [
        "▁söka",
        -9.636489225565946
      ],
      [
        "▁recept",
        -9.637312276824165
      ],
      [
        "sökte",
        -9.637928288333253
      ],
      [
        "me",
        -9.638262635017986
      ],
      [
        "▁född",
        -9.639115823228108
      ],
      [
        "form",
        -9.639186473202182
      ],
      [
        "▁dator",
        -9.63950812984196
      ],
      [
        "▁hösten",
        -9.640672435604193
      ],
      [
        "▁kläder",
        -9.641203912135557
      ],
      [
        "▁hittade",
        -9.641357621131093
      ],
      [
        "▁hämta",
        -9.641905359639912
      ],
      [
        "▁förstås",
        -9.642195969617385
      ],
      [
        "▁semester",
        -9.642663382826703
      ],
      [
        "▁hårt",
        -9.642747653634402
      ],
      [
        "▁vänta",
        -9.644098951669172
      ],
      [
        "▁områden",
        -9.646379573455203
      ],
      [
        "▁bygg",
        -9.646386522865456
      ],
      [
        "skrivit",
        -9.647531755768817
      ],
      [
        "▁årets",
        -9.648335655874423
      ],
      [
        "▁vinna",
        -9.649878617750723
      ],
      [
        "▁betydelse",
        -9.651107484392881
      ],
      [
        "▁dåligt",
        -9.651490873233083
      ],
      [
        "U",
        -9.652503804989134
      ],
      [
        "▁nivå",
        -9.65259150577779
      ],
      [
        "▁böcker",
        -9.653551751542013
      ],
      [
        "▁allra",
        -9.654044625981705
      ],
      [
        "▁artikel",
        -9.654054181719037
      ],
      [
        "▁ögon",
        -9.654778103044642
      ],
      [
        "iskt",
        -9.655667293221509
      ],
      [
        "▁avsluta",
        -9.65611517966906
      ],
      [
        "aren",
        -9.65839375703212
      ],
      [
        "▁spara",
        -9.658530786675529
      ],
      [
        "▁område",
        -9.659065454043755
      ],
      [
        "▁åtgärder",
        -9.659972503246205
      ],
      [
        "▁utmärkt",
        -9.661504957008995
      ],
      [
        "▁träna",
        -9.662396733125279
      ],
      [
        "▁konstatera",
        -9.664432729952047
      ],
      [
        "▁exakt",
        -9.666117872758765
      ],
      [
        "enbart",
        -9.667975813771154
      ],
      [
        "▁lokala",
        -9.669703585577109
      ],
      [
        "lund",
        -9.671166370200723
      ],
      [
        "mat",
        -9.671606173363456
      ],
      [
        "vård",
        -9.671816033635873
      ],
      [
        "▁enkel",
        -9.673340512814143
      ],
      [
        "ställer",
        -9.673341646875043
      ],
      [
        "samtliga",
        -9.673935978917047
      ],
      [
        "▁kontroll",
        -9.675201928124077
      ],
      [
        "▁ljud",
        -9.675607856235557
      ],
      [
        "▁tillräckligt",
        -9.677888912778565
      ],
      [
        "▁dejting",
        -9.67795889023799
      ],
      [
        "▁bak",
        -9.678073706922245
      ],
      [
        "▁lunch",
        -9.678262460929506
      ],
      [
        "▁delta",
        -9.678529140294332
      ],
      [
        "▁pass",
        -9.679057488561085
      ],
      [
        "köpte",
        -9.679905682271304
      ],
      [
        "▁väntar",
        -9.680113646715002
      ],
      [
        "▁glas",
        -9.680646388596006
      ],
      [
        "▁lokal",
        -9.684555628805027
      ],
      [
        "ist",
        -9.686001960217938
      ],
      [
        "▁behöv",
        -9.686174234941664
      ],
      [
        "sam",
        -9.686691131972594
      ],
      [
        "fall",
        -9.688172275755997
      ],
      [
        "▁casino",
        -9.68854799118751
      ],
      [
        "▁vänster",
        -9.689372362588193
      ],
      [
        "▁medel",
        -9.689467375706847
      ],
      [
        "▁hit",
        -9.68963819912821
      ],
      [
        "▁kaffe",
        -9.689788971693995
      ],
      [
        "▁respektive",
        -9.690283807518197
      ],
      [
        "▁känsla",
        -9.690980239623636
      ],
      [
        "▁värme",
        -9.691366083011431
      ],
      [
        "▁vann",
        -9.691934989926999
      ],
      [
        "▁lån",
        -9.693319570927775
      ],
      [
        "▁dela",
        -9.693806811551713
      ],
      [
        "▁snar",
        -9.6939892518206
      ],
      [
        "▁lärare",
        -9.695075046894987
      ],
      [
        "▁trä",
        -9.695364333210284
      ],
      [
        "läser",
        -9.696245071554822
      ],
      [
        "▁höger",
        -9.696434479069598
      ],
      [
        "▁användning",
        -9.698464586110957
      ],
      [
        "▁sju",
        -9.698561483398288
      ],
      [
        "Samtidigt",
        -9.699034472883211
      ],
      [
        "kända",
        -9.70070978767179
      ],
      [
        "▁Peter",
        -9.700898675552663
      ],
      [
        "▁Barn",
        -9.701366019981554
      ],
      [
        "J",
        -9.702055814249302
      ],
      [
        "fallet",
        -9.703172678137665
      ],
      [
        "▁forskning",
        -9.703519554920936
      ],
      [
        "huset",
        -9.705432665264867
      ],
      [
        "program",
        -9.706786207925001
      ],
      [
        "▁text",
        -9.70703700001235
      ],
      [
        "maste",
        -9.70943984500648
      ],
      [
        "sådant",
        -9.711153636682022
      ],
      [
        "▁konst",
        -9.711864025039292
      ],
      [
        "▁lyckas",
        -9.712225622238172
      ],
      [
        "▁handla",
        -9.712295627168263
      ],
      [
        "▁trevlig",
        -9.713042315094564
      ],
      [
        "bygger",
        -9.71314170447853
      ],
      [
        "▁kompetens",
        -9.716613622234702
      ],
      [
        "vin",
        -9.716762580716994
      ],
      [
        "Mycket",
        -9.717602488450522
      ],
      [
        "▁högsta",
        -9.718378333364225
      ],
      [
        "▁uttryck",
        -9.718653573108641
      ],
      [
        "▁ekonomi",
        -9.71906197584611
      ],
      [
        "▁massor",
        -9.719523539019107
      ],
      [
        "post",
        -9.720053320167178
      ],
      [
        "▁reda",
        -9.721041520159506
      ],
      [
        "▁gällande",
        -9.721678167302796
      ],
      [
        "▁framåt",
        -9.72189907152412
      ],
      [
        "upp",
        -9.722532271155812
      ],
      [
        "▁hälso",
        -9.723480151488012
      ],
      [
        "vi",
        -9.724539430934726
      ],
      [
        "▁billiga",
        -9.725287334147565
      ],
      [
        "▁skada",
        -9.727571913762727
      ],
      [
        "▁anställda",
        -9.728302255556299
      ],
      [
        "’",
        -9.729614925273017
      ],
      [
        "lin",
        -9.729749053296343
      ],
      [
        "▁El",
        -9.729865702903956
      ],
      [
        "▁ekonomiska",
        -9.730189070342227
      ],
      [
        "▁bolag",
        -9.730943898363183
      ],
      [
        "▁sälja",
        -9.731820357045605
      ],
      [
        "<",
        -9.73379087315873
      ],
      [
        "▁Ö",
        -9.73524648012202
      ],
      [
        "▁säkerhet",
        -9.736360142558915
      ],
      [
        "▁läst",
        -9.737038145160986
      ],
      [
        "▁verktyg",
        -9.739278389826596
      ],
      [
        "▁låt",
        -9.73930828360328
      ],
      [
        "än",
        -9.740673467489916
      ],
      [
        "▁Hitta",
        -9.74239968059345
      ],
      [
        "erad",
        -9.742423275457314
      ],
      [
        "▁ske",
        -9.744131638841251
      ],
      [
        "▁skola",
        -9.746007832372797
      ],
      [
        "ör",
        -9.746208871165294
      ],
      [
        "▁viktigaste",
        -9.746456854066201
      ],
      [
        "▁tillhör",
        -9.748240244817682
      ],
      [
        "▁besökare",
        -9.748979292763158
      ],
      [
        "▁Foto",
        -9.749328217748195
      ],
      [
        "▁gäster",
        -9.749517841249729
      ],
      [
        "▁platser",
        -9.749780706147403
      ],
      [
        "utgör",
        -9.750199374415907
      ],
      [
        "▁smak",
        -9.750705986249322
      ],
      [
        "bok",
        -9.75075531475869
      ],
      [
        "▁Y",
        -9.751541042584943
      ],
      [
        "▁vuxna",
        -9.75277143098484
      ],
      [
        "▁Å",
        -9.752824079866889
      ],
      [
        "▁regler",
        -9.753308085813423
      ],
      [
        "skolan",
        -9.75372838800332
      ],
      [
        "▁centrum",
        -9.75386887642795
      ],
      [
        "kostar",
        -9.75394546596466
      ],
      [
        "▁valt",
        -9.754728756472435
      ],
      [
        "▁Låt",
        -9.75516393438874
      ],
      [
        "▁mängd",
        -9.755454296826846
      ],
      [
        "▁leda",
        -9.755679165567859
      ],
      [
        "▁övrigt",
        -9.756051438675291
      ],
      [
        "▁mark",
        -9.756230967701766
      ],
      [
        "stad",
        -9.757925171475227
      ],
      [
        "fri",
        -9.757973544308506
      ],
      [
        "nar",
        -9.758019214696205
      ],
      [
        "Varje",
        -9.758034271998
      ],
      [
        "▁sade",
        -9.7585792695495
      ],
      [
        "▁storlek",
        -9.759611691146315
      ],
      [
        "utveckling",
        -9.75969576635838
      ],
      [
        "Hoppas",
        -9.760826626510944
      ],
      [
        "▁nån",
        -9.761053256050525
      ],
      [
        "▁Uppsala",
        -9.761163380860628
      ],
      [
        "▁syn",
        -9.761589676646942
      ],
      [
        "▁rolig",
        -9.763604555661258
      ],
      [
        "▁klass",
        -9.764186968818095
      ],
      [
        "spelade",
        -9.764300105533849
      ],
      [
        "▁chans",
        -9.76808978814356
      ],
      [
        "▁bidrag",
        -9.768810573493097
      ],
      [
        "målet",
        -9.769272771462793
      ],
      [
        "▁ålder",
        -9.769323176328546
      ],
      [
        "▁Hans",
        -9.769701469192652
      ],
      [
        "$",
        -9.769834324642751
      ],
      [
        "trodde",
        -9.77208317465601
      ],
      [
        "▁Kina",
        -9.772546455670502
      ],
      [
        "▁effekt",
        -9.773112343808872
      ],
      [
        "▁hud",
        -9.775860930900723
      ],
      [
        "närmare",
        -9.776180797773401
      ],
      [
        "itet",
        -9.776301439172142
      ],
      [
        "gick",
        -9.776721030569892
      ],
      [
        "verket",
        -9.7783945069305
      ],
      [
        "▁läge",
        -9.778475922226336
      ],
      [
        "▁Ingen",
        -9.778754655607786
      ],
      [
        "▁samtal",
        -9.77882776084148
      ],
      [
        "▁ordning",
        -9.779208805894775
      ],
      [
        "▁drog",
        -9.779333205322077
      ],
      [
        "▁filmen",
        -9.780133712758376
      ],
      [
        "▁trygg",
        -9.7812602655639
      ],
      [
        "▁studie",
        -9.781538356016204
      ],
      [
        "▁Trots",
        -9.781591516921408
      ],
      [
        "företag",
        -9.78165708973083
      ],
      [
        "önskar",
        -9.781848664881474
      ],
      [
        "betydligt",
        -9.784967251233743
      ],
      [
        "valet",
        -9.785403015790168
      ],
      [
        "▁härlig",
        -9.78727973672878
      ],
      [
        "▁frukost",
        -9.788306195002162
      ],
      [
        "▁påverkar",
        -9.78880606605165
      ],
      [
        "▁äter",
        -9.789578560818068
      ],
      [
        "▁funktion",
        -9.789845168756575
      ],
      [
        "▁ben",
        -9.793131666560015
      ],
      [
        "lös",
        -9.79462004777697
      ],
      [
        "ken",
        -9.795074857262826
      ],
      [
        "arbete",
        -9.795165129401592
      ],
      [
        "tur",
        -9.795317729293105
      ],
      [
        "▁privat",
        -9.795670575846158
      ],
      [
        "ation",
        -9.79571248118047
      ],
      [
        "▁död",
        -9.796067818355363
      ],
      [
        "▁Två",
        -9.797947150882234
      ],
      [
        "▁boka",
        -9.79804958962093
      ],
      [
        "slutade",
        -9.800246991922432
      ],
      [
        "▁Gud",
        -9.800936718305561
      ],
      [
        "▁tankar",
        -9.800989083057068
      ],
      [
        "▁eventuell",
        -9.801941413876207
      ],
      [
        "▁stan",
        -9.805420623599726
      ],
      [
        "▁sport",
        -9.807304972644644
      ],
      [
        "▁personliga",
        -9.807414080134677
      ],
      [
        "erat",
        -9.80742826621387
      ],
      [
        "vore",
        -9.808740134026138
      ],
      [
        "ökad",
        -9.808957470669135
      ],
      [
        "mar",
        -9.810051103959326
      ],
      [
        "▁lyssna",
        -9.810056077486998
      ],
      [
        "▁Maria",
        -9.81038955306161
      ],
      [
        "skap",
        -9.812100125882196
      ],
      [
        "▁rent",
        -9.812133014542265
      ],
      [
        "▁någonsin",
        -9.81293481575619
      ],
      [
        "▁New",
        -9.81364426356095
      ],
      [
        "▁natten",
        -9.814449574169364
      ],
      [
        "jämfört",
        -9.815322057572308
      ],
      [
        "▁Fortsätt",
        -9.81621466711058
      ],
      [
        "▁kropp",
        -9.817161576779371
      ],
      [
        "▁tak",
        -9.819206519492745
      ],
      [
        "▁lista",
        -9.820408783907595
      ],
      [
        "skydd",
        -9.82077044892677
      ],
      [
        "▁bi",
        -9.822138573141242
      ],
      [
        "▁höst",
        -9.822539179659445
      ],
      [
        "tan",
        -9.822885156962753
      ],
      [
        "▁klimat",
        -9.82353222127634
      ],
      [
        "▁starta",
        -9.823800492235808
      ],
      [
        "▁variera",
        -9.824517402540403
      ],
      [
        "nummer",
        -9.826610066846895
      ],
      [
        "▁vakna",
        -9.826612098893612
      ],
      [
        "▁prova",
        -9.827052105083906
      ],
      [
        "ant",
        -9.828792036882817
      ],
      [
        "else",
        -9.828919337792026
      ],
      [
        "▁bad",
        -9.829204375194744
      ],
      [
        "▁försök",
        -9.829540327969019
      ],
      [
        "perioden",
        -9.82970490956564
      ],
      [
        "äger",
        -9.82997800956484
      ],
      [
        "▁valde",
        -9.83088980667971
      ],
      [
        "▁kommentar",
        -9.831696871160839
      ],
      [
        "▁standard",
        -9.832117681597714
      ],
      [
        "kändes",
        -9.832945418179625
      ],
      [
        "▁kurs",
        -9.833251030692836
      ],
      [
        "▁social",
        -9.834655595164667
      ],
      [
        "▁fantastiskt",
        -9.83503656734218
      ],
      [
        "▁skäl",
        -9.836173633632212
      ],
      [
        "▁Upp",
        -9.836881454521285
      ],
      [
        "▁slå",
        -9.837067112114537
      ],
      [
        "▁förbi",
        -9.837549283716077
      ],
      [
        "▁bolaget",
        -9.83870443925424
      ],
      [
        "liv",
        -9.84144555146908
      ],
      [
        "tydligt",
        -9.842842919858922
      ],
      [
        "inklusive",
        -9.842951263581563
      ],
      [
        "därefter",
        -9.843215296628417
      ],
      [
        "gården",
        -9.843766506548787
      ],
      [
        "▁våren",
        -9.843978800072922
      ],
      [
        "▁villkor",
        -9.844328106530988
      ],
      [
        "▁förutsättningar",
        -9.844851099685167
      ],
      [
        "▁innehåll",
        -9.845657340943543
      ],
      [
        "▁trafik",
        -9.849017582679235
      ],
      [
        "▁uppskatta",
        -9.849058431106117
      ],
      [
        "starkt",
        -9.849254592756385
      ],
      [
        "självklart",
        -9.850367844690826
      ],
      [
        "▁Al",
        -9.850885975827076
      ],
      [
        "▁syfte",
        -9.8522245027344
      ],
      [
        "ella",
        -9.852372249993383
      ],
      [
        "▁priset",
        -9.85243522022324
      ],
      [
        "Ja",
        -9.852726221105678
      ],
      [
        "▁kredit",
        -9.852852195165173
      ],
      [
        "Ibland",
        -9.852910988893331
      ],
      [
        "▁polis",
        -9.853528510957085
      ],
      [
        "▁ändring",
        -9.85421252999964
      ],
      [
        "▁personlig",
        -9.854650618307332
      ],
      [
        "▁vinter",
        -9.855222380611835
      ],
      [
        "▁hotellet",
        -9.855500536619584
      ],
      [
        "▁Bara",
        -9.856810377266727
      ],
      [
        "▁uppgift",
        -9.858273351124257
      ],
      [
        "bb",
        -9.859620799529392
      ],
      [
        "▁brott",
        -9.860009475334742
      ],
      [
        "saknar",
        -9.86024127166438
      ],
      [
        "ihåg",
        -9.862393373973836
      ],
      [
        "▁sjuk",
        -9.863097574254175
      ],
      [
        "▁Andersson",
        -9.863326920887916
      ],
      [
        "▁helg",
        -9.863364361006953
      ],
      [
        "dal",
        -9.863774453126547
      ],
      [
        "lämnar",
        -9.864694602872833
      ],
      [
        "▁talar",
        -9.864858076548764
      ],
      [
        "branschen",
        -9.865039524476503
      ],
      [
        "▁ligga",
        -9.86551982308882
      ],
      [
        "▁dålig",
        -9.865609541113484
      ],
      [
        "▁billigt",
        -9.866039055247041
      ],
      [
        "funnit",
        -9.866190626542386
      ],
      [
        "▁tillstånd",
        -9.866452758422367
      ],
      [
        "drygt",
        -9.8665734879029
      ],
      [
        "det",
        -9.867117595535158
      ],
      [
        "▁nej",
        -9.867279986273559
      ],
      [
        "äntligen",
        -9.868183526778285
      ],
      [
        "▁häst",
        -9.86863232845255
      ],
      [
        "▁vinst",
        -9.870729938869273
      ],
      [
        "ko",
        -9.871740780264076
      ],
      [
        "▁etc",
        -9.872819529580955
      ],
      [
        "▁ungdomar",
        -9.873732289607403
      ],
      [
        "▁fantastisk",
        -9.874008604750095
      ],
      [
        "▁Lars",
        -9.874157252282698
      ],
      [
        "dagen",
        -9.874166571740282
      ],
      [
        "▁Lite",
        -9.874907949891355
      ],
      [
        "▁Finns",
        -9.87491254345675
      ],
      [
        "▁avtal",
        -9.878053801010903
      ],
      [
        "▁universitet",
        -9.87847713272628
      ],
      [
        "▁fönster",
        -9.878784159859176
      ],
      [
        "▁läs",
        -9.878972642825177
      ],
      [
        "▁Wi",
        -9.879772652777934
      ],
      [
        "gel",
        -9.881119108843569
      ],
      [
        "▁utvecklas",
        -9.88141887434201
      ],
      [
        "▁kärlek",
        -9.881552381128243
      ],
      [
        "▁sluta",
        -9.881964645513321
      ],
      [
        "▁barnet",
        -9.88224396948862
      ],
      [
        "▁säkerhets",
        -9.882464889229768
      ],
      [
        "▁lager",
        -9.882643270927796
      ],
      [
        "▁varmt",
        -9.88352504013867
      ],
      [
        "▁läkare",
        -9.883902931148041
      ],
      [
        "▁Kom",
        -9.884191143606945
      ],
      [
        "▁ladda",
        -9.884467248773193
      ],
      [
        "▁projektet",
        -9.884890794085699
      ],
      [
        "▁Mitt",
        -9.885123237230227
      ],
      [
        "▁tryck",
        -9.885456479927923
      ],
      [
        "▁sist",
        -9.886572831887317
      ],
      [
        "trax",
        -9.886941341125521
      ],
      [
        "▁samhälls",
        -9.88695364438338
      ],
      [
        "▁tittar",
        -9.889021097169113
      ],
      [
        "pp",
        -9.88957090530191
      ],
      [
        "förutom",
        -9.890962457880125
      ],
      [
        "▁genomföra",
        -9.891731430809724
      ],
      [
        "▁färger",
        -9.892120664451895
      ],
      [
        "▁koll",
        -9.892777972537354
      ],
      [
        "▁utför",
        -9.893191859908413
      ],
      [
        "▁bonus",
        -9.894919943691065
      ],
      [
        "taget",
        -9.895611375639751
      ],
      [
        "▁far",
        -9.898805527653433
      ],
      [
        "▁imorgon",
        -9.899283383974721
      ],
      [
        "skickade",
        -9.89951397291979
      ],
      [
        "up",
        -9.899639245509384
      ],
      [
        "ion",
        -9.900437998433995
      ],
      [
        "erar",
        -9.900575851273627
      ],
      [
        "▁vattnet",
        -9.90201213781488
      ],
      [
        "▁dam",
        -9.902318019171357
      ],
      [
        "▁medarbetare",
        -9.903295255954639
      ],
      [
        "tor",
        -9.903657104555656
      ],
      [
        "▁politiska",
        -9.90427680616194
      ],
      [
        "▁bit",
        -9.905092345059513
      ],
      [
        "▁listan",
        -9.905879807500584
      ],
      [
        "▁åtta",
        -9.906016891171292
      ],
      [
        "ansvarig",
        -9.90667646972094
      ],
      [
        "Några",
        -9.906980111038886
      ],
      [
        "▁solen",
        -9.907589573167181
      ],
      [
        "▁mesta",
        -9.907644595048675
      ],
      [
        "▁skatte",
        -9.907747741156145
      ],
      [
        "använt",
        -9.90836996714469
      ],
      [
        "▁spelet",
        -9.90841612799177
      ],
      [
        "▁dagarna",
        -9.908653040857985
      ],
      [
        "▁Över",
        -9.908937755232088
      ],
      [
        "naturligtvis",
        -9.908967174481361
      ],
      [
        "▁hamna",
        -9.908986018677352
      ],
      [
        "▁gilla",
        -9.909680116592005
      ],
      [
        "▁väder",
        -9.91020866305192
      ],
      [
        "▁glöm",
        -9.910810666663696
      ],
      [
        "▁aktiviteter",
        -9.911832830531019
      ],
      [
        "undrar",
        -9.911916407654529
      ],
      [
        "▁blå",
        -9.912366889727924
      ],
      [
        "fritt",
        -9.912875830150654
      ],
      [
        "▁osv",
        -9.912967859790617
      ],
      [
        "▁bank",
        -9.914061230042932
      ],
      [
        "ord",
        -9.915350902647823
      ],
      [
        "▁kommentarer",
        -9.91563447243221
      ],
      [
        "▁populära",
        -9.916309771476003
      ],
      [
        "▁nåt",
        -9.918549042470495
      ],
      [
        "▁yrkes",
        -9.918575074585116
      ],
      [
        "köper",
        -9.91858291125425
      ],
      [
        "sten",
        -9.918874466773321
      ],
      [
        "▁passa",
        -9.919120609079322
      ],
      [
        "▁period",
        -9.91922904269452
      ],
      [
        "▁parti",
        -9.91984478407111
      ],
      [
        "▁sidor",
        -9.9199831303201
      ],
      [
        "ort",
        -9.920587968803945
      ],
      [
        "▁sova",
        -9.92099862040579
      ],
      [
        "▁lördag",
        -9.92157467223096
      ],
      [
        "▁rejäl",
        -9.922273448899121
      ],
      [
        "▁ensam",
        -9.922439212680509
      ],
      [
        "▁idé",
        -9.922590044929965
      ],
      [
        "▁djup",
        -9.923497933815119
      ],
      [
        "▁vita",
        -9.923649326471574
      ],
      [
        "▁Ar",
        -9.923996445895657
      ],
      [
        "▁svara",
        -9.924328499135427
      ],
      [
        "▁Fast",
        -9.924355521156926
      ],
      [
        "▁fundera",
        -9.924798228175554
      ],
      [
        "▁undvika",
        -9.924858122489221
      ],
      [
        "▁post",
        -9.927215204286542
      ],
      [
        "▁ingenting",
        -9.927700065459897
      ],
      [
        "▁lösa",
        -9.928772057218382
      ],
      [
        "hört",
        -9.928916804797174
      ],
      [
        "ER",
        -9.929401741747759
      ],
      [
        "▁knappt",
        -9.929583777269695
      ],
      [
        "▁öppen",
        -9.930079379495389
      ],
      [
        "dvs",
        -9.930399639780465
      ],
      [
        "▁Välkommen",
        -9.931119183027938
      ],
      [
        "ina",
        -9.93172804865886
      ],
      [
        "▁timme",
        -9.932355241498469
      ],
      [
        "▁längs",
        -9.933017465354398
      ],
      [
        "pratar",
        -9.933650761778482
      ],
      [
        "Vilken",
        -9.933913122600828
      ],
      [
        "▁matcher",
        -9.934327027704194
      ],
      [
        "▁middag",
        -9.934666869824936
      ],
      [
        "▁grader",
        -9.935027626062984
      ],
      [
        "Klicka",
        -9.935820972524192
      ],
      [
        "▁njuta",
        -9.936113542194967
      ],
      [
        "ernas",
        -9.936477501863012
      ],
      [
        "▁slag",
        -9.936546629363118
      ],
      [
        "▁omdöme",
        -9.937366020175809
      ],
      [
        "▁Köp",
        -9.937705849643812
      ],
      [
        "slag",
        -9.93881265324963
      ],
      [
        "växer",
        -9.939138884453966
      ],
      [
        "▁fredag",
        -9.939275469929271
      ],
      [
        "antingen",
        -9.940384499892255
      ],
      [
        "▁huvudet",
        -9.940652112621786
      ],
      [
        "klarar",
        -9.940884446826429
      ],
      [
        "▁värld",
        -9.941610559490796
      ],
      [
        "väg",
        -9.943114638244726
      ],
      [
        "rik",
        -9.943269799476104
      ],
      [
        "li",
        -9.9436463438557
      ],
      [
        "▁test",
        -9.944066699208799
      ],
      [
        "▁inkludera",
        -9.944185871606638
      ],
      [
        "▁annorlunda",
        -9.944428547596406
      ],
      [
        "räcker",
        -9.94560224465651
      ],
      [
        "▁oro",
        -9.945886610520505
      ],
      [
        "▁internationella",
        -9.946281782198378
      ],
      [
        "▁samhälle",
        -9.946343588304464
      ],
      [
        "▁Sa",
        -9.947863430586974
      ],
      [
        "dan",
        -9.948269276937358
      ],
      [
        "▁partner",
        -9.948465937601684
      ],
      [
        "▁Sätt",
        -9.948585469327673
      ],
      [
        "▁Skåne",
        -9.94860153519896
      ],
      [
        "▁ansökan",
        -9.948966448965379
      ],
      [
        "▁önska",
        -9.949032522889599
      ],
      [
        "▁Lund",
        -9.949305093463925
      ],
      [
        "▁cykel",
        -9.949578124792286
      ],
      [
        "▁Nya",
        -9.949671237207218
      ],
      [
        "▁Först",
        -9.949691488223669
      ],
      [
        "produkter",
        -9.950439202636703
      ],
      [
        "▁fantastiska",
        -9.950612840631793
      ],
      [
        "mål",
        -9.950778994880524
      ],
      [
        "▁tala",
        -9.951090354821336
      ],
      [
        "▁bas",
        -9.951370204697872
      ],
      [
        "hem",
        -9.951497345809901
      ],
      [
        "▁förmåga",
        -9.95152718180868
      ],
      [
        "▁Visst",
        -9.95192928625679
      ],
      [
        "▁knapp",
        -9.95250476523815
      ],
      [
        "▁serie",
        -9.952809389547689
      ],
      [
        "▁promenad",
        -9.954091774252058
      ],
      [
        "▁drabba",
        -9.954164030887544
      ],
      [
        "▁kalla",
        -9.954658324391831
      ],
      [
        "kallade",
        -9.955262771047199
      ],
      [
        "▁Använd",
        -9.955338742169063
      ],
      [
        "▁utvecklingen",
        -9.956868961261268
      ],
      [
        "han",
        -9.957355104384257
      ],
      [
        "▁webbplats",
        -9.957693476114915
      ],
      [
        "▁kostnader",
        -9.958055210054333
      ],
      [
        "▁risker",
        -9.959361765412032
      ],
      [
        "mark",
        -9.959513667806052
      ],
      [
        "▁mår",
        -9.959819363277765
      ],
      [
        "nu",
        -9.9598418765429
      ],
      [
        "EN",
        -9.960090408673603
      ],
      [
        "hänt",
        -9.960093812846749
      ],
      [
        "plötsligt",
        -9.960180830192465
      ],
      [
        "ämre",
        -9.960542267614668
      ],
      [
        "▁budget",
        -9.960626793558042
      ],
      [
        "▁Tre",
        -9.960678863630049
      ],
      [
        "skor",
        -9.961549195255111
      ],
      [
        "▁riktig",
        -9.962463123938594
      ],
      [
        "▁kommuner",
        -9.962465105399856
      ],
      [
        "▁bloggen",
        -9.962737164919204
      ],
      [
        "▁skit",
        -9.963310142145918
      ],
      [
        "▁uppdatera",
        -9.96359947945464
      ],
      [
        "någonting",
        -9.964821892940774
      ],
      [
        "▁Välj",
        -9.966575960481833
      ],
      [
        "ver",
        -9.966592295367663
      ],
      [
        "lade",
        -9.967605387689904
      ],
      [
        "chef",
        -9.967642233715784
      ],
      [
        "nivå",
        -9.96772831938626
      ],
      [
        "lyckades",
        -9.967906478828974
      ],
      [
        "▁spår",
        -9.968963273702563
      ],
      [
        "fattar",
        -9.969730592066297
      ],
      [
        "▁Bland",
        -9.97036657447049
      ],
      [
        "▁Jan",
        -9.970690810599217
      ],
      [
        "▁låna",
        -9.971645245879623
      ],
      [
        "▁högst",
        -9.971892891065153
      ],
      [
        "bil",
        -9.972676789237507
      ],
      [
        "én",
        -9.973545082845481
      ],
      [
        "▁situation",
        -9.974037479341675
      ],
      [
        "möta",
        -9.975308099387316
      ],
      [
        "▁livs",
        -9.975459907964115
      ],
      [
        "▁prov",
        -9.975919317787296
      ],
      [
        "🙂",
        -9.97633723515226
      ],
      [
        "▁ME",
        -9.976622079064173
      ],
      [
        "▁huden",
        -9.978014366441244
      ],
      [
        "▁förvänta",
        -9.979005756630427
      ],
      [
        "ökat",
        -9.979233051587919
      ],
      [
        "▁lösning",
        -9.979598820335523
      ],
      [
        "anses",
        -9.979683877132606
      ],
      [
        "▁försäljning",
        -9.980345825563678
      ],
      [
        "▁söndag",
        -9.98164595906147
      ],
      [
        "▁guld",
        -9.9819412374657
      ],
      [
        "▁sjukdom",
        -9.982726750968418
      ],
      [
        "▁princip",
        -9.98320710289311
      ],
      [
        "▁plus",
        -9.983752521032745
      ],
      [
        "▁lön",
        -9.98391849243691
      ],
      [
        "▁bilar",
        -9.985179783573841
      ],
      [
        "ings",
        -9.985235664956146
      ],
      [
        "▁datorn",
        -9.985577723559702
      ],
      [
        "▁special",
        -9.985750037319132
      ],
      [
        "▁våld",
        -9.986000941665054
      ],
      [
        "körde",
        -9.986255915904255
      ],
      [
        "▁tvinga",
        -9.98643430865503
      ],
      [
        "▁Finland",
        -9.986901078547799
      ],
      [
        "lyckat",
        -9.988921895730387
      ],
      [
        "nuvarande",
        -9.989531431148734
      ],
      [
        "▁tillväxt",
        -9.989857306917614
      ],
      [
        "ört",
        -9.990081172163022
      ],
      [
        "▁alkohol",
        -9.99064207304585
      ],
      [
        "▁köpt",
        -9.990862573923767
      ],
      [
        "▁dels",
        -9.991410217631698
      ],
      [
        "▁fa",
        -9.993064333694976
      ],
      [
        "▁tillgängliga",
        -9.993502989960122
      ],
      [
        "rakt",
        -9.993821125233493
      ],
      [
        "▁himla",
        -9.993938575769166
      ],
      [
        "▁bedriv",
        -9.995737775606903
      ],
      [
        "▁rättigheter",
        -9.995920560771827
      ],
      [
        "▁modell",
        -9.996453801319834
      ],
      [
        "gång",
        -9.99671479764877
      ],
      [
        "▁Andra",
        -9.996761887649527
      ],
      [
        "finner",
        -9.997800114227926
      ],
      [
        "pris",
        -9.99830660511008
      ],
      [
        "▁satte",
        -9.998501843210013
      ],
      [
        "startade",
        -9.999361776410987
      ],
      [
        "▁klicka",
        -9.9994644403657
      ],
      [
        "Igår",
        -9.999786884642871
      ],
      [
        "▁må",
        -10.000481260705234
      ],
      [
        "ökade",
        -10.001032274988852
      ],
      [
        "▁mil",
        -10.00150110374552
      ],
      [
        "▁Johansson",
        -10.001589812484358
      ],
      [
        "▁bred",
        -10.002221560872385
      ],
      [
        "▁sp",
        -10.003100247785655
      ],
      [
        "känt",
        -10.003552423901878
      ],
      [
        "▁sällan",
        -10.004123595457207
      ],
      [
        "såklart",
        -10.004918366909928
      ],
      [
        "▁OK",
        -10.005079776961615
      ],
      [
        "▁frukt",
        -10.006341390198305
      ],
      [
        "▁lagt",
        -10.008232107826348
      ],
      [
        "Tack",
        -10.008608367290728
      ],
      [
        "nade",
        -10.009045690955924
      ],
      [
        "ol",
        -10.009292396600289
      ],
      [
        "▁namnet",
        -10.009503297530928
      ],
      [
        "igen",
        -10.009542602585448
      ],
      [
        "▁Erik",
        -10.010787830791156
      ],
      [
        "▁öppet",
        -10.01091179882667
      ],
      [
        "▁video",
        -10.011027905859144
      ],
      [
        "▁Martin",
        -10.011039443400298
      ],
      [
        "▁pro",
        -10.011193135505046
      ],
      [
        "ivetvis",
        -10.011481546550819
      ],
      [
        "samt",
        -10.01196679052356
      ],
      [
        "▁förhållande",
        -10.012522114652468
      ],
      [
        "▁Pro",
        -10.013078223046339
      ],
      [
        "▁utnyttja",
        -10.013982747008145
      ],
      [
        "▁All",
        -10.016326447949075
      ],
      [
        "▁intresserad",
        -10.016384997716708
      ],
      [
        "▁miljarder",
        -10.016641535728827
      ],
      [
        "X",
        -10.017517338363005
      ],
      [
        "▁enkla",
        -10.018109206710111
      ],
      [
        "▁resultatet",
        -10.018207556771804
      ],
      [
        "pass",
        -10.01856728698452
      ],
      [
        "▁stolt",
        -10.018739023209402
      ],
      [
        "▁föreslå",
        -10.019407485629014
      ],
      [
        "bjuder",
        -10.020330556257928
      ],
      [
        "▁medlem",
        -10.020565893133286
      ],
      [
        "JL",
        -10.02070936812147
      ],
      [
        "▁lägenhet",
        -10.020752894645032
      ],
      [
        "Mer",
        -10.020960703960899
      ],
      [
        "▁skydda",
        -10.022042593357478
      ],
      [
        "▁mörk",
        -10.02348072851211
      ],
      [
        "▁Fredrik",
        -10.023982937141422
      ],
      [
        "▁sten",
        -10.024130469196065
      ],
      [
        "sjö",
        -10.024240532114877
      ],
      [
        "numera",
        -10.024348683293173
      ],
      [
        "▁bar",
        -10.024526077320049
      ],
      [
        "ck",
        -10.024837691658883
      ],
      [
        "Vilka",
        -10.024973471429483
      ],
      [
        "http",
        -10.02502521821476
      ],
      [
        "▁omdömet",
        -10.026347465667074
      ],
      [
        "▁restaurang",
        -10.027416894528658
      ],
      [
        "▁smidig",
        -10.027507518769012
      ],
      [
        "▁gett",
        -10.027523871275502
      ],
      [
        "risken",
        -10.02795424943741
      ],
      [
        "möten",
        -10.028245961802858
      ],
      [
        "▁säljer",
        -10.028863410861412
      ],
      [
        "▁patienter",
        -10.030744294243231
      ],
      [
        "ADRESS",
        -10.032768734134647
      ],
      [
        "lån",
        -10.033128532203607
      ],
      [
        "träffade",
        -10.033998249250606
      ],
      [
        "▁medier",
        -10.03407516876692
      ],
      [
        "▁samla",
        -10.034151077748053
      ],
      [
        "sida",
        -10.034373919930946
      ],
      [
        "▁utbud",
        -10.034548656351737
      ],
      [
        "sättet",
        -10.03462202245603
      ],
      [
        "löst",
        -10.034855301502434
      ],
      [
        "åtminstone",
        -10.035006627498854
      ],
      [
        "▁positiv",
        -10.035097132924857
      ],
      [
        "ställen",
        -10.035823177061117
      ],
      [
        "▁förklara",
        -10.036474439116828
      ],
      [
        "liggande",
        -10.036511110941845
      ],
      [
        "▁Mat",
        -10.036711800126351
      ],
      [
        "▁fixa",
        -10.037663511542751
      ],
      [
        "▁havet",
        -10.037845323659532
      ],
      [
        "Vissa",
        -10.03814268923039
      ],
      [
        "bild",
        -10.038894431330606
      ],
      [
        "▁slog",
        -10.039445520407199
      ],
      [
        "▁modern",
        -10.039485092054734
      ],
      [
        "▁säsong",
        -10.039545673286439
      ],
      [
        "▁missa",
        -10.040088626992091
      ],
      [
        "▁räkna",
        -10.04071013284437
      ],
      [
        "▁skön",
        -10.041038882970676
      ],
      [
        "▁varm",
        -10.041152655338454
      ],
      [
        "▁vacker",
        -10.041525695568746
      ],
      [
        "fylla",
        -10.041738135664884
      ],
      [
        "rad",
        -10.04191460855268
      ],
      [
        "▁blod",
        -10.04320226250828
      ],
      [
        "▁Tyskland",
        -10.04343947167463
      ],
      [
        "▁möte",
        -10.043513797996884
      ],
      [
        "ordentligt",
        -10.044147636440904
      ],
      [
        "du",
        -10.045043703959381
      ],
      [
        "▁Gör",
        -10.045579539046985
      ],
      [
        "▁tjej",
        -10.045782141431967
      ],
      [
        "▁IT",
        -10.04582276837071
      ],
      [
        "visste",
        -10.046233964955885
      ],
      [
        "Förutom",
        -10.046365337762099
      ],
      [
        "▁styr",
        -10.046504737643305
      ],
      [
        "vid",
        -10.047213924605474
      ],
      [
        "▁lösningar",
        -10.047423153357691
      ],
      [
        "▁trevligt",
        -10.047601144013392
      ],
      [
        "tre",
        -10.047892684088955
      ],
      [
        "▁människa",
        -10.04869397377859
      ],
      [
        "▁gäst",
        -10.049418500949992
      ],
      [
        "band",
        -10.049961714206288
      ],
      [
        "▁miss",
        -10.050736629608302
      ],
      [
        "relativt",
        -10.050747413462428
      ],
      [
        "▁Din",
        -10.050772930427172
      ],
      [
        "▁satsa",
        -10.05083972112144
      ],
      [
        "▁undan",
        -10.051630994432413
      ],
      [
        "▁Dock",
        -10.051807461226046
      ],
      [
        "▁Bild",
        -10.052878627890093
      ],
      [
        "▁tillfälle",
        -10.054953857694194
      ],
      [
        "▁mitten",
        -10.05499948566489
      ],
      [
        "▁År",
        -10.056150807243244
      ],
      [
        "▁uppnå",
        -10.05650589466493
      ],
      [
        "▁pengarna",
        -10.057873101781734
      ],
      [
        "▁följd",
        -10.05839902185385
      ],
      [
        "▁tal",
        -10.058459048331732
      ],
      [
        "▁amerikanska",
        -10.058462175637722
      ],
      [
        "▁plast",
        -10.058888293228266
      ],
      [
        "▁nämn",
        -10.060651562809149
      ],
      [
        "vända",
        -10.06141224812732
      ],
      [
        "Tyvärr",
        -10.061489889007307
      ],
      [
        "ständigt",
        -10.06205631643365
      ],
      [
        "▁acceptera",
        -10.062539619822735
      ],
      [
        "▁makt",
        -10.0625471956195
      ],
      [
        "▁Co",
        -10.063121162473282
      ],
      [
        "▁stress",
        -10.063636840143275
      ],
      [
        "▁brev",
        -10.064537956020102
      ],
      [
        "▁konto",
        -10.064801950093003
      ],
      [
        "omfattande",
        -10.065183193518733
      ],
      [
        "▁kontrollera",
        -10.066433839359814
      ],
      [
        "jag",
        -10.068613933312697
      ],
      [
        "▁Z",
        -10.068775175848659
      ],
      [
        "▁by",
        -10.068858299265635
      ],
      [
        "▁haha",
        -10.06895764766195
      ],
      [
        "▁Hem",
        -10.069007502217893
      ],
      [
        "▁leta",
        -10.069069513188598
      ],
      [
        "resa",
        -10.06913854792146
      ],
      [
        "▁brist",
        -10.069302981646095
      ],
      [
        "▁förut",
        -10.06969575569354
      ],
      [
        "yngre",
        -10.07042442323941
      ],
      [
        "Våra",
        -10.070601954221207
      ],
      [
        "ock",
        -10.07061369150044
      ],
      [
        "▁betalar",
        -10.072513516873926
      ],
      [
        "▁välkomna",
        -10.072633306324668
      ],
      [
        "▁tids",
        -10.072712639758768
      ],
      [
        "▁foto",
        -10.072715479220326
      ],
      [
        "slår",
        -10.073078036010573
      ],
      [
        "via",
        -10.073111026184796
      ],
      [
        "planen",
        -10.073204968471652
      ],
      [
        "aktuella",
        -10.073293781134021
      ],
      [
        "bolag",
        -10.073347907433496
      ],
      [
        "verk",
        -10.073475502001235
      ],
      [
        "▁Pa",
        -10.074262881169465
      ],
      [
        "mötet",
        -10.075135776664078
      ],
      [
        "enklare",
        -10.075404863867966
      ],
      [
        "▁besöka",
        -10.076352838333415
      ],
      [
        "▁Vet",
        -10.076594050593979
      ],
      [
        "lämnade",
        -10.07835839137344
      ],
      [
        "▁ges",
        -10.079023162899883
      ],
      [
        "▁normalt",
        -10.079228164320735
      ],
      [
        "garantera",
        -10.079414490877104
      ],
      [
        "myndigheten",
        -10.079893226099985
      ],
      [
        "▁Norge",
        -10.08033967129656
      ],
      [
        "▁Örebro",
        -10.08063707797723
      ],
      [
        "▁www",
        -10.08178190501541
      ],
      [
        "Skulle",
        -10.082864855415451
      ],
      [
        "▁rummet",
        -10.083113762425501
      ],
      [
        "▁ersättning",
        -10.083383604034275
      ],
      [
        "▁Val",
        -10.084132534835243
      ],
      [
        "▁ställe",
        -10.084359142741636
      ],
      [
        "▁bakgrund",
        -10.084874938787852
      ],
      [
        "▁media",
        -10.08490776424262
      ],
      [
        "▁jord",
        -10.08522341284693
      ],
      [
        "per",
        -10.085497937730324
      ],
      [
        "▁Hos",
        -10.086160534125119
      ],
      [
        "▁Mo",
        -10.086394935694704
      ],
      [
        "▁Anmäl",
        -10.088630869296338
      ],
      [
        "kul",
        -10.088688473264533
      ],
      [
        "▁regn",
        -10.088993225484938
      ],
      [
        "▁morgonen",
        -10.089326091042983
      ],
      [
        "▁kombinera",
        -10.089920904591487
      ],
      [
        "tro",
        -10.09076120060841
      ],
      [
        "funkar",
        -10.091215284906214
      ],
      [
        "▁Nästa",
        -10.09413262904518
      ],
      [
        "▁förändring",
        -10.094218498987155
      ],
      [
        "▁utföra",
        -10.09437936646947
      ],
      [
        "▁hänsyn",
        -10.0943807555047
      ],
      [
        "▁Hade",
        -10.094493665278232
      ],
      [
        "ker",
        -10.094760665017883
      ],
      [
        "▁Själv",
        -10.095498627547679
      ],
      [
        "▁affärs",
        -10.09565803199993
      ],
      [
        "En",
        -10.096492431381085
      ],
      [
        "www",
        -10.096638743795504
      ],
      [
        "▁norr",
        -10.096775473267824
      ],
      [
        "▁fisk",
        -10.097373664925922
      ],
      [
        "tog",
        -10.09767051342976
      ],
      [
        "▁fest",
        -10.097989787855113
      ],
      [
        "▁glädje",
        -10.09877447668756
      ],
      [
        "▁Stor",
        -10.098838663597997
      ],
      [
        "titeln",
        -10.099095384849178
      ],
      [
        "▁nyligen",
        -10.100047689361514
      ],
      [
        "gar",
        -10.100104023900808
      ],
      [
        "▁Le",
        -10.100282868450158
      ],
      [
        "processen",
        -10.100980744915232
      ],
      [
        "▁sjukhus",
        -10.102020955299498
      ],
      [
        "▁säkra",
        -10.102055864222503
      ],
      [
        "▁besluta",
        -10.102395612510271
      ],
      [
        "▁lek",
        -10.103271122406124
      ],
      [
        "teknik",
        -10.103985589930913
      ],
      [
        "tvung",
        -10.104578179316361
      ],
      [
        "▁bio",
        -10.105334565970752
      ],
      [
        "▁Lägg",
        -10.107061381877358
      ],
      [
        "möjliga",
        -10.107437231090083
      ],
      [
        "tjänst",
        -10.107589290603027
      ],
      [
        "sel",
        -10.108826598919478
      ],
      [
        "▁tjejer",
        -10.109058950053821
      ],
      [
        "▁görs",
        -10.109060643682136
      ],
      [
        "▁Google",
        -10.109353304672071
      ],
      [
        "▁dyr",
        -10.109606195450594
      ],
      [
        "▁Carl",
        -10.110104686615328
      ],
      [
        "▁måndag",
        -10.112047546631999
      ],
      [
        "tekniska",
        -10.113308121861852
      ],
      [
        "borg",
        -10.113644821450908
      ],
      [
        "▁översättning",
        -10.114259091043166
      ],
      [
        "▁Berg",
        -10.114292759066462
      ],
      [
        "▁mjuk",
        -10.114381862596275
      ],
      [
        "bestämt",
        -10.11545507423612
      ],
      [
        "▁tjänst",
        -10.115899256430236
      ],
      [
        "▁slags",
        -10.116089196879543
      ],
      [
        "▁läkemedel",
        -10.11621896563816
      ],
      [
        "bra",
        -10.117237301886245
      ],
      [
        "▁röst",
        -10.11844281284762
      ],
      [
        "ju",
        -10.118478222561675
      ],
      [
        "▁hot",
        -10.118859634489072
      ],
      [
        "▁Inga",
        -10.119244861452499
      ],
      [
        "kom",
        -10.11925159490811
      ],
      [
        "sch",
        -10.11956587421291
      ],
      [
        "▁snygg",
        -10.120212798791917
      ],
      [
        "▁kapital",
        -10.121341900499138
      ],
      [
        "▁erbjud",
        -10.121646977408163
      ],
      [
        "▁rekommenderar",
        -10.122270758706847
      ],
      [
        "▁Me",
        -10.122537818957493
      ],
      [
        "full",
        -10.122623839039024
      ],
      [
        "varande",
        -10.123297837813794
      ],
      [
        "rar",
        -10.12365698974213
      ],
      [
        "▁inlägget",
        -10.124342320197096
      ],
      [
        "lösa",
        -10.125545856951048
      ],
      [
        "allmänna",
        -10.126557970331213
      ],
      [
        "rådet",
        -10.126629564790889
      ],
      [
        "▁process",
        -10.126763730886276
      ],
      [
        "▁centrala",
        -10.127000510771644
      ],
      [
        "▁röd",
        -10.127225389180891
      ],
      [
        "▁problemet",
        -10.128250134385436
      ],
      [
        "bart",
        -10.13004255746545
      ],
      [
        "▁politiker",
        -10.131726579860688
      ],
      [
        "▁jorden",
        -10.132245923623614
      ],
      [
        "▁Få",
        -10.13261013399327
      ],
      [
        "▁användare",
        -10.132701538739322
      ],
      [
        "eleverna",
        -10.13347608754937
      ],
      [
        "▁mån",
        -10.133476642820538
      ],
      [
        "vatten",
        -10.135336925907419
      ],
      [
        "▁studier",
        -10.13637774347028
      ],
      [
        "▁ringa",
        -10.137498587791487
      ],
      [
        "▁gemensamma",
        -10.137845284389542
      ],
      [
        "▁nummer",
        -10.138826619804908
      ],
      [
        "▁di",
        -10.139624034541717
      ],
      [
        "▁socker",
        -10.139639992649055
      ],
      [
        "befinner",
        -10.140926929012478
      ],
      [
        "▁No",
        -10.141567070698635
      ],
      [
        "▁genomför",
        -10.142219746666045
      ],
      [
        "▁världs",
        -10.142223175311495
      ],
      [
        "link",
        -10.142663466749001
      ],
      [
        "▁företags",
        -10.143716661694784
      ],
      [
        "▁båt",
        -10.143903782930591
      ],
      [
        "grupp",
        -10.144135648993228
      ],
      [
        "▁starka",
        -10.144184168659574
      ],
      [
        "▁ses",
        -10.144243066455019
      ],
      [
        "▁orsak",
        -10.144627354122791
      ],
      [
        "▁kyrkan",
        -10.144628106354512
      ],
      [
        "▁Er",
        -10.145188637265324
      ],
      [
        "▁roliga",
        -10.14582705806082
      ],
      [
        "ism",
        -10.14583005112884
      ],
      [
        "avseende",
        -10.146145525347439
      ],
      [
        "▁choklad",
        -10.146154328166512
      ],
      [
        "förbundet",
        -10.146310369567615
      ],
      [
        "skrevs",
        -10.146987208242399
      ],
      [
        "▁kök",
        -10.14784218550178
      ],
      [
        "▁träd",
        -10.147871729572064
      ],
      [
        "age",
        -10.148571972729432
      ],
      [
        "▁St",
        -10.148696428124047
      ],
      [
        "▁hundra",
        -10.148751040343742
      ],
      [
        "▁stycken",
        -10.14931934993612
      ],
      [
        "situationen",
        -10.149515829679045
      ],
      [
        "berättade",
        -10.149856699960383
      ],
      [
        "▁använde",
        -10.150289677129452
      ],
      [
        "visat",
        -10.151359976672012
      ],
      [
        "idéer",
        -10.151462505521971
      ],
      [
        "▁motsvarande",
        -10.152962944396043
      ],
      [
        "▁upplevelse",
        -10.15328990501034
      ],
      [
        "▁magen",
        -10.153301010512475
      ],
      [
        "möjligheten",
        -10.15376455915774
      ],
      [
        "▁Första",
        -10.155335971568325
      ],
      [
        "tillfällen",
        -10.155480243062735
      ],
      [
        "▁kombination",
        -10.155590931514173
      ],
      [
        "▁ung",
        -10.156521018434965
      ],
      [
        "stöd",
        -10.156649534642881
      ],
      [
        "område",
        -10.15719114014414
      ],
      [
        "▁transport",
        -10.15767114244607
      ],
      [
        "▁illa",
        -10.157889257447083
      ],
      [
        "▁Vem",
        -10.158031276073773
      ],
      [
        "▁inspiration",
        -10.160510291667713
      ],
      [
        "snabbare",
        -10.160794667335983
      ],
      [
        "▁nödvändigt",
        -10.161806534623858
      ],
      [
        "▁Ro",
        -10.161855689491501
      ],
      [
        "▁snabba",
        -10.162527961411717
      ],
      [
        "▁buss",
        -10.163228133283775
      ],
      [
        "konstigt",
        -10.16354514908024
      ],
      [
        "värre",
        -10.163607200168524
      ],
      [
        "▁förändringar",
        -10.164604412888218
      ],
      [
        "▁organisation",
        -10.164620119629731
      ],
      [
        "▁jämföra",
        -10.165654144545524
      ],
      [
        "▁ända",
        -10.165712795918619
      ],
      [
        "est",
        -10.166382824596512
      ],
      [
        "▁Någon",
        -10.166938262287594
      ],
      [
        "chansen",
        -10.167138697198013
      ],
      [
        "▁korrekt",
        -10.167139199446337
      ],
      [
        "▁avgörande",
        -10.167623595610536
      ],
      [
        "▁Dom",
        -10.167747008840665
      ],
      [
        "skatt",
        -10.168368950912638
      ],
      [
        "tjänster",
        -10.16841076225035
      ],
      [
        "jo",
        -10.16876292244312
      ],
      [
        "center",
        -10.170031927933291
      ],
      [
        "▁grad",
        -10.170094457442103
      ],
      [
        "▁fyller",
        -10.170226382720404
      ],
      [
        "▁säkerställ",
        -10.17086562303439
      ],
      [
        "▁ämnen",
        -10.171078436849665
      ],
      [
        "▁dejta",
        -10.171281670069956
      ],
      [
        "Omdöme",
        -10.171907253613572
      ],
      [
        "▁leverera",
        -10.172402928621649
      ],
      [
        "svarade",
        -10.172405804437398
      ],
      [
        "▁ägg",
        -10.172653938221742
      ],
      [
        "▁tänk",
        -10.172849355269362
      ],
      [
        "Å",
        -10.174011133855357
      ],
      [
        "▁minns",
        -10.174230059470093
      ],
      [
        "▁resurser",
        -10.174888959061013
      ],
      [
        "priserna",
        -10.176473858638555
      ],
      [
        "▁vackert",
        -10.176494198177906
      ],
      [
        "slagen",
        -10.176553213143238
      ],
      [
        "▁skogen",
        -10.17729009003394
      ],
      [
        "▁funktioner",
        -10.17733486583173
      ],
      [
        "▁naturen",
        -10.178404224539271
      ],
      [
        "verksamhet",
        -10.179166068953249
      ],
      [
        "▁rädda",
        -10.179702641430628
      ],
      [
        "▁grupper",
        -10.180350987806037
      ],
      [
        "▁redo",
        -10.180783065058282
      ],
      [
        "För",
        -10.181827508499605
      ],
      [
        "▁Nilsson",
        -10.182357506311265
      ],
      [
        "läge",
        -10.18248005813893
      ],
      [
        "▁Mar",
        -10.182608134875496
      ],
      [
        "▁Sol",
        -10.18338298263046
      ],
      [
        "▁bostads",
        -10.183642682122771
      ],
      [
        "▁tecken",
        -10.18446313262094
      ],
      [
        "visas",
        -10.184547318348882
      ],
      [
        "▁dröm",
        -10.184784293578875
      ],
      [
        "känslan",
        -10.184930175058637
      ],
      [
        "ang",
        -10.185431607736271
      ],
      [
        "▁mode",
        -10.185697923374581
      ],
      [
        "▁omöjlig",
        -10.185872511090967
      ],
      [
        "hittills",
        -10.186473836786682
      ],
      [
        "ber",
        -10.186596363903686
      ],
      [
        "▁informationen",
        -10.187126354024716
      ],
      [
        "stans",
        -10.187236483459396
      ],
      [
        "▁röda",
        -10.187406315269246
      ],
      [
        "▁SVT",
        -10.187504757375489
      ],
      [
        "▁fot",
        -10.187837683695664
      ],
      [
        "▁ton",
        -10.18786156763312
      ],
      [
        "▁Stefan",
        -10.188074708691417
      ],
      [
        "beskriver",
        -10.188807613100714
      ],
      [
        "▁plocka",
        -10.189635091918058
      ],
      [
        "▁Internet",
        -10.190213824453572
      ],
      [
        "stället",
        -10.190255777609725
      ],
      [
        "förmodligen",
        -10.192393236686817
      ],
      [
        "Dålig",
        -10.19286033348631
      ],
      [
        "▁Pris",
        -10.193279864059324
      ],
      [
        "▁Daniel",
        -10.193757746497209
      ],
      [
        "▁sam",
        -10.193782084978704
      ],
      [
        "▁beställa",
        -10.19433317745933
      ],
      [
        "industrin",
        -10.194397053485373
      ],
      [
        "▁Dam",
        -10.195009880859006
      ],
      [
        "▁nät",
        -10.195465287827474
      ],
      [
        "▁digitala",
        -10.195512545995843
      ],
      [
        "▁grundläggande",
        -10.195654527695721
      ],
      [
        "kallar",
        -10.195932697109736
      ],
      [
        "▁mor",
        -10.19704230655384
      ],
      [
        "▁hopp",
        -10.197057698019107
      ],
      [
        "▁dotter",
        -10.197281409548246
      ],
      [
        "material",
        -10.197640041439318
      ],
      [
        "▁framtid",
        -10.197726636809588
      ],
      [
        "framförallt",
        -10.1977703980544
      ],
      [
        "▁butik",
        -10.19929898091992
      ],
      [
        "▁hamnar",
        -10.199656375134245
      ],
      [
        "▁känd",
        -10.199749081894083
      ],
      [
        "▁ledare",
        -10.199858846154141
      ],
      [
        "▁regel",
        -10.20061386101195
      ],
      [
        "▁perspektiv",
        -10.200739368623015
      ],
      [
        "▁fart",
        -10.201163416322046
      ],
      [
        "▁Fri",
        -10.201543118443483
      ],
      [
        "rätten",
        -10.20155631862603
      ],
      [
        "▁kött",
        -10.20283929338118
      ],
      [
        "bord",
        -10.203577915932717
      ],
      [
        "partiet",
        -10.203910679207892
      ],
      [
        "▁inled",
        -10.204161275470195
      ],
      [
        "▁botten",
        -10.204218879122081
      ],
      [
        "▁långsiktig",
        -10.20456092141419
      ],
      [
        "medel",
        -10.206064581263732
      ],
      [
        "▁utomhus",
        -10.206082588527943
      ],
      [
        "▁Sam",
        -10.206710647695624
      ],
      [
        "Något",
        -10.20676263394033
      ],
      [
        "Z",
        -10.20688166729084
      ],
      [
        "▁känslor",
        -10.2075857840031
      ],
      [
        "har",
        -10.207930657752526
      ],
      [
        "▁Svensk",
        -10.207965850591604
      ],
      [
        "van",
        -10.208047207588264
      ],
      [
        "▁fördel",
        -10.208083061771617
      ],
      [
        "▁bedöm",
        -10.208585905317351
      ],
      [
        "▁rädd",
        -10.20894704235781
      ],
      [
        "▁Bil",
        -10.20917225829298
      ],
      [
        "Vilket",
        -10.209173944547146
      ],
      [
        "varken",
        -10.209357704898837
      ],
      [
        "▁driva",
        -10.210192227601516
      ],
      [
        "▁detaljer",
        -10.210484360113467
      ],
      [
        "▁betyd",
        -10.211549369135595
      ],
      [
        "▁bedömning",
        -10.212353743214546
      ],
      [
        "▁katt",
        -10.212846261502229
      ],
      [
        "öppnar",
        -10.212964243394374
      ],
      [
        "möter",
        -10.213515388566503
      ],
      [
        "▁mening",
        -10.21400930720243
      ],
      [
        "▁månaden",
        -10.214261328103472
      ],
      [
        "▁håret",
        -10.21466367220357
      ],
      [
        "▁chef",
        -10.215327859905315
      ],
      [
        "namn",
        -10.215368616011425
      ],
      [
        "fors",
        -10.215649251878386
      ],
      [
        "▁staten",
        -10.215662131474241
      ],
      [
        "▁tillämpa",
        -10.215799321314567
      ],
      [
        "▁ägare",
        -10.216255623070337
      ],
      [
        "▁driver",
        -10.217651114101457
      ],
      [
        "▁Nord",
        -10.218939492903251
      ],
      [
        "met",
        -10.21921282942051
      ],
      [
        "▁springa",
        -10.219339170190244
      ],
      [
        "sättningar",
        -10.219421212962326
      ],
      [
        "positivt",
        -10.220614658599676
      ],
      [
        "heten",
        -10.221253873521484
      ],
      [
        "▁Ge",
        -10.22141539560613
      ],
      [
        "▁leverans",
        -10.22224517520683
      ],
      [
        "▁hundar",
        -10.22323412211554
      ],
      [
        "▁kommunikation",
        -10.223870327807326
      ],
      [
        "spelare",
        -10.225887075313594
      ],
      [
        "▁live",
        -10.226193224039536
      ],
      [
        "alt",
        -10.226346701260102
      ],
      [
        "▁allmän",
        -10.226637702749594
      ],
      [
        "blad",
        -10.227455671661469
      ],
      [
        "▁privata",
        -10.227828640780583
      ],
      [
        "▁anti",
        -10.227913611015417
      ],
      [
        "▁tränings",
        -10.228460616338817
      ],
      [
        "▁sväng",
        -10.228783124071324
      ],
      [
        "▁Sp",
        -10.228907581360877
      ],
      [
        "▁stoppa",
        -10.229050704415545
      ],
      [
        "▁Lo",
        -10.229164153805154
      ],
      [
        "▁Spel",
        -10.229442522652942
      ],
      [
        "▁cookies",
        -10.229566697829211
      ],
      [
        "▁erfarenheter",
        -10.230092128467293
      ],
      [
        "▁inkomst",
        -10.23055857411288
      ],
      [
        "▁Innan",
        -10.231148828316048
      ],
      [
        "▁Information",
        -10.23162765144624
      ],
      [
        "▁kost",
        -10.232141059115044
      ],
      [
        "▁avsnitt",
        -10.232357967930518
      ],
      [
        "▁hård",
        -10.232690153344954
      ],
      [
        "yl",
        -10.23323901154131
      ],
      [
        "▁förlora",
        -10.233785574501693
      ],
      [
        "dla",
        -10.233911199170645
      ],
      [
        "▁rese",
        -10.234618047349837
      ],
      [
        "▁politik",
        -10.234652394439403
      ],
      [
        "▁växa",
        -10.234794452342747
      ],
      [
        "▁kunskaper",
        -10.235368630288017
      ],
      [
        "▁verksamheter",
        -10.235526031703495
      ],
      [
        "▁mjölk",
        -10.235789849189416
      ],
      [
        "▁värd",
        -10.236781761097324
      ],
      [
        "andet",
        -10.2373072574326
      ],
      [
        "▁underlätta",
        -10.23738342456297
      ],
      [
        "▁punkt",
        -10.237402347844558
      ],
      [
        "sätt",
        -10.237490579728009
      ],
      [
        "▁London",
        -10.237622646692152
      ],
      [
        "▁analys",
        -10.23799299050589
      ],
      [
        "▁resan",
        -10.23887420972971
      ],
      [
        "loppet",
        -10.23888279507088
      ],
      [
        "▁svarar",
        -10.239292885452754
      ],
      [
        "▁tycka",
        -10.240097305206362
      ],
      [
        "råd",
        -10.240249289169686
      ],
      [
        "bjöd",
        -10.240556888956137
      ],
      [
        "granskar",
        -10.240802960127441
      ],
      [
        "letar",
        -10.241189073871327
      ],
      [
        "▁Ju",
        -10.241579237019877
      ],
      [
        "pan",
        -10.241958843324324
      ],
      [
        "▁brand",
        -10.242853337072233
      ],
      [
        "näs",
        -10.242856347624716
      ],
      [
        "▁relation",
        -10.24446364506257
      ],
      [
        "▁ikväll",
        -10.244644462401714
      ],
      [
        "▁He",
        -10.244789123395636
      ],
      [
        "▁Skriv",
        -10.245084086663624
      ],
      [
        "▁restauranger",
        -10.245319033319264
      ],
      [
        "▁maten",
        -10.24582314704726
      ],
      [
        "▁jämför",
        -10.24597145636663
      ],
      [
        "▁unik",
        -10.246793371075126
      ],
      [
        "▁San",
        -10.247005537785851
      ],
      [
        "▁Del",
        -10.247152273094908
      ],
      [
        "▁skydd",
        -10.247838355385849
      ],
      [
        "▁inre",
        -10.248120592469341
      ],
      [
        "enskilda",
        -10.248306993017348
      ],
      [
        "▁Ca",
        -10.248398760792819
      ],
      [
        "▁SM",
        -10.24843746163968
      ],
      [
        "orsaka",
        -10.24858121935104
      ],
      [
        "▁erbjudanden",
        -10.248866764223116
      ],
      [
        "▁paket",
        -10.248995485306724
      ],
      [
        "▁dans",
        -10.249371384782131
      ],
      [
        "nsåg",
        -10.249527763635438
      ],
      [
        "▁Får",
        -10.249752749832709
      ],
      [
        "▁dating",
        -10.249933903771533
      ],
      [
        "▁närvarande",
        -10.250147689740437
      ],
      [
        "▁organisationer",
        -10.250367001735233
      ],
      [
        "▁försökt",
        -10.250481596567218
      ],
      [
        "ros",
        -10.25082452971809
      ],
      [
        "perfekta",
        -10.25159516626922
      ],
      [
        "▁vitt",
        -10.251915999993125
      ],
      [
        "faller",
        -10.25216468108083
      ],
      [
        "▁föreningen",
        -10.252272977418395
      ],
      [
        "service",
        -10.252283086855199
      ],
      [
        "▁nätverk",
        -10.252593793545788
      ],
      [
        "stämmer",
        -10.252890657339227
      ],
      [
        "information",
        -10.253150123632848
      ],
      [
        "▁nätdejting",
        -10.2537047551247
      ],
      [
        "▁undantag",
        -10.253840580189348
      ],
      [
        "tanken",
        -10.25409102585477
      ],
      [
        "dörren",
        -10.254457642361821
      ],
      [
        "akt",
        -10.255886766460106
      ],
      [
        "ley",
        -10.25606395375867
      ],
      [
        "▁toppen",
        -10.256140829006396
      ],
      [
        "projekt",
        -10.256680049823277
      ],
      [
        "▁Lag",
        -10.257396104504805
      ],
      [
        "▁döda",
        -10.257529266745436
      ],
      [
        "▁hyra",
        -10.257539421098791
      ],
      [
        "uppleva",
        -10.25768663224747
      ],
      [
        "▁mail",
        -10.257893909622995
      ],
      [
        "und",
        -10.258001067994774
      ],
      [
        "Y",
        -10.258164569239279
      ],
      [
        "▁rimlig",
        -10.259118450173373
      ],
      [
        "▁vila",
        -10.25963029588184
      ],
      [
        "kursen",
        -10.259744648998083
      ],
      [
        "minskar",
        -10.259831873923405
      ],
      [
        "▁effektivt",
        -10.260148448429753
      ],
      [
        "▁Ka",
        -10.260596157466576
      ],
      [
        "▁moderna",
        -10.260809026366951
      ],
      [
        "▁sent",
        -10.2608880074064
      ],
      [
        "▁aktivt",
        -10.261023594817551
      ],
      [
        "▁säng",
        -10.261655736104808
      ],
      [
        "▁klubb",
        -10.262167489800715
      ],
      [
        "▁nationella",
        -10.26237519722103
      ],
      [
        "▁sverige",
        -10.262416797810943
      ],
      [
        "→",
        -10.263063959865676
      ],
      [
        "▁Park",
        -10.26333400892659
      ],
      [
        "▁sikt",
        -10.263720113610136
      ],
      [
        "▁reklam",
        -10.263769893667583
      ],
      [
        "▁band",
        -10.264116444825154
      ],
      [
        "▁fett",
        -10.264320858548698
      ],
      [
        "▁bilderna",
        -10.26439601784293
      ],
      [
        "▁söder",
        -10.2645976810599
      ],
      [
        "▁överens",
        -10.264837233900051
      ],
      [
        "ökning",
        -10.265792730295422
      ],
      [
        "▁York",
        -10.26585045588179
      ],
      [
        "▁utbildnings",
        -10.26596729434557
      ],
      [
        "▁drift",
        -10.266683143839055
      ],
      [
        "▁möjlig",
        -10.267036887578815
      ],
      [
        "▁Bygg",
        -10.26704240903951
      ],
      [
        "frågade",
        -10.267061132963411
      ],
      [
        "▁straff",
        -10.267517769384902
      ],
      [
        "▁press",
        -10.267610811030375
      ],
      [
        "mängder",
        -10.267759564909243
      ],
      [
        "ho",
        -10.268129901742835
      ],
      [
        "▁tillåt",
        -10.26819499524063
      ],
      [
        "▁insatser",
        -10.268261460610946
      ],
      [
        "politiken",
        -10.268404283109396
      ],
      [
        "▁app",
        -10.26849743256828
      ],
      [
        "▁tider",
        -10.26902946446209
      ],
      [
        "gas",
        -10.269404085792985
      ],
      [
        "mässigt",
        -10.269541879589841
      ],
      [
        "tals",
        -10.26963029598493
      ],
      [
        "värde",
        -10.269712432206159
      ],
      [
        "▁tåg",
        -10.269756369330143
      ],
      [
        "▁gäng",
        -10.2702423706457
      ],
      [
        "▁rapport",
        -10.270719372589673
      ],
      [
        "▁sån",
        -10.271306465387399
      ],
      [
        "▁sängen",
        -10.271668464162092
      ],
      [
        "▁säg",
        -10.271958843548786
      ],
      [
        "härligt",
        -10.272706493650535
      ],
      [
        "stått",
        -10.273910887694294
      ],
      [
        "rummet",
        -10.273931068971091
      ],
      [
        "orkar",
        -10.273935987593285
      ],
      [
        "▁dubbel",
        -10.275057731389513
      ],
      [
        "▁fika",
        -10.27533716460184
      ],
      [
        "vik",
        -10.275361241726277
      ],
      [
        "▁aktiv",
        -10.275531602144916
      ],
      [
        "▁fr",
        -10.27595756947781
      ],
      [
        "ull",
        -10.276732331092445
      ],
      [
        "▁fakta",
        -10.276971629909712
      ],
      [
        "▁blommor",
        -10.277215458155734
      ],
      [
        "▁Björn",
        -10.27728770769711
      ],
      [
        "ledes",
        -10.277451844334227
      ],
      [
        "ack",
        -10.278041379578537
      ],
      [
        "▁sjö",
        -10.278385994503315
      ],
      [
        "ster",
        -10.278795216973673
      ],
      [
        "▁info",
        -10.279021529314853
      ],
      [
        "▁hy",
        -10.279052441040003
      ],
      [
        "▁tillgänglig",
        -10.279802991632257
      ],
      [
        "bilder",
        -10.280456778492319
      ],
      [
        "▁John",
        -10.280585881396647
      ],
      [
        "▁butiker",
        -10.281187132474983
      ],
      [
        "▁sko",
        -10.281820023253475
      ],
      [
        "sånt",
        -10.282269180828894
      ],
      [
        "▁Danmark",
        -10.282546991510122
      ],
      [
        "▁startar",
        -10.283853276006155
      ],
      [
        "▁kon",
        -10.284031500130393
      ],
      [
        "delas",
        -10.28445916608427
      ],
      [
        "▁köket",
        -10.285046586021686
      ],
      [
        "läste",
        -10.285426634438474
      ],
      [
        "▁euro",
        -10.285871753326361
      ],
      [
        "beslutet",
        -10.286079367793011
      ],
      [
        "platser",
        -10.286325160900182
      ],
      [
        "▁nio",
        -10.286528318611499
      ],
      [
        "▁vintern",
        -10.286545860471945
      ],
      [
        "▁underbara",
        -10.286733013944197
      ],
      [
        "▁serien",
        -10.286891421819572
      ],
      [
        "▁Na",
        -10.287808513464755
      ],
      [
        "▁syns",
        -10.288847356093772
      ],
      [
        "vinner",
        -10.289260849116616
      ],
      [
        "ll",
        -10.289626914448649
      ],
      [
        "▁led",
        -10.289915699160902
      ],
      [
        "▁myndigheter",
        -10.290144245569888
      ],
      [
        "▁ungdoms",
        -10.29126067364355
      ],
      [
        "▁utrymme",
        -10.29232013485195
      ],
      [
        "▁frisk",
        -10.292596825882121
      ],
      [
        "▁vardag",
        -10.292651376724432
      ],
      [
        "▁löne",
        -10.293050633226702
      ],
      [
        "▁Ryssland",
        -10.29340097024905
      ],
      [
        "originalet",
        -10.294157545575894
      ],
      [
        "▁extremt",
        -10.294169243126577
      ],
      [
        "ram",
        -10.295169927524267
      ],
      [
        "▁Ad",
        -10.295789091650084
      ],
      [
        "▁definitiv",
        -10.296015663955739
      ],
      [
        "behandling",
        -10.296028455208482
      ],
      [
        "personen",
        -10.296069405455576
      ],
      [
        "▁van",
        -10.29673643859581
      ],
      [
        "▁jakt",
        -10.296857672350841
      ],
      [
        "▁fira",
        -10.297023349118305
      ],
      [
        "▁svarta",
        -10.297528360035976
      ],
      [
        "ister",
        -10.297924454846376
      ],
      [
        "▁rörelse",
        -10.29909200186683
      ],
      [
        "▁bevis",
        -10.299100824922554
      ],
      [
        "vall",
        -10.299491496986343
      ],
      [
        "▁skull",
        -10.299686759380622
      ],
      [
        "▁färdig",
        -10.299738637532508
      ],
      [
        "▁Jonas",
        -10.299994347820151
      ],
      [
        "▁tidningen",
        -10.300018754894552
      ],
      [
        "▁total",
        -10.301184576730451
      ],
      [
        "▁underbar",
        -10.301245768358092
      ],
      [
        "▁våga",
        -10.301393224495763
      ],
      [
        "▁dokument",
        -10.302155961751776
      ],
      [
        "din",
        -10.303479290604102
      ],
      [
        "bergs",
        -10.305033566397727
      ],
      [
        "▁herr",
        -10.305152745272391
      ],
      [
        "klass",
        -10.305670046361158
      ],
      [
        "▁klubben",
        -10.305768782350933
      ],
      [
        "▁metod",
        -10.306833409393436
      ],
      [
        "▁Svar",
        -10.307616387115663
      ],
      [
        "▁David",
        -10.307929378059075
      ],
      [
        "frågor",
        -10.30824592363181
      ],
      [
        "Både",
        -10.30829528585487
      ],
      [
        "red",
        -10.308509506670147
      ],
      [
        "vädret",
        -10.308707065373495
      ],
      [
        "kläder",
        -10.308971928943281
      ],
      [
        "all",
        -10.309950500786384
      ],
      [
        "byggnad",
        -10.310003685265418
      ],
      [
        "▁ordet",
        -10.310787356674133
      ],
      [
        "▁slutar",
        -10.310802016293167
      ],
      [
        "officiell",
        -10.311485840495115
      ],
      [
        "▁Frankrike",
        -10.311593844896985
      ],
      [
        "▁glada",
        -10.31164991084575
      ],
      [
        "▁utredning",
        -10.312283940735007
      ],
      [
        "▁ögonen",
        -10.313776166195963
      ],
      [
        "Fi",
        -10.313876206161623
      ],
      [
        "▁Umeå",
        -10.313906621024634
      ],
      [
        "▁hälften",
        -10.314713006567926
      ],
      [
        "▁bekräfta",
        -10.314967719305654
      ],
      [
        "▁datum",
        -10.315118703546695
      ],
      [
        "upplever",
        -10.315308322245356
      ],
      [
        "serien",
        -10.315393205208487
      ],
      [
        "positiva",
        -10.315490655361632
      ],
      [
        "hörde",
        -10.31561928938289
      ],
      [
        "längst",
        -10.316507516700703
      ],
      [
        "framtida",
        -10.316562567475327
      ],
      [
        "▁svåra",
        -10.31667625268917
      ],
      [
        "▁Hela",
        -10.317168519895347
      ],
      [
        "män",
        -10.318005562487873
      ],
      [
        "▁bry",
        -10.318041142417709
      ],
      [
        "▁höjd",
        -10.318497259137597
      ],
      [
        "isering",
        -10.318561756123605
      ],
      [
        "mor",
        -10.318756622423162
      ],
      [
        "unika",
        -10.318797596719433
      ],
      [
        "grupper",
        -10.318944379944552
      ],
      [
        "▁Dagens",
        -10.31914811918847
      ],
      [
        "qvist",
        -10.31981459549517
      ],
      [
        "▁bära",
        -10.319913437233144
      ],
      [
        "▁mönster",
        -10.320144535986783
      ],
      [
        "▁hände",
        -10.32065058327795
      ],
      [
        "valda",
        -10.320767982034702
      ],
      [
        "flyttade",
        -10.321320596204274
      ],
      [
        "▁hållbar",
        -10.321455958558959
      ],
      [
        "Förbättra",
        -10.321639381278734
      ],
      [
        "▁allvar",
        -10.321792561395661
      ],
      [
        "▁torr",
        -10.32183396417555
      ],
      [
        "▁forsknings",
        -10.322127610085083
      ],
      [
        "▁undersökning",
        -10.322617011503306
      ],
      [
        "faktum",
        -10.322819853964258
      ],
      [
        "äng",
        -10.32370382178946
      ],
      [
        "▁medför",
        -10.324464152997574
      ],
      [
        "▁utsikt",
        -10.324468125835647
      ],
      [
        "▁fotboll",
        -10.325065719181463
      ],
      [
        "skaffa",
        -10.325674974798645
      ],
      [
        "männen",
        -10.325701626630456
      ],
      [
        "▁filmer",
        -10.325841423301826
      ],
      [
        "ick",
        -10.326391272647543
      ],
      [
        "▁Lind",
        -10.326745430429433
      ],
      [
        "▁underbart",
        -10.327188285971808
      ],
      [
        "▁Ma",
        -10.327485012738096
      ],
      [
        "holm",
        -10.32755326831946
      ],
      [
        "▁Sch",
        -10.32759562162343
      ],
      [
        "▁Kommer",
        -10.327823771849072
      ],
      [
        "rika",
        -10.32833020113801
      ],
      [
        "▁utom",
        -10.328546279535978
      ],
      [
        "skola",
        -10.328641920247634
      ],
      [
        "träning",
        -10.329165355611162
      ],
      [
        "mera",
        -10.329381513997006
      ],
      [
        "lugnt",
        -10.329524109086416
      ],
      [
        "mon",
        -10.330128532801199
      ],
      [
        "landet",
        -10.330362836989423
      ],
      [
        "okej",
        -10.330513402507792
      ],
      [
        "▁offentliga",
        -10.33056118752756
      ],
      [
        "▁offentlig",
        -10.330670900988887
      ],
      [
        "tips",
        -10.331178266717192
      ],
      [
        "baserade",
        -10.33149881389536
      ],
      [
        "▁släpp",
        -10.331605161728076
      ],
      [
        "▁Karl",
        -10.33188262663812
      ],
      [
        "▁upplev",
        -10.3321046878454
      ],
      [
        "jobbigt",
        -10.332611461801442
      ],
      [
        "vunnit",
        -10.332676085072581
      ],
      [
        "finansiella",
        -10.33417753456875
      ],
      [
        "ow",
        -10.334819967235322
      ],
      [
        "▁uppenbar",
        -10.334821762770215
      ],
      [
        "▁metoder",
        -10.335253500379354
      ],
      [
        "ledde",
        -10.335343577201899
      ],
      [
        "▁free",
        -10.335345313032864
      ],
      [
        "intresserade",
        -10.335604216165162
      ],
      [
        "▁vind",
        -10.33580873360618
      ],
      [
        "▁badrum",
        -10.335923184539391
      ],
      [
        "avtalet",
        -10.335974610078301
      ],
      [
        "▁Göteborgs",
        -10.336040938161855
      ],
      [
        "▁City",
        -10.336335822303433
      ],
      [
        "bolaget",
        -10.337027513582347
      ],
      [
        "▁kol",
        -10.337209976523413
      ],
      [
        "▁Gå",
        -10.338681700015774
      ],
      [
        "▁hål",
        -10.338742711003482
      ],
      [
        "▁bestämma",
        -10.33896953939697
      ],
      [
        "we",
        -10.339723363179578
      ],
      [
        "hand",
        -10.33976074137122
      ],
      [
        "kontoret",
        -10.34064850287271
      ],
      [
        "▁fjärde",
        -10.340909199659126
      ],
      [
        "handel",
        -10.341701524019133
      ],
      [
        "Annars",
        -10.341899839909496
      ],
      [
        "▁egenskaper",
        -10.342086125690024
      ],
      [
        "▁betalnings",
        -10.342303755129189
      ],
      [
        "▁sammanhang",
        -10.342624989642974
      ],
      [
        "▁snygga",
        -10.342841630404322
      ],
      [
        "utbildning",
        -10.342843756363989
      ],
      [
        "▁rygg",
        -10.342922464727431
      ],
      [
        "▁adress",
        -10.342929484678146
      ],
      [
        "▁hjärtat",
        -10.343204427472317
      ],
      [
        "hinner",
        -10.343776251751649
      ],
      [
        "▁psykisk",
        -10.344694454028867
      ],
      [
        "▁Casino",
        -10.344850801648155
      ],
      [
        "eras",
        -10.34512460671124
      ],
      [
        "▁webb",
        -10.345520156318372
      ],
      [
        "utöver",
        -10.346292235290097
      ],
      [
        "områden",
        -10.346493138233535
      ],
      [
        "världen",
        -10.347355773699261
      ],
      [
        "▁dricka",
        -10.34744570254731
      ],
      [
        "generell",
        -10.347533204436468
      ],
      [
        "försäkring",
        -10.349484641276808
      ],
      [
        "ill",
        -10.34948961913428
      ],
      [
        "▁Bi",
        -10.350119660896215
      ],
      [
        "▁växt",
        -10.350286445605688
      ],
      [
        "soffan",
        -10.350318991358476
      ],
      [
        "▁skogs",
        -10.350369750455728
      ],
      [
        "pga",
        -10.35074701971286
      ],
      [
        "▁balans",
        -10.351042426138662
      ],
      [
        "sett",
        -10.351415564181895
      ],
      [
        "livet",
        -10.351804480889305
      ],
      [
        "närmast",
        -10.352159992808359
      ],
      [
        "tävlingen",
        -10.352388827404216
      ],
      [
        "▁Sjö",
        -10.352530957132716
      ],
      [
        "▁mått",
        -10.352540777814987
      ],
      [
        "Bolaget",
        -10.354218942089277
      ],
      [
        "▁styrelsen",
        -10.354287768746689
      ],
      [
        "aktörer",
        -10.35454040070249
      ],
      [
        "▁Car",
        -10.354591583166425
      ],
      [
        "kon",
        -10.35504850445806
      ],
      [
        "▁familje",
        -10.355440586462215
      ],
      [
        "bruk",
        -10.356721880785583
      ],
      [
        "▁marknads",
        -10.356953481510445
      ],
      [
        "▁Sten",
        -10.357570470637896
      ],
      [
        "tas",
        -10.357774303918385
      ],
      [
        "▁fordon",
        -10.357991015008386
      ],
      [
        "▁VM",
        -10.357993129560905
      ],
      [
        "köp",
        -10.358525891495773
      ],
      [
        "skiljer",
        -10.358992960902253
      ],
      [
        "▁naturligt",
        -10.359108506666505
      ],
      [
        "tryck",
        -10.359466534990437
      ],
      [
        "▁Mina",
        -10.359579657799674
      ],
      [
        "▁låga",
        -10.359628088419385
      ],
      [
        "modellen",
        -10.359678231776975
      ],
      [
        "▁ekonomisk",
        -10.359757249921131
      ],
      [
        "▁förrän",
        -10.361319798712882
      ],
      [
        "desto",
        -10.361355350793147
      ],
      [
        "▁Q",
        -10.361429550292002
      ],
      [
        "▁öl",
        -10.361592884841897
      ],
      [
        "riktiga",
        -10.361646193307068
      ],
      [
        "vänder",
        -10.361655278945992
      ],
      [
        "▁stads",
        -10.361860450100048
      ],
      [
        "▁enhet",
        -10.362230952298164
      ],
      [
        "za",
        -10.362704334387777
      ],
      [
        "tittade",
        -10.363150389188837
      ],
      [
        "par",
        -10.363205026843408
      ],
      [
        "fria",
        -10.36400202589006
      ],
      [
        "bjuda",
        -10.364070283534454
      ],
      [
        "politik",
        -10.364082511579149
      ],
      [
        "▁skador",
        -10.364466210298136
      ],
      [
        "▁kille",
        -10.364727147060298
      ],
      [
        "arbetat",
        -10.364840066136434
      ],
      [
        "ytan",
        -10.364851317718166
      ],
      [
        "▁informera",
        -10.365363193299421
      ],
      [
        "▁industri",
        -10.365503214118212
      ],
      [
        "▁daglig",
        -10.365589064428335
      ],
      [
        "▁me",
        -10.366590028318276
      ],
      [
        "▁karriär",
        -10.36684867663566
      ],
      [
        "golvet",
        -10.367024564964607
      ],
      [
        "Därefter",
        -10.367142424592355
      ],
      [
        "▁intressanta",
        -10.367718956869966
      ],
      [
        "▁tjäna",
        -10.367944687525366
      ],
      [
        "▁hunn",
        -10.368076667582066
      ],
      [
        "hänger",
        -10.36822000970543
      ],
      [
        "färg",
        -10.368572676279495
      ],
      [
        "▁koppla",
        -10.369570985869249
      ],
      [
        "Hotell",
        -10.370035828196874
      ],
      [
        "▁iaf",
        -10.370153010821483
      ],
      [
        "släppa",
        -10.370351527212467
      ],
      [
        "▁banan",
        -10.370570184318973
      ],
      [
        "▁sjukt",
        -10.371380433372313
      ],
      [
        "lista",
        -10.371964383052314
      ],
      [
        "texten",
        -10.372287786414837
      ],
      [
        "Flera",
        -10.373455802947149
      ],
      [
        "▁motor",
        -10.373649869177234
      ],
      [
        "Ä",
        -10.374336637580681
      ],
      [
        "▁styrelse",
        -10.374523102841785
      ],
      [
        "▁forskare",
        -10.375211143438184
      ],
      [
        "▁former",
        -10.375831995604905
      ],
      [
        "▁Eva",
        -10.376072255047633
      ],
      [
        "▁grunden",
        -10.376779825484915
      ],
      [
        "▁gemensam",
        -10.37697009411168
      ],
      [
        "▁utvecklings",
        -10.377204753942898
      ],
      [
        "start",
        -10.377846607088221
      ],
      [
        "nivåer",
        -10.378348847921295
      ],
      [
        "▁utrustning",
        -10.378748618174841
      ],
      [
        "▁kostnad",
        -10.37916316670289
      ],
      [
        "▁korta",
        -10.379273477532072
      ],
      [
        "▁fiske",
        -10.38005750142105
      ],
      [
        "baserad",
        -10.380133202228528
      ],
      [
        "fullt",
        -10.380854703937203
      ],
      [
        "åriga",
        -10.381632210758307
      ],
      [
        "▁skolor",
        -10.381823972263945
      ],
      [
        "brett",
        -10.381890657998127
      ],
      [
        "og",
        -10.382079593061459
      ],
      [
        "lat",
        -10.382788203430616
      ],
      [
        "▁vapen",
        -10.383225555082628
      ],
      [
        "▁fru",
        -10.383584033333264
      ],
      [
        "arter",
        -10.383779776406698
      ],
      [
        "▁team",
        -10.383802611187848
      ],
      [
        "▁välkommen",
        -10.383868843627589
      ],
      [
        "▁Bar",
        -10.384521132533564
      ],
      [
        "nått",
        -10.38471381787496
      ],
      [
        "▁cancer",
        -10.384921316403391
      ],
      [
        "▁Namn",
        -10.385238872786656
      ],
      [
        "▁aktier",
        -10.385561732643868
      ],
      [
        "fulla",
        -10.38566740688421
      ],
      [
        "▁bostäder",
        -10.385740273854607
      ],
      [
        "▁salt",
        -10.385822433623066
      ],
      [
        "▁kompis",
        -10.386489901715978
      ],
      [
        "handlade",
        -10.386652345305416
      ],
      [
        "▁Bästa",
        -10.38756817968601
      ],
      [
        "oerh",
        -10.387568925973072
      ],
      [
        "▁hjärta",
        -10.38804631697219
      ],
      [
        "dom",
        -10.388778852519696
      ],
      [
        "ris",
        -10.38890863550558
      ],
      [
        "▁Ser",
        -10.38934710344451
      ],
      [
        "gränsen",
        -10.38937168764768
      ],
      [
        "▁effektiv",
        -10.38969828583035
      ],
      [
        "rör",
        -10.390197270583966
      ],
      [
        "▁tränar",
        -10.391495616198112
      ],
      [
        "▁gröna",
        -10.391538330192265
      ],
      [
        "▁TripAdvisor",
        -10.391871921370086
      ],
      [
        "framöver",
        -10.392134945685532
      ],
      [
        "▁tjänsten",
        -10.39306514271901
      ],
      [
        "kraft",
        -10.393194203581018
      ],
      [
        "▁nere",
        -10.393598126255313
      ],
      [
        "▁To",
        -10.393757341514553
      ],
      [
        "AN",
        -10.39389941639323
      ],
      [
        "lighet",
        -10.394158191923163
      ],
      [
        "förekommer",
        -10.394911474228717
      ],
      [
        "▁Precis",
        -10.39624948143721
      ],
      [
        "▁Kalmar",
        -10.396273430267405
      ],
      [
        "någonstans",
        -10.396328500735065
      ],
      [
        "▁Magnus",
        -10.396547002038176
      ],
      [
        "▁bostad",
        -10.396594620261348
      ],
      [
        "▁uppfyll",
        -10.396687572441234
      ],
      [
        "▁levande",
        -10.396700725932773
      ],
      [
        "marknaden",
        -10.396769585156331
      ],
      [
        "▁skatt",
        -10.39707515578165
      ],
      [
        "▁radio",
        -10.397670038299818
      ],
      [
        "▁skuld",
        -10.397715258830964
      ],
      [
        "priset",
        -10.397779632659416
      ],
      [
        "line",
        -10.399167323310783
      ],
      [
        "▁wid",
        -10.399541203392687
      ],
      [
        "▁karaktär",
        -10.399905175760754
      ],
      [
        "q",
        -10.400251680094811
      ],
      [
        "▁Su",
        -10.400430582895178
      ],
      [
        "äkta",
        -10.400647658243084
      ],
      [
        "▁maskin",
        -10.402385474510796
      ],
      [
        "▁marken",
        -10.402503344966533
      ],
      [
        "▁söt",
        -10.402824452804923
      ],
      [
        "uppgifter",
        -10.402903306695297
      ],
      [
        "▁hänga",
        -10.403194660023843
      ],
      [
        "▁Arbets",
        -10.403413572837488
      ],
      [
        "▁duktig",
        -10.403849619153068
      ],
      [
        "▁Po",
        -10.403894606817074
      ],
      [
        "▁syster",
        -10.403983513518124
      ],
      [
        "▁framgång",
        -10.404976375113447
      ],
      [
        "▁deltagare",
        -10.405566956643705
      ],
      [
        "▁sömn",
        -10.406023836234194
      ],
      [
        "▁Sport",
        -10.406939045467158
      ],
      [
        "tillfället",
        -10.407310483296316
      ],
      [
        "▁presentera",
        -10.407418165032597
      ],
      [
        "gjorda",
        -10.407726767293546
      ],
      [
        "▁Paris",
        -10.40784970378214
      ],
      [
        "bad",
        -10.407874783676679
      ],
      [
        "▁sönder",
        -10.408214226293914
      ],
      [
        "gård",
        -10.408531039369175
      ],
      [
        "▁lyfta",
        -10.409066862695097
      ],
      [
        "▁Jesus",
        -10.410240036794518
      ],
      [
        "▁Con",
        -10.410351489726741
      ],
      [
        "kväll",
        -10.410424327322923
      ],
      [
        "▁kallad",
        -10.410972209599633
      ],
      [
        "▁kilometer",
        -10.411095351662997
      ],
      [
        "▁golv",
        -10.411330692283496
      ],
      [
        "▁nyheter",
        -10.411576208170569
      ],
      [
        "linjen",
        -10.411658596737134
      ],
      [
        "▁särskild",
        -10.411758075220273
      ],
      [
        "klassen",
        -10.411945782306276
      ],
      [
        "▁Helt",
        -10.41215825791279
      ],
      [
        "▁anpassa",
        -10.412292971417552
      ],
      [
        "sannolikt",
        -10.41240367253156
      ],
      [
        "▁Storbritannien",
        -10.412483648902386
      ],
      [
        "ång",
        -10.413280540029465
      ],
      [
        "bestämde",
        -10.41339634729667
      ],
      [
        "ledare",
        -10.413850410711543
      ],
      [
        "▁artikeln",
        -10.414443307615915
      ],
      [
        "reglerna",
        -10.415160631194658
      ],
      [
        "▁invånare",
        -10.415277182000072
      ],
      [
        "▁finna",
        -10.416250547730078
      ],
      [
        "▁Miljö",
        -10.416796415851525
      ],
      [
        "▁resor",
        -10.416824231028945
      ],
      [
        "slipper",
        -10.417961143200792
      ],
      [
        "▁grön",
        -10.417964539659794
      ],
      [
        "stärka",
        -10.419006758743963
      ],
      [
        "▁avgifter",
        -10.41943905346372
      ],
      [
        "▁hjärt",
        -10.419511758628277
      ],
      [
        "and",
        -10.419567883436523
      ],
      [
        "kel",
        -10.419668050253701
      ],
      [
        "▁varor",
        -10.420008923063918
      ],
      [
        "▁personuppgifter",
        -10.420289622210156
      ],
      [
        "ung",
        -10.421345147848829
      ],
      [
        "▁aktiva",
        -10.422007850892236
      ],
      [
        "▁totala",
        -10.422055933380005
      ],
      [
        "▁tävling",
        -10.42229801961027
      ],
      [
        "▁Vårt",
        -10.4224282155399
      ],
      [
        "förening",
        -10.42274496911662
      ],
      [
        "▁verkligheten",
        -10.42290111113438
      ],
      [
        "▁Super",
        -10.422963438758275
      ],
      [
        "▁Bank",
        -10.422984653364846
      ],
      [
        "▁samverkan",
        -10.423335841362357
      ],
      [
        "översättningen",
        -10.423493626633151
      ],
      [
        "▁personalen",
        -10.42361253250438
      ],
      [
        "▁Kram",
        -10.423962966658037
      ],
      [
        "▁torsdag",
        -10.423966082267407
      ],
      [
        "▁Ga",
        -10.42417700950327
      ],
      [
        "▁lågt",
        -10.42433189122028
      ],
      [
        "fin",
        -10.425145871734143
      ],
      [
        "sättning",
        -10.425237469480033
      ],
      [
        "naturliga",
        -10.425736609517429
      ],
      [
        "TV",
        -10.425812914106235
      ],
      [
        "▁Go",
        -10.42606818562981
      ],
      [
        "Årets",
        -10.426380962868354
      ],
      [
        "▁södra",
        -10.426510711475233
      ],
      [
        "▁papper",
        -10.427045208295494
      ],
      [
        "▁motsvara",
        -10.427215965272444
      ],
      [
        "klassiska",
        -10.427833169290372
      ],
      [
        "Börja",
        -10.427963381852054
      ],
      [
        "owa",
        -10.428366207000307
      ],
      [
        "▁linje",
        -10.428932790626128
      ],
      [
        "bestämmer",
        -10.429273397199857
      ],
      [
        "▁Larsson",
        -10.429676477073942
      ],
      [
        "▁förändra",
        -10.429781141741751
      ],
      [
        "▁dejtingsajt",
        -10.42982179958878
      ],
      [
        "▁kön",
        -10.430146251531653
      ],
      [
        "▁avse",
        -10.430164870085811
      ],
      [
        "▁Inom",
        -10.43033775905795
      ],
      [
        "▁bröd",
        -10.43068774848373
      ],
      [
        "▁behålla",
        -10.43069359128544
      ],
      [
        "les",
        -10.431290221459717
      ],
      [
        "▁sällskap",
        -10.4317985492663
      ],
      [
        "▁Hög",
        -10.431924750318815
      ],
      [
        "▁populär",
        -10.43260259722332
      ],
      [
        "banan",
        -10.43289260021782
      ],
      [
        "ländska",
        -10.432975521864037
      ],
      [
        "▁synd",
        -10.433408547741937
      ],
      [
        "hallen",
        -10.434008033117541
      ],
      [
        "▁stranden",
        -10.434251006431316
      ],
      [
        "ting",
        -10.434283785214962
      ],
      [
        "ong",
        -10.434588377481303
      ],
      [
        "märken",
        -10.434868746177214
      ],
      [
        "▁My",
        -10.43512678488003
      ],
      [
        "nämnda",
        -10.43517840661963
      ],
      [
        "▁Ed",
        -10.435184730897445
      ],
      [
        "byn",
        -10.435345027372843
      ],
      [
        "året",
        -10.435788875593122
      ],
      [
        "▁tyst",
        -10.435816406899756
      ],
      [
        "▁Bro",
        -10.43591399716142
      ],
      [
        "▁alltför",
        -10.436452722380247
      ],
      [
        "pågår",
        -10.436544357945756
      ],
      [
        "▁aning",
        -10.436789383788087
      ],
      [
        "mysigt",
        -10.437295577015485
      ],
      [
        "▁seger",
        -10.437519070338803
      ],
      [
        "anges",
        -10.437747112593293
      ],
      [
        "▁tuff",
        -10.437877721316578
      ],
      [
        "▁hoppa",
        -10.439047543160807
      ],
      [
        "app",
        -10.439097986760661
      ],
      [
        "▁trolig",
        -10.439497982044584
      ],
      [
        "Oavsett",
        -10.439575150963066
      ],
      [
        "hets",
        -10.439583106715654
      ],
      [
        "▁tyska",
        -10.43964901805812
      ],
      [
        "▁laga",
        -10.43985711695125
      ],
      [
        "gemensamt",
        -10.440428432387375
      ],
      [
        "▁röra",
        -10.440524718093773
      ],
      [
        "▁stål",
        -10.44127849415294
      ],
      [
        "▁lät",
        -10.441338873338239
      ],
      [
        "▁Mikael",
        -10.441740401796212
      ],
      [
        "▁Thomas",
        -10.441934700151991
      ],
      [
        "dagar",
        -10.44216440707921
      ],
      [
        "▁enskild",
        -10.442439563387822
      ],
      [
        "▁Tillsammans",
        -10.442757127512479
      ],
      [
        "▁fil",
        -10.442844551474403
      ],
      [
        "tråkigt",
        -10.442921635978637
      ],
      [
        "▁kallt",
        -10.442993074947863
      ],
      [
        "▁kontor",
        -10.44335885139784
      ],
      [
        "▁kritik",
        -10.443448581230959
      ],
      [
        "pratade",
        -10.443617069390074
      ],
      [
        "▁publik",
        -10.44390552171935
      ],
      [
        "▁Stora",
        -10.443940212027837
      ],
      [
        "heter",
        -10.444248619210862
      ],
      [
        "one",
        -10.444908680626696
      ],
      [
        "int",
        -10.444966399537678
      ],
      [
        "lämnat",
        -10.446258919986532
      ],
      [
        "▁syft",
        -10.446516289829662
      ],
      [
        "▁Ko",
        -10.446763183504396
      ],
      [
        "▁anslutning",
        -10.446910292200132
      ],
      [
        "problem",
        -10.446987733139421
      ],
      [
        "let",
        -10.447396731242518
      ],
      [
        "▁sov",
        -10.447711030077341
      ],
      [
        "Tror",
        -10.447788006090628
      ],
      [
        "▁snyggt",
        -10.448369136935504
      ],
      [
        "bandet",
        -10.44861273026946
      ],
      [
        "ämnet",
        -10.448638821651297
      ],
      [
        "ryggen",
        -10.449018495642925
      ],
      [
        "▁version",
        -10.449244258325736
      ],
      [
        "böcker",
        -10.449452949361195
      ],
      [
        "▁modeller",
        -10.450403796060947
      ],
      [
        "pol",
        -10.450827597180238
      ],
      [
        "▁normal",
        -10.451005415148758
      ],
      [
        "▁dollar",
        -10.451451375120625
      ],
      [
        "särskilda",
        -10.45158380889536
      ],
      [
        "kategorin",
        -10.451656937818651
      ],
      [
        "▁aktivitet",
        -10.452072170815976
      ],
      [
        "▁fördelar",
        -10.452533951631771
      ],
      [
        "väntat",
        -10.452548652701475
      ],
      [
        "ox",
        -10.452722539571347
      ],
      [
        "°",
        -10.45304596552118
      ],
      [
        "▁insats",
        -10.4531208600027
      ],
      [
        "▁Italien",
        -10.453161030524694
      ],
      [
        "▁Folk",
        -10.453234478912945
      ],
      [
        "skickar",
        -10.453405853455777
      ],
      [
        "backen",
        -10.4535994396838
      ],
      [
        "▁God",
        -10.453634493006888
      ],
      [
        "stor",
        -10.453755411733649
      ],
      [
        "▁Am",
        -10.45565724141166
      ],
      [
        "jobb",
        -10.455875005120845
      ],
      [
        "▁utmaningar",
        -10.455876731770777
      ],
      [
        "▁dusch",
        -10.456194217455167
      ],
      [
        "▁trädgård",
        -10.456194286975915
      ],
      [
        "▁skriv",
        -10.456277082563858
      ],
      [
        "strand",
        -10.45663875809153
      ],
      [
        "nivån",
        -10.456750002606954
      ],
      [
        "▁Nyheter",
        -10.457292591977248
      ],
      [
        "▁engagemang",
        -10.457353750554942
      ],
      [
        "årig",
        -10.45846519481455
      ],
      [
        "ägna",
        -10.458978738720692
      ],
      [
        "▁kunden",
        -10.458987994354867
      ],
      [
        "▁flertal",
        -10.459089015850733
      ],
      [
        "▁fastighets",
        -10.459973174479003
      ],
      [
        "anläggningar",
        -10.46008543403677
      ],
      [
        "▁förtroende",
        -10.461219612093892
      ],
      [
        "▁lokaler",
        -10.461519563106336
      ],
      [
        "kraftigt",
        -10.461956305693638
      ],
      [
        "▁avstånd",
        -10.462129417863384
      ],
      [
        "▁Mi",
        -10.462288374206725
      ],
      [
        "nämnden",
        -10.462332579144306
      ],
      [
        "▁spendera",
        -10.4627714492092
      ],
      [
        "▁sekunder",
        -10.463252932454406
      ],
      [
        "▁miljon",
        -10.463313571477478
      ],
      [
        "väntade",
        -10.463398623922894
      ],
      [
        "mänskliga",
        -10.463611127364574
      ],
      [
        "tycks",
        -10.4637233388828
      ],
      [
        "▁SEK",
        -10.46398358290862
      ],
      [
        "pekar",
        -10.464366337727466
      ],
      [
        "▁Region",
        -10.464492375622214
      ],
      [
        "▁takt",
        -10.464628891601464
      ],
      [
        "▁fängelse",
        -10.464869977972647
      ],
      [
        "baserat",
        -10.464886189087563
      ],
      [
        "▁bod",
        -10.464986305630896
      ],
      [
        "dig",
        -10.46552220938631
      ],
      [
        "▁smart",
        -10.46631471531088
      ],
      [
        "Redan",
        -10.466772392138015
      ],
      [
        "Om",
        -10.46693793751534
      ],
      [
        "verkade",
        -10.467533211535079
      ],
      [
        "▁SD",
        -10.468192172449108
      ],
      [
        "automatiskt",
        -10.468216637352747
      ],
      [
        "▁Västra",
        -10.468414396502583
      ],
      [
        "▁arrangera",
        -10.468573820107123
      ],
      [
        "resultera",
        -10.46921528420092
      ],
      [
        "miljö",
        -10.46928230630271
      ],
      [
        "▁berör",
        -10.469442733726043
      ],
      [
        "▁Plan",
        -10.469612005264805
      ],
      [
        "out",
        -10.470088039415971
      ],
      [
        "lek",
        -10.470487517564708
      ],
      [
        "▁Kultur",
        -10.470527751183877
      ],
      [
        "värsta",
        -10.470603059458618
      ],
      [
        "ator",
        -10.47082397334064
      ],
      [
        "frågan",
        -10.47132677313196
      ],
      [
        "tagna",
        -10.471866558697924
      ],
      [
        "förslaget",
        -10.472475752163282
      ],
      [
        "▁central",
        -10.473148399718431
      ],
      [
        "▁lämplig",
        -10.473332406563777
      ],
      [
        "kommit",
        -10.47340378147058
      ],
      [
        "▁styrka",
        -10.473854962990123
      ],
      [
        "▁förståelse",
        -10.474300530819777
      ],
      [
        "▁producera",
        -10.474770859505192
      ],
      [
        "▁bevilja",
        -10.475054519624003
      ],
      [
        "▁kall",
        -10.475072747353709
      ],
      [
        "▁återg",
        -10.475582803422636
      ],
      [
        "▁Windows",
        -10.475618569128423
      ],
      [
        "▁respekt",
        -10.47644353916647
      ],
      [
        "▁mej",
        -10.476838566348329
      ],
      [
        "▁rekommendera",
        -10.477060566079377
      ],
      [
        "▁överallt",
        -10.477216043026713
      ],
      [
        "förvaltningen",
        -10.477221139416477
      ],
      [
        "▁hästar",
        -10.477289235555084
      ],
      [
        "orolig",
        -10.477761515806591
      ],
      [
        "▁behandla",
        -10.478568143344592
      ],
      [
        "reagera",
        -10.478753512887037
      ],
      [
        "fel",
        -10.479722922643647
      ],
      [
        "länderna",
        -10.481382648133321
      ],
      [
        "▁författare",
        -10.481622355212957
      ],
      [
        "taket",
        -10.481725968305685
      ],
      [
        "frågorna",
        -10.48226495557287
      ],
      [
        "▁Fick",
        -10.482706615753392
      ],
      [
        "talade",
        -10.483062573901758
      ],
      [
        "▁planerar",
        -10.483217446405687
      ],
      [
        "banken",
        -10.48344912108234
      ],
      [
        "givande",
        -10.48388530271558
      ],
      [
        "▁uppmärksamma",
        -10.484506058148982
      ],
      [
        "▁beteende",
        -10.484598475112813
      ],
      [
        "▁Spanien",
        -10.484897423779612
      ],
      [
        "▁Karlsson",
        -10.485580546414127
      ],
      [
        "▁miljön",
        -10.486108322998856
      ],
      [
        "FK",
        -10.486171393556441
      ],
      [
        "▁servera",
        -10.48627912454604
      ],
      [
        "nöjda",
        -10.48684648231992
      ],
      [
        "bit",
        -10.487067338150236
      ],
      [
        "▁intervju",
        -10.487376864441236
      ],
      [
        "▁moms",
        -10.487685740653822
      ],
      [
        "enheten",
        -10.488240888443427
      ],
      [
        "▁uppmärksamhet",
        -10.488285606831178
      ],
      [
        "vet",
        -10.488396293221795
      ],
      [
        "▁felaktig",
        -10.488543113449944
      ],
      [
        "▁tränare",
        -10.48921090551862
      ],
      [
        "vit",
        -10.490148161629158
      ],
      [
        "ium",
        -10.490237460335761
      ],
      [
        "▁studenter",
        -10.49080788296496
      ],
      [
        "slaget",
        -10.490861337628777
      ],
      [
        "▁planer",
        -10.491489829147568
      ],
      [
        "olja",
        -10.491718324538375
      ],
      [
        "enlighet",
        -10.492476135572835
      ],
      [
        "▁bredvid",
        -10.49281910958658
      ],
      [
        "▁lagom",
        -10.492977659833317
      ],
      [
        "erande",
        -10.493291976485336
      ],
      [
        "▁Aktiebolag",
        -10.493605373800065
      ],
      [
        "▁äventyr",
        -10.493819178026007
      ],
      [
        "▁hemmet",
        -10.49395464582754
      ],
      [
        "▁krig",
        -10.493958630611528
      ],
      [
        "▁andel",
        -10.494336475465817
      ],
      [
        "De",
        -10.494358450645663
      ],
      [
        "▁Or",
        -10.494366971857778
      ],
      [
        "ze",
        -10.49461925082806
      ],
      [
        "åsikter",
        -10.495027381939734
      ],
      [
        "delvis",
        -10.495937885077964
      ],
      [
        "▁produktion",
        -10.496195092988758
      ],
      [
        "föll",
        -10.496574712803795
      ],
      [
        "saknas",
        -10.496797960072211
      ],
      [
        "▁pre",
        -10.496940949271623
      ],
      [
        "▁vuxen",
        -10.496980081325274
      ],
      [
        "lam",
        -10.497007634833608
      ],
      [
        "▁sjukdomar",
        -10.497155594590389
      ],
      [
        "▁Dag",
        -10.497380709613141
      ],
      [
        "▁rosa",
        -10.497531227288393
      ],
      [
        "▁produkten",
        -10.49796277737388
      ],
      [
        "▁smärta",
        -10.498256677590849
      ],
      [
        "hinna",
        -10.498348306971353
      ],
      [
        "kod",
        -10.498880376372911
      ],
      [
        "▁städer",
        -10.499005107286198
      ],
      [
        "nych",
        -10.499094566422835
      ],
      [
        "▁Jämför",
        -10.49918261936114
      ],
      [
        "▁onsdag",
        -10.49939588188908
      ],
      [
        "▁riksdagen",
        -10.499743420941149
      ],
      [
        "▁grå",
        -10.500090205695924
      ],
      [
        "över",
        -10.500161949659775
      ],
      [
        "hunden",
        -10.500276134501389
      ],
      [
        "▁Tidigare",
        -10.501019774366684
      ],
      [
        "▁funderar",
        -10.50110962996384
      ],
      [
        "ocz",
        -10.501566528127084
      ],
      [
        "▁student",
        -10.501623998640765
      ],
      [
        "▁fan",
        -10.501847313757604
      ],
      [
        "▁silver",
        -10.502188744045455
      ],
      [
        "▁Hotels",
        -10.502267781798295
      ],
      [
        "▁Di",
        -10.502357936541388
      ],
      [
        "lades",
        -10.502609661079337
      ],
      [
        "Syftet",
        -10.502721094926592
      ],
      [
        "paket",
        -10.502729590479815
      ],
      [
        "▁Persson",
        -10.503007244697635
      ],
      [
        "sugen",
        -10.503855657420145
      ],
      [
        "▁frakt",
        -10.504782993807515
      ],
      [
        "luften",
        -10.504815121817483
      ],
      [
        "▁beskriv",
        -10.504922927439369
      ],
      [
        "hantering",
        -10.505713949619928
      ],
      [
        "Tycker",
        -10.505733412912244
      ],
      [
        "ägare",
        -10.505952549949765
      ],
      [
        "▁Billiga",
        -10.506312846153296
      ],
      [
        "omfattar",
        -10.50707173391009
      ],
      [
        "▁Ba",
        -10.507314297593771
      ],
      [
        "▁digital",
        -10.507598381800271
      ],
      [
        "▁minsta",
        -10.507896584895619
      ],
      [
        "▁Utan",
        -10.5085225636429
      ],
      [
        "▁butiken",
        -10.50892230440028
      ],
      [
        "lopp",
        -10.509313884242086
      ],
      [
        "▁näst",
        -10.509356452021823
      ],
      [
        "▁Jul",
        -10.509675599981012
      ],
      [
        "▁lov",
        -10.50969050488864
      ],
      [
        "▁tillägg",
        -10.509862721688933
      ],
      [
        "nytta",
        -10.510030389361054
      ],
      [
        "▁Sök",
        -10.510146767122835
      ],
      [
        "ben",
        -10.510450285534668
      ],
      [
        "▁webbplatsen",
        -10.510565499377952
      ],
      [
        "▁Väl",
        -10.511544424305065
      ],
      [
        "lik",
        -10.511612714783752
      ],
      [
        "vågar",
        -10.512760417280136
      ],
      [
        "▁elev",
        -10.513169446890446
      ],
      [
        "jobbat",
        -10.513974291372273
      ],
      [
        "▁Kommun",
        -10.514176109589862
      ],
      [
        "▁leverantörer",
        -10.51456164823846
      ],
      [
        "byggnaden",
        -10.514674752501932
      ],
      [
        "föreningen",
        -10.514777463074676
      ],
      [
        "test",
        -10.514811330626914
      ],
      [
        "ssystem",
        -10.5148331569148
      ],
      [
        "▁Red",
        -10.515736310916681
      ],
      [
        "▁president",
        -10.515906590067454
      ],
      [
        "utvecklat",
        -10.516151476377177
      ],
      [
        "serie",
        -10.516157356201486
      ],
      [
        "▁eld",
        -10.516487875440003
      ],
      [
        "▁region",
        -10.516492032480198
      ],
      [
        "sko",
        -10.516601080868396
      ],
      [
        "▁identifiera",
        -10.516760963370672
      ],
      [
        "hittat",
        -10.517480569754063
      ],
      [
        "älskade",
        -10.517538193907873
      ],
      [
        "orter",
        -10.51759138143046
      ],
      [
        "sserligen",
        -10.518072719005593
      ],
      [
        "▁So",
        -10.51888088212676
      ],
      [
        "▁artiklar",
        -10.518895371679541
      ],
      [
        "ansvarar",
        -10.519663883404089
      ],
      [
        "▁Fler",
        -10.520280588536307
      ],
      [
        "▁träffar",
        -10.520453611502706
      ],
      [
        "▁diskussion",
        -10.52095980957497
      ],
      [
        "▁utseende",
        -10.52118241030651
      ],
      [
        "▁verksamhets",
        -10.52132982780199
      ],
      [
        "▁Totalt",
        -10.521375482069102
      ],
      [
        "▁tex",
        -10.521463662228767
      ],
      [
        "slut",
        -10.521618500487
      ],
      [
        "nät",
        -10.5219341032225
      ],
      [
        "▁tusen",
        -10.52255336803335
      ],
      [
        "stra",
        -10.52323788693275
      ],
      [
        "avdelningen",
        -10.523295460619995
      ],
      [
        "innehållet",
        -10.523851861007051
      ],
      [
        "▁fria",
        -10.524086129084193
      ],
      [
        "hall",
        -10.52463665756752
      ],
      [
        "försvinner",
        -10.525177551291627
      ],
      [
        "▁rena",
        -10.5254174878662
      ],
      [
        "▁sovrum",
        -10.525652249705566
      ],
      [
        "ET",
        -10.526701535446902
      ],
      [
        "gan",
        -10.527861613274563
      ],
      [
        "▁statistik",
        -10.528401951337129
      ],
      [
        "▁Mats",
        -10.528923079711136
      ],
      [
        "fest",
        -10.529125047528696
      ],
      [
        "▁Vidare",
        -10.529461119105529
      ],
      [
        "▁urval",
        -10.52978079593325
      ],
      [
        "filer",
        -10.529876941391374
      ],
      [
        "AR",
        -10.530072746041302
      ],
      [
        "▁lägenheten",
        -10.530163993492708
      ],
      [
        "▁upptäcka",
        -10.530295681046903
      ],
      [
        "anska",
        -10.530524717597173
      ],
      [
        "▁norra",
        -10.530649949487707
      ],
      [
        "resor",
        -10.530950807034184
      ],
      [
        "räknas",
        -10.531030390113715
      ],
      [
        "▁aktie",
        -10.53114714143013
      ],
      [
        "▁medicin",
        -10.53120056421519
      ],
      [
        "▁räknar",
        -10.53154072789216
      ],
      [
        "▁ränta",
        -10.532082133559715
      ],
      [
        "jan",
        -10.53227877977891
      ],
      [
        "▁Karin",
        -10.53234623051459
      ],
      [
        "▁Tur",
        -10.532483273753295
      ],
      [
        "▁handen",
        -10.532845199398885
      ],
      [
        "▁FN",
        -10.533544462505933
      ],
      [
        "domstolen",
        -10.533653647539081
      ],
      [
        "▁Kort",
        -10.533907357179809
      ],
      [
        "box",
        -10.534200783526627
      ],
      [
        "▁påminn",
        -10.534458524513225
      ],
      [
        "▁Kl",
        -10.534590920230558
      ],
      [
        "kvinnan",
        -10.534983298796622
      ],
      [
        "▁FÖR",
        -10.535110199433731
      ],
      [
        "▁kämpa",
        -10.53571654782963
      ],
      [
        "▁ställning",
        -10.536102003698067
      ],
      [
        "▁Hotell",
        -10.536124370714006
      ],
      [
        "tävla",
        -10.536165429416325
      ],
      [
        "▁styra",
        -10.536240917513618
      ],
      [
        "▁lärande",
        -10.536672607189573
      ],
      [
        "▁sortiment",
        -10.537022982709756
      ],
      [
        "läggning",
        -10.537198079323126
      ],
      [
        "▁fl",
        -10.537377959025715
      ],
      [
        "▁trygghet",
        -10.537630652812968
      ],
      [
        "kor",
        -10.538259994050899
      ],
      [
        "▁separat",
        -10.538290405009649
      ],
      [
        "▁uppfattning",
        -10.538467022407566
      ],
      [
        "satta",
        -10.538781441891627
      ],
      [
        "▁profil",
        -10.538973154947877
      ],
      [
        "svaret",
        -10.539034836675278
      ],
      [
        "▁situationer",
        -10.539144173270614
      ],
      [
        "bordet",
        -10.539457133708542
      ],
      [
        "▁Henrik",
        -10.540056730593394
      ],
      [
        "härliga",
        -10.54058090898292
      ],
      [
        "▁global",
        -10.541304640049132
      ],
      [
        "kostnad",
        -10.54151379078813
      ],
      [
        "▁Natur",
        -10.542279772724946
      ],
      [
        "▁folket",
        -10.542416305281138
      ],
      [
        "Alltså",
        -10.543110808344487
      ],
      [
        "saken",
        -10.54330342301594
      ],
      [
        "▁inomhus",
        -10.543913622776289
      ],
      [
        "▁vägg",
        -10.543966945381461
      ],
      [
        "▁arbetsgivare",
        -10.544137470487664
      ],
      [
        "▁za",
        -10.544438075773026
      ],
      [
        "äck",
        -10.545128034619676
      ],
      [
        "▁önskemål",
        -10.54527642663088
      ],
      [
        "oc",
        -10.54580451752481
      ],
      [
        "▁däck",
        -10.545819479118988
      ],
      [
        "▁sprid",
        -10.545962465465909
      ],
      [
        "▁historien",
        -10.546473783264462
      ],
      [
        "enda",
        -10.546602128689953
      ],
      [
        "frågar",
        -10.547298468958441
      ],
      [
        "▁lycka",
        -10.548074681563184
      ],
      [
        "▁tvätt",
        -10.548418990790248
      ],
      [
        "släppte",
        -10.548846167643417
      ],
      [
        "▁lägenheter",
        -10.549781380993032
      ],
      [
        "▁föremål",
        -10.550780433333012
      ],
      [
        "individer",
        -10.55100546733399
      ],
      [
        "▁trivs",
[...]
