{
  "version": "1.0",
  "truncation": null,
  "padding": null,
  "added_tokens": [
    {
      "id": 0,
      "content": "[PAD]",
      "single_word": false,
      "lstrip": false,
      "rstrip": false,
      "normalized": false,
      "special": true
    },
    {
      "id": 1,
      "content": "[UNK]",
      "single_word": false,
      "lstrip": false,
      "rstrip": false,
      "normalized": false,
      "special": true
    },
    {
      "id": 2,
      "content": "[MASK]",
      "single_word": false,
      "lstrip": false,
      "rstrip": false,
      "normalized": false,
      "special": true
    },
    {
      "id": 3,
      "content": "[CLS]",
      "single_word": false,
      "lstrip": false,
      "rstrip": false,
      "normalized": false,
      "special": true
    },
    {
      "id": 4,
      "content": "[SEP]",
      "single_word": false,
      "lstrip": false,
      "rstrip": false,
      "normalized": false,
      "special": true
    }
  ],
  "normalizer": {
    "type": "Sequence",
    "normalizers": [
      {
        "type": "Nmt"
      },
      {
        "type": "NFKC"
      },
      {
        "type": "Replace",
        "pattern": {
          "Regex": " {2,}"
        },
        "content": " "
      }
    ]
  },
  "pre_tokenizer": {
    "type": "Sequence",
    "pretokenizers": [
      {
        "type": "Metaspace",
        "replacement": "▁",
        "add_prefix_space": true
      },
      {
        "type": "Split",
        "pattern": {
          "Regex": "\\d"
        },
        "behavior": "MergedWithPrevious",
        "invert": false
      },
      {
        "type": "Punctuation",
        "behavior": "Isolated"
      }
    ]
  },
  "post_processor": {
    "type": "TemplateProcessing",
    "single": [
      {
        "SpecialToken": {
          "id": "[CLS]",
          "type_id": 0
        }
      },
      {
        "Sequence": {
          "id": "A",
          "type_id": 0
        }
      },
      {
        "SpecialToken": {
          "id": "[SEP]",
          "type_id": 0
        }
      }
    ],
    "pair": [
      {
        "SpecialToken": {
          "id": "[CLS]",
          "type_id": 0
        }
      },
      {
        "Sequence": {
          "id": "A",
          "type_id": 0
        }
      },
      {
        "SpecialToken": {
          "id": "[SEP]",
          "type_id": 0
        }
      },
      {
        "Sequence": {
          "id": "B",
          "type_id": 1
        }
      },
      {
        "SpecialToken": {
          "id": "[SEP]",
          "type_id": 1
        }
      }
    ],
    "special_tokens": {
      "[CLS]": {
        "id": "[CLS]",
        "ids": [
          3
        ],
        "tokens": [
          "[CLS]"
        ]
      },
      "[SEP]": {
        "id": "[SEP]",
        "ids": [
          4
        ],
        "tokens": [
          "[SEP]"
        ]
      }
    }
  },
  "decoder": {
    "type": "Metaspace",
    "replacement": "▁",
    "add_prefix_space": true
  },
  "model": {
    "type": "Unigram",
    "unk_id": 1,
    "vocab": [
      [
        "[PAD]",
        0.0
      ],
      [
        "[UNK]",
        0.0
      ],
      [
        "[MASK]",
        0.0
      ],
      [
        "[CLS]",
        0.0
      ],
      [
        "[SEP]",
        0.0
      ],
      [
        "▁",
        -2.2039445485486127
      ],
      [
        ".",
        -3.190113419176935
      ],
      [
        ",",
        -3.874100141265835
      ],
      [
        "▁och",
        -3.9063891245021
      ],
      [
        "i",
        -4.071735784100024
      ],
      [
        "▁att",
        -4.138436219639981
      ],
      [
        "s",
        -4.159757778537809
      ],
      [
        "▁är",
        -4.493327534366696
      ],
      [
        "▁som",
        -4.54929438948184
      ],
      [
        "▁på",
        -4.554856553338917
      ],
      [
        "▁för",
        -4.6294183747904505
      ],
      [
        "▁en",
        -4.660778507462705
      ],
      [
        "▁det",
        -4.66859238426307
      ],
      [
        "t",
        -4.775289327263566
      ],
      [
        "▁med",
        -4.836055965599517
      ],
      [
        "0",
        -4.840848493114633
      ],
      [
        "▁av",
        -4.853483493866836
      ],
      [
        "a",
        -4.854854820541247
      ],
      [
        "en",
        -4.934734214955682
      ],
      [
        "1",
        -4.968332504092118
      ],
      [
        "▁till",
        -4.997158055323146
      ],
      [
        "-",
        -5.065641049137545
      ],
      [
        "▁har",
        -5.105784862467827
      ],
      [
        "2",
        -5.230972944830047
      ],
      [
        "▁jag",
        -5.240805512554761
      ],
      [
        "▁inte",
        -5.311334680561856
      ],
      [
        "▁om",
        -5.362216914244442
      ],
      [
        "▁den",
        -5.4352942793666
      ],
      [
        "▁ett",
        -5.472386170861437
      ],
      [
        "▁så",
        -5.498964280740578
      ],
      [
        "er",
        -5.547706025940467
      ],
      [
        "▁kan",
        -5.639458533510677
      ],
      [
        "▁du",
        -5.64507970633646
      ],
      [
        "▁de",
        -5.651300634056032
      ],
      [
        "e",
        -5.712004459927773
      ],
      [
        ":",
        -5.712507849922508
      ],
      [
        "r",
        -5.724028981893799
      ],
      [
        "▁vi",
        -5.779078308885362
      ],
      [
        "n",
        -5.804329098990037
      ],
      [
        "▁var",
        -5.839729250151889
      ],
      [
        "▁Det",
        -5.878169964012358
      ],
      [
        "!",
        -5.889935822487329
      ],
      [
        ")",
        -5.9343526405259315
      ],
      [
        "5",
        -5.94534850876007
      ],
      [
        "▁man",
        -5.95518241012863
      ],
      [
        "3",
        -5.959691916895286
      ],
      [
        "▁från",
        -5.960298111837556
      ],
      [
        "\"",
        -6.007752267050126
      ],
      [
        "(",
        -6.082739750139922
      ],
      [
        "▁men",
        -6.095040475310913
      ],
      [
        "▁eller",
        -6.096119175670886
      ],
      [
        "4",
        -6.1385823238135995
      ],
      [
        "9",
        -6.145773942480236
      ],
      [
        "?",
        -6.195443712971878
      ],
      [
        "▁ska",
        -6.2475496415242375
      ],
      [
        "▁sig",
        -6.290395622359219
      ],
      [
        "6",
        -6.327099749621073
      ],
      [
        "d",
        -6.33421653849412
      ],
      [
        "de",
        -6.343925727569822
      ],
      [
        "8",
        -6.369351143508334
      ],
      [
        "ar",
        -6.378119430229024
      ],
      [
        "7",
        -6.38278349930251
      ],
      [
        "▁när",
        -6.383075187664177
      ],
      [
        "▁Jag",
        -6.399342709182957
      ],
      [
        "▁in",
        -6.413536037852099
      ],
      [
        "▁ut",
        -6.426982198892459
      ],
      [
        "▁upp",
        -6.429981564382221
      ],
      [
        "▁här",
        -6.451713615379065
      ],
      [
        "▁där",
        -6.452734641191514
      ],
      [
        "o",
        -6.456627306317104
      ],
      [
        "–",
        -6.463202186840048
      ],
      [
        "▁kommer",
        -6.478191070618234
      ],
      [
        "/",
        -6.520543128098655
      ],
      [
        "▁vara",
        -6.5443197819932415
      ],
      [
        "▁I",
        -6.563856459816117
      ],
      [
        "▁finns",
        -6.5886326383721965
      ],
      [
        "et",
        -6.597561813761871
      ],
      [
        "▁Vi",
        -6.598644984504858
      ],
      [
        "▁mer",
        -6.632595911122227
      ],
      [
        "▁han",
        -6.63468435346992
      ],
      [
        "▁nu",
        -6.661832840067836
      ],
      [
        "▁alla",
        -6.664524056129542
      ],
      [
        "▁under",
        -6.724980832957394
      ],
      [
        "▁också",
        -6.729858252257852
      ],
      [
        "▁får",
        -6.745090329904036
      ],
      [
        "▁mycket",
        -6.755665793634661
      ],
      [
        "▁mig",
        -6.762862219867936
      ],
      [
        "▁år",
        -6.789578264578177
      ],
      [
        "▁över",
        -6.791706614719656
      ],
      [
        "▁bra",
        -6.795169740650623
      ],
      [
        "▁efter",
        -6.806293691029495
      ],
      [
        "▁lite",
        -6.8068840955376935
      ],
      [
        "”",
        -6.815126878773455
      ],
      [
        "▁ha",
        -6.8310489314126865
      ],
      [
        "▁då",
        -6.841681341758147
      ],
      [
        "▁vill",
        -6.8620773393356504
      ],
      [
        "▁få",
        -6.865441375776559
      ],
      [
        "▁även",
        -6.8657781911675695
      ],
      [
        "▁andra",
        -6.868411574732082
      ],
      [
        "▁bara",
        -6.872901230007939
      ],
      [
        "▁hur",
        -6.882873442982833
      ],
      [
        "m",
        -6.938760889051959
      ],
      [
        "▁vid",
        -6.940187568059162
      ],
      [
        "▁Men",
        -6.943109037109117
      ],
      [
        "▁dig",
        -6.967812584896581
      ],
      [
        "▁hade",
        -6.981829002815177
      ],
      [
        "▁vad",
        -6.986060309210092
      ],
      [
        "▁skulle",
        -7.0077245194257
      ],
      [
        "▁än",
        -7.015726679469296
      ],
      [
        "▁blir",
        -7.0316551221838335
      ],
      [
        "▁En",
        -7.078999491844156
      ],
      [
        "▁sin",
        -7.096456642915715
      ],
      [
        "▁göra",
        -7.111910013955702
      ],
      [
        "▁mot",
        -7.113058862067053
      ],
      [
        "▁många",
        -7.116551268799499
      ],
      [
        "▁ju",
        -7.157186239448368
      ],
      [
        "▁min",
        -7.158871883038227
      ],
      [
        "▁ta",
        -7.167301770705016
      ],
      [
        "▁gör",
        -7.170636993678933
      ],
      [
        "an",
        -7.180513105628302
      ],
      [
        "erna",
        -7.182325895546628
      ],
      [
        "▁hon",
        -7.188738730079043
      ],
      [
        "▁detta",
        -7.195314688577229
      ],
      [
        "▁Den",
        -7.199541702582147
      ],
      [
        "▁något",
        -7.202690811632021
      ],
      [
        "▁För",
        -7.207160926153367
      ],
      [
        "▁din",
        -7.219081779187226
      ],
      [
        "▁sedan",
        -7.234418796675838
      ],
      [
        "▁oss",
        -7.239829725386217
      ],
      [
        "▁utan",
        -7.261828397348493
      ],
      [
        "▁två",
        -7.2768892061938555
      ],
      [
        "▁del",
        -7.280647591081694
      ],
      [
        "▁De",
        -7.281781524785348
      ],
      [
        "▁olika",
        -7.286000145832885
      ],
      [
        "▁allt",
        -7.303313925113649
      ],
      [
        "▁säger",
        -7.3078214636818934
      ],
      [
        "k",
        -7.312104951753868
      ],
      [
        "▁någon",
        -7.332347523698532
      ],
      [
        "▁bli",
        -7.338288258491442
      ],
      [
        "p",
        -7.3420634946308745
      ],
      [
        "▁genom",
        -7.371956053779996
      ],
      [
        "▁går",
        -7.374453239867494
      ],
      [
        "▁se",
        -7.385010660059576
      ],
      [
        "are",
        -7.388425908459425
      ],
      [
        "▁helt",
        -7.394309170983762
      ],
      [
        "▁fick",
        -7.404745806334947
      ],
      [
        "▁fram",
        -7.405329324127523
      ],
      [
        "g",
        -7.409670633416701
      ],
      [
        "▁nya",
        -7.428455583362217
      ],
      [
        "▁hela",
        -7.443260230419336
      ],
      [
        "▁måste",
        -7.454614335936235
      ],
      [
        "▁S",
        -7.455761825533672
      ],
      [
        "▁varit",
        -7.459931602330684
      ],
      [
        "▁Om",
        -7.464360269791655
      ],
      [
        "re",
        -7.4716590042345725
      ],
      [
        "▁första",
        -7.475229343434004
      ],
      [
        "▁blev",
        -7.476395645577183
      ],
      [
        "▁dem",
        -7.480487136497267
      ],
      [
        "▁inom",
        -7.480511749297483
      ],
      [
        "▁några",
        -7.484012836537071
      ],
      [
        "▁kunna",
        -7.525300549289298
      ],
      [
        "▁samt",
        -7.525542092325596
      ],
      [
        "▁mellan",
        -7.542065475608771
      ],
      [
        "h",
        -7.542843948670425
      ],
      [
        "▁denna",
        -7.547129381678539
      ],
      [
        "v",
        -7.547388504204434
      ],
      [
        "▁ni",
        -7.572682702804855
      ],
      [
        "▁Du",
        -7.5763031412849156
      ],
      [
        "▁När",
        -7.580003624370633
      ],
      [
        "ande",
        -7.584944824976279
      ],
      [
        "▁själv",
        -7.600625737528228
      ],
      [
        "▁Och",
        -7.602360816055743
      ],
      [
        "▁sätt",
        -7.611418298878014
      ],
      [
        "arna",
        -7.617219110457434
      ],
      [
        "▁ser",
        -7.635066873645423
      ],
      [
        "▁annat",
        -7.636737522000484
      ],
      [
        "▁vår",
        -7.64089867004925
      ],
      [
        "▁tid",
        -7.642771961077617
      ],
      [
        "▁barn",
        -7.652193466480389
      ],
      [
        "▁Sverige",
        -7.652904838000278
      ],
      [
        "▁väl",
        -7.660594742693863
      ],
      [
        "y",
        -7.66252564333867
      ],
      [
        "l",
        -7.663132707337729
      ],
      [
        "▁rätt",
        -7.663281251611972
      ],
      [
        "▁Så",
        -7.670954166696152
      ],
      [
        "ade",
        -7.677037484220255
      ],
      [
        "▁vilket",
        -7.681291291984783
      ],
      [
        "▁både",
        -7.683688507291041
      ],
      [
        "▁sina",
        -7.686345518036958
      ],
      [
        "▁dag",
        -7.696825740033711
      ],
      [
        "in",
        -7.697581324067418
      ],
      [
        "▁gå",
        -7.734355672969697
      ],
      [
        "▁hos",
        -7.740992308270068
      ],
      [
        "▁stor",
        -7.748241197319883
      ],
      [
        "▁behöver",
        -7.750242186417907
      ],
      [
        "▁Nu",
        -7.756637876370927
      ],
      [
        "▁våra",
        -7.761519756201061
      ],
      [
        "▁kanske",
        -7.774129852673244
      ],
      [
        "▁ny",
        -7.782399120355114
      ],
      [
        "▁dessa",
        -7.786479471105244
      ],
      [
        "ens",
        -7.796703217215773
      ],
      [
        "se",
        -7.799717414269473
      ],
      [
        "▁vet",
        -7.803238489410754
      ],
      [
        "▁flera",
        -7.813184347637446
      ],
      [
        "▁På",
        -7.815668913931631
      ],
      [
        "▁innan",
        -7.824401943036415
      ],
      [
        "f",
        -7.8294302493617725
      ],
      [
        "▁idag",
        -7.837655266969469
      ],
      [
        "ning",
        -7.838451041737333
      ],
      [
        "▁kom",
        -7.838816519178774
      ],
      [
        "▁sitt",
        -7.85865113379981
      ],
      [
        "▁Han",
        -7.860459252106297
      ],
      [
        "▁hem",
        -7.864190324358454
      ],
      [
        "å",
        -7.864304572986139
      ],
      [
        "▁samma",
        -7.868262933789957
      ],
      [
        "▁tar",
        -7.869821033196979
      ],
      [
        "▁alltid",
        -7.877528623815781
      ],
      [
        "▁A",
        -7.8825661601368076
      ],
      [
        "c",
        -7.88400508097596
      ],
      [
        ";",
        -7.884986921851546
      ],
      [
        "▁bästa",
        -7.889311516086197
      ],
      [
        "▁ger",
        -7.896176672290894
      ],
      [
        "▁tre",
        -7.903748912907721
      ],
      [
        "▁ner",
        -7.912204893886713
      ],
      [
        "▁väldigt",
        -7.913923320679105
      ],
      [
        "▁stora",
        -7.920317604377535
      ],
      [
        "&",
        -7.921334966397666
      ],
      [
        "▁Här",
        -7.9232231599811005
      ],
      [
        "▁ditt",
        -7.927516347049343
      ],
      [
        "▁Att",
        -7.928898374717566
      ],
      [
        "gick",
        -7.932470918388283
      ],
      [
        "S",
        -7.9340634741938345
      ],
      [
        "▁varje",
        -7.934288405943169
      ],
      [
        "▁bättre",
        -7.935796549005138
      ],
      [
        "▁bort",
        -7.943150603425057
      ],
      [
        "▁bland",
        -7.94465104231525
      ],
      [
        "▁tycker",
        -7.948038037739185
      ],
      [
        "at",
        -7.950942221370031
      ],
      [
        "▁igen",
        -7.95757279256212
      ],
      [
        "▁Detta",
        -7.964835655296204
      ],
      [
        "or",
        -7.976408181158563
      ],
      [
        "▁gäller",
        -7.988502148052163
      ],
      [
        "u",
        -8.001916757148173
      ],
      [
        "▁nog",
        -8.003758508090892
      ],
      [
        "▁B",
        -8.00706396395305
      ],
      [
        "▁ligger",
        -8.008257794799315
      ],
      [
        "▁tidigare",
        -8.011927932601564
      ],
      [
        "%",
        -8.013796578479926
      ],
      [
        "▁fått",
        -8.015783369167652
      ],
      [
        "▁just",
        -8.018303930429022
      ],
      [
        "▁mitt",
        -8.026192645351045
      ],
      [
        "▁gång",
        -8.031340891539534
      ],
      [
        "▁komma",
        -8.039089078881323
      ],
      [
        "des",
        -8.04170539313257
      ],
      [
        "▁be",
        -8.046323537210323
      ],
      [
        "▁fall",
        -8.046529123650968
      ],
      [
        "tror",
        -8.04896594732123
      ],
      [
        "▁mest",
        -8.049213590046708
      ],
      [
        "▁Med",
        -8.05256727198965
      ],
      [
        "▁åt",
        -8.056766395076293
      ],
      [
        "▁Läs",
        -8.05843619186879
      ],
      [
        "▁hitta",
        -8.061596916444094
      ],
      [
        "▁ingen",
        -8.064032944032226
      ],
      [
        "▁Har",
        -8.072947201928342
      ],
      [
        "▁riktigt",
        -8.073633014359377
      ],
      [
        "▁ge",
        -8.079791722520874
      ],
      [
        "▁dock",
        -8.0915636430704
      ],
      [
        "▁T",
        -8.091844564719441
      ],
      [
        "▁skall",
        -8.092239837138145
      ],
      [
        "ing",
        -8.092345383416935
      ],
      [
        "▁Vad",
        -8.096646454704022
      ],
      [
        "▁eftersom",
        -8.097373834138633
      ],
      [
        "▁annan",
        -8.098147266233271
      ],
      [
        "▁enligt",
        -8.101869784052582
      ],
      [
        "▁plats",
        -8.102102288894145
      ],
      [
        "▁redan",
        -8.119776266655334
      ],
      [
        "▁människor",
        -8.132280206948376
      ],
      [
        "▁svenska",
        -8.144128056985249
      ],
      [
        "▁Hur",
        -8.147842410167174
      ],
      [
        "▁Ett",
        -8.148032458005169
      ],
      [
        "▁runt",
        -8.15352903232696
      ],
      [
        "▁kunde",
        -8.154326146721203
      ],
      [
        "el",
        -8.163824001848523
      ],
      [
        "▁P",
        -8.165962415901966
      ],
      [
        "▁gjort",
        -8.168458196749624
      ],
      [
        "▁företag",
        -8.16850002049465
      ],
      [
        "▁fler",
        -8.171343023769309
      ],
      [
        "▁E",
        -8.173206667470632
      ],
      [
        "▁C",
        -8.1779574374434
      ],
      [
        "▁deras",
        -8.186799788696515
      ],
      [
        "▁dina",
        -8.189745353812459
      ],
      [
        "▁dom",
        -8.191012832022926
      ],
      [
        "man",
        -8.201661054501283
      ],
      [
        "▁aldrig",
        -8.20599508250206
      ],
      [
        "▁F",
        -8.207731280107154
      ],
      [
        "▁verkligen",
        -8.218723611294791
      ],
      [
        "▁G",
        -8.220409662473907
      ],
      [
        "▁information",
        -8.221287124917874
      ],
      [
        "▁tillsammans",
        -8.225971456373113
      ],
      [
        "▁tillbaka",
        -8.227600128970021
      ],
      [
        "▁ofta",
        -8.233069892211693
      ],
      [
        "▁gjorde",
        -8.234743263619043
      ],
      [
        "▁Man",
        -8.242522939508106
      ],
      [
        "▁hjälp",
        -8.26170203855999
      ],
      [
        "▁tiden",
        -8.261953799395824
      ],
      [
        "▁mina",
        -8.26640860802756
      ],
      [
        "▁K",
        -8.27313773694856
      ],
      [
        "vis",
        -8.282459021929274
      ],
      [
        "▁tog",
        -8.283514162800364
      ],
      [
        "▁lika",
        -8.286819142740296
      ],
      [
        "b",
        -8.290520946823001
      ],
      [
        "▁använda",
        -8.294878896363306
      ],
      [
        "▁personer",
        -8.295836042760161
      ],
      [
        "▁M",
        -8.297051301817103
      ],
      [
        "därför",
        -8.304251594636126
      ],
      [
        "j",
        -8.304950171363446
      ],
      [
        "▁sen",
        -8.305796763040137
      ],
      [
        "▁mindre",
        -8.305823198351586
      ],
      [
        "▁honom",
        -8.306674326207022
      ],
      [
        "▁läsa",
        -8.316941431799584
      ],
      [
        "▁lätt",
        -8.317792998997364
      ],
      [
        "▁säga",
        -8.318595290829924
      ],
      [
        "▁bör",
        -8.32945364239202
      ],
      [
        "'",
        -8.345864772120905
      ],
      [
        "▁grund",
        -8.348173328982483
      ],
      [
        "▁ändå",
        -8.349181573412652
      ],
      [
        "▁större",
        -8.351566944930878
      ],
      [
        "▁hemma",
        -8.355282615147528
      ],
      [
        "▁ur",
        -8.355396291754012
      ],
      [
        "▁mål",
        -8.359994832189573
      ],
      [
        "▁egen",
        -8.364035152727128
      ],
      [
        "▁mat",
        -8.368254210299025
      ],
      [
        "▁direkt",
        -8.372673421863423
      ],
      [
        "▁små",
        -8.375563930080167
      ],
      [
        "▁enkelt",
        -8.378719447313529
      ],
      [
        "▁Efter",
        -8.379001643234345
      ],
      [
        "▁innebär",
        -8.379368354030044
      ],
      [
        "▁står",
        -8.379612779794419
      ],
      [
        "▁Som",
        -8.379847680754322
      ],
      [
        "▁exempel",
        -8.381445595836947
      ],
      [
        "▁kr",
        -8.389196695418928
      ],
      [
        "▁slut",
        -8.3902782824824
      ],
      [
        "▁kvar",
        -8.390583949291821
      ],
      [
        "▁Hon",
        -8.398125231230697
      ],
      [
        "▁hög",
        -8.399406006693802
      ],
      [
        "▁hans",
        -8.399994315669298
      ],
      [
        "▁spel",
        -8.412663051158564
      ],
      [
        "haft",
        -8.414135692698965
      ],
      [
        "x",
        -8.415291443478155
      ],
      [
        "▁par",
        -8.415895663324125
      ],
      [
        "▁senaste",
        -8.41914228955543
      ],
      [
        "▁känner",
        -8.42288149536667
      ],
      [
        "▁liv",
        -8.425578381157175
      ],
      [
        "▁längre",
        -8.42641179612384
      ],
      [
        "▁dagar",
        -8.430844633795955
      ],
      [
        "▁Då",
        -8.43201829778578
      ],
      [
        "▁procent",
        -8.432064819590293
      ],
      [
        "▁problem",
        -8.435437006268844
      ],
      [
        "▁stort",
        -8.437071467737674
      ],
      [
        "▁saker",
        -8.4487923182759
      ],
      [
        "▁hand",
        -8.451605901715732
      ],
      [
        "blivit",
        -8.455688754895094
      ],
      [
        "▁vatten",
        -8.45621795343436
      ],
      [
        "on",
        -8.460715496397684
      ],
      [
        "håller",
        -8.460811787781441
      ],
      [
        "▁Stockholm",
        -8.463582897393438
      ],
      [
        "▁Under",
        -8.468962197813301
      ],
      [
        "▁per",
        -8.471476188442097
      ],
      [
        "om",
        -8.477866011558648
      ],
      [
        "▁länge",
        -8.480849442528658
      ],
      [
        "▁möjligt",
        -8.48240393924809
      ],
      [
        "▁god",
        -8.482912468350065
      ],
      [
        "▁skapa",
        -8.48301084292243
      ],
      [
        "▁faktiskt",
        -8.485252339540125
      ],
      [
        "▁henne",
        -8.488329596957348
      ],
      [
        "|",
        -8.489028924539962
      ],
      [
        "▁pengar",
        -8.493906152766142
      ],
      [
        "▁visar",
        -8.505184715361665
      ],
      [
        "]",
        -8.507727224205693
      ],
      [
        "▁köpa",
        -8.508023287079897
      ],
      [
        "[",
        -8.509475432423521
      ],
      [
        "▁svårt",
        -8.515320194893723
      ],
      [
        "▁året",
        -8.515695725734629
      ],
      [
        "▁via",
        -8.519784328163995
      ],
      [
        "för",
        -8.520304495466196
      ],
      [
        "▁ganska",
        -8.520305360875309
      ],
      [
        "▁känns",
        -8.523558182254172
      ],
      [
        "gärna",
        -8.524837265002104
      ],
      [
        "▁Där",
        -8.525510510565464
      ],
      [
        "▁ännu",
        -8.52699454444657
      ],
      [
        "▁H",
        -8.527283546555212
      ],
      [
        "▁O",
        -8.53098470207233
      ],
      [
        "▁liten",
        -8.531004134492642
      ],
      [
        "▁kort",
        -8.5344244624095
      ],
      [
        "▁börjar",
        -8.535963772047182
      ],
      [
        "▁kommun",
        -8.538850372365314
      ],
      [
        "▁hålla",
        -8.539477651130083
      ],
      [
        "▁inför",
        -8.540606015874141
      ],
      [
        "▁nytt",
        -8.541358079313419
      ],
      [
        "nde",
        -8.546159193619195
      ],
      [
        "▁folk",
        -8.546568522468895
      ],
      [
        "▁inget",
        -8.54731037086944
      ],
      [
        "▁Är",
        -8.548220183053843
      ],
      [
        "A",
        -8.553593408419456
      ],
      [
        "▁väg",
        -8.55563340574889
      ],
      [
        "▁N",
        -8.558062442473775
      ],
      [
        "al",
        -8.560853969413035
      ],
      [
        "▁lång",
        -8.563382444018075
      ],
      [
        "med",
        -8.564969683573453
      ],
      [
        "▁bil",
        -8.567714234540464
      ],
      [
        "som",
        -8.569552765380067
      ],
      [
        "D",
        -8.571859948754415
      ],
      [
        "▁L",
        -8.572111389182025
      ],
      [
        "▁hotell",
        -8.576628939605884
      ],
      [
        "▁nästan",
        -8.576642922999602
      ],
      [
        "▁vårt",
        -8.579277706891395
      ],
      [
        "▁extra",
        -8.583170659129806
      ],
      [
        "▁fortfarande",
        -8.587565992274655
      ],
      [
        "▁hittar",
        -8.588612929620663
      ],
      [
        "gått",
        -8.58984501131551
      ],
      [
        "▁spela",
        -8.59101708488823
      ],
      [
        "▁dagen",
        -8.5910785804981
      ],
      [
        "▁frågor",
        -8.592122879327308
      ],
      [
        "att",
        -8.593606194347597
      ],
      [
        "ut",
        -8.595838829230011
      ],
      [
        "▁vissa",
        -8.599899224294688
      ],
      [
        "▁handlar",
        -8.599983752758725
      ],
      [
        "▁ca",
        -8.600744393230597
      ],
      [
        "het",
        -8.600745736313995
      ],
      [
        "▁ute",
        -8.603311606335009
      ],
      [
        "▁gånger",
        -8.606908632141273
      ],
      [
        "▁kronor",
        -8.607746352668416
      ],
      [
        "▁vilka",
        -8.60842590793478
      ],
      [
        "alltså",
        -8.608638882343985
      ],
      [
        "▁dess",
        -8.6098368702956
      ],
      [
        "▁Ja",
        -8.610599658502146
      ],
      [
        "ligt",
        -8.61100442732989
      ],
      [
        "verkar",
        -8.612934384289785
      ],
      [
        "▁samtidigt",
        -8.615147247165773
      ],
      [
        "▁först",
        -8.616008282289897
      ],
      [
        "*",
        -8.620023764342362
      ],
      [
        "▁precis",
        -8.62063541202393
      ],
      [
        "▁fel",
        -8.624720081615571
      ],
      [
        "började",
        -8.629007906490745
      ],
      [
        "▁person",
        -8.63019538098097
      ],
      [
        "▁hoppas",
        -8.634701468407831
      ],
      [
        "▁bilder",
        -8.63571866677105
      ],
      [
        "▁viktigt",
        -8.636044448555051
      ],
      [
        "▁vidare",
        -8.636522532016766
      ],
      [
        "▁senare",
        -8.638477438048914
      ],
      [
        "flest",
        -8.639728084240891
      ],
      [
        "▁istället",
        -8.640315793901243
      ],
      [
        "▁använder",
        -8.641877838136033
      ],
      [
        "son",
        -8.642957475326615
      ],
      [
        "▁Alla",
        -8.646022676323472
      ],
      [
        "▁form",
        -8.646208278790166
      ],
      [
        "▁vilken",
        -8.652232559819597
      ],
      [
        "B",
        -8.654094479523842
      ],
      [
        "▁fast",
        -8.658336117978122
      ],
      [
        "▁minst",
        -8.659359646146445
      ],
      [
        "▁nästa",
        -8.664365142795685
      ],
      [
        "▁gott",
        -8.66784776432003
      ],
      [
        "▁fråga",
        -8.670953662624736
      ],
      [
        "▁skriver",
        -8.67242442336837
      ],
      [
        "▁arbete",
        -8.672919964302096
      ],
      [
        "▁fyra",
        -8.674137890005337
      ],
      [
        "▁gratis",
        -8.676930903541956
      ],
      [
        "liga",
        -8.6774548091529
      ],
      [
        "▁stöd",
        -8.677478735782902
      ],
      [
        "berg",
        -8.680007501533986
      ],
      [
        "▁sidan",
        -8.68197972029216
      ],
      [
        "▁sa",
        -8.688857652318534
      ],
      [
        "▁pris",
        -8.69071885011576
      ],
      [
        "▁nära",
        -8.691237224630724
      ],
      [
        "▁sista",
        -8.691577619982434
      ],
      [
        "största",
        -8.696777082377903
      ],
      [
        "ig",
        -8.69791128721936
      ],
      [
        "▁ihop",
        -8.700104835880225
      ],
      [
        "talet",
        -8.70325928734439
      ],
      [
        "ex",
        -8.704690273458322
      ],
      [
        "▁endast",
        -8.705131451699861
      ],
      [
        "området",
        -8.705902870430965
      ],
      [
        "▁erbjuder",
        -8.707224451687438
      ],
      [
        "▁jobb",
        -8.708294081071394
      ],
      [
        "▁själva",
        -8.708953093755095
      ],
      [
        "▁kvinnor",
        -8.711148262897671
      ],
      [
        "▁Till",
        -8.712278593072883
      ],
      [
        "▁beslut",
        -8.720735976532827
      ],
      [
        "▁lag",
        -8.721019883498258
      ],
      [
        "mm",
        -8.723579778142382
      ],
      [
        "vägen",
        -8.727859273561934
      ],
      [
        "▁sett",
        -8.728958690196228
      ],
      [
        "▁snabbt",
        -8.737020436338074
      ],
      [
        "▁egna",
        -8.737659700360236
      ],
      [
        "▁kring",
        -8.739327361184777
      ],
      [
        "K",
        -8.740393656406702
      ],
      [
        "­",
        -8.743180000402187
      ],
      [
        "▁åter",
        -8.744270872853724
      ],
      [
        "▁såg",
        -8.747504161459213
      ],
      [
        "▁möjlighet",
        -8.748706713507497
      ],
      [
        "▁välja",
        -8.750694519309013
      ],
      [
        "T",
        -8.751587981178542
      ],
      [
        "▁bild",
        -8.753753764756036
      ],
      [
        "▁D",
        -8.755919359713884
      ],
      [
        "▁all",
        -8.75767135822824
      ],
      [
        "▁börja",
        -8.759563762951357
      ],
      [
        "▁hel",
        -8.76289975798447
      ],
      [
        "▁R",
        -8.764798682742935
      ],
      [
        "▁dessutom",
        -8.767205663842523
      ],
      [
        "▁klart",
        -8.769969782629824
      ],
      [
        "tagit",
        -8.774038725785463
      ],
      [
        "▁världen",
        -8.77467895120992
      ],
      [
        "▁Idag",
        -8.77500017297577
      ],
      [
        "▁veckan",
        -8.778747060245305
      ],
      [
        "▁borde",
        -8.779647067488163
      ],
      [
        "▁gamla",
        -8.789965873452395
      ],
      [
        "le",
        -8.790909533434094
      ],
      [
        "▁kl",
        -8.795056294278243
      ],
      [
        "aste",
        -8.795147512342453
      ],
      [
        "▁vecka",
        -8.795951155322614
      ],
      [
        "P",
        -8.796100319605623
      ],
      [
        "▁typ",
        -8.798427826126435
      ],
      [
        "ska",
        -8.801669430862454
      ],
      [
        "M",
        -8.802671675827629
      ],
      [
        "▁fem",
        -8.807662735273569
      ],
      [
        "▁AB",
        -8.80927213675648
      ],
      [
        "inga",
        -8.811613477347139
      ],
      [
        "▁kul",
        -8.81575003089762
      ],
      [
        "▁helst",
        -8.817037681481576
      ],
      [
        "▁sex",
        -8.817616417526853
      ],
      [
        "tid",
        -8.8215399976619
      ],
      [
        "▁varför",
        -8.821741029252822
      ],
      [
        "▁svar",
        -8.823058245771009
      ],
      [
        "▁behov",
        -8.823137970255894
      ],
      [
        "▁Även",
        -8.823759471830575
      ],
      [
        "▁visa",
        -8.826484264852763
      ],
      [
        "▁lägga",
        -8.82979136592257
      ],
      [
        "▁tips",
        -8.829847734987949
      ],
      [
        "sson",
        -8.832616332577475
      ],
      [
        "▁långt",
        -8.832637757387872
      ],
      [
        "C",
        -8.833206855049875
      ],
      [
        "▁trots",
        -8.833672373021576
      ],
      [
        "▁delar",
        -8.83538484613323
      ],
      [
        "▁rum",
        -8.838702196126263
      ],
      [
        "▁ville",
        -8.843764967244457
      ],
      [
        "com",
        -8.84633360343847
      ],
      [
        "us",
        -8.85056774078171
      ],
      [
        "▁början",
        -8.850693790405783
      ],
      [
        "▁hjälpa",
        -8.851158684143245
      ],
      [
        "▁namn",
        -8.85191277567529
      ],
      [
        "▁brukar",
        -8.852071212200094
      ],
      [
        "▁fina",
        -8.853785915878754
      ],
      [
        "▁känna",
        -8.854147717907797
      ],
      [
        "▁minuter",
        -8.855232647934494
      ],
      [
        "är",
        -8.855992204482195
      ],
      [
        "▁skriva",
        -8.857233237374674
      ],
      [
        "▁tänka",
        -8.859706727529483
      ],
      [
        "emot",
        -8.863826813120872
      ],
      [
        "·",
        -8.870111755214223
      ],
      [
        "▁Se",
        -8.870198692890149
      ],
      [
        "▁miljö",
        -8.870749541499896
      ],
      [
        "▁enda",
        -8.871634999235383
      ],
      [
        "hjälper",
        -8.876620000943943
      ],
      [
        "▁ibland",
        -8.877835173727659
      ],
      [
        "Denna",
        -8.877849215013356
      ],
      [
        "▁V",
        -8.881247391614137
      ],
      [
        "▁snart",
        -8.881310318266626
      ],
      [
        "▁kontakt",
        -8.882075674149426
      ],
      [
        "▁arbetar",
        -8.882237839863029
      ],
      [
        "går",
        -8.882938655084622
      ],
      [
        "ma",
        -8.883349817633773
      ],
      [
        "▁Vid",
        -8.890744283148797
      ],
      [
        "▁Air",
        -8.897997341478371
      ],
      [
        "▁fin",
        -8.900264496917261
      ],
      [
        "▁Nike",
        -8.90027914966424
      ],
      [
        "▁betala",
        -8.90035653118552
      ],
      [
        "heller",
        -8.900729109134502
      ],
      [
        "▁Max",
        -8.900852635676934
      ],
      [
        "▁Av",
        -8.900976885387198
      ],
      [
        "_",
        -8.902291228456123
      ],
      [
        "▁vanligt",
        -8.90268384749948
      ],
      [
        "hennes",
        -8.905902469714686
      ],
      [
        "▁egentligen",
        -8.90793990433683
      ],
      [
        "▁livet",
        -8.908851076670683
      ],
      [
        "fanns",
        -8.914138292955617
      ],
      [
        "▁energi",
        -8.91443503720493
      ],
      [
        "tal",
        -8.915095855393282
      ],
      [
        "▁val",
        -8.915659899561724
      ],
      [
        "▁medan",
        -8.916019947098333
      ],
      [
        "stod",
        -8.916494240689007
      ],
      [
        "▁gången",
        -8.917294457394721
      ],
      [
        "▁Sedan",
        -8.917764843174265
      ],
      [
        "▁online",
        -8.917972013947821
      ],
      [
        "▁emot",
        -8.924673364868873
      ],
      [
        "frågan",
        -8.925519918669163
      ],
      [
        "iga",
        -8.92814068035833
      ],
      [
        "+",
        -8.929391672803572
      ],
      [
        "▁J",
        -8.930667852785891
      ],
      [
        "▁miljoner",
        -8.931949632195607
      ],
      [
        "lig",
        -8.932963974149727
      ],
      [
        "▁ord",
        -8.93352391041734
      ],
      [
        "▁In",
        -8.934819324836257
      ],
      [
        "▁dags",
        -8.93531122702221
      ],
      [
        "▁timmar",
        -8.935953643823993
      ],
      [
        "▁förslag",
        -8.936211303098256
      ],
      [
        "▁hus",
        -8.939412978078908
      ],
      [
        "▁framför",
        -8.941506852175609
      ],
      [
        "▁EU",
        -8.942419513859825
      ],
      [
        "▁resultat",
        -8.942891766588469
      ],
      [
        "▁tag",
        -8.944077746188064
      ],
      [
        "▁Min",
        -8.944079732903456
      ],
      [
        "▁of",
        -8.945268731251904
      ],
      [
        "iska",
        -8.948846413928855
      ],
      [
        "ä",
        -8.952088968625423
      ],
      [
        "▁bäst",
        -8.952926263179783
      ],
      [
        "▁låg",
        -8.957343691674584
      ],
      [
        "båda",
        -8.958015940788755
      ],
      [
        "▁utanför",
        -8.95851903448868
      ],
      [
        "▁Sveriges",
        -8.958999968328042
      ],
      [
        "▁varandra",
        -8.959559477286
      ],
      [
        "▁Tack",
        -8.961114677077632
      ],
      [
        "▁ned",
        -8.961919243580951
      ],
      [
        "▁antal",
        -8.9625401257104
      ],
      [
        "orna",
        -8.96544450289887
      ],
      [
        "ch",
        -8.96589441592574
      ],
      [
        "▁veta",
        -8.966166214560959
      ],
      [
        "sagt",
        -8.967816720545322
      ],
      [
        "▁särskilt",
        -8.968345665944135
      ],
      [
        "I",
        -8.968873913002165
      ],
      [
        "=",
        -8.972830809227707
      ],
      [
        "▁verksamhet",
        -8.973761732143918
      ],
      [
        "▁passar",
        -8.974633400877911
      ],
      [
        "▁sådan",
        -8.975451389534744
      ],
      [
        "▁km",
        -8.98212538411953
      ],
      [
        "G",
        -8.982734150675421
      ],
      [
        "▁betyd",
        -8.984730443174902
      ],
      [
        "▁W",
        -8.985489374499746
      ],
      [
        "▁ytterligare",
        -8.985698741088575
      ],
      [
        "F",
        -8.985727677391408
      ],
      [
        "sitter",
        -8.987711989635516
      ],
      [
        "L",
        -8.988537398662663
      ],
      [
        "▁fungerar",
        -8.9894341947307
      ],
      [
        "▁används",
        -9.000912899284055
      ],
      [
        "▁resa",
        -9.004703811471847
      ],
      [
        "“",
        -9.005180232722633
      ],
      [
        "ja",
        -9.00683489988806
      ],
      [
        "▁bok",
        -9.006926170737577
      ],
      [
        "▁jätte",
        -9.00810707648144
      ],
      [
        "▁kommit",
        -9.008618201285925
      ],
      [
        "▁produkter",
        -9.009693544925353
      ],
      [
        "▁gillar",
        -9.010998503347702
      ],
      [
        "▁färg",
        -9.011634929355063
      ],
      [
        "▁Sen",
        -9.012231926627459
      ],
      [
        "förra",
        -9.012644176408772
      ],
      [
        "▁Allt",
        -9.01543254469329
      ],
      [
        "efter",
        -9.020977365700727
      ],
      [
        "väl",
        -9.022174791676997
      ],
      [
        "▁utveckling",
        -9.022232676218094
      ],
      [
        "rum",
        -9.024334275481385
      ],
      [
        "▁USA",
        -9.026659651849132
      ],
      [
        "ström",
        -9.02690083482062
      ],
      [
        "▁kräv",
        -9.032435291553313
      ],
      [
        "tänker",
        -9.033025026604864
      ],
      [
        "ö",
        -9.035728974427407
      ],
      [
        "▁söker",
        -9.037044672795375
      ],
      [
        "▁händer",
        -9.038639804830522
      ],
      [
        "▁tur",
        -9.039844819812004
      ],
      [
        "▁arbeta",
        -9.040114160913296
      ],
      [
        "▁besök",
        -9.043212457176265
      ],
      [
        "▁skolan",
        -9.044657575831957
      ],
      [
        "▁bakom",
        -9.047812091740846
      ],
      [
        "▁Kan",
        -9.048836622578643
      ],
      [
        "▁maj",
        -9.049220466553663
      ],
      [
        "och",
        -9.049555945959709
      ],
      [
        "▁spelar",
        -9.051519354384782
      ],
      [
        "▁Inte",
        -9.051859018334248
      ],
      [
        "▁landet",
        -9.052753332160124
      ],
      [
        "▁omdömen",
        -9.060590962053245
      ],
      [
        "▁ja",
        -9.06153121835891
      ],
      [
        "▁skicka",
        -9.061793114158618
      ],
      [
        "▁f",
        -9.066441046938571
      ],
      [
        "ger",
        -9.06676673315306
      ],
      [
        "▁bor",
        -9.068653299394034
      ],
      [
        "▁män",
        -9.070422045282333
      ],
      [
        "men",
        -9.070806664888671
      ],
      [
        "▁åka",
        -9.07107344227311
      ],
      [
        "um",
        -9.071078134769138
      ],
      [
        "igt",
        -9.071870750802097
      ],
      [
        "▁projekt",
        -9.07344983932746
      ],
      [
        "▁säkert",
        -9.079058699120079
      ],
      [
        "▁igenom",
        -9.081176038485868
      ],
      [
        "▁svensk",
        -9.082996370373195
      ],
      [
        "▁visst",
        -9.083877301758955
      ],
      [
        "▁inlägg",
        -9.08449931466687
      ],
      [
        "▁veckor",
        -9.08868982056927
      ],
      [
        "▁sätta",
        -9.089236000476337
      ],
      [
        "▁The",
        -9.090201963350212
      ],
      [
        "sk",
        -9.090615692397064
      ],
      [
        "z",
        -9.091100623105328
      ],
      [
        "▁sak",
        -9.092830279790142
      ],
      [
        "▁lilla",
        -9.093213249354752
      ],
      [
        "▁film",
        -9.095029732008786
      ],
      [
        "w",
        -9.096744641647472
      ],
      [
        "yvärr",
        -9.09745916238369
      ],
      [
        "Enligt",
        -9.099000165827047
      ],
      [
        "era",
        -9.100087807008684
      ],
      [
        "▁lämna",
        -9.104552571919887
      ],
      [
        "▁dra",
        -9.105682158923644
      ],
      [
        "Dessutom",
        -9.106076499689598
      ],
      [
        "▁Var",
        -9.106487091459703
      ],
      [
        "▁steg",
        -9.106528703299777
      ],
      [
        "▁krav",
        -9.106593873697907
      ],
      [
        "▁jobba",
        -9.109505489164217
      ],
      [
        "av",
        -9.112236272129836
      ],
      [
        "ningar",
        -9.113161292438756
      ],
      [
        "▁innehåller",
        -9.113340403794009
      ],
      [
        "▁äta",
        -9.116464009001103
      ],
      [
        "▁högre",
        -9.11882107151441
      ],
      [
        "▁kroppen",
        -9.119491875121973
      ],
      [
        "▁kör",
        -9.121691126864638
      ],
      [
        "▁öppna",
        -9.121717287637773
      ],
      [
        "lagen",
        -9.124782254215416
      ],
      [
        "▁bygga",
        -9.126338801440971
      ],
      [
        "▁sida",
        -9.126655732727512
      ],
      [
        "▁berättar",
        -9.12948158484251
      ],
      [
        "▁månader",
        -9.13106362646632
      ],
      [
        "▁minska",
        -9.131376668162835
      ],
      [
        ">",
        -9.132101463325457
      ],
      [
        "▁huvud",
        -9.13340080441113
      ],
      [
        "▁the",
        -9.135041154389576
      ],
      [
        "▁alls",
        -9.136136843754759
      ],
      [
        "▁ljus",
        -9.138578588713196
      ],
      [
        "▁kunder",
        -9.139985463694288
      ],
      [
        "▁Vill",
        -9.144478523208498
      ],
      [
        "▁äldre",
        -9.145195543709558
      ],
      [
        "▁försöka",
        -9.146782651121597
      ],
      [
        "▁ingår",
        -9.147920278574755
      ],
      [
        "▁personal",
        -9.148073708041869
      ],
      [
        "▁Be",
        -9.148362802980923
      ],
      [
        "ge",
        -9.148376143194504
      ],
      [
        "Många",
        -9.14985129688354
      ],
      [
        "▁full",
        -9.154765771757784
      ],
      [
        "▁lära",
        -9.15547357124161
      ],
      [
        "▁mamma",
        -9.157149990898395
      ],
      [
        "▁sommar",
        -9.157413658091194
      ],
      [
        "väljer",
        -9.159182110757039
      ],
      [
        "▁musik",
        -9.159219558867964
      ],
      [
        "▁betyg",
        -9.160594666267311
      ],
      [
        "▁arbets",
        -9.161668389399464
      ],
      [
        "▁Göteborg",
        -9.163081369550813
      ],
      [
        "▁roligt",
        -9.16449637302522
      ],
      [
        "▁åren",
        -9.168785324484073
      ],
      [
        "▁främst",
        -9.17132376142681
      ],
      [
        "▁max",
        -9.1748746282993
      ],
      [
        "▁skrev",
        -9.1774535301777
      ],
      [
        "▁inne",
        -9.178618789082982
      ],
      [
        "▁alternativ",
        -9.181730397419626
      ],
      [
        "▁Ni",
        -9.183940514565162
      ],
      [
        "E",
        -9.18466776269987
      ],
      [
        "ste",
        -9.18856465212989
      ],
      [
        "▁blogg",
        -9.188596674023358
      ],
      [
        "▁Bra",
        -9.191050517666689
      ],
      [
        "▁Ta",
        -9.194067636485217
      ],
      [
        "den",
        -9.195185908879854
      ],
      [
        "▁igång",
        -9.19806555703091
      ],
      [
        "▁ansvar",
        -9.202711897724244
      ],
      [
        "sker",
        -9.203822760629444
      ],
      [
        "▁följa",
        -9.204331729324114
      ],
      [
        "spel",
        -9.205194961612667
      ],
      [
        "▁Malmö",
        -9.207332234756466
      ],
      [
        "▁spelare",
        -9.207907861841443
      ],
      [
        "R",
        -9.208431809882882
      ],
      [
        "▁tack",
        -9.209104125914559
      ],
      [
        "▁perfekt",
        -9.209831336528234
      ],
      [
        "▁ifrån",
        -9.211357296098235
      ],
      [
        "▁spännande",
        -9.212430108151693
      ],
      [
        "▁satt",
        -9.213572322546872
      ],
      [
        "▁fort",
        -9.216258969118424
      ],
      [
        "H",
        -9.21654864663548
      ],
      [
        "▁sakna",
        -9.216791271904786
      ],
      [
        "▁barnen",
        -9.217723129425783
      ],
      [
        "▁fri",
        -9.217919317333225
      ],
      [
        "land",
        -9.21794013771059
      ],
      [
        "ering",
        -9.2186090576019
      ],
      [
        "▁öka",
        -9.221793394633545
      ],
      [
        "▁vänner",
        -9.222804702825309
      ],
      [
        "▁Svenska",
        -9.224327861025131
      ],
      [
        "▁samband",
        -9.226691752106506
      ],
      [
        "▁glad",
        -9.227468681450095
      ],
      [
        "▁nätet",
        -9.227711285407167
      ],
      [
        "laget",
        -9.228130238737485
      ],
      [
        "▁U",
        -9.228358246347302
      ],
      [
        "▁vanliga",
        -9.229806437051481
      ],
      [
        "▁fint",
        -9.230206515335237
      ],
      [
        "▁goda",
        -9.232000541721789
      ],
      [
        "▁Ska",
        -9.233453209099531
      ],
      [
        "samma",
        -9.233499051428565
      ],
      [
        "▁kolla",
        -9.237636481569648
      ],
      [
        "▁massa",
        -9.240245076793698
      ],
      [
        "ur",
        -9.240527489322785
      ],
      [
        "▁jul",
        -9.241108806557943
      ],
      [
        "▁dit",
        -9.241328956558476
      ],
      [
        "▁följande",
        -9.241800789444222
      ],
      [
        "▁lär",
        -9.244027934479853
      ],
      [
        "▁viktig",
        -9.244150193895537
      ],
      [
        "la",
        -9.24420346156851
      ],
      [
        "ligen",
        -9.244317505087382
      ],
      [
        "by",
        -9.245860420508942
      ],
      [
        "slutet",
        -9.246032438401699
      ],
      [
        "▁Ut",
        -9.246271997241026
      ],
      [
        "Det",
        -9.250157980566808
      ],
      [
        "▁roll",
        -9.252334043127519
      ],
      [
        "▁januari",
        -9.252505390189508
      ],
      [
        "N",
        -9.254290788623493
      ],
      [
        "▁eget",
        -9.255012221155097
      ],
      [
        "▁ovan",
        -9.255383904641752
      ],
      [
        "▁jobbet",
        -9.255788246987604
      ],
      [
        "▁erfarenhet",
        -9.256042855654758
      ],
      [
        "▁jobbar",
        -9.257140623313095
      ],
      [
        "▁kommunen",
        -9.257402056334893
      ],
      [
        "▁uppgifter",
        -9.260898281512995
      ],
      [
        "▁tro",
        -9.261026418871559
      ],
      [
        "ningen",
        -9.261810265742504
      ],
      [
        "▁utbildning",
        -9.262684626075936
      ],
      [
        "▁fortsätta",
        -9.263533275876135
      ],
      [
        "dag",
        -9.263815003943897
      ],
      [
        "▁ej",
        -9.264901932035585
      ],
      [
        "▁Bo",
        -9.265442602519249
      ],
      [
        "ell",
        -9.266353672759433
      ],
      [
        "▁tydlig",
        -9.266646810446453
      ],
      [
        "liksom",
        -9.268043553642901
      ],
      [
        "▁nå",
        -9.268583654382763
      ],
      [
        "▁Genom",
        -9.271054753603137
      ],
      [
        "▁månad",
        -9.271346113007988
      ],
      [
        "▁unga",
        -9.272360133619298
      ],
      [
        "▁älskar",
        -9.272405300822978
      ],
      [
        "be",
        -9.272484690245234
      ],
      [
        "▁augusti",
        -9.273822625454434
      ],
      [
        "▁län",
        -9.27419249570723
      ],
      [
        "▁stå",
        -9.274732141882259
      ],
      [
        "sta",
        -9.276736763497997
      ],
      [
        "▁företaget",
        -9.27903112442949
      ],
      [
        "försöker",
        -9.279877135391791
      ],
      [
        "stående",
        -9.283606621309588
      ],
      [
        "▁liknande",
        -9.284656192103494
      ],
      [
        "§",
        -9.285105128821762
      ],
      [
        "▁utveckla",
        -9.285454855119008
      ],
      [
        "▁igår",
        -9.288416190642
      ],
      [
        "▁vem",
        -9.288723114985165
      ],
      [
        "▁ex",
        -9.2898341301323
      ],
      [
        "▁Nej",
        -9.290457849835276
      ],
      [
        "ast",
        -9.291954988917183
      ],
      [
        "▁Dessa",
        -9.293212472540334
      ],
      [
        "▁tio",
        -9.29391063619979
      ],
      [
        "▁fortsätter",
        -9.295998602111842
      ],
      [
        "▁behövs",
        -9.296070420399522
      ],
      [
        "▁vanlig",
        -9.296698303197935
      ],
      [
        "låter",
        -9.297007023783543
      ],
      [
        "▁material",
        -9.301607962933586
      ],
      [
        "▁rör",
        -9.303974999682756
      ],
      [
        "▁stund",
        -9.304103010683763
      ],
      [
        "▁mars",
        -9.304611062501579
      ],
      [
        "▁priser",
        -9.305179098211568
      ],
      [
        "▁kvalitet",
        -9.306093584317296
      ],
      [
        "▁Visa",
        -9.306223979222628
      ],
      [
        "os",
        -9.306296728384135
      ],
      [
        "▁tredje",
        -9.306426364647807
      ],
      [
        "▁poäng",
        -9.307658145756688
      ],
      [
        "▁program",
        -9.31013127658571
      ],
      [
        "va",
        -9.31142595325231
      ],
      [
        "eller",
        -9.312075479647415
      ],
      [
        "▁service",
        -9.312389721452808
      ],
      [
        "▁Från",
        -9.312937105498468
      ],
      [
        "▁pa",
        -9.313339351715102
      ],
      [
        "▁arbetet",
        -9.314248356704775
      ],
      [
        "ga",
        -9.31483793781151
      ],
      [
        "▁hälsa",
        -9.315555670655707
      ],
      [
        "▁halv",
        -9.315897288150953
      ],
      [
        "Jag",
        -9.316407799956147
      ],
      [
        "#",
        -9.31869042682138
      ],
      [
        "▁vilja",
        -9.319480216553373
      ],
      [
        "▁start",
        -9.321731313495999
      ],
      [
        "▁kultur",
        -9.322629407233752
      ],
      [
        "▁djur",
        -9.323084363320163
      ],
      [
        "ring",
        -9.323257816754671
      ],
      [
        "▁Eller",
        -9.324530942153977
      ],
      [
        "ka",
        -9.32481696639828
      ],
      [
        "ly",
        -9.325969842422419
      ],
      [
        "▁köra",
        -9.326532199062672
      ],
      [
        "Därför",
        -9.329797638949737
      ],
      [
        "▁års",
        -9.33047318022126
      ],
      [
        "▁användas",
        -9.331770274410946
      ],
      [
        "står",
        -9.332208900514608
      ],
      [
        "hus",
        -9.332968232788115
      ],
      [
        "▁vård",
        -9.333911813900965
      ],
      [
        "bo",
        -9.334118831543863
      ],
      [
        "så",
        -9.335242013073325
      ],
      [
        "rätt",
        -9.336251932396934
      ],
      [
        "▁länder",
        -9.338792345784492
      ],
      [
        "▁kväll",
        -9.339791308122358
      ],
      [
        "▁bidra",
        -9.344054591579976
      ],
      [
        "▁ungefär",
        -9.344415412901967
      ],
      [
        "▁kunskap",
        -9.34470225616437
      ],
      [
        "▁fortsatt",
        -9.344778306286127
      ],
      [
        "▁påverka",
        -9.345219987720474
      ],
      [
        "▁behöva",
        -9.346530581882813
      ],
      [
        "varande",
        -9.349806225584313
      ],
      [
        "exempelvis",
        -9.350522308053144
      ],
      [
        "▁kontakta",
        -9.351104044181845
      ],
      [
        "▁prata",
        -9.351342914260307
      ],
      [
        "▁tillgång",
        -9.352957434998894
      ],
      [
        "▁grupp",
        -9.353282749391655
      ],
      [
        "över",
        -9.35431886793469
      ],
      [
        "▁nedan",
        -9.354894258194857
      ],
      [
        "▁bilen",
        -9.356018413288767
      ],
      [
        "▁sol",
        -9.356516131277719
      ],
      [
        "▁titta",
        -9.357512635169556
      ],
      [
        "▁meter",
        -9.358015768164416
      ],
      [
        "▁and",
        -9.364250732581127
      ],
      [
        "»",
        -9.364659240748757
      ],
      [
        "anser",
        -9.366925541895139
      ],
      [
        "bar",
        -9.367839748142867
      ],
      [
        "▁gav",
        -9.368146618035382
      ],
      [
        "▁risk",
        -9.368875984964692
      ],
      [
        "▁råd",
        -9.369034599737393
      ],
      [
        "min",
        -9.369914294471384
      ],
      [
        "▁bo",
        -9.371773747196578
      ],
      [
        "tyckte",
        -9.37223845568902
      ],
      [
        "▁hör",
        -9.372877927866456
      ],
      [
        "▁match",
        -9.37453094997633
      ],
      [
        "▁morgon",
        -9.376226924707215
      ],
      [
        "Varför",
        -9.378386179052182
      ],
      [
        "▁heter",
        -9.379474377734029
      ],
      [
        "Kanske",
        -9.383178211935283
      ],
      [
        "▁intresse",
        -9.38355730969249
      ],
      [
        "▁b",
        -9.383815908615645
      ],
      [
        "▁samarbete",
        -9.385714755465928
      ],
      [
        "▁engelska",
        -9.387343178460723
      ],
      [
        "▁Vår",
        -9.387398988231649
      ],
      [
        "▁viss",
        -9.387457498578666
      ],
      [
        "kar",
        -9.388391313880968
      ],
      [
        "▁hår",
        -9.388527574316102
      ],
      [
        "▁skor",
        -9.388555251298618
      ],
      [
        "▁cirka",
        -9.388623213339475
      ],
      [
        "▁Anna",
        -9.389673833703274
      ],
      [
        "finnas",
        -9.3904019210985
      ],
      [
        "▁juni",
        -9.391676085200286
      ],
      [
        "▁uppdrag",
        -9.392204654258752
      ],
      [
        "▁boken",
        -9.39339149569263
      ],
      [
        "▁fokus",
        -9.39359621534013
      ],
      [
        "▁favorit",
        -9.395130419924667
      ],
      [
        "▁absolut",
        -9.395565554140429
      ],
      [
        "delen",
        -9.39572312543738
      ],
      [
        "oftast",
        -9.397030659216169
      ],
      [
        "O",
        -9.398455058255745
      ],
      [
        "▁klar",
        -9.39898586699149
      ],
      [
        "hört",
        -9.399679683811451
      ],
      [
        "▁land",
        -9.401555715656249
      ],
      [
        "▁Jo",
        -9.402289296715882
      ],
      [
        "▁sommaren",
        -9.402812597730778
      ],
      [
        "tänkte",
        -9.405160139448588
      ],
      [
        "gen",
        -9.405911980624914
      ],
      [
        "▁TV",
        -9.406185322765444
      ],
      [
        "lägger",
        -9.409223116763483
      ],
      [
        "▁Europa",
        -9.410179654363523
      ],
      [
        "▁framtiden",
        -9.41026632764927
      ],
      [
        "bolaget",
        -9.410887070262593
      ],
      [
        "visade",
        -9.411116917787743
      ],
      [
        "▁ställa",
        -9.411478728654583
      ],
      [
        "▁klara",
        -9.412486389500152
      ],
      [
        "läget",
        -9.416254261066417
      ],
      [
        "▁telefon",
        -9.420335977801807
      ],
      [
        "▁förstår",
        -9.420384790164485
      ],
      [
        "▁helgen",
        -9.420399448464396
      ],
      [
        "▁system",
        -9.421387442052561
      ],
      [
        "▁träffa",
        -9.422224185863863
      ],
      [
        "nas",
        -9.422994888423812
      ],
      [
        "▁bl",
        -9.42566188385955
      ],
      [
        "övriga",
        -9.42733208842446
      ],
      [
        "system",
        -9.427609936430967
      ],
      [
        "består",
        -9.429265622248163
      ],
      [
        "▁behandling",
        -9.42962161271664
      ],
      [
        "val",
        -9.430999078912178
      ],
      [
        "▁kvällen",
        -9.431487747735694
      ],
      [
        "▁data",
        -9.431673799499722
      ],
      [
        "▁april",
        -9.4338497391416
      ],
      [
        "▁viktiga",
        -9.434073459918263
      ],
      [
        "▁familj",
        -9.434269603930085
      ],
      [
        "▁oktober",
        -9.434391216696875
      ],
      [
        "▁september",
        -9.435398279510867
      ],
      [
        "▁beroende",
        -9.436066389185571
      ],
      [
        "▁följer",
        -9.437204599538498
      ],
      [
        "▁intressant",
        -9.437669758132143
      ],
      [
        "▁tanke",
        -9.437784785794662
      ],
      [
        "kommande",
        -9.438497656398273
      ],
      [
        "speciellt",
        -9.440156149104777
      ],
      [
        "ton",
        -9.440541973015923
      ],
      [
        "▁senast",
        -9.44068610692743
      ],
      [
        "▁eventuell",
        -9.441684761307116
      ],
      [
        "▁vackra",
        -9.442032646129451
      ],
      [
        "ökar",
        -9.442655467557898
      ],
      [
        "gående",
        -9.44637618249968
      ],
      [
        "på",
        -9.44729515199119
      ],
      [
        "▁snabb",
        -9.447326404847152
      ],
      [
        "ont",
        -9.447950821348517
      ],
      [
        "▁lan",
        -9.449851779335392
      ],
      [
        "ifrån",
        -9.450132913345445
      ],
      [
        "▁förstå",
        -9.450425678705445
      ],
      [
        "▁skönt",
        -9.452151104802576
      ],
      [
        "Eftersom",
        -9.453995623429522
      ],
      [
        "▁Hej",
        -9.455137159913866
      ],
      [
        "isk",
        -9.455420251119161
      ],
      [
        "▁air",
        -9.455746709992791
      ],
      [
        "systemet",
        -9.456663684525196
      ],
      [
        "programmet",
        -9.457504296352601
      ],
      [
        "▁nämlig",
        -9.457805697199262
      ],
      [
        "▁bilden",
        -9.458877071404022
      ],
      [
        "▁Ha",
        -9.460167422539236
      ],
      [
        "▁familjen",
        -9.460451371590361
      ],
      [
        "åkte",
        -9.463310280775895
      ],
      [
        "▁skapar",
        -9.464874249211082
      ],
      [
        "otroligt",
        -9.465055623677715
      ],
      [
        "alldeles",
        -9.465181469737322
      ],
      [
        "▁plan",
        -9.469553498999185
      ],
      [
        "▁staden",
        -9.47037410786622
      ],
      [
        "tiden",
        -9.470395491231093
      ],
      [
        "—",
        -9.470419498791545
      ],
      [
        "▁regeringen",
        -9.472221858047508
      ],
      [
        "•",
        -9.474838812416413
      ],
      [
        "▁köp",
        -9.475103187171143
      ],
      [
        "▁ändra",
        -9.475781498684109
      ],
      [
        "▁va",
        -9.476968387499772
      ],
      [
        "▁februari",
        -9.477342554365686
      ],
      [
        "▁stället",
        -9.47758870225413
      ],
      [
        "ve",
        -9.47785874576926
      ],
      [
        "▁vänta",
        -9.478131925617559
      ],
      [
        "▁Mer",
        -9.478424994999665
      ],
      [
        "▁kund",
        -9.478781663436456
      ],
      [
        "▁lever",
        -9.48009214715299
      ],
      [
        "▁låta",
        -9.480139795174955
      ],
      [
        "annars",
        -9.480986096050396
      ],
      [
        "▁skillnad",
        -9.48190970816996
      ],
      [
        "▁anledning",
        -9.483633143142587
      ],
      [
        "▁nike",
        -9.483733882733453
      ],
      [
        "matchen",
        -9.485877939662148
      ],
      [
        "ha",
        -9.48626542622755
      ],
      [
        "▁boende",
        -9.487151701138115
      ],
      [
        "▁skol",
        -9.487373297327187
      ],
      [
        "▁tänkt",
        -9.48807781043951
      ],
      [
        "menar",
        -9.488390472496835
      ],
      [
        "▁hemsida",
        -9.489628272875422
      ],
      [
        "kände",
        -9.490175861288193
      ],
      [
        "▁säker",
        -9.49017742603993
      ],
      [
        "väntar",
        -9.490734825419151
      ],
      [
        "▁samhället",
        -9.491213627322992
      ],
      [
        "▁tv",
        -9.491517901325969
      ],
      [
        "till",
        -9.492687422261717
      ],
      [
        "▁träning",
        -9.492848835055716
      ],
      [
        "del",
        -9.494456937434263
      ],
      [
        "▁dagens",
        -9.495236242142319
      ],
      [
        "ner",
        -9.497537265537002
      ],
      [
        "krävs",
        -9.500205580679374
      ],
      [
        "▁super",
        -9.500340627887871
      ],
      [
        "kr",
        -9.501922082880151
      ],
      [
        "beror",
        -9.502919557477176
      ],
      [
        "▁föräldrar",
        -9.505033928266645
      ],
      [
        "▁språk",
        -9.50517894521444
      ],
      [
        "▁verksamheten",
        -9.505561372265376
      ],
      [
        "▁höra",
        -9.506845566325843
      ],
      [
        "▁Re",
        -9.508113416398183
      ],
      [
        "▁berätta",
        -9.508615514903035
      ],
      [
        "▁hund",
        -9.508765326004621
      ],
      [
        "sidan",
        -9.508924367769431
      ],
      [
        "V",
        -9.509174628662116
      ],
      [
        "W",
        -9.509769733647396
      ],
      [
        "▁Per",
        -9.511051272246501
      ],
      [
        "▁närheten",
        -9.511602079783245
      ],
      [
        "▁Ny",
        -9.511913651892577
      ],
      [
        "oavsett",
        -9.51208035272535
      ],
      [
        "▁möjligheter",
        -9.512936453045945
      ],
      [
        "Vi",
        -9.513096023542142
      ],
      [
        "▁natur",
        -9.513356032817812
      ],
      [
        "▁tjänster",
        -9.513627099734839
      ],
      [
        "▁sociala",
        -9.513892114117139
      ],
      [
        "▁fungera",
        -9.516245348599513
      ],
      [
        "rna",
        -9.517382762025207
      ],
      [
        "▁erbjuda",
        -9.51808569477662
      ],
      [
        "▁förbättra",
        -9.518091797815234
      ],
      [
        "listan",
        -9.520474706903084
      ],
      [
        "▁utifrån",
        -9.521559904559593
      ],
      [
        "▁planera",
        -9.524534964738192
      ],
      [
        "▁diskutera",
        -9.52485552166312
      ],
      [
        "sådana",
        -9.52503322380572
      ],
      [
        "▁december",
        -9.529800644016463
      ],
      [
        "▁cm",
        -9.532535068768293
      ],
      [
        "▁flytta",
        -9.532875595133454
      ],
      [
        "▁produkt",
        -9.53364972295906
      ],
      [
        "mannen",
        -9.535455389202566
      ],
      [
        "lag",
        -9.535552096760727
      ],
      [
        "gruppen",
        -9.537186955658832
      ],
      [
        "ets",
        -9.537396015158528
      ],
      [
        "▁hantera",
        -9.537475103402153
      ],
      [
        "▁november",
        -9.538970519896814
      ],
      [
        "▁natt",
        -9.539395928439237
      ],
      [
        "▁leder",
        -9.53979611271877
      ],
      [
        "typer",
        -9.539814500580599
      ],
      [
        "kort",
        -9.53997039243349
      ],
      [
        "▁La",
        -9.540586130789928
      ],
      [
        "▁elever",
        -9.547099572488731
      ],
      [
        "värt",
        -9.547373189763634
      ],
      [
        "▁iväg",
        -9.548370048710673
      ],
      [
        "mare",
        -9.548628228693767
      ],
      [
        "▁världens",
        -9.55151726376655
      ],
      [
        "▁flyg",
        -9.5520552549708
      ],
      [
        "▁polisen",
        -9.553249858637617
      ],
      [
        "▁leva",
        -9.553521223862285
      ],
      [
        "▁design",
        -9.554143745874278
      ],
      [
        "▁huset",
        -9.554176819905656
      ],
      [
        "▁rad",
        -9.555086847824787
      ],
      [
        "co",
        -9.556602280223165
      ],
      [
        "gatan",
        -9.556626855662987
      ],
      [
        "▁höga",
        -9.55686539068572
      ],
      [
        "▁gammal",
        -9.55821555927442
      ],
      [
        "ler",
        -9.558673763208438
      ],
      [
        "▁klockan",
        -9.559809534867684
      ],
      [
        "▁Stockholms",
        -9.56011502917664
      ],
      [
        "upp",
        -9.560549966320991
      ],
      [
        "mer",
        -9.560969719810206
      ],
      [
        "▁högt",
        -9.562276660906239
      ],
      [
        "sökte",
        -9.56262244534823
      ],
      [
        "▁nöjd",
        -9.564985342949925
      ],
      [
        "▁marknaden",
        -9.565457291029325
      ],
      [
        "ras",
        -9.566163380725577
      ],
      [
        "gren",
        -9.567600520250483
      ],
      [
        "▁vikt",
        -9.568321095017637
      ],
      [
        "▁X",
        -9.56839466925983
      ],
      [
        "år",
        -9.569071843527587
      ],
      [
        "▁kvinna",
        -9.569668380320655
      ],
      [
        "é",
        -9.56983574293754
      ],
      [
        "▁juli",
        -9.56994036637902
      ],
      [
        "▁vän",
        -9.57136258558565
      ],
      [
        "var",
        -9.572498590281606
      ],
      [
        "▁svart",
        -9.57339771860124
      ],
      [
        "spelet",
        -9.574812013287223
      ],
      [
        "▁Anders",
        -9.576917752925883
      ],
      [
        "ling",
        -9.578113827252366
      ],
      [
        "sätter",
        -9.582102395453784
      ],
      [
        "resten",
        -9.583500371837543
      ],
      [
        "ist",
        -9.584888032817615
      ],
      [
        "▁bär",
        -9.58553036636553
      ],
      [
        "antalet",
        -9.587254698046031
      ],
      [
        "lar",
        -9.587919775485279
      ],
      [
        "hända",
        -9.58970776619603
      ],
      [
        "▁åker",
        -9.592313544735175
      ],
      [
        "fall",
        -9.592949374653287
      ],
      [
        "▁historia",
        -9.593063065794802
      ],
      [
        "▁omkring",
        -9.595592823569467
      ],
      [
        "höll",
        -9.595986577448247
      ],
      [
        "▁fullt",
        -9.596134845162977
      ],
      [
        "▁ordförande",
        -9.596196404839318
      ],
      [
        "log",
        -9.598063438470652
      ],
      [
        "▁topp",
        -9.599185143702238
      ],
      [
        "▁byta",
        -9.599867018406687
      ],
      [
        "vi",
        -9.60099326098457
      ],
      [
        "▁Hitta",
        -9.601604616813725
      ],
      [
        "▁stanna",
        -9.602569641060228
      ],
      [
        "nu",
        -9.603400444574913
      ],
      [
        "▁sitta",
        -9.604677078146123
      ],
      [
        "▁säsongen",
        -9.605245485009329
      ],
      [
        "▁testa",
        -9.605314772397062
      ],
      [
        "▁Hotel",
        -9.605723268781306
      ],
      [
        "▁internet",
        -9.605918993102785
      ],
      [
        "▁stil",
        -9.606133846812886
      ],
      [
        "▁dryg",
        -9.606799257508676
      ],
      [
        "plan",
        -9.607190049891601
      ],
      [
        "▁lägre",
        -9.607338148488333
      ],
      [
        "▁bak",
        -9.607442000727817
      ],
      [
        "▁stark",
        -9.60775623135596
      ],
      [
        "▁Å",
        -9.608472495500022
      ],
      [
        "▁Tänk",
        -9.609082048577186
      ],
      [
        "▁to",
        -9.60929492864928
      ],
      [
        "drar",
        -9.60934325633087
      ],
      [
        "▁totalt",
        -9.610104426712363
      ],
      [
        "platsen",
        -9.610496666629956
      ],
      [
        "▁kläder",
        -9.610663659101231
      ],
      [
        "▁svår",
        -9.610874835034261
      ],
      [
        "▁dator",
        -9.611039499826946
      ],
      [
        "▁icke",
        -9.612916461899855
      ],
      [
        "▁medlemmar",
        -9.61329476463208
      ],
      [
        "tidigt",
        -9.615791801751259
      ],
      [
        "▁långa",
        -9.616886242490574
      ],
      [
        "▁värde",
        -9.617386629234378
      ],
      [
        "▁Johan",
        -9.617524020937351
      ],
      [
        "▁Just",
        -9.618113808088966
      ],
      [
        "▁An",
        -9.618436015388026
      ],
      [
        "ett",
        -9.619742692232665
      ],
      [
        "▁recept",
        -9.623588219068937
      ],
      [
        "lättare",
        -9.62362804906578
      ],
      [
        "▁söka",
        -9.624407455318936
      ],
      [
        "▁pappa",
        -9.625905006273308
      ],
      [
        "politiska",
        -9.626644710060251
      ],
      [
        "börjat",
        -9.627022342256288
      ],
      [
        "▁spara",
        -9.629871300828658
      ],
      [
        "▁for",
        -9.630829961741863
      ],
      [
        "▁böcker",
        -9.631361962100764
      ],
      [
        "▁kraft",
        -9.63272881820894
      ],
      [
        "skrivit",
        -9.633500537190503
      ],
      [
        "ledande",
        -9.634014277438453
      ],
      [
        "erade",
        -9.639903815234707
      ],
      [
        "vattnet",
        -9.640389558258727
      ],
      [
        "▁håll",
        -9.640414187819463
      ],
      [
        "▁lokala",
        -9.641022478685162
      ],
      [
        "▁kap",
        -9.642080390928582
      ],
      [
        "▁artikel",
        -9.642387881173237
      ],
      [
        "▁allra",
        -9.642626323253886
      ],
      [
        "▁lunch",
        -9.644104646542782
      ],
      [
        "enbart",
        -9.644279516052196
      ],
      [
        "▁hösten",
        -9.64476324747507
      ],
      [
        "resenärer",
        -9.647055314350492
      ],
      [
        "▁konstatera",
        -9.647056180497582
      ],
      [
        "▁utmärkt",
        -9.647069023583297
      ],
      [
        "▁pass",
        -9.647077301050638
      ],
      [
        "▁trött",
        -9.64835168728459
      ],
      [
        "▁åtgärder",
        -9.649552637340241
      ],
      [
        "▁vinna",
        -9.650965042076235
      ],
      [
        "bara",
        -9.651014912312926
      ],
      [
        "▁född",
        -9.652073717359961
      ],
      [
        "▁dåligt",
        -9.652356066303106
      ],
      [
        "plats",
        -9.652638076289367
      ],
      [
        "me",
        -9.654341575548234
      ],
      [
        "▁träna",
        -9.654399203473131
      ],
      [
        "▁förstås",
        -9.655454189660125
      ],
      [
        "▁semester",
        -9.655891328977761
      ],
      [
        "ion",
        -9.656140697659426
      ],
      [
        "ken",
        -9.656202284275125
      ],
      [
        "▁exakt",
        -9.656732830427273
      ],
      [
        "ation",
        -9.656853455535206
      ],
      [
        "▁teknik",
        -9.65781068493247
      ],
      [
        "▁snö",
        -9.657824141892236
      ],
      [
        "▁borta",
        -9.66061133924027
      ],
      [
        "▁områden",
        -9.661511644286092
      ],
      [
        "▁nivå",
        -9.662110738723582
      ],
      [
        "ställer",
        -9.66378880484133
      ],
      [
        "▁mobil",
        -9.664617574124236
      ],
      [
        "▁nån",
        -9.664711240042804
      ],
      [
        "▁område",
        -9.665814930735953
      ],
      [
        "samtliga",
        -9.666432474990765
      ],
      [
        "▁Facebook",
        -9.666438722427907
      ],
      [
        "köpte",
        -9.667287444708013
      ],
      [
        "utom",
        -9.668062954831372
      ],
      [
        "ic",
        -9.668734648942127
      ],
      [
        "▁ögon",
        -9.668901649015696
      ],
      [
        "▁lugn",
        -9.668993785252598
      ],
      [
        "▁hit",
        -9.67050023339275
      ],
      [
        "sådant",
        -9.671296204747286
      ],
      [
        "▁dela",
        -9.671382980596068
      ],
      [
        "▁dejting",
        -9.671443376972718
      ],
      [
        "▁vänster",
        -9.672565805838406
      ],
      [
        "skolan",
        -9.673699861825835
      ],
      [
        "▁hud",
        -9.675110163648291
      ],
      [
        "▁glas",
        -9.676358745921542
      ],
      [
        "▁text",
        -9.676731575345778
      ],
      [
        "▁enkel",
        -9.677407492050342
      ],
      [
        "▁bygg",
        -9.677465923157742
      ],
      [
        "▁kontroll",
        -9.678075582317888
      ],
      [
        "tillräckligt",
        -9.678996778492037
      ],
      [
        "▁känsla",
        -9.679704636768017
      ],
      [
        "▁luft",
        -9.680140039681131
      ],
      [
        "aren",
        -9.680614497753986
      ],
      [
        "verket",
        -9.680876922898115
      ],
      [
        "kallas",
        -9.681038086850496
      ],
      [
        "▁delta",
        -9.682741005098789
      ],
      [
        "maste",
        -9.682965790779873
      ],
      [
        "kända",
        -9.683250295237205
      ],
      [
        "läser",
        -9.683767615472402
      ],
      [
        "▁användning",
        -9.685017098855607
      ],
      [
        "▁kaffe",
        -9.68515168764279
      ],
      [
        "▁stad",
        -9.685561780195945
      ],
      [
        "▁samman",
        -9.68607974234911
      ],
      [
        "▁konst",
        -9.68657332447334
      ],
      [
        "äter",
        -9.686816946438988
      ],
      [
        "▁handla",
        -9.689655094542777
      ],
      [
        "▁vann",
        -9.6904691596247
      ],
      [
        "▁casino",
        -9.690955245741646
      ],
      [
        "respektive",
        -9.691015051163621
      ],
      [
        "Samtidigt",
        -9.693236718151534
      ],
      [
        "fallet",
        -9.69384802307275
      ],
      [
        "tra",
        -9.694002194672555
      ],
      [
        "huset",
        -9.694742550369302
      ],
      [
        "ans",
        -9.695052372462893
      ],
      [
        "▁sju",
        -9.695357055777563
      ],
      [
        "▁höger",
        -9.698313571089631
      ],
      [
        "▁snar",
        -9.698534685308733
      ],
      [
        "J",
        -9.699979306591109
      ],
      [
        "▁ljud",
        -9.700879487147516
      ],
      [
        "▁funka",
        -9.702246912687649
      ],
      [
        "Mycket",
        -9.702294478710051
      ],
      [
        "▁lån",
        -9.702844652967627
      ],
      [
        "▁Peter",
        -9.703185614179715
      ],
      [
        "▁trä",
        -9.704757552075161
      ],
      [
        "▁massor",
        -9.705882329574195
      ],
      [
        "vård",
        -9.706405772253092
      ],
      [
        "▁forskning",
        -9.70697933583645
      ],
      [
        "’",
        -9.708118841217077
      ],
      [
        "post",
        -9.708669166085755
      ],
      [
        "lund",
        -9.709307714830805
      ],
      [
        "bygger",
        -9.711419293779649
      ],
      [
        "kan",
        -9.711700722518609
      ],
      [
        "▁kompetens",
        -9.71268750233005
      ],
      [
        "lin",
        -9.714127852565104
      ],
      [
        "▁gällande",
        -9.714730958984962
      ],
      [
        "▁död",
        -9.715610864572822
      ],
      [
        "▁lärare",
        -9.71651640435676
      ],
      [
        "▁reda",
        -9.717854079287338
      ],
      [
        "▁låt",
        -9.718581067734572
      ],
      [
        "▁lokal",
        -9.71998186933622
      ],
      [
        "▁anställda",
        -9.720048859256867
      ],
      [
        "▁skola",
        -9.720318380763295
      ],
      [
        "▁framåt",
        -9.720983948857581
      ],
      [
        "utveckling",
        -9.721416538055735
      ],
      [
        "▁billiga",
        -9.721770404528659
      ],
      [
        "▁ske",
        -9.72215112571746
      ],
      [
        "▁ekonomiska",
        -9.722644800121486
      ],
      [
        "▁Pris",
        -9.72276429101063
      ],
      [
        "mat",
        -9.723547887978711
      ],
      [
        "▁El",
        -9.724774225427668
      ],
      [
        "▁tas",
        -9.724902801784353
      ],
      [
        "▁högsta",
        -9.725007878700266
      ],
      [
        "len",
        -9.726699829807295
      ],
      [
        "▁hämta",
        -9.727799028912285
      ],
      [
        "▁sälja",
        -9.731387200587127
      ],
      [
        "▁trevlig",
        -9.73226475749664
      ],
      [
        "$",
        -9.732538634744015
      ],
      [
        "▁säkerhet",
        -9.73337174446965
      ],
      [
        "ör",
        -9.733546986926605
      ],
      [
        "▁gäster",
        -9.734069954344958
      ],
      [
        "kostar",
        -9.734421875315466
      ],
      [
        "erad",
        -9.73463963040721
      ],
      [
        "▁verktyg",
        -9.734898991008773
      ],
      [
        "program",
        -9.735490055756976
      ],
      [
        "hittade",
        -9.735855441910633
      ],
      [
        "lan",
        -9.736626725427644
      ],
      [
        "▁ekonomi",
        -9.738542033707015
      ],
      [
        "▁hårt",
        -9.738760166604632
      ],
      [
        "▁särskild",
        -9.739977316946025
      ],
      [
        "▁Ö",
        -9.740385827517576
      ],
      [
        "▁Kina",
        -9.74125210032488
      ],
      [
        "▁centrum",
        -9.742226153541512
      ],
      [
        "målet",
        -9.742635013471656
      ],
      [
        "utgör",
        -9.742874448639455
      ],
      [
        "tar",
        -9.742874518723173
      ],
      [
        "itet",
        -9.743104811090385
      ],
      [
        "▁storlek",
        -9.743635648142865
      ],
      [
        "▁valt",
        -9.745149697269456
      ],
      [
        "▁samtal",
        -9.745957392474109
      ],
      [
        "▁klimat",
        -9.746137149159148
      ],
      [
        "▁värme",
        -9.748750606283062
      ],
      [
        "▁Låt",
        -9.749153242236904
      ],
      [
        "▁chans",
        -9.749974335303262
      ],
      [
        "tur",
        -9.750031694224747
      ],
      [
        "oc",
        -9.753230433699661
      ],
      [
        "▁mängd",
        -9.753561175193648
      ],
      [
        "viktigaste",
        -9.75385179156781
      ],
      [
        "Varje",
        -9.753872726103111
      ],
      [
        "▁maskinövers",
        -9.754410467539538
      ],
      [
        "▁Uppsala",
        -9.757921334954073
      ],
      [
        "▁leda",
        -9.758313659212227
      ],
      [
        "trodde",
        -9.7592753641154
      ],
      [
        "▁platser",
        -9.759325835872962
      ],
      [
        "▁filmen",
        -9.760177553878885
      ],
      [
        "▁effekt",
        -9.76035975507753
      ],
      [
        "▁regler",
        -9.760520969948466
      ],
      [
        "▁bidrag",
        -9.760733067024313
      ],
      [
        "▁skada",
        -9.760799935068125
      ],
      [
        "▁drog",
        -9.761604720786034
      ],
      [
        "▁tillhör",
        -9.761979697309645
      ],
      [
        "▁klass",
        -9.762377477461825
      ],
      [
        "ord",
        -9.76248954022689
      ],
      [
        "▁variera",
        -9.764131646994882
      ],
      [
        "lyckas",
        -9.764230337308973
      ],
      [
        "▁Ingen",
        -9.764823970800622
      ],
      [
        "fri",
        -9.765599213985436
      ],
      [
        "Hoppas",
        -9.765899985854492
      ],
      [
        "▁vuxna",
        -9.766223075348888
      ],
      [
        "stad",
        -9.766845869212078
      ],
      [
        "än",
        -9.767879513002992
      ],
      [
        "önskar",
        -9.768147735573294
      ],
      [
        "utvecklingen",
        -9.768538510302784
      ],
      [
        "▁hälso",
        -9.769102231306384
      ],
      [
        "ny",
        -9.769330232651726
      ],
      [
        "ats",
        -9.769334511428335
      ],
      [
        "▁Barn",
        -9.77168028429475
      ],
      [
        "ver",
        -9.772296984165104
      ],
      [
        "▁smak",
        -9.773882673924364
      ],
      [
        "▁sade",
        -9.774329631299112
      ],
      [
        "▁Gud",
        -9.774715082620961
      ],
      [
        "▁övrigt",
        -9.774777636820458
      ],
      [
        "<",
        -9.774820290228073
      ],
      [
        "resultatet",
        -9.774869149471007
      ],
      [
        "▁Foto",
        -9.776162983779557
      ],
      [
        "▁ben",
        -9.777506976776952
      ],
      [
        "▁kalla",
        -9.777961735399268
      ],
      [
        "▁frukost",
        -9.778135174590114
      ],
      [
        "nummer",
        -9.780468574782102
      ],
      [
        "▁ålder",
        -9.781183801455743
      ],
      [
        "▁Två",
        -9.781901637676823
      ],
      [
        "▁syn",
        -9.782048319059742
      ],
      [
        "▁New",
        -9.782390886316986
      ],
      [
        "form",
        -9.783083082908398
      ],
      [
        "▁besökare",
        -9.784024140058037
      ],
      [
        "▁lista",
        -9.78430666040477
      ],
      [
        "▁Fortsätt",
        -9.785388882894052
      ],
      [
        "▁Hans",
        -9.785814693584772
      ],
      [
        "▁ordning",
        -9.786235401786993
      ],
      [
        "▁läge",
        -9.787319806983772
      ],
      [
        "slutade",
        -9.788919017118456
      ],
      [
        "▁mark",
        -9.788989417278312
      ],
      [
        "▁uttryck",
        -9.789383869511544
      ],
      [
        "▁försök",
        -9.789559878902264
      ],
      [
        "▁kredit",
        -9.789599025767588
      ],
      [
        "▁bad",
        -9.789640703089086
      ],
      [
        "▁läst",
        -9.790057155417516
      ],
      [
        "▁Maria",
        -9.790135506643168
      ],
      [
        "▁funktion",
        -9.790539119987324
      ],
      [
        "▁Trots",
        -9.790577331045272
      ],
      [
        "bok",
        -9.792263915362941
      ],
      [
        "namnet",
        -9.7930615128948
      ],
      [
        "▁tankar",
        -9.793623500821138
      ],
      [
        "valet",
        -9.794230454162848
      ],
      [
        "betydligt",
        -9.794257649626678
      ],
      [
        "▁stan",
        -9.794433700910112
      ],
      [
        "▁personliga",
        -9.796620518817909
      ],
      [
        "▁bolag",
        -9.799934984389179
      ],
      [
        "ort",
        -9.800447400635951
      ],
      [
        "branschen",
        -9.800853833753875
      ],
      [
        "▁boka",
        -9.801408185437033
      ],
      [
        "▁brott",
        -9.802665442549262
      ],
      [
        "▁någonsin",
        -9.804529733934285
      ],
      [
        "företag",
        -9.805647458031059
      ],
      [
        "ökad",
        -9.806144956540912
      ],
      [
        "▁rent",
        -9.806602154846988
      ],
      [
        "▁härlig",
        -9.807211045184413
      ],
      [
        "▁vin",
        -9.808617080363142
      ],
      [
        "▁höst",
        -9.809128348584485
      ],
      [
        "liv",
        -9.810038690957084
      ],
      [
        "▁starta",
        -9.810355381545723
      ],
      [
        "▁betydelse",
        -9.812206751411019
      ],
      [
        "▁medel",
        -9.81227614185975
      ],
      [
        "mo",
        -9.812905533755382
      ],
      [
        "▁natten",
        -9.812922812891154
      ],
      [
        "vore",
        -9.812924313356694
      ],
      [
        "▁vakna",
        -9.813563178985545
      ],
      [
        "jämfört",
        -9.814549897753524
      ],
      [
        "▁middag",
        -9.81473870693834
      ],
      [
        "▁skäl",
        -9.815074609339565
      ],
      [
        "▁vinter",
        -9.815858388862752
      ],
      [
        "▁social",
        -9.816181919888967
      ],
      [
        "▁kärlek",
        -9.817441857526491
      ],
      [
        "kändes",
        -9.818742675341161
      ],
      [
        "äger",
        -9.821184631457637
      ],
      [
        "▁Kom",
        -9.821949500369067
      ],
      [
        "▁kropp",
        -9.822748741001288
      ],
      [
        "▁Lund",
        -9.823056642739294
      ],
      [
        "▁studie",
        -9.823447048978688
      ],
      [
        "ella",
        -9.82374980673419
      ],
      [
        "▁kommentar",
        -9.824096382488545
      ],
      [
        "tydligt",
        -9.82600516355265
      ],
      [
        "iskt",
        -9.826715827758134
      ],
      [
        "▁valde",
        -9.828532235239017
      ],
      [
        "▁slå",
        -9.829652505725152
      ],
      [
        "▁prova",
        -9.829901228750781
      ],
      [
        "▁helg",
        -9.831935815860001
      ],
      [
        "▁innehåll",
        -9.833085279278512
      ],
      [
        "▁Bara",
        -9.834089944408355
      ],
      [
        "perioden",
        -9.834315542917363
      ],
      [
        "▁häst",
        -9.8361403620856
      ],
      [
        "starkt",
        -9.837738176369529
      ],
      [
        "▁uppskatta",
        -9.837809201259708
      ],
      [
        "▁Upp",
        -9.838218853446142
      ],
      [
        "spelade",
        -9.83886602696041
      ],
      [
        "▁personlig",
        -9.83910048971796
      ],
      [
        "▁hotellet",
        -9.841382177192028
      ],
      [
        "▁fantastiskt",
        -9.841921859851023
      ],
      [
        "▁ungdomar",
        -9.842382795112528
      ],
      [
        "ön",
        -9.84313540147576
      ],
      [
        "självklart",
        -9.843136483357132
      ],
      [
        "verk",
        -9.84336955739217
      ],
      [
        "▁bank",
        -9.845349657909118
      ],
      [
        "▁privat",
        -9.845946003719666
      ],
      [
        "Ibland",
        -9.846865577002974
      ],
      [
        "▁ihåg",
        -9.847281168080341
      ],
      [
        "▁Andersson",
        -9.848063778971289
      ],
      [
        "▁passa",
        -9.849665037344778
      ],
      [
        "▁bit",
        -9.849763158250754
      ],
      [
        "ry",
        -9.85109854410543
      ],
      [
        "▁våren",
        -9.853034827793431
      ],
      [
        "tor",
        -9.853355946434394
      ],
      [
        "▁förutsättningar",
        -9.854152195774262
      ],
      [
        "plötslig",
        -9.854954094304814
      ],
      [
        "▁billigt",
        -9.855405574615583
      ],
      [
        "▁villkor",
        -9.8554359105603
      ],
      [
        "▁lyssna",
        -9.855560758710755
      ],
      [
        "▁fönster",
        -9.855970440707354
      ],
      [
        "▁nej",
        -9.857455311118358
      ],
      [
        "▁priset",
        -9.857468913361565
      ],
      [
        "Välkommen",
        -9.857761030961539
      ],
      [
        "▁Lars",
        -9.85820353474772
      ],
      [
        "det",
        -9.859069056542374
      ],
      [
        "▁risker",
        -9.859516244083672
      ],
      [
        "▁Mitt",
        -9.859701684720573
      ],
      [
        "▁kurs",
        -9.860046479484826
      ],
      [
        "▁standard",
        -9.860341150234873
      ],
      [
        "skador",
        -9.860520165965879
      ],
      [
        "▁projektet",
        -9.86106149476749
      ],
      [
        "skydd",
        -9.861183000761224
      ],
      [
        "▁talar",
        -9.861187610480796
      ],
      [
        "gel",
        -9.861315448700246
      ],
      [
        "mar",
        -9.8633958922175
      ],
      [
        "▁la",
        -9.863876319414718
      ],
      [
        "▁vinst",
        -9.864136965898338
      ],
      [
        "bil",
        -9.866429537078515
      ],
      [
        "äntligen",
        -9.86789534326683
      ],
      [
        "▁läkare",
        -9.86793026286009
      ],
      [
        "Mer",
        -9.868236729451263
      ],
      [
        "lös",
        -9.86962593067986
      ],
      [
        "▁sport",
        -9.870185458937438
      ],
      [
        "▁sjuk",
        -9.87022845953024
      ],
      [
        "▁uppgift",
        -9.870966139747019
      ],
      [
        "▁far",
        -9.871428894453786
      ],
      [
        "▁etc",
        -9.872051690637342
      ],
      [
        "▁läs",
        -9.872682883057825
      ],
      [
        "▁Finns",
        -9.87269614492501
      ],
      [
        "▁varmt",
        -9.873317183520049
      ],
      [
        "▁tillstånd",
        -9.873918837265897
      ],
      [
        "▁ligga",
        -9.873919412774633
      ],
      [
        "ant",
        -9.874642442569833
      ],
      [
        "▁syfte",
        -9.874673289650147
      ],
      [
        "▁förbi",
        -9.874967459163065
      ],
      [
        "▁populära",
        -9.875211597239094
      ],
      [
        "▁dålig",
        -9.875665466630478
      ],
      [
        "arbete",
        -9.876212333069734
      ],
      [
        "Ja",
        -9.87649604935557
      ],
      [
        "▁utvecklas",
        -9.878116791778684
      ],
      [
        "▁barnet",
        -9.878518488080678
      ],
      [
        "▁prov",
        -9.878578506632465
      ],
      [
        "▁tryck",
        -9.879011503062186
      ],
      [
        "taget",
        -9.879146075776724
      ],
      [
        "▁fantastisk",
        -9.879947741046994
      ],
      [
        "lämnar",
        -9.88088152574474
      ],
      [
        "▁avtal",
        -9.881633604745737
      ],
      [
        "▁medarbetare",
        -9.882154533596168
      ],
      [
        "▁Lite",
        -9.882952746420083
      ],
      [
        "▁tak",
        -9.883758755868078
      ],
      [
        "▁bonus",
        -9.8838803329488
      ],
      [
        "▁färger",
        -9.883906062797879
      ],
      [
        "▁sist",
        -9.8839787057322
      ],
      [
        "▁trygg",
        -9.884015758097021
      ],
      [
        "▁Y",
        -9.884146862966368
      ],
      [
        "▁åtta",
        -9.884580007922098
      ],
      [
        "▁tittar",
        -9.88488989195053
      ],
      [
        "▁ändring",
        -9.884917528000512
      ],
      [
        "nar",
        -9.885510958704694
      ],
      [
        "▁parti",
        -9.886131164475465
      ],
      [
        "▁lager",
        -9.886601342944246
      ],
      [
        "▁hamna",
        -9.88755523281606
      ],
      [
        "▁kommentarer",
        -9.887965213692015
      ],
      [
        "▁säkerhets",
        -9.888337511498817
      ],
      [
        "▁ladda",
        -9.889292803123228
      ],
      [
        "▁universitet",
        -9.88943691175462
      ],
      [
        "trax",
        -9.889485804649523
      ],
      [
        "▁solen",
        -9.890499318252301
      ],
      [
        "▁Al",
        -9.89221355502752
      ],
      [
        "▁aktiviteter",
        -9.89281666633373
      ],
      [
        "Vilken",
        -9.893097874166326
      ],
      [
        "gården",
        -9.893451439316673
      ],
      [
        "▁imorgon",
        -9.894114450773369
      ],
      [
        "▁webbplats",
        -9.895225287552396
      ],
      [
        "EN",
        -9.895422570768556
      ],
      [
        "▁trafik",
        -9.896672428864278
      ],
      [
        "Några",
        -9.897591316375042
      ],
      [
        "▁gilla",
        -9.897876459658386
      ],
      [
        "▁genomföra",
        -9.897885154920868
      ],
      [
        "olja",
        -9.89798714780116
      ],
      [
        "▁lösa",
        -9.898700158737228
      ],
      [
        "▁dam",
        -9.899762164295513
      ],
      [
        "vin",
        -9.901943922809393
      ],
      [
        "▁skit",
        -9.901955681857546
      ],
      [
        "mark",
        -9.90242167860368
      ],
      [
        "▁sidor",
        -9.903120388891201
      ],
      [
        "naturligtvis",
        -9.903899359429513
      ],
      [
        "ades",
        -9.90641830672437
      ],
      [
        "klubben",
        -9.906500298404513
      ],
      [
        "▁knappt",
        -9.907156091445088
      ],
      [
        "▁Sa",
        -9.907716037771587
      ],
      [
        "sten",
        -9.907929286141153
      ],
      [
        "▁Co",
        -9.909251633303823
      ],
      [
        "▁svara",
        -9.90955163663889
      ],
      [
        "▁St",
        -9.910554280283876
      ],
      [
        "▁ingenting",
        -9.911134884744802
      ],
      [
        "▁vita",
        -9.912009855602442
      ],
      [
        "▁ensam",
        -9.913350028998714
      ],
      [
        "▁dagarna",
        -9.9134467805303
      ],
      [
        "skickade",
        -9.913512049943643
      ],
      [
        "▁osv",
        -9.91361459556984
      ],
      [
        "▁sova",
        -9.913972514665481
      ],
      [
        "▁sluta",
        -9.915690643758312
      ],
      [
        "pratar",
        -9.916169696820583
      ],
      [
        "undrar",
        -9.919253466160026
      ],
      [
        "Klicka",
        -9.920328428125165
      ],
      [
        "▁regn",
        -9.92074013826887
      ],
      [
        "▁undvika",
        -9.920815076808132
      ],
      [
        "▁timme",
        -9.921015102570125
      ],
      [
        "använt",
        -9.922273113734414
      ],
      [
        "chef",
        -9.922832047597616
      ],
      [
        "▁bar",
        -9.923164818980677
      ],
      [
        "▁koll",
        -9.923912001031471
      ],
      [
        "▁Fast",
        -9.925009573209504
      ],
      [
        "▁serie",
        -9.925225114159211
      ],
      [
        "▁period",
        -9.925995874765077
      ],
      [
        "▁lagt",
        -9.927380688607062
      ],
      [
        "▁princip",
        -9.927623236932783
      ],
      [
        "▁Över",
        -9.927966636151938
      ],
      [
        "skap",
        -9.928140544673198
      ],
      [
        "ca",
        -9.928396249183647
      ],
      [
        "▁Pro",
        -9.928418472841111
      ],
      [
        "▁förekomm",
        -9.92869934277898
      ],
      [
        "pass",
        -9.929772188142598
      ],
      [
        "▁huvudet",
        -9.930369697866528
      ],
      [
        "▁lördag",
        -9.931030375303461
      ],
      [
        "▁öppen",
        -9.931410749981035
      ],
      [
        "▁idé",
        -9.931486440691279
      ],
      [
        "köper",
        -9.932471503814357
      ],
      [
        "▁lägenhet",
        -9.932809627925899
      ],
      [
        "▁Fredrik",
        -9.933042138982874
      ],
      [
        "▁Wi",
        -9.933079395183682
      ],
      [
        "▁grader",
        -9.933181356487774
      ],
      [
        "antingen",
        -9.935116708029005
      ],
      [
        "▁nåt",
        -9.935932465486138
      ],
      [
        "klarar",
        -9.936261156305802
      ],
      [
        "hem",
        -9.93665622355142
      ],
      [
        "växer",
        -9.936918599632026
      ],
      [
        "▁Köp",
        -9.937722982729156
      ],
      [
        "▁fredag",
        -9.9382147445175
      ],
      [
        "▁mil",
        -9.939181000699
      ],
      [
        "▁njuta",
        -9.939420336754258
      ],
      [
        "▁väder",
        -9.93991234293721
      ],
      [
        "▁internationella",
        -9.940663477937523
      ],
      [
        "▁matcher",
        -9.940749367421331
      ],
      [
        "▁mår",
        -9.942463534662798
      ],
      [
        "hänt",
        -9.943823274634683
      ],
      [
        "▁Visst",
        -9.944602999819443
      ],
      [
        "mål",
        -9.944727490253694
      ],
      [
        "ernas",
        -9.944831168377421
      ],
      [
        "▁partner",
        -9.945502490600731
      ],
      [
        "kallade",
        -9.945503836365791
      ],
      [
        "▁fantastiska",
        -9.945971735239315
      ],
      [
        "annorlunda",
        -9.946740585761669
      ],
      [
        "▁enkla",
        -9.947236456355334
      ],
      [
        "▁uppdatera",
        -9.947710562120065
      ],
      [
        "räcker",
        -9.947803248467384
      ],
      [
        "väg",
        -9.948011448826701
      ],
      [
        "ism",
        -9.948046443201388
      ],
      [
        "▁Fråga",
        -9.948306779406387
      ],
      [
        "eleverna",
        -9.949375959029494
      ],
      [
        "▁post",
        -9.949761664061825
      ],
      [
        "▁Nya",
        -9.949784861480483
      ],
      [
        "varor",
        -9.950002664990032
      ],
      [
        "▁polis",
        -9.950237378520281
      ],
      [
        "▁test",
        -9.950437980091763
      ],
      [
        "▁kostnader",
        -9.951967271972999
      ],
      [
        "▁bloggen",
        -9.952600611076903
      ],
      [
        "▁promenad",
        -9.952628801632102
      ],
      [
        "▁guld",
        -9.95274736510595
      ],
      [
        "▁längs",
        -9.952819323071678
      ],
      [
        "▁kommuner",
        -9.953506727521736
      ],
      [
        "▁drabba",
        -9.954020960281122
      ],
      [
        "sam",
        -9.955372675058115
      ],
      [
        "▁roliga",
        -9.95575077172384
      ],
      [
        "ökat",
        -9.955985104872632
      ],
      [
        "lyckades",
        -9.95603788240375
      ],
      [
        "▁Använd",
        -9.958890969255886
      ],
      [
        "▁omdöme",
        -9.959019596904676
      ],
      [
        "▁förmåga",
        -9.959857578511643
      ],
      [
        "▁samhälls",
        -9.960130543501633
      ],
      [
        "🙂",
        -9.96032803602074
      ],
      [
        "▁Finland",
        -9.960534806341492
      ],
      [
        "▁låna",
        -9.960665328962735
      ],
      [
        "▁Sätt",
        -9.960899485995485
      ],
      [
        "▁försäljning",
        -9.960961051414039
      ],
      [
        "▁slag",
        -9.961043480199763
      ],
      [
        "▁budget",
        -9.961184673192319
      ],
      [
        "▁tala",
        -9.961290300805475
      ],
      [
        "▁värld",
        -9.961547239540922
      ],
      [
        "▁situation",
        -9.962010276612254
      ],
      [
        "▁ansökan",
        -9.962114120135439
      ],
      [
        "▁cykel",
        -9.962315521980702
      ],
      [
        "▁söndag",
        -9.962959917878308
      ],
      [
        "någonting",
        -9.9630416120137
      ],
      [
        "▁Välj",
        -9.963680862427253
      ],
      [
        "▁samhälle",
        -9.964221731235936
      ],
      [
        "▁Jan",
        -9.964436565154939
      ],
      [
        "▁vacker",
        -9.964489143350056
      ],
      [
        "▁högst",
        -9.966459892016857
      ],
      [
        "▁spår",
        -9.966521854701439
      ],
      [
        "▁blå",
        -9.966590149532795
      ],
      [
        "körde",
        -9.966595087704562
      ],
      [
        "▁satte",
        -9.967109920939084
      ],
      [
        "▁Tre",
        -9.967685048112964
      ],
      [
        "▁givet",
        -9.968279903150718
      ],
      [
        "bild",
        -9.968833732895574
      ],
      [
        "▁datorn",
        -9.969216753837214
      ],
      [
        "du",
        -9.971136203542335
      ],
      [
        "▁orsaka",
        -9.971822515564288
      ],
      [
        "▁plus",
        -9.972746828942002
      ],
      [
        "▁styr",
        -9.97411081810173
      ],
      [
        "▁bas",
        -9.975182490193106
      ],
      [
        "▁Mat",
        -9.975924622977834
      ],
      [
        "▁rolig",
        -9.9760808081989
      ],
      [
        "möta",
        -9.97654884425828
      ],
      [
        "känt",
        -9.977799455758692
      ],
      [
        "rik",
        -9.978059333661335
      ],
      [
        "▁Bland",
        -9.978270068418697
      ],
      [
        "▁himla",
        -9.978948712117717
      ],
      [
        "▁riktig",
        -9.979112610502263
      ],
      [
        "▁avsluta",
        -9.979133769862033
      ],
      [
        "kunskaper",
        -9.979159417878277
      ],
      [
        "▁hot",
        -9.97958541925961
      ],
      [
        "▁enskild",
        -9.979688928498058
      ],
      [
        "▁bilar",
        -9.979957243321033
      ],
      [
        "▁må",
        -9.981762027803768
      ],
      [
        "anses",
        -9.982134088936172
      ],
      [
        "▁lösning",
        -9.982194932563642
      ],
      [
        "▁video",
        -9.98270994255916
      ],
      [
        "finner",
        -9.983244045800317
      ],
      [
        "▁tillväxt",
        -9.986080003136259
      ],
      [
        "nivå",
        -9.98622624939914
      ],
      [
        "▁Skåne",
        -9.986750369726579
      ],
      [
        "årets",
        -9.988281684787466
      ],
      [
        "▁sjukdom",
        -9.988290326392312
      ],
      [
        "én",
        -9.9885429068417
      ],
      [
        "slag",
        -9.989070205466362
      ],
      [
        "skor",
        -9.989427197863904
      ],
      [
        "▁Mo",
        -9.989636396247224
      ],
      [
        "▁ME",
        -9.989899818453488
      ],
      [
        "▁klicka",
        -9.99003438931203
      ],
      [
        "▁Lo",
        -9.991928055206937
      ],
      [
        "▁Först",
        -9.991965346513677
      ],
      [
        "sch",
        -9.993253211687765
      ],
      [
        "▁All",
        -9.99432282911374
      ],
      [
        "▁människa",
        -9.994664551541653
      ],
      [
        "▁frukt",
        -9.995289633724129
      ],
      [
        "pengarna",
        -9.995749672453202
      ],
      [
        "▁IT",
        -9.996221981166173
      ],
      [
        "▁modell",
        -9.997264159476693
      ],
      [
        "lade",
        -9.999432340862692
      ],
      [
        "▁global",
        -10.000090042246368
      ],
      [
        "▁miljarder",
        -10.00130636301529
      ],
      [
        "▁rättigheter",
        -10.002023931870433
      ],
      [
        "▁bedriv",
        -10.00242847314654
      ],
      [
        "▁Erik",
        -10.002793726844272
      ],
      [
        "▁dels",
        -10.002928644376096
      ],
      [
        "pris",
        -10.003849890524128
      ],
      [
        "▁OK",
        -10.00404227380449
      ],
      [
        "▁Andra",
        -10.00435214071817
      ],
      [
        "▁intresserad",
        -10.004764954009627
      ],
      [
        "▁norr",
        -10.00656302439716
      ],
      [
        "▁allmänhet",
        -10.006866597705855
      ],
      [
        "▁lön",
        -10.007134006800307
      ],
      [
        "▁medlem",
        -10.007586906651573
      ],
      [
        "▁gett",
        -10.00850079150805
      ],
      [
        "såklart",
        -10.009700170979704
      ],
      [
        "▁öppet",
        -10.010127690219958
      ],
      [
        "▁stolt",
        -10.010250947916738
      ],
      [
        "ökade",
        -10.011368674755673
      ],
      [
        "▁räkna",
        -10.0118502729691
      ],
      [
        "JL",
        -10.01298123507356
      ],
      [
        "▁special",
        -10.013363221185992
      ],
      [
        "▁utbud",
        -10.013519451623553
      ],
      [
        "▁samla",
        -10.013964693837817
      ],
      [
        "tillgängliga",
        -10.015666932714014
      ],
      [
        "▁köpt",
        -10.015930948218214
      ],
      [
        "▁Johansson",
        -10.015959878182167
      ],
      [
        "▁säkra",
        -10.016270504703973
      ],
      [
        "vända",
        -10.016882862648588
      ],
      [
        "▁svåra",
        -10.01692818364487
      ],
      [
        "numera",
        -10.017395698421259
      ],
      [
        "▁bred",
        -10.017537194189192
      ],
      [
        "▁slog",
        -10.017891087106213
      ],
      [
        "▁Martin",
        -10.01876623221023
      ],
      [
        "liggande",
        -10.01886877944204
      ],
      [
        "modligen",
        -10.019307972027095
      ],
      [
        "Vilka",
        -10.019812531169054
      ],
      [
        "▁förhållande",
        -10.01986637370733
      ],
      [
        "▁sällan",
        -10.019959853148466
      ],
      [
        "Tack",
        -10.020074927974997
      ],
      [
        "▁restaurang",
        -10.020590921911571
      ],
      [
        "▁säljer",
        -10.020713472386655
      ],
      [
        "▁våld",
        -10.021316577086482
      ],
      [
        "sjö",
        -10.021332902342671
      ],
      [
        "sättet",
        -10.021568223876509
      ],
      [
        "dal",
        -10.021990566793619
      ],
      [
        "U",
        -10.02200061611574
      ],
      [
        "Vissa",
        -10.022452893077368
      ],
      [
        "▁offentlig",
        -10.022857316725826
      ],
      [
        "▁skydda",
        -10.023028158803067
      ],
      [
        "Igår",
        -10.02318801007164
      ],
      [
        "band",
        -10.023437709302238
      ],
      [
        "▁missa",
        -10.02424555789009
      ],
      [
        "▁medier",
        -10.024308819314935
      ],
      [
        "▁dv",
        -10.024644336980254
      ],
      [
        "ster",
        -10.025263707484791
      ],
      [
        "▁Hem",
        -10.025648865712096
      ],
      [
        "gar",
        -10.026210703714844
      ],
      [
        "▁föreslå",
        -10.02642661531447
      ],
      [
        "tro",
        -10.026633478517262
      ],
      [
        "åtminston",
        -10.026848632524143
      ],
      [
        "▁säsong",
        -10.027080231441781
      ],
      [
        "bjuder",
        -10.028221822646884
      ],
      [
        "▁måndag",
        -10.028523611493348
      ],
      [
        "resa",
        -10.029375697383365
      ],
      [
        "▁förvänta",
        -10.029949613544655
      ],
      [
        "▁Din",
        -10.03013688115513
      ],
      [
        "▁tjej",
        -10.031528139392375
      ],
      [
        "▁patienter",
        -10.031621318033729
      ],
      [
        "relativt",
        -10.03201362275661
      ],
      [
        "risken",
        -10.032170332966391
      ],
      [
        "tes",
        -10.033901215783196
      ],
      [
        "ämre",
        -10.034649542410579
      ],
      [
        "▁omdömet",
        -10.034732291313572
      ],
      [
        "▁förklara",
        -10.034862936186693
      ],
      [
        "▁Bli",
        -10.034961569629102
      ],
      [
        "▁djup",
        -10.036336082126308
      ],
      [
        "▁Dock",
        -10.036992978534327
      ],
      [
        "▁Hos",
        -10.037085762069784
      ],
      [
        "igen",
        -10.03786251924843
      ],
      [
        "▁blod",
        -10.038978175111989
      ],
      [
        "ang",
        -10.038986790983467
      ],
      [
        "▁glöm",
        -10.039112262849173
      ],
      [
        "ADRESS",
        -10.039196537130877
      ],
      [
        "▁besluta",
        -10.039519360381433
      ],
      [
        "▁Gör",
        -10.040153518097055
      ],
      [
        "mötet",
        -10.040435194041363
      ],
      [
        "▁havet",
        -10.040798615762759
      ],
      [
        "▁lösningar",
        -10.040849664006272
      ],
      [
        "ställen",
        -10.041555275548099
      ],
      [
        "X",
        -10.041680909460496
      ],
      [
        "gång",
        -10.041820727441486
      ],
      [
        "dagen",
        -10.042626794857368
      ],
      [
        "▁oro",
        -10.04315050785276
      ],
      [
        "ll",
        -10.043285500721243
      ],
      [
        "här",
        -10.04354391625
      ],
      [
        "▁alkohol",
        -10.043901668509237
      ],
      [
        "▁brev",
        -10.043937374288527
      ],
      [
        "http",
        -10.044277695209878
      ],
      [
        "▁haha",
        -10.044495801666415
      ],
      [
        "tjänst",
        -10.044996517269027
      ],
      [
        "ol",
        -10.045577320397715
      ],
      [
        "aktuella",
        -10.04643142949889
      ],
      [
        "▁bi",
        -10.046459334501197
      ],
      [
        "▁mitten",
        -10.046487669832258
      ],
      [
        "▁ges",
        -10.04651027541841
      ],
      [
        "▁satsa",
        -10.047094195168736
      ],
      [
        "omfattande",
        -10.047410889443029
      ],
      [
        "▁inkludera",
        -10.048451571142659
      ],
      [
        "fritt",
        -10.048479405473657
      ],
      [
        "bolag",
        -10.04884903428373
      ],
      [
        "ck",
        -10.048958848872575
      ],
      [
        "behövde",
        -10.049007042638815
      ],
      [
        "Våra",
        -10.049635638063931
      ],
      [
        "▁Tyskland",
        -10.04972222403517
      ],
      [
        "▁trevligt",
        -10.050118588345637
      ],
      [
        "▁sten",
        -10.050167522183736
      ],
      [
        "träffar",
        -10.050540948355565
      ],
      [
        "▁by",
        -10.050615605712252
      ],
      [
        "produkter",
        -10.050617430797521
      ],
      [
        "▁bakgrund",
        -10.050691293172198
      ],
      [
        "jag",
        -10.051787271015368
      ],
      [
        "Förutom",
        -10.05219104528741
      ],
      [
        "lyckats",
        -10.052297875748506
      ],
      [
        "▁välkomna",
        -10.0524444434979
      ],
      [
        "▁amerikanska",
        -10.053451825469125
      ],
      [
        "▁kontrollera",
        -10.05347684482972
      ],
      [
        "▁förändring",
        -10.053767374445698
      ],
      [
        "ba",
        -10.056207688330817
      ],
      [
        "huden",
        -10.057427698057067
      ],
      [
        "lämnade",
        -10.058364531516638
      ],
      [
        "ju",
        -10.058933168627854
      ],
      [
        "▁Örebro",
        -10.061248910572036
      ],
      [
        "uppgifter",
        -10.061818354581234
      ],
      [
        "ko",
        -10.062576157090835
      ],
      [
        "▁möte",
        -10.062880164475528
      ],
      [
        "▁normalt",
        -10.06362807474897
      ],
      [
        "▁Norge",
        -10.06369677928946
      ],
      [
        "▁acceptera",
        -10.063743492263466
      ],
      [
        "▁positiv",
        -10.064645289682264
      ],
      [
        "▁Lag",
        -10.064903059981418
      ],
      [
        "▁www",
        -10.06544972593362
      ],
      [
        "▁makt",
        -10.065475014634782
      ],
      [
        "ordentligt",
        -10.065632444598819
      ],
      [
        "yngre",
        -10.06660342692679
      ],
      [
        "möjliga",
        -10.066658045611188
      ],
      [
        "klare",
        -10.068094723071939
      ],
      [
        "▁besöka",
        -10.068254978512224
      ],
      [
        "▁konto",
        -10.06911098704788
      ],
      [
        "▁fa",
        -10.069254172891878
      ],
      [
        "ständigt",
        -10.070157895704371
      ],
      [
        "▁utnyttja",
        -10.070851903059442
      ],
      [
        "Skulle",
        -10.070884589242597
      ],
      [
        "rådet",
        -10.07113472699455
      ],
      [
        "▁Pa",
        -10.071398098629922
      ],
      [
        "▁betalar",
        -10.072571416852687
      ],
      [
        "up",
        -10.073292744722737
      ],
      [
        "ros",
        -10.0756831754677
      ],
      [
        "▁Bil",
        -10.076379938336368
      ],
      [
        "▁modern",
        -10.077545380136554
      ],
      [
        "▁morgonen",
        -10.077707490137861
      ],
      [
        "▁följd",
        -10.080491335716127
      ],
      [
        "▁uppnå",
        -10.081096179142431
      ],
      [
        "▁Hade",
        -10.082387333861956
      ],
      [
        "▁Själv",
        -10.083233149888633
      ],
      [
        "titeln",
        -10.083807983654797
      ],
      [
        "▁utföra",
        -10.084005634302725
      ],
      [
        "▁Vet",
        -10.084620630069091
      ],
      [
        "▁tillfälle",
        -10.085233286496246
      ],
      [
        "▁varm",
        -10.085444194040425
      ],
      [
        "tekniska",
        -10.08578139219799
      ],
      [
        "nes",
        -10.086020744775276
      ],
      [
        "▁tuff",
        -10.086574961554009
      ],
      [
        "▁stress",
        -10.087030528186554
      ],
      [
        "slår",
        -10.08759034997743
      ],
      [
        "▁garantera",
        -10.087676506995628
      ],
      [
        "▁rummet",
        -10.090568467276146
      ],
      [
        "▁sjukhus",
        -10.09098383275843
      ],
      [
        "▁nyligen",
        -10.092081965078618
      ],
      [
        "▁fundera",
        -10.092154173645934
      ],
      [
        "▁Nästa",
        -10.093776016301131
      ],
      [
        "▁ställe",
        -10.094642691697453
      ],
      [
        "processen",
        -10.096334061903246
      ],
      [
        "▁glädje",
        -10.097627008895223
      ],
      [
        "▁Le",
        -10.09767922459199
      ],
      [
        "▁ersättning",
        -10.098357854353818
      ],
      [
        "▁slags",
        -10.09860330704162
      ],
      [
        "▁pro",
        -10.098875179819224
      ],
      [
        "▁Berg",
        -10.099042042160027
      ],
      [
        "▁inlägget",
        -10.09950447566828
      ],
      [
        "▁Google",
        -10.099667129203764
      ],
      [
        "▁tvinga",
        -10.100130337299616
      ],
      [
        "erar",
        -10.100166541919123
      ],
      [
        "▁fixa",
        -10.100394885448814
      ],
      [
        "▁plast",
        -10.100719711527232
      ],
      [
        "har",
        -10.10082096976114
      ],
      [
        "▁Nord",
        -10.102434710636443
      ],
      [
        "▁röst",
        -10.105613238134138
      ],
      [
        "▁görs",
        -10.105653969784978
      ],
      [
        "möten",
        -10.105688799261673
      ],
      [
        "▁Sam",
        -10.105712530883174
      ],
      [
        "tog",
        -10.10595518610031
      ],
      [
        "gemensamma",
        -10.10602260214311
      ],
      [
        "vid",
        -10.10633894503566
      ],
      [
        "kombinera",
        -10.106996952679348
      ],
      [
        "planen",
        -10.107012990194535
      ],
      [
        "han",
        -10.10808089220765
      ],
      [
        "▁Anmäl",
        -10.108459021132333
      ],
      [
        "▁rekommenderar",
        -10.10858892533811
      ],
      [
        "▁ses",
        -10.109080030902954
      ],
      [
        "▁studier",
        -10.10912842234399
      ],
      [
        "▁gäst",
        -10.109784798727883
      ],
      [
        "www",
        -10.110000213613649
      ],
      [
        "▁Lägg",
        -10.110652961328126
      ],
      [
        "▁butik",
        -10.11132016728997
      ],
      [
        "avgörande",
        -10.112581617964
      ],
      [
        "▁tvung",
        -10.113127032587315
      ],
      [
        "träffade",
        -10.113655350230358
      ],
      [
        "he",
        -10.114962207856186
      ],
      [
        "▁ringa",
        -10.115272984176318
      ],
      [
        "allmänna",
        -10.115634703542462
      ],
      [
        "▁centrala",
        -10.115676506735968
      ],
      [
        "▁foto",
        -10.116488027512824
      ],
      [
        "löst",
        -10.1164954310858
      ],
      [
        "▁utomhus",
        -10.11650894626818
      ],
      [
        "▁förut",
        -10.116789974643572
      ],
      [
        "ran",
        -10.117707813629258
      ],
      [
        "startade",
        -10.117990180143002
      ],
      [
        "▁Z",
        -10.118454439055235
      ],
      [
        "▁organisation",
        -10.118493696181833
      ],
      [
        "▁snygg",
        -10.118975838237366
      ],
      [
        "▁Carl",
        -10.119753262316738
      ],
      [
        "▁jorden",
        -10.1203363517092
      ],
      [
        "else",
        -10.121254401182949
      ],
      [
        "bestämt",
        -10.121340768996582
      ],
      [
        "▁jord",
        -10.122354214511942
      ],
      [
        "▁socker",
        -10.123235407473954
      ],
      [
        "vik",
        -10.123629059685195
      ],
      [
        "minns",
        -10.123733511151599
      ],
      [
        "▁No",
        -10.123861801487223
      ],
      [
        "▁inklusiv",
        -10.12434313435254
      ],
      [
        "▁översättning",
        -10.125343249505015
      ],
      [
        "▁undan",
        -10.125522452666164
      ],
      [
        "▁Inga",
        -10.12577518096791
      ],
      [
        "motsvarande",
        -10.12608770078085
      ],
      [
        "▁avseende",
        -10.12678623979562
      ],
      [
        "En",
        -10.12779637219656
      ],
      [
        "ret",
        -10.127827724801527
      ],
      [
        "befinner",
        -10.127919559627802
      ],
      [
        "förbundet",
        -10.128248766165255
      ],
      [
        "▁Ju",
        -10.128282779755075
      ],
      [
        "▁kyrkan",
        -10.128638230413006
      ],
      [
        "▁starka",
        -10.128798098591519
      ],
      [
        "mon",
        -10.129392321550478
      ],
      [
        "organisationen",
        -10.129831123503251
      ],
      [
        "▁Me",
        -10.130063594705014
      ],
      [
        "▁Bild",
        -10.130909205540325
      ],
      [
        "▁problemet",
        -10.130932839971871
      ],
      [
        "▁dyr",
        -10.13135331471748
      ],
      [
        "ock",
        -10.132127339267754
      ],
      [
        "ung",
        -10.134411442822124
      ],
      [
        "▁Första",
        -10.13513350283076
      ],
      [
        "▁mån",
        -10.136015805794052
      ],
      [
        "▁bio",
        -10.13624231504392
      ],
      [
        "▁fisk",
        -10.13680141864706
      ],
      [
        "bi",
        -10.136840170974544
      ],
      [
        "▁livs",
        -10.138624097381598
      ],
      [
        "go",
        -10.13871185234343
      ],
      [
        "op",
        -10.139268849320441
      ],
      [
        "▁politiker",
        -10.13943180732858
      ],
      [
        "▁choklad",
        -10.139902426628575
      ],
      [
        "näs",
        -10.139984103830303
      ],
      [
        "▁båt",
        -10.140279384880694
      ],
      [
        "▁skatte",
        -10.14099715841121
      ],
      [
        "▁snabba",
        -10.14170691052922
      ],
      [
        "teknik",
        -10.142601872561276
      ],
      [
        "link",
        -10.142738130571948
      ],
      [
        "▁tjejer",
        -10.143016767024449
      ],
      [
        "område",
        -10.143611767481605
      ],
      [
        "svarade",
        -10.143762797944152
      ],
      [
        "vatten",
        -10.143974325639286
      ],
      [
        "▁grupper",
        -10.144329816540791
      ],
      [
        "lev",
        -10.144779108081282
      ],
      [
        "▁förändringar",
        -10.144886762665417
      ],
      [
        "snabbare",
        -10.145248263958704
      ],
      [
        "situationen",
        -10.146137996921736
      ],
      [
        "▁läkemedel",
        -10.146550555349515
      ],
      [
        "▁Vem",
        -10.146568826275908
      ],
      [
        "▁kök",
        -10.146580527527474
      ],
      [
        "▁fot",
        -10.146830671132015
      ],
      [
        "idéer",
        -10.146974872713438
      ],
      [
        "▁tal",
        -10.147506684434386
      ],
      [
        "visat",
        -10.147664717830933
      ],
      [
        "känslan",
        -10.148113627575546
      ],
      [
        "▁använde",
        -10.149078841459401
      ],
      [
        "berättade",
        -10.149665359784635
      ],
      [
        "▁stycken",
        -10.149813447043579
      ],
      [
        "▁Dom",
        -10.150766861026863
      ],
      [
        "▁röd",
        -10.151478695536891
      ],
      [
        "▁inspiration",
        -10.151939947259722
      ],
      [
        "center",
        -10.152133586968526
      ],
      [
        "▁Få",
        -10.152628127892541
      ],
      [
        "grupp",
        -10.152827484863936
      ],
      [
        "▁rygg",
        -10.153607460318504
      ],
      [
        "▁Internet",
        -10.153731409368639
      ],
      [
        "▁världs",
        -10.15382837435033
      ],
      [
        "▁magen",
        -10.154041769994077
      ],
      [
        "▁Stor",
        -10.155180280276145
      ],
      [
        "▁träd",
        -10.1551835328164
      ],
      [
        "▁upplevelse",
        -10.155380421829042
      ],
      [
        "ul",
        -10.155858722152098
      ],
      [
        "▁jämföra",
        -10.156508676413482
      ],
      [
        "fylla",
        -10.156824963090482
      ],
      [
        "▁sväng",
        -10.156928065703115
      ],
      [
        "▁hänsyn",
        -10.156978122326386
      ],
      [
        "ång",
        -10.15793083517857
      ],
      [
        "▁skön",
        -10.158077708519146
      ],
      [
        "▁media",
        -10.158164917326403
      ],
      [
        "ting",
        -10.158796735875917
      ],
      [
        "▁transport",
        -10.15934216807361
      ],
      [
        "▁digitala",
        -10.159775075094272
      ],
      [
        "▁koppla",
        -10.160084560191134
      ],
      [
        "▁Er",
        -10.160132243420465
      ],
      [
        "▁Ka",
        -10.160628060850964
      ],
      [
        "▁användare",
        -10.160870748516855
      ],
      [
        "▁fett",
        -10.161383721285848
      ],
      [
        "▁illa",
        -10.16170572186479
      ],
      [
        "▁nummer",
        -10.161745461252345
      ],
      [
        "bilderna",
        -10.162638565358225
      ],
      [
        "chansen",
        -10.162913603941595
      ],
      [
        "▁Stefan",
        -10.163158733389585
      ],
      [
        "värre",
        -10.16336964521816
      ],
      [
        "▁ämnen",
        -10.1640673327205
      ],
      [
        "konstigt",
        -10.164788969144425
      ],
      [
        "beskriver",
        -10.165459154940919
      ],
      [
        "▁kon",
        -10.165715176604246
      ],
      [
        "▁Någon",
        -10.16599088942785
      ],
      [
        "▁erbjud",
        -10.167553790317072
      ],
      [
        "▁röda",
        -10.16760172694999
      ],
      [
        "skrevs",
        -10.167631195382823
      ],
      [
        "▁SVT",
        -10.167667518596494
      ],
      [
        "sida",
        -10.167852106876914
      ],
      [
        "▁fyller",
        -10.167986121798018
      ],
      [
        "▁grad",
        -10.168056210316339
      ],
      [
        "partiet",
        -10.168266483111022
      ],
      [
        "▁resurser",
        -10.168276079771301
      ],
      [
        "▁kombination",
        -10.168597283385711
      ],
      [
        "▁Sol",
        -10.169101150364344
      ],
      [
        "▁katt",
        -10.169999736958797
      ],
      [
        "▁utför",
        -10.17021810877947
      ],
      [
        "par",
        -10.17071431193851
      ],
      [
        "lo",
        -10.171214714201254
      ],
      [
        "▁vila",
        -10.171252640380901
      ],
      [
        "▁beställa",
        -10.171703128587026
      ],
      [
        "nödvändigt",
        -10.171767178120858
      ],
      [
        "▁ägg",
        -10.17182432644901
      ],
      [
        "lån",
        -10.172327324753141
      ],
      [
        "▁Fri",
        -10.173338485049213
      ],
      [
        "visas",
        -10.175967568016496
      ],
      [
        "▁hundra",
        -10.175981182774247
      ],
      [
        "▁brist",
        -10.176089025589386
      ],
      [
        "lösa",
        -10.176178993792647
      ],
      [
        "möjligheten",
        -10.176786240987264
      ],
      [
        "li",
        -10.177021020995623
      ],
      [
        "▁sån",
        -10.177306426355075
      ],
      [
        "bra",
        -10.17754600456217
      ],
      [
        "▁säng",
        -10.177865547055827
      ],
      [
        "tion",
        -10.177904851996265
      ],
      [
        "▁dejta",
        -10.178032618591306
      ],
      [
        "▁rädda",
        -10.178060758039713
      ],
      [
        "priserna",
        -10.178640411410221
      ],
      [
        "▁funktioner",
        -10.178800663279738
      ],
      [
        "▁Val",
        -10.178928625997246
      ],
      [
        "ordet",
        -10.179362128819792
      ],
      [
        "▁naturen",
        -10.179548603355975
      ],
      [
        "▁värd",
        -10.17968895033464
      ],
      [
        "▁korrekt",
        -10.18063161276768
      ],
      [
        "blad",
        -10.180742702228894
      ],
      [
        "funnits",
        -10.181366387777942
      ],
      [
        "▁tecken",
        -10.182064348476807
      ],
      [
        "andet",
        -10.182090959648503
      ],
      [
        "▁omöjlig",
        -10.182411856369098
      ],
      [
        "▁skogen",
        -10.182498249734063
      ],
      [
        "▁regel",
        -10.182777885440675
      ],
      [
        "▁plocka",
        -10.183064553178953
      ],
      [
        "▁klubb",
        -10.183769720057862
      ],
      [
        "kom",
        -10.183975532527594
      ],
      [
        "▁kapital",
        -10.184167494406257
      ],
      [
        "nationella",
        -10.184756237375002
      ],
      [
        "▁Svensk",
        -10.185022855546093
      ],
      [
        "ingen",
        -10.18554029829557
      ],
      [
        "▁ung",
        -10.185648942130143
      ],
      [
        "▁fart",
        -10.185681263662639
      ],
      [
        "▁hittill",
        -10.1858990369331
      ],
      [
        "▁tjänst",
        -10.186472878092516
      ],
      [
        "▁Nilsson",
        -10.187914122044884
      ],
      [
        "▁redo",
        -10.188537028431684
      ],
      [
        "Omdöme",
        -10.188767790061693
      ],
      [
        "▁buss",
        -10.189100277281316
      ],
      [
        "▁Del",
        -10.18912282753615
      ],
      [
        "påverkar",
        -10.189504071068985
      ],
      [
        "▁bedömning",
        -10.190045500277465
      ],
      [
        "positivt",
        -10.190401709846743
      ],
      [
        "butiken",
        -10.191643978673318
      ],
      [
        "dan",
        -10.191988700264162
      ],
      [
        "borg",
        -10.193075660918282
      ],
      [
        "ley",
        -10.193383868286105
      ],
      [
        "▁Spel",
        -10.193457217539807
      ],
      [
        "stöd",
        -10.193856302297922
      ],
      [
        "▁Ar",
        -10.19393990220196
      ],
      [
        "varken",
        -10.194024213939578
      ],
      [
        "▁Daniel",
        -10.195668890993103
      ],
      [
        "▁mode",
        -10.19592035313783
      ],
      [
        "▁grundläggande",
        -10.196216036902381
      ],
      [
        "▁framtid",
        -10.196330570438779
      ],
      [
        "verksamhet",
        -10.196429115984936
      ],
      [
        "▁ända",
        -10.196830156259958
      ],
      [
        "▁cookies",
        -10.197142836468409
      ],
      [
        "stället",
        -10.197317130520773
      ],
      [
        "rummet",
        -10.197947974151022
      ],
      [
        "bb",
        -10.198441049156099
      ],
      [
        "▁hamnar",
        -10.198502282240653
      ],
      [
        "▁Magnus",
        -10.19867920596075
      ],
      [
        "råd",
        -10.19931522634328
      ],
      [
        "pp",
        -10.199328311635247
      ],
      [
        "▁miss",
        -10.199971163997356
      ],
      [
        "▁mor",
        -10.200022667839528
      ],
      [
        "material",
        -10.20008120055505
      ],
      [
        "▁tränings",
        -10.200715873859263
      ],
      [
        "ber",
        -10.200743886816648
      ],
      [
        "▁långsiktig",
        -10.200967067388827
      ],
      [
        "▁ledare",
        -10.201750326199331
      ],
      [
        "▁dotter",
        -10.201908974654224
      ],
      [
        "▁fördel",
        -10.201955425287382
      ],
      [
        "erat",
        -10.202062389032555
      ],
      [
        "▁botten",
        -10.202186528700945
      ],
      [
        "Vilket",
        -10.202283189998182
      ],
      [
        "▁hävda",
        -10.202470851428995
      ],
      [
        "▁avsnitt",
        -10.203343107023393
      ],
      [
        "▁chef",
        -10.204074231003446
      ],
      [
        "▁känslor",
        -10.204132880693994
      ],
      [
        "all",
        -10.204360030786654
      ],
      [
        "▁genomför",
        -10.204373524175093
      ],
      [
        "ER",
        -10.20482051528698
      ],
      [
        "Något",
        -10.204878650218774
      ],
      [
        "▁månaden",
        -10.205907641221264
      ],
      [
        "▁mening",
        -10.207183140372463
      ],
      [
        "age",
        -10.207250371413053
      ],
      [
        "Dålig",
        -10.207561278305228
      ],
      [
        "▁driver",
        -10.208128472952968
      ],
      [
        "▁detaljer",
        -10.208956934022986
      ],
      [
        "van",
        -10.209148780726276
      ],
      [
        "glada",
        -10.20921548949699
      ],
      [
        "tanken",
        -10.209237757090822
      ],
      [
        "▁hundar",
        -10.21023858420384
      ],
      [
        "perfekta",
        -10.210740606572854
      ],
      [
        "ökning",
        -10.211306134846835
      ],
      [
        "▁Ba",
        -10.21248199016581
      ],
      [
        "fors",
        -10.212761158511094
      ],
      [
        "▁rädd",
        -10.214230532162095
      ],
      [
        "▁moderna",
        -10.214548652067466
      ],
      [
        "▁förlora",
        -10.214676934767303
      ],
      [
        "▁live",
        -10.214694225749714
      ],
      [
        "▁dating",
        -10.215100466736006
      ],
      [
        "industrin",
        -10.215345590984189
      ],
      [
        "per",
        -10.215567314918632
      ],
      [
        "medel",
        -10.216165928045893
      ],
      [
        "▁driva",
        -10.216403526076235
      ],
      [
        "▁kommunikation",
        -10.217058688516108
      ],
      [
        "▁mjölk",
        -10.21715867283445
      ],
      [
        "Å",
        -10.217220700765926
      ],
      [
        "▁brand",
        -10.21738941099848
      ],
      [
        "världen",
        -10.217866964770465
      ],
      [
        "▁ägare",
        -10.218298703089902
      ],
      [
        "uppleva",
        -10.218752011501927
      ],
      [
        "köket",
        -10.21885507465446
      ],
      [
        "▁relation",
        -10.219326056000908
      ],
      [
        "▁tillgänglig",
        -10.219414281709945
      ],
      [
        "▁kött",
        -10.219438617745976
      ],
      [
        "▁springa",
        -10.220214865525612
      ],
      [
        "håret",
        -10.220417238530327
      ],
      [
        "▁Di",
        -10.22153955014643
      ],
      [
        "▁perspektiv",
        -10.22160075053805
      ],
      [
        "yl",
        -10.22175610633223
      ],
      [
        "kul",
        -10.221907892513993
      ],
      [
        "bord",
        -10.221948388745934
      ],
      [
        "nade",
        -10.22250169161524
      ],
      [
        "▁Innan",
        -10.223077096688284
      ],
      [
        "▁svarar",
        -10.223252465417366
      ],
      [
        "▁yrkes",
        -10.22352445630099
      ],
      [
        "▁Ge",
        -10.223698579906234
      ],
      [
        "▁erbjudanden",
        -10.22373095042893
      ],
      [
        "läge",
        -10.223883815006527
      ],
      [
        "letar",
        -10.224217906082314
      ],
      [
        "▁År",
        -10.224244874826976
      ],
      [
        "▁leverans",
        -10.224566937122269
      ],
      [
        "▁affärs",
        -10.224629857166683
      ],
      [
        "▁erfarenheter",
        -10.225624856984245
      ],
      [
        "▁politik",
        -10.225654359240188
      ],
      [
        "▁bostads",
        -10.225696785758675
      ],
      [
        "▁sent",
        -10.225697680263282
      ],
      [
        "heten",
        -10.22624127405045
      ],
      [
        "▁knapp",
        -10.226429961515674
      ],
      [
        "▁stoppa",
        -10.226625618018222
      ],
      [
        "▁företags",
        -10.226884136822326
      ],
      [
        "växa",
        -10.227144018503694
      ],
      [
        "tjänster",
        -10.228260277819189
      ],
      [
        "▁paket",
        -10.228283682282488
      ],
      [
        "möter",
        -10.228287222376593
      ],
      [
        "▁känd",
        -10.2284128565827
      ],
      [
        "▁resan",
        -10.228440763748003
      ],
      [
        "ländska",
        -10.228481238869275
      ],
      [
        "▁Ma",
        -10.228853073594847
      ],
      [
        "bjöd",
        -10.229026627976493
      ],
      [
        "▁London",
        -10.229441803508811
      ],
      [
        "öppnar",
        -10.230518537015932
      ],
      [
        "▁app",
        -10.231340924076363
      ],
      [
        "▁Ro",
        -10.23174544519676
      ],
      [
        "▁underlätta",
        -10.23201885896482
      ],
      [
        "▁maten",
        -10.232380380503415
      ],
      [
        "▁kost",
        -10.23393867770051
      ],
      [
        "staten",
        -10.234321410047537
      ],
      [
        "→",
        -10.234380504850341
      ],
      [
        "met",
        -10.234418019750532
      ],
      [
        "sättning",
        -10.234612404195188
      ],
      [
        "▁rese",
        -10.23506592551724
      ],
      [
        "kallar",
        -10.236815346766637
      ],
      [
        "▁privata",
        -10.237115540601192
      ],
      [
        "▁punkt",
        -10.237304420361976
      ],
      [
        "▁döda",
        -10.238127469576787
      ],
      [
        "▁tycka",
        -10.238453132574177
      ],
      [
        "▁analys",
        -10.238516084285537
      ],
      [
        "▁fest",
        -10.239038375882393
      ],
      [
        "▁organisationer",
        -10.239788407517214
      ],
      [
        "▁passera",
        -10.240030851890234
      ],
      [
        "▁tillåt",
        -10.24069326807388
      ],
      [
        "▁restauranger",
        -10.241703954175684
      ],
      [
        "▁nätdejting",
        -10.242203140073551
      ],
      [
        "▁hopp",
        -10.243131027817691
      ],
      [
        "▁Får",
        -10.243328680811153
      ],
      [
        "▁bevis",
        -10.243523921673718
      ],
      [
        "ings",
        -10.243663898129185
      ],
      [
        "▁rapport",
        -10.243887762199009
      ],
      [
        "▁sam",
        -10.24425593424011
      ],
      [
        "▁inkomst",
        -10.244289035494651
      ],
      [
        "▁mail",
        -10.244665634197112
      ],
      [
        "▁mjuk",
        -10.244763484143935
      ],
      [
        "▁aktivt",
        -10.245290694665664
      ],
      [
        "▁hyra",
        -10.245860332919333
      ],
      [
        "ikväll",
        -10.24598321436029
      ],
      [
        "▁dubbel",
        -10.24710934889472
      ],
      [
        "spelare",
        -10.247301113395553
      ],
      [
        "▁nätverk",
        -10.247437996417512
      ],
      [
        "▁verksamheter",
        -10.247579874599243
      ],
      [
        "▁tids",
        -10.247856816541274
      ],
      [
        "klass",
        -10.248211985699609
      ],
      [
        "loppet",
        -10.248630002807579
      ],
      [
        "skatt",
        -10.248764372193522
      ],
      [
        "▁toppen",
        -10.248829783291637
      ],
      [
        "härligt",
        -10.249221876970056
      ],
      [
        "▁skydd",
        -10.250326556238795
      ],
      [
        "▁blommor",
        -10.250476221480074
      ],
      [
        "▁dans",
        -10.250961979304991
      ],
      [
        "sånt",
        -10.251312949942832
      ],
      [
        "▁Park",
        -10.251517052364354
      ],
      [
        "slagen",
        -10.25288334740264
      ],
      [
        "▁snygga",
        -10.252925642528387
      ],
      [
        "▁utbildnings",
        -10.253033923436801
      ],
      [
        "▁jämför",
        -10.253539370324036
      ],
      [
        "▁söder",
        -10.253782962771528
      ],
      [
        "▁gäng",
        -10.254022729127394
      ],
      [
        "▁nät",
        -10.25441817071196
      ],
      [
        "utbildning",
        -10.254480935065168
      ],
      [
        "▁Björn",
        -10.254768587853345
      ],
      [
        "▁Or",
        -10.254914069879755
      ],
      [
        "ong",
        -10.255119952820934
      ],
      [
        "▁undantag",
        -10.255218031299325
      ],
      [
        "▁samarbeta",
        -10.25573778442258
      ],
      [
        "▁butiker",
        -10.256476820284806
      ],
      [
        "▁fika",
        -10.25684089278657
      ],
      [
        "▁York",
        -10.257103585007448
      ],
      [
        "effektivt",
        -10.257296369100864
      ],
      [
        "▁info",
        -10.25836022182229
      ],
      [
        "dy",
        -10.258547058827718
      ],
      [
        "värde",
        -10.259225351662407
      ],
      [
        "mängder",
        -10.25949543104648
      ],
      [
        "frågade",
        -10.259577528082517
      ],
      [
        "▁vintern",
        -10.259788674858301
      ],
      [
        "befintlig",
        -10.259812166372729
      ],
      [
        "▁inre",
        -10.259882295403528
      ],
      [
        "▁negativ",
        -10.260074605206485
      ],
      [
        "vackert",
        -10.260511657930945
      ],
      [
        "myndigheten",
        -10.260967336388209
      ],
      [
        "stans",
        -10.261403284900021
      ],
      [
        "stämmer",
        -10.261658022797958
      ],
      [
        "▁allmän",
        -10.26211317281662
      ],
      [
        "akt",
        -10.262155616014839
      ],
      [
        "stått",
        -10.262258250098695
      ],
      [
        "minskar",
        -10.262301029221948
      ],
      [
        "sängen",
        -10.262660316701867
      ],
      [
        "dörren",
        -10.263374612456214
      ],
      [
        "stra",
        -10.26345902168424
      ],
      [
        "▁Bygg",
        -10.263735771504718
      ],
      [
        "▁serien",
        -10.263847212309969
      ],
      [
        "▁drift",
        -10.263874793849805
      ],
      [
        "startar",
        -10.26416400346433
      ],
      [
        "▁Danmark",
        -10.264316446253254
      ],
      [
        "▁aktiv",
        -10.264426489068637
      ],
      [
        "framförall",
        -10.264672412901756
      ],
      [
        "För",
        -10.26497421771882
      ],
      [
        "lugnt",
        -10.265301813720193
      ],
      [
        "Se",
        -10.265395511519367
      ],
      [
        "rit",
        -10.26574137288158
      ],
      [
        "▁föreningen",
        -10.265974988913813
      ],
      [
        "▁ovanlig",
        -10.266020146712094
      ],
      [
        "Z",
        -10.266524378564887
      ],
      [
        "▁uppmärksamma",
        -10.266705358398815
      ],
      [
        "▁SM",
        -10.267056294234907
      ],
      [
        "▁fakta",
        -10.268033166550298
      ],
      [
        "granskar",
        -10.268072763096175
      ],
      [
        "närvarande",
        -10.268627898679778
      ],
      [
        "▁tider",
        -10.268667192016567
      ],
      [
        "rad",
        -10.270357867966913
      ],
      [
        "bilder",
        -10.270855715910068
      ],
      [
        "▁rörelse",
        -10.271061472855708
      ],
      [
        "rätten",
        -10.271081769963851
      ],
      [
        "information",
        -10.271434148167652
      ],
      [
        "kursen",
        -10.271622846653631
      ],
      [
        "▁ton",
        -10.273150504805999
      ],
      [
        "▁insatser",
        -10.273192448942975
      ],
      [
        "skola",
        -10.273326455027775
      ],
      [
        "est",
        -10.27350198914175
      ],
      [
        "▁dröm",
        -10.273680979547422
      ],
      [
        "▁underbara",
        -10.273771259458021
      ],
      [
        "full",
        -10.274518317330994
      ],
      [
        "▁Skriv",
        -10.274572918391641
      ],
      [
        "dla",
        -10.274774273145763
      ],
      [
        "projekt",
        -10.27498039167789
      ],
      [
        "▁vitt",
        -10.275640686648025
      ],
      [
        "▁läste",
        -10.27593723202966
      ],
      [
        "tan",
        -10.276550777767543
      ],
      [
        "▁datum",
        -10.27673018386811
      ],
      [
        "orkar",
        -10.276764868156299
      ],
      [
        "ok",
        -10.276828648234217
      ],
      [
        "▁process",
        -10.276913243806488
      ],
      [
        "▁San",
        -10.277410224548627
      ],
      [
        "▁unik",
        -10.277576636310787
      ],
      [
        "framtida",
        -10.278244098208955
      ],
      [
        "▁öl",
        -10.278432347641965
      ],
      [
        "ho",
        -10.279059140398
      ],
      [
        "▁säg",
        -10.27920085785714
      ],
      [
        "▁fotboll",
        -10.280210108272486
      ],
      [
        "▁John",
        -10.281032593352752
      ],
      [
        "▁band",
        -10.281705990237441
      ],
      [
        "skilda",
        -10.282343442554701
      ],
      [
        "▁David",
        -10.282811771928182
      ],
      [
        "unika",
        -10.283048725974204
      ],
      [
        "lighet",
        -10.283472526894123
      ],
      [
        "Y",
        -10.283529103714267
      ],
      [
        "nat",
        -10.28416641743248
      ],
      [
        "▁våga",
        -10.284549740773105
      ],
      [
        "▁tillfällen",
        -10.284587491062654
      ],
      [
        "▁undersökning",
        -10.284712121160595
      ],
      [
        "▁utrymme",
        -10.285060363622035
      ],
      [
        "beslutet",
        -10.28587931834517
      ],
      [
        "områden",
        -10.286043016339004
      ],
      [
        "▁underbar",
        -10.286104036546483
      ],
      [
        "service",
        -10.286218750608219
      ],
      [
        "▁familje",
        -10.28629861234976
      ],
      [
        "▁Ek",
        -10.286315004472726
      ],
      [
        "▁jakt",
        -10.286478209147788
      ],
      [
        "tävlingen",
        -10.286609802017486
      ],
      [
        "vinner",
        -10.287551226074612
      ],
      [
        "politiken",
        -10.28789369122764
      ],
      [
        "▁släpp",
        -10.287925725086652
      ],
      [
        "▁slutar",
        -10.288105048139952
      ],
      [
        "qvist",
        -10.288539875308684
      ],
      [
        "▁möjlig",
        -10.289251988499414
      ],
      [
        "frågor",
        -10.290162947167124
      ],
      [
        "▁anti",
        -10.290629951380707
      ],
      [
        "föreningen",
        -10.290710467368262
      ],
      [
        "ledes",
        -10.291635628572845
      ],
      [
        "positiva",
        -10.291798046585045
      ],
      [
        "▁Ryssland",
        -10.292026957859939
      ],
      [
        "jä",
        -10.29203895450638
      ],
      [
        "▁vardag",
        -10.292558046077115
      ],
      [
        "▁reklam",
        -10.292683308411865
      ],
      [
        "▁myndigheter",
        -10.29352531681669
      ],
      [
        "▁fira",
        -10.293658733914526
      ],
      [
        "▁Hela",
        -10.295025558182273
      ],
      [
        "▁tidningen",
        -10.295105739527399
      ],
      [
        "▁Frankrike",
        -10.295680931098671
      ],
      [
        "längst",
        -10.295958902903275
      ],
      [
        "▁Umeå",
        -10.296156233423085
      ],
      [
        "jobbigt",
        -10.29676014104344
      ],
      [
        "tals",
        -10.29698890009091
      ],
      [
        "Både",
        -10.297187504693902
      ],
      [
        "▁definitiv",
        -10.297684954906323
      ],
      [
        "▁filmer",
        -10.297916688379857
      ],
      [
        "▁extremt",
        -10.297920033063033
      ],
      [
        "▁bära",
        -10.298216919694347
      ],
      [
        "▁sverige",
        -10.298364845525166
      ],
      [
        "▁Sök",
        -10.298795257656938
      ],
      [
        "▁press",
        -10.29913707151585
      ],
      [
        "ina",
        -10.299250534824564
      ],
      [
        "▁tåg",
        -10.299273281192754
      ],
      [
        "lu",
        -10.299279200783523
      ],
      [
        "▁City",
        -10.299664719469487
      ],
      [
        "▁ungdoms",
        -10.299817584524368
      ],
      [
        "vädret",
        -10.299955334203492
      ],
      [
        "▁medför",
        -10.300199337069767
      ],
      [
        "▁syns",
        -10.300508232639752
      ],
      [
        "▁skull",
        -10.30188181579249
      ],
      [
        "▁hände",
        -10.301937127531781
      ],
      [
        "▁Go",
        -10.302252593463288
      ],
      [
        "ium",
        -10.303060729509413
      ],
      [
        "▁ögonen",
        -10.303328308196821
      ],
      [
        "▁herr",
        -10.303452322210376
      ],
      [
        "▁rakt",
        -10.303774105492463
      ],
      [
        "▁Dam",
        -10.304167077468104
      ],
      [
        "red",
        -10.305038819870102
      ],
      [
        "▁Ca",
        -10.305143141602702
      ],
      [
        "platser",
        -10.305418144250718
      ],
      [
        "upplever",
        -10.305576566851364
      ],
      [
        "▁metod",
        -10.305881558618939
      ],
      [
        "▁skatt",
        -10.306256974601263
      ],
      [
        "▁stads",
        -10.306593292332053
      ],
      [
        "▁leta",
        -10.30675050396186
      ],
      [
        "▁utredning",
        -10.307338621057132
      ],
      [
        "▁Jonas",
        -10.30770802895975
      ],
      [
        "▁underbart",
        -10.308302560409347
      ],
      [
        "▁led",
        -10.310479520943781
      ],
      [
        "▁fordon",
        -10.311072005536404
      ],
      [
        "når",
        -10.311219684022923
      ],
      [
        "▁svarta",
        -10.312245955697986
      ],
      [
        "▁Dagens",
        -10.312339364742149
      ],
      [
        "▁psykisk",
        -10.312478500604374
      ],
      [
        "▁straff",
        -10.312544049045226
      ],
      [
        "▁överens",
        -10.312660396368459
      ],
      [
        "intresserade",
        -10.312765218895215
      ],
      [
        "dom",
        -10.313548442716735
      ],
      [
        "hörde",
        -10.313847783673982
      ],
      [
        "▁avse",
        -10.314067041753294
      ],
      [
        "▁Lind",
        -10.314391413707245
      ],
      [
        "flyttade",
        -10.31455000772743
      ],
      [
        "affärer",
        -10.314901662419533
      ],
      [
        "bergs",
        -10.315483476779402
      ],
      [
        "▁hälften",
        -10.315568873017646
      ],
      [
        "serien",
        -10.315732579744916
      ],
      [
        "san",
        -10.316141677823882
      ],
      [
        "▁Svar",
        -10.316182768310622
      ],
      [
        "originalet",
        -10.316421887901502
      ],
      [
        "▁effektiv",
        -10.316519267718906
      ],
      [
        "▁Göteborgs",
        -10.316891812727238
      ],
      [
        "▁hål",
        -10.316981384017625
      ],
      [
        "lopp",
        -10.31755425637927
      ],
      [
        "▁Eva",
        -10.317596205399653
      ],
      [
        "▁mönster",
        -10.31807307318994
      ],
      [
        "▁nio",
        -10.319223825265958
      ],
      [
        "officiell",
        -10.32145752307628
      ],
      [
        "▁färdig",
        -10.32172594230783
      ],
      [
        "▁allvar",
        -10.322050428381258
      ],
      [
        "fattar",
        -10.322741690799953
      ],
      [
        "tips",
        -10.32281652916216
      ],
      [
        "▁löne",
        -10.323196110842579
      ],
      [
        "▁euro",
        -10.323806459058233
      ],
      [
        "▁adress",
        -10.323826105016376
      ],
      [
        "Flera",
        -10.323829971474876
      ],
      [
        "riktiga",
        -10.32431627796785
      ],
      [
        "▁hjärt",
        -10.324634206523845
      ],
      [
        "▁webb",
        -10.32549893987918
      ],
      [
        "▁Q",
        -10.326569566195063
      ],
      [
        "historien",
        -10.327459467684308
      ],
      [
        "▁höjd",
        -10.327499778488999
      ],
      [
        "▁utsikt",
        -10.327948424477293
      ],
      [
        "▁slipp",
        -10.328109950869237
      ],
      [
        "äkta",
        -10.328453023508791
      ],
      [
        "▁upplev",
        -10.328685765518696
      ],
      [
        "▁Sjö",
        -10.329708924784184
      ],
      [
        "▁Casino",
        -10.329742937174286
      ],
      [
        "kontoret",
        -10.330026112292215
      ],
      [
        "og",
        -10.330052025145173
      ],
      [
        "Bolaget",
        -10.330334883824706
      ],
      [
        "rar",
        -10.33078399791458
      ],
      [
        "por",
        -10.331611582008337
      ],
      [
        "faktum",
        -10.331883702601292
      ],
      [
        "Förbättra",
        -10.332026129489376
      ],
      [
        "hinner",
        -10.332146457799787
      ],
      [
        "▁sammanhang",
        -10.332503356164839
      ],
      [
        "▁sjö",
        -10.33324345508443
      ],
      [
        "Fi",
        -10.333553853839776
      ],
      [
        "▁generell",
        -10.334126641787892
      ],
      [
        "din",
        -10.334183526713987
      ],
      [
        "▁Henrik",
        -10.33470531812013
      ],
      [
        "▁Con",
        -10.335116846130887
      ],
      [
        "soffan",
        -10.335846379282255
      ],
      [
        "släppa",
        -10.336062369691529
      ],
      [
        "tryck",
        -10.336708234503591
      ],
      [
        "▁fjärde",
        -10.336887163917085
      ],
      [
        "baserade",
        -10.337084487233703
      ],
      [
        "kläder",
        -10.338408036737995
      ],
      [
        "▁free",
        -10.340279765927644
      ],
      [
        "aktörer",
        -10.34034224403451
      ],
      [
        "▁Mina",
        -10.340601750854146
      ],
      [
        "▁Kommer",
        -10.340611716904236
      ],
      [
        "▁intressanta",
        -10.340931231879557
      ],
      [
        "▁kvinnan",
        -10.341943725026006
      ],
      [
        "namn",
        -10.342053042372788
      ],
      [
        "▁dricka",
        -10.342485011927357
      ],
      [
        "▁styrelsen",
        -10.34409342003893
      ],
      [
        "▁kompis",
        -10.344390471860342
      ],
      [
        "▁Bar",
        -10.344452452062097
      ],
      [
        "▁metoder",
        -10.344858932840577
      ],
      [
        "▁iaf",
        -10.344892011861551
      ],
      [
        "▁bestämma",
        -10.345006999734366
      ],
      [
        "▁förrän",
        -10.345137534664305
      ],
      [
        "bart",
        -10.345221326332254
      ],
      [
        "▁hunn",
        -10.345438993026528
      ],
      [
        "▁forsknings",
        -10.346183646654119
      ],
      [
        "pan",
        -10.346324350141227
      ],
      [
        "▁låga",
        -10.346345682311453
      ],
      [
        "▁korta",
        -10.346707697186632
      ],
      [
        "rika",
        -10.346765161047044
      ],
      [
        "▁former",
        -10.346997969852824
      ],
      [
        "▁grön",
        -10.348634830505222
      ],
      [
        "avtalet",
        -10.348811299438063
      ],
      [
        "▁egenskaper",
        -10.34911345598369
      ],
      [
        "▁aktier",
        -10.349178421128302
      ],
      [
        "▁önska",
        -10.349220749654313
      ],
      [
        "Hotell",
        -10.349297844978414
      ],
      [
        "mässigt",
        -10.349495621654496
      ],
      [
        "▁bry",
        -10.34992954893982
      ],
      [
        "tag",
        -10.35088284915829
      ],
      [
        "▁tillämpa",
        -10.350957935993971
      ],
      [
        "▁daglig",
        -10.351059732848176
      ],
      [
        "livet",
        -10.351279120550464
      ],
      [
        "▁karriär",
        -10.351343814084935
      ],
      [
        "▁hållbar",
        -10.351641455312306
      ],
      [
        "tre",
        -10.351739517691724
      ],
      [
        "▁leverera",
        -10.352133470908484
      ],
      [
        "▁frisk",
        -10.352690429564387
      ],
      [
        "desto",
        -10.353132548685936
      ],
      [
        "▁mörk",
        -10.354909000216132
      ],
      [
        "▁banan",
        -10.35564307232008
      ],
      [
        "▁torr",
        -10.355686338794165
      ],
      [
        "▁enhet",
        -10.355802120274538
      ],
      [
        "isering",
        -10.35607197062433
      ],
      [
        "▁kostnad",
        -10.356210240611565
      ],
      [
        "▁hjärtat",
        -10.356368864466361
      ],
      [
        "mesta",
        -10.356426914232047
      ],
      [
        "ben",
        -10.357148017860753
      ],
      [
        "fria",
        -10.357662928454301
      ],
      [
        "▁badrum",
        -10.357722142475756
      ],
      [
        "▁grunden",
        -10.357729322682411
      ],
      [
        "gård",
        -10.35792902882852
      ],
      [
        "ris",
        -10.358723494601412
      ],
      [
        "▁styrelse",
        -10.359482902893799
      ],
      [
        "▁kille",
        -10.36000209056602
      ],
      [
        "skiljer",
        -10.36052929857677
      ],
      [
        "vänder",
        -10.360948287958642
      ],
      [
        "sett",
        -10.361000817148806
      ],
      [
        "▁bostad",
        -10.361358688486899
      ],
      [
        "▁tränar",
        -10.362324868617018
      ],
      [
        "nått",
        -10.362463988317455
      ],
      [
        "mor",
        -10.362653528877269
      ],
      [
        "ledde",
        -10.36286103824578
      ],
      [
        "utöver",
        -10.363024037476128
      ],
      [
        "lades",
        -10.363469374332816
      ],
      [
        "ala",
        -10.363807988045327
      ],
      [
        "modellen",
        -10.364195620867944
      ],
      [
        "its",
        -10.364324922173909
      ],
      [
        "pga",
        -10.364475413263767
      ],
      [
        "vunnit",
        -10.364582551285084
      ],
      [
        "▁gröna",
        -10.364663633140779
      ],
      [
        "▁betalnings",
        -10.364889261218163
      ],
      [
        "personen",
        -10.36491269341418
      ],
      [
        "▁sjukt",
        -10.365053774416257
      ],
      [
        "▁välkommen",
        -10.365262299608004
      ],
      [
        "▁naturligt",
        -10.365297186258534
      ],
      [
        "one",
        -10.365522343227607
      ],
      [
        "Ö",
        -10.366045374241663
      ],
      [
        "holm",
        -10.366460514728262
      ],
      [
        "Årets",
        -10.367436227500933
      ],
      [
        "▁tjäna",
        -10.367552861096867
      ],
      [
        "finansiella",
        -10.367796198232607
      ],
      [
        "brett",
        -10.367895265357655
      ],
      [
        "▁växt",
        -10.367940887527928
      ],
      [
        "kon",
        -10.367968038255214
      ],
      [
        "▁Sten",
        -10.368011196642733
      ],
      [
        "invånare",
        -10.368199407151604
      ],
      [
        "uk",
        -10.368468661839255
      ],
      [
        "golvet",
        -10.369333180273948
      ],
      [
        "▁Mar",
        -10.370010474521514
      ],
      [
        "landet",
        -10.370359700024142
      ],
      [
        "▁Super",
        -10.371239478894852
      ],
      [
        "▁total",
        -10.371929952888793
      ],
      [
        "▁skolor",
        -10.371968849348338
      ],
      [
        "▁kg",
        -10.372239645528353
      ],
      [
        "▁hjärta",
        -10.372319957310511
      ],
      [
        "jält",
        -10.37349649195394
      ],
      [
        "▁nämn",
        -10.373536928100542
      ],
      [
        "▁okej",
        -10.373804376846698
      ],
      [
        "▁skogs",
        -10.37382015451625
      ],
      [
        "▁di",
        -10.374072454220192
      ],
      [
        "▁VM",
        -10.374309051954764
      ],
      [
        "intill",
        -10.374639897650544
      ],
      [
        "▁Bästa",
        -10.375623878946744
      ],
      [
        "kväll",
        -10.375660907832351
      ],
      [
        "▁presentera",
        -10.375906698975056
      ],
      [
        "samt",
        -10.376151788962039
      ],
      [
        "▁Film",
        -10.377412364658372
      ],
      [
        "▁sömn",
        -10.377911863945283
      ],
      [
        "kraft",
        -10.377940263456114
      ],
      [
        "arbetat",
        -10.377969478174247
      ],
      [
        "▁utrustning",
        -10.378165695689702
      ],
      [
        "▁ekonomisk",
        -10.379348364501432
      ],
      [
        "▁forskare",
        -10.379904128175585
      ],
      [
        "▁nere",
        -10.380086315971013
      ],
      [
        "gränsen",
        -10.380144773927686
      ],
      [
        "▁sikt",
        -10.381125402811747
      ],
      [
        "▁Helt",
        -10.381263278864013
      ],
      [
        "böcker",
        -10.381282812638165
      ],
      [
        "gjorda",
        -10.381784987178621
      ],
      [
        "▁tjänsten",
        -10.381813444348916
      ],
      [
        "▁utvecklings",
        -10.381852083247464
      ],
      [
        "▁industri",
        -10.382004352513249
      ],
      [
        "▁övertyga",
        -10.382501488603499
      ],
      [
        "ack",
        -10.382584644975758
      ],
      [
        "fin",
        -10.383160014777857
      ],
      [
        "press",
        -10.383302989384438
      ],
      [
        "▁inled",
        -10.383842330170587
      ],
      [
        "tittade",
        -10.383967575232328
      ],
      [
        "behandling",
        -10.384608083981568
      ],
      [
        "▁hård",
        -10.385200655967239
      ],
      [
        "ator",
        -10.385372649772608
      ],
      [
        "▁cancer",
        -10.385880634580316
      ],
      [
        "▁deltagare",
        -10.386058170985299
      ],
      [
        "▁Ed",
        -10.386215000738543
      ],
      [
        "skaffa",
        -10.386693960923864
      ],
      [
        "lämnat",
        -10.386886564721944
      ],
      [
        "▁Miljö",
        -10.386914889712841
      ],
      [
        "▁nyheter",
        -10.387043910904842
      ],
      [
        "någonstans",
        -10.38727426974077
      ],
      [
        "hänger",
        -10.387408378842446
      ],
      [
        "lat",
        -10.387664487090678
      ],
      [
        "handel",
        -10.388109998089295
      ],
      [
        "▁bostäder",
        -10.388338501044014
      ],
      [
        "▁dokument",
        -10.388477783700605
      ],
      [
        "priset",
        -10.389017299245431
      ],
      [
        "▁sko",
        -10.389531004331399
      ],
      [
        "▁personuppgifter",
        -10.390176576684604
      ],
      [
        "nivåer",
        -10.39045429781004
      ],
      [
        "▁Pe",
        -10.390609368355095
      ],
      [
        "▁team",
        -10.390751033024783
      ],
      [
        "▁samverkan",
        -10.39102987750069
      ],
      [
        "▁marknads",
        -10.391252137249658
      ],
      [
        "▁framgång",
        -10.391490116637069
      ],
      [
        "▁Gå",
        -10.391972018153968
      ],
      [
        "▁Namn",
        -10.392081730774402
      ],
      [
        "▁förhindra",
        -10.392412415302413
      ],
      [
        "närmast",
        -10.392584764898933
      ],
      [
        "▁Jesus",
        -10.392654195409905
      ],
      [
        "ister",
        -10.392935603438918
      ],
      [
        "▁marken",
        -10.39322471089872
      ],
      [
        "problem",
        -10.394957777642194
      ],
      [
        "▁Vårt",
        -10.395023915109057
      ],
      [
        "TV",
        -10.39545605358194
      ],
      [
        "▁dusch",
        -10.395556589107738
      ],
      [
        "▁lycka",
        -10.396338371579583
      ],
      [
        "line",
        -10.396614988359921
      ],
      [
        "märken",
        -10.396943975477868
      ],
      [
        "▁levande",
        -10.396994636082677
      ],
      [
        "▁behålla",
        -10.397145627877588
      ],
      [
        "tillfället",
        -10.39723423162937
      ],
      [
        "▁tillfällig",
        -10.397319504182365
      ],
      [
        "ox",
        -10.397740675132258
      ],
      [
        "fest",
        -10.398616470568596
      ],
      [
        "▁balans",
        -10.398942401027568
      ],
      [
        "delas",
        -10.399157279083607
      ],
      [
        "södra",
        -10.399453493546371
      ],
      [
        "▁kallad",
        -10.399887593075768
      ],
      [
        "▁papper",
        -10.400314189145227
      ],
      [
        "▁gemensam",
        -10.400441360851516
      ],
      [
        "▁vapen",
        -10.402087602562311
      ],
      [
        "texten",
        -10.402213641660675
      ],
      [
        "▁takt",
        -10.403021254775126
      ],
      [
        "▁Precis",
        -10.40323187535238
      ],
      [
        "▁TripAdvisor",
        -10.403278311342321
      ],
      [
        "▁resor",
        -10.404421338925944
      ],
      [
        "▁finna",
        -10.404531402453983
      ],
      [
        "linjen",
        -10.40453806243021
      ],
      [
        "▁lyfta",
        -10.405274241464474
      ],
      [
        "naturliga",
        -10.405543191429468
      ],
      [
        "strand",
        -10.405957353362036
      ],
      [
        "▁anpassa",
        -10.406110222263596
      ],
      [
        "Totalt",
        -10.406401558194206
      ],
      [
        "▁aktiva",
        -10.407427757480724
      ],
      [
        "q",
        -10.407515133312588
      ],
      [
        "▁sov",
        -10.407541114732826
      ],
      [
        "hand",
        -10.407883944659648
      ],
      [
        "nämnden",
        -10.407990954556329
      ],
      [
        "▁Kalmar",
        -10.408034572591083
      ],
      [
        "▁hänga",
        -10.40835180960297
      ],
      [
        "givande",
        -10.408476375441726
      ],
      [
        "▁mått",
        -10.408682676403416
      ],
      [
        "▁lågt",
        -10.409328285009298
      ],
      [
        "ill",
        -10.409416539907644
      ],
      [
        "politik",
        -10.40945268118885
      ],
      [
        "▁vind",
        -10.409770991980604
      ],
      [
        "▁kol",
        -10.409928766140315
      ],
      [
        "▁artikeln",
        -10.410002134451272
      ],
      [
        "stärka",
        -10.410287147705096
      ],
      [
        "vall",
        -10.410920146770188
      ],
      [
        "▁Sp",
        -10.411015312114039
      ],
      [
        "ledare",
        -10.411548332757235
      ],
      [
        "▁Larsson",
        -10.411842512612346
      ],
      [
        "jo",
        -10.412086673394837
      ],
      [
        "▁sönder",
        -10.412198665056664
      ],
      [
        "°",
        -10.412535697285085
      ],
      [
        "hittat",
        -10.41353013359796
      ],
      [
        "▁Storbritannien",
        -10.413907890359917
      ],
      [
        "klassiska",
        -10.414240622943893
      ],
      [
        "offentliga",
        -10.414571441845927
      ],
      [
        "▁tävling",
        -10.415282376419112
      ],
      [
        "automatiskt",
        -10.415639599972788
      ],
      [
        "byn",
        -10.415976756358486
      ],
      [
        "▁fru",
        -10.416124395458665
      ],
      [
        "reglerna",
        -10.416651766011016
      ],
      [
        "▁Paris",
        -10.41759410930323
      ],
      [
        "nytta",
        -10.417808872551955
      ],
      [
        "▁totala",
        -10.418264176992519
      ],
      [
        "▁Sport",
        -10.418310285727946
      ],
      [
        "▁fiske",
        -10.418482574342129
      ],
      [
        "ku",
        -10.418966269875204
      ],
      [
        "▁Karl",
        -10.41910685255892
      ],
      [
        "kor",
        -10.41932668704426
      ],
      [
        "▁linje",
        -10.419482288254352
      ],
      [
        "bit",
        -10.419630941502222
      ],
      [
        "ämnet",
        -10.419952103714225
      ],
      [
        "marknaden",
        -10.420285050502612
      ],
      [
        "▁kilometer",
        -10.420449420423896
      ],
      [
        "nämnda",
        -10.420557517089232
      ],
      [
        "▁laga",
        -10.421021932822914
      ],
      [
        "banken",
        -10.421064057655816
      ],
      [
        "handlade",
        -10.421304467886337
      ],
      [
        "kel",
        -10.421989372931037
      ],
      [
        "▁salt",
        -10.422035246207715
      ],
      [
        "köp",
        -10.422106971674555
      ],
      [
        "heter",
        -10.422118764843407
      ],
      [
        "▁avgifter",
        -10.422339228839501
      ],
      [
        "baserad",
        -10.422959143744306
      ],
      [
        "▁synd",
        -10.42296220397407
      ],
      [
        "ytan",
        -10.423474827693465
      ],
      [
        "gemensamt",
        -10.423481903186023
      ],
      [
        "▁rätta",
        -10.423587563447025
      ],
      [
        "▁duktig",
        -10.423818388972544
      ],
      [
        "bruk",
        -10.424395252214953
      ],
      [
        "▁sannolik",
        -10.424531611924117
      ],
      [
        "▁motor",
        -10.424892814500376
      ],
      [
        "▁radio",
        -10.424945723239267
      ],
      [
        "Börja",
        -10.42499856096422
      ],
      [
        "klassen",
        -10.425034838741484
      ],
      [
        "nät",
        -10.425282264918899
      ],
      [
        "bestämde",
        -10.425462832386154
      ],
      [
        "▁Car",
        -10.425622222855884
      ],
      [
        "▁me",
        -10.425786395268602
      ],
      [
        "▁Italien",
        -10.426218111566948
      ],
      [
        "hallen",
        -10.42664194436579
      ],
      [
        "▁publik",
        -10.427113078471429
      ],
      [
        "▁Nyheter",
        -10.42718158105311
      ],
      [
        "▁SEK",
        -10.42730591491832
      ],
      [
        "▁torsdag",
        -10.427739790630204
      ],
      [
        "▁röra",
        -10.427931681257189
      ],
      [
        "Annar",
        -10.428687943711546
      ],
      [
        "▁Kommun",
        -10.428834335898447
      ],
      [
        "typen",
        -10.428863363038921
      ],
      [
        "grupper",
        -10.42894510268254
      ],
      [
        "▁stål",
        -10.430244023322322
      ],
      [
        "▁anslutning",
        -10.43146399994045
      ],
      [
        "▁bröd",
        -10.431814031770106
      ],
      [
        "männen",
        -10.431869905080166
      ],
      [
        "▁tyska",
        -10.431955639452685
      ],
      [
        "tråkigt",
        -10.432126520977127
      ],
      [
        "pratade",
        -10.4323210562003
      ],
      [
        "▁hoppa",
        -10.432444443504634
      ],
      [
        "▁publicera",
        -10.432953788024198
      ],
      [
        "▁intervju",
        -10.432956792931687
      ],
      [
        "▁Region",
        -10.433061228354964
      ],
      [
        "▁Tillsammans",
        -10.433120029904817
      ],
      [
        "åriga",
        -10.433125333153377
      ],
      [
        "värsta",
        -10.433459439486404
      ],
      [
        "▁maskinöversätt",
        -10.433489533451574
      ],
      [
        "lista",
        -10.433490573069047
      ],
      [
        "▁dejtingsajt",
        -10.43349879546023
      ],
      [
        "väntat",
        -10.434403677918521
      ],
      [
        "les",
        -10.434877317963336
      ],
      [
        "▁uppfyll",
        -10.434923663526947
      ],
      [
        "▁God",
        -10.435216477349716
      ],
      [
        "▁lek",
        -10.435249527340973
      ],
      [
        "nöjda",
        -10.436157069081238
      ],
      [
        "ow",
        -10.436295301894273
      ],
      [
        "▁förändra",
        -10.43642842987614
      ],
      [
        "▁personalen",
        -10.436465956932771
      ],
      [
        "wa",
        -10.43659479658897
      ],
      [
        "Tror",
        -10.43677091024316
      ],
      [
        "▁kunden",
        -10.436857782937691
      ],
      [
        "Ä",
        -10.43735067128349
      ],
      [
        "ram",
        -10.438241315785115
      ],
      [
        "▁flertal",
        -10.438643155407389
      ],
      [
        "▁Bank",
        -10.438668187853706
      ],
      [
        "▁insats",
        -10.439017939387051
      ],
      [
        "▁golv",
        -10.43923298995272
      ],
      [
        "▁lät",
        -10.44000438544098
      ],
      [
        "▁Inom",
        -10.44019710411248
      ],
      [
        "▁maskin",
        -10.440220425808397
      ],
      [
        "▁pre",
        -10.440498829478278
      ],
      [
        "bestämmer",
        -10.440542008397774
      ],
      [
        "kraftigt",
        -10.440862740444919
      ],
      [
        "▁engagemang",
        -10.441221026528215
      ],
      [
        "mysigt",
        -10.44128529592885
      ],
      [
        "▁Ser",
        -10.441460270011603
      ],
      [
        "▁aktivitet",
        -10.442702290828425
      ],
      [
        "▁motsvara",
        -10.442738258589698
      ],
      [
        "miljö",
        -10.442817542165711
      ],
      [
        "skickar",
        -10.442874609381226
      ],
      [
        "▁kritik",
        -10.443239473671436
      ],
      [
        "ick",
        -10.44329885989915
      ],
      [
        "start",
        -10.44334668093021
      ],
      [
        "▁styrka",
        -10.443725232068305
      ],
      [
        "▁lokaler",
        -10.444238142068487
      ],
      [
        "väntade",
        -10.444726238069961
      ],
      [
        "▁stranden",
        -10.44481153678233
      ],
      [
        "▁version",
        -10.44485566214625
      ],
      [
        "bandet",
        -10.445250675786701
      ],
      [
        "▁seger",
        -10.445399381956426
      ],
      [
        "▁Kram",
        -10.445673299008043
      ],
      [
        "typ",
        -10.445791872021694
      ],
      [
        "▁kallt",
        -10.44583479633874
      ],
      [
        "gas",
        -10.446340747496617
      ],
      [
        "▁Natur",
        -10.446342062992457
      ],
      [
        "Om",
        -10.44655486249627
      ],
      [
        "▁Kultur",
        -10.44746460265672
      ],
      [
        "ägna",
        -10.447565635573769
      ],
      [
        "▁klassisk",
        -10.448960838964918
      ],
      [
        "snyggt",
        -10.449012181872831
      ],
      [
        "▁wid",
        -10.449218171816756
      ],
      [
        "ych",
        -10.44930286717657
      ],
      [
        "enheten",
        -10.450268169007039
      ],
      [
        "kollegor",
        -10.451477831821549
      ],
      [
        "▁rök",
        -10.45182896429752
      ],
      [
        "sin",
        -10.45195257991007
      ],
      [
        "▁Mikael",
        -10.452388674603062
      ],
      [
        "▁Thomas",
        -10.452675382761935
      ],
      [
        "▁Karlsson",
        -10.453209663107831
      ],
      [
        "▁trädgård",
        -10.453307954683446
      ],
      [
        "▁återg",
        -10.45345711395556
      ],
      [
        "fl",
        -10.453839762744535
      ],
      [
        "▁Folk",
        -10.453900216501928
      ],
      [
        "▁Spanien",
        -10.454008622175778
      ],
      [
        "vit",
        -10.454312747232962
      ],
      [
        "za",
        -10.454929002062435
      ],
      [
        "verkligheten",
        -10.455009745227862
      ],
      [
        "▁fär",
        -10.455114617171384
      ],
      [
        "▁Sch",
        -10.455440256224067
      ],
      [
        "ryggen",
        -10.45545996924667
      ],
      [
        "▁skriv",
        -10.455574638043364
      ],
      [
        "hets",
        -10.455594479860379
      ],
      [
        "▁smart",
        -10.455777389631393
      ],
      [
        "app",
        -10.455778255122743
      ],
      [
        "▁kontor",
        -10.455911159120829
      ],
      [
        "nivån",
        -10.456160187550182
      ],
      [
        "hall",
        -10.457042273249439
      ],
      [
        "anläggningar",
        -10.457314880363556
      ],
      [
        "▁Västra",
        -10.457634806780993
      ],
      [
        "De",
        -10.457822108026466
      ],
      [
        "Oavsett",
        -10.458064631760053
      ],
      [
        "▁fullständig",
        -10.45854931440187
      ],
      [
        "sätt",
        -10.458585440965159
      ],
      [
        "▁Arbets",
        -10.458677073004704
      ],
      [
        "▁frakt",
        -10.458707135889284
      ],
      [
        "baserat",
        -10.45873275277345
      ],
      [
        "▁sekunder",
        -10.458868628489912
      ],
      [
        "▁författare",
        -10.458959764873882
      ],
      [
        "▁miljon",
        -10.459805539166755
      ],
      [
        "översättningen",
        -10.459919672703137
      ],
      [
        "▁behandla",
        -10.460184995763003
      ],
      [
        "▁söt",
        -10.460257598922478
      ],
      [
        "▁fördelar",
        -10.460328427071415
      ],
      [
        "▁Mi",
        -10.46044760741519
      ],
      [
        "▁grej",
        -10.460510353874172
      ],
      [
        "▁fastighets",
        -10.460820219413383
      ],
      [
        "▁kall",
        -10.461396215467659
      ],
      [
        "▁arrangera",
        -10.461904948977427
      ],
      [
        "▁Hög",
        -10.46194261032162
      ],
      [
        "▁utmaningar",
        -10.461961585901667
      ],
      [
        "banan",
        -10.462131822717426
      ],
      [
        "▁Windows",
        -10.462153543780968
      ],
      [
        "fel",
        -10.462313396665367
      ],
      [
        "tycks",
        -10.462710100147296
      ],
      [
        "överallt",
        -10.463026961741852
      ],
      [
        "backen",
        -10.463108761355718
      ],
      [
        "alltför",
        -10.463469947752237
      ],
      [
        "verkade",
        -10.463552284030657
      ],
      [
        "▁ursprunglig",
        -10.46373792491413
      ],
      [
        "pekar",
        -10.463826391771816
      ],
      [
        "▁miljön",
        -10.464588054228825
      ],
      [
        "▁bod",
        -10.465877719718131
      ],
      [
        "▁sällskap",
        -10.466124153331833
      ],
      [
        "▁dollar",
        -10.466488605359272
      ],
      [
        "of",
        -10.466686321478294
      ],
      [
        "▁Stora",
        -10.467556285673103
      ],
      [
        "her",
        -10.467825993914772
      ],
      [
        "▁planerar",
        -10.468620976821933
      ],
      [
        "▁normal",
        -10.468804768155637
      ],
      [
        "lett",
        -10.468866592616346
      ],
      [
        "▁hästar",
        -10.469442247244649
      ],
      [
        "▁knä",
        -10.469743689858145
      ],
      [
        "Redan",
        -10.470316625228344
      ],
      [
        "▁berör",
        -10.470401510305186
      ],
      [
        "härliga",
        -10.470543525131676
      ],
      [
        "▁Li",
        -10.47093561787772
      ],
      [
        "ges",
        -10.471012257889447
      ],
      [
        "ies",
        -10.472600062710466
      ],
      [
        "▁avstånd",
        -10.472708855594616
      ],
      [
        "▁mej",
        -10.472909916064753
      ],
      [
        "▁Hotels",
        -10.473641245221001
      ],
      [
        "bredvid",
        -10.473754209971741
      ],
      [
        "▁hemmet",
        -10.473784986826722
      ],
      [
        "▁tränare",
        -10.47382380131216
      ],
      [
        "▁rekommendera",
        -10.47400378081007
      ],
      [
        "▁andel",
        -10.474196439966562
      ],
      [
        "▁Dag",
        -10.47432074762152
      ],
      [
        "▁bekräfta",
        -10.47465499583751
      ],
      [
        "▁sp",
        -10.474773761592914
      ],
      [
        "sjukhuset",
        -10.47490818017896
      ],
      [
        "▁resultera",
        -10.475513893331428
      ],
      [
        "förvaltningen",
        -10.475519026764815
      ],
      [
        "mänskliga",
        -10.475633332643907
      ],
      [
        "taket",
        -10.475869208442132
      ],
      [
        "▁fokusera",
        -10.47591282864306
      ],
      [
        "anges",
        -10.47595489896731
      ],
      [
        "▁krig",
        -10.476121725096768
      ],
      [
        "▁smärta",
        -10.476207502646536
      ],
      [
        "▁vuxen",
        -10.47656536713356
      ],
      [
        "tagna",
        -10.477330542547694
      ],
      [
        "▁syster",
        -10.477473149675582
      ],
      [
        "▁SD",
        -10.477741200294437
      ],
      [
        "▁Bi",
        -10.477783808334191
      ],
      [
        "▁karaktär",
        -10.47793245086345
      ],
      [
        "▁lämplig",
        -10.478290830048644
      ],
      [
        "▁aktie",
        -10.478443779942767
      ],
      [
        "allafall",
        -10.479101060654415
      ],
      [
        "▁Fick",
        -10.47943698545385
      ],
      [
        "▁lov",
        -10.47962299399337
      ],
      [
        "▁uppmärksamhet",
        -10.480710003402907
      ],
      [
        "frågorna",
        -10.480927930786665
      ],
      [
        "ägare",
        -10.481050495273589
      ],
      [
        "▁näst",
        -10.481286014943425
      ],
      [
        "▁respekt",
        -10.48155963731083
      ],
      [
        "▁förståelse",
        -10.481769129983315
      ],
      [
        "▁spendera",
        -10.48197268389938
      ],
      [
        "▁rosa",
        -10.482318209690257
      ],
      [
        "AR",
        -10.482764586588267
      ],
      [
        "▁onsdag",
        -10.483848277387908
      ],
      [
        "▁uppenbar",
        -10.483991024243423
      ],
      [
        "serie",
        -10.484153694363426
      ],
      [
        "▁Mark",
        -10.484302915796835
      ],
      [
        "förslaget",
        -10.48442030057903
      ],
      [
        "▁So",
        -10.484495720207214
      ],
      [
        "▁van",
        -10.485092920418237
      ],
      [
        "sugen",
        -10.485270769048828
      ],
      [
        "åsikter",
        -10.486223194961443
      ],
      [
        "▁lagom",
        -10.486489752374068
      ],
      [
        "▁modeller",
        -10.48680193786862
      ],
      [
        "▁student",
        -10.48687856438762
      ],
      [
        "tik",
        -10.487184471906959
      ],
      [
        "▁webbplatsen",
        -10.487194169638846
      ],
      [
        "▁ange",
        -10.48727737335585
      ],
      [
        "▁produktion",
        -10.487306191006665
      ],
      [
        "▁Tidigare",
        -10.487680090385089
      ],
      [
        "riksdagen",
        -10.487735342990211
      ],
      [
        "paket",
        -10.487778477283813
      ],
      [
        "▁Am",
        -10.487926751531504
      ],
      [
        "▁sjukdomar",
        -10.48821611546554
      ],
      [
        "räknar",
        -10.488254724799894
      ],
      [
        "jobbat",
        -10.488328320442358
      ],
      [
        "▁Aktiebolag",
        -10.488610167956887
      ],
      [
        "föll",
        -10.489839839158527
      ],
      [
        "▁artiklar",
        -10.490255302020786
      ],
      [
        "brott",
        -10.490278770846999
      ],
      [
        "vågar",
        -10.490294216632245
      ],
      [
        "▁Su",
        -10.490397560804556
      ],
      [
        "▁bevilja",
        -10.490484624266198
      ],
      [
        "talade",
        -10.49084008479224
      ],
      [
        "▁studenter",
        -10.491704823070606
      ],
      [
        "Tycker",
        -10.491879924822419
      ],
      [
        "▁produkten",
        -10.491934558829357
      ],
      [
        "filer",
        -10.492136222384682
      ],
      [
        "▁Jämför",
        -10.492348557462963
      ],
      [
        "▁region",
        -10.492366591385224
      ],
      [
        "värd",
        -10.49241747690031
      ],
      [
        "mera",
        -10.492509424622028
      ],
      [
        "▁städer",
        -10.492589563905137
      ],
      [
        "dagar",
        -10.492839599424205
      ],
      [
        "ID",
        -10.493009369557717
      ],
      [
        "omfattar",
        -10.493294565536198
      ],
      [
        "▁ok",
        -10.49375461958938
      ],
      [
        "▁fotbolls",
        -10.49441317572981
      ],
      [
        "▁kön",
        -10.494823483405671
      ],
      [
        "owan",
        -10.495389506584333
      ],
      [
        "▁Information",
        -10.496486431984003
      ],
      [
        "hindra",
        -10.496673647391495
      ],
      [
        "önskemål",
        -10.497093142348632
      ],
      [
        "årig",
        -10.497225692432046
      ],
      [
        "▁FÖR",
        -10.497299406693813
      ],
      [
        "▁förtroende",
        -10.49796390786729
      ],
      [
        "▁skuld",
        -10.498832657868848
      ],
      [
        "▁trolig",
        -10.500222943163253
      ],
      [
        "inte",
        -10.500373395487232
      ],
      [
        "▁Vidare",
        -10.50045105470206
      ],
      [
        "förening",
        -10.501398946696531
      ],
      [
        "▁uppfattning",
        -10.501758305749508
      ],
      [
        "▁beteende",
        -10.502218348871782
      ],
      [
        "▁Utan",
        -10.502272361626327
      ],
      [
        "ej",
        -10.502774302148143
      ],
      [
        "▁planer",
        -10.50295501783976
      ],
      [
        "hunden",
        -10.504113600251232
      ],
      [
        "▁äventyr",
        -10.504593622727395
      ],
      [
        "luften",
        -10.505559570649112
      ],
      [
        "Syftet",
        -10.505622502669075
      ],
      [
        "▁rena",
        -10.506068880926653
      ],
      [
        "ställning",
        -10.506100475829975
      ],
      [
        "▁fil",
        -10.506177646065472
      ],
      [
        "älskade",
        -10.50650844403644
      ],
      [
        "▁folket",
        -10.5080456881512
      ],
      [
        "vet",
        -10.508189729535648
      ],
      [
        "innehållet",
        -10.508402636467395
      ],
      [
        "▁medicin",
        -10.508608055078597
      ],
      [
        "ET",
        -10.508963470817772
      ],
      [
        "▁populär",
        -10.509062125230095
      ],
      [
        "▁fria",
        -10.509543056446288
      ],
      [
        "övningar",
        -10.50959907602598
      ],
      [
        "▁Persson",
        -10.509720680848082
      ],
      [
        "utvecklat",
        -10.509770732447041
      ],
      [
        "hantering",
        -10.509853513879266
      ],
      [
        "▁rea",
        -10.510272631860381
      ],
      [
        "bordet",
        -10.510298505754477
      ],
      [
        "▁tex",
        -10.510339496640153
      ],
      [
        "▁He",
        -10.510880873985922
      ],
      [
        "▁Ad",
        -10.512103717896531
      ],
      [
        "▁statistik",
        -10.512297034794535
      ],
      [
        "FK",
        -10.513172056043507
      ],
      [
        "länderna",
        -10.513310883273494
      ],
      [
        "zny",
        -10.513403584843132
      ],
      [
        "ledning",
        -10.513963382583842
      ],
      [
        "▁My",
        -10.513982907451439
      ],
      [
        "▁Na",
        -10.514200063148179
      ],
      [
        "hinna",
        -10.514307044670783
      ],
      [
        "▁informera",
        -10.514838897113508
      ],
      [
        "▁elev",
        -10.514917316536044
      ],
      [
        "▁silver",
        -10.515232437695847
      ],
      [
        "informationen",
        -10.515916471337354
      ],
      [
        "▁profil",
        -10.516132889353456
      ],
      [
        "sserligen",
        -10.516629419421921
      ],
      [
        "▁styra",
        -10.516814891247282
      ],
      [
        "▁upptäcka",
        -10.517430170797718
      ],
      [
        "▁fr",
        -10.518338167434315
      ],
      [
        "ansvarar",
        -10.518941731490091
      ],
      [
        "svinner",
        -10.518943902892337
      ],
      [
        "drag",
        -10.519216823944676
      ],
      [
        "▁Mats",
        -10.519283219737027
      ],
      [
        "chefen",
        -10.5195666623722
      ],
      [
        "▁Karin",
        -10.520534375064445
      ],
      [
        "▁Va",
        -10.520695936502626
      ],
      [
        "utav",
        -10.52103686647794
      ],
      [
        "▁FN",
        -10.521575157949437
      ],
      [
        "ös",
        -10.521621941916704
      ],
      [
        "kompisar",
        -10.521847092816053
      ],
      [
        "äng",
        -10.522497495087984
      ],
      [
        "▁speciell",
        -10.522982037611198
      ],
      [
        "▁besvär",
        -10.523170604320418
      ],
      [
        "enlighet",
        -10.523488975810281
      ],
      [
        "▁hell",
        -10.523739175048126
      ],
      [
        "▁Väl",
        -10.523893901027513
      ],
      [
        "▁situationer",
        -10.525169543046156
      ],
      [
        "säkerställa",
        -10.525597601795257
      ],
      [
        "▁individer",
        -10.52570295068093
      ],
      [
        "kommer",
        -10.525705641423887
      ],
      [
        "bad",
        -10.526323847583342
      ],
      [
        "▁president",
        -10.52660912664309
      ],
      [
        "▁Tur",
        -10.527245139360565
      ],
      [
        "▁leverantörer",
        -10.52741297023798
      ],
      [
        "▁kämpa",
        -10.52775552563745
      ],
      [
        "delade",
        -10.528558362631516
      ],
      [
        "▁sortiment",
        -10.52874693222509
      ],
      [
        "▁Än",
        -10.52886665287452
      ],
      [
        "▁sovrum",
        -10.528894687177191
      ],
      [
        "▁utseende",
        -10.529412497810528
      ],
      [
        "▁Eriksson",
        -10.53083723637848
      ],
      [
        "▁lägenheter",
        -10.531056591669046
      ],
      [
        "ag",
        -10.531676382784772
      ],
      [
        "ze",
        -10.531858374382766
      ],
      [
        "utredningen",
        -10.533167462180776
      ],
      [
        "▁tyst",
        -10.533387270318718
      ],
      [
        "▁felaktig",
        -10.533479690288033
      ],
      [
        "▁sprid",
        -10.534099599415896
      ],
      [
        "▁beskriva",
        -10.534472660318603
      ],
      [
        "▁za",
        -10.53447798498897
      ],
      [
        "träning",
        -10.53499842089
      ],
      [
        "▁inomhus",
        -10.535026774968001
      ],
      [
        "▁Hotell",
        -10.535075188464978
      ],
      [
        "avdelningen",
        -10.535730404228055
      ],
      [
        "test",
        -10.53649076359975
      ],
      [
        "film",
        -10.536542980598854
      ],
      [
        "▁arbetsgivare",
        -10.536959771549936
      ],
      [
        "▁tävla",
        -10.537465989968734
      ],
      [
        "▁mag",
        -10.537825913899704
      ],
      [
        "slaget",
        -10.53792903586018
      ],
[...]
