{
  "version": "1.0",
  "truncation": null,
  "padding": null,
  "added_tokens": [
    {
      "id": 0,
      "content": "[PAD]",
      "single_word": false,
      "lstrip": false,
      "rstrip": false,
      "normalized": false,
      "special": true
    },
    {
      "id": 1,
      "content": "[UNK]",
      "single_word": false,
      "lstrip": false,
      "rstrip": false,
      "normalized": false,
      "special": true
    },
    {
      "id": 2,
      "content": "[MASK]",
      "single_word": false,
      "lstrip": false,
      "rstrip": false,
      "normalized": false,
      "special": true
    },
    {
      "id": 3,
      "content": "[CLS]",
      "single_word": false,
      "lstrip": false,
      "rstrip": false,
      "normalized": false,
      "special": true
    },
    {
      "id": 4,
      "content": "[SEP]",
      "single_word": false,
      "lstrip": false,
      "rstrip": false,
      "normalized": false,
      "special": true
    }
  ],
  "normalizer": {
    "type": "Sequence",
    "normalizers": [
      {
        "type": "Nmt"
      },
      {
        "type": "NFKC"
      },
      {
        "type": "Replace",
        "pattern": {
          "Regex": " {2,}"
        },
        "content": " "
      }
    ]
  },
  "pre_tokenizer": {
    "type": "Sequence",
    "pretokenizers": [
      {
        "type": "Metaspace",
        "replacement": "▁",
        "add_prefix_space": true
      },
      {
        "type": "Split",
        "pattern": {
          "Regex": "\\d"
        },
        "behavior": "MergedWithPrevious",
        "invert": false
      },
      {
        "type": "Punctuation",
        "behavior": "Isolated"
      }
    ]
  },
  "post_processor": {
    "type": "TemplateProcessing",
    "single": [
      {
        "SpecialToken": {
          "id": "[CLS]",
          "type_id": 0
        }
      },
      {
        "Sequence": {
          "id": "A",
          "type_id": 0
        }
      },
      {
        "SpecialToken": {
          "id": "[SEP]",
          "type_id": 0
        }
      }
    ],
    "pair": [
      {
        "SpecialToken": {
          "id": "[CLS]",
          "type_id": 0
        }
      },
      {
        "Sequence": {
          "id": "A",
          "type_id": 0
        }
      },
      {
        "SpecialToken": {
          "id": "[SEP]",
          "type_id": 0
        }
      },
      {
        "Sequence": {
          "id": "B",
          "type_id": 1
        }
      },
      {
        "SpecialToken": {
          "id": "[SEP]",
          "type_id": 1
        }
      }
    ],
    "special_tokens": {
      "[CLS]": {
        "id": "[CLS]",
        "ids": [
          3
        ],
        "tokens": [
          "[CLS]"
        ]
      },
      "[SEP]": {
        "id": "[SEP]",
        "ids": [
          4
        ],
        "tokens": [
          "[SEP]"
        ]
      }
    }
  },
  "decoder": {
    "type": "Metaspace",
    "replacement": "▁",
    "add_prefix_space": true
  },
  "model": {
    "type": "Unigram",
    "unk_id": 1,
    "vocab": [
      [
        "[PAD]",
        0.0
      ],
      [
        "[UNK]",
        0.0
      ],
      [
        "[MASK]",
        0.0
      ],
      [
        "[CLS]",
        0.0
      ],
      [
        "[SEP]",
        0.0
      ],
      [
        "▁",
        -2.194539986369044
      ],
      [
        ".",
        -3.2151234929169696
      ],
      [
        ",",
        -3.8717540482075883
      ],
      [
        "▁och",
        -3.974861653430576
      ],
      [
        "i",
        -4.0654490307707185
      ],
      [
        "s",
        -4.111916853122439
      ],
      [
        "▁att",
        -4.226639346394512
      ],
      [
        "▁är",
        -4.591735187616525
      ],
      [
        "▁på",
        -4.614970502664821
      ],
      [
        "▁som",
        -4.622255300737015
      ],
      [
        "▁för",
        -4.689891684857015
      ],
      [
        "t",
        -4.722729218512518
      ],
      [
        "0",
        -4.726891431851243
      ],
      [
        "▁en",
        -4.732416629978703
      ],
      [
        "▁det",
        -4.754368750341731
      ],
      [
        "a",
        -4.7969048255028195
      ],
      [
        "1",
        -4.819773051487207
      ],
      [
        "▁med",
        -4.888046333607596
      ],
      [
        "▁av",
        -4.902313778980341
      ],
      [
        "en",
        -4.950001162572429
      ],
      [
        "-",
        -4.97595081487154
      ],
      [
        "▁till",
        -5.051272858457192
      ],
      [
        "2",
        -5.096916539983884
      ],
      [
        "▁har",
        -5.184243268259408
      ],
      [
        "▁jag",
        -5.330946012620862
      ],
      [
        "▁inte",
        -5.397909187535758
      ],
      [
        "▁om",
        -5.423838604376744
      ],
      [
        "▁den",
        -5.499620898873909
      ],
      [
        "er",
        -5.533979516952206
      ],
      [
        "▁ett",
        -5.5492274126781655
      ],
      [
        "r",
        -5.549777075613761
      ],
      [
        "e",
        -5.5862734301559325
      ],
      [
        "▁så",
        -5.591933564368615
      ],
      [
        ":",
        -5.602329966983618
      ],
      [
        "n",
        -5.615844190079784
      ],
      [
        "▁du",
        -5.683160635950475
      ],
      [
        "▁kan",
        -5.702690898599245
      ],
      [
        "▁de",
        -5.719694526309629
      ],
      [
        "5",
        -5.77269066362982
      ],
      [
        "3",
        -5.796179097959335
      ],
      [
        ")",
        -5.806377196877383
      ],
      [
        "▁vi",
        -5.851764313457448
      ],
      [
        "▁var",
        -5.89118436916684
      ],
      [
        "!",
        -5.90896239670216
      ],
      [
        "(",
        -5.92689356587684
      ],
      [
        "4",
        -5.9638912286293095
      ],
      [
        "▁Det",
        -5.9707615867347705
      ],
      [
        "9",
        -6.01174201664978
      ],
      [
        "▁från",
        -6.012182388017079
      ],
      [
        "▁man",
        -6.026707022769756
      ],
      [
        "\"",
        -6.037186667592184
      ],
      [
        "▁eller",
        -6.145561259729998
      ],
      [
        "6",
        -6.147056138994344
      ],
      [
        "d",
        -6.173878429778787
      ],
      [
        "▁men",
        -6.177373995711086
      ],
      [
        "8",
        -6.198337937474852
      ],
      [
        "7",
        -6.202216159061569
      ],
      [
        "?",
        -6.22000390044704
      ],
      [
        "ar",
        -6.248390572524025
      ],
      [
        "/",
        -6.291548797314798
      ],
      [
        "o",
        -6.3292817658722615
      ],
      [
        "▁ska",
        -6.330002567592038
      ],
      [
        "de",
        -6.352361352678102
      ],
      [
        "▁sig",
        -6.376074894399112
      ],
      [
        "▁ut",
        -6.422061360328183
      ],
      [
        "▁in",
        -6.428775641249265
      ],
      [
        "▁när",
        -6.481169114452602
      ],
      [
        "▁Jag",
        -6.488630730410998
      ],
      [
        "▁upp",
        -6.495621914949531
      ],
      [
        "▁här",
        -6.501315961618687
      ],
      [
        "–",
        -6.527951394786969
      ],
      [
        "▁där",
        -6.553970845892925
      ],
      [
        "▁kommer",
        -6.563354558190364
      ],
      [
        "et",
        -6.590025081435066
      ],
      [
        "▁I",
        -6.593727575085435
      ],
      [
        "▁vara",
        -6.631792222045844
      ],
      [
        "▁Vi",
        -6.650759768230442
      ],
      [
        "▁finns",
        -6.664861566928414
      ],
      [
        "▁mer",
        -6.691940733843554
      ],
      [
        "m",
        -6.692413731980295
      ],
      [
        "▁alla",
        -6.708295211705327
      ],
      [
        "▁han",
        -6.721512027498861
      ],
      [
        "▁nu",
        -6.758266789801562
      ],
      [
        "▁under",
        -6.774209511597027
      ],
      [
        "▁också",
        -6.823793400557136
      ],
      [
        "▁får",
        -6.8304755586258015
      ],
      [
        "▁mycket",
        -6.839653617618129
      ],
      [
        "▁år",
        -6.841026527504328
      ],
      [
        "▁mig",
        -6.8490354318491615
      ],
      [
        "▁över",
        -6.850030097317093
      ],
      [
        "▁bra",
        -6.852794410255594
      ],
      [
        "▁efter",
        -6.862641957970661
      ],
      [
        "”",
        -6.874855174056933
      ],
      [
        "▁ha",
        -6.883425343141402
      ],
      [
        "▁lite",
        -6.89132500837332
      ],
      [
        "▁vill",
        -6.907108096075531
      ],
      [
        "▁andra",
        -6.938711092437863
      ],
      [
        "▁då",
        -6.941366819604735
      ],
      [
        "▁få",
        -6.942570877451693
      ],
      [
        "▁även",
        -6.953543436345273
      ],
      [
        "▁bara",
        -6.955809262133505
      ],
      [
        "▁hur",
        -6.961087407952505
      ],
      [
        "▁vid",
        -6.988192243220265
      ],
      [
        "▁dig",
        -7.007973928498769
      ],
      [
        "k",
        -7.025072241321595
      ],
      [
        "▁Men",
        -7.033724279087064
      ],
      [
        "▁vad",
        -7.067452140674746
      ],
      [
        "▁hade",
        -7.068697836190234
      ],
      [
        "p",
        -7.072898030784023
      ],
      [
        "an",
        -7.0957930260861435
      ],
      [
        "▁skulle",
        -7.098543891003356
      ],
      [
        "▁än",
        -7.101155333615321
      ],
      [
        "▁blir",
        -7.117439513782486
      ],
      [
        "▁En",
        -7.12403568983456
      ],
      [
        "erna",
        -7.152655051118714
      ],
      [
        "▁mot",
        -7.1695297368161
      ],
      [
        "▁sin",
        -7.173408890340312
      ],
      [
        "▁göra",
        -7.206806514408628
      ],
      [
        "▁många",
        -7.21253079953839
      ],
      [
        "g",
        -7.216196441302671
      ],
      [
        "▁För",
        -7.219291129405983
      ],
      [
        "▁ta",
        -7.220887606274323
      ],
      [
        "h",
        -7.222164613559578
      ],
      [
        "▁min",
        -7.224620092252868
      ],
      [
        "v",
        -7.242708820752151
      ],
      [
        "l",
        -7.245824634592951
      ],
      [
        "▁ju",
        -7.248202129825335
      ],
      [
        "▁din",
        -7.252150356338376
      ],
      [
        "▁Den",
        -7.257292943547652
      ],
      [
        "▁gör",
        -7.265098733795888
      ],
      [
        "▁detta",
        -7.273856498552238
      ],
      [
        "▁hon",
        -7.27787104100249
      ],
      [
        "▁oss",
        -7.291594510566975
      ],
      [
        "▁utan",
        -7.300674379863073
      ],
      [
        "▁något",
        -7.306002863734493
      ],
      [
        "▁sedan",
        -7.306036976101494
      ],
      [
        "▁De",
        -7.313493240861845
      ],
      [
        "are",
        -7.3286296536376465
      ],
      [
        "▁del",
        -7.347621915396809
      ],
      [
        "▁olika",
        -7.36071975240311
      ],
      [
        "▁två",
        -7.36848084275112
      ],
      [
        "▁allt",
        -7.376310629586518
      ],
      [
        "▁S",
        -7.38823334419326
      ],
      [
        "y",
        -7.395190302454845
      ],
      [
        "▁bli",
        -7.411073356857374
      ],
      [
        "re",
        -7.413145232907787
      ],
      [
        "▁se",
        -7.423653806282244
      ],
      [
        "▁någon",
        -7.428005625546927
      ],
      [
        "▁säger",
        -7.4289067707110625
      ],
      [
        "▁genom",
        -7.434160360861474
      ],
      [
        "ade",
        -7.438512546293325
      ],
      [
        "▁helt",
        -7.465553600909141
      ],
      [
        "▁går",
        -7.466773258415424
      ],
      [
        "▁fram",
        -7.48342943190522
      ],
      [
        "▁fick",
        -7.4840620351316804
      ],
      [
        "▁nya",
        -7.489506297677812
      ],
      [
        "▁Om",
        -7.5087331862125115
      ],
      [
        "f",
        -7.509740176557804
      ],
      [
        "▁hela",
        -7.518827945507391
      ],
      [
        "in",
        -7.530572825542924
      ],
      [
        "▁inom",
        -7.5312197298606005
      ],
      [
        "▁varit",
        -7.550499262309501
      ],
      [
        "▁måste",
        -7.552871521410127
      ],
      [
        "▁första",
        -7.553798427606905
      ],
      [
        "▁blev",
        -7.5567158756816095
      ],
      [
        "▁dem",
        -7.567572346470833
      ],
      [
        "arna",
        -7.56778209355579
      ],
      [
        "▁några",
        -7.577617756801313
      ],
      [
        "ande",
        -7.579430422734413
      ],
      [
        "▁samt",
        -7.586538292800636
      ],
      [
        "▁denna",
        -7.602346676257641
      ],
      [
        "▁Du",
        -7.606950776376744
      ],
      [
        "▁mellan",
        -7.609721895025398
      ],
      [
        "ning",
        -7.619783667941139
      ],
      [
        "▁kunna",
        -7.620249154628841
      ],
      [
        "se",
        -7.631380890982774
      ],
      [
        "▁ni",
        -7.635191007676392
      ],
      [
        "▁När",
        -7.657662589179653
      ],
      [
        "▁själv",
        -7.673916454284765
      ],
      [
        "▁barn",
        -7.678879259347244
      ],
      [
        "at",
        -7.679368095670343
      ],
      [
        "▁Sverige",
        -7.6795141133173885
      ],
      [
        "▁Och",
        -7.684750255833601
      ],
      [
        "&",
        -7.6933317910446295
      ],
      [
        "▁tid",
        -7.698086255543984
      ],
      [
        "▁vår",
        -7.700027908571304
      ],
      [
        "▁ser",
        -7.714866675639424
      ],
      [
        "å",
        -7.71735415539567
      ],
      [
        "▁sätt",
        -7.719660491070073
      ],
      [
        "▁annat",
        -7.721015254560589
      ],
      [
        "S",
        -7.721767218726644
      ],
      [
        ";",
        -7.734582361822319
      ],
      [
        "▁väl",
        -7.73535396816451
      ],
      [
        "▁rätt",
        -7.752645948165254
      ],
      [
        "▁Så",
        -7.754649547920751
      ],
      [
        "▁hos",
        -7.761028529766143
      ],
      [
        "▁dag",
        -7.761183668627227
      ],
      [
        "u",
        -7.763289589990741
      ],
      [
        "▁sina",
        -7.766893918398447
      ],
      [
        "▁vilket",
        -7.767303139674425
      ],
      [
        "c",
        -7.768210380251173
      ],
      [
        "▁både",
        -7.775771560550895
      ],
      [
        "▁A",
        -7.790667483954433
      ],
      [
        "ens",
        -7.804857220774807
      ],
      [
        "▁våra",
        -7.810622716613246
      ],
      [
        "▁Nu",
        -7.812752414192422
      ],
      [
        "ing",
        -7.813900181232844
      ],
      [
        "▁gå",
        -7.818432053221082
      ],
      [
        "▁ny",
        -7.819126890922382
      ],
      [
        "▁stor",
        -7.820104897416417
      ],
      [
        "▁behöver",
        -7.837965170821741
      ],
      [
        "▁kanske",
        -7.853269265638399
      ],
      [
        "▁På",
        -7.853301401925201
      ],
      [
        "▁dessa",
        -7.862693801643152
      ],
      [
        "▁bästa",
        -7.868026095061737
      ],
      [
        "▁vet",
        -7.884393639756734
      ],
      [
        "▁flera",
        -7.891407266033694
      ],
      [
        "▁hem",
        -7.8962611487174925
      ],
      [
        "▁innan",
        -7.904227612888244
      ],
      [
        "▁idag",
        -7.904780309649832
      ],
      [
        "▁kom",
        -7.909830667887201
      ],
      [
        "or",
        -7.914128624384302
      ],
      [
        "▁Han",
        -7.921413542318225
      ],
      [
        "▁B",
        -7.933615721352194
      ],
      [
        "%",
        -7.941454866579598
      ],
      [
        "▁ner",
        -7.942175519794567
      ],
      [
        "▁samma",
        -7.942959470718346
      ],
      [
        "▁ger",
        -7.944718090575229
      ],
      [
        "▁sitt",
        -7.9473985107092275
      ],
      [
        "▁tar",
        -7.950074579597533
      ],
      [
        "▁be",
        -7.958026921921267
      ],
      [
        "▁alltid",
        -7.958981021587707
      ],
      [
        "▁tre",
        -7.969969963009348
      ],
      [
        "▁ditt",
        -7.970032544159514
      ],
      [
        "▁Här",
        -7.9721863594137385
      ],
      [
        "el",
        -7.979754563288145
      ],
      [
        "▁Läs",
        -7.982884766261597
      ],
      [
        "▁bort",
        -7.988349791906936
      ],
      [
        "▁stora",
        -7.990561750039044
      ],
      [
        "▁varje",
        -7.998754782615007
      ],
      [
        "▁bland",
        -8.00168915710988
      ],
      [
        "▁Att",
        -8.003575530743941
      ],
      [
        "j",
        -8.0065584352586
      ],
      [
        "gick",
        -8.01062180057797
      ],
      [
        "▁C",
        -8.013938270737166
      ],
      [
        "▁F",
        -8.020195591044283
      ],
      [
        "▁väldigt",
        -8.021915497449132
      ],
      [
        "▁bättre",
        -8.029428106096232
      ],
      [
        "▁igen",
        -8.035263134809316
      ],
      [
        "▁tycker",
        -8.040996006190387
      ],
      [
        "▁Detta",
        -8.044249937316243
      ],
      [
        "b",
        -8.044496893988878
      ],
      [
        "▁hitta",
        -8.05270415996801
      ],
      [
        "▁T",
        -8.058220283257937
      ],
      [
        "▁ligger",
        -8.060260719929454
      ],
      [
        "x",
        -8.061142854735325
      ],
      [
        "des",
        -8.067954598921771
      ],
      [
        "▁gäller",
        -8.072169460745842
      ],
      [
        "▁P",
        -8.076771802791189
      ],
      [
        "▁just",
        -8.08826328695228
      ],
      [
        "▁nog",
        -8.088876379275899
      ],
      [
        "▁tidigare",
        -8.09682838306424
      ],
      [
        "▁mitt",
        -8.099204110752137
      ],
      [
        "▁fått",
        -8.104077420430842
      ],
      [
        "▁Har",
        -8.114007690667574
      ],
      [
        "▁hotell",
        -8.11608369901084
      ],
      [
        "▁gång",
        -8.124027483513164
      ],
      [
        "man",
        -8.12500285359807
      ],
      [
        "▁komma",
        -8.129774686833652
      ],
      [
        "▁ge",
        -8.13087369770721
      ],
      [
        "▁fall",
        -8.132851161323817
      ],
      [
        "▁ingen",
        -8.138737208634868
      ],
      [
        "▁E",
        -8.139188159286936
      ],
      [
        "▁M",
        -8.139948503292574
      ],
      [
        "▁f",
        -8.142116899263854
      ],
      [
        "▁Med",
        -8.144925394595786
      ],
      [
        "▁kr",
        -8.146043286344197
      ],
      [
        "|",
        -8.14766586474233
      ],
      [
        "on",
        -8.148254366484695
      ],
      [
        "▁åt",
        -8.151926393986527
      ],
      [
        "▁G",
        -8.154240181625132
      ],
      [
        "▁tror",
        -8.156966842210133
      ],
      [
        "▁riktigt",
        -8.15792234154165
      ],
      [
        "▁svenska",
        -8.161575913740828
      ],
      [
        "▁mest",
        -8.165896511208025
      ],
      [
        "▁Vad",
        -8.170036137075206
      ],
      [
        "▁dock",
        -8.173542902692331
      ],
      [
        "▁skall",
        -8.175527127090477
      ],
      [
        "▁annan",
        -8.181021580261186
      ],
      [
        "▁K",
        -8.185406524728608
      ],
      [
        "▁eftersom",
        -8.18904214076382
      ],
      [
        "▁enligt",
        -8.189577181495125
      ],
      [
        "'",
        -8.194228524943194
      ],
      [
        "▁redan",
        -8.198294430593506
      ],
      [
        "▁Ett",
        -8.21009894639686
      ],
      [
        "▁plats",
        -8.210644390367255
      ],
      [
        "▁fler",
        -8.213605113109235
      ],
      [
        "▁Hur",
        -8.214287511387623
      ],
      [
        "▁gratis",
        -8.218470379734478
      ],
      [
        "▁runt",
        -8.220906555951759
      ],
      [
        "▁personer",
        -8.225619170852392
      ],
      [
        "▁dina",
        -8.227764218685666
      ],
      [
        "▁människor",
        -8.229036678358272
      ],
      [
        "▁kunde",
        -8.237524075542092
      ],
      [
        "▁gjort",
        -8.25552222184459
      ],
      [
        "▁hjälp",
        -8.260952824576783
      ],
      [
        "▁information",
        -8.26398875264826
      ],
      [
        "▁företag",
        -8.266906055738707
      ],
      [
        "▁deras",
        -8.267551260977243
      ],
      [
        "▁Man",
        -8.267922495833139
      ],
      [
        "▁dom",
        -8.273782186066017
      ],
      [
        "▁aldrig",
        -8.288946559863344
      ],
      [
        "▁tillbaka",
        -8.295259232198731
      ],
      [
        "▁tillsammans",
        -8.295314719200775
      ],
      [
        "·",
        -8.295774173683117
      ],
      [
        "▁senaste",
        -8.298245032248241
      ],
      [
        "com",
        -8.301881297722087
      ],
      [
        "▁verkligen",
        -8.306655947150041
      ],
      [
        "*",
        -8.309176936721114
      ],
      [
        "A",
        -8.31447468015204
      ],
      [
        "▁gjorde",
        -8.316443513835967
      ],
      [
        "▁ofta",
        -8.317693996325545
      ],
      [
        "nde",
        -8.322612044996614
      ],
      [
        "al",
        -8.328800697638107
      ],
      [
        "▁tiden",
        -8.33595277183615
      ],
      [
        "▁R",
        -8.336657506730552
      ],
      [
        "om",
        -8.346788866449621
      ],
      [
        "▁mina",
        -8.351095917180853
      ],
      [
        "▁tog",
        -8.35953530870811
      ],
      [
        "▁mindre",
        -8.36879828621588
      ],
      [
        "D",
        -8.371595413966702
      ],
      [
        "▁lika",
        -8.374018476462794
      ],
      [
        "▁Stockholm",
        -8.378775237441209
      ],
      [
        "▁sen",
        -8.379278290467436
      ],
      [
        "▁använda",
        -8.379987840386121
      ],
      [
        "B",
        -8.381567473235094
      ],
      [
        "▁mat",
        -8.38257726674935
      ],
      [
        "▁honom",
        -8.388255126907799
      ],
      [
        "▁lätt",
        -8.388779556680593
      ],
      [
        "▁slut",
        -8.395728182490092
      ],
      [
        "▁H",
        -8.39844275156897
      ],
      [
        "▁ur",
        -8.402327803673451
      ],
      [
        "▁spel",
        -8.40348099470696
      ],
      [
        "▁läsa",
        -8.4045852427103
      ],
      [
        "▁köpa",
        -8.406402285381317
      ],
      [
        "▁direkt",
        -8.411099808077036
      ],
      [
        "därför",
        -8.417234557068358
      ],
      [
        "▁online",
        -8.418278871668898
      ],
      [
        "▁hög",
        -8.41884118117655
      ],
      [
        "▁säga",
        -8.422313216709346
      ],
      [
        "▁hemma",
        -8.423128071442646
      ],
      [
        "▁enkelt",
        -8.430265315238824
      ],
      [
        "att",
        -8.43204477820634
      ],
      [
        "▁per",
        -8.434049881195456
      ],
      [
        "▁exempel",
        -8.435841866223791
      ],
      [
        "▁egen",
        -8.436138744635318
      ],
      [
        "[",
        -8.439918382269038
      ],
      [
        "]",
        -8.440460559122327
      ],
      [
        "▁Efter",
        -8.444097869252095
      ],
      [
        "känner",
        -8.444497630973231
      ],
      [
        "▁grund",
        -8.447647127411749
      ],
      [
        "▁små",
        -8.447857181788825
      ],
      [
        "▁Som",
        -8.448529030067183
      ],
      [
        "▁bör",
        -8.45361055056457
      ],
      [
        "▁större",
        -8.453645006573051
      ],
      [
        "▁ändå",
        -8.455080086567483
      ],
      [
        "▁hand",
        -8.455288825625104
      ],
      [
        "för",
        -8.457650514325652
      ],
      [
        "▁mål",
        -8.459878288615679
      ],
      [
        "▁vatten",
        -8.463505392386804
      ],
      [
        "▁O",
        -8.464821858044246
      ],
      [
        "▁Hon",
        -8.46753530510351
      ],
      [
        "▁kvar",
        -8.469628038131436
      ],
      [
        "▁står",
        -8.47115017752201
      ],
      [
        "K",
        -8.471502756606833
      ],
      [
        "▁dagar",
        -8.473528846387183
      ],
      [
        "▁hans",
        -8.4774799454121
      ],
      [
        "▁innebär",
        -8.484548962582352
      ],
      [
        "vis",
        -8.486731023786115
      ],
      [
        "▁problem",
        -8.487226262773685
      ],
      [
        "▁L",
        -8.488141570324391
      ],
      [
        "▁liv",
        -8.49442324038661
      ],
      [
        "T",
        -8.49544637653692
      ],
      [
        "het",
        -8.496681905983642
      ],
      [
        "▁god",
        -8.500547777972159
      ],
      [
        "▁par",
        -8.503234332622771
      ],
      [
        "ut",
        -8.508973360037242
      ],
      [
        "▁procent",
        -8.509420832289408
      ],
      [
        "▁stort",
        -8.510665608113282
      ],
      [
        "▁haft",
        -8.515877779449404
      ],
      [
        "▁Under",
        -8.520649397479751
      ],
      [
        "▁längre",
        -8.523442238076006
      ],
      [
        "M",
        -8.524166820723766
      ],
      [
        "▁saker",
        -8.525887939146475
      ],
      [
        "▁Då",
        -8.532019918260183
      ],
      [
        "▁pengar",
        -8.534348134917296
      ],
      [
        "▁kommun",
        -8.534640994923391
      ],
      [
        "håller",
        -8.53637337084894
      ],
      [
        "blivit",
        -8.53848810208015
      ],
      [
        "▁via",
        -8.540881656719124
      ],
      [
        "P",
        -8.543285355345658
      ],
      [
        "liga",
        -8.545628629595605
      ],
      [
        "ligt",
        -8.554304443069405
      ],
      [
        "▁pris",
        -8.559729978812985
      ],
      [
        "▁kort",
        -8.562036710132327
      ],
      [
        "▁sex",
        -8.562571867018647
      ],
      [
        "▁länge",
        -8.56400278186789
      ],
      [
        "C",
        -8.564047000356302
      ],
      [
        "▁henne",
        -8.564273911015318
      ],
      [
        "▁skapa",
        -8.565114120826971
      ],
      [
        "le",
        -8.568608979986115
      ],
      [
        "mm",
        -8.569035255445025
      ],
      [
        "▁kvinnor",
        -8.5699896516181
      ],
      [
        "▁D",
        -8.571239867905481
      ],
      [
        "▁visar",
        -8.575487990717912
      ],
      [
        "▁faktiskt",
        -8.578605780262198
      ],
      [
        "med",
        -8.579940453664703
      ],
      [
        "▁bil",
        -8.582341540844062
      ],
      [
        "▁hittar",
        -8.582691442463332
      ],
      [
        "▁möjligt",
        -8.585822758831393
      ],
      [
        "▁nytt",
        -8.590633760647904
      ],
      [
        "▁folk",
        -8.593742674278964
      ],
      [
        "▁ca",
        -8.594971501822357
      ],
      [
        "▁inget",
        -8.595199216173114
      ],
      [
        "▁spela",
        -8.60338500228427
      ],
      [
        "▁året",
        -8.603471612532049
      ],
      [
        "som",
        -8.605800689137958
      ],
      [
        "▁vårt",
        -8.606408537235847
      ],
      [
        "▁liten",
        -8.606643382989882
      ],
      [
        "▁ganska",
        -8.608722048531945
      ],
      [
        "▁Är",
        -8.612656352676495
      ],
      [
        "▁ännu",
        -8.614045224446924
      ],
      [
        "▁of",
        -8.616297773677568
      ],
      [
        "▁Där",
        -8.618167859733587
      ],
      [
        "▁svårt",
        -8.619259884456232
      ],
      [
        "berg",
        -8.624459806575574
      ],
      [
        "▁gärna",
        -8.624836951116398
      ],
      [
        "▁bilder",
        -8.626847138103235
      ],
      [
        "▁omdömen",
        -8.628328192563048
      ],
      [
        "▁börjar",
        -8.628744931793747
      ],
      [
        "▁känns",
        -8.630999546122316
      ],
      [
        "Hotell",
        -8.63221572318128
      ],
      [
        "▁inför",
        -8.632242163989611
      ],
      [
        "son",
        -8.6338036420156
      ],
      [
        "ig",
        -8.634240058389588
      ],
      [
        "▁frågor",
        -8.634301715839694
      ],
      [
        "▁lång",
        -8.635175928026767
      ],
      [
        "▁Ja",
        -8.63676947202476
      ],
      [
        "ska",
        -8.638026523905316
      ],
      [
        "▁the",
        -8.638841224461167
      ],
      [
        "▁extra",
        -8.640098349412373
      ],
      [
        "▁sa",
        -8.640353905657628
      ],
      [
        "▁Alla",
        -8.640483657480939
      ],
      [
        "▁hålla",
        -8.641407879205307
      ],
      [
        "▁nära",
        -8.645972446679691
      ],
      [
        "­",
        -8.650481086725236
      ],
      [
        "▁sådan",
        -8.664346641264476
      ],
      [
        "▁ute",
        -8.665617552341654
      ],
      [
        "_",
        -8.666970420490218
      ],
      [
        "▁nästan",
        -8.671382271357757
      ],
      [
        "▁väg",
        -8.671892559361405
      ],
      [
        "N",
        -8.672140524338463
      ],
      [
        "▁fortfarande",
        -8.673568702575384
      ],
      [
        "▁dagen",
        -8.675550020699385
      ],
      [
        "▁kronor",
        -8.679655281464841
      ],
      [
        "▁gånger",
        -8.680392521527157
      ],
      [
        "▁vissa",
        -8.682031877024697
      ],
      [
        "verkar",
        -8.6826952115011
      ],
      [
        "▁vilka",
        -8.682869137160928
      ],
      [
        "▁V",
        -8.685755106921963
      ],
      [
        "gått",
        -8.686474393394148
      ],
      [
        "▁handlar",
        -8.686792026461207
      ],
      [
        "▁dess",
        -8.687328729801704
      ],
      [
        "▁vilken",
        -8.687361883013631
      ],
      [
        "▁fel",
        -8.688354466153257
      ],
      [
        "▁åter",
        -8.690904796868725
      ],
      [
        "▁samtidigt",
        -8.691490763674793
      ],
      [
        "▁erbjuder",
        -8.69162511918568
      ],
      [
        "▁senare",
        -8.69192872894505
      ],
      [
        "+",
        -8.692343297661505
      ],
      [
        "ex",
        -8.69242299817238
      ],
      [
        "us",
        -8.698278489132745
      ],
      [
        "▁precis",
        -8.698776766356325
      ],
      [
        "är",
        -8.699214831306177
      ],
      [
        "F",
        -8.699407605566492
      ],
      [
        "▁söker",
        -8.704214577592596
      ],
      [
        "▁använder",
        -8.704832280014232
      ],
      [
        "alltså",
        -8.708519803518115
      ],
      [
        "I",
        -8.70906118253844
      ],
      [
        "▁jobb",
        -8.70977805329851
      ],
      [
        "▁vidare",
        -8.710653654751303
      ],
      [
        "▁AB",
        -8.711301471784386
      ],
      [
        "▁person",
        -8.711384772399951
      ],
      [
        "▁kl",
        -8.711610948597446
      ],
      [
        "▁form",
        -8.712157664293603
      ],
      [
        "ö",
        -8.718137764109446
      ],
      [
        "▁sidan",
        -8.722450384974946
      ],
      [
        "▁fast",
        -8.723028011047358
      ],
      [
        "▁först",
        -8.723965014808353
      ],
      [
        "▁bild",
        -8.724509556618521
      ],
      [
        "#",
        -8.728063964229044
      ],
      [
        "▁Till",
        -8.728230517274444
      ],
      [
        "började",
        -8.728284483010416
      ],
      [
        "▁hoppas",
        -8.728999696303571
      ],
      [
        "L",
        -8.73094748215504
      ],
      [
        "G",
        -8.735354625457417
      ],
      [
        "största",
        -8.736029220242262
      ],
      [
        "▁gott",
        -8.736271447223865
      ],
      [
        "▁minst",
        -8.740658484149618
      ],
      [
        "▁viktigt",
        -8.742036816007053
      ],
      [
        "flesta",
        -8.742390776442857
      ],
      [
        "vägen",
        -8.742990929627974
      ],
      [
        "▁istället",
        -8.744564466628622
      ],
      [
        "▁skriver",
        -8.744838877682048
      ],
      [
        "talet",
        -8.748392894007688
      ],
      [
        "▁all",
        -8.750657362164675
      ],
      [
        "▁fyra",
        -8.750855915575954
      ],
      [
        "▁nästa",
        -8.754788680493306
      ],
      [
        "▁endast",
        -8.75582698518237
      ],
      [
        "=",
        -8.755979131401773
      ],
      [
        "▁rum",
        -8.756150419772814
      ],
      [
        "▁arbete",
        -8.758235011189779
      ],
      [
        "▁sista",
        -8.76237362861662
      ],
      [
        "lig",
        -8.762520892126997
      ],
      [
        "▁fråga",
        -8.763111402203204
      ],
      [
        "▁N",
        -8.76575435615416
      ],
      [
        "▁In",
        -8.769182168379213
      ],
      [
        "▁ihop",
        -8.770215349317835
      ],
      [
        "▁stöd",
        -8.771110051877846
      ],
      [
        "w",
        -8.771422159667553
      ],
      [
        "▁dejting",
        -8.774212741040342
      ],
      [
        "▁km",
        -8.77755028682613
      ],
      [
        "▁lag",
        -8.78705335060699
      ],
      [
        "▁and",
        -8.791906938675089
      ],
      [
        "iska",
        -8.792127168220988
      ],
      [
        ">",
        -8.794120685632116
      ],
      [
        "▁hel",
        -8.794603843810076
      ],
      [
        "▁beslut",
        -8.79926163763606
      ],
      [
        "▁snabbt",
        -8.803875587875787
      ],
      [
        "ä",
        -8.806893679285704
      ],
      [
        "▁sett",
        -8.810859635755055
      ],
      [
        "▁egna",
        -8.812944029560763
      ],
      [
        "▁själva",
        -8.81606672189419
      ],
      [
        "▁välja",
        -8.816713064677252
      ],
      [
        "▁kring",
        -8.82110994084665
      ],
      [
        "▁Se",
        -8.832020790550905
      ],
      [
        "▁tips",
        -8.835051994169401
      ],
      [
        "▁fem",
        -8.836429091693354
      ],
      [
        "▁såg",
        -8.83683817328524
      ],
      [
        "▁börja",
        -8.840845432260664
      ],
      [
        "men",
        -8.844065930070212
      ],
      [
        "▁världen",
        -8.84470408953574
      ],
      [
        "▁svar",
        -8.845104453133764
      ],
      [
        "▁kontakt",
        -8.84753556182611
      ],
      [
        "▁st",
        -8.848982761029584
      ],
      [
        "▁The",
        -8.849879195881442
      ],
      [
        "ja",
        -8.850688677989377
      ],
      [
        "▁Idag",
        -8.851267468838564
      ],
      [
        "▁möjlighet",
        -8.852268655823757
      ],
      [
        "▁gamla",
        -8.852500871312118
      ],
      [
        "▁kul",
        -8.852667561608136
      ],
      [
        "▁dessutom",
        -8.85289495252963
      ],
      [
        "▁vecka",
        -8.853659418396177
      ],
      [
        "tagit",
        -8.854410735281402
      ],
      [
        "iga",
        -8.857738436377753
      ],
      [
        "inga",
        -8.858828929472725
      ],
      [
        "▁klart",
        -8.861450032399553
      ],
      [
        "um",
        -8.862656529188692
      ],
      [
        "▁typ",
        -8.864442204230468
      ],
      [
        "▁Av",
        -8.864838867387418
      ],
      [
        "▁borde",
        -8.86652528533221
      ],
      [
        "H",
        -8.866656820944522
      ],
      [
        "tal",
        -8.873236583599038
      ],
      [
        "▁J",
        -8.880410787198201
      ],
      [
        "▁män",
        -8.882176504348083
      ],
      [
        "▁visa",
        -8.889365925566741
      ],
      [
        "▁helst",
        -8.892119247443642
      ],
      [
        "ch",
        -8.898346611227673
      ],
      [
        "aste",
        -8.899207749651437
      ],
      [
        "▁fin",
        -8.8999814225444
      ],
      [
        "▁namn",
        -8.901174339575872
      ],
      [
        "▁minuter",
        -8.902706649800352
      ],
      [
        "▁fina",
        -8.906799229233922
      ],
      [
        "▁priser",
        -8.9105961326269
      ],
      [
        "Denna",
        -8.912779620051216
      ],
      [
        "▁hjälpa",
        -8.913208366736642
      ],
      [
        "▁delar",
        -8.91475665647262
      ],
      [
        "▁behov",
        -8.915769358325917
      ],
      [
        "sson",
        -8.915954813648026
      ],
      [
        "▁varför",
        -8.916162626642855
      ],
      [
        "▁skriva",
        -8.917346115956695
      ],
      [
        "▁trots",
        -8.919777968899337
      ],
      [
        "▁långt",
        -8.9206995672329
      ],
      [
        "▁miljö",
        -8.920752977521936
      ],
      [
        "E",
        -8.922451449884585
      ],
      [
        "▁Även",
        -8.924674765006067
      ],
      [
        "▁lägga",
        -8.928667102500192
      ],
      [
        "▁val",
        -8.934588247173567
      ],
      [
        "R",
        -8.938320954394404
      ],
      [
        "▁brukar",
        -8.940366493207906
      ],
      [
        "▁ville",
        -8.943691792120825
      ],
      [
        "“",
        -8.945534704959977
      ],
      [
        "▁början",
        -8.948374573914936
      ],
      [
        "▁enda",
        -8.948626063859423
      ],
      [
        "▁veckan",
        -8.948655206314653
      ],
      [
        "▁Sveriges",
        -8.94872355104308
      ],
      [
        "emot",
        -8.949272909330828
      ],
      [
        "▁Visa",
        -8.95234103983468
      ],
      [
        "▁snart",
        -8.9540385563684
      ],
      [
        "orna",
        -8.954860785962246
      ],
      [
        "▁känna",
        -8.955651836749473
      ],
      [
        "▁Vid",
        -8.956962507349388
      ],
      [
        "av",
        -8.95898582492509
      ],
      [
        "▁tänka",
        -8.960754530554125
      ],
      [
        "hjälper",
        -8.96136698481225
      ],
      [
        "sk",
        -8.962008506171538
      ],
      [
        "▁Max",
        -8.963442259030607
      ],
      [
        "▁ibland",
        -8.963710599349511
      ],
      [
        "▁Air",
        -8.967912695613805
      ],
      [
        "▁maj",
        -8.968262152753463
      ],
      [
        "ge",
        -8.970688903170473
      ],
      [
        "▁bäst",
        -8.971516289451829
      ],
      [
        "▁ord",
        -8.971632896062204
      ],
      [
        "▁arbetar",
        -8.975230415664667
      ],
      [
        "▁färg",
        -8.977446276881277
      ],
      [
        "▁energi",
        -8.979859974993147
      ],
      [
        "▁livet",
        -8.980778852511541
      ],
      [
        "▁Min",
        -8.982105946880681
      ],
      [
        "ström",
        -8.983641421185311
      ],
      [
        "▁Nike",
        -8.984546211300124
      ],
      [
        "hennes",
        -8.984587093736256
      ],
      [
        "▁resultat",
        -8.985220773641057
      ],
      [
        "▁nätet",
        -8.986701187347588
      ],
      [
        "ger",
        -8.986945165952115
      ],
      [
        "▁timmar",
        -8.98930805159306
      ],
      [
        "▁låg",
        -8.99038008052413
      ],
      [
        "▁heller",
        -8.990424221877696
      ],
      [
        "▁vanligt",
        -8.993717731362759
      ],
      [
        "▁Var",
        -8.994302431732804
      ],
      [
        "stod",
        -8.995882071119057
      ],
      [
        "▁medan",
        -8.996173737902367
      ],
      [
        "la",
        -8.996401658960272
      ],
      [
        "fanns",
        -8.998253326517498
      ],
      [
        "▁miljoner",
        -8.999465879350755
      ],
      [
        "▁USA",
        -8.99982655327013
      ],
      [
        "▁egentligen",
        -9.000724243062502
      ],
      [
        "▁passar",
        -9.000839667983199
      ],
      [
        "går",
        -9.0023194660714
      ],
      [
        "▁Sedan",
        -9.002853951562141
      ],
      [
        "▁antal",
        -9.002855122711669
      ],
      [
        "▁framför",
        -9.003713443998727
      ],
      [
        "▁emot",
        -9.00418194346366
      ],
      [
        "O",
        -9.004401019431574
      ],
      [
        "▁hus",
        -9.006015111939458
      ],
      [
        "▁b",
        -9.008168867784729
      ],
      [
        "▁bok",
        -9.008932039403183
      ],
      [
        "▁Ut",
        -9.012403784230518
      ],
      [
        "▁ned",
        -9.014774628485602
      ],
      [
        "kar",
        -9.015142644454517
      ],
      [
        "▁betala",
        -9.015579026379703
      ],
      [
        "▁gången",
        -9.0156156252771
      ],
      [
        "be",
        -9.017170784567394
      ],
      [
        "▁EU",
        -9.019547624314406
      ],
      [
        "▁Be",
        -9.020249140809671
      ],
      [
        "▁dags",
        -9.021823099589955
      ],
      [
        "spel",
        -9.02230722496398
      ],
      [
        "▁Tack",
        -9.025617526975914
      ],
      [
        "igt",
        -9.02666754155307
      ],
      [
        "▁tag",
        -9.02950388748031
      ],
      [
        "by",
        -9.030116210680472
      ],
      [
        "och",
        -9.03455589984467
      ],
      [
        "ningar",
        -9.037074742500586
      ],
      [
        "▁veta",
        -9.037102532243079
      ],
      [
        "▁produkter",
        -9.039288702551007
      ],
      [
        "▁dating",
        -9.039597385913948
      ],
      [
        "era",
        -9.04146361270982
      ],
      [
        "frågan",
        -9.044574762024991
      ],
      [
        "båda",
        -9.04533156680417
      ],
      [
        "▁förslag",
        -9.045998124323905
      ],
      [
        "▁varandra",
        -9.047180055596133
      ],
      [
        "▁utanför",
        -9.05033749728219
      ],
      [
        "▁Kan",
        -9.05096891693281
      ],
      [
        "▁gillar",
        -9.053939485007193
      ],
      [
        "▁fungerar",
        -9.054260628013196
      ],
      [
        "▁W",
        -9.05459154749823
      ],
      [
        "sagt",
        -9.056588578690265
      ],
      [
        "▁svensk",
        -9.057236001194752
      ],
      [
        "▁to",
        -9.057244693405641
      ],
      [
        "ton",
        -9.057282533669369
      ],
      [
        "ma",
        -9.057335301213444
      ],
      [
        "sitter",
        -9.057778667929904
      ],
      [
        "särskilt",
        -9.058305779447695
      ],
      [
        "va",
        -9.061091208481358
      ],
      [
        "▁skolan",
        -9.063257913983415
      ],
      [
        "▁ytterligare",
        -9.064191820314623
      ],
      [
        "den",
        -9.065454125998384
      ],
      [
        "kände",
        -9.06613433752956
      ],
      [
        "▁verksamhet",
        -9.068947973463738
      ],
      [
        "▁Sen",
        -9.069585639042435
      ],
      [
        "z",
        -9.070160735145567
      ],
      [
        "▁resa",
        -9.0709595782824
      ],
      [
        "ka",
        -9.072960811274939
      ],
      [
        "▁Allt",
        -9.075256342863282
      ],
      [
        "▁film",
        -9.076767146381636
      ],
      [
        "rum",
        -9.076880438592154
      ],
      [
        "▁används",
        -9.080681390777565
      ],
      [
        "efter",
        -9.081073033335423
      ],
      [
        "ningen",
        -9.085185850212143
      ],
      [
        "V",
        -9.085203312341944
      ],
      [
        "▁tur",
        -9.086838909284758
      ],
      [
        "väl",
        -9.087521187351472
      ],
      [
        "lagen",
        -9.09034815303725
      ],
      [
        "▁jätte",
        -9.09055121234222
      ],
      [
        "▁Göteborg",
        -9.09431939620825
      ],
      [
        "▁ja",
        -9.096649971388485
      ],
      [
        "▁kommit",
        -9.09811880587266
      ],
      [
        "▁natt",
        -9.099070681354455
      ],
      [
        "ur",
        -9.099453125151227
      ],
      [
        "▁veckor",
        -9.099627696150504
      ],
      [
        "▁arbets",
        -9.100294688868802
      ],
      [
        "land",
        -9.102333674498059
      ],
      [
        "▁skicka",
        -9.106824848561002
      ],
      [
        "▁Bo",
        -9.11140405722536
      ],
      [
        "▁for",
        -9.111630042343403
      ],
      [
        "▁äldre",
        -9.111830445791197
      ],
      [
        "▁besök",
        -9.115234574945344
      ],
      [
        "▁Inte",
        -9.116087809342213
      ],
      [
        "sta",
        -9.11743498593212
      ],
      [
        "ly",
        -9.11809597263139
      ],
      [
        "▁ljus",
        -9.121039800140416
      ],
      [
        "▁landet",
        -9.121347729526986
      ],
      [
        "förra",
        -9.123141501734853
      ],
      [
        "▁kräv",
        -9.123351123656779
      ],
      [
        "▁bakom",
        -9.123617959592742
      ],
      [
        "▁spelar",
        -9.12493056318025
      ],
      [
        "▁bor",
        -9.125208050171086
      ],
      [
        "▁händer",
        -9.127624610329999
      ],
      [
        "▁Svenska",
        -9.131647018137562
      ],
      [
        "tänker",
        -9.13193112029364
      ],
      [
        "ga",
        -9.134456222613451
      ],
      [
        "min",
        -9.134620551392535
      ],
      [
        "▁inlägg",
        -9.134935712177302
      ],
      [
        "▁mamma",
        -9.13579487127185
      ],
      [
        "▁projekt",
        -9.137362718946171
      ],
      [
        "▁Bra",
        -9.141651756364032
      ],
      [
        "▁arbeta",
        -9.142690870255008
      ],
      [
        "▁sida",
        -9.142705720666298
      ],
      [
        "ering",
        -9.144890475370023
      ],
      [
        "▁inne",
        -9.147206912183027
      ],
      [
        "▁lilla",
        -9.149806438549186
      ],
      [
        "bo",
        -9.149943504042529
      ],
      [
        "W",
        -9.151855296490167
      ],
      [
        "▁huvud",
        -9.15647786055529
      ],
      [
        "▁utveckling",
        -9.15667791516892
      ],
      [
        "▁säkert",
        -9.15970905225621
      ],
      [
        "▁sak",
        -9.163643359087493
      ],
      [
        "▁Hotel",
        -9.164074278575825
      ],
      [
        "▁igenom",
        -9.164094717321362
      ],
      [
        "ste",
        -9.165820082744133
      ],
      [
        "tid",
        -9.16609912963338
      ],
      [
        "▁åka",
        -9.166602651399003
      ],
      [
        "▁steg",
        -9.167505870809103
      ],
      [
        "▁pa",
        -9.170143457470198
      ],
      [
        "ligen",
        -9.17023546553729
      ],
      [
        "▁visst",
        -9.172277631680492
      ],
      [
        "▁betyg",
        -9.174061869202545
      ],
      [
        "▁Ta",
        -9.176612753549804
      ],
      [
        "▁Malmö",
        -9.17713606405471
      ],
      [
        "▁dra",
        -9.177297024813411
      ],
      [
        "yvärr",
        -9.177581096554498
      ],
      [
        "▁barnen",
        -9.179477503718577
      ],
      [
        "▁U",
        -9.179482284898867
      ],
      [
        "▁innehåller",
        -9.180649616371028
      ],
      [
        "▁personal",
        -9.181129683662908
      ],
      [
        "Dessutom",
        -9.181910661423752
      ],
      [
        "dag",
        -9.182761281133613
      ],
      [
        "▁Ni",
        -9.183930740811103
      ],
      [
        "▁Vill",
        -9.185149989599033
      ],
      [
        "▁kör",
        -9.185944826634225
      ],
      [
        "▁sätta",
        -9.1869379777748
      ],
      [
        "ring",
        -9.187060625297965
      ],
      [
        "▁full",
        -9.187208852816896
      ],
      [
        "▁lämna",
        -9.19049094746767
      ],
      [
        "▁månader",
        -9.190552344631868
      ],
      [
        "▁högre",
        -9.191085123797553
      ],
      [
        "▁ingår",
        -9.195202922268985
      ],
      [
        "▁blogg",
        -9.196781496349256
      ],
      [
        "Enligt",
        -9.196908546442472
      ],
      [
        "▁krav",
        -9.19771785558657
      ],
      [
        "▁jul",
        -9.198482025737594
      ],
      [
        "▁öppna",
        -9.201240463392374
      ],
      [
        "▁musik",
        -9.20260047543171
      ],
      [
        "▁jobba",
        -9.202670559888187
      ],
      [
        "▁kroppen",
        -9.202848526625177
      ],
      [
        "▁minska",
        -9.206692847803177
      ],
      [
        "ast",
        -9.206859379482955
      ],
      [
        "▁unga",
        -9.20797399703663
      ],
      [
        "gen",
        -9.208023087564149
      ],
      [
        "▁äta",
        -9.20870708890092
      ],
      [
        "▁Re",
        -9.209640600061766
      ],
      [
        "▁kunder",
        -9.211486570296948
      ],
      [
        "hus",
        -9.212043056669708
      ],
      [
        "▁alternativ",
        -9.213378028110311
      ],
      [
        "▁bygga",
        -9.220486528307246
      ],
      [
        "▁alls",
        -9.22089314226393
      ],
      [
        "lag",
        -9.222371401539307
      ],
      [
        "▁perfekt",
        -9.223034466675516
      ],
      [
        "▁berättar",
        -9.23432678263182
      ],
      [
        "▁bonus",
        -9.2398617177445
      ],
      [
        "Många",
        -9.240691362672138
      ],
      [
        "▁sommar",
        -9.24202547848891
      ],
      [
        "▁max",
        -9.243185458451862
      ],
      [
        "▁skrev",
        -9.243463767389938
      ],
      [
        "väljer",
        -9.247982358632061
      ],
      [
        "▁roligt",
        -9.248338499803124
      ],
      [
        "på",
        -9.249447385094319
      ],
      [
        "▁ex",
        -9.250688800249792
      ],
      [
        "▁hotellet",
        -9.251069358070184
      ],
      [
        "främst",
        -9.251513781436287
      ],
      [
        "▁åren",
        -9.254435407882205
      ],
      [
        "▁januari",
        -9.25461602492122
      ],
      [
        "▁mars",
        -9.25624008015056
      ],
      [
        "▁lära",
        -9.257202985217283
      ],
      [
        "rätt",
        -9.261971509186472
      ],
      [
        "▁vanliga",
        -9.264176571561007
      ],
      [
        "▁tack",
        -9.2649101179099
      ],
      [
        "▁vänner",
        -9.266430696761185
      ],
      [
        "▁fri",
        -9.266741104432288
      ],
      [
        "ör",
        -9.267536641810183
      ],
      [
        "▁dejta",
        -9.267763812719183
      ],
      [
        "samma",
        -9.271136302818446
      ],
      [
        "▁fort",
        -9.276480656340798
      ],
      [
        "▁spelare",
        -9.277367592764962
      ],
      [
        "kr",
        -9.27963710158217
      ],
      [
        "$",
        -9.279938767591917
      ],
      [
        "▁augusti",
        -9.28045936898087
      ],
      [
        "Det",
        -9.280745385719785
      ],
      [
        "▁Genom",
        -9.281049710523867
      ],
      [
        "<",
        -9.282080170795926
      ],
      [
        "▁sker",
        -9.282989095446991
      ],
      [
        "▁service",
        -9.283084890399458
      ],
      [
        "▁län",
        -9.286450622790573
      ],
      [
        "▁samband",
        -9.286801304101008
      ],
      [
        "▁kolla",
        -9.286950858190885
      ],
      [
        "▁titta",
        -9.28703425013802
      ],
      [
        "laget",
        -9.289240556402039
      ],
      [
        "över",
        -9.289488609697276
      ],
      [
        "▁fint",
        -9.291270262319745
      ],
      [
        "▁igång",
        -9.291569231988575
      ],
      [
        "▁lär",
        -9.294568809088567
      ],
      [
        "försöka",
        -9.29502791396424
      ],
      [
        "▁Ska",
        -9.295974177714267
      ],
      [
        "▁ej",
        -9.296674655265623
      ],
      [
        "bar",
        -9.298902286203884
      ],
      [
        "▁satt",
        -9.299478504862705
      ],
      [
        "co",
        -9.300289872234226
      ],
      [
        "ation",
        -9.300952422758
      ],
      [
        "▁följa",
        -9.301062527174286
      ],
      [
        "▁följande",
        -9.301633926831334
      ],
      [
        "ha",
        -9.30421316803012
      ],
      [
        "ell",
        -9.304272393568779
      ],
      [
        "▁spännande",
        -9.304782047493843
      ],
      [
        "del",
        -9.305272585162042
      ],
      [
        "val",
        -9.305568273707182
      ],
      [
        "▁ifrån",
        -9.305992073199246
      ],
      [
        "▁massa",
        -9.306133772234132
      ],
      [
        "▁goda",
        -9.306992860190098
      ],
      [
        "▁ansvar",
        -9.30708480200812
      ],
      [
        "▁glad",
        -9.313911370706151
      ],
      [
        "▁tydlig",
        -9.314483378761679
      ],
      [
        "»",
        -9.31469175638316
      ],
      [
        "▁öka",
        -9.315932228242273
      ],
      [
        "▁dit",
        -9.31661137111943
      ],
      [
        "▁nå",
        -9.318634810098636
      ],
      [
        "▁bo",
        -9.318745418336958
      ],
      [
        "▁roll",
        -9.32061142762788
      ],
      [
        "▁Från",
        -9.320668291551263
      ],
      [
        "eller",
        -9.321028621107134
      ],
      [
        "▁match",
        -9.321361932785111
      ],
      [
        "isk",
        -9.322628566625704
      ],
      [
        "▁kvinna",
        -9.322656408828584
      ],
      [
        "▁utbildning",
        -9.322935890421629
      ],
      [
        "▁eget",
        -9.323828466372088
      ],
      [
        "▁start",
        -9.324571395050713
      ],
      [
        "▁ovan",
        -9.325429608575392
      ],
      [
        "slutet",
        -9.325733333996737
      ],
      [
        "▁fr",
        -9.326208738356065
      ],
      [
        "▁sol",
        -9.32671725611403
      ],
      [
        "▁grupp",
        -9.32876486520069
      ],
      [
        "var",
        -9.329258546921416
      ],
      [
        "▁erfarenhet",
        -9.332277675719121
      ],
      [
        "▁tillgång",
        -9.332316922071328
      ],
      [
        "▁liknande",
        -9.333046894449103
      ],
      [
        "▁tv",
        -9.33552553730714
      ],
      [
        "J",
        -9.336583080205239
      ],
      [
        "▁området",
        -9.336978522209156
      ],
      [
        "stående",
        -9.338685382803545
      ],
      [
        "▁älskar",
        -9.33936837059298
      ],
      [
        "▁viktig",
        -9.34032249366379
      ],
      [
        "▁poäng",
        -9.340659239263143
      ],
      [
        "▁länder",
        -9.342074952740193
      ],
      [
        "▁material",
        -9.342447756226761
      ],
      [
        "▁casino",
        -9.342772809855582
      ],
      [
        "▁jämför",
        -9.343337315184344
      ],
      [
        "▁skor",
        -9.345196920244026
      ],
      [
        "▁jobbet",
        -9.345322636852991
      ],
      [
        "▁Mer",
        -9.345874194512616
      ],
      [
        "▁TV",
        -9.346440687447007
      ],
      [
        "Dessa",
        -9.347101149697782
      ],
      [
        "▁kvalitet",
        -9.349922154855548
      ],
      [
        "▁månad",
        -9.350548620219362
      ],
      [
        "▁uppgifter",
        -9.352660204015558
      ],
      [
        "▁jobbar",
        -9.353276137127526
      ],
      [
        "liksom",
        -9.353993915049575
      ],
      [
        "▁vem",
        -9.35730366842815
      ],
      [
        "▁fortsätta",
        -9.357458104603813
      ],
      [
        "▁program",
        -9.35801504414446
      ],
      [
        "▁meter",
        -9.358935457228787
      ],
      [
        "ve",
        -9.360418804237465
      ],
      [
        "▁Nej",
        -9.362522008895574
      ],
      [
        "os",
        -9.362762245890025
      ],
      [
        "▁vård",
        -9.36310994433689
      ],
      [
        "▁hälsa",
        -9.363271807611822
      ],
      [
        "▁Ha",
        -9.364168616508243
      ],
      [
        "•",
        -9.365884327364942
      ],
      [
        "▁An",
        -9.366558336929867
      ],
      [
        "▁kultur",
        -9.367093202947418
      ],
      [
        "▁igår",
        -9.367598128670238
      ],
      [
        "▁vanlig",
        -9.369284583261257
      ],
      [
        "▁kommunen",
        -9.369316397527937
      ],
      [
        "▁försöker",
        -9.370611036932475
      ],
      [
        "Jag",
        -9.371409946130248
      ],
      [
        "▁juni",
        -9.371656441296702
      ],
      [
        "▁företaget",
        -9.372891198634989
      ],
      [
        "▁halv",
        -9.373061015468341
      ],
      [
        "▁stå",
        -9.37383023073631
      ],
      [
        "▁köp",
        -9.376567983924947
      ],
      [
        "▁nedan",
        -9.376640531535925
      ],
      [
        "▁tredje",
        -9.376891405359578
      ],
      [
        "§",
        -9.37750569750144
      ],
      [
        "▁träffa",
        -9.377819563548547
      ],
      [
        "▁stund",
        -9.37964437782689
      ],
      [
        "▁tio",
        -9.381083154236457
      ],
      [
        "▁Ny",
        -9.38130381178632
      ],
      [
        "▁utveckla",
        -9.381321318702645
      ],
      [
        "▁djur",
        -9.381685265925164
      ],
      [
        "▁bl",
        -9.381950742098287
      ],
      [
        "sjön",
        -9.38280491705961
      ],
      [
        "nas",
        -9.382913894828738
      ],
      [
        "▁rör",
        -9.384633647560495
      ],
      [
        "▁nätdejting",
        -9.384917949952195
      ],
      [
        "▁favorit",
        -9.386485474068598
      ],
      [
        "▁cm",
        -9.387719147477554
      ],
      [
        "låter",
        -9.387808888177924
      ],
      [
        "▁fortsätter",
        -9.39041331361381
      ],
      [
        "▁Anna",
        -9.391460952571009
      ],
      [
        "▁tro",
        -9.39161532279869
      ],
      [
        "▁Jo",
        -9.391967663972867
      ],
      [
        "▁års",
        -9.392527512744865
      ],
      [
        "▁land",
        -9.392925124249604
      ],
      [
        "ras",
        -9.394613548535002
      ],
      [
        "så",
        -9.395105231342304
      ],
      [
        "é",
        -9.395632853508326
      ],
      [
        "▁Vår",
        -9.396973963691718
      ],
      [
        "der",
        -9.398035374150794
      ],
      [
        "betyder",
        -9.399594686149637
      ],
      [
        "▁närheten",
        -9.400182098037252
      ],
      [
        "▁kontakta",
        -9.400862972831478
      ],
      [
        "▁vilja",
        -9.401140703729864
      ],
      [
        "▁Eller",
        -9.401272997094974
      ],
      [
        "▁skol",
        -9.403220256529746
      ],
      [
        "og",
        -9.403970415622949
      ],
      [
        "ist",
        -9.405799967299714
      ],
      [
        "▁La",
        -9.406897125553794
      ],
      [
        "▁behövs",
        -9.40883292459793
      ],
      [
        "▁hår",
        -9.412450267612964
      ],
      [
        "▁engelska",
        -9.414480812745696
      ],
      [
        "▁kväll",
        -9.414521406498343
      ],
      [
        "▁recept",
        -9.41471405662777
      ],
      [
        "—",
        -9.41533032586664
      ],
      [
        "▁telefon",
        -9.415394894085633
      ],
      [
        "▁snabb",
        -9.416573195157646
      ],
      [
        "lösa",
        -9.418190732554999
      ],
      [
        "▁användas",
        -9.420968926387888
      ],
      [
        "system",
        -9.42152077743166
      ],
      [
        "▁april",
        -9.421934887054347
      ],
      [
        "▁arbetet",
        -9.422017629362792
      ],
      [
        "mer",
        -9.42438336037122
      ],
      [
        "▁oktober",
        -9.424778050963571
      ],
      [
        "▁prata",
        -9.425543809314384
      ],
      [
        "▁köra",
        -9.425655070384355
      ],
      [
        "▁Hitta",
        -9.426869830327698
      ],
      [
        "erade",
        -9.42724268911937
      ],
      [
        "▁fortsatt",
        -9.427291044636222
      ],
      [
        "▁gav",
        -9.42809715432548
      ],
      [
        "▁september",
        -9.428312745595715
      ],
      [
        "▁råd",
        -9.429451188572513
      ],
      [
        "▁bidra",
        -9.431176257046399
      ],
      [
        "me",
        -9.43290459653567
      ],
      [
        "▁data",
        -9.43302380831881
      ],
      [
        "Därför",
        -9.434337427998594
      ],
      [
        "▁dejtingsajt",
        -9.435172432277628
      ],
      [
        "▁heter",
        -9.437244620519465
      ],
      [
        "ner",
        -9.437397136833967
      ],
      [
        "▁morgon",
        -9.438803529889938
      ],
      [
        "▁Europa",
        -9.43906142953471
      ],
      [
        "står",
        -9.439865874722926
      ],
      [
        "▁bilen",
        -9.440034976591503
      ],
      [
        "▁super",
        -9.44028320831582
      ],
      [
        "▁ungefär",
        -9.44059903117588
      ],
      [
        "Vi",
        -9.440895439556687
      ],
      [
        "till",
        -9.441448958732604
      ],
      [
        "ling",
        -9.443118091417823
      ],
      [
        "▁påverka",
        -9.444737032432611
      ],
      [
        "▁samarbete",
        -9.444944513082403
      ],
      [
        "exempelvis",
        -9.445416343238861
      ],
      [
        "▁intressant",
        -9.447192521414223
      ],
      [
        "ic",
        -9.449080284953757
      ],
      [
        "delen",
        -9.449774117617414
      ],
      [
        "▁risk",
        -9.45100167716858
      ],
      [
        "▁system",
        -9.45143587943568
      ],
      [
        "ler",
        -9.452901981061837
      ],
      [
        "tyckte",
        -9.452912045101861
      ],
      [
        "anser",
        -9.453282640500472
      ],
      [
        "Varför",
        -9.453429442642
      ],
      [
        "▁hör",
        -9.453824573392623
      ],
      [
        "lin",
        -9.456322325643864
      ],
      [
        "ont",
        -9.457218384957683
      ],
      [
        "▁intresse",
        -9.460446017805356
      ],
      [
        "▁hemsida",
        -9.462646142141727
      ],
      [
        "▁viss",
        -9.464846522331383
      ],
      [
        "▁kunskap",
        -9.465865951851082
      ],
      [
        "Kanske",
        -9.466805779727693
      ],
      [
        "▁cirka",
        -9.467327063728842
      ],
      [
        "▁absolut",
        -9.468639909102013
      ],
      [
        "år",
        -9.470434671350855
      ],
      [
        "rna",
        -9.471264213214802
      ],
      [
        "▁fokus",
        -9.471486808201876
      ],
      [
        "▁februari",
        -9.471874266707927
      ],
      [
        "kan",
        -9.473194670055276
      ],
      [
        "▁uppdrag",
        -9.473217523699649
      ],
      [
        "tra",
        -9.473675909229614
      ],
      [
        "▁boken",
        -9.475289566204449
      ],
      [
        "▁klar",
        -9.477273484788089
      ],
      [
        "▁behandling",
        -9.47832922492644
      ],
      [
        "ett",
        -9.478483082431376
      ],
      [
        "▁sommaren",
        -9.478918754820219
      ],
      [
        "▁vackra",
        -9.479032317652264
      ],
      [
        "visade",
        -9.479211822160023
      ],
      [
        "oftast",
        -9.479574938858004
      ],
      [
        "kort",
        -9.480301380777583
      ],
      [
        "finnas",
        -9.480657809817906
      ],
      [
        "bolaget",
        -9.481958771215634
      ],
      [
        "▁design",
        -9.482140043099065
      ],
      [
        "lägger",
        -9.486119029904103
      ],
      [
        "behöva",
        -9.488174978148171
      ],
      [
        "lar",
        -9.489651770738377
      ],
      [
        "▁helgen",
        -9.491431531154367
      ],
      [
        "programmet",
        -9.492027388040777
      ],
      [
        "▁mobil",
        -9.492196342407466
      ],
      [
        "ven",
        -9.492281341309393
      ],
      [
        "▁kund",
        -9.497004210295628
      ],
      [
        "bok",
        -9.49745546443646
      ],
      [
        "består",
        -9.497818787039543
      ],
      [
        "▁beroende",
        -9.498091559481242
      ],
      [
        "▁X",
        -9.498920074652833
      ],
      [
        "▁senast",
        -9.500050901798307
      ],
      [
        "▁boende",
        -9.501226902793283
      ],
      [
        "gående",
        -9.502679564687469
      ],
      [
        "post",
        -9.502716748583413
      ],
      [
        "▁framtiden",
        -9.503050263764457
      ],
      [
        "hört",
        -9.504806986770587
      ],
      [
        "▁familj",
        -9.505863049997027
      ],
      [
        "övriga",
        -9.50706523645259
      ],
      [
        "ökar",
        -9.50719672330511
      ],
      [
        "▁St",
        -9.50798049122821
      ],
      [
        "▁bak",
        -9.50871549076551
      ],
      [
        "ant",
        -9.509275858311707
      ],
      [
        "▁klara",
        -9.509616349745086
      ],
      [
        "▁berätta",
        -9.510096180274685
      ],
      [
        "kommande",
        -9.510276767794341
      ],
      [
        "systemet",
        -9.513409782754863
      ],
      [
        "▁internet",
        -9.513632503927807
      ],
      [
        "tänkte",
        -9.513724505676693
      ],
      [
        "▁ställa",
        -9.514127821642145
      ],
      [
        "▁Per",
        -9.514450800673622
      ],
      [
        "▁speciellt",
        -9.514456841305478
      ],
      [
        "▁förstår",
        -9.515586295213602
      ],
      [
        "▁december",
        -9.516678460322039
      ],
      [
        "▁stil",
        -9.51675011758625
      ],
      [
        "▁bilden",
        -9.516750978177726
      ],
      [
        "läget",
        -9.517011072742122
      ],
      [
        "▁plan",
        -9.517454801963412
      ],
      [
        "▁kvällen",
        -9.518391551841695
      ],
      [
        "▁El",
        -9.519662489789065
      ],
      [
        "▁följer",
        -9.521171593609447
      ],
      [
        "▁produkt",
        -9.521211644391318
      ],
      [
        "▁november",
        -9.521654564312138
      ],
      [
        "▁tanke",
        -9.52256158049203
      ],
      [
        "▁språk",
        -9.523906628445062
      ],
      [
        "tar",
        -9.524125062914743
      ],
      [
        "▁rad",
        -9.524630220328378
      ],
      [
        "▁topp",
        -9.524977828772716
      ],
      [
        "▁ändra",
        -9.525560846524854
      ],
      [
        "nu",
        -9.525791677699932
      ],
      [
        "▁eventuell",
        -9.526106189720512
      ],
      [
        "gren",
        -9.52619828454686
      ],
      [
        "▁staden",
        -9.528326737361782
      ],
      [
        "▁viktiga",
        -9.52848845906465
      ],
      [
        "▁svart",
        -9.530054165408027
      ],
      [
        "gruppen",
        -9.530581317066845
      ],
      [
        "▁natur",
        -9.5329332491168
      ],
      [
        "▁va",
        -9.53514898298704
      ],
      [
        "gatan",
        -9.536344861721538
      ],
      [
        "▁familjen",
        -9.540442044688982
      ],
      [
        "vi",
        -9.540602761301676
      ],
      [
        "Eftersom",
        -9.541512138962743
      ],
      [
        "ifrån",
        -9.541940780342891
      ],
      [
        "▁skapar",
        -9.542997685009249
      ],
      [
        "erad",
        -9.545548051874151
      ],
      [
        "▁skönt",
        -9.549349760711797
      ],
      [
        "▁juli",
        -9.549929607717848
      ],
      [
        "▁hund",
        -9.5504619202356
      ],
      [
        "▁Hej",
        -9.551054091035681
      ],
      [
        "höll",
        -9.55126041291205
      ],
      [
        "▁lever",
        -9.551397615529623
      ],
      [
        "alldeles",
        -9.551810504237888
      ],
      [
        "ion",
        -9.552314394132628
      ],
      [
        "▁träning",
        -9.552689085887195
      ],
      [
        "otroligt",
        -9.553452532333457
      ],
      [
        "typer",
        -9.553867276123894
      ],
      [
        "▁förstå",
        -9.557380332442829
      ],
      [
        "▁tjänster",
        -9.559095304203252
      ],
      [
        "åkte",
        -9.559240131766796
      ],
      [
        "▁vänta",
        -9.560306147415282
      ],
      [
        "▁air",
        -9.562986074949025
      ],
      [
        "annars",
        -9.564488244729992
      ],
      [
        "▁Stockholms",
        -9.566652120548648
      ],
      [
        "▁skillnad",
        -9.566850079830816
      ],
      [
        "▁anledning",
        -9.567131402571937
      ],
      [
        "▁dagens",
        -9.567314987361137
      ],
      [
        "▁app",
        -9.567321261161293
      ],
      [
        "▁regeringen",
        -9.567637293664765
      ],
      [
        "▁Å",
        -9.568562037636156
      ],
      [
        "slag",
        -9.569725004935327
      ],
      [
        "ll",
        -9.576159910774335
      ],
      [
        "▁lan",
        -9.577035579084518
      ],
      [
        "▁säker",
        -9.577535955722219
      ],
      [
        "ans",
        -9.577684342345014
      ],
      [
        "aren",
        -9.577938972732674
      ],
      [
        "▁Pris",
        -9.578054745128123
      ],
      [
        "▁låta",
        -9.57902319645983
      ],
      [
        "matchen",
        -9.579023318983007
      ],
      [
        "ken",
        -9.582045202822489
      ],
      [
        "▁stället",
        -9.583863882295745
      ],
      [
        "▁erbjuda",
        -9.585141400398989
      ],
      [
        "▁stad",
        -9.586042459997921
      ],
      [
        "beror",
        -9.586928935253795
      ],
      [
        "krävs",
        -9.587698605072351
      ],
      [
        "▁testa",
        -9.587842963793962
      ],
      [
        "TM",
        -9.588957431740372
      ],
      [
        "▁lugn",
        -9.589345582255179
      ],
      [
        "▁tänkt",
        -9.590586435681692
      ],
      [
        "plan",
        -9.591137687630718
      ],
      [
        "mat",
        -9.591195288552411
      ],
      [
        "mannen",
        -9.59199967614616
      ],
      [
        "▁föräldrar",
        -9.594434593173315
      ],
      [
        "▁fungera",
        -9.595140300906136
      ],
      [
        "▁höra",
        -9.596181635993142
      ],
      [
        "▁flyg",
        -9.596502620568732
      ],
      [
        "oavsett",
        -9.596601561888289
      ],
      [
        "ets",
        -9.59671319823196
      ],
      [
        "▁sociala",
        -9.596907067586596
      ],
      [
        "väntar",
        -9.598487156644637
      ],
      [
        "▁förbättra",
        -9.598560850663363
      ],
      [
        "▁dator",
        -9.599707705097659
      ],
      [
        "▁nike",
        -9.599750246000166
      ],
      [
        "▁vän",
        -9.599771626420157
      ],
      [
        "▁Köp",
        -9.599928418027723
      ],
      [
        "▁samhället",
        -9.600859426935452
      ],
      [
        "sätter",
        -9.601944203580878
      ],
      [
        "iskt",
        -9.6053780283555
      ],
      [
        "spelet",
        -9.608640582858177
      ],
      [
        "▁gammal",
        -9.609186045018726
      ],
      [
        "▁framtid",
        -9.611671066552491
      ],
      [
        "▁diskutera",
        -9.612295434282768
      ],
      [
        "▁Al",
        -9.612335708709804
      ],
      [
        "lan",
        -9.612788467492548
      ],
      [
        "▁världens",
        -9.612918833463738
      ],
      [
        "än",
        -9.613431875043318
      ],
      [
        "tor",
        -9.614618749582718
      ],
      [
        "ledande",
        -9.614982718620144
      ],
      [
        "lund",
        -9.615194827680883
      ],
      [
        "▁verksamheten",
        -9.615229878707018
      ],
      [
        "▁klockan",
        -9.616508379645877
      ],
      [
        "program",
        -9.616883812696788
      ],
      [
        "▁Ö",
        -9.617483848958168
      ],
      [
        "huset",
        -9.617795144568897
      ],
      [
        "▁Just",
        -9.6182789383628
      ],
      [
        "plats",
        -9.619334069367486
      ],
      [
        "▁flytta",
        -9.619507950695011
      ],
      [
        "ny",
        -9.620916483423489
      ],
      [
        "bara",
        -9.62139181892376
      ],
      [
        "▁värde",
        -9.621424811352293
      ],
      [
        "▁hantera",
        -9.621703208271196
      ],
      [
        "▁Anders",
        -9.62338268502334
      ],
      [
        "▁New",
        -9.62459646805037
      ],
      [
        "▁leder",
        -9.624831577541086
      ],
      [
        "▁möjligheter",
        -9.625545361182661
      ],
      [
        "▁höga",
        -9.626935346394319
      ],
      [
        "sidan",
        -9.627213208804763
      ],
      [
        "sökte",
        -9.627247400456648
      ],
      [
        "värt",
        -9.627266713379809
      ],
      [
        "▁planera",
        -9.628446959770866
      ],
      [
        "ca",
        -9.629076161462404
      ],
      [
        "▁utifrån",
        -9.629647460760951
      ],
      [
        "drar",
        -9.629881388985156
      ],
      [
        "▁vikt",
        -9.63107547234845
      ],
      [
        "▁högt",
        -9.633604178081985
      ],
      [
        "▁Johan",
        -9.634652587383986
      ],
      [
        "▁spara",
        -9.634766976248235
      ],
      [
        "▁snö",
        -9.637173257702175
      ],
      [
        "▁marknaden",
        -9.637985708899283
      ],
      [
        "▁leva",
        -9.638936518745023
      ],
      [
        "▁samtal",
        -9.639292682609337
      ],
      [
        "▁samman",
        -9.640889911961303
      ],
      [
        "▁historia",
        -9.641300272981502
      ],
      [
        "▁medlemmar",
        -9.641843807598233
      ],
      [
        "fall",
        -9.641884813272949
      ],
      [
        "▁lån",
        -9.644679035205543
      ],
      [
        "▁iväg",
        -9.645464213454426
      ],
      [
        "▁la",
        -9.646467000095594
      ],
      [
        "gör",
        -9.647301523642899
      ],
      [
        "tittade",
        -9.648064493374237
      ],
      [
        "▁ordförande",
        -9.648468522613124
      ],
      [
        "▁SEK",
        -9.649240775468986
      ],
      [
        "menar",
        -9.649549435944405
      ],
      [
        "form",
        -9.649871586669569
      ],
      [
        "ng",
        -9.650373613074764
      ],
      [
        "▁kläder",
        -9.650892746022956
      ],
      [
        "▁Sa",
        -9.651261730017373
      ],
      [
        "▁elever",
        -9.651937373655294
      ],
      [
        "mo",
        -9.652251056120374
      ],
      [
        "▁huset",
        -9.652354644129657
      ],
      [
        "▁icke",
        -9.652820726650523
      ],
      [
        "Mycket",
        -9.653193377867739
      ],
      [
        "stad",
        -9.655504602862855
      ],
      [
        "▁polisen",
        -9.657286347561534
      ],
      [
        "▁nöjd",
        -9.657802598679398
      ],
      [
        "sjö",
        -9.65878072421111
      ],
      [
        "▁kap",
        -9.659363008638987
      ],
      [
        "mar",
        -9.660198701279812
      ],
      [
        "▁Facebook",
        -9.660739003295248
      ],
      [
        "len",
        -9.663750468061709
      ],
      [
        "▁vinna",
        -9.663789466659995
      ],
      [
        "resten",
        -9.663957884574279
      ],
      [
        "antalet",
        -9.665398556684238
      ],
      [
        "▁totalt",
        -9.66611008655794
      ],
      [
        "ord",
        -9.66855831956406
      ],
      [
        "▁sakna",
        -9.669297062087805
      ],
      [
        "▁teknik",
        -9.669541228187459
      ],
      [
        "ker",
        -9.66991697761021
      ],
      [
        "▁ren",
        -9.670336157753379
      ],
      [
        "▁artikel",
        -9.672898361640957
      ],
      [
        "▁Kina",
        -9.675754723156345
      ],
      [
        "▁omkring",
        -9.675788573410157
      ],
      [
        "▁delta",
        -9.676057294240545
      ],
      [
        "▁byta",
        -9.676073356074387
      ],
      [
        "▁tjejer",
        -9.678404145672587
      ],
      [
        "▁fullt",
        -9.679398837861202
      ],
      [
        "▁söka",
        -9.6794656464756
      ],
      [
        "▁semester",
        -9.67958322632848
      ],
      [
        "nämlig",
        -9.679591552463624
      ],
      [
        "▁vin",
        -9.681332431356589
      ],
      [
        "▁dejtingsajter",
        -9.681632185256626
      ],
      [
        "tur",
        -9.684367021847825
      ],
      [
        "▁stanna",
        -9.685905380868382
      ],
      [
        "mark",
        -9.6863506086941
      ],
      [
        "upp",
        -9.686954111577979
      ],
      [
        "resenärer",
        -9.687834364405166
      ],
      [
        "▁stark",
        -9.687916869902109
      ],
      [
        "▁konst",
        -9.687999545254547
      ],
      [
        "nummer",
        -9.688341391912367
      ],
      [
        "▁trä",
        -9.688710386817382
      ],
      [
        "▁åker",
        -9.690019023819094
      ],
      [
        "▁Le",
        -9.690401627465704
      ],
      [
        "▁dryg",
        -9.690623075141648
      ],
      [
        "▁text",
        -9.690854614000692
      ],
      [
        "liv",
        -9.691339994807265
      ],
      [
        "tes",
        -9.691541750319365
      ],
      [
        "▁hämta",
        -9.692081924786665
      ],
      [
        "▁böcker",
        -9.692742394325506
      ],
      [
        "lägre",
        -9.692770241795234
      ],
      [
        "▁hittade",
        -9.693216831159205
      ],
      [
        "▁Tänk",
        -9.693401009606957
      ],
      [
        "▁kaffe",
        -9.693631104897133
      ],
      [
        "ju",
        -9.69392768037054
      ],
      [
        "▁avsluta",
        -9.694457330901932
      ],
      [
        "▁storlek",
        -9.694691227289217
      ],
      [
        "▁lunch",
        -9.6951347721895
      ],
      [
        "▁långa",
        -9.695542737458828
      ],
      [
        "ster",
        -9.697578746914356
      ],
      [
        "▁pappa",
        -9.69792756948327
      ],
      [
        "bi",
        -9.698084086871383
      ],
      [
        "▁sitta",
        -9.698784035268421
      ],
      [
        "ry",
        -9.699325761664884
      ],
      [
        "▁lokal",
        -9.699576370293236
      ],
      [
        "▁tillhör",
        -9.700190163436533
      ],
      [
        "▁lokala",
        -9.700521319360208
      ],
      [
        "sådana",
        -9.701225928390333
      ],
      [
        "▁säsongen",
        -9.702400156428107
      ],
      [
        "tidigt",
        -9.702663168824193
      ],
      [
        "ort",
        -9.702699940039327
      ],
      [
        "▁recensioner",
        -9.70287438686984
      ],
      [
        "▁by",
        -9.703149475829266
      ],
      [
        "skrivit",
        -9.70323733018759
      ],
      [
        "hända",
        -9.703638810575526
      ],
      [
        "skydd",
        -9.704082740475657
      ],
      [
        "▁billiga",
        -9.704088939769234
      ],
      [
        "gel",
        -9.704404522851567
      ],
      [
        "up",
        -9.704464534089546
      ],
      [
        "ats",
        -9.704681641620788
      ],
      [
        "▁luft",
        -9.705743741125552
      ],
      [
        "▁svår",
        -9.70582831564937
      ],
      [
        "▁utmärkt",
        -9.707409235888553
      ],
      [
        "▁kraft",
        -9.708167837844888
      ],
      [
        "ver",
        -9.710393884403587
      ],
      [
        "’",
        -9.711080353288224
      ],
      [
        "verk",
        -9.711508447740368
      ],
      [
        "▁vann",
        -9.711898507730375
      ],
      [
        "li",
        -9.71260316189169
      ],
      [
        "op",
        -9.712777848358787
      ],
      [
        "äter",
        -9.71307111071672
      ],
      [
        "▁pro",
        -9.71413527509014
      ],
      [
        "politiska",
        -9.715362468333579
      ],
      [
        "respektive",
        -9.715954121862488
      ],
      [
        "▁boka",
        -9.716765680314522
      ],
      [
        "▁Peter",
        -9.716908748697131
      ],
      [
        "▁date",
        -9.717010763520623
      ],
      [
        "▁Uppsala",
        -9.717093722725497
      ],
      [
        "▁ljud",
        -9.717274844699517
      ],
      [
        "▁frukost",
        -9.717326564361686
      ],
      [
        "ön",
        -9.718256047954622
      ],
      [
        "▁hud",
        -9.719094332131325
      ],
      [
        "▁studie",
        -9.719678732882597
      ],
      [
        "▁allra",
        -9.719864325171354
      ],
      [
        "▁ögon",
        -9.72039892504596
      ],
      [
        "kända",
        -9.7207467790341
      ],
      [
        "▁född",
        -9.722482198989354
      ],
      [
        "▁exakt",
        -9.723210699878466
      ],
      [
        "▁kontroll",
        -9.724651888414039
      ],
      [
        "nat",
        -9.725851870951937
      ],
      [
        "vin",
        -9.727942879449973
      ],
      [
        "tiden",
        -9.727972028463848
      ],
      [
        "▁bär",
        -9.728033895317813
      ],
      [
        "▁glas",
        -9.729189987642858
      ],
      [
        "▁hösten",
        -9.729397489707301
      ],
      [
        "fri",
        -9.729895469424548
      ],
      [
        "maste",
        -9.730496652145208
      ],
      [
        "lättare",
        -9.730657631205096
      ],
      [
        "företag",
        -9.731061099041872
      ],
      [
        "▁trött",
        -9.731353041419728
      ],
      [
        "Y",
        -9.731499486660843
      ],
      [
        "▁användning",
        -9.73225259785197
      ],
      [
        "ck",
        -9.732542191456025
      ],
      [
        "samtliga",
        -9.733788028607323
      ],
      [
        "▁områden",
        -9.734061876697236
      ],
      [
        "▁billigt",
        -9.735468246309027
      ],
      [
        "▁vuxna",
        -9.735889581446285
      ],
      [
        "▁hit",
        -9.736374202470673
      ],
      [
        "ran",
        -9.736535491942945
      ],
      [
        "▁sju",
        -9.73806318962333
      ],
      [
        "ting",
        -9.738111656820955
      ],
      [
        "▁medel",
        -9.738299508240617
      ],
      [
        "▁dåligt",
        -9.738312370920564
      ],
      [
        "▁Upp",
        -9.738348734106966
      ],
      [
        "▁vänster",
        -9.738792540263693
      ],
      [
        "enbart",
        -9.739114697297513
      ],
      [
        "börjat",
        -9.739856570831293
      ],
      [
        "else",
        -9.740486601616585
      ],
      [
        "kallas",
        -9.741165115355747
      ],
      [
        "▁dela",
        -9.743037924943453
      ],
      [
        "▁enkel",
        -9.743893676086275
      ],
      [
        "kostar",
        -9.744499132472656
      ],
      [
        "▁far",
        -9.74504880176299
      ],
      [
        "▁nivå",
        -9.746767071356176
      ],
      [
        "▁håll",
        -9.747671194200343
      ],
      [
        "▁webbplats",
        -9.748469289952507
      ],
      [
        "▁hälso",
        -9.748614014173713
      ],
      [
        "▁konstatera",
        -9.74976925463144
      ],
      [
        "gar",
        -9.750061390476546
      ],
      [
        "dal",
        -9.750138265466935
      ],
      [
        "▁nån",
        -9.750166604020368
      ],
      [
        "nar",
        -9.751488393108259
      ],
      [
        "▁trevlig",
        -9.752209308173915
      ],
      [
        "▁gäster",
        -9.752999616211117
      ],
      [
        "▁Pro",
        -9.754679610239837
      ],
      [
        "▁Wi",
        -9.754956564797125
      ],
      [
        "▁borta",
        -9.756115127101115
      ],
      [
        "▁smak",
        -9.757382682103923
      ],
      [
        "▁forskning",
        -9.757388302157725
      ],
      [
        "▁centrum",
        -9.757793911391598
      ],
      [
        "▁behöv",
        -9.757953605741132
      ],
      [
        "▁åtgärder",
        -9.759233220858107
      ],
      [
        "▁Barn",
        -9.759437252167277
      ],
      [
        "verket",
        -9.760016488663027
      ],
      [
        "▁handla",
        -9.760068392935219
      ],
      [
        "▁Foto",
        -9.760707471630456
      ],
      [
        "▁träna",
        -9.761526853717104
      ],
      [
        "köpte",
        -9.763374044781505
      ],
      [
        "▁förstås",
        -9.763849088326701
      ],
      [
        "▁höger",
        -9.765029745245803
      ],
      [
        "▁massor",
        -9.765087606909187
      ],
      [
        "mål",
        -9.766243666083092
      ],
      [
        "ställer",
        -9.766320461086524
      ],
      [
        "▁död",
        -9.767446989258818
      ],
      [
        "Hotels",
        -9.768955829214438
      ],
      [
        "spelade",
        -9.770598952898448
      ],
      [
        "utveckling",
        -9.771988335149361
      ],
      [
        "mare",
        -9.772554346238998
      ],
      [
        "▁regler",
        -9.773678127305766
      ],
      [
        "▁Mo",
        -9.774400676899502
      ],
      [
        "▁mark",
        -9.775695219132537
      ],
      [
        "▁sport",
        -9.775729417167456
      ],
      [
        "▁bygg",
        -9.776891185373026
      ],
      [
        "▁känsla",
        -9.77813773316786
      ],
      [
        "▁läge",
        -9.778177527129415
      ],
      [
        "läser",
        -9.778845646406568
      ],
      [
        "▁pass",
        -9.780021752206059
      ],
      [
        "ol",
        -9.780677847467443
      ],
      [
        "▁standard",
        -9.780780466888254
      ],
      [
        "▁område",
        -9.78180482729217
      ],
      [
        "▁värme",
        -9.78190672523362
      ],
      [
        "▁bit",
        -9.783643951620583
      ],
      [
        "▁Maria",
        -9.783837329574702
      ],
      [
        "▁dejtingsidor",
        -9.784884992420176
      ],
      [
        "▁Ingen",
        -9.785428677927523
      ],
      [
        "bygger",
        -9.785881780213469
      ],
      [
        "▁bad",
        -9.78662302558352
      ],
      [
        "tillräckligt",
        -9.787547528672148
      ],
      [
        "området",
        -9.787571086776863
      ],
      [
        "fallet",
        -9.787888929582577
      ],
      [
        "▁låt",
        -9.78808454277182
      ],
      [
        "sten",
        -9.78918592202919
      ],
      [
        "▁snar",
        -9.789659469322956
      ],
      [
        "▁reda",
        -9.791022877104009
      ],
      [
        "▁högsta",
        -9.791362746235828
      ],
      [
        "▁video",
        -9.792365877384565
      ],
      [
        "▁lärare",
        -9.794528966417898
      ],
      [
        "Samtidigt",
        -9.795374762911875
      ],
      [
        "▁sverige",
        -9.797578110562494
      ],
      [
        "▁ske",
        -9.797783488601635
      ],
      [
        "ul",
        -9.798113104497673
      ],
      [
        "▁innehåll",
        -9.799125519859615
      ],
      [
        "▁platser",
        -9.801554906590018
      ],
      [
        "▁bas",
        -9.802977683426592
      ],
      [
        "▁säkerhet",
        -9.804725983188849
      ],
      [
        "▁ekonomi",
        -9.804797856622876
      ],
      [
        "▁Kom",
        -9.80530063653372
      ],
      [
        "▁Hans",
        -9.805308227971206
      ],
      [
        "▁filmen",
        -9.805686275410512
      ],
      [
        "▁skola",
        -9.806035654546516
      ],
      [
        "▁kompetens",
        -9.80665566444734
      ],
      [
        "▁helg",
        -9.806953235435072
      ],
      [
        "▁effekt",
        -9.80717627003367
      ],
      [
        "▁syn",
        -9.807314716511055
      ],
      [
        "▁ben",
        -9.807509678063807
      ],
      [
        "▁gällande",
        -9.807855456411504
      ],
      [
        "gården",
        -9.80880054218908
      ],
      [
        "bil",
        -9.808956076472178
      ],
      [
        "▁klimat",
        -9.809259810257416
      ],
      [
        "▁variera",
        -9.810270897686621
      ],
      [
        "▁dam",
        -9.81128841841418
      ],
      [
        "▁tas",
        -9.812024689030336
      ],
      [
        "▁Ar",
        -9.812452045411076
      ],
      [
        "▁Två",
        -9.813134809209272
      ],
      [
        "▁verktyg",
        -9.813264191016994
      ],
      [
        "Varje",
        -9.814000914959117
      ],
      [
        "▁valt",
        -9.815016718862198
      ],
      [
        "▁uppdatera",
        -9.816661096020132
      ],
      [
        "Se",
        -9.816706420850405
      ],
      [
        "▁bidrag",
        -9.817164641388795
      ],
      [
        "▁ekonomiska",
        -9.818127031970025
      ],
      [
        "borg",
        -9.819886817548314
      ],
      [
        "▁personlig",
        -9.819960485320724
      ],
      [
        "▁social",
        -9.819999011695286
      ],
      [
        "pris",
        -9.820220854434734
      ],
      [
        "▁sälja",
        -9.820570265586023
      ],
      [
        "Hoppas",
        -9.82222936469997
      ],
      [
        "▁Låt",
        -9.822496347292352
      ],
      [
        "▁framåt",
        -9.8230290814238
      ],
      [
        "▁Välkommen",
        -9.823377428723212
      ],
      [
        "▁tillgängliga",
        -9.82383138013478
      ],
      [
        "▁ålder",
        -9.824662439433624
      ],
      [
        "▁Över",
        -9.825000626588063
      ],
      [
        "▁anställda",
        -9.82516456001966
      ],
      [
        "En",
        -9.825225811467783
      ],
      [
        "▁chans",
        -9.826203316015672
      ],
      [
        "skap",
        -9.826225855557878
      ],
      [
        "▁lista",
        -9.82720358056944
      ],
      [
        "sam",
        -9.8272728086698
      ],
      [
        "▁sidor",
        -9.82957789303306
      ],
      [
        "gg",
        -9.832302006050647
      ],
      [
        "EN",
        -9.832390897965299
      ],
      [
        "▁hårt",
        -9.833017086829402
      ],
      [
        "oc",
        -9.833277618966749
      ],
      [
        "målet",
        -9.833471070065988
      ],
      [
        "▁konto",
        -9.833478662871295
      ],
      [
        "▁Y",
        -9.833687577660163
      ],
      [
        "▁kredit",
        -9.833743648604106
      ],
      [
        "hem",
        -9.834183282560751
      ],
      [
        "▁särskild",
        -9.835460215804469
      ],
      [
        "▁blå",
        -9.835810549999227
      ],
      [
        "▁kalla",
        -9.8364312411475
      ],
      [
        "▁mängd",
        -9.836828186850195
      ],
      [
        "gång",
        -9.836920023597655
      ],
      [
        "▁kommentar",
        -9.838240082842656
      ],
      [
        "▁privat",
        -9.838572117419242
      ],
      [
        "mon",
        -9.83885103662647
      ],
      [
        "ewards",
        -9.838957951526506
      ],
      [
        "▁drog",
        -9.839211270237401
      ],
      [
        "Mer",
        -9.839525914695429
      ],
      [
        "viktigaste",
        -9.841136082273552
      ],
      [
        "branschen",
        -9.84184777831079
      ],
      [
        "▁läs",
        -9.842275284848128
      ],
      [
        "bild",
        -9.842921601399128
      ],
      [
        "inklusive",
        -9.843959517331319
      ],
      [
        "age",
        -9.844203539321752
      ],
      [
        "▁besökare",
        -9.844827424243679
      ],
      [
        "▁tak",
        -9.845448175650999
      ],
      [
        "▁bank",
        -9.845480993199342
      ],
      [
        "Z",
        -9.845548399893472
      ],
      [
        "▁Z",
        -9.845581983413433
      ],
      [
        "fattar",
        -9.845605253623036
      ],
      [
        "▁stan",
        -9.845713729488644
      ],
      [
        "▁lager",
        -9.84693112375156
      ],
      [
        "trodde",
        -9.84816074790663
      ],
      [
        "▁leda",
        -9.848468946011861
      ],
      [
        "▁härlig",
        -9.849551877953328
      ],
      [
        "ella",
        -9.849580027673372
      ],
      [
        "▁försök",
        -9.849753665866267
      ],
      [
        "det",
        -9.850591112165644
      ],
      [
        "lyckas",
        -9.850766448919936
      ],
      [
        "▁vinter",
        -9.851296057292595
      ],
      [
        "▁Co",
        -9.851594548506796
      ],
      [
        "go",
        -9.852060464888343
      ],
      [
        "lös",
        -9.852143406371383
      ],
      [
        "U",
        -9.852370369936917
      ],
      [
        "önskar",
        -9.853596576312533
      ],
      [
        "▁Bara",
        -9.85378577895887
      ],
      [
        "▁parti",
        -9.854093541051272
      ],
      [
        "▁FV",
        -9.85443877575093
      ],
      [
        "Få",
        -9.854897556267721
      ],
      [
        "bb",
        -9.855348263713239
      ],
      [
        "▁klass",
        -9.855648950925469
      ],
      [
        "tro",
        -9.856237858895748
      ],
      [
        "X",
        -9.8562688968318
      ],
      [
        "▁starta",
        -9.856455191890575
      ],
      [
        "du",
        -9.856773833897108
      ],
      [
        "www",
        -9.857350749952612
      ],
      [
        "▁Lars",
        -9.857506450905023
      ],
      [
        "▁Hem",
        -9.857509373995628
      ],
      [
        "▁Andersson",
        -9.858301467179421
      ],
      [
        "▁Ro",
        -9.858591790383553
      ],
      [
        "▁skada",
        -9.85947019086379
      ],
      [
        "▁sade",
        -9.860370634173714
      ],
      [
        "äger",
        -9.861699273823715
      ],
      [
        "▁middag",
        -9.862541482749725
      ],
      [
        "▁Fortsätt",
        -9.862670476583041
      ],
      [
        "band",
        -9.862881241101054
      ],
      [
        "▁All",
        -9.86356275832963
      ],
      [
        "valet",
        -9.863824462961038
      ],
      [
        "▁ladda",
        -9.864254109005277
      ],
      [
        "Klicka",
        -9.864521940465925
      ],
      [
        "nes",
        -9.865219811328373
      ],
      [
        "▁prova",
        -9.865521873095071
      ],
      [
        "njuta",
        -9.866801045563486
      ],
      [
        "▁uttryck",
        -9.867772126533792
      ],
      [
        "näs",
        -9.867794693663738
      ],
      [
        "http",
        -9.867875553471869
      ],
      [
        "▁universitet",
        -9.868022606060217
      ],
      [
        "▁övrigt",
        -9.869748263746242
      ],
      [
        "▁tjej",
        -9.871420488292658
      ],
      [
        "van",
        -9.871956475568552
      ],
      [
        "ism",
        -9.873804011633814
      ],
      [
        "▁maskinövers",
        -9.874065426563476
      ],
      [
        "kom",
        -9.874133897943443
      ],
      [
        "▁kommentarer",
        -9.874171591391836
      ],
      [
        "▁betydelse",
        -9.874621877716208
      ],
      [
        "▁tankar",
        -9.87752955898986
      ],
      [
        "▁ordning",
        -9.87769617036451
      ],
      [
        "▁natten",
        -9.877980163702127
      ],
      [
        "▁lägenhet",
        -9.878489818653861
      ],
      [
        "▁test",
        -9.880393887005221
      ],
      [
        "▁Lund",
        -9.88051005901904
      ],
      [
        "▁höst",
        -9.880665834524276
      ],
      [
        "▁läst",
        -9.880916390224657
      ],
      [
        "ko",
        -9.881780269588306
      ],
      [
        "▁Trots",
        -9.882144606547813
      ],
      [
        "ökad",
        -9.882673018342725
      ],
      [
        "▁kropp",
        -9.88270723903753
      ],
      [
        "▁lön",
        -9.883144984174596
      ],
      [
        "▁sjuk",
        -9.883271001033496
      ],
      [
        "ba",
        -9.883472816332674
      ],
      [
        "▁Gud",
        -9.883827168057913
      ],
      [
        "slutade",
        -9.884646001610115
      ],
      [
        "▁rent",
        -9.884983327062978
      ],
      [
        "Ja",
        -9.887048646393112
      ],
      [
        "he",
        -9.887105920037051
      ],
      [
        "betydligt",
        -9.887496961424196
      ],
      [
        "▁partner",
        -9.888355718657008
      ],
      [
        "▁bar",
        -9.88890208782571
      ],
      [
        "▁passa",
        -9.888996224106311
      ],
      [
        "▁Finns",
        -9.8896368158935
      ],
      [
        "▁Mitt",
        -9.890671017382074
      ],
      [
        "▁Ka",
        -9.891833673654878
      ],
      [
        "sch",
        -9.89219524067707
      ],
      [
        "▁valde",
        -9.892867336058774
      ],
      [
        "▁någonsin",
        -9.892953426016135
      ],
      [
        "taget",
        -9.89536726606635
      ],
      [
        "▁bolag",
        -9.896453543640424
      ],
      [
        "dagen",
        -9.896684301584306
      ],
      [
        "skor",
        -9.897308406672943
      ],
      [
        "▁tryck",
        -9.898012188903923
      ],
      [
        "▁Pa",
        -9.898607442032016
      ],
      [
        "vore",
        -9.899244800758499
      ],
      [
        "▁kurs",
        -9.899441776575106
      ],
      [
        "perioden",
        -9.899567692809788
      ],
      [
        "▁häst",
        -9.90167639230283
      ],
      [
        "▁våld",
        -9.903062750149296
      ],
      [
        "▁guld",
        -9.903208635213947
      ],
      [
        "▁Erik",
        -9.903816672109203
      ],
      [
        "arbete",
        -9.90452898444676
      ],
      [
        "▁Skåne",
        -9.905684674303217
      ],
      [
        "Å",
        -9.906456039686233
      ],
      [
        "▁trafik",
        -9.906517802585931
      ],
      [
        "▁ensam",
        -9.908338450189694
      ],
      [
        "skador",
        -9.908462906442887
      ],
      [
        "▁lyssna",
        -9.908786234111378
      ],
      [
        "ernas",
        -9.910201340762146
      ],
      [
        "▁etc",
        -9.910956332137793
      ],
      [
        "▁Nya",
        -9.911704457541589
      ],
      [
        "vakna",
        -9.912094277542856
      ],
      [
        "ings",
        -9.912146815601986
      ],
      [
        "▁uppskatta",
        -9.912432310006992
      ],
      [
        "väg",
        -9.912826164978018
      ],
      [
        "▁ungdomar",
        -9.91571611590481
      ],
      [
        "▁priset",
        -9.918547791296694
      ],
      [
        "▁Berg",
        -9.91918303086803
      ],
      [
        "▁special",
        -9.919362913288023
      ],
      [
        "▁fantastiskt",
        -9.919711040177239
      ],
      [
        "starkt",
        -9.920538135320871
      ],
      [
        "▁serie",
        -9.920545014533287
      ],
      [
        "lån",
        -9.921160094704165
      ],
      [
        "▁Bi",
        -9.921311381360937
      ],
      [
        "▁färger",
        -9.921373476335102
      ],
      [
        "ber",
        -9.922891581861721
      ],
      [
        "▁slå",
        -9.923085883943932
      ],
      [
        "▁säkerhets",
        -9.92325591526665
      ],
      [
        "ok",
        -9.924031440402757
      ],
      [
        "▁klicka",
        -9.924385259878122
      ],
      [
        "▁Välj",
        -9.925573595686084
      ],
      [
        "▁skäl",
        -9.925905070993084
      ],
      [
        "▁cookies",
        -9.925971357381638
      ],
      [
        "▁läkare",
        -9.926501048571831
      ],
      [
        "▁listan",
        -9.926651554685504
      ],
      [
        "▁Lite",
        -9.927047552091324
      ],
      [
        "▁regn",
        -9.927464706752149
      ],
      [
        "▁villkor",
        -9.928543900051267
      ],
      [
        "Vilken",
        -9.928571409856817
      ],
      [
        "▁stjärnor",
        -9.928726067401016
      ],
      [
        "▁kärlek",
        -9.929273655272498
      ],
      [
        "▁låna",
        -9.929381389154125
      ],
      [
        "Ibland",
        -9.929498469017465
      ],
      [
        "itet",
        -9.92966382348063
      ],
      [
        "▁Tre",
        -9.930167220328668
      ],
      [
        "▁våren",
        -9.931031827254023
      ],
      [
        "▁prov",
        -9.931391327140169
      ],
      [
        "red",
        -9.93159694228042
      ],
      [
        "▁fantastisk",
        -9.932130489665607
      ],
      [
        "tydligt",
        -9.932415627389506
      ],
      [
        "▁Hotels",
        -9.93453790753464
      ],
      [
        "produkter",
        -9.934828845409479
      ],
      [
        "▁ligga",
        -9.93555743639629
      ],
      [
        "▁funktion",
        -9.935844251833247
      ],
      [
        "▁vinst",
        -9.936471111500115
      ],
      [
        "ang",
        -9.936617704584629
      ],
      [
        "▁koll",
        -9.936680562283568
      ],
      [
        "Ö",
        -9.937754207038259
      ],
      [
        "▁sluta",
        -9.938482801650775
      ],
      [
        "▁Bild",
        -9.93876079028538
      ],
      [
        "▁aktiviteter",
        -9.93960011754144
      ],
      [
        "▁omdömet",
        -9.939932695728764
      ],
      [
        "▁bi",
        -9.940401757022965
      ],
      [
        "▁free",
        -9.94046118310945
      ],
      [
        "▁risker",
        -9.941051466161163
      ],
      [
        "resa",
        -9.941136127274198
      ],
      [
        "▁ihåg",
        -9.941211471886996
      ],
      [
        "▁hot",
        -9.941773851308827
      ],
      [
        "▁skit",
        -9.941915826300848
      ],
      [
        "▁brott",
        -9.943194330211806
      ],
      [
        "▁Lo",
        -9.943362737443607
      ],
      [
        "▁ME",
        -9.944225078399018
      ],
      [
        "personliga",
        -9.944474161202972
      ],
      [
        "▁talar",
        -9.944686293968616
      ],
      [
        "ades",
        -9.944788190567218
      ],
      [
        "▁erbjudanden",
        -9.945578505689728
      ],
      [
        "▁nej",
        -9.945593539523731
      ],
      [
        "▁Val",
        -9.946304010697512
      ],
      [
        "▁varmt",
        -9.946962352566386
      ],
      [
        "▁uppgift",
        -9.94739173388477
      ],
      [
        "▁trygg",
        -9.94805359270042
      ],
      [
        "självklart",
        -9.949391031485838
      ],
      [
        "ER",
        -9.951252024931913
      ],
      [
        "per",
        -9.951291348283393
      ],
      [
        "erar",
        -9.951754576852808
      ],
      [
        "▁medlem",
        -9.95206235002878
      ],
      [
        "▁svara",
        -9.95212167701288
      ],
      [
        "▁sist",
        -9.952230358620296
      ],
      [
        "▁mesta",
        -9.952810517409361
      ],
      [
        "▁tillstånd",
        -9.952898557182646
      ],
      [
        "▁Använd",
        -9.953678427710136
      ],
      [
        "▁fönster",
        -9.954496198701687
      ],
      [
        "klubben",
        -9.955195199631223
      ],
      [
        "▁populära",
        -9.955202870019562
      ],
      [
        "lo",
        -9.957105364617354
      ],
      [
        "akt",
        -9.957281466393285
      ],
      [
        "▁dålig",
        -9.957720512338078
      ],
      [
        "rad",
        -9.957808482855162
      ],
      [
        "plötslig",
        -9.958303348973233
      ],
      [
        "▁vita",
        -9.958742140747523
      ],
      [
        "▁Andra",
        -9.959049536799881
      ],
      [
        "▁samhälls",
        -9.959059869568815
      ],
      [
        "äntligen",
        -9.959277016299628
      ],
      [
        "▁solen",
        -9.959847422490405
      ],
      [
        "▁Fredrik",
        -9.961651051489259
      ],
      [
        "erat",
        -9.962305485603167
      ],
      [
        "▁Finland",
        -9.962579294956235
      ],
      [
        "▁roliga",
        -9.96307093149308
      ],
      [
        "▁syfte",
        -9.963347114349375
      ],
      [
        "▁projektet",
        -9.963797119133586
      ],
      [
        "▁tittar",
        -9.964239026185652
      ],
      [
        "dy",
        -9.964481725682054
      ],
      [
        "skolan",
        -9.965687225853914
      ],
      [
        "lämnar",
        -9.966415440255428
      ],
      [
        "varor",
        -9.967293171468462
      ],
      [
        "vård",
        -9.96807940423879
      ],
      [
        "▁imorgon",
        -9.968806888170587
      ],
      [
        "▁skatte",
        -9.968855775129365
      ],
      [
        "▁plus",
        -9.969184185257875
      ],
      [
        "▁barnet",
        -9.969446431875879
      ],
      [
        "chef",
        -9.969956285867232
      ],
      [
        "▁gilla",
        -9.970200534581739
      ],
      [
        "ros",
        -9.97052190109885
      ],
      [
        "▁fundera",
        -9.971098133444654
      ],
      [
        "▁förutsättningar",
        -9.971324648992987
      ],
      [
        "▁ingenting",
        -9.971369301064438
      ],
      [
        "▁Jan",
        -9.97151633491056
      ],
      [
        "▁lördag",
        -9.972576641076804
      ],
      [
        "känt",
        -9.973504698070585
      ],
      [
        "▁polis",
        -9.97356311193968
      ],
      [
        "Några",
        -9.974358064213275
      ],
      [
        "▁förbi",
        -9.974571656965647
      ],
      [
        "▁medarbetare",
        -9.975870875718895
      ],
      [
        "▁vattnet",
        -9.977226925184759
      ],
      [
        "▁offentlig",
        -9.977558596376266
      ],
      [
        "▁osv",
        -9.977825302174931
      ],
      [
        "▁Gratis",
        -9.978544448996017
      ],
      [
        "▁avtal",
        -9.978600608229668
      ],
      [
        "▁period",
        -9.979066714972372
      ],
      [
        "▁väder",
        -9.979520662799978
      ],
      [
        "▁utvecklas",
        -9.979850250737664
      ],
      [
        "▁åtta",
        -9.980470986054264
      ],
      [
        "▁internationella",
        -9.98077918150559
      ],
      [
        "▁Fast",
        -9.980894365963934
      ],
      [
        "▁enskild",
        -9.98133130191254
      ],
      [
        "lade",
        -9.982309030322952
      ],
      [
        "▁öppen",
        -9.9825108811444
      ],
      [
        "▁promenad",
        -9.983306954148476
      ],
      [
        "rik",
        -9.984774288213508
      ],
      [
        "▁grader",
        -9.98512631916301
      ],
      [
        "vik",
        -9.985391587947642
      ],
      [
        "▁post",
        -9.985567385118426
      ],
      [
        "▁Din",
        -9.9856022429365
      ],
      [
        "▁ändring",
        -9.986502213677658
      ],
      [
        "▁modell",
        -9.986526361936988
      ],
      [
        "JL",
        -9.98659724213489
      ],
      [
        "förutom",
        -9.986881567759966
      ],
      [
        "▁hamna",
        -9.988207588284189
      ],
      [
        "trax",
        -9.988299574044374
      ],
      [
        "▁fredag",
        -9.98835630622499
      ],
      [
        "▁sova",
        -9.988493529249778
      ],
      [
        "▁timme",
        -9.988573343439512
      ],
      [
        "pass",
        -9.988714863746832
      ],
      [
        "▁dejt",
        -9.988898131822053
      ],
      [
        "▁cykel",
        -9.990130265784389
      ],
      [
        "▁omdöme",
        -9.990483912834502
      ],
      [
        "köper",
        -9.990648867103063
      ],
      [
        "nivå",
        -9.990706871624587
      ],
      [
        "naturligtvis",
        -9.992080039913791
      ],
      [
        "tryck",
        -9.992163924967116
      ],
      [
        "har",
        -9.992649633954883
      ],
      [
        "▁fantastiska",
        -9.993204122628415
      ],
      [
        "▁Sp",
        -9.99343370567421
      ],
      [
        "OF",
        -9.993706518790708
      ],
      [
        "▁knappt",
        -9.993709996635157
      ],
      [
        "antingen",
        -9.99371789078321
      ],
      [
        "undrar",
        -9.994047763358019
      ],
      [
        "▁dejtingsida",
        -9.994062935068037
      ],
      [
        "▁försäljning",
        -9.994368244020114
      ],
      [
        "klass",
        -9.995015028223667
      ],
      [
        "▁Hos",
        -9.995043135708213
      ],
      [
        "▁restaurang",
        -9.995873270013869
      ],
      [
        "▁utbud",
        -9.996250599182757
      ],
      [
        "▁lagt",
        -9.997313883234678
      ],
      [
        "▁Car",
        -9.997435123572439
      ],
      [
        "▁alkohol",
        -9.998827208536854
      ],
      [
        "▁dv",
        -10.000133919084362
      ],
      [
        "ADRESS",
        -10.000798248340768
      ],
      [
        "▁fa",
        -10.001309695942659
      ],
      [
        "▁vacker",
        -10.001495256917257
      ],
      [
        "▁dagarna",
        -10.002555111133901
      ],
      [
        "pratar",
        -10.003227028237697
      ],
      [
        "▁knapp",
        -10.00324522106204
      ],
      [
        "▁beställa",
        -10.003936669067555
      ],
      [
        "▁mil",
        -10.00398763318544
      ],
      [
        "▁Nr",
        -10.004033206143975
      ],
      [
        "▁mera",
        -10.004723853231983
      ],
      [
        "▁mg",
        -10.005108575386721
      ],
      [
        "▁matcher",
        -10.005458169904516
      ],
      [
        "▁enkla",
        -10.00666091703675
      ],
      [
        "▁datorn",
        -10.007323516282804
      ],
      [
        "▁Fri",
        -10.007761671330078
      ],
      [
        "▁Bli",
        -10.00989774631195
      ],
      [
        "▁orsaka",
        -10.01071246990111
      ],
      [
        "använt",
        -10.01237214720777
      ],
      [
        "▁genomföra",
        -10.012848458099988
      ],
      [
        "▁spår",
        -10.013060915184388
      ],
      [
        "▁budget",
        -10.013461309520295
      ],
      [
        "tan",
        -10.014184008716368
      ],
      [
        "finner",
        -10.014265056417313
      ],
      [
        "skickade",
        -10.014280147682648
      ],
      [
        "ill",
        -10.015164546664938
      ],
      [
        "▁Sol",
        -10.015764859410277
      ],
      [
        "▁värld",
        -10.016486431086065
      ],
      [
        "én",
        -10.016751623648888
      ],
      [
        "▁miss",
        -10.017986111902987
      ],
      [
        "räcker",
        -10.018268620461104
      ],
      [
        "▁Fråga",
        -10.01827303966193
      ],
      [
        "▁söndag",
        -10.020238795655782
      ],
      [
        "one",
        -10.02035711357455
      ],
      [
        "▁Namn",
        -10.02069991613599
      ],
      [
        "område",
        -10.02081577728524
      ],
      [
        "▁idé",
        -10.021044905065848
      ],
      [
        "▁Bil",
        -10.021353164521768
      ],
      [
        "bolag",
        -10.02154541295502
      ],
      [
        "▁frukt",
        -10.021750865969617
      ],
      [
        "kallade",
        -10.021988186561726
      ],
      [
        "▁Mat",
        -10.022150104242806
      ],
      [
        "▁lösning",
        -10.022436463358618
      ],
      [
        "annorlunda",
        -10.022987016975469
      ],
      [
        "▁huvudet",
        -10.02439425498453
      ],
      [
        "▁nåt",
        -10.024575480838136
      ],
      [
        "▁Martin",
        -10.025362342000184
      ],
      [
        "yngre",
        -10.025506206718225
      ],
      [
        "▁Johansson",
        -10.025567850446716
      ],
      [
        "▁Visst",
        -10.027608847068722
      ],
      [
        "▁tionde",
        -10.027809879517859
      ],
      [
        "our",
        -10.027862069805973
      ],
      [
        "▁må",
        -10.027913698921505
      ],
      [
        "▁rummet",
        -10.02829138457051
      ],
      [
        "▁www",
        -10.02839284945117
      ],
      [
        "▁sjukdom",
        -10.030729831582319
      ],
      [
        "klarar",
        -10.031105260295279
      ],
      [
        "▁blod",
        -10.031478304134449
      ],
      [
        "▁IT",
        -10.032050852580126
      ],
      [
        "▁riktig",
        -10.032773427110822
      ],
      [
        "▁bloggen",
        -10.033160810339243
      ],
      [
        "växer",
        -10.033355687652818
      ],
      [
        "▁butik",
        -10.034048209331239
      ],
      [
        "▁Park",
        -10.034630599529946
      ],
      [
        "▁Bland",
        -10.035092915766777
      ],
      [
        "▁Norge",
        -10.035480720477585
      ],
      [
        "kläder",
        -10.037046139985772
      ],
      [
        "▁kommuner",
        -10.037189283494584
      ],
      [
        "▁längs",
        -10.037488836827361
      ],
      [
        "▁patienter",
        -10.038156003519791
      ],
      [
        "▁tala",
        -10.038325040505757
      ],
      [
        "dan",
        -10.040709646747437
      ],
      [
        "undvika",
        -10.040762493739578
      ],
      [
        "lyckades",
        -10.041472889932923
      ],
      [
        "▁utnyttja",
        -10.041754521745025
      ],
      [
        "▁Örebro",
        -10.041887370608405
      ],
      [
        "▁kon",
        -10.042862550756944
      ],
      [
        "ium",
        -10.043182699472169
      ],
      [
        "▁bilar",
        -10.04385510066089
      ],
      [
        "za",
        -10.044160365258426
      ],
      [
        "▁mår",
        -10.044170841430725
      ],
      [
        "dom",
        -10.044431166772993
      ],
      [
        "ämre",
        -10.04517658074867
      ],
      [
        "▁drabba",
        -10.045255053284961
      ],
      [
        "hänt",
        -10.045299421108695
      ],
      [
        "vid",
        -10.04639236020867
      ],
      [
        "medel",
        -10.0466094258282
      ],
      [
        "▁OK",
        -10.047071117433832
      ],
      [
        "▁San",
        -10.047883313018753
      ],
      [
        "yl",
        -10.048209953142232
      ],
      [
        "center",
        -10.048246515578176
      ],
      [
        "årets",
        -10.048445965364303
      ],
      [
        "▁Lägg",
        -10.048584492960776
      ],
      [
        "▁foto",
        -10.04859531290277
      ],
      [
        "▁Ge",
        -10.04927844218177
      ],
      [
        "Tack",
        -10.049544922962902
      ],
      [
        "🙂",
        -10.050139533334251
      ],
      [
        "▁Lag",
        -10.050327043776669
      ],
      [
        "▁Sätt",
        -10.050413621979061
      ],
      [
        "▁modern",
        -10.051161195767518
      ],
      [
        "▁stockholm",
        -10.051337596664036
      ],
      [
        "▁slag",
        -10.051403314356426
      ],
      [
        "▁inkludera",
        -10.051455812998817
      ],
      [
        "▁utvecklingen",
        -10.051735416258325
      ],
      [
        "▁mode",
        -10.051735865888359
      ],
      [
        "▁timmen",
        -10.051931391273476
      ],
      [
        "▁rolig",
        -10.052358359727293
      ],
      [
        "▁intresserad",
        -10.052804537411621
      ],
      [
        "▁Bästa",
        -10.053232299130784
      ],
      [
        "▁Tyskland",
        -10.05333302076463
      ],
      [
        "▁ansökan",
        -10.053465519110393
      ],
      [
        "▁bakgrund",
        -10.053927830892304
      ],
      [
        "▁satte",
        -10.054575871650139
      ],
      [
        "▁öppet",
        -10.054862449819483
      ],
      [
        "▁Carl",
        -10.055200928341836
      ],
      [
        "körde",
        -10.055325355319624
      ],
      [
        "ingen",
        -10.055350180300897
      ],
      [
        "▁högst",
        -10.05538971866088
      ],
      [
        "met",
        -10.055717983938846
      ],
      [
        "nuvarande",
        -10.05577425708124
      ],
      [
        "▁princip",
        -10.056054401961248
      ],
      [
        "▁Först",
        -10.056114484970081
      ],
      [
        "pp",
        -10.058103260482865
      ],
      [
        "▁live",
        -10.058133914407442
      ],
      [
        "▁stress",
        -10.058202985399834
      ],
      [
        "▁samhälle",
        -10.058244387082109
      ],
      [
        "sida",
        -10.058251809989876
      ],
      [
        "▁Gör",
        -10.058426596959361
      ],
      [
        "lev",
        -10.05888994416708
      ],
      [
        "▁samla",
        -10.05916307978961
      ],
      [
        "▁situation",
        -10.059454122832811
      ],
      [
        "service",
        -10.060608793369855
      ],
      [
        "fritt",
        -10.061526592330996
      ],
      [
        "▁Svensk",
        -10.062960996942941
      ],
      [
        "▁Stor",
        -10.063513740642643
      ],
      [
        "▁himla",
        -10.063835061814977
      ],
      [
        "liggande",
        -10.064026557182565
      ],
      [
        "ökat",
        -10.06417600297369
      ],
      [
        "▁mån",
        -10.064406337105726
      ],
      [
        "▁Ju",
        -10.064978053708913
      ],
      [
        "vatten",
        -10.066252579169632
      ],
      [
        "bra",
        -10.066686206599737
      ],
      [
        "▁global",
        -10.066843045767614
      ],
      [
        "▁Inn",
        -10.06827717448093
      ],
      [
        "▁namnet",
        -10.069727722611471
      ],
      [
        "bjuder",
        -10.070288161867442
      ],
      [
        "▁kostnader",
        -10.071043325170336
      ],
      [
        "Våra",
        -10.071090511329325
      ],
      [
        "kombinera",
        -10.071509632604258
      ],
      [
        "numera",
        -10.071661767068257
      ],
      [
        "▁förmåga",
        -10.072510542882748
      ],
      [
        "han",
        -10.072518290959787
      ],
      [
        "▁bred",
        -10.072590107874019
      ],
      [
        "anses",
        -10.072966237562557
      ],
      [
        "ökade",
        -10.073920265383798
      ],
      [
        "▁He",
        -10.074162306656547
      ],
      [
        "ret",
        -10.074768770351175
      ],
      [
        "någonting",
        -10.075126811564852
      ],
      [
        "▁miljarder",
        -10.075201752715827
      ],
      [
        "▁säljer",
        -10.075974184003766
      ],
      [
        "▁Casino",
        -10.077047619100183
      ],
      [
        "För",
        -10.077179513434826
      ],
      [
        "▁ung",
        -10.077491623691392
      ],
      [
        "▁tillväxt",
        -10.077841602760273
      ],
      [
        "ina",
        -10.07801703661309
      ],
      [
        "▁rättigheter",
        -10.078047068339366
      ],
      [
        "▁havet",
        -10.079638644107124
      ],
      [
        "▁kontrollera",
        -10.081025527912033
      ],
      [
        "▁nyligen",
        -10.081619987907773
      ],
      [
        "▁måndag",
        -10.084097433305882
      ],
      [
        "Vilka",
        -10.086425129547727
      ],
      [
        "▁slog",
        -10.086748830646055
      ],
      [
        "▁köpt",
        -10.0870401116953
      ],
      [
        "Vissa",
        -10.087984451970767
      ],
      [
        "▁gett",
        -10.088042033189158
      ],
      [
        "▁människa",
        -10.08934814573611
      ],
      [
        "träffar",
        -10.08945227419041
      ],
      [
        "▁resultatet",
        -10.08963119677237
      ],
      [
        "tjänst",
        -10.089900991040082
      ],
      [
        "▁medier",
        -10.089949111542957
      ],
      [
        "▁No",
        -10.090283939072732
      ],
      [
        "▁bedriv",
        -10.090288226688843
      ],
      [
        "▁Internet",
        -10.090616141602128
      ],
      [
        "▁norr",
        -10.091263055173584
      ],
      [
        "▁räkna",
        -10.092499323327052
      ],
      [
        "▁säkra",
        -10.09272762759569
      ],
      [
        "▁styr",
        -10.09294160626563
      ],
      [
        "möta",
        -10.093022853067396
      ],
      [
        "▁glöm",
        -10.093023701073387
      ],
      [
        "▁sten",
        -10.093657875540904
      ],
      [
        "▁amerikanska",
        -10.093784725344419
      ],
      [
        "▁Google",
        -10.094069175246197
      ],
      [
        "ock",
        -10.094649183606723
      ],
      [
        "Igår",
        -10.094651302207371
      ],
      [
        "▁stolt",
        -10.095870154355287
      ],
      [
        "pol",
        -10.09627340538975
      ],
      [
        "▁trevligt",
        -10.097036608146619
      ],
      [
        "▁förhållande",
        -10.097615642003987
      ],
      [
        "▁undan",
        -10.098111643508693
      ],
      [
        "ländska",
        -10.09834172886333
      ],
      [
        "såklart",
        -10.098418017137572
      ],
      [
        "▁Del",
        -10.098584920784605
      ],
      [
        "ställen",
        -10.098823246836789
      ],
      [
        "information",
        -10.10072855769136
      ],
      [
        "▁skydda",
        -10.101182739058768
      ],
      [
        "▁tids",
        -10.101858843665763
      ],
      [
        "fors",
        -10.102575118938498
      ],
      [
        "modligen",
        -10.102607148861422
      ],
      [
        "ister",
        -10.10293584559034
      ],
      [
        "▁Dock",
        -10.103971667441304
      ],
      [
        "▁förvänta",
        -10.104068686052827
      ],
      [
        "of",
        -10.104222975398104
      ],
      [
        "TV",
        -10.105221140389471
      ],
      [
        "▁transport",
        -10.105398957252742
      ],
      [
        "fylla",
        -10.106977578424745
      ],
      [
        "vända",
        -10.107101047361974
      ],
      [
        "kul",
        -10.107121165534448
      ],
      [
        "▁Con",
        -10.107478841433396
      ],
      [
        "▁leta",
        -10.108221472551868
      ],
      [
        "uppgifter",
        -10.108392676492018
      ],
      [
        "▁Me",
        -10.108472373732246
      ],
      [
        "igen",
        -10.108825047532648
      ],
      [
        "huden",
        -10.109038426824236
      ],
      [
        "teknik",
        -10.109809446784757
      ],
      [
        "▁Er",
        -10.110204278238982
      ],
      [
        "▁brand",
        -10.110808896934484
      ],
      [
        "relativt",
        -10.11095372949982
      ],
      [
        "▁Ca",
        -10.111077054614453
      ],
      [
        "priserna",
        -10.111323249752541
      ],
      [
        "▁garantera",
        -10.112004175617706
      ],
      [
        "▁Online",
        -10.112085936270537
      ],
      [
        "aktuella",
        -10.112173979251425
      ],
      [
        "▁haha",
        -10.112425433603526
      ],
      [
        "▁Vet",
        -10.112545856451293
      ],
      [
        "ala",
        -10.112751268334572
      ],
      [
        "risken",
        -10.114525989311344
      ],
      [
        "äng",
        -10.115595915461139
      ],
      [
        "namn",
        -10.116013422912461
      ],
      [
        "▁brev",
        -10.11652699549722
      ],
      [
        "blad",
        -10.11657790553208
      ],
      [
        "▁välkomna",
        -10.116620776805306
      ],
      [
        "jag",
        -10.11757285787026
      ],
      [
        "▁platsen",
        -10.118049005329418
      ],
      [
        "▁City",
        -10.118610588307028
      ],
      [
        "▁acceptera",
        -10.1186865486176
      ],
      [
        "▁fest",
        -10.118688469972883
      ],
      [
        "▁djup",
        -10.119206313721024
      ],
      [
        "ordentligt",
        -10.12000963695942
      ],
      [
        "▁säsong",
        -10.120507631390964
      ],
      [
        "andet",
        -10.12057292881615
      ],
      [
        "Ä",
        -10.12065319824929
      ],
      [
        "▁mitten",
        -10.12081007684288
      ],
      [
        "bestämt",
        -10.12083347201394
      ],
      [
        "▁gäst",
        -10.121305958133865
      ],
      [
        "▁dels",
        -10.121808055503587
      ],
      [
        "▁plast",
        -10.121903705723119
      ],
      [
        "▁Nord",
        -10.121955397164877
      ],
      [
        "möjliga",
        -10.121997919514463
      ],
      [
        "▁oro",
        -10.123187630412284
      ],
      [
        "▁missa",
        -10.123345295614254
      ],
      [
        "▁världs",
        -10.124506705998385
      ],
      [
        "▁choklad",
        -10.125144400968338
      ],
      [
        "▁pengarna",
        -10.125405331797687
      ],
      [
        "skatt",
        -10.125952328828655
      ],
      [
        "▁sällan",
        -10.126195614105363
      ],
      [
        "▁svåra",
        -10.12654945139733
      ],
      [
        "▁förlora",
        -10.127163862299012
      ],
      [
        "stöd",
        -10.12774869774398
      ],
      [
        "▁London",
        -10.128535388981554
      ],
      [
        "▁yrkes",
        -10.129216234120204
      ],
      [
        "▁York",
        -10.129505409232657
      ],
      [
        "kor",
        -10.130374285443636
      ],
      [
        "▁betalar",
        -10.13074699271495
      ],
      [
        "▁normalt",
        -10.130809202210061
      ],
      [
        "▁föreslå",
        -10.131001156577987
      ],
      [
        "klare",
        -10.13104420370141
      ],
      [
        "funkar",
        -10.1311721022164
      ],
      [
        "omfattande",
        -10.131570908903997
      ],
      [
        "q",
        -10.131801002920415
      ],
      [
        "sättet",
        -10.132470182077682
      ],
      [
        "▁Sök",
        -10.132539773370784
      ],
      [
        "▁Bar",
        -10.133122661878595
      ],
      [
        "▁info",
        -10.13332531251726
      ],
      [
        "åtminston",
        -10.135339531493912
      ],
      [
        "▁satsa",
        -10.135790306926063
      ],
      [
        "Q",
        -10.135941947269142
      ],
      [
        "▁leverans",
        -10.136085113590026
      ],
      [
        "▁positiv",
        -10.136327841168724
      ],
      [
        "Förutom",
        -10.137407725554693
      ],
      [
        "kon",
        -10.137560242529773
      ],
      [
        "▁me",
        -10.137674552948276
      ],
      [
        "▁Sam",
        -10.137684642969932
      ],
      [
        "rådet",
        -10.13844493166338
      ],
      [
        "pdf",
        -10.13898202753357
      ],
      [
        "▁makt",
        -10.139292004038587
      ],
      [
        "▁Anmäl",
        -10.139615432158244
      ],
      [
        "▁ges",
        -10.139719043117719
      ],
      [
        "▁lösningar",
        -10.14095589411855
      ],
      [
        "Skulle",
        -10.14108639243888
      ],
      [
        "▁översättning",
        -10.141447652062023
      ],
      [
        "lyckats",
        -10.141471216537765
      ],
      [
        "Omdöme",
        -10.141776010359566
      ],
      [
        "▁datum",
        -10.14219680067545
      ],
      [
        "▁ställe",
        -10.142466944485397
      ],
      [
        "tog",
        -10.142965843881163
      ],
      [
        "▁förklara",
        -10.143045909089548
      ],
      [
        "▁centrala",
        -10.143370179295747
      ],
      [
        "lämnade",
        -10.143455887268418
      ],
      [
        "▁sp",
        -10.143593255914647
      ],
      [
        "▁di",
        -10.143740153182089
      ],
      [
        "▁snygg",
        -10.144165980978949
      ],
      [
        "▁sam",
        -10.144709528867878
      ],
      [
        "▁US",
        -10.14486837961815
      ],
      [
        "est",
        -10.145068490425286
      ],
      [
        "▁Själv",
        -10.145616348375363
      ],
      [
        "förbundet",
        -10.146662080455156
      ],
      [
        "▁fisk",
        -10.146784505944119
      ],
      [
        "▁Ma",
        -10.146840349538895
      ],
      [
        "▁besöka",
        -10.147065092251193
      ],
      [
        "▁badrum",
        -10.147493835591618
      ],
      [
        "▁sjukhus",
        -10.147940075136782
      ],
      [
        "▁Inga",
        -10.148126820200037
      ],
      [
        "▁Am",
        -10.14893982891664
      ],
      [
        "▁Nästa",
        -10.149047863179407
      ],
      [
        "varande",
        -10.149437297854174
      ],
      [
        "▁jord",
        -10.149703058859718
      ],
      [
        "mötet",
        -10.150712420996456
      ],
      [
        "▁tillfälle",
        -10.150801597528417
      ],
      [
        "▁affärs",
        -10.152252903051165
      ],
      [
        "skrevs",
        -10.153104590201783
      ],
      [
        "tekniska",
        -10.154799852179819
      ],
      [
        "▁socker",
        -10.155573224825515
      ],
      [
        "▁rekommenderar",
        -10.155831013754709
      ],
      [
        "▁önska",
        -10.156337486766557
      ],
      [
        "ivetvis",
        -10.156783349836742
      ],
      [
        "▁röd",
        -10.156801493738879
      ],
      [
        "▁rygg",
        -10.157179538613127
      ],
      [
        "▁förändring",
        -10.157655664828752
      ],
      [
        "ong",
        -10.158966970729237
      ],
      [
        "▁adress",
        -10.15925946124805
      ],
      [
        "▁fot",
        -10.159319562502564
      ],
      [
        "▁Spel",
        -10.159946154664842
      ],
      [
        "▁snabba",
        -10.16000806880875
      ],
      [
        "par",
        -10.160788776844745
      ],
      [
        "▁möte",
        -10.16128741879191
      ],
      [
        "▁morgonen",
        -10.161479562981494
      ],
      [
        "▁Na",
        -10.161818630662445
      ],
      [
        "▁massage",
        -10.162089896813345
      ],
      [
        "verksamhet",
        -10.162254713869975
      ],
      [
        "▁kille",
        -10.162900257250673
      ],
      [
        "holm",
        -10.163208984786761
      ],
      [
        "▁Hade",
        -10.163750884569405
      ],
      [
        "heten",
        -10.163983863419274
      ],
      [
        "▁sikt",
        -10.164294312818205
      ],
      [
        "din",
        -10.164476747743324
      ],
      [
        "▁uppnå",
        -10.16463730424131
      ],
      [
        "▁Första",
        -10.164908841976617
      ],
      [
        "ick",
        -10.168127348472373
      ],
      [
        "löst",
        -10.16827746048294
      ],
      [
        "▁Li",
        -10.168468611052122
      ],
      [
        "De",
        -10.16927337268101
      ],
      [
        "▁studier",
        -10.170047151541599
      ],
      [
        "▁inlägget",
        -10.17026339837811
      ],
      [
        "▁brist",
        -10.170497359728484
      ],
      [
        "→",
        -10.170799074625874
      ],
      [
        "tre",
        -10.171828823750817
      ],
      [
        "planen",
        -10.171833608545494
      ],
      [
        "br",
        -10.172037298184696
      ],
      [
        "▁läkemedel",
        -10.17239600090098
      ],
      [
        "▁tuff",
        -10.172826743648839
      ],
      [
        "▁restauranger",
        -10.173432136864054
      ],
      [
        "▁varm",
        -10.17419596106604
      ],
      [
        "rör",
        -10.174729873852282
      ],
      [
        "▁buss",
        -10.174780418257594
      ],
      [
        "pan",
        -10.17495191691132
      ],
      [
        "här",
        -10.175492629198859
      ],
      [
        "▁skön",
        -10.175561240068898
      ],
      [
        "grupp",
        -10.176226886526333
      ],
      [
        "▁fördel",
        -10.176257392508974
      ],
      [
        "visas",
        -10.176434835463278
      ],
      [
        "▁glädje",
        -10.176777061013928
      ],
      [
        "jo",
        -10.177063615542256
      ],
      [
        "▁bio",
        -10.177146686542992
      ],
      [
        "ständigt",
        -10.177253935416573
      ],
      [
        "▁kök",
        -10.177805935298645
      ],
      [
        "uk",
        -10.177850714030168
      ],
      [
        "ator",
        -10.17913206161022
      ],
      [
        "▁media",
        -10.179463047362606
      ],
      [
        "råd",
        -10.179579115885076
      ],
      [
        "▁upplevelse",
        -10.180959353359762
      ],
      [
        "▁fl",
        -10.181105391908966
      ],
      [
        "slår",
        -10.181510241211681
      ],
      [
        "its",
        -10.1824351359775
      ],
      [
        "▁Dom",
        -10.18293134746235
      ],
      [
        "stra",
        -10.18314389249781
      ],
      [
        "startade",
        -10.183152904154786
      ],
      [
        "skola",
        -10.183449202512492
      ],
      [
        "▁ägg",
        -10.183605194896636
      ],
      [
        "▁webbplatser",
        -10.185353334940658
      ],
      [
        "allmänna",
        -10.18561346496646
      ],
      [
        "perfekta",
        -10.185823351311354
      ],
      [
        "link",
        -10.186101366152627
      ],
      [
        "▁År",
        -10.186120756915034
      ],
      [
        "tjänster",
        -10.18661731092434
      ],
      [
        "▁fixa",
        -10.186684656613402
      ],
      [
        "▁Go",
        -10.186793620587576
      ],
      [
        "orter",
        -10.186827986367854
      ],
      [
        "▁utföra",
        -10.187709347606456
      ],
      [
        "världen",
        -10.187993865377042
      ],
      [
        "fin",
        -10.188546896730852
      ],
      [
        "▁ringa",
        -10.188638860389993
      ],
      [
        "isering",
        -10.188838143309129
      ],
      [
        "▁jorden",
        -10.189333715707432
      ],
      [
        "▁dyr",
        -10.18943246742637
      ],
      [
        "gemensamma",
        -10.189750036393075
      ],
      [
        "▁Vem",
        -10.190716467964185
      ],
      [
        "▁slags",
        -10.191350044665416
      ],
      [
        "▁Sex",
        -10.19204035162728
      ],
      [
        "▁press",
        -10.192550759824222
      ],
      [
        "▁tvinga",
        -10.19378284629681
      ],
      [
        "▁följd",
        -10.193879138424943
      ],
      [
        "rika",
        -10.194195784260618
      ],
      [
        "titeln",
        -10.194450540517037
      ],
      [
        "▁stads",
        -10.194701070497187
      ],
      [
        "▁träd",
        -10.195674396838765
      ],
      [
        "svarade",
        -10.195821088817517
      ],
      [
        "▁livs",
        -10.19595236605583
      ],
      [
        "butiken",
        -10.196348806674258
      ],
      [
        "▁My",
        -10.197156340706366
      ],
      [
        "▁Stefan",
        -10.197624714357554
      ],
      [
        "material",
        -10.197785855806995
      ],
      [
        "▁webb",
        -10.197795403214597
      ],
      [
        "▁ses",
        -10.198052343047049
      ],
      [
        "and",
        -10.198170074637334
      ],
      [
        "▁Bygg",
        -10.198728563390732
      ],
      [
        "motsvarande",
        -10.198979971965025
      ],
      [
        "stans",
        -10.199070277836672
      ],
      [
        "▁Nilsson",
        -10.199079093453012
      ],
      [
        "▁nummer",
        -10.199270094422626
      ],
      [
        "▁katt",
        -10.199280581443674
      ],
      [
        "▁Dam",
        -10.199856186033946
      ],
      [
        "bord",
        -10.20080035686146
      ],
      [
        "▁Di",
        -10.202078689186699
      ],
      [
        "▁nät",
        -10.202090165386766
      ],
      [
        "▁kyrkan",
        -10.202428423514792
      ],
      [
        "valda",
        -10.20384431385179
      ],
      [
        "▁you",
        -10.203892184692183
      ],
      [
        "träffade",
        -10.204964613561756
      ],
      [
        "▁båt",
        -10.205895540389598
      ],
      [
        "▁kilometer",
        -10.206520651755797
      ],
      [
        "▁grupper",
        -10.20658921634679
      ],
      [
        "sättning",
        -10.20684295800597
      ],
      [
        "ley",
        -10.20705194446667
      ],
      [
        "▁tal",
        -10.207139822263555
      ],
      [
        "gård",
        -10.207200145031498
      ],
      [
        "▁mail",
        -10.207238824517828
      ],
      [
        "▁mjuk",
        -10.207881999612873
      ],
      [
        "▁starka",
        -10.208027483910827
      ],
      [
        "ho",
        -10.208948549436077
      ],
      [
        "kel",
        -10.209624713735492
      ],
      [
        "▁användare",
        -10.210584137551939
      ],
      [
        "▁inspiration",
        -10.21118445154331
      ],
      [
        "▁ägare",
        -10.211293752974813
      ],
      [
        "▁röst",
        -10.211380957538543
      ],
      [
        "▁politiker",
        -10.21173774307589
      ],
      [
        "▁Frankrike",
        -10.211929392414149
      ],
      [
        "minns",
        -10.212034160348626
      ],
      [
        "▁hundra",
        -10.212423661878828
      ],
      [
        "▁ersättning",
        -10.21259518046118
      ],
      [
        "rit",
        -10.212894061827544
      ],
      [
        "▁funktioner",
        -10.213212907733723
      ],
      [
        "befinner",
        -10.214546725059156
      ],
      [
        "les",
        -10.214777233316534
      ],
      [
        "processen",
        -10.21514439452946
      ],
      [
        "▁stycken",
        -10.215289751427454
      ],
      [
        "▁Lind",
        -10.215606070764519
      ],
      [
        "▁Ålder",
        -10.216668030184527
      ],
      [
        "partiet",
        -10.216838602413752
      ],
      [
        "bilder",
        -10.218500998095859
      ],
      [
        "▁tjänst",
        -10.218958987547984
      ],
      [
        "avgörande",
        -10.219044472236131
      ],
      [
        "▁band",
        -10.219125618424073
      ],
      [
        "idéer",
        -10.21954554677574
      ],
      [
        "▁förut",
        -10.219729132333464
      ],
      [
        "▁problemet",
        -10.219987851266463
      ],
      [
        "▁kombination",
        -10.220608573144544
      ],
      [
        "spelare",
        -10.220994711622296
      ],
      [
        "eleverna",
        -10.221111088306087
      ],
      [
        "värde",
        -10.221320997773912
      ],
      [
        "▁relation",
        -10.222344795807542
      ],
      [
        "letar",
        -10.222671574148682
      ],
      [
        "▁dans",
        -10.222877420971942
      ],
      [
        "▁använde",
        -10.224420506293184
      ],
      [
        "▁Sch",
        -10.224848451571923
      ],
      [
        "▁SVT",
        -10.2250728880669
      ],
      [
        "und",
        -10.225289989918016
      ],
      [
        "▁Danmark",
        -10.225522113467369
      ],
      [
        "bilderna",
        -10.225921347174536
      ],
      [
        "brott",
        -10.226116259162989
      ],
      [
        "avseende",
        -10.226704463648709
      ],
      [
        "bet",
        -10.227020001516575
      ],
      [
        "mor",
        -10.22805489902422
      ],
      [
        "▁fyller",
        -10.228313179947367
      ],
      [
        "ordet",
        -10.228368793014441
      ],
      [
        "▁Daniel",
        -10.228683505650276
      ],
      [
        "▁dröm",
        -10.230557660209955
      ],
      [
        "▁Mar",
        -10.231005171451239
      ],
      [
        "Fi",
        -10.23150036079141
      ],
      [
        "▁detaljer",
        -10.231608950160702
      ],
      [
        "▁digitala",
        -10.23177833134897
      ],
      [
        "line",
        -10.231897199062386
      ],
      [
        "▁ända",
        -10.23214272070159
      ],
      [
        "▁snygga",
        -10.232252929918921
      ],
      [
        "lopp",
        -10.232741151285044
      ],
      [
        "snabbare",
        -10.233234124930952
      ],
      [
        "▁Gå",
        -10.233576233800571
      ],
      [
        "▁dotter",
        -10.233738242156846
      ],
      [
        "chansen",
        -10.234463138345435
      ],
      [
        "▁Skriv",
        -10.236231834254564
      ],
      [
        "▁röda",
        -10.236272195935666
      ],
      [
        "▁företags",
        -10.236779705215003
      ],
      [
        "▁kapital",
        -10.236945147225207
      ],
      [
        "▁magen",
        -10.236986468147764
      ],
      [
        "▁moderna",
        -10.23728333160483
      ],
      [
        "▁ämnen",
        -10.237589330973323
      ],
      [
        "▁tecken",
        -10.23785433700973
      ],
      [
        "läge",
        -10.237899255512094
      ],
      [
        "befintlig",
        -10.237973909382077
      ],
      [
        "▁bostads",
        -10.23956790350261
      ],
      [
        "▁Ba",
        -10.239588197503636
      ],
      [
        "hall",
        -10.23995912568087
      ],
      [
        "▁mjölk",
        -10.240141184262443
      ],
      [
        "Om",
        -10.240810971872298
      ],
      [
        "slagen",
        -10.240958172887241
      ],
      [
        "▁filmer",
        -10.24099509264132
      ],
      [
        "lat",
        -10.24120324608363
      ],
      [
        "▁frakt",
        -10.241588550444447
      ],
      [
        "beskriver",
        -10.241823084562464
      ],
      [
        "po",
        -10.242282564415303
      ],
      [
        "lista",
        -10.243299907030075
      ],
      [
        "▁John",
        -10.2441170930346
      ],
      [
        "▁sväng",
        -10.244353288481545
      ],
      [
        "▁grad",
        -10.244991344446229
      ],
      [
        "log",
        -10.24518957624484
      ],
      [
        "▁förändringar",
        -10.245229567872485
      ],
      [
        "▁görs",
        -10.245263275100266
      ],
      [
        "▁säng",
        -10.245999802625189
      ],
      [
        "▁utomhus",
        -10.246082732050727
      ],
      [
        "▁naturen",
        -10.247429711251504
      ],
      [
        "visat",
        -10.247671091076375
      ],
      [
        "▁Någon",
        -10.248000067007148
      ],
      [
        "situationen",
        -10.248705728263502
      ],
      [
        "▁ovanlig",
        -10.249371454990765
      ],
      [
        "▁butiker",
        -10.249508379570807
      ],
      [
        "▁Vikt",
        -10.24970028049853
      ],
      [
        "▁utför",
        -10.249760461352562
      ],
      [
        "▁Sport",
        -10.249765750611381
      ],
      [
        "känslan",
        -10.249895223663795
      ],
      [
        "▁mor",
        -10.250702038416847
      ],
      [
        "behandling",
        -10.251485234461763
      ],
      [
        "berättade",
        -10.251608199620208
      ],
      [
        "▁jämföra",
        -10.25166211161819
      ],
      [
        "▁Björn",
        -10.251673902063088
      ],
      [
        "konstigt",
        -10.2529538781764
      ],
      [
        "▁Q",
        -10.253381109208252
      ],
      [
        "▁redo",
        -10.25346114125933
      ],
      [
        "▁inkomst",
        -10.254559426398849
      ],
      [
        "▁Information",
        -10.254566031491581
      ],
      [
        "▁vila",
        -10.25466744786805
      ],
      [
        "ies",
        -10.256561441876997
      ],
      [
        "▁aktiv",
        -10.257017700523326
      ],
      [
        "från",
        -10.257080449187864
      ],
      [
        "industrin",
        -10.257506701311339
      ],
      [
        "▁reklam",
        -10.25792136661068
      ],
      [
        "bart",
        -10.259309221401963
      ],
      [
        "ben",
        -10.25945013336139
      ],
      [
        "▁avsnitt",
        -10.259830593880862
      ],
      [
        "▁omöjlig",
        -10.260423675288752
      ],
      [
        "°",
        -10.260500667203642
      ],
      [
        "▁skogen",
        -10.260931103654858
      ],
      [
        "hittills",
        -10.261128743832016
      ],
      [
        "rätten",
        -10.261505574726572
      ],
      [
        "▁organisation",
        -10.26174484624452
      ],
      [
        "äkta",
        -10.26218954546546
      ],
      [
        "▁informationen",
        -10.262208788166552
      ],
      [
        "▁Bu",
        -10.26258750362272
      ],
      [
        "värre",
        -10.26265073034515
      ],
      [
        "▁TripAdvisor",
        -10.262758856964108
      ],
      [
        "▁hundar",
        -10.26322220512318
      ],
      [
        "▁hänsyn",
        -10.263571682023253
      ],
      [
        "▁webbplatsen",
        -10.263775843386977
      ],
      [
        "▁plocka",
        -10.263945679409124
      ],
      [
        "qvist",
        -10.264451345594622
      ],
      [
        "▁Sten",
        -10.264794256392063
      ],
      [
        "▁Umeå",
        -10.265285455517411
      ],
      [
        "▁regel",
        -10.265512258565085
      ],
      [
        "tals",
        -10.265553727623528
      ],
      [
        "all",
        -10.2668314002247
      ],
      [
        "lighet",
        -10.26755234724844
      ],
      [
        "▁korrekt",
        -10.267728889937377
      ],
      [
        "▁klubb",
        -10.267844477731382
      ],
      [
        "▁tränings",
        -10.268467905293534
      ],
      [
        "▁utsikt",
        -10.268790739089985
      ],
      [
        "▁motor",
        -10.269064222984586
      ],
      [
        "▁Paris",
        -10.269200900687421
      ],
      [
        "▁To",
        -10.26952962391839
      ],
      [
        "funnits",
        -10.269795793416373
      ],
      [
        "▁Få",
        -10.269893221468468
      ],
      [
        "möjligheten",
        -10.27025726635895
      ],
      [
        "▁rädda",
        -10.270389324053047
      ],
      [
        "lu",
        -10.270748053733222
      ],
      [
        "▁illa",
        -10.271261446280052
      ],
      [
        "▁resurser",
        -10.271786934010228
      ],
      [
        "▁vind",
        -10.27262424318789
      ],
      [
        "▁paket",
        -10.272639535483764
      ],
      [
        "aktivt",
        -10.273315042638421
      ],
      [
        "dla",
        -10.273424286856036
      ],
      [
        "platser",
        -10.27364345491532
      ],
      [
        "sin",
        -10.274202445449392
      ],
      [
        "▁salt",
        -10.274558811670513
      ],
      [
        "▁fart",
        -10.27499629881456
      ],
      [
        "▁karta",
        -10.275344565769297
      ],
      [
        "start",
        -10.276655235569072
      ],
      [
        "gas",
        -10.276808906011897
      ],
      [
        "▁with",
        -10.277745974041466
      ],
      [
        "app",
        -10.279015334785598
      ],
      [
        "▁driver",
        -10.279164245588577
      ],
      [
        "▁hyra",
        -10.28001898249086
      ],
      [
        "▁drift",
        -10.28029873987577
      ],
      [
        "bruk",
        -10.280516909664057
      ],
      [
        "▁botten",
        -10.280613911850482
      ],
      [
        "positivt",
        -10.281083338593515
      ],
      [
        "▁Hög",
        -10.281338972308825
      ],
      [
        "platsen",
        -10.282139092455886
      ],
      [
        "▁fett",
        -10.282491504319117
      ],
      [
        "▁chef",
        -10.28283564093037
      ],
      [
        "▁svarar",
        -10.282939777713803
      ],
      [
        "▁rese",
        -10.28312246488009
      ],
      [
        "▁rörelse",
        -10.283551226407472
      ],
      [
        "påverkar",
        -10.283666833117048
      ],
      [
        "▁betyd",
        -10.284565752320912
      ],
      [
        "ze",
        -10.28539785124371
      ],
      [
        "▁genomför",
        -10.285489226284582
      ],
      [
        "▁analys",
        -10.285721596351026
      ],
      [
        "stället",
        -10.285931723112242
      ],
      [
        "glada",
        -10.285938067011637
      ],
      [
        "samt",
        -10.28687307669078
      ],
      [
        "▁SM",
        -10.287207993058383
      ],
      [
        "Vilket",
        -10.287218136164382
      ],
      [
        "▁hamnar",
        -10.287709230785627
      ],
      [
        "▁pre",
        -10.287915013836065
      ],
      [
        "▁ledare",
        -10.289119675465821
      ],
      [
        "▁kommunikation",
        -10.289266927624155
      ],
      [
        "▁grundläggande",
        -10.29022375283926
      ],
      [
        "▁månaden",
        -10.290546049623359
      ],
      [
        "▁bedömning",
        -10.290962453471472
      ],
      [
        "rar",
        -10.291202293601428
      ],
      [
        "köket",
        -10.291217785178867
      ],
      [
        "▁David",
        -10.291340026710609
      ],
      [
        "full",
        -10.291591696082877
      ],
      [
        "▁tåg",
        -10.291646427796566
      ],
      [
        "let",
        -10.292238082536564
      ],
      [
        "sätt",
        -10.292422482318937
      ],
      [
        "varken",
        -10.29275988163958
      ],
      [
        "▁resan",
        -10.292772306659906
      ],
      [
        "▁känd",
        -10.292850768519083
      ],
      [
        "con",
        -10.292983529677208
      ],
      [
        "sett",
        -10.293274110228731
      ],
      [
        "sök",
        -10.293325044314294
      ],
      [
        "▁känslor",
        -10.293510991420366
      ],
      [
        "baserade",
        -10.29386978273306
      ],
      [
        "▁varumärken",
        -10.294011264905155
      ],
      [
        "lä",
        -10.29401865593168
      ],
      [
        "▁kött",
        -10.294819134551021
      ],
      [
        "▁utbildnings",
        -10.295051364760424
      ],
      [
        "Något",
        -10.29575939649293
      ],
      [
        "▁driva",
        -10.29613972145534
      ],
      [
        "▁söder",
        -10.296216274893295
      ],
      [
        "träning",
        -10.296445385996552
      ],
      [
        "strand",
        -10.296637579553968
      ],
      [
        "bad",
        -10.297536641139008
      ],
      [
        "▁blommor",
        -10.297799887089063
      ],
      [
        "▁omfatta",
        -10.298148721993678
      ],
      [
        "▁Innan",
        -10.2982279309248
      ],
      [
        "uppleva",
        -10.298606893806777
      ],
      [
        "▁springa",
        -10.299534859300053
      ],
      [
        "föreningen",
        -10.299739871810806
      ],
      [
        "▁hävda",
        -10.299763550751393
      ],
      [
        "serien",
        -10.299939192100462
      ],
      [
        "▁herr",
        -10.300503844990066
      ],
      [
        "▁ikväll",
        -10.301234208624393
      ],
      [
        "▁rapport",
        -10.301248074246667
      ],
      [
        "startar",
        -10.301472576843286
      ],
      [
        "tel",
        -10.301553170810278
      ],
      [
        "rummet",
        -10.301801190937578
      ],
      [
        "ökning",
        -10.302018810809722
      ],
      [
        "staten",
        -10.30234528336065
      ],
      [
        "äck",
        -10.302628759733805
      ],
      [
        "kallar",
        -10.302829003201028
      ],
      [
        "▁fakta",
        -10.30283092212543
      ],
      [
        "ag",
        -10.303002401710446
      ],
      [
        "▁allmän",
        -10.303075579527253
      ],
      [
        "▁ungdoms",
        -10.303658437486934
      ],
      [
        "▁tycka",
        -10.30383353879961
      ],
      [
        "▁privata",
        -10.30395005717643
      ],
      [
        "▁unik",
        -10.304592700729085
      ],
      [
        "▁erfarenheter",
        -10.304701372895742
      ],
      [
        "▁stoppa",
        -10.3062205824689
      ],
      [
        "▁underbara",
        -10.306467383238639
      ],
      [
        "tte",
        -10.306705183950495
      ],
      [
        "▁Ed",
        -10.306833645008908
      ],
      [
        "hög",
        -10.3070812131896
      ],
      [
        "▁långsiktig",
        -10.307198661108417
      ],
      [
        "▁sent",
        -10.307725974683338
      ],
      [
        "håret",
        -10.30825915495674
      ],
      [
        "▁nyheter",
        -10.308783155454728
      ],
      [
        "▁mening",
        -10.308993460988082
      ],
      [
        "▁Får",
        -10.309825728800524
      ],
      [
        "bjöd",
        -10.30986462679292
      ],
      [
        "▁Bro",
        -10.309866874619841
      ],
      [
        "▁vitt",
        -10.310156908652388
      ],
      [
        "öppnar",
        -10.310215190322895
      ],
      [
        "▁tider",
        -10.31050703950679
      ],
      [
        "▁toppen",
        -10.310841246537159
      ],
      [
        "wa",
        -10.311289844281022
      ],
      [
        "▁kg",
        -10.311402574888925
      ],
      [
        "▁politik",
        -10.311560686584444
      ],
      [
        "▁profil",
        -10.311668152286533
      ],
      [
        "tanken",
        -10.311811437508043
      ],
      [
        "handel",
        -10.312585610677912
      ],
      [
        "▁perspektiv",
        -10.313381554658415
      ],
      [
        "▁omedelbart",
        -10.313535444363135
      ],
      [
        "▁kunskaper",
        -10.313536554581086
      ],
      [
        "delas",
        -10.313581365731615
      ],
      [
        "utbildning",
        -10.313741739326154
      ],
      [
        "▁tillgänglig",
        -10.313789112555833
      ],
      [
        "▁Super",
        -10.313921131450313
      ],
      [
        "▁nätverk",
        -10.314202968316632
      ],
      [
        "ställning",
        -10.314343568222514
      ],
      [
        "▁värd",
        -10.314600365754467
      ],
      [
        "loppet",
        -10.314626878254437
      ],
      [
        "▁nationella",
        -10.314817823989012
      ],
      [
        "▁Eva",
        -10.315783223857714
      ],
      [
        "▁Ryssland",
        -10.315798748168723
      ],
      [
        "▁Mina",
        -10.316102402920047
      ],
      [
        "▁Dagens",
        -10.316218614561345
      ],
      [
        "sängen",
        -10.316310849237908
      ],
      [
        "▁maten",
        -10.316389294031444
      ],
      [
        "▁hopp",
        -10.316535116738068
      ],
      [
        "▁Italien",
        -10.316707539673962
      ],
      [
        "▁fotboll",
        -10.316747261642723
      ],
      [
        "▁mörk",
        -10.31701843922663
      ],
      [
        "▁Arbets",
        -10.317863052989793
      ],
      [
        "▁Kommun",
        -10.318235942769192
      ],
      [
        "möter",
        -10.319118826283393
      ],
      [
        "myndigheten",
        -10.31926442670837
      ],
      [
        "lik",
        -10.319443074377407
      ],
      [
        "▁svarta",
        -10.32019668761152
      ],
      [
        "▁Jonas",
        -10.320203138715613
      ],
      [
        "▁skogs",
        -10.321444561699101
      ],
      [
        "▁döda",
        -10.321724642656864
      ],
      [
        "▁rädd",
        -10.321958016362641
      ],
      [
        "https",
        -10.323342936886663
      ],
      [
        "göra",
        -10.323521281468798
      ],
      [
        "▁Nyheter",
        -10.324004254360057
      ],
      [
        "▁Aktiebolag",
        -10.324022670008048
      ],
      [
        "unika",
        -10.325024248664679
      ],
      [
        "närvarande",
        -10.325173660573206
      ],
      [
        "kursen",
        -10.325385076048306
      ],
      [
        "▁underbar",
        -10.325457918950562
      ],
      [
        "▁Ra",
        -10.326542633640802
      ],
      [
        "ram",
        -10.327084244620528
      ],
      [
        "▁sån",
        -10.327871648933858
      ],
      [
        "▁skydd",
        -10.328073300692033
      ],
      [
        "▁Kon",
        -10.328719807086502
      ],
      [
        "▁ka",
        -10.329182969278587
      ],
      [
        "▁Hela",
        -10.329326695782495
      ],
      [
        "vackert",
        -10.329455287251418
      ],
      [
        "▁Su",
        -10.329622170146566
      ],
      [
        "pro",
        -10.330102739575423
      ],
      [
        "barn",
        -10.3303783329051
      ],
      [
        "nade",
        -10.330405345685302
      ],
      [
        "▁organisationer",
        -10.33085096150449
      ],
      [
        "▁marknads",
        -10.330929031177485
      ],
      [
        "bit",
        -10.331778474195103
      ],
      [
        "hand",
        -10.331972436486224
      ],
      [
        "▁Svar",
        -10.332021142695556
      ],
      [
        "ack",
        -10.332178430580056
      ],
      [
        "växa",
        -10.33221447760952
      ],
      [
        "▁familje",
        -10.332466553517985
      ],
      [
        "kostnader",
        -10.333126680629395
      ],
      [
        "tag",
        -10.333379352215154
      ],
      [
        "▁inre",
        -10.333996123029202
      ],
      [
        "projekt",
        -10.334017356140253
      ],
      [
        "▁Natur",
        -10.33495823185677
      ],
      [
        "bas",
        -10.335353414748512
      ],
      [
        "▁underlätta",
        -10.33571691993747
      ],
      [
        "▁hy",
        -10.336549465445884
      ],
      [
        "▁erbjuds",
        -10.336842055872623
      ],
      [
        "▁punkt",
        -10.336873979808887
      ],
      [
        "▁Or",
        -10.33690442679466
      ],
      [
        "▁negativ",
        -10.337261374614137
      ],
      [
        "▁ton",
        -10.337680847319735
      ],
      [
        "ET",
        -10.33836870497443
      ],
      [
        "▁led",
        -10.33839454373618
      ],
      [
        "mängder",
        -10.338481278166734
      ],
      [
        "tion",
        -10.338558379748534
      ],
      [
        "▁Karl",
        -10.339084292706564
      ],
      [
        "▁undantag",
        -10.339607471473634
      ],
      [
        "bergs",
        -10.33979120957853
      ],
      [
        "▁serien",
        -10.33997049637759
      ],
      [
        "▁no",
        -10.33998483038818
      ],
      [
        "effektivt",
        -10.34019555684988
      ],
      [
        "tik",
        -10.340201103734946
      ],
      [
        "▁dubbel",
        -10.340360827184828
      ],
      [
        "▁samarbeta",
        -10.34106786933286
      ],
      [
        "▁produkten",
        -10.341187209557443
      ],
      [
        "▁vintern",
        -10.341255682029496
      ],
      [
        "▁gäng",
        -10.341308960275972
      ],
      [
        "▁grön",
        -10.341409136810954
      ],
      [
        "▁process",
        -10.341429953556737
      ],
      [
        "ica",
        -10.342090141433184
      ],
      [
        "▁tillåt",
        -10.344118087181442
      ],
      [
        "frågade",
        -10.344304147799617
      ],
      [
        "riktiga",
        -10.344654192604924
      ],
      [
        "▁Göteborgs",
        -10.344842354671552
      ],
      [
        "▁Stora",
        -10.345547102097413
      ],
      [
        "▁scen",
        -10.345801822522747
      ],
      [
        "officiell",
        -10.34633786198379
      ],
      [
        "härligt",
        -10.34655083466118
      ],
      [
        "▁Windows",
        -10.347629089163256
      ],
      [
        "bu",
        -10.347770547008619
      ],
      [
        "▁Sjö",
        -10.348081448005784
      ],
      [
        "▁Rom",
        -10.348137696589818
      ],
      [
        "▁Jämför",
        -10.34821222377258
      ],
      [
        "▁total",
        -10.348762948972322
      ],
      [
        "områden",
        -10.349483467932727
      ],
      [
        "▁tillfällen",
        -10.34988487509885
      ],
      [
        "ej",
        -10.350003616795396
      ],
      [
        "▁undersökning",
        -10.350354863196035
      ],
      [
        "we",
        -10.350767587975824
      ],
      [
        "politiken",
        -10.350817218774392
      ],
      [
        "typ",
        -10.351577782528322
      ],
      [
        "▁fira",
        -10.351626941702333
      ],
      [
        "▁bevis",
        -10.351885468646362
      ],
      [
        "▁verksamheter",
        -10.351966436337296
      ],
      [
        "dörren",
        -10.351997589410196
      ],
      [
        "▁jakt",
        -10.352221135418628
      ],
      [
        "▁billig",
        -10.35305057557621
      ],
      [
        "givande",
        -10.353288686378068
      ],
      [
        "▁säg",
        -10.353914826785344
      ],
      [
        "▁mönster",
        -10.35438125686358
      ],
      [
        "ledare",
        -10.354489700046695
      ],
      [
        "▁vardag",
        -10.355417468809055
      ],
      [
        "skilda",
        -10.355650594063212
      ],
      [
        "film",
        -10.355813332411904
      ],
      [
        "nödvändigt",
        -10.356406352054972
      ],
      [
        "priset",
        -10.35665973700788
      ],
      [
        "lid",
        -10.356959335096615
      ],
      [
        "kraft",
        -10.357334304042741
      ],
      [
        "▁släpp",
        -10.357676935474151
      ],
      [
        "delar",
        -10.357750364103735
      ],
      [
        "▁kost",
        -10.358168307547992
      ],
      [
        "lugnt",
        -10.359056280924952
      ],
      [
        "▁uppmärksamma",
        -10.359706801584101
      ],
      [
        "stämmer",
        -10.359843889203598
      ],
      [
        "▁Henrik",
        -10.360466881695926
      ],
      [
        "kontoret",
        -10.361014697292664
      ],
      [
        "serie",
        -10.361388105341168
      ],
      [
        "sånt",
        -10.361756031931451
      ],
      [
        "ax",
        -10.361802410949775
      ],
      [
        "▁sjö",
        -10.362019077222989
      ],
      [
        "▁Do",
        -10.362158511856451
      ],
      [
        "intresserade",
        -10.362935933636042
      ],
      [
        "män",
        -10.363075733381772
      ],
      [
        "▁straff",
        -10.363199571795219
      ],
      [
        "minskar",
        -10.363434407205851
      ],
      [
        "försäkring",
        -10.363561326158143
      ],
      [
        "ång",
        -10.363787747011859
      ],
      [
        "▁skatt",
        -10.363999993547761
      ],
      [
        "for",
        -10.364552276012006
      ],
      [
        "▁euro",
        -10.365169450867722
      ],
      [
        "tävlingen",
        -10.36519482529058
      ],
      [
        "ika",
        -10.365614716829572
      ],
      [
        "▁slutar",
        -10.366166798709827
      ],
      [
        "dar",
        -10.367427533210028
      ],
      [
        "samhet",
        -10.36757223205524
      ],
      [
        "▁Ser",
        -10.367757224756453
      ],
      [
        "domstolen",
        -10.368526990058363
      ],
      [
        "▁van",
        -10.36856640918505
      ],
      [
        "vit",
        -10.369244914723103
      ],
      [
        "dra",
        -10.369491721917372
      ],
      [
        "stått",
        -10.370258788561204
      ],
      [
        "ID",
        -10.372206248075157
      ],
      [
        "▁Storbritannien",
        -10.372466843125414
      ],
      [
        "▁Va",
        -10.372770863048823
      ],
      [
        "▁syns",
        -10.373001879171182
      ],
      [
        "▁af",
        -10.373282015168309
      ],
      [
        "kontroll",
        -10.373448335823554
      ],
      [
        "ledes",
        -10.373874847801096
      ],
      [
        "▁hål",
        -10.374218475253407
      ],
      [
        "▁underbart",
        -10.374328539894183
      ],
      [
        "▁insatser",
        -10.374674107326161
      ],
      [
        "längst",
        -10.374733155465995
      ],
      [
        "köp",
        -10.375057970366141
      ],
      [
        "▁Dag",
        -10.375248685062104
      ],
      [
        "Utmärkt",
        -10.375714708341006
      ],
      [
        "▁fika",
        -10.376197221824448
      ],
      [
        "håll",
        -10.376280193232434
      ],
      [
        "bjuda",
        -10.376440014620758
      ],
      [
        "▁extremt",
        -10.376644660065287
      ],
      [
        "zi",
        -10.376808522657125
      ],
      [
        "AR",
        -10.377215101864618
      ],
      [
        "▁deltagare",
        -10.3772333362866
      ],
      [
        "orkar",
        -10.377519349090042
      ],
      [
        "positiva",
        -10.37760671578433
      ],
      [
        "▁effektiv",
        -10.378000001020933
      ],
      [
        "▁kvinnan",
        -10.378099465779137
      ],
      [
        "▁betalnings",
        -10.37811742420236
      ],
      [
        "fria",
        -10.379167801892311
      ],
      [
        "▁söt",
        -10.379386722879435
      ],
      [
        "▁Hus",
        -10.379413381317844
      ],
      [
        "▁bära",
        -10.379649978779815
      ],
      [
        "granskar",
        -10.379684350997296
      ],
      [
        "ox",
        -10.379771499097867
      ],
      [
        "▁sko",
        -10.379864556061834
      ],
      [
        "▁metod",
        -10.37992940130214
      ],
      [
        "▁anti",
        -10.380130774048741
      ],
      [
        "▁kostnad",
        -10.380178890667771
      ],
      [
        "risk",
        -10.380456556478753
      ],
      [
        "sol",
        -10.380595497316168
      ],
      [
        "vet",
        -10.380891763862865
      ],
      [
        "▁ögonen",
        -10.380949329040961
      ],
      [
        "Både",
        -10.381435645478017
      ],
      [
        "▁läste",
        -10.381689137373266
      ],
      [
        "brett",
        -10.381728966326216
      ],
      [
        "▁föreningen",
        -10.381849647473846
      ],
      [
        "förening",
        -10.382042818425106
      ],
      [
        "▁myndigheter",
        -10.382225502135407
      ],
      [
        "▁God",
        -10.382552233842793
      ],
      [
        "▁Kommer",
        -10.382679398990392
      ],
      [
        "▁torr",
        -10.382764347699633
      ],
      [
        "▁definitiv",
        -10.383105797264447
      ],
      [
        "The",
        -10.383134408879124
      ],
      [
        "▁spa",
        -10.383642088621157
      ],
      [
        "Årets",
        -10.383771117877682
      ],
      [
        "▁hjärt",
        -10.384092163456687
      ],
      [
        "▁bry",
        -10.384297699796816
      ],
      [
        "personen",
        -10.384541510028148
      ],
      [
        "▁våga",
        -10.384568935791734
      ],
      [
        "▁koppla",
        -10.384909324973181
      ],
      [
        "frågor",
        -10.385333514929297
      ],
      [
        "dig",
        -10.385595560102871
      ],
      [
        "ron",
        -10.385989637938996
      ],
      [
        "{",
        -10.386370707975914
      ],
      [
        "▁möjlig",
        -10.386623774527799
      ],
      [
        "böcker",
        -10.38740739653844
      ],
      [
        "tas",
        -10.387545547966878
      ],
      [
        "▁skull",
        -10.387713249337558
      ],
      [
        "ham",
        -10.387739815316765
      ],
      [
        "▁fordon",
        -10.38790692316081
      ],
      [
        "▁utrymme",
        -10.387993915051068
      ],
      [
        "▁öl",
        -10.38812972570436
      ],
      [
        "Flera",
        -10.388414993513683
      ],
      [
        "▁avgifter",
        -10.38902690787355
      ],
      [
        "▁tidningen",
        -10.389048219174501
      ],
      [
        "▁dusch",
        -10.389381955090524
      ],
      [
        "press",
        -10.389420657047658
      ],
      [
        "vädret",
        -10.38944867857868
      ],
      [
        "flyttade",
        -10.389802428874036
      ],
      [
        "▁psykisk",
        -10.390035243826121
      ],
      [
        "▁enhet",
        -10.390365559775073
      ],
      [
        "▁Spanien",
        -10.390624939853987
      ],
      [
        "mässigt",
        -10.39124980980705
      ],
      [
        "sport",
        -10.39161862522629
      ],
      [
        "jobbigt",
        -10.39182968719573
      ],
      [
        "▁Magnus",
        -10.392039225868395
      ],
      [
        "▁utom",
        -10.392184159903039
      ],
      [
        "▁parkering",
        -10.39242447888459
      ],
      [
        "▁upplev",
        -10.39287710392397
      ],
      [
        "politik",
        -10.393588928884567
      ],
      [
        "▁hjärtat",
        -10.39423601807752
      ],
      [
        "▁Miljö",
        -10.394590636790543
      ],
      [
        "▁resor",
        -10.394664194227484
      ],
      [
        "▁rakt",
        -10.395164515446423
      ],
      [
        "▁lågt",
        -10.395478386152421
      ],
      [
        "▁kompis",
        -10.395679045107656
      ],
      [
        "▁låga",
        -10.395806509240044
      ],
      [
        "rat",
        -10.39609036372309
      ],
      [
        "männen",
        -10.396388901477323
      ],
      [
        "▁Mi",
        -10.396514661098335
      ],
      [
        "hantering",
        -10.396639033199644
      ],
      [
        "historien",
        -10.396703295124608
      ],
      [
        "▁Bank",
        -10.39713469469813
      ],
      [
        "▁version",
        -10.397281181663264
      ],
      [
        "▁Helt",
        -10.397982573733307
      ],
      [
        "ges",
        -10.398313285981699
      ],
      [
        "▁utredning",
        -10.399633618468261
      ],
      [
        "når",
        -10.399879925680212
      ],
      [
        "▁radio",
        -10.400052589382781
      ],
      [
        "Visa",
        -10.400332587747315
      ],
      [
        "▁Ek",
        -10.400551651191055
      ],
      [
        "tips",
        -10.400771608365133
      ],
      [
        "▁erbjudande",
        -10.401109085188905
      ],
      [
        "beslutet",
        -10.40169905378523
      ],
      [
        "språk",
        -10.40180509855561
      ],
      [
        "AN",
        -10.402358679769188
      ],
      [
        "▁hände",
        -10.402680141495448
      ],
      [
        "byggnad",
        -10.402874093534189
      ],
      [
        "▁höjd",
        -10.402948400879547
      ],
      [
        "▁Mål",
        -10.403058557836168
      ],
      [
        "▁nio",
        -10.403391229732591
      ],
      [
        "▁kol",
        -10.403735649079335
      ],
      [
        "▁bekräfta",
        -10.403953303461435
      ],
      [
        "▁slipp",
        -10.404125463900526
      ],
      [
        "▁Kultur",
        -10.404263198278695
      ],
      [
        "skaffa",
        -10.404327107460698
      ],
      [
        "▁daglig",
        -10.405532049116594
      ],
      [
        "▁vuxen",
        -10.40559238046601
      ],
      [
        "upplever",
        -10.405856699023145
      ],
      [
        "che",
        -10.406008049849685
      ],
      [
        "▁Västra",
        -10.406073205913454
      ],
      [
        "▁singlar",
        -10.406267210090594
      ],
      [
        "▁FÖR",
        -10.406331477363244
      ],
      [
        "}",
        -10.406896996811339
      ],
      [
        "▁papper",
        -10.407181118892881
      ],
      [
        "▁lek",
        -10.408014198943667
      ],
      [
        "▁egenskaper",
        -10.409011702269805
      ],
      [
        "fullmäktige",
        -10.40933132385413
      ],
      [
        "tter",
        -10.410035985528292
      ],
      [
        "ff",
        -10.410477387695922
      ],
      [
        "▁tjäna",
        -10.410517749792037
      ],
      [
        "▁So",
        -10.41068478049293
      ],
      [
        "▁inled",
        -10.410784675910682
      ],
      [
        "▁frisk",
        -10.410901600018727
      ],
      [
        "▁hälften",
        -10.41117650405958
      ],
      [
        "originalet",
        -10.411634951617499
      ],
      [
        "▁forsknings",
        -10.411931427185728
      ],
      [
        "▁mått",
        -10.411947228658718
      ],
      [
        "▁medför",
        -10.412416745557662
      ],
      [
        "▁dricka",
        -10.413247587462525
      ],
      [
        "▁korta",
        -10.413479007250496
      ],
      [
        "hets",
        -10.41348117663781
      ],
      [
        "▁torsdag",
        -10.413705869175715
      ],
      [
        "▁faktu",
        -10.414158599400976
      ],
      [
        "problem",
        -10.414336828248757
      ],
      [
        "hörde",
        -10.414354220448152
      ],
      [
        "▁Gr",
        -10.414946597717949
      ],
      [
        "▁stål",
        -10.415007474493054
      ],
      [
        "vall",
        -10.415184665359874
      ],
      [
        "▁Vårt",
        -10.415323980649571
      ],
      [
        "▁aktier",
        -10.415349278205369
      ],
      [
        "årig",
        -10.41535067686612
      ],
      [
        "soffan",
        -10.415747153116023
      ],
      [
        "▁fjärde",
        -10.416330617883448
      ],
      [
        "fest",
        -10.41692703201634
      ],
      [
        "▁iaf",
        -10.416974899727293
      ],
      [
        "▁allvar",
        -10.417013323717347
      ],
      [
        "klubb",
        -10.417366066408093
      ],
      [
        "▁former",
        -10.417564517660681
      ],
      [
        "generell",
        -10.417598585452216
      ],
      [
        "▁utvecklings",
        -10.417905746708332
      ],
      [
        "▁växt",
        -10.41797808010811
      ],
      [
        "▁Ko",
        -10.41834475458327
      ],
      [
        "jer",
        -10.418783866647072
      ],
      [
        "pga",
        -10.419583805691524
      ],
      [
        "Förbättra",
        -10.419590167110726
      ],
      [
        "TT",
        -10.420595677484643
      ],
      [
        "ung",
        -10.420639317134933
      ],
      [
        "hinner",
        -10.420775509937043
      ],
      [
        "▁Larsson",
        -10.4208073327241
      ],
      [
        "▁Ne",
        -10.42099307906954
      ],
      [
        "que",
        -10.421309768827497
      ],
      [
        "▁överens",
        -10.421404553060984
      ],
      [
        "modellen",
        -10.421495485938156
      ],
      [
        "▁co",
        -10.42194462173932
      ],
      [
        "träd",
        -10.422257601883727
      ],
      [
        "▁cancer",
        -10.422479726746902
      ],
      [
        "▁metoder",
        -10.424023650185221
      ],
      [
        "Bolaget",
        -10.42502150090139
      ],
      [
        "paket",
        -10.425067676014667
      ],
      [
        "baserat",
        -10.425351553904294
      ],
      [
        "▁Kalmar",
        -10.425656781137803
      ],
      [
        "ytan",
        -10.425697771588581
      ],
      [
        "▁skriv",
        -10.426129487545651
      ],
      [
        "▁Sk",
        -10.426720667341577
      ],
      [
        "▁löne",
        -10.426805765297575
      ],
      [
        "▁leverera",
        -10.426828480153729
      ],
      [
        "▁hjärta",
        -10.42717688955895
      ],
      [
        "▁välkommen",
        -10.427745562359915
      ],
      [
        "▁stranden",
        -10.427848099796886
      ],
      [
        "▁hållbar",
        -10.427900309553051
      ],
      [
        "tvung",
        -10.428660323602237
      ],
      [
        "▁VM",
        -10.428865169448557
      ],
      [
        "▁Te",
        -10.428938852620627
      ],
      [
        "byn",
        -10.429058494488553
      ],
      [
        "▁Tur",
        -10.42919712240214
      ],
      [
        "▁banan",
        -10.4298032727313
      ],
      [
        "▁äventyr",
        -10.429992052572713
      ],
      [
        "▁synd",
        -10.430155122878508
      ],
      [
        "avtalet",
        -10.43018517627582
      ],
      [
        "livet",
        -10.430376509931442
      ],
      [
        "framförall",
        -10.430871916020784
      ],
      [
        "▁färdig",
        -10.43088469153638
      ],
      [
        "eras",
        -10.430942772827873
      ],
      [
        "lades",
        -10.43116258421823
      ],
      [
        "▁sammanhang",
        -10.431287128442467
      ],
      [
        "▁vinner",
        -10.43157232480493
      ],
      [
        "▁nere",
        -10.431770918972578
      ],
      [
        "▁bostad",
        -10.432113357546593
      ],
      [
        "desto",
        -10.432461528786993
      ],
      [
        "märken",
        -10.432733198259111
      ],
      [
        "▁IP",
        -10.432810130867718
      ],
      [
        "▁dokument",
        -10.432889642792476
      ],
      [
        "färg",
        -10.433228029336997
      ],
      [
        "▁presentera",
        -10.433415479843825
      ],
      [
        "klassiska",
        -10.433582111172006
      ],
      [
        "nor",
        -10.433787329817456
      ],
      [
        "ätt",
        -10.433808381265672
      ],
      [
        "invånare",
        -10.434105428865639
      ],
      [
        "▁möten",
        -10.434357047616004
      ],
      [
        "▁drag",
        -10.435075446942498
      ],
      [
        "▁fru",
        -10.435337420725858
      ],
      [
        "ledde",
        -10.435530690531005
      ],
      [
        "förvaltningen",
        -10.436199650168016
      ],
      [
        "▁styrelse",
        -10.436278311833501
      ],
      [
        "▁naturligt",
        -10.436444550721994
      ],
      [
        "tagna",
        -10.437125108128898
      ],
      [
        "nät",
        -10.43728332804027
      ],
      [
        "jä",
        -10.437722632334475
      ],
      [
        "▁karriär",
        -10.438221387906369
      ],
      [
        "jan",
        -10.438354203487183
      ],
      [
        "▁Ti",
        -10.438427086267165
      ],
      [
        "▁gröna",
        -10.439154522012084
      ],
      [
        "inte",
        -10.439225127304228
      ],
      [
        "marknaden",
        -10.43931098877163
      ],
      [
        "texten",
        -10.439545979287253
      ],
      [
        "▁utrustning",
        -10.439605465370315
      ],
      [
        "▁lycka",
        -10.439690014891125
      ],
      [
        "▁tomt",
        -10.440068604817897
      ],
      [
        "fl",
        -10.440293620254401
      ],
      [
        "▁bestämma",
        -10.440664163066268
      ],
      [
        "▁forskare",
        -10.440854643488326
      ],
      [
        "Re",
        -10.440972823681172
      ],
      [
        "▁anslutning",
        -10.441447455481885
      ],
      [
        "▁Slut",
        -10.441678068329281
      ],
      [
        "drag",
        -10.441828920337022
      ],
      [
        "▁avse",
        -10.44199794679297
      ],
      [
        "släppa",
        -10.442193409482702
      ],
      [
        "linjen",
        -10.442413638123053
      ],
      [
        "aktörer",
        -10.442737767908199
      ],
      [
        "▁team",
        -10.442922177242314
      ],
      [
        "▁verifier",
        -10.443555594375875
      ],
      [
        "vunnit",
        -10.44367477047082
      ],
      [
        "skiljer",
        -10.444504053586304
      ],
      [
        "▁artikeln",
        -10.444894349774817
      ],
      [
        "str",
        -10.445292811704526
      ],
      [
        "lö",
        -10.445455338837515
      ],
      [
        "▁styrelsen",
        -10.445742308149068
      ],
      [
        "\\",
        -10.445969896969075
      ],
      [
        "▁artiklar",
        -10.446456645998747
      ],
      [
        "Börja",
        -10.446598671281885
      ],
      [
        "bandet",
        -10.446611017657833
      ],
      [
        "▁By",
        -10.446734614571875
      ],
      [
        "▁sov",
        -10.446981901727538
      ],
      [
        "▁ekonomisk",
        -10.447406163196527
      ],
      [
        "intill",
        -10.447410896253956
      ],
      [
        "▁We",
        -10.447620661075451
      ],
      [
        "kväll",
        -10.447877150860757
      ],
      [
        "cy",
        -10.44861380534061
      ],
      [
        "▁tillämpa",
        -10.448645285908182
      ],
      [
        "▁möt",
        -10.448665586151337
      ],
      [
        "ski",
        -10.448683718604764
      ],
      [
        "vä",
        -10.449174127099806
      ],
      [
        "hallen",
        -10.449770909416587
      ],
      [
        "lack",
        -10.449828128524997
      ],
      [
        "ub",
        -10.449868179208304
      ],
      [
        "vänder",
        -10.450113511517424
      ],
      [
        "▁student",
        -10.450187154850074
      ],
      [
        "▁Thomas",
        -10.450395569102334
      ],
      [
        "Du",
        -10.450514634974704
      ],
      [
        "bor",
        -10.45052794028508
      ],
      [
        "▁sömn",
        -10.450900188199313
      ],
      [
        "▁golv",
        -10.451025453995623
      ],
      [
        "▁Region",
        -10.451059264466807
      ],
      [
        "▁Tillväxt",
        -10.451392798949408
      ],
      [
        "▁modeller",
        -10.451599130203425
      ],
      [
        "▁städer",
        -10.451684618946285
      ],
      [
        "▁grunden",
        -10.451835586439508
      ],
      [
        "▁skuld",
        -10.452132277436323
      ],
      [
        "Dålig",
        -10.45254849760654
      ],
      [
        "▁industri",
        -10.453054422785797
      ],
      [
        "▁förrän",
        -10.453199900204426
      ],
      [
        "▁kallad",
        -10.453255689981233
      ],
      [
        "▁Helsingborg",
        -10.45360049166891
      ],
      [
        "ologi",
        -10.453816942726482
      ],
      [
        "närmast",
        -10.45422341991743
      ],
      [
        "hy",
        -10.454394602470693
      ],
      [
        "▁Folk",
        -10.454811876929552
      ],
      [
        "klassen",
        -10.45493722397109
      ],
      [
        "▁aktiva",
        -10.455004487004475
      ],
      [
        "ris",
        -10.456473135068554
      ],
      [
        "vad",
        -10.456566007288204
      ],
      [
        "▁sjukt",
        -10.456669494741126
      ],
      [
        "▁bostäder",
        -10.456994968889344
      ],
      [
        "▁sms",
        -10.457210540157064
      ],
      [
        "cm",
        -10.4576943292436
      ],
      [
        "fel",
        -10.458675284050758
      ],
      [
        "▁levande",
        -10.459533515180432
      ],
      [
        "arbetat",
        -10.459580837603447
      ],
      [
        "nått",
        -10.460097472514992
      ],
      [
        "miljö",
        -10.460222311635551
      ],
      [
        "golvet",
        -10.46112198163679
      ],
      [
        "▁Black",
        -10.461522837345248
      ],
      [
        "▁Mark",
        -10.461530036214086
      ],
      [
        "▁okej",
        -10.461662532834673
      ],
      [
        "▁finna",
        -10.462177861904992
      ],
      [
        "▁samverkan",
        -10.462358798815227
      ],
      [
        "södra",
        -10.462449191095336
      ],
      [
        "finansiella",
        -10.46325288934141
      ],
      [
        "▁hård",
        -10.464089011305031
      ],
      [
        "nivåer",
        -10.464183322368866
      ],
      [
        "▁nämn",
        -10.464216259764008
      ],
      [
        "banken",
        -10.464353446425264
      ],
      [
        "utöver",
        -10.464449725951708
      ],
      [
        "kod",
        -10.46463756260462
      ],
      [
        "▁tyst",
        -10.465113091723
      ],
      [
        "jält",
        -10.465926865463372
      ],
      [
        "baserad",
        -10.466130446955175
      ],
      [
        "▁bröd",
        -10.466439069721154
      ],
      [
        "ess",
        -10.467161764861311
      ],
      [
        "▁behandla",
        -10.467191931668525
      ],
      [
        "anska",
        -10.46741503585992
      ],
      [
        "▁klassisk",
        -10.467805197186673
      ],
      [
        "▁tränar",
        -10.467840448047992
      ],
      [
        "▁gemensam",
        -10.467992879477805
      ],
      [
        "slut",
        -10.468364552326209
      ],
      [
        "▁rosa",
        -10.469191808654713
      ],
      [
        "naturliga",
        -10.469373570036261
      ],
      [
        "Bra",
        -10.469734263737376
      ],
      [
        "hu",
        -10.4697589312741
      ],
      [
        "▁Kontakta",
        -10.469986628240148
      ],
      [
        "▁kris",
        -10.470130648117541
      ],
      [
        "▁trygghet",
        -10.4703657832131
      ],
      [
        "▁skolor",
        -10.470417937306738
      ],
      [
        "▁tvek",
        -10.470441546649482
      ],
      [
        "ljus",
        -10.471378472315648
      ],
      [
        "alt",
        -10.471700491662045
      ],
      [
        "gjorda",
        -10.472013592633015
      ],
      [
        "▁Kar",
        -10.472245718189978
      ],
      [
        "▁personuppgifter",
        -10.473195289246764
      ],
      [
        "kurs",
        -10.473230284215827
      ],
      [
        "▁maskin",
        -10.473628779360817
      ],
      [
        "▁ver",
        -10.473869171817551
      ],
      [
        "nad",
        -10.473890013423748
      ],
      [
        "banan",
        -10.474079919452349
      ],
      [
        "▁silver",
        -10.474082578927591
      ],
      [
        "org",
        -10.474089923444717
      ],
      [
        "▁Ladda",
        -10.474361570328421
      ],
      [
        "▁syster",
        -10.474869207473732
      ],
      [
        "tta",
        -10.474927480410413
      ],
      [
        "▁fastighets",
        -10.475240095773383
      ],
      [
        "▁trädgård",
        -10.475301426757627
      ],
      [
        "▁tillfällig",
        -10.475868322498142
      ],
      [
        "▁Jesus",
        -10.476921176106524
      ],
      [
        "gränsen",
        -10.477081062091633
      ],
      [
        "▁Herr",
        -10.47755036188619
      ],
      [
        "▁vapen",
        -10.477639181310174
      ],
      [
        "▁balans",
        -10.477799692914576
      ],
      [
        "▁Mikael",
        -10.477811483783029
      ],
      [
        "▁Plats",
        -10.477987700406043
      ],
      [
        "sion",
        -10.478049452324612
      ],
      [
        "▁tyska",
        -10.478082557129088
      ],
      [
        "▁marken",
        -10.478195655335922
      ],
      [
        "ity",
        -10.478408831270114
      ],
      [
        "▁Precis",
        -10.478420380862646
      ],
      [
        "lam",
        -10.47850892548567
      ],
      [
        "ow",
        -10.479434192407718
      ],
      [
        "öl",
        -10.480098268893062
      ],
      [
        "▁kön",
        -10.48079563639821
      ],
      [
        "▁totala",
        -10.48112021268041
      ],
      [
        "▁kung",
        -10.481266349937322
      ],
      [
        "▁mobilen",
        -10.48171458441275
      ],
      [
        "▁Färg",
        -10.481729459237402
      ],
      [
        "▁metall",
        -10.4818185789747
      ],
      [
        "▁intervju",
        -10.482755997771314
      ],
      [
        "tillfället",
        -10.483007829033824
      ],
      [
        "▁göteborg",
        -10.48329560823684
      ],
      [
        "rop",
        -10.48441285737374
      ],
      [
        "▁Ad",
        -10.484823849645387
      ],
      [
        "zon",
        -10.484987925669508
      ],
      [
        "▁anpassa",
        -10.485536223028898
      ],
      [
        "▁Karlsson",
        -10.485660488648138
      ],
      [
        "hänger",
        -10.486237672463234
      ],
      [
        "▁hunn",
        -10.48628182101782
      ],
      [
        "▁fiske",
        -10.487236647701467
      ],
      [
        "handlade",
        -10.48739115561365
      ],
      [
        "▁uppenbar",
        -10.488117539097374
      ],
      [
        "▁linje",
        -10.488413823364295
      ],
      [
        "▁sortiment",
        -10.488506874272009
      ],
      [
        "kostnad",
        -10.488617971942757
      ],
      [
        "▁Kram",
        -10.488733885080771
      ],
      [
        "▁Ri",
        -10.488821898904378
      ],
      [
        "▁tjänsten",
        -10.489019217885334
      ],
      [
        "▁seger",
        -10.48907045743064
      ],
      [
        "▁sällskap",
        -10.489689306938992
      ],
      [
        "bana",
        -10.48995145085194
      ],
      [
        "▁takt",
        -10.489974954723428
      ],
      [
        "▁Innehåll",
        -10.49046219628574
      ],
      [
        "någonstans",
        -10.491072037026074
      ],
      [
        "▁arrangera",
        -10.49231640382136
      ],
      [
        "olja",
        -10.492400682972452
      ],
      [
        "▁saknas",
        -10.492791041279567
      ],
      [
        "▁kontor",
        -10.492897284299419
      ],
      [
        "dagar",
        -10.493002709344195
      ],
      [
        "▁fil",
        -10.493387124967706
      ],
      [
        "arbeten",
        -10.493496281212865
      ],
      [
        "▁smart",
        -10.49420176575519
      ],
      [
        "lit",
        -10.494630931790065
      ],
      [
        "ämnet",
        -10.495125950288875
      ],
      [
        "▁aktivitet",
        -10.496138944951317
      ],
      [
        "▁Kort",
        -10.496283287042857
      ],
      [
        "anda",
        -10.496339659906452
      ],
      [
        "anläggningar",
        -10.496372775459731
      ],
      [
        "▁Tri",
        -10.496678048683126
      ],
      [
        "▁trolig",
        -10.496815347478266
      ],
      [
        "automatiskt",
        -10.496917449700302
      ],
      [
        "års",
        -10.498091821306861
      ],
      [
        "▁Jul",
        -10.498133869823759
      ],
      [
        "▁digital",
        -10.498217543842483
      ],
      [
        "kast",
        -10.498232002949933
      ],
      [
        "▁rea",
        -10.498332830429574
      ],
      [
        "▁sovrum",
        -10.498651688863234
      ],
      [
        "▁hänga",
        -10.49885235866572
      ],
      [
        "ös",
        -10.498937670626988
      ],
      [
        "▁behålla",
        -10.499121126088982
      ],
      [
        "pack",
        -10.499631772189357
      ],
      [
        "▁kritik",
        -10.499726590936321
      ],
      [
        "läggning",
        -10.50056059340441
      ],
      [
        "enheten",
        -10.50067568443969
      ],
      [
        "▁Fler",
        -10.500780942639702
      ],
      [
        "▁motsvara",
        -10.500802653713603
      ],
      [
        "▁tävling",
        -10.50084605481377
      ],
      [
        "▁Ex",
        -10.50106049164901
      ],
      [
        "▁sönder",
        -10.501198341140801
      ],
      [
        "då",
        -10.501452489169502
      ],
      [
        "värd",
        -10.501678531881502
      ],
      [
        "▁sekunder",
        -10.501873205328602
      ],
      [
        "king",
        -10.501991157040045
      ],
      [
        "ställ",
        -10.502236502933421
      ],
      [
        "ansvarig",
        -10.502336916815093
      ],
      [
        "▁flertal",
        -10.502596467600613
      ],
      [
        "▁duktig",
        -10.502642927386132
      ],
      [
        "▁Tillsammans",
        -10.50305032603373
      ],
      [
        "åriga",
        -10.503777538412901
      ],
      [
        "▁Hall",
        -10.504242781543743
      ],
      [
        "▁röra",
        -10.504474951670604
      ],
      [
        "▁Hi",
        -10.504729105533622
      ],
      [
        "heter",
        -10.505471955967481
      ],
      [
        "backen",
        -10.50573127398214
      ],
      [
        "lämnat",
        -10.505911956591186
      ],
      [
        "▁uppfyll",
        -10.506061264580476
      ],
      [
        "▁ursprunglig",
        -10.506111901827525
      ],
      [
        "▁sök",
        -10.506244240185252
      ],
      [
        "ägare",
        -10.506803158135002
      ],
      [
        "▁verkligheten",
        -10.507151867760086
      ],
      [
[...]
