{
  "version": "1.0",
  "truncation": null,
  "padding": null,
  "added_tokens": [
    {
      "id": 0,
      "content": "[PAD]",
      "single_word": false,
      "lstrip": false,
      "rstrip": false,
      "normalized": false,
      "special": true
    },
    {
      "id": 1,
      "content": "[UNK]",
      "single_word": false,
      "lstrip": false,
      "rstrip": false,
      "normalized": false,
      "special": true
    },
    {
      "id": 2,
      "content": "[MASK]",
      "single_word": false,
      "lstrip": false,
      "rstrip": false,
      "normalized": false,
      "special": true
    },
    {
      "id": 3,
      "content": "[CLS]",
      "single_word": false,
      "lstrip": false,
      "rstrip": false,
      "normalized": false,
      "special": true
    },
    {
      "id": 4,
      "content": "[SEP]",
      "single_word": false,
      "lstrip": false,
      "rstrip": false,
      "normalized": false,
      "special": true
    }
  ],
  "normalizer": {
    "type": "Sequence",
    "normalizers": [
      {
        "type": "Nmt"
      },
      {
        "type": "NFKC"
      },
      {
        "type": "Replace",
        "pattern": {
          "Regex": " {2,}"
        },
        "content": " "
      }
    ]
  },
  "pre_tokenizer": {
    "type": "Sequence",
    "pretokenizers": [
      {
        "type": "WhitespaceSplit"
      }
    ]
  },
  "post_processor": {
    "type": "TemplateProcessing",
    "single": [
      {
        "SpecialToken": {
          "id": "[CLS]",
          "type_id": 0
        }
      },
      {
        "Sequence": {
          "id": "A",
          "type_id": 0
        }
      },
      {
        "SpecialToken": {
          "id": "[SEP]",
          "type_id": 0
        }
      }
    ],
    "pair": [
      {
        "SpecialToken": {
          "id": "[CLS]",
          "type_id": 0
        }
      },
      {
        "Sequence": {
          "id": "A",
          "type_id": 0
        }
      },
      {
        "SpecialToken": {
          "id": "[SEP]",
          "type_id": 0
        }
      },
      {
        "Sequence": {
          "id": "B",
          "type_id": 1
        }
      },
      {
        "SpecialToken": {
          "id": "[SEP]",
          "type_id": 1
        }
      }
    ],
    "special_tokens": {
      "[CLS]": {
        "id": "[CLS]",
        "ids": [
          3
        ],
        "tokens": [
          "[CLS]"
        ]
      },
      "[SEP]": {
        "id": "[SEP]",
        "ids": [
          4
        ],
        "tokens": [
          "[SEP]"
        ]
      }
    }
  },
  "decoder": {
    "type": "WordPiece",
    "prefix": "##",
    "cleanup": true
  },
  "model": {
    "type": "WordPiece",
    "unk_token": "[UNK]",
    "continuing_subword_prefix": "##",
    "max_input_chars_per_word": 100,
    "vocab": {
      "[PAD]": 0,
      "[UNK]": 1,
      "[MASK]": 2,
      "[CLS]": 3,
      "[SEP]": 4,
      "\u0000": 5,
      "!": 6,
      "\"": 7,
      "#": 8,
      "$": 9,
      "%": 10,
      "&": 11,
      "'": 12,
      "(": 13,
      ")": 14,
      "*": 15,
      "+": 16,
      ",": 17,
      "-": 18,
      ".": 19,
      "/": 20,
      "0": 21,
      "1": 22,
      "2": 23,
      "3": 24,
      "4": 25,
      "5": 26,
      "6": 27,
      "7": 28,
      "8": 29,
      "9": 30,
      ":": 31,
      ";": 32,
      "<": 33,
      "=": 34,
      ">": 35,
      "?": 36,
      "@": 37,
      "A": 38,
      "B": 39,
      "C": 40,
      "D": 41,
      "E": 42,
      "F": 43,
      "G": 44,
      "H": 45,
      "I": 46,
      "J": 47,
      "K": 48,
      "L": 49,
      "M": 50,
      "N": 51,
      "O": 52,
      "P": 53,
      "Q": 54,
      "R": 55,
      "S": 56,
      "T": 57,
      "U": 58,
      "V": 59,
      "W": 60,
      "X": 61,
      "Y": 62,
      "Z": 63,
      "[": 64,
      "\\": 65,
      "]": 66,
      "^": 67,
      "_": 68,
      "`": 69,
      "a": 70,
      "b": 71,
      "c": 72,
      "d": 73,
      "e": 74,
      "f": 75,
      "g": 76,
      "h": 77,
      "i": 78,
      "j": 79,
      "k": 80,
      "l": 81,
      "m": 82,
      "n": 83,
      "o": 84,
      "p": 85,
      "q": 86,
      "r": 87,
      "s": 88,
      "t": 89,
      "u": 90,
      "v": 91,
      "w": 92,
      "x": 93,
      "y": 94,
      "z": 95,
      "{": 96,
      "|": 97,
      "}": 98,
      "~": 99,
      "": 100,
      "": 101,
      "": 102,
      "": 103,
      "": 104,
      "": 105,
      "": 106,
      "": 107,
      "": 108,
      "": 109,
      "": 110,
      "": 111,
      "": 112,
      "": 113,
      "": 114,
      "": 115,
      "": 116,
      "": 117,
      "": 118,
      "": 119,
      "": 120,
      "": 121,
      "": 122,
      "": 123,
      "": 124,
      "": 125,
      "": 126,
      "¡": 127,
      "¢": 128,
      "£": 129,
      "¤": 130,
      "¥": 131,
      "¦": 132,
      "§": 133,
      "©": 134,
      "«": 135,
      "¬": 136,
      "­": 137,
      "®": 138,
      "°": 139,
      "±": 140,
      "¶": 141,
      "·": 142,
      "»": 143,
      "¿": 144,
      "À": 145,
      "Á": 146,
      "Â": 147,
      "Ã": 148,
      "Ä": 149,
      "Å": 150,
      "Æ": 151,
      "Ç": 152,
      "È": 153,
      "É": 154,
      "Ê": 155,
      "Ë": 156,
      "Ì": 157,
      "Í": 158,
      "Î": 159,
      "Ï": 160,
      "Ð": 161,
      "Ñ": 162,
      "Ò": 163,
      "Ó": 164,
      "Ô": 165,
      "Õ": 166,
      "Ö": 167,
      "×": 168,
      "Ø": 169,
      "Ù": 170,
      "Ú": 171,
      "Û": 172,
      "Ü": 173,
      "Ý": 174,
      "Þ": 175,
      "ß": 176,
      "à": 177,
      "á": 178,
      "â": 179,
      "ã": 180,
      "ä": 181,
      "å": 182,
      "æ": 183,
      "ç": 184,
      "è": 185,
      "é": 186,
      "ê": 187,
      "ë": 188,
      "ì": 189,
      "í": 190,
      "î": 191,
      "ï": 192,
      "ð": 193,
      "ñ": 194,
      "ò": 195,
      "ó": 196,
      "ô": 197,
      "õ": 198,
      "ö": 199,
      "÷": 200,
      "ø": 201,
      "ù": 202,
      "ú": 203,
      "û": 204,
      "ü": 205,
      "ý": 206,
      "þ": 207,
      "ÿ": 208,
      "Ā": 209,
      "ā": 210,
      "Ă": 211,
      "ă": 212,
      "Ą": 213,
      "ą": 214,
      "Ć": 215,
      "ć": 216,
      "ĉ": 217,
      "ċ": 218,
      "Č": 219,
      "č": 220,
      "ď": 221,
      "Đ": 222,
      "đ": 223,
      "Ē": 224,
      "ē": 225,
      "Ĕ": 226,
      "ĕ": 227,
      "Ė": 228,
      "ė": 229,
      "Ę": 230,
      "ę": 231,
      "Ě": 232,
      "ě": 233,
      "ĝ": 234,
      "ğ": 235,
      "Ġ": 236,
      "ġ": 237,
      "Ģ": 238,
      "ģ": 239,
      "ĥ": 240,
      "Ħ": 241,
      "ħ": 242,
      "ĩ": 243,
      "Ī": 244,
      "ī": 245,
      "ĭ": 246,
      "Į": 247,
      "į": 248,
      "İ": 249,
      "ı": 250,
      "Ķ": 251,
      "ķ": 252,
      "ĸ": 253,
      "Ĺ": 254,
      "ĺ": 255,
      "Ļ": 256,
      "ļ": 257,
      "Ľ": 258,
      "ľ": 259,
      "Ł": 260,
      "ł": 261,
      "Ń": 262,
      "ń": 263,
      "Ņ": 264,
      "ņ": 265,
      "ň": 266,
      "Ŋ": 267,
      "ŋ": 268,
      "Ō": 269,
      "ō": 270,
      "ŏ": 271,
      "Ő": 272,
      "ő": 273,
      "Œ": 274,
      "œ": 275,
      "ŕ": 276,
      "ŗ": 277,
      "Ř": 278,
      "ř": 279,
      "Ś": 280,
      "ś": 281,
      "Ŝ": 282,
      "ŝ": 283,
      "Ş": 284,
      "ş": 285,
      "Š": 286,
      "š": 287,
      "Ţ": 288,
      "ţ": 289,
      "ť": 290,
      "ŧ": 291,
      "ũ": 292,
      "Ū": 293,
      "ū": 294,
      "ŭ": 295,
      "Ů": 296,
      "ů": 297,
      "ű": 298,
      "Ų": 299,
      "ų": 300,
      "ŵ": 301,
      "Ŷ": 302,
      "ŷ": 303,
      "Ÿ": 304,
      "Ź": 305,
      "ź": 306,
      "Ż": 307,
      "ż": 308,
      "Ž": 309,
      "ž": 310,
      "Ƅ": 311,
      "ƅ": 312,
      "Ə": 313,
      "Ɛ": 314,
      "ƒ": 315,
      "Ɵ": 316,
      "ơ": 317,
      "Ƭ": 318,
      "ư": 319,
      "ǀ": 320,
      "ǁ": 321,
      "ǎ": 322,
      "ǐ": 323,
      "ǒ": 324,
      "ǔ": 325,
      "ǜ": 326,
      "ǟ": 327,
      "ǡ": 328,
      "ǥ": 329,
      "ǧ": 330,
      "Ǩ": 331,
      "ǫ": 332,
      "Ǭ": 333,
      "ǵ": 334,
      "Ǻ": 335,
      "ǻ": 336,
      "ǽ": 337,
      "ǿ": 338,
      "ȁ": 339,
      "ȕ": 340,
      "Ș": 341,
      "ș": 342,
      "Ț": 343,
      "ț": 344,
      "ȝ": 345,
      "Ȣ": 346,
      "Ȧ": 347,
      "ȧ": 348,
      "ȫ": 349,
      "ȳ": 350,
      "ȼ": 351,
      "ɉ": 352,
      "ɐ": 353,
      "ɑ": 354,
      "ɒ": 355,
      "ɔ": 356,
      "ɕ": 357,
      "ɖ": 358,
      "ɗ": 359,
      "ə": 360,
      "ɚ": 361,
      "ɛ": 362,
      "ɜ": 363,
      "ɞ": 364,
      "ɟ": 365,
      "ɡ": 366,
      "ɣ": 367,
      "ɤ": 368,
      "ɥ": 369,
      "ɦ": 370,
      "ɧ": 371,
      "ɨ": 372,
      "ɪ": 373,
      "ɬ": 374,
      "ɭ": 375,
      "ɯ": 376,
      "ɱ": 377,
      "ɲ": 378,
      "ɳ": 379,
      "ɴ": 380,
      "ɷ": 381,
      "ɸ": 382,
      "ɹ": 383,
      "ɻ": 384,
      "ɽ": 385,
      "ɾ": 386,
      "ʀ": 387,
      "ʁ": 388,
      "ʃ": 389,
      "ʇ": 390,
      "ʉ": 391,
      "ʊ": 392,
      "ʋ": 393,
      "ʌ": 394,
      "ʏ": 395,
      "ʐ": 396,
      "ʒ": 397,
      "ʔ": 398,
      "ʕ": 399,
      "ʖ": 400,
      "ʘ": 401,
      "ʚ": 402,
      "ʟ": 403,
      "ʤ": 404,
      "ʦ": 405,
      "ʹ": 406,
      "ʺ": 407,
      "ʻ": 408,
      "ʼ": 409,
      "ʾ": 410,
      "ʿ": 411,
      "ˀ": 412,
      "ˁ": 413,
      "˂": 414,
      "˃": 415,
      "˄": 416,
      "˅": 417,
      "ˆ": 418,
      "ˇ": 419,
      "ˈ": 420,
      "ˉ": 421,
      "ˊ": 422,
      "ˋ": 423,
      "ˌ": 424,
      "ˎ": 425,
      "ˏ": 426,
      "ː": 427,
      "ˑ": 428,
      "˗": 429,
      "ˮ": 430,
      "̀": 431,
      "́": 432,
      "̂": 433,
      "̃": 434,
      "̄": 435,
      "̅": 436,
      "̆": 437,
      "̇": 438,
      "̈": 439,
      "̊": 440,
      "̋": 441,
      "̓": 442,
      "̝": 443,
      "̥": 444,
      "̦": 445,
      "̧": 446,
      "̨": 447,
      "̪": 448,
      "̯": 449,
      "̱": 450,
      "̲": 451,
      "̴": 452,
      "̵": 453,
      "̶": 454,
      "̷": 455,
      "͈": 456,
      "͜": 457,
      "͡": 458,
      "ͨ": 459,
      "Ά": 460,
      "Έ": 461,
      "Ή": 462,
      "Ό": 463,
      "ΐ": 464,
      "Α": 465,
      "Β": 466,
      "Γ": 467,
      "Δ": 468,
      "Ε": 469,
      "Ζ": 470,
      "Η": 471,
      "Θ": 472,
      "Ι": 473,
      "Κ": 474,
      "Λ": 475,
      "Μ": 476,
      "Ν": 477,
      "Ξ": 478,
      "Ο": 479,
      "Π": 480,
      "Ρ": 481,
      "Σ": 482,
      "Τ": 483,
      "Υ": 484,
      "Φ": 485,
      "Χ": 486,
      "Ψ": 487,
      "Ω": 488,
      "ά": 489,
      "έ": 490,
      "ή": 491,
      "ί": 492,
      "α": 493,
      "β": 494,
      "γ": 495,
      "δ": 496,
      "ε": 497,
      "ζ": 498,
      "η": 499,
      "θ": 500,
      "ι": 501,
      "κ": 502,
      "λ": 503,
      "μ": 504,
      "ν": 505,
      "ξ": 506,
      "ο": 507,
      "π": 508,
      "ρ": 509,
      "ς": 510,
      "σ": 511,
      "τ": 512,
      "υ": 513,
      "φ": 514,
      "χ": 515,
      "ψ": 516,
      "ω": 517,
      "ϊ": 518,
      "ϋ": 519,
      "ό": 520,
      "ύ": 521,
      "ώ": 522,
      "ϟ": 523,
      "Ϡ": 524,
      "ϳ": 525,
      "Ё": 526,
      "Ђ": 527,
      "Ѓ": 528,
      "Є": 529,
      "Ѕ": 530,
      "І": 531,
      "Ї": 532,
      "Ј": 533,
      "Љ": 534,
      "Њ": 535,
      "Ћ": 536,
      "Ќ": 537,
      "Ў": 538,
      "Џ": 539,
      "А": 540,
      "Б": 541,
      "В": 542,
      "Г": 543,
      "Д": 544,
      "Е": 545,
      "Ж": 546,
      "З": 547,
      "И": 548,
      "Й": 549,
      "К": 550,
      "Л": 551,
      "М": 552,
      "Н": 553,
      "О": 554,
      "П": 555,
      "Р": 556,
      "С": 557,
      "Т": 558,
      "У": 559,
      "Ф": 560,
      "Х": 561,
      "Ц": 562,
      "Ч": 563,
      "Ш": 564,
      "Щ": 565,
      "Ъ": 566,
      "Ы": 567,
      "Ь": 568,
      "Э": 569,
      "Ю": 570,
      "Я": 571,
      "а": 572,
      "б": 573,
      "в": 574,
      "г": 575,
      "д": 576,
      "е": 577,
      "ж": 578,
      "з": 579,
      "и": 580,
      "й": 581,
      "к": 582,
      "л": 583,
      "м": 584,
      "н": 585,
      "о": 586,
      "п": 587,
      "р": 588,
      "с": 589,
      "т": 590,
      "у": 591,
      "ф": 592,
      "х": 593,
      "ц": 594,
      "ч": 595,
      "ш": 596,
      "щ": 597,
      "ъ": 598,
      "ы": 599,
      "ь": 600,
      "э": 601,
      "ю": 602,
      "я": 603,
      "ё": 604,
      "ђ": 605,
      "ѓ": 606,
      "є": 607,
      "ѕ": 608,
      "і": 609,
      "ї": 610,
      "ј": 611,
      "љ": 612,
      "њ": 613,
      "ћ": 614,
      "ќ": 615,
      "ў": 616,
      "џ": 617,
      "ѡ": 618,
      "ѣ": 619,
      "ѵ": 620,
      "Ґ": 621,
      "ґ": 622,
      "Ғ": 623,
      "ғ": 624,
      "Қ": 625,
      "қ": 626,
      "ҝ": 627,
      "ҧ": 628,
      "ҫ": 629,
      "ү": 630,
      "ұ": 631,
      "ҷ": 632,
      "Һ": 633,
      "һ": 634,
      "Ӂ": 635,
      "ӑ": 636,
      "ӓ": 637,
      "ӕ": 638,
      "ә": 639,
      "ӡ": 640,
      "ӧ": 641,
      "Ө": 642,
      "ө": 643,
      "ӯ": 644,
      "Ԁ": 645,
      "ԁ": 646,
      "Ա": 647,
      "Բ": 648,
      "Գ": 649,
      "Ե": 650,
      "Լ": 651,
      "Խ": 652,
      "Ծ": 653,
      "Հ": 654,
      "Մ": 655,
      "Շ": 656,
      "Ջ": 657,
      "Ռ": 658,
      "Ս": 659,
      "Վ": 660,
      "Ք": 661,
      "Օ": 662,
      "ա": 663,
      "բ": 664,
      "գ": 665,
      "դ": 666,
      "ե": 667,
      "զ": 668,
      "է": 669,
      "ը": 670,
      "թ": 671,
      "ժ": 672,
      "ի": 673,
      "լ": 674,
      "կ": 675,
      "հ": 676,
      "ղ": 677,
      "մ": 678,
      "յ": 679,
      "ն": 680,
      "շ": 681,
      "ո": 682,
      "չ": 683,
      "պ": 684,
      "ջ": 685,
      "ս": 686,
      "վ": 687,
      "տ": 688,
      "ր": 689,
      "ց": 690,
      "ւ": 691,
      "օ": 692,
      "ֆ": 693,
      "֍": 694,
      "ְ": 695,
      "ֳ": 696,
      "ִ": 697,
      "ֵ": 698,
      "ֶ": 699,
      "ַ": 700,
      "ָ": 701,
      "ֹ": 702,
      "ּ": 703,
      "ֽ": 704,
      "ֿ": 705,
      "ׁ": 706,
      "ׂ": 707,
      "׃": 708,
      "א": 709,
      "ב": 710,
      "ג": 711,
      "ד": 712,
      "ה": 713,
      "ו": 714,
      "ז": 715,
      "ח": 716,
      "ט": 717,
      "י": 718,
      "ך": 719,
      "כ": 720,
      "ל": 721,
      "ם": 722,
      "מ": 723,
      "ן": 724,
      "נ": 725,
      "ס": 726,
      "ע": 727,
      "ף": 728,
      "פ": 729,
      "ץ": 730,
      "צ": 731,
      "ק": 732,
      "ר": 733,
      "ש": 734,
      "ת": 735,
      "ײ": 736,
      "׳": 737,
      "׺": 738,
      "،": 739,
      "؟": 740,
      "ء": 741,
      "آ": 742,
      "أ": 743,
      "ؤ": 744,
      "إ": 745,
      "ئ": 746,
      "ا": 747,
      "ب": 748,
      "ة": 749,
      "ت": 750,
      "ث": 751,
      "ج": 752,
      "ح": 753,
      "خ": 754,
      "د": 755,
      "ذ": 756,
      "ر": 757,
      "ز": 758,
      "س": 759,
      "ش": 760,
      "ص": 761,
      "ض": 762,
      "ط": 763,
      "ظ": 764,
      "ع": 765,
      "غ": 766,
      "ـ": 767,
      "ف": 768,
      "ق": 769,
      "ك": 770,
      "ل": 771,
      "م": 772,
      "ن": 773,
      "ه": 774,
      "و": 775,
      "ى": 776,
      "ي": 777,
      "ً": 778,
      "ٌ": 779,
      "َ": 780,
      "ُ": 781,
      "ِ": 782,
      "ّ": 783,
      "ْ": 784,
      "٠": 785,
      "١": 786,
      "٢": 787,
      "٣": 788,
      "٥": 789,
      "٦": 790,
      "٧": 791,
      "٫": 792,
      "٬": 793,
      "ٹ": 794,
      "پ": 795,
      "چ": 796,
      "ژ": 797,
      "ښ": 798,
      "ڤ": 799,
      "ک": 800,
      "گ": 801,
      "ڵ": 802,
      "ں": 803,
      "ھ": 804,
      "ۀ": 805,
      "ہ": 806,
      "ۆ": 807,
      "ی": 808,
      "ێ": 809,
      "ە": 810,
      "۞": 811,
      "۰": 812,
      "۱": 813,
      "۲": 814,
      "۳": 815,
      "۴": 816,
      "۵": 817,
      "۶": 818,
      "۷": 819,
      "ܐ": 820,
      "ܓ": 821,
      "ܕ": 822,
      "ܗ": 823,
      "ܘ": 824,
      "ܝ": 825,
      "ܟ": 826,
      "ܠ": 827,
      "ܤ": 828,
      "ܥ": 829,
      "ܩ": 830,
      "ܪ": 831,
      "ܬ": 832,
      "ܲ": 833,
      "ܵ": 834,
      "ݎ": 835,
      "ݕ": 836,
      "ߋ": 837,
      "ߛ": 838,
      "ߢ": 839,
      "ߨ": 840,
      "ࡳ": 841,
      "ࢵ": 842,
      "ँ": 843,
      "ं": 844,
      "अ": 845,
      "आ": 846,
      "इ": 847,
      "उ": 848,
      "ए": 849,
      "ऑ": 850,
      "औ": 851,
      "क": 852,
      "ख": 853,
      "ग": 854,
      "घ": 855,
      "च": 856,
      "छ": 857,
      "ज": 858,
      "झ": 859,
      "ञ": 860,
      "ट": 861,
      "ड": 862,
      "ढ": 863,
      "ण": 864,
      "त": 865,
      "थ": 866,
      "द": 867,
      "ध": 868,
      "न": 869,
      "प": 870,
      "फ": 871,
      "ब": 872,
      "भ": 873,
      "म": 874,
      "य": 875,
      "र": 876,
      "ल": 877,
      "व": 878,
      "श": 879,
      "ष": 880,
      "स": 881,
      "ह": 882,
      "़": 883,
      "ा": 884,
      "ि": 885,
      "ी": 886,
      "ु": 887,
      "ू": 888,
      "ृ": 889,
      "ॅ": 890,
      "े": 891,
      "ै": 892,
      "ॉ": 893,
      "ो": 894,
      "्": 895,
      "ॐ": 896,
      "ॢ": 897,
      "ॣ": 898,
      "।": 899,
      "१": 900,
      "२": 901,
      "३": 902,
      "४": 903,
      "५": 904,
      "६": 905,
      "७": 906,
      "८": 907,
      "९": 908,
      "ং": 909,
      "অ": 910,
      "আ": 911,
      "ই": 912,
      "উ": 913,
      "ঊ": 914,
      "ও": 915,
      "ঔ": 916,
      "ক": 917,
      "খ": 918,
      "গ": 919,
      "ঘ": 920,
      "ঙ": 921,
      "ছ": 922,
      "জ": 923,
      "ট": 924,
      "ড": 925,
      "ঢ": 926,
      "ণ": 927,
      "ত": 928,
      "দ": 929,
      "ধ": 930,
      "ন": 931,
      "প": 932,
      "ব": 933,
      "ভ": 934,
      "ম": 935,
      "য": 936,
      "র": 937,
      "ল": 938,
      "শ": 939,
      "ষ": 940,
      "স": 941,
      "হ": 942,
      "়": 943,
      "া": 944,
      "ি": 945,
      "ী": 946,
      "ু": 947,
      "ূ": 948,
      "ে": 949,
      "ো": 950,
      "ৌ": 951,
      "্": 952,
      "১": 953,
      "৫": 954,
      "৳": 955,
      "ਂ": 956,
      "ਅ": 957,
      "ਆ": 958,
      "ਓ": 959,
      "ਕ": 960,
      "ਖ": 961,
      "ਜ": 962,
      "ਟ": 963,
      "ਡ": 964,
      "ਣ": 965,
      "ਤ": 966,
      "ਥ": 967,
      "ਦ": 968,
      "ਨ": 969,
      "ਪ": 970,
      "ਫ": 971,
      "ਮ": 972,
      "ਰ": 973,
      "ਲ": 974,
      "ਵ": 975,
      "ਸ": 976,
      "ਹ": 977,
      "਼": 978,
      "ਾ": 979,
      "ੀ": 980,
      "ੁ": 981,
      "ੂ": 982,
      "ੇ": 983,
      "ੈ": 984,
      "ੋ": 985,
      "ੰ": 986,
      "ં": 987,
      "એ": 988,
      "ગ": 989,
      "જ": 990,
      "ડ": 991,
      "ત": 992,
      "દ": 993,
      "ન": 994,
      "મ": 995,
      "ય": 996,
      "ર": 997,
      "ળ": 998,
      "સ": 999,
      "ા": 1000,
      "ી": 1001,
      "ુ": 1002,
      "ૐ": 1003,
      "ଜ": 1004,
      "ନ": 1005,
      "ମ": 1006,
      "ର": 1007,
      "ା": 1008,
      "ୀ": 1009,
      "୍": 1010,
      "୷": 1011,
      "ஃ": 1012,
      "இ": 1013,
      "எ": 1014,
      "ஐ": 1015,
      "க": 1016,
      "ச": 1017,
      "ட": 1018,
      "த": 1019,
      "ந": 1020,
      "ன": 1021,
      "ப": 1022,
      "ம": 1023,
      "ய": 1024,
      "ர": 1025,
      "ற": 1026,
      "ழ": 1027,
      "வ": 1028,
      "ா": 1029,
      "ி": 1030,
      "ீ": 1031,
      "ு": 1032,
      "ெ": 1033,
      "ை": 1034,
      "ோ": 1035,
      "்": 1036,
      "௧": 1037,
      "௬": 1038,
      "ం": 1039,
      "ఇ": 1040,
      "ఊ": 1041,
      "గ": 1042,
      "చ": 1043,
      "ప": 1044,
      "భ": 1045,
      "మ": 1046,
      "ర": 1047,
      "వ": 1048,
      "ా": 1049,
      "ి": 1050,
      "ు": 1051,
      "్": 1052,
      "ಕ": 1053,
      "ಗ": 1054,
      "ಠ": 1055,
      "ಡ": 1056,
      "ಥ": 1057,
      "ನ": 1058,
      "ಯ": 1059,
      "ರ": 1060,
      "ಳ": 1061,
      "ವ": 1062,
      "ಷ": 1063,
      "ಹ": 1064,
      "ೃ": 1065,
      "ೆ": 1066,
      "್": 1067,
      "ം": 1068,
      "അ": 1069,
      "ഇ": 1070,
      "ഉ": 1071,
      "ക": 1072,
      "ട": 1073,
      "ണ": 1074,
      "ദ": 1075,
      "മ": 1076,
      "യ": 1077,
      "ര": 1078,
      "റ": 1079,
      "ല": 1080,
      "ള": 1081,
      "വ": 1082,
      "ാ": 1083,
      "ി": 1084,
      "ു": 1085,
      "ൊ": 1086,
      "്": 1087,
      "൫": 1088,
      "൯": 1089,
      "ർ": 1090,
      "ൽ": 1091,
      "අ": 1092,
      "ක": 1093,
      "ද": 1094,
      "බ": 1095,
      "ය": 1096,
      "ර": 1097,
      "ව": 1098,
      "ස": 1099,
      "්": 1100,
      "ා": 1101,
      "ැ": 1102,
      "ි": 1103,
      "ේ": 1104,
      "ෞ": 1105,
      "ก": 1106,
      "ข": 1107,
      "ค": 1108,
      "ง": 1109,
      "จ": 1110,
      "ฉ": 1111,
      "ช": 1112,
      "ซ": 1113,
      "ญ": 1114,
      "ฎ": 1115,
      "ฏ": 1116,
      "ฐ": 1117,
      "ฒ": 1118,
      "ณ": 1119,
      "ด": 1120,
      "ต": 1121,
      "ถ": 1122,
      "ท": 1123,
      "ธ": 1124,
      "น": 1125,
      "บ": 1126,
      "ป": 1127,
      "ผ": 1128,
      "ฝ": 1129,
      "พ": 1130,
      "ฟ": 1131,
      "ภ": 1132,
      "ม": 1133,
      "ย": 1134,
      "ร": 1135,
      "ฤ": 1136,
      "ล": 1137,
      "ว": 1138,
      "ศ": 1139,
      "ษ": 1140,
      "ส": 1141,
      "ห": 1142,
      "ฬ": 1143,
      "อ": 1144,
      "ฮ": 1145,
      "ฯ": 1146,
      "ะ": 1147,
      "ั": 1148,
      "า": 1149,
      "ิ": 1150,
      "ี": 1151,
      "ึ": 1152,
      "ื": 1153,
      "ุ": 1154,
      "ู": 1155,
      "฿": 1156,
      "เ": 1157,
      "แ": 1158,
      "โ": 1159,
      "ใ": 1160,
      "ไ": 1161,
      "ๆ": 1162,
      "็": 1163,
      "่": 1164,
      "้": 1165,
      "๊": 1166,
      "๋": 1167,
      "์": 1168,
      "ํ": 1169,
      "๑": 1170,
      "ກ": 1171,
      "ຄ": 1172,
      "ງ": 1173,
      "ຈ": 1174,
      "ດ": 1175,
      "ຕ": 1176,
      "ຖ": 1177,
      "ນ": 1178,
      "ອ": 1179,
      "ັ": 1180,
      "າ": 1181,
      "ື": 1182,
      "ົ": 1183,
      "ໃ": 1184,
      "້": 1185,
      "໊": 1186,
      "་": 1187,
      "།": 1188,
      "༾": 1189,
      "ཁ": 1190,
      "ག": 1191,
      "ང": 1192,
      "ཇ": 1193,
      "ཐ": 1194,
      "ད": 1195,
      "བ": 1196,
      "མ": 1197,
      "འ": 1198,
      "ཡ": 1199,
      "ར": 1200,
      "ལ": 1201,
      "ས": 1202,
      "ཧ": 1203,
      "ི": 1204,
      "ུ": 1205,
      "ེ": 1206,
      "ོ": 1207,
      "ྒ": 1208,
      "ྟ": 1209,
      "ྩ": 1210,
      "ྫ": 1211,
      "ྲ": 1212,
      "က": 1213,
      "ခ": 1214,
      "င": 1215,
      "စ": 1216,
      "ဆ": 1217,
      "တ": 1218,
      "ဒ": 1219,
      "န": 1220,
      "ပ": 1221,
      "ဖ": 1222,
      "ယ": 1223,
      "လ": 1224,
      "သ": 1225,
      "အ": 1226,
      "ာ": 1227,
      "ိ": 1228,
      "ီ": 1229,
      "ု": 1230,
      "ူ": 1231,
      "ေ": 1232,
      "ဲ": 1233,
      "ံ": 1234,
      "့": 1235,
      "း": 1236,
      "္": 1237,
      "်": 1238,
      "ျ": 1239,
      "ြ": 1240,
      "ွ": 1241,
      "၏": 1242,
      "ა": 1243,
      "ბ": 1244,
      "გ": 1245,
      "დ": 1246,
      "ე": 1247,
      "ვ": 1248,
      "თ": 1249,
      "ი": 1250,
      "კ": 1251,
      "ლ": 1252,
      "მ": 1253,
      "ნ": 1254,
      "ო": 1255,
      "პ": 1256,
      "რ": 1257,
      "ს": 1258,
      "ტ": 1259,
      "უ": 1260,
      "ფ": 1261,
      "ქ": 1262,
      "ღ": 1263,
      "შ": 1264,
      "ც": 1265,
      "ძ": 1266,
      "ხ": 1267,
      "ჯ": 1268,
      "ᄀ": 1269,
      "ህ": 1270,
      "ሆ": 1271,
      "ለ": 1272,
      "ሊ": 1273,
      "ላ": 1274,
      "ል": 1275,
      "ሒ": 1276,
      "ሕ": 1277,
      "መ": 1278,
      "ሚ": 1279,
      "ም": 1280,
      "ራ": 1281,
      "ር": 1282,
      "ስ": 1283,
      "ሻ": 1284,
      "ሾ": 1285,
      "ቀ": 1286,
      "ቁ": 1287,
      "ቅ": 1288,
      "ቐ": 1289,
      "በ": 1290,
      "ቢ": 1291,
      "ቤ": 1292,
      "ብ": 1293,
      "ቦ": 1294,
      "ተ": 1295,
      "ቲ": 1296,
      "ታ": 1297,
      "ት": 1298,
      "ቶ": 1299,
      "ቸ": 1300,
      "ቻ": 1301,
      "ች": 1302,
      "ነ": 1303,
      "ና": 1304,
      "ን": 1305,
      "ኛ": 1306,
      "አ": 1307,
      "ኣ": 1308,
      "እ": 1309,
      "ከ": 1310,
      "ክ": 1311,
      "ወ": 1312,
      "ው": 1313,
      "ዎ": 1314,
      "ዒ": 1315,
      "ዝ": 1316,
      "የ": 1317,
      "ያ": 1318,
      "ይ": 1319,
      "ደ": 1320,
      "ዱ": 1321,
      "ዳ": 1322,
      "ድ": 1323,
      "ዶ": 1324,
      "ገ": 1325,
      "ግ": 1326,
      "ጢ": 1327,
      "ጣ": 1328,
      "ጦ": 1329,
      "ጻ": 1330,
      "ጽ": 1331,
      "ፈ": 1332,
      "ፍ": 1333,
      "Ꭰ": 1334,
      "Ꭲ": 1335,
      "Ꭶ": 1336,
      "Ꭹ": 1337,
      "Ꭼ": 1338,
      "Ꮃ": 1339,
      "Ꮩ": 1340,
      "Ꮪ": 1341,
      "Ꮳ": 1342,
      "ᐅ": 1343,
      "ᐈ": 1344,
      "ᐉ": 1345,
      "ᐧ": 1346,
      "ᖇ": 1347,
      "ᗅ": 1348,
      "ᗪ": 1349,
      "ᗷ": 1350,
      "ᗺ": 1351,
      "ᚢ": 1352,
      "ᚦ": 1353,
      "ᚨ": 1354,
      "ᚮ": 1355,
      "ᚱ": 1356,
      "ᚲ": 1357,
      "ᚳ": 1358,
      "ᚷ": 1359,
      "ᚹ": 1360,
      "ᚺ": 1361,
      "ᚽ": 1362,
      "ᚾ": 1363,
      "ᚿ": 1364,
      "ᛁ": 1365,
      "ᛂ": 1366,
      "ᛃ": 1367,
      "ᛅ": 1368,
      "ᛇ": 1369,
      "ᛊ": 1370,
      "ᛋ": 1371,
      "ᛏ": 1372,
      "ᛐ": 1373,
      "ᛑ": 1374,
      "ᛒ": 1375,
      "ᛖ": 1376,
      "ᛗ": 1377,
      "ᛘ": 1378,
      "ᛚ": 1379,
      "ᛞ": 1380,
      "ᛟ": 1381,
      "ᛦ": 1382,
      "᛬": 1383,
      "ក": 1384,
      "ង": 1385,
      "ច": 1386,
      "ជ": 1387,
      "ញ": 1388,
      "ដ": 1389,
      "ឋ": 1390,
      "ណ": 1391,
      "ត": 1392,
      "ទ": 1393,
      "ធ": 1394,
      "ន": 1395,
      "ប": 1396,
      "ព": 1397,
      "ម": 1398,
      "រ": 1399,
      "ល": 1400,
      "ស": 1401,
      "អ": 1402,
      "ា": 1403,
      "ិ": 1404,
      "ី": 1405,
      "ឹ": 1406,
      "ុ": 1407,
      "ែ": 1408,
      "់": 1409,
      "្": 1410,
      "ᥙ": 1411,
      "ᥱ": 1412,
      "ᮃ": 1413,
      "ᮊ": 1414,
      "ᮓ": 1415,
      "ᮔ": 1416,
      "ᮛ": 1417,
      "ᮞ": 1418,
      "ᮥ": 1419,
      "᮪": 1420,
      "ᴇ": 1421,
      "ᴊ": 1422,
      "ᴓ": 1423,
      "ᴖ": 1424,
      "ᴗ": 1425,
      "ᴜ": 1426,
      "ᴠ": 1427,
      "ᵻ": 1428,
      "Ḁ": 1429,
      "ḁ": 1430,
      "Ḇ": 1431,
      "ḇ": 1432,
      "Ḍ": 1433,
      "ḍ": 1434,
      "Ḏ": 1435,
      "ḏ": 1436,
      "ḑ": 1437,
      "ḗ": 1438,
      "ḙ": 1439,
      "Ḥ": 1440,
      "ḥ": 1441,
      "Ḩ": 1442,
      "ḩ": 1443,
      "ḫ": 1444,
      "ḯ": 1445,
      "ḱ": 1446,
      "Ḳ": 1447,
      "ḳ": 1448,
      "ḻ": 1449,
      "Ḿ": 1450,
      "ḿ": 1451,
      "ṁ": 1452,
      "ṃ": 1453,
      "ṅ": 1454,
      "ṇ": 1455,
      "ṓ": 1456,
      "ṛ": 1457,
      "ṟ": 1458,
      "Ṣ": 1459,
      "ṣ": 1460,
      "Ṭ": 1461,
      "ṭ": 1462,
      "ṯ": 1463,
      "ẇ": 1464,
      "ẋ": 1465,
      "ẏ": 1466,
      "ẓ": 1467,
      "Ẕ": 1468,
      "ẕ": 1469,
      "ẖ": 1470,
      "ẗ": 1471,
      "Ạ": 1472,
      "ạ": 1473,
      "ả": 1474,
      "Ấ": 1475,
      "ấ": 1476,
      "ầ": 1477,
      "ẫ": 1478,
      "Ậ": 1479,
      "ậ": 1480,
      "ằ": 1481,
      "ặ": 1482,
      "ẹ": 1483,
      "ẽ": 1484,
      "ế": 1485,
      "ề": 1486,
      "ể": 1487,
      "Ễ": 1488,
      "ễ": 1489,
      "ệ": 1490,
      "ỉ": 1491,
      "ị": 1492,
      "ọ": 1493,
      "Ố": 1494,
      "ố": 1495,
      "ồ": 1496,
      "ổ": 1497,
      "ộ": 1498,
      "ớ": 1499,
      "ờ": 1500,
      "ở": 1501,
      "ợ": 1502,
      "ụ": 1503,
      "ủ": 1504,
      "Ứ": 1505,
      "ứ": 1506,
      "ừ": 1507,
      "ử": 1508,
      "ữ": 1509,
      "ự": 1510,
      "ỳ": 1511,
      "ỵ": 1512,
      "ỷ": 1513,
      "ỹ": 1514,
      "ἀ": 1515,
      "ἄ": 1516,
      "ἅ": 1517,
      "Ἀ": 1518,
      "Ἄ": 1519,
      "ἐ": 1520,
      "ἑ": 1521,
      "ἒ": 1522,
      "ἔ": 1523,
      "ἕ": 1524,
      "Ἐ": 1525,
      "ἡ": 1526,
      "ἧ": 1527,
      "ἰ": 1528,
      "ἱ": 1529,
      "ἴ": 1530,
      "ἷ": 1531,
      "Ἴ": 1532,
      "ὀ": 1533,
      "ὁ": 1534,
      "ὅ": 1535,
      "ὐ": 1536,
      "ὑ": 1537,
      "ὕ": 1538,
      "ὦ": 1539,
      "ὰ": 1540,
      "ὲ": 1541,
      "ὶ": 1542,
      "ὸ": 1543,
      "ὺ": 1544,
      "ὼ": 1545,
      "ᾖ": 1546,
      "ᾱ": 1547,
      "ῆ": 1548,
      "ῖ": 1549,
      "ῦ": 1550,
      "ῳ": 1551,
      "ῶ": 1552,
      "ῷ": 1553,
      "‐": 1554,
      "‒": 1555,
      "–": 1556,
      "—": 1557,
      "―": 1558,
      "‖": 1559,
      "‘": 1560,
      "’": 1561,
      "‚": 1562,
      "‛": 1563,
      "“": 1564,
      "”": 1565,
      "„": 1566,
      "‟": 1567,
      "†": 1568,
      "‡": 1569,
      "•": 1570,
      "‣": 1571,
      "‧": 1572,
      "‪": 1573,
      "‫": 1574,
      "‬": 1575,
      "‭": 1576,
      "‰": 1577,
      "′": 1578,
      "‹": 1579,
      "›": 1580,
      "※": 1581,
      "‽": 1582,
      "‿": 1583,
      "⁃": 1584,
      "⁄": 1585,
      "⁎": 1586,
      "⁏": 1587,
      "⁠": 1588,
      "⁡": 1589,
      "⁢": 1590,
      "⁣": 1591,
      "⁦": 1592,
      "⁩": 1593,
      "₝": 1594,
      "₡": 1595,
      "₤": 1596,
      "₦": 1597,
      "₩": 1598,
      "₪": 1599,
      "₫": 1600,
      "€": 1601,
      "₭": 1602,
      "₱": 1603,
      "₵": 1604,
      "₹": 1605,
      "₽": 1606,
      "⃣": 1607,
      "⃰": 1608,
      "℔": 1609,
      "℗": 1610,
      "℘": 1611,
      "←": 1612,
      "↑": 1613,
      "→": 1614,
      "↓": 1615,
      "↔": 1616,
      "↗": 1617,
      "↙": 1618,
      "↞": 1619,
      "↠": 1620,
      "↣": 1621,
      "↧": 1622,
      "↩": 1623,
      "↪": 1624,
      "↳": 1625,
      "↵": 1626,
      "↷": 1627,
      "⇄": 1628,
      "⇐": 1629,
      "⇑": 1630,
      "⇒": 1631,
      "⇓": 1632,
      "⇔": 1633,
      "⇜": 1634,
      "⇡": 1635,
      "⇢": 1636,
      "⇣": 1637,
      "⇧": 1638,
      "⇨": 1639,
      "⇩": 1640,
      "⇱": 1641,
      "⇲": 1642,
      "∀": 1643,
      "∂": 1644,
      "∃": 1645,
      "∅": 1646,
      "∆": 1647,
      "∇": 1648,
      "∈": 1649,
      "∋": 1650,
      "∎": 1651,
      "∑": 1652,
      "−": 1653,
      "∕": 1654,
      "∗": 1655,
      "∘": 1656,
      "∙": 1657,
      "√": 1658,
      "∝": 1659,
      "∞": 1660,
      "∣": 1661,
      "∥": 1662,
      "∧": 1663,
      "∨": 1664,
      "∩": 1665,
      "∫": 1666,
      "∴": 1667,
      "∵": 1668,
      "∼": 1669,
      "≈": 1670,
      "≠": 1671,
      "≡": 1672,
      "≤": 1673,
      "≥": 1674,
      "≦": 1675,
      "≧": 1676,
      "≫": 1677,
      "⊂": 1678,
      "⊃": 1679,
      "⊆": 1680,
      "⊕": 1681,
      "⊖": 1682,
      "⊙": 1683,
      "⋅": 1684,
      "⋆": 1685,
      "⋮": 1686,
      "⌀": 1687,
      "⌈": 1688,
      "⌋": 1689,
      "⌕": 1690,
      "⌘": 1691,
      "⌚": 1692,
      "⌢": 1693,
      "⌣": 1694,
      "⌧": 1695,
      "⌨": 1696,
      "⎢": 1697,
      "⎪": 1698,
      "⎮": 1699,
      "⎿": 1700,
      "⏋": 1701,
      "⏚": 1702,
      "⏩": 1703,
      "⏰": 1704,
      "⏱": 1705,
      "⏲": 1706,
      "⏳": 1707,
      "⓿": 1708,
      "─": 1709,
      "━": 1710,
      "│": 1711,
      "┃": 1712,
      "└": 1713,
      "├": 1714,
      "┻": 1715,
      "╓": 1716,
      "╔": 1717,
      "╠": 1718,
      "╤": 1719,
      "╯": 1720,
      "╳": 1721,
      "▃": 1722,
      "█": 1723,
      "▌": 1724,
      "■": 1725,
      "□": 1726,
      "▢": 1727,
      "▪": 1728,
      "▫": 1729,
      "▲": 1730,
      "△": 1731,
      "▴": 1732,
      "▶": 1733,
      "▷": 1734,
      "▸": 1735,
      "▹": 1736,
      "►": 1737,
      "▻": 1738,
      "▼": 1739,
      "▽": 1740,
      "▾": 1741,
      "◀": 1742,
      "◁": 1743,
      "◂": 1744,
      "◄": 1745,
      "◅": 1746,
      "◆": 1747,
      "◇": 1748,
      "◈": 1749,
      "◊": 1750,
      "○": 1751,
      "◌": 1752,
      "◎": 1753,
      "●": 1754,
      "◕": 1755,
      "◘": 1756,
      "◠": 1757,
      "◡": 1758,
      "◢": 1759,
      "◣": 1760,
      "◤": 1761,
      "◥": 1762,
      "◦": 1763,
      "◴": 1764,
      "◻": 1765,
      "◼": 1766,
      "◾": 1767,
      "☀": 1768,
      "☁": 1769,
      "☂": 1770,
      "☃": 1771,
      "☄": 1772,
      "★": 1773,
      "☆": 1774,
      "☉": 1775,
      "☎": 1776,
      "☏": 1777,
      "☐": 1778,
      "☑": 1779,
      "☒": 1780,
      "☔": 1781,
      "☕": 1782,
      "☘": 1783,
      "☚": 1784,
      "☛": 1785,
      "☜": 1786,
      "☝": 1787,
      "☞": 1788,
      "☟": 1789,
      "☠": 1790,
      "☢": 1791,
      "☤": 1792,
      "☮": 1793,
      "☯": 1794,
      "☰": 1795,
      "☹": 1796,
      "☺": 1797,
      "☻": 1798,
      "☼": 1799,
      "☽": 1800,
      "☾": 1801,
      "♀": 1802,
      "♂": 1803,
      "♃": 1804,
      "♅": 1805,
      "♉": 1806,
      "♊": 1807,
      "♌": 1808,
      "♎": 1809,
      "♏": 1810,
      "♐": 1811,
      "♔": 1812,
      "♕": 1813,
      "♛": 1814,
      "♟": 1815,
      "♠": 1816,
      "♡": 1817,
      "♢": 1818,
      "♣": 1819,
      "♤": 1820,
      "♥": 1821,
      "♦": 1822,
      "♧": 1823,
      "♩": 1824,
      "♪": 1825,
      "♫": 1826,
      "♬": 1827,
      "♭": 1828,
      "♮": 1829,
      "♯": 1830,
      "♻": 1831,
      "♿": 1832,
      "⚇": 1833,
      "⚒": 1834,
      "⚓": 1835,
      "⚕": 1836,
      "⚖": 1837,
      "⚘": 1838,
      "⚙": 1839,
      "⚛": 1840,
      "⚜": 1841,
      "⚠": 1842,
      "⚡": 1843,
      "⚪": 1844,
      "⚫": 1845,
      "⚬": 1846,
      "⚽": 1847,
      "⛄": 1848,
      "⛅": 1849,
      "⛈": 1850,
      "⛏": 1851,
      "⛓": 1852,
      "⛔": 1853,
      "⛥": 1854,
      "⛪": 1855,
      "⛰": 1856,
      "⛱": 1857,
      "⛳": 1858,
      "⛵": 1859,
      "⛷": 1860,
      "⛸": 1861,
      "⛹": 1862,
      "⛺": 1863,
      "✁": 1864,
      "✂": 1865,
      "✅": 1866,
      "✆": 1867,
      "✈": 1868,
      "✉": 1869,
      "✊": 1870,
      "✋": 1871,
      "✌": 1872,
      "✍": 1873,
      "✎": 1874,
      "✏": 1875,
      "✒": 1876,
      "✓": 1877,
      "✔": 1878,
      "✕": 1879,
      "✖": 1880,
      "✘": 1881,
      "✚": 1882,
      "✝": 1883,
      "✞": 1884,
      "✠": 1885,
      "✤": 1886,
      "✦": 1887,
      "✧": 1888,
      "✨": 1889,
      "✩": 1890,
      "✪": 1891,
      "✫": 1892,
      "✭": 1893,
      "✮": 1894,
      "✯": 1895,
      "✰": 1896,
      "✱": 1897,
      "✲": 1898,
      "✴": 1899,
      "✵": 1900,
      "✶": 1901,
      "✷": 1902,
      "✸": 1903,
      "✹": 1904,
      "✻": 1905,
      "✽": 1906,
      "✿": 1907,
      "❀": 1908,
      "❁": 1909,
      "❂": 1910,
      "❄": 1911,
      "❅": 1912,
      "❆": 1913,
      "❇": 1914,
      "❉": 1915,
      "❊": 1916,
      "❌": 1917,
      "❎": 1918,
      "❑": 1919,
      "❓": 1920,
      "❔": 1921,
      "❕": 1922,
      "❖": 1923,
      "❗": 1924,
      "❘": 1925,
      "❚": 1926,
      "❝": 1927,
      "❞": 1928,
      "❣": 1929,
      "❤": 1930,
      "❥": 1931,
      "❦": 1932,
      "❧": 1933,
      "❭": 1934,
      "❮": 1935,
      "❯": 1936,
      "❱": 1937,
      "❶": 1938,
      "❷": 1939,
      "❾": 1940,
      "❿": 1941,
      "➀": 1942,
      "➉": 1943,
      "➊": 1944,
      "➋": 1945,
      "➌": 1946,
      "➍": 1947,
      "➎": 1948,
      "➏": 1949,
      "➐": 1950,
      "➑": 1951,
      "➔": 1952,
      "➕": 1953,
      "➖": 1954,
      "➗": 1955,
      "➛": 1956,
      "➜": 1957,
      "➝": 1958,
      "➞": 1959,
      "➟": 1960,
      "➡": 1961,
      "➢": 1962,
      "➣": 1963,
      "➤": 1964,
      "➥": 1965,
      "➦": 1966,
      "➧": 1967,
      "➨": 1968,
      "➪": 1969,
      "➰": 1970,
      "➳": 1971,
      "➼": 1972,
      "➽": 1973,
      "⟨": 1974,
      "⟩": 1975,
      "⟮": 1976,
      "⟯": 1977,
      "⟵": 1978,
      "⟶": 1979,
      "⠀": 1980,
      "⠓": 1981,
      "⠔": 1982,
      "⠡": 1983,
      "⠭": 1984,
      "⢢": 1985,
      "⤮": 1986,
      "⤵": 1987,
      "⥬": 1988,
      "⦁": 1989,
      "⦠": 1990,
      "⦡": 1991,
      "⦿": 1992,
      "⧐": 1993,
      "⪢": 1994,
      "⫸": 1995,
      "⬅": 1996,
      "⬆": 1997,
      "⬇": 1998,
      "⬤": 1999,
      "⭐": 2000,
      "⭑": 2001,
      "⭥": 2002,
      "Ⰰ": 2003,
      "ⱱ": 2004,
      "Ⲕ": 2005,
      "ⲟ": 2006,
      "ⲣ": 2007,
      "ⴢ": 2008,
      "ⴰ": 2009,
      "ⴻ": 2010,
      "ⴼ": 2011,
      "ⵄ": 2012,
      "ⵉ": 2013,
      "ⵍ": 2014,
      "ⵏ": 2015,
      "ⵔ": 2016,
      "ⵛ": 2017,
      "ⵢ": 2018,
      "ⵣ": 2019,
      "⸮": 2020,
      "、": 2021,
      "。": 2022,
      "々": 2023,
      "〈": 2024,
      "〉": 2025,
      "《": 2026,
      "》": 2027,
      "「": 2028,
      "」": 2029,
      "『": 2030,
      "』": 2031,
      "【": 2032,
      "】": 2033,
      "〰": 2034,
      "〽": 2035,
      "あ": 2036,
      "ぃ": 2037,
      "い": 2038,
      "う": 2039,
      "え": 2040,
      "お": 2041,
      "か": 2042,
      "が": 2043,
      "き": 2044,
      "ぎ": 2045,
      "く": 2046,
      "ぐ": 2047,
      "け": 2048,
      "げ": 2049,
      "こ": 2050,
      "ご": 2051,
      "さ": 2052,
      "ざ": 2053,
      "し": 2054,
      "じ": 2055,
      "す": 2056,
      "ず": 2057,
      "せ": 2058,
      "ぜ": 2059,
      "そ": 2060,
      "た": 2061,
      "だ": 2062,
      "ち": 2063,
      "っ": 2064,
      "つ": 2065,
      "て": 2066,
      "で": 2067,
      "と": 2068,
      "ど": 2069,
      "な": 2070,
      "に": 2071,
      "ぬ": 2072,
      "ね": 2073,
      "の": 2074,
      "は": 2075,
      "ば": 2076,
      "ぱ": 2077,
      "ひ": 2078,
      "び": 2079,
      "ぴ": 2080,
      "ふ": 2081,
      "ぶ": 2082,
      "ぷ": 2083,
      "へ": 2084,
      "べ": 2085,
      "ぺ": 2086,
      "ぼ": 2087,
      "ぽ": 2088,
      "ま": 2089,
      "み": 2090,
      "む": 2091,
      "め": 2092,
      "も": 2093,
      "ゃ": 2094,
      "や": 2095,
      "ゅ": 2096,
      "ゆ": 2097,
      "ょ": 2098,
      "よ": 2099,
      "ら": 2100,
      "り": 2101,
      "る": 2102,
      "れ": 2103,
      "ろ": 2104,
      "わ": 2105,
      "を": 2106,
      "ん": 2107,
      "゙": 2108,
      "゚": 2109,
      "ァ": 2110,
      "ア": 2111,
      "ィ": 2112,
      "イ": 2113,
      "ゥ": 2114,
      "ウ": 2115,
      "ェ": 2116,
      "エ": 2117,
      "ォ": 2118,
      "オ": 2119,
      "カ": 2120,
      "ガ": 2121,
      "キ": 2122,
      "ギ": 2123,
      "ク": 2124,
      "グ": 2125,
      "ケ": 2126,
      "ゲ": 2127,
      "コ": 2128,
      "ゴ": 2129,
      "サ": 2130,
      "ザ": 2131,
      "シ": 2132,
      "ジ": 2133,
      "ス": 2134,
      "ズ": 2135,
      "セ": 2136,
      "ゼ": 2137,
      "ソ": 2138,
      "ゾ": 2139,
      "タ": 2140,
      "ダ": 2141,
      "チ": 2142,
      "ッ": 2143,
      "ツ": 2144,
      "ヅ": 2145,
      "テ": 2146,
      "デ": 2147,
      "ト": 2148,
      "ド": 2149,
      "ナ": 2150,
      "ニ": 2151,
      "ヌ": 2152,
      "ネ": 2153,
      "ノ": 2154,
      "ハ": 2155,
      "バ": 2156,
      "パ": 2157,
      "ヒ": 2158,
      "ビ": 2159,
      "ピ": 2160,
      "フ": 2161,
      "ブ": 2162,
      "プ": 2163,
      "ヘ": 2164,
      "ベ": 2165,
      "ペ": 2166,
      "ホ": 2167,
      "ボ": 2168,
      "ポ": 2169,
      "マ": 2170,
      "ミ": 2171,
      "ム": 2172,
      "メ": 2173,
      "モ": 2174,
      "ャ": 2175,
      "ヤ": 2176,
      "ュ": 2177,
      "ユ": 2178,
      "ョ": 2179,
      "ヨ": 2180,
      "ラ": 2181,
      "リ": 2182,
      "ル": 2183,
      "レ": 2184,
      "ロ": 2185,
      "ヮ": 2186,
      "ワ": 2187,
      "ン": 2188,
      "ヴ": 2189,
      "・": 2190,
      "ー": 2191,
      "ヽ": 2192,
      "㇄": 2193,
      "㘀": 2194,
      "㜀": 2195,
      "䄀": 2196,
      "䈀": 2197,
      "䌀": 2198,
      "䐀": 2199,
      "䔀": 2200,
      "䘀": 2201,
      "䜀": 2202,
      "䠀": 2203,
      "䠴": 2204,
      "䢢": 2205,
      "䣫": 2206,
      "䤀": 2207,
      "䥴": 2208,
      "䬀": 2209,
      "䬶": 2210,
      "䮠": 2211,
      "䮥": 2212,
      "䮮": 2213,
      "䮳": 2214,
      "䮴": 2215,
      "䰀": 2216,
      "䲠": 2217,
      "䲡": 2218,
      "䲥": 2219,
      "䲧": 2220,
      "䲫": 2221,
      "䲬": 2222,
      "䲴": 2223,
      "䳥": 2224,
      "䳮": 2225,
      "䳳": 2226,
      "䴀": 2227,
      "䴴": 2228,
      "䶥": 2229,
      "一": 2230,
      "丁": 2231,
      "七": 2232,
      "万": 2233,
      "三": 2234,
      "上": 2235,
      "下": 2236,
      "不": 2237,
      "与": 2238,
      "专": 2239,
      "且": 2240,
      "世": 2241,
      "业": 2242,
      "东": 2243,
      "両": 2244,
      "两": 2245,
      "严": 2246,
      "个": 2247,
      "中": 2248,
      "串": 2249,
      "临": 2250,
      "丸": 2251,
      "丹": 2252,
      "为": 2253,
      "主": 2254,
      "丽": 2255,
      "久": 2256,
      "么": 2257,
      "之": 2258,
      "乌": 2259,
      "乎": 2260,
      "乐": 2261,
      "乘": 2262,
      "乙": 2263,
      "九": 2264,
      "也": 2265,
      "习": 2266,
      "乡": 2267,
      "书": 2268,
      "买": 2269,
      "乱": 2270,
      "乳": 2271,
      "亀": 2272,
      "亂": 2273,
      "了": 2274,
      "予": 2275,
      "争": 2276,
      "事": 2277,
      "二": 2278,
      "于": 2279,
      "云": 2280,
      "互": 2281,
      "五": 2282,
      "井": 2283,
      "亚": 2284,
      "些": 2285,
      "亡": 2286,
      "交": 2287,
      "产": 2288,
      "享": 2289,
      "京": 2290,
      "亮": 2291,
      "亲": 2292,
      "人": 2293,
      "什": 2294,
      "仁": 2295,
      "仅": 2296,
      "今": 2297,
      "介": 2298,
      "从": 2299,
      "仕": 2300,
      "他": 2301,
      "付": 2302,
      "仙": 2303,
      "代": 2304,
      "令": 2305,
      "以": 2306,
      "们": 2307,
      "仰": 2308,
      "仲": 2309,
      "件": 2310,
      "价": 2311,
      "任": 2312,
      "伀": 2313,
      "企": 2314,
      "伊": 2315,
      "伏": 2316,
      "休": 2317,
      "优": 2318,
      "会": 2319,
      "伝": 2320,
      "伟": 2321,
      "传": 2322,
      "伦": 2323,
      "似": 2324,
      "但": 2325,
      "位": 2326,
      "低": 2327,
      "住": 2328,
      "佐": 2329,
      "佑": 2330,
      "体": 2331,
      "何": 2332,
      "佛": 2333,
      "作": 2334,
      "你": 2335,
      "佳": 2336,
      "使": 2337,
      "例": 2338,
      "侑": 2339,
      "侘": 2340,
      "供": 2341,
      "依": 2342,
      "価": 2343,
      "便": 2344,
      "係": 2345,
      "促": 2346,
      "保": 2347,
      "俞": 2348,
      "信": 2349,
      "修": 2350,
      "俳": 2351,
      "俺": 2352,
      "倀": 2353,
      "倉": 2354,
      "個": 2355,
      "們": 2356,
      "倒": 2357,
      "候": 2358,
      "借": 2359,
      "値": 2360,
      "倭": 2361,
      "倶": 2362,
      "值": 2363,
      "假": 2364,
      "做": 2365,
      "停": 2366,
      "健": 2367,
      "側": 2368,
      "偶": 2369,
      "偷": 2370,
      "傅": 2371,
      "傑": 2372,
      "傘": 2373,
      "備": 2374,
      "催": 2375,
      "傳": 2376,
      "傷": 2377,
      "僅": 2378,
      "像": 2379,
      "儂": 2380,
      "億": 2381,
      "儚": 2382,
      "優": 2383,
      "儿": 2384,
      "元": 2385,
      "兄": 2386,
      "充": 2387,
      "兆": 2388,
      "先": 2389,
      "光": 2390,
      "克": 2391,
      "免": 2392,
      "児": 2393,
      "兑": 2394,
      "兒": 2395,
      "兔": 2396,
      "党": 2397,
      "入": 2398,
      "全": 2399,
      "八": 2400,
      "公": 2401,
      "六": 2402,
      "兰": 2403,
      "共": 2404,
      "关": 2405,
      "兴": 2406,
      "兵": 2407,
      "其": 2408,
      "具": 2409,
      "典": 2410,
      "内": 2411,
      "円": 2412,
      "册": 2413,
      "再": 2414,
      "冒": 2415,
      "写": 2416,
      "农": 2417,
      "冠": 2418,
      "冰": 2419,
      "决": 2420,
      "况": 2421,
      "冷": 2422,
      "冻": 2423,
      "净": 2424,
      "准": 2425,
      "凍": 2426,
      "凝": 2427,
      "几": 2428,
      "凭": 2429,
      "出": 2430,
      "击": 2431,
      "刀": 2432,
      "分": 2433,
      "切": 2434,
      "刑": 2435,
      "划": 2436,
      "列": 2437,
      "刘": 2438,
      "则": 2439,
      "刚": 2440,
      "初": 2441,
      "判": 2442,
      "別": 2443,
      "利": 2444,
      "别": 2445,
      "到": 2446,
      "制": 2447,
      "刻": 2448,
      "剂": 2449,
      "則": 2450,
      "剋": 2451,
      "前": 2452,
      "剑": 2453,
      "剣": 2454,
      "剧": 2455,
      "副": 2456,
      "割": 2457,
      "創": 2458,
      "劇": 2459,
      "劉": 2460,
      "力": 2461,
      "劝": 2462,
      "办": 2463,
      "功": 2464,
      "加": 2465,
      "务": 2466,
      "动": 2467,
      "助": 2468,
      "労": 2469,
      "効": 2470,
      "势": 2471,
      "勇": 2472,
      "勒": 2473,
      "動": 2474,
      "務": 2475,
      "勢": 2476,
      "勤": 2477,
      "匀": 2478,
      "包": 2479,
      "化": 2480,
      "北": 2481,
      "匪": 2482,
      "匹": 2483,
      "区": 2484,
      "医": 2485,
      "十": 2486,
      "千": 2487,
      "升": 2488,
      "午": 2489,
      "半": 2490,
      "华": 2491,
      "协": 2492,
      "卓": 2493,
      "協": 2494,
      "单": 2495,
      "南": 2496,
      "博": 2497,
      "占": 2498,
      "卡": 2499,
      "卤": 2500,
      "卧": 2501,
      "卫": 2502,
      "印": 2503,
      "危": 2504,
      "厂": 2505,
      "厚": 2506,
      "原": 2507,
      "厢": 2508,
      "厨": 2509,
      "去": 2510,
      "县": 2511,
      "参": 2512,
      "又": 2513,
      "及": 2514,
      "友": 2515,
      "双": 2516,
      "反": 2517,
      "发": 2518,
      "叔": 2519,
      "取": 2520,
      "受": 2521,
      "变": 2522,
      "口": 2523,
      "古": 2524,
      "句": 2525,
      "另": 2526,
      "只": 2527,
      "叫": 2528,
      "叮": 2529,
      "可": 2530,
      "台": 2531,
      "史": 2532,
      "右": 2533,
      "叶": 2534,
      "号": 2535,
      "司": 2536,
      "吀": 2537,
      "吃": 2538,
      "各": 2539,
      "合": 2540,
      "吉": 2541,
      "同": 2542,
      "名": 2543,
      "后": 2544,
      "向": 2545,
      "吕": 2546,
      "君": 2547,
      "吧": 2548,
      "听": 2549,
      "启": 2550,
      "吴": 2551,
      "吵": 2552,
      "吾": 2553,
      "呂": 2554,
      "呈": 2555,
      "告": 2556,
      "员": 2557,
      "呢": 2558,
      "周": 2559,
      "呲": 2560,
      "味": 2561,
      "命": 2562,
      "和": 2563,
      "咖": 2564,
      "咫": 2565,
      "咸": 2566,
      "品": 2567,
      "哈": 2568,
      "哓": 2569,
      "員": 2570,
      "哥": 2571,
      "哦": 2572,
      "唀": 2573,
      "唐": 2574,
      "唯": 2575,
      "商": 2576,
      "啊": 2577,
      "問": 2578,
      "啟": 2579,
      "啡": 2580,
      "啥": 2581,
      "善": 2582,
      "喜": 2583,
      "喝": 2584,
      "喫": 2585,
      "営": 2586,
      "嗎": 2587,
      "嘀": 2588,
      "嘈": 2589,
      "嘉": 2590,
      "器": 2591,
      "囊": 2592,
      "四": 2593,
      "回": 2594,
      "因": 2595,
      "团": 2596,
      "园": 2597,
      "困": 2598,
      "囲": 2599,
      "図": 2600,
      "围": 2601,
      "固": 2602,
      "国": 2603,
      "图": 2604,
      "圆": 2605,
      "國": 2606,
      "圏": 2607,
      "園": 2608,
      "圖": 2609,
      "土": 2610,
      "圣": 2611,
      "在": 2612,
      "地": 2613,
      "圳": 2614,
      "场": 2615,
      "址": 2616,
      "坂": 2617,
      "均": 2618,
      "坐": 2619,
      "坑": 2620,
      "坚": 2621,
      "坛": 2622,
      "坝": 2623,
      "坡": 2624,
      "坪": 2625,
      "型": 2626,
      "埇": 2627,
      "埋": 2628,
      "城": 2629,
      "埕": 2630,
      "域": 2631,
      "基": 2632,
      "埼": 2633,
      "堂": 2634,
      "堡": 2635,
      "堤": 2636,
      "堧": 2637,
      "堪": 2638,
      "報": 2639,
      "場": 2640,
      "塗": 2641,
      "境": 2642,
      "墅": 2643,
      "墊": 2644,
      "墙": 2645,
      "增": 2646,
      "墨": 2647,
      "墩": 2648,
      "壁": 2649,
      "壓": 2650,
      "壟": 2651,
      "士": 2652,
      "声": 2653,
      "売": 2654,
      "处": 2655,
      "备": 2656,
      "変": 2657,
      "夏": 2658,
      "夕": 2659,
      "外": 2660,
      "多": 2661,
      "夜": 2662,
      "夡": 2663,
      "夢": 2664,
      "大": 2665,
      "天": 2666,
      "太": 2667,
      "夫": 2668,
      "失": 2669,
      "头": 2670,
      "夷": 2671,
      "夹": 2672,
      "奇": 2673,
      "奈": 2674,
      "奖": 2675,
      "套": 2676,
      "奥": 2677,
      "奧": 2678,
      "奪": 2679,
      "女": 2680,
      "她": 2681,
      "好": 2682,
      "如": 2683,
      "妈": 2684,
      "妓": 2685,
      "妖": 2686,
      "妹": 2687,
      "妻": 2688,
      "始": 2689,
      "委": 2690,
      "姫": 2691,
      "姬": 2692,
      "娘": 2693,
      "娛": 2694,
      "婆": 2695,
      "婚": 2696,
      "婦": 2697,
      "婼": 2698,
      "媚": 2699,
      "媛": 2700,
      "子": 2701,
      "孔": 2702,
      "孕": 2703,
      "字": 2704,
      "存": 2705,
      "孝": 2706,
      "孟": 2707,
      "学": 2708,
      "孩": 2709,
      "孫": 2710,
      "學": 2711,
      "它": 2712,
      "宅": 2713,
      "宇": 2714,
      "安": 2715,
      "宋": 2716,
      "完": 2717,
      "宗": 2718,
      "官": 2719,
      "定": 2720,
      "宜": 2721,
      "宝": 2722,
      "实": 2723,
      "実": 2724,
      "宠": 2725,
      "审": 2726,
      "客": 2727,
      "宣": 2728,
      "室": 2729,
      "宧": 2730,
      "宫": 2731,
      "宮": 2732,
      "家": 2733,
      "容": 2734,
      "宽": 2735,
      "宾": 2736,
      "宿": 2737,
      "寂": 2738,
      "寄": 2739,
      "密": 2740,
      "富": 2741,
      "寒": 2742,
      "寓": 2743,
      "寛": 2744,
      "察": 2745,
      "實": 2746,
      "寶": 2747,
      "对": 2748,
      "寺": 2749,
      "导": 2750,
      "対": 2751,
      "寿": 2752,
      "専": 2753,
      "将": 2754,
      "將": 2755,
      "尊": 2756,
      "對": 2757,
      "導": 2758,
      "小": 2759,
      "少": 2760,
      "尔": 2761,
      "尖": 2762,
      "尘": 2763,
      "尚": 2764,
      "尤": 2765,
      "就": 2766,
      "尺": 2767,
      "尼": 2768,
      "尽": 2769,
      "尾": 2770,
      "局": 2771,
      "居": 2772,
      "届": 2773,
      "屋": 2774,
      "展": 2775,
      "属": 2776,
      "山": 2777,
      "岗": 2778,
      "岙": 2779,
      "岛": 2780,
      "岢": 2781,
      "岩": 2782,
      "岭": 2783,
      "岳": 2784,
      "岸": 2785,
      "峡": 2786,
      "峰": 2787,
      "島": 2788,
      "崎": 2789,
      "崑": 2790,
      "崙": 2791,
      "嵬": 2792,
      "嶽": 2793,
      "川": 2794,
      "州": 2795,
      "工": 2796,
      "左": 2797,
      "巧": 2798,
      "差": 2799,
      "己": 2800,
      "已": 2801,
      "巴": 2802,
      "市": 2803,
      "布": 2804,
      "师": 2805,
      "希": 2806,
      "帕": 2807,
      "帖": 2808,
      "帝": 2809,
      "带": 2810,
      "師": 2811,
      "帮": 2812,
      "帯": 2813,
      "帰": 2814,
      "常": 2815,
      "帽": 2816,
      "幕": 2817,
      "干": 2818,
      "平": 2819,
      "年": 2820,
      "并": 2821,
      "幸": 2822,
      "幻": 2823,
      "广": 2824,
      "庁": 2825,
      "広": 2826,
      "庄": 2827,
      "庆": 2828,
      "床": 2829,
      "库": 2830,
      "应": 2831,
      "店": 2832,
      "庙": 2833,
      "府": 2834,
      "废": 2835,
      "度": 2836,
      "座": 2837,
      "庭": 2838,
      "庵": 2839,
      "康": 2840,
      "廃": 2841,
      "廉": 2842,
      "廊": 2843,
      "廠": 2844,
      "廣": 2845,
      "廳": 2846,
      "延": 2847,
      "建": 2848,
      "开": 2849,
      "式": 2850,
      "弓": 2851,
      "引": 2852,
      "弟": 2853,
      "张": 2854,
      "張": 2855,
      "強": 2856,
      "强": 2857,
      "彈": 2858,
      "彌": 2859,
      "当": 2860,
      "录": 2861,
      "彡": 2862,
      "形": 2863,
      "彦": 2864,
      "彩": 2865,
      "彬": 2866,
      "影": 2867,
      "役": 2868,
      "往": 2869,
      "征": 2870,
      "待": 2871,
      "很": 2872,
      "律": 2873,
      "後": 2874,
      "徐": 2875,
      "徒": 2876,
      "得": 2877,
      "從": 2878,
      "御": 2879,
      "復": 2880,
      "微": 2881,
      "德": 2882,
      "徹": 2883,
      "徽": 2884,
      "心": 2885,
      "必": 2886,
      "忙": 2887,
      "応": 2888,
      "忠": 2889,
      "快": 2890,
      "念": 2891,
      "怀": 2892,
      "态": 2893,
      "怎": 2894,
      "怕": 2895,
      "思": 2896,
      "急": 2897,
      "性": 2898,
      "怨": 2899,
      "总": 2900,
      "恋": 2901,
      "恒": 2902,
      "恩": 2903,
      "息": 2904,
      "恵": 2905,
      "恶": 2906,
      "您": 2907,
      "悪": 2908,
      "悼": 2909,
      "情": 2910,
      "惑": 2911,
      "惠": 2912,
      "想": 2913,
      "意": 2914,
      "愛": 2915,
      "感": 2916,
      "愧": 2917,
      "愿": 2918,
      "態": 2919,
      "慧": 2920,
      "慮": 2921,
      "慶": 2922,
      "憲": 2923,
      "憶": 2924,
      "懂": 2925,
      "戊": 2926,
      "成": 2927,
      "我": 2928,
      "或": 2929,
      "戚": 2930,
      "戦": 2931,
      "戲": 2932,
      "戶": 2933,
      "户": 2934,
      "戸": 2935,
      "房": 2936,
      "所": 2937,
      "扉": 2938,
      "手": 2939,
      "才": 2940,
      "扎": 2941,
      "打": 2942,
      "托": 2943,
      "扩": 2944,
      "扫": 2945,
      "找": 2946,
      "承": 2947,
      "技": 2948,
      "把": 2949,
      "抑": 2950,
      "投": 2951,
      "折": 2952,
      "抜": 2953,
      "抢": 2954,
      "抣": 2955,
      "报": 2956,
      "抮": 2957,
      "抯": 2958,
      "抵": 2959,
      "拉": 2960,
      "拍": 2961,
      "拓": 2962,
      "招": 2963,
      "拥": 2964,
      "括": 2965,
      "拯": 2966,
      "拿": 2967,
      "持": 2968,
      "挂": 2969,
      "指": 2970,
      "按": 2971,
      "挙": 2972,
      "振": 2973,
      "挺": 2974,
      "捉": 2975,
      "捕": 2976,
      "损": 2977,
      "据": 2978,
      "捷": 2979,
      "排": 2980,
      "掛": 2981,
      "探": 2982,
      "接": 2983,
      "推": 2984,
      "掲": 2985,
      "掳": 2986,
      "描": 2987,
      "提": 2988,
      "揚": 2989,
      "換": 2990,
      "援": 2991,
      "搏": 2992,
      "搜": 2993,
      "携": 2994,
      "摩": 2995,
      "摸": 2996,
      "撒": 2997,
      "撫": 2998,
      "播": 2999,
      "擬": 3000,
      "攕": 3001,
      "攘": 3002,
      "支": 3003,
      "改": 3004,
      "攻": 3005,
      "放": 3006,
      "效": 3007,
      "救": 3008,
      "敖": 3009,
      "教": 3010,
      "敞": 3011,
      "敢": 3012,
      "散": 3013,
      "敦": 3014,
      "敬": 3015,
      "数": 3016,
      "整": 3017,
      "敵": 3018,
      "敷": 3019,
      "文": 3020,
      "斉": 3021,
      "斗": 3022,
      "料": 3023,
      "断": 3024,
      "斯": 3025,
      "新": 3026,
      "方": 3027,
      "施": 3028,
      "旅": 3029,
      "族": 3030,
      "旗": 3031,
      "无": 3032,
      "既": 3033,
      "日": 3034,
      "旦": 3035,
      "旧": 3036,
      "旨": 3037,
      "早": 3038,
      "时": 3039,
      "昂": 3040,
      "昌": 3041,
      "明": 3042,
      "易": 3043,
      "昔": 3044,
      "星": 3045,
      "映": 3046,
      "春": 3047,
      "昨": 3048,
      "昭": 3049,
      "是": 3050,
      "显": 3051,
      "時": 3052,
      "晓": 3053,
      "晚": 3054,
      "晩": 3055,
      "普": 3056,
      "景": 3057,
      "晴": 3058,
      "晶": 3059,
      "暈": 3060,
      "暗": 3061,
      "暢": 3062,
      "暮": 3063,
      "暴": 3064,
      "曉": 3065,
      "曜": 3066,
      "曲": 3067,
      "更": 3068,
      "書": 3069,
      "最": 3070,
      "月": 3071,
      "有": 3072,
      "朋": 3073,
      "服": 3074,
      "朗": 3075,
      "望": 3076,
      "朝": 3077,
      "期": 3078,
      "木": 3079,
      "未": 3080,
      "末": 3081,
      "本": 3082,
      "札": 3083,
      "术": 3084,
      "朱": 3085,
      "机": 3086,
      "杂": 3087,
      "权": 3088,
      "杉": 3089,
      "李": 3090,
      "材": 3091,
      "村": 3092,
      "条": 3093,
      "杢": 3094,
      "来": 3095,
      "杭": 3096,
      "杰": 3097,
      "東": 3098,
      "松": 3099,
      "板": 3100,
      "极": 3101,
      "林": 3102,
      "枚": 3103,
      "果": 3104,
      "枞": 3105,
      "枢": 3106,
      "枣": 3107,
      "查": 3108,
      "柱": 3109,
      "柳": 3110,
      "栄": 3111,
      "栅": 3112,
      "栈": 3113,
      "栋": 3114,
      "树": 3115,
      "栗": 3116,
      "校": 3117,
      "株": 3118,
      "样": 3119,
      "根": 3120,
      "格": 3121,
      "桁": 3122,
      "桂": 3123,
      "桃": 3124,
      "桟": 3125,
      "桥": 3126,
      "梅": 3127,
      "梦": 3128,
      "检": 3129,
      "棉": 3130,
      "棋": 3131,
      "棍": 3132,
      "棒": 3133,
      "棟": 3134,
      "森": 3135,
      "椒": 3136,
      "楞": 3137,
      "業": 3138,
      "楼": 3139,
      "楽": 3140,
      "榉": 3141,
      "榮": 3142,
      "構": 3143,
      "様": 3144,
      "槽": 3145,
      "樂": 3146,
      "標": 3147,
      "模": 3148,
      "樣": 3149,
      "横": 3150,
      "樹": 3151,
      "橋": 3152,
      "機": 3153,
      "欄": 3154,
      "欠": 3155,
      "次": 3156,
      "欢": 3157,
      "欣": 3158,
      "欧": 3159,
      "款": 3160,
      "歌": 3161,
      "歐": 3162,
      "止": 3163,
      "正": 3164,
      "此": 3165,
      "步": 3166,
      "武": 3167,
      "歩": 3168,
      "歴": 3169,
      "歷": 3170,
      "死": 3171,
      "歼": 3172,
      "殆": 3173,
      "残": 3174,
      "段": 3175,
      "殺": 3176,
      "殿": 3177,
      "母": 3178,
      "毎": 3179,
      "每": 3180,
      "比": 3181,
      "毘": 3182,
      "毛": 3183,
      "毯": 3184,
      "民": 3185,
      "氓": 3186,
      "气": 3187,
      "気": 3188,
      "氛": 3189,
      "氣": 3190,
      "氧": 3191,
      "水": 3192,
      "求": 3193,
      "汉": 3194,
      "汝": 3195,
      "江": 3196,
      "池": 3197,
      "決": 3198,
      "汽": 3199,
      "汾": 3200,
      "沒": 3201,
      "沖": 3202,
      "沙": 3203,
      "沟": 3204,
      "没": 3205,
      "沢": 3206,
      "沫": 3207,
      "河": 3208,
      "油": 3209,
      "治": 3210,
      "沼": 3211,
      "泉": 3212,
      "泊": 3213,
      "法": 3214,
      "泡": 3215,
      "波": 3216,
      "注": 3217,
      "泰": 3218,
      "泳": 3219,
      "洁": 3220,
      "洋": 3221,
      "洗": 3222,
      "洛": 3223,
      "洞": 3224,
      "洪": 3225,
      "洲": 3226,
      "活": 3227,
      "派": 3228,
      "流": 3229,
      "浅": 3230,
      "济": 3231,
      "浙": 3232,
      "浜": 3233,
      "浦": 3234,
      "浩": 3235,
      "浪": 3236,
      "浴": 3237,
      "海": 3238,
      "消": 3239,
      "涡": 3240,
      "涪": 3241,
      "液": 3242,
      "淡": 3243,
      "深": 3244,
      "淲": 3245,
      "淳": 3246,
      "混": 3247,
      "淸": 3248,
      "添": 3249,
      "清": 3250,
      "渡": 3251,
      "温": 3252,
      "測": 3253,
      "港": 3254,
      "游": 3255,
      "湖": 3256,
      "湘": 3257,
      "湯": 3258,
      "湾": 3259,
      "満": 3260,
      "源": 3261,
      "準": 3262,
      "溢": 3263,
      "溪": 3264,
      "滕": 3265,
      "滚": 3266,
      "满": 3267,
      "滩": 3268,
      "漂": 3269,
      "演": 3270,
      "漠": 3271,
      "漢": 3272,
      "漣": 3273,
      "漫": 3274,
      "漳": 3275,
      "潜": 3276,
      "潮": 3277,
      "澄": 3278,
      "澳": 3279,
      "激": 3280,
      "濉": 3281,
      "濳": 3282,
      "灌": 3283,
      "灘": 3284,
      "灣": 3285,
      "火": 3286,
      "灯": 3287,
      "灰": 3288,
      "炉": 3289,
      "炊": 3290,
      "炭": 3291,
      "炸": 3292,
      "点": 3293,
      "為": 3294,
      "烈": 3295,
      "烘": 3296,
      "烤": 3297,
      "烧": 3298,
      "烨": 3299,
      "热": 3300,
      "無": 3301,
      "然": 3302,
      "焼": 3303,
      "煌": 3304,
      "煙": 3305,
      "照": 3306,
      "熊": 3307,
      "熟": 3308,
      "熱": 3309,
      "爆": 3310,
      "爱": 3311,
      "爹": 3312,
      "爾": 3313,
      "片": 3314,
      "版": 3315,
      "牌": 3316,
      "牙": 3317,
      "牛": 3318,
      "牡": 3319,
      "牧": 3320,
      "物": 3321,
      "特": 3322,
      "犬": 3323,
      "犯": 3324,
      "状": 3325,
      "狂": 3326,
      "狐": 3327,
      "狗": 3328,
      "独": 3329,
      "猫": 3330,
      "猴": 3331,
      "猿": 3332,
      "獄": 3333,
      "獨": 3334,
      "率": 3335,
      "玉": 3336,
      "王": 3337,
      "玛": 3338,
      "玩": 3339,
      "环": 3340,
      "现": 3341,
      "玲": 3342,
      "珊": 3343,
      "珍": 3344,
      "珞": 3345,
      "珠": 3346,
      "班": 3347,
      "現": 3348,
      "球": 3349,
      "理": 3350,
      "琴": 3351,
      "琵": 3352,
      "琶": 3353,
      "瑞": 3354,
      "環": 3355,
      "瓦": 3356,
      "瓶": 3357,
      "甚": 3358,
      "生": 3359,
      "產": 3360,
      "産": 3361,
      "用": 3362,
      "田": 3363,
      "由": 3364,
      "甲": 3365,
      "电": 3366,
      "男": 3367,
      "町": 3368,
      "画": 3369,
      "畅": 3370,
      "界": 3371,
      "留": 3372,
      "略": 3373,
      "番": 3374,
      "畫": 3375,
      "異": 3376,
      "當": 3377,
      "疯": 3378,
      "病": 3379,
      "痰": 3380,
      "痴": 3381,
      "療": 3382,
      "癒": 3383,
      "発": 3384,
      "登": 3385,
      "白": 3386,
      "百": 3387,
      "的": 3388,
      "皇": 3389,
      "皮": 3390,
      "盖": 3391,
      "盘": 3392,
      "盤": 3393,
      "目": 3394,
      "盲": 3395,
      "直": 3396,
      "相": 3397,
      "省": 3398,
      "看": 3399,
      "県": 3400,
      "真": 3401,
      "眺": 3402,
      "眼": 3403,
      "着": 3404,
      "睛": 3405,
      "睡": 3406,
      "矢": 3407,
      "知": 3408,
      "矩": 3409,
      "短": 3410,
      "码": 3411,
      "砍": 3412,
      "破": 3413,
      "砸": 3414,
      "硬": 3415,
      "确": 3416,
      "碁": 3417,
      "碗": 3418,
      "碟": 3419,
      "碰": 3420,
      "磊": 3421,
      "磯": 3422,
      "示": 3423,
      "礼": 3424,
      "社": 3425,
      "祉": 3426,
      "祖": 3427,
      "祝": 3428,
      "神": 3429,
      "祠": 3430,
      "祥": 3431,
      "票": 3432,
      "禁": 3433,
      "禅": 3434,
      "福": 3435,
      "禮": 3436,
      "禹": 3437,
      "离": 3438,
      "秀": 3439,
      "私": 3440,
      "秋": 3441,
      "种": 3442,
      "科": 3443,
      "秒": 3444,
      "租": 3445,
      "秧": 3446,
      "积": 3447,
      "称": 3448,
      "移": 3449,
      "程": 3450,
      "稱": 3451,
      "稲": 3452,
      "稳": 3453,
      "稼": 3454,
      "稿": 3455,
      "積": 3456,
      "空": 3457,
      "立": 3458,
      "站": 3459,
      "竜": 3460,
      "童": 3461,
      "端": 3462,
      "竹": 3463,
      "笑": 3464,
      "第": 3465,
      "等": 3466,
      "筋": 3467,
      "筑": 3468,
      "筒": 3469,
      "答": 3470,
      "筝": 3471,
      "签": 3472,
      "简": 3473,
      "算": 3474,
      "管": 3475,
      "箭": 3476,
      "箱": 3477,
      "節": 3478,
      "範": 3479,
      "篇": 3480,
      "簡": 3481,
      "簧": 3482,
      "簿": 3483,
      "米": 3484,
      "类": 3485,
      "粉": 3486,
      "粋": 3487,
      "粤": 3488,
      "粵": 3489,
      "粽": 3490,
      "精": 3491,
      "糈": 3492,
      "糕": 3493,
      "糖": 3494,
      "糟": 3495,
      "系": 3496,
      "紀": 3497,
      "約": 3498,
      "紅": 3499,
      "紗": 3500,
      "紙": 3501,
      "級": 3502,
      "素": 3503,
      "索": 3504,
      "紫": 3505,
      "細": 3506,
      "終": 3507,
      "組": 3508,
      "経": 3509,
      "結": 3510,
      "給": 3511,
      "統": 3512,
      "絵": 3513,
      "絶": 3514,
      "經": 3515,
      "続": 3516,
      "綠": 3517,
      "網": 3518,
      "綴": 3519,
      "綺": 3520,
      "綾": 3521,
      "総": 3522,
      "緒": 3523,
      "線": 3524,
      "編": 3525,
      "練": 3526,
      "緻": 3527,
      "縄": 3528,
      "縅": 3529,
      "縜": 3530,
      "總": 3531,
      "繁": 3532,
      "红": 3533,
      "约": 3534,
      "级": 3535,
      "纪": 3536,
      "纱": 3537,
      "纸": 3538,
      "线": 3539,
      "组": 3540,
      "细": 3541,
      "经": 3542,
      "结": 3543,
      "给": 3544,
      "络": 3545,
      "绣": 3546,
      "维": 3547,
      "绿": 3548,
      "网": 3549,
      "罔": 3550,
      "罗": 3551,
      "罪": 3552,
      "置": 3553,
      "羅": 3554,
      "羊": 3555,
      "美": 3556,
      "群": 3557,
      "義": 3558,
      "羲": 3559,
      "翌": 3560,
      "習": 3561,
      "翻": 3562,
      "翼": 3563,
      "老": 3564,
      "者": 3565,
      "而": 3566,
      "耳": 3567,
      "聊": 3568,
      "联": 3569,
      "聖": 3570,
      "聚": 3571,
      "聞": 3572,
      "聽": 3573,
      "肉": 3574,
      "肮": 3575,
      "育": 3576,
      "背": 3577,
      "胎": 3578,
      "胪": 3579,
      "能": 3580,
      "脀": 3581,
      "脂": 3582,
      "脇": 3583,
      "脏": 3584,
      "脑": 3585,
      "脥": 3586,
      "腐": 3587,
      "腕": 3588,
      "腳": 3589,
      "腾": 3590,
      "膠": 3591,
      "臨": 3592,
      "自": 3593,
      "臭": 3594,
      "至": 3595,
      "致": 3596,
      "舍": 3597,
      "舎": 3598,
      "舐": 3599,
      "舒": 3600,
      "舖": 3601,
      "舞": 3602,
      "舤": 3603,
      "舩": 3604,
      "般": 3605,
      "船": 3606,
      "良": 3607,
      "色": 3608,
      "艺": 3609,
      "节": 3610,
      "花": 3611,
      "芸": 3612,
      "苏": 3613,
      "苑": 3614,
      "苗": 3615,
      "若": 3616,
      "英": 3617,
      "范": 3618,
      "茅": 3619,
      "茨": 3620,
      "茫": 3621,
      "茶": 3622,
      "草": 3623,
      "荐": 3624,
      "荡": 3625,
      "荣": 3626,
      "荷": 3627,
      "荻": 3628,
      "莎": 3629,
      "莫": 3630,
      "获": 3631,
      "菅": 3632,
      "菇": 3633,
      "菉": 3634,
      "菊": 3635,
      "菜": 3636,
      "華": 3637,
      "菱": 3638,
      "菲": 3639,
      "萌": 3640,
      "萍": 3641,
      "营": 3642,
      "萬": 3643,
      "落": 3644,
      "葉": 3645,
      "著": 3646,
      "葛": 3647,
      "葜": 3648,
      "葱": 3649,
      "蒙": 3650,
      "蒡": 3651,
      "蒲": 3652,
      "蒸": 3653,
      "蓮": 3654,
      "蔵": 3655,
      "蕎": 3656,
      "薙": 3657,
      "薫": 3658,
      "薬": 3659,
      "藍": 3660,
      "藏": 3661,
      "藤": 3662,
      "藩": 3663,
      "虍": 3664,
      "虎": 3665,
      "處": 3666,
      "虜": 3667,
      "虫": 3668,
      "蚬": 3669,
      "蛋": 3670,
      "蛮": 3671,
      "蜀": 3672,
      "蝓": 3673,
      "螺": 3674,
      "蟹": 3675,
      "血": 3676,
      "衆": 3677,
      "行": 3678,
      "術": 3679,
      "街": 3680,
      "衡": 3681,
      "衣": 3682,
      "表": 3683,
      "衩": 3684,
      "被": 3685,
      "裂": 3686,
      "装": 3687,
      "裏": 3688,
      "裝": 3689,
      "裡": 3690,
      "裤": 3691,
      "裸": 3692,
      "製": 3693,
      "西": 3694,
      "要": 3695,
      "覆": 3696,
      "見": 3697,
      "規": 3698,
      "覚": 3699,
      "覧": 3700,
      "親": 3701,
      "観": 3702,
      "覺": 3703,
      "见": 3704,
      "观": 3705,
      "规": 3706,
      "视": 3707,
      "觉": 3708,
      "角": 3709,
      "解": 3710,
      "触": 3711,
      "言": 3712,
      "訂": 3713,
      "計": 3714,
      "記": 3715,
      "訪": 3716,
      "設": 3717,
      "訳": 3718,
      "詞": 3719,
      "詢": 3720,
      "試": 3721,
      "話": 3722,
      "詹": 3723,
      "認": 3724,
      "語": 3725,
      "誠": 3726,
      "說": 3727,
      "説": 3728,
      "誰": 3729,
      "課": 3730,
      "調": 3731,
      "談": 3732,
      "論": 3733,
      "諸": 3734,
      "謝": 3735,
      "證": 3736,
      "識": 3737,
      "警": 3738,
      "譯": 3739,
      "議": 3740,
      "護": 3741,
      "讀": 3742,
      "變": 3743,
      "讓": 3744,
      "讚": 3745,
      "计": 3746,
      "订": 3747,
      "认": 3748,
      "让": 3749,
      "议": 3750,
      "讯": 3751,
      "记": 3752,
      "许": 3753,
      "论": 3754,
      "设": 3755,
      "证": 3756,
      "评": 3757,
      "识": 3758,
      "词": 3759,
      "译": 3760,
      "试": 3761,
      "话": 3762,
      "诞": 3763,
      "询": 3764,
      "该": 3765,
      "语": 3766,
      "说": 3767,
      "请": 3768,
      "诺": 3769,
      "读": 3770,
      "谁": 3771,
      "调": 3772,
      "谈": 3773,
      "谢": 3774,
      "谭": 3775,
      "谷": 3776,
      "豆": 3777,
      "象": 3778,
      "豪": 3779,
      "豬": 3780,
      "豹": 3781,
      "貌": 3782,
      "貝": 3783,
      "貞": 3784,
      "財": 3785,
      "販": 3786,
      "貴": 3787,
      "貸": 3788,
      "費": 3789,
      "貼": 3790,
      "賂": 3791,
      "資": 3792,
      "賊": 3793,
      "賓": 3794,
      "賞": 3795,
      "賥": 3796,
      "質": 3797,
      "贝": 3798,
      "贡": 3799,
      "财": 3800,
      "责": 3801,
      "败": 3802,
      "质": 3803,
      "购": 3804,
      "贴": 3805,
      "贵": 3806,
      "费": 3807,
      "资": 3808,
      "赓": 3809,
      "赖": 3810,
      "赞": 3811,
      "赤": 3812,
      "走": 3813,
      "起": 3814,
      "超": 3815,
      "越": 3816,
      "趣": 3817,
      "足": 3818,
      "跟": 3819,
      "路": 3820,
      "踏": 3821,
      "蹈": 3822,
      "身": 3823,
      "車": 3824,
      "転": 3825,
      "較": 3826,
      "載": 3827,
      "輔": 3828,
      "輝": 3829,
      "輪": 3830,
      "輯": 3831,
      "轉": 3832,
      "车": 3833,
      "转": 3834,
      "软": 3835,
      "轻": 3836,
      "载": 3837,
      "较": 3838,
      "输": 3839,
      "辰": 3840,
      "農": 3841,
      "边": 3842,
      "达": 3843,
      "迁": 3844,
      "过": 3845,
      "迎": 3846,
      "运": 3847,
      "近": 3848,
      "还": 3849,
      "这": 3850,
      "进": 3851,
      "远": 3852,
      "连": 3853,
      "迟": 3854,
      "迦": 3855,
      "迪": 3856,
      "述": 3857,
      "追": 3858,
      "送": 3859,
      "适": 3860,
      "逃": 3861,
      "选": 3862,
      "透": 3863,
      "途": 3864,
      "這": 3865,
      "通": 3866,
      "逛": 3867,
      "速": 3868,
      "造": 3869,
      "連": 3870,
      "週": 3871,
      "進": 3872,
      "遇": 3873,
      "遊": 3874,
      "運": 3875,
      "過": 3876,
      "道": 3877,
      "達": 3878,
      "違": 3879,
      "遗": 3880,
      "遠": 3881,
      "遣": 3882,
      "適": 3883,
      "選": 3884,
      "遽": 3885,
      "還": 3886,
      "邏": 3887,
      "那": 3888,
      "邦": 3889,
      "邪": 3890,
      "郊": 3891,
      "郎": 3892,
      "郑": 3893,
      "郡": 3894,
      "部": 3895,
      "郭": 3896,
      "郷": 3897,
      "都": 3898,
      "鄂": 3899,
      "鄭": 3900,
      "配": 3901,
      "酒": 3902,
      "酱": 3903,
      "醇": 3904,
      "醫": 3905,
      "里": 3906,
      "重": 3907,
      "野": 3908,
      "量": 3909,
      "金": 3910,
      "釣": 3911,
      "鈥": 3912,
      "鈬": 3913,
      "鈺": 3914,
      "鉄": 3915,
      "鉾": 3916,
      "銀": 3917,
      "銅": 3918,
      "銭": 3919,
      "銷": 3920,
      "鋑": 3921,
      "鋕": 3922,
      "鋖": 3923,
      "鋗": 3924,
      "鋘": 3925,
      "鋜": 3926,
      "鋝": 3927,
      "鋞": 3928,
      "錮": 3929,
      "錯": 3930,
      "錱": 3931,
      "錶": 3932,
      "錸": 3933,
      "錼": 3934,
      "錽": 3935,
      "錿": 3936,
      "鍁": 3937,
      "鍵": 3938,
      "鎮": 3939,
      "鏟": 3940,
      "鏡": 3941,
      "鑕": 3942,
      "钞": 3943,
      "钟": 3944,
      "钢": 3945,
      "铁": 3946,
      "铃": 3947,
      "铭": 3948,
      "铲": 3949,
      "银": 3950,
      "锁": 3951,
      "错": 3952,
      "锦": 3953,
      "键": 3954,
      "镇": 3955,
      "镜": 3956,
      "長": 3957,
      "长": 3958,
      "門": 3959,
      "開": 3960,
      "間": 3961,
      "閙": 3962,
      "閞": 3963,
      "関": 3964,
      "閣": 3965,
      "閱": 3966,
      "闘": 3967,
      "關": 3968,
      "门": 3969,
      "问": 3970,
      "闲": 3971,
      "间": 3972,
      "闹": 3973,
      "闻": 3974,
      "阁": 3975,
      "阅": 3976,
      "阜": 3977,
      "队": 3978,
      "阪": 3979,
      "阮": 3980,
      "防": 3981,
      "阳": 3982,
      "阴": 3983,
      "阶": 3984,
      "阿": 3985,
      "际": 3986,
      "陈": 3987,
      "降": 3988,
      "限": 3989,
      "院": 3990,
      "陣": 3991,
      "除": 3992,
      "险": 3993,
      "陰": 3994,
      "陳": 3995,
      "陵": 3996,
      "陶": 3997,
      "陸": 3998,
      "険": 3999,
      "陽": 4000,
      "隆": 4001,
      "隈": 4002,
      "隍": 4003,
      "階": 4004,
      "随": 4005,
      "隔": 4006,
      "際": 4007,
      "隨": 4008,
      "难": 4009,
      "雀": 4010,
      "雁": 4011,
      "雄": 4012,
      "雅": 4013,
      "集": 4014,
      "雨": 4015,
      "雪": 4016,
      "雯": 4017,
      "雰": 4018,
      "雲": 4019,
      "零": 4020,
      "雷": 4021,
      "電": 4022,
      "需": 4023,
      "霊": 4024,
      "霞": 4025,
      "霧": 4026,
      "露": 4027,
      "青": 4028,
      "静": 4029,
      "非": 4030,
      "靠": 4031,
      "面": 4032,
      "靴": 4033,
      "韓": 4034,
      "韦": 4035,
      "音": 4036,
      "韶": 4037,
      "韻": 4038,
      "頁": 4039,
      "頂": 4040,
      "順": 4041,
      "預": 4042,
      "頑": 4043,
      "領": 4044,
      "頠": 4045,
      "頭": 4046,
      "頵": 4047,
      "頻": 4048,
      "頼": 4049,
      "題": 4050,
      "顔": 4051,
      "願": 4052,
      "顧": 4053,
      "页": 4054,
      "顾": 4055,
      "顿": 4056,
      "预": 4057,
      "颅": 4058,
      "领": 4059,
      "風": 4060,
      "风": 4061,
      "飛": 4062,
      "食": 4063,
      "飯": 4064,
      "飲": 4065,
      "飽": 4066,
      "飾": 4067,
      "養": 4068,
      "餐": 4069,
      "館": 4070,
      "饭": 4071,
      "饮": 4072,
      "饰": 4073,
      "馆": 4074,
      "首": 4075,
      "香": 4076,
      "馨": 4077,
      "馬": 4078,
      "駄": 4079,
      "駅": 4080,
      "駆": 4081,
      "騏": 4082,
      "験": 4083,
      "驎": 4084,
      "驗": 4085,
      "驚": 4086,
      "马": 4087,
      "驹": 4088,
      "驺": 4089,
      "验": 4090,
      "骑": 4091,
      "骓": 4092,
      "骚": 4093,
      "骪": 4094,
      "體": 4095,
      "高": 4096,
      "髪": 4097,
      "鬼": 4098,
      "魂": 4099,
      "魅": 4100,
      "魔": 4101,
      "魚": 4102,
      "魯": 4103,
      "鮨": 4104,
      "鮮": 4105,
      "鰀": 4106,
      "鰉": 4107,
      "鰋": 4108,
      "鰎": 4109,
      "鰏": 4110,
      "鰐": 4111,
      "鰒": 4112,
      "鲁": 4113,
      "鲍": 4114,
      "鳥": 4115,
      "鳳": 4116,
      "鶏": 4117,
      "鷺": 4118,
      "鸟": 4119,
      "鸡": 4120,
      "鸭": 4121,
      "鹅": 4122,
      "鹿": 4123,
      "麋": 4124,
      "麒": 4125,
      "麗": 4126,
      "麟": 4127,
      "麦": 4128,
      "麻": 4129,
      "麼": 4130,
      "麿": 4131,
      "黃": 4132,
      "黄": 4133,
      "黑": 4134,
      "黒": 4135,
      "默": 4136,
      "點": 4137,
      "鼂": 4138,
      "鼻": 4139,
      "齐": 4140,
      "龍": 4141,
      "龐": 4142,
      "龙": 4143,
      "龠": 4144,
      "꒰": 4145,
      "꒱": 4146,
      "꒵": 4147,
      "ꙭ": 4148,
      "ꟷ": 4149,
      "가": 4150,
      "각": 4151,
      "간": 4152,
      "갈": 4153,
      "감": 4154,
      "갓": 4155,
      "갔": 4156,
      "강": 4157,
      "같": 4158,
      "개": 4159,
      "거": 4160,
      "건": 4161,
      "걸": 4162,
      "것": 4163,
      "게": 4164,
      "겠": 4165,
      "겨": 4166,
      "격": 4167,
      "겸": 4168,
      "경": 4169,
      "계": 4170,
      "고": 4171,
      "골": 4172,
      "곳": 4173,
      "공": 4174,
      "과": 4175,
      "곽": 4176,
      "관": 4177,
      "광": 4178,
      "괜": 4179,
      "괴": 4180,
      "교": 4181,
      "구": 4182,
      "국": 4183,
      "군": 4184,
      "굴": 4185,
      "궁": 4186,
      "그": 4187,
      "극": 4188,
      "근": 4189,
      "기": 4190,
      "길": 4191,
      "김": 4192,
      "깊": 4193,
      "까": 4194,
      "깝": 4195,
      "깨": 4196,
      "뀐": 4197,
      "끸": 4198,
      "끼": 4199,
      "나": 4200,
      "남": 4201,
      "내": 4202,
      "냥": 4203,
      "너": 4204,
      "녀": 4205,
      "년": 4206,
      "녕": 4207,
      "노": 4208,
      "눇": 4209,
      "눉": 4210,
      "눱": 4211,
      "뉴": 4212,
      "느": 4213,
      "는": 4214,
      "늘": 4215,
      "늦": 4216,
      "니": 4217,
      "님": 4218,
      "닛": 4219,
      "다": 4220,
      "단": 4221,
      "달": 4222,
      "담": 4223,
      "답": 4224,
      "당": 4225,
      "대": 4226,
      "더": 4227,
      "던": 4228,
      "데": 4229,
      "도": 4230,
      "돈": 4231,
      "동": 4232,
      "돼": 4233,
      "되": 4234,
      "된": 4235,
      "둑": 4236,
      "둔": 4237,
      "드": 4238,
      "든": 4239,
      "들": 4240,
      "듬": 4241,
      "등": 4242,
      "디": 4243,
      "뚱": 4244,
      "라": 4245,
      "란": 4246,
      "람": 4247,
      "랑": 4248,
      "래": 4249,
      "램": 4250,
      "러": 4251,
      "렀": 4252,
      "레": 4253,
      "려": 4254,
      "력": 4255,
      "련": 4256,
      "렵": 4257,
      "렸": 4258,
      "령": 4259,
      "로": 4260,
      "론": 4261,
      "료": 4262,
      "륭": 4263,
      "르": 4264,
      "른": 4265,
      "를": 4266,
      "름": 4267,
      "리": 4268,
      "릭": 4269,
      "린": 4270,
      "림": 4271,
      "립": 4272,
      "마": 4273,
      "막": 4274,
      "만": 4275,
      "말": 4276,
      "맘": 4277,
      "매": 4278,
      "맨": 4279,
      "머": 4280,
      "먹": 4281,
      "먼": 4282,
      "멋": 4283,
      "멤": 4284,
      "멧": 4285,
      "면": 4286,
      "명": 4287,
      "몇": 4288,
      "모": 4289,
      "목": 4290,
      "못": 4291,
      "무": 4292,
      "묵": 4293,
      "문": 4294,
      "물": 4295,
      "뭔": 4296,
      "미": 4297,
      "민": 4298,
      "및": 4299,
      "바": 4300,
      "박": 4301,
      "반": 4302,
      "방": 4303,
      "배": 4304,
      "백": 4305,
      "버": 4306,
      "번": 4307,
      "베": 4308,
      "벨": 4309,
      "벳": 4310,
      "벽": 4311,
      "변": 4312,
      "별": 4313,
      "병": 4314,
      "보": 4315,
      "복": 4316,
      "본": 4317,
      "부": 4318,
      "북": 4319,
      "불": 4320,
      "브": 4321,
      "블": 4322,
      "비": 4323,
      "뿐": 4324,
      "사": 4325,
      "삭": 4326,
      "산": 4327,
      "살": 4328,
      "삼": 4329,
      "상": 4330,
      "색": 4331,
      "생": 4332,
      "서": 4333,
      "석": 4334,
      "선": 4335,
      "설": 4336,
      "성": 4337,
      "세": 4338,
      "섹": 4339,
      "셸": 4340,
      "소": 4341,
      "속": 4342,
      "손": 4343,
      "솔": 4344,
      "송": 4345,
      "쇼": 4346,
      "수": 4347,
      "숙": 4348,
      "순": 4349,
      "슈": 4350,
      "슐": 4351,
      "스": 4352,
      "슬": 4353,
      "습": 4354,
      "승": 4355,
      "시": 4356,
      "식": 4357,
      "신": 4358,
      "실": 4359,
      "심": 4360,
      "십": 4361,
      "싸": 4362,
      "쐀": 4363,
      "쓸": 4364,
      "씀": 4365,
      "씨": 4366,
      "아": 4367,
      "악": 4368,
      "안": 4369,
      "압": 4370,
      "애": 4371,
      "액": 4372,
      "앤": 4373,
      "약": 4374,
      "양": 4375,
      "어": 4376,
      "언": 4377,
      "엄": 4378,
      "업": 4379,
      "없": 4380,
      "었": 4381,
      "에": 4382,
      "엑": 4383,
      "엔": 4384,
      "엠": 4385,
      "여": 4386,
      "역": 4387,
      "연": 4388,
      "엽": 4389,
      "영": 4390,
      "예": 4391,
      "오": 4392,
      "옥": 4393,
      "온": 4394,
      "올": 4395,
      "옮": 4396,
      "와": 4397,
      "완": 4398,
      "왔": 4399,
      "외": 4400,
      "요": 4401,
      "욕": 4402,
      "용": 4403,
      "우": 4404,
      "운": 4405,
      "울": 4406,
      "워": 4407,
      "원": 4408,
      "월": 4409,
      "웹": 4410,
      "위": 4411,
      "윗": 4412,
      "유": 4413,
      "윤": 4414,
      "으": 4415,
      "은": 4416,
      "을": 4417,
      "음": 4418,
      "읍": 4419,
      "의": 4420,
      "이": 4421,
      "인": 4422,
      "일": 4423,
      "임": 4424,
      "입": 4425,
      "있": 4426,
      "자": 4427,
      "잘": 4428,
      "잡": 4429,
      "장": 4430,
      "재": 4431,
      "저": 4432,
      "적": 4433,
      "전": 4434,
      "절": 4435,
      "정": 4436,
      "제": 4437,
      "졌": 4438,
      "조": 4439,
      "족": 4440,
      "종": 4441,
      "좋": 4442,
      "주": 4443,
      "죽": 4444,
      "중": 4445,
      "지": 4446,
      "진": 4447,
      "질": 4448,
      "집": 4449,
      "찜": 4450,
      "차": 4451,
      "착": 4452,
      "찬": 4453,
      "찮": 4454,
      "창": 4455,
      "찾": 4456,
      "채": 4457,
      "책": 4458,
      "천": 4459,
      "철": 4460,
      "청": 4461,
      "초": 4462,
      "촌": 4463,
      "총": 4464,
      "최": 4465,
      "추": 4466,
      "출": 4467,
      "충": 4468,
      "치": 4469,
      "친": 4470,
      "카": 4471,
      "칸": 4472,
      "켓": 4473,
      "쾌": 4474,
      "쿠": 4475,
      "크": 4476,
      "킬": 4477,
      "타": 4478,
      "탄": 4479,
      "탈": 4480,
      "태": 4481,
      "터": 4482,
      "텀": 4483,
      "테": 4484,
      "텔": 4485,
      "토": 4486,
      "통": 4487,
      "트": 4488,
      "티": 4489,
      "파": 4490,
      "판": 4491,
      "패": 4492,
      "퍼": 4493,
      "펴": 4494,
      "편": 4495,
      "포": 4496,
      "표": 4497,
      "프": 4498,
      "피": 4499,
      "픽": 4500,
      "핀": 4501,
      "필": 4502,
      "핍": 4503,
      "핑": 4504,
      "하": 4505,
      "학": 4506,
      "한": 4507,
      "할": 4508,
      "합": 4509,
      "항": 4510,
      "해": 4511,
      "핵": 4512,
      "했": 4513,
      "행": 4514,
      "허": 4515,
      "험": 4516,
      "헛": 4517,
      "혀": 4518,
      "현": 4519,
      "협": 4520,
      "형": 4521,
      "혜": 4522,
      "호": 4523,
      "홀": 4524,
      "홍": 4525,
      "화": 4526,
      "확": 4527,
      "환": 4528,
      "회": 4529,
      "획": 4530,
      "효": 4531,
      "훈": 4532,
      "훌": 4533,
      "휘": 4534,
      "휴": 4535,
      "흐": 4536,
      "흑": 4537,
      "흥": 4538,
      "희": 4539,
      "히": 4540,
      "힘": 4541,
      "": 4542,
      "": 4543,
      "": 4544,
      "": 4545,
      "": 4546,
      "": 4547,
      "": 4548,
      "": 4549,
      "": 4550,
      "": 4551,
      "": 4552,
      "": 4553,
      "": 4554,
      "": 4555,
      "": 4556,
      "": 4557,
      "": 4558,
      "": 4559,
      "": 4560,
      "": 4561,
      "": 4562,
      "": 4563,
      "": 4564,
      "": 4565,
      "": 4566,
      "": 4567,
      "": 4568,
      "": 4569,
      "": 4570,
      "": 4571,
      "": 4572,
      "": 4573,
      "": 4574,
      "": 4575,
      "": 4576,
      "": 4577,
      "": 4578,
      "": 4579,
      "": 4580,
      "": 4581,
      "": 4582,
      "": 4583,
      "": 4584,
      "": 4585,
      "": 4586,
      "": 4587,
      "": 4588,
      "": 4589,
      "": 4590,
      "": 4591,
      "": 4592,
      "": 4593,
      "": 4594,
      "": 4595,
      "": 4596,
      "": 4597,
      "": 4598,
      "": 4599,
      "": 4600,
      "": 4601,
      "": 4602,
      "": 4603,
      "": 4604,
      "": 4605,
      "": 4606,
      "": 4607,
      "": 4608,
      "": 4609,
      "": 4610,
      "": 4611,
      "": 4612,
      "": 4613,
      "": 4614,
      "": 4615,
      "": 4616,
      "": 4617,
      "": 4618,
      "": 4619,
      "": 4620,
      "": 4621,
      "": 4622,
      "": 4623,
      "": 4624,
      "": 4625,
      "": 4626,
      "": 4627,
      "": 4628,
      "": 4629,
      "": 4630,
      "": 4631,
      "": 4632,
      "": 4633,
      "": 4634,
      "": 4635,
      "": 4636,
      "": 4637,
      "": 4638,
      "": 4639,
      "": 4640,
      "": 4641,
      "": 4642,
      "": 4643,
      "": 4644,
      "": 4645,
      "": 4646,
      "": 4647,
      "": 4648,
      "": 4649,
      "": 4650,
      "": 4651,
      "": 4652,
      "": 4653,
      "": 4654,
      "": 4655,
      "": 4656,
      "": 4657,
      "": 4658,
      "": 4659,
      "": 4660,
      "": 4661,
      "": 4662,
      "": 4663,
      "": 4664,
      "": 4665,
      "": 4666,
      "": 4667,
      "": 4668,
      "": 4669,
      "": 4670,
      "": 4671,
      "": 4672,
      "": 4673,
      "": 4674,
      "": 4675,
      "": 4676,
      "": 4677,
      "": 4678,
      "": 4679,
      "": 4680,
      "": 4681,
      "": 4682,
      "": 4683,
      "": 4684,
      "": 4685,
      "": 4686,
      "": 4687,
      "": 4688,
      "": 4689,
      "": 4690,
      "": 4691,
      "": 4692,
      "": 4693,
      "": 4694,
      "": 4695,
      "": 4696,
      "": 4697,
      "": 4698,
      "": 4699,
      "": 4700,
      "": 4701,
      "": 4702,
      "": 4703,
      "": 4704,
      "": 4705,
      "": 4706,
      "": 4707,
      "": 4708,
      "": 4709,
      "": 4710,
      "": 4711,
      "": 4712,
      "": 4713,
      "": 4714,
      "": 4715,
      "": 4716,
      "": 4717,
      "": 4718,
      "": 4719,
      "": 4720,
      "": 4721,
      "": 4722,
      "": 4723,
      "": 4724,
      "": 4725,
      "": 4726,
      "": 4727,
      "": 4728,
      "": 4729,
      "": 4730,
      "": 4731,
      "": 4732,
      "": 4733,
      "": 4734,
      "": 4735,
      "": 4736,
      "": 4737,
      "": 4738,
      "": 4739,
      "": 4740,
      "": 4741,
      "": 4742,
      "": 4743,
      "": 4744,
      "": 4745,
      "": 4746,
      "": 4747,
      "": 4748,
      "": 4749,
      "": 4750,
      "": 4751,
      "": 4752,
      "": 4753,
      "": 4754,
      "": 4755,
      "": 4756,
      "": 4757,
      "": 4758,
      "": 4759,
      "": 4760,
      "": 4761,
      "": 4762,
      "": 4763,
      "": 4764,
      "": 4765,
      "": 4766,
      "": 4767,
      "": 4768,
      "": 4769,
      "": 4770,
      "": 4771,
      "": 4772,
      "": 4773,
      "": 4774,
      "": 4775,
      "": 4776,
      "": 4777,
      "": 4778,
      "": 4779,
      "": 4780,
      "": 4781,
      "": 4782,
      "": 4783,
      "": 4784,
      "": 4785,
      "": 4786,
      "": 4787,
      "": 4788,
      "": 4789,
      "": 4790,
      "": 4791,
      "": 4792,
      "": 4793,
      "": 4794,
      "": 4795,
      "": 4796,
      "": 4797,
      "": 4798,
      "": 4799,
      "": 4800,
      "": 4801,
      "": 4802,
      "": 4803,
      "": 4804,
      "": 4805,
      "": 4806,
      "": 4807,
      "": 4808,
      "": 4809,
      "": 4810,
      "": 4811,
      "": 4812,
      "": 4813,
      "": 4814,
      "": 4815,
      "": 4816,
      "": 4817,
      "": 4818,
      "": 4819,
      "": 4820,
      "": 4821,
      "": 4822,
      "": 4823,
      "": 4824,
      "": 4825,
      "": 4826,
      "": 4827,
      "": 4828,
      "": 4829,
      "": 4830,
      "": 4831,
      "": 4832,
      "": 4833,
      "": 4834,
      "": 4835,
      "": 4836,
      "": 4837,
      "": 4838,
      "": 4839,
      "": 4840,
      "": 4841,
      "": 4842,
      "": 4843,
      "": 4844,
      "": 4845,
      "": 4846,
      "": 4847,
      "": 4848,
      "": 4849,
      "": 4850,
      "": 4851,
      "": 4852,
      "": 4853,
      "": 4854,
      "": 4855,
      "": 4856,
      "": 4857,
      "": 4858,
      "": 4859,
      "": 4860,
      "": 4861,
      "": 4862,
      "": 4863,
      "": 4864,
      "": 4865,
      "": 4866,
      "": 4867,
      "": 4868,
      "": 4869,
      "": 4870,
      "": 4871,
      "": 4872,
      "": 4873,
      "": 4874,
      "": 4875,
      "": 4876,
      "": 4877,
      "": 4878,
      "": 4879,
      "": 4880,
      "": 4881,
      "": 4882,
      "": 4883,
      "": 4884,
      "": 4885,
      "": 4886,
      "": 4887,
      "": 4888,
      "": 4889,
      "": 4890,
      "": 4891,
      "": 4892,
      "": 4893,
      "": 4894,
      "": 4895,
      "": 4896,
      "": 4897,
      "": 4898,
      "": 4899,
      "": 4900,
      "": 4901,
      "": 4902,
      "": 4903,
      "": 4904,
      "": 4905,
      "": 4906,
      "": 4907,
      "": 4908,
      "": 4909,
      "": 4910,
      "": 4911,
      "": 4912,
      "": 4913,
      "": 4914,
      "": 4915,
      "": 4916,
      "": 4917,
      "": 4918,
      "": 4919,
      "": 4920,
      "": 4921,
      "": 4922,
      "": 4923,
      "": 4924,
      "": 4925,
      "": 4926,
      "": 4927,
      "": 4928,
      "": 4929,
      "": 4930,
      "": 4931,
      "": 4932,
      "": 4933,
      "": 4934,
      "": 4935,
      "": 4936,
      "": 4937,
      "": 4938,
      "": 4939,
      "": 4940,
      "": 4941,
      "": 4942,
      "": 4943,
      "": 4944,
      "": 4945,
      "": 4946,
      "": 4947,
      "": 4948,
      "": 4949,
      "": 4950,
      "": 4951,
      "": 4952,
      "": 4953,
      "": 4954,
      "": 4955,
      "": 4956,
      "": 4957,
      "": 4958,
      "": 4959,
      "": 4960,
      "": 4961,
      "": 4962,
      "": 4963,
      "": 4964,
      "": 4965,
      "": 4966,
      "": 4967,
      "": 4968,
      "": 4969,
      "": 4970,
      "": 4971,
      "": 4972,
      "": 4973,
      "": 4974,
      "": 4975,
      "": 4976,
      "": 4977,
      "": 4978,
      "": 4979,
      "": 4980,
      "": 4981,
      "": 4982,
      "": 4983,
      "": 4984,
      "": 4985,
      "": 4986,
      "": 4987,
      "": 4988,
      "": 4989,
      "": 4990,
      "": 4991,
      "": 4992,
      "": 4993,
      "": 4994,
      "": 4995,
      "": 4996,
      "": 4997,
      "": 4998,
      "": 4999,
      "": 5000,
      "": 5001,
      "": 5002,
      "": 5003,
      "": 5004,
      "": 5005,
      "": 5006,
      "": 5007,
      "": 5008,
      "": 5009,
      "": 5010,
      "": 5011,
      "": 5012,
      "": 5013,
      "": 5014,
      "": 5015,
      "": 5016,
      "": 5017,
      "": 5018,
      "": 5019,
      "": 5020,
      "": 5021,
      "": 5022,
      "": 5023,
      "": 5024,
      "": 5025,
      "": 5026,
      "": 5027,
      "﷓": 5028,
      "︎": 5029,
      "️": 5030,
      "￼": 5031,
      "🃏": 5032,
      "🅿": 5033,
      "🇦": 5034,
      "🇧": 5035,
      "🇩": 5036,
      "🇪": 5037,
      "🇫": 5038,
      "🇬": 5039,
      "🇭": 5040,
      "🇮": 5041,
      "🇯": 5042,
      "🇰": 5043,
      "🇲": 5044,
      "🇳": 5045,
      "🇴": 5046,
      "🇷": 5047,
      "🇸": 5048,
      "🇹": 5049,
      "🇺": 5050,
      "🇾": 5051,
      "🇿": 5052,
      "🌅": 5053,
      "🌇": 5054,
      "🌈": 5055,
      "🌉": 5056,
      "🌊": 5057,
      "🌋": 5058,
      "🌍": 5059,
      "🌎": 5060,
      "🌏": 5061,
      "🌐": 5062,
      "🌒": 5063,
      "🌕": 5064,
      "🌗": 5065,
      "🌘": 5066,
      "🌙": 5067,
      "🌚": 5068,
      "🌛": 5069,
      "🌜": 5070,
      "🌝": 5071,
      "🌞": 5072,
      "🌟": 5073,
      "🌠": 5074,
      "🌤": 5075,
      "🌥": 5076,
      "🌦": 5077,
      "🌧": 5078,
      "🌨": 5079,
      "🌩": 5080,
      "🌪": 5081,
      "🌫": 5082,
      "🌬": 5083,
      "🌭": 5084,
      "🌮": 5085,
      "🌯": 5086,
      "🌰": 5087,
      "🌱": 5088,
      "🌲": 5089,
      "🌳": 5090,
      "🌴": 5091,
      "🌶": 5092,
      "🌷": 5093,
      "🌸": 5094,
      "🌹": 5095,
      "🌺": 5096,
      "🌻": 5097,
      "🌼": 5098,
      "🌽": 5099,
      "🌾": 5100,
      "🌿": 5101,
      "🍀": 5102,
      "🍁": 5103,
      "🍂": 5104,
      "🍃": 5105,
      "🍄": 5106,
      "🍅": 5107,
      "🍆": 5108,
      "🍇": 5109,
      "🍈": 5110,
      "🍉": 5111,
      "🍊": 5112,
      "🍋": 5113,
      "🍌": 5114,
      "🍎": 5115,
      "🍏": 5116,
      "🍐": 5117,
      "🍑": 5118,
      "🍒": 5119,
      "🍓": 5120,
      "🍔": 5121,
      "🍕": 5122,
      "🍖": 5123,
      "🍗": 5124,
      "🍘": 5125,
      "🍚": 5126,
      "🍛": 5127,
      "🍜": 5128,
      "🍝": 5129,
      "🍞": 5130,
      "🍟": 5131,
      "🍡": 5132,
      "🍣": 5133,
      "🍤": 5134,
      "🍦": 5135,
      "🍧": 5136,
      "🍨": 5137,
      "🍩": 5138,
      "🍪": 5139,
      "🍫": 5140,
      "🍬": 5141,
      "🍭": 5142,
      "🍰": 5143,
      "🍱": 5144,
      "🍲": 5145,
      "🍳": 5146,
      "🍴": 5147,
      "🍵": 5148,
      "🍷": 5149,
      "🍸": 5150,
      "🍹": 5151,
      "🍺": 5152,
      "🍻": 5153,
      "🍼": 5154,
      "🍽": 5155,
      "🍾": 5156,
      "🍿": 5157,
      "🎀": 5158,
      "🎁": 5159,
      "🎂": 5160,
      "🎃": 5161,
      "🎄": 5162,
      "🎅": 5163,
      "🎆": 5164,
      "🎇": 5165,
      "🎈": 5166,
      "🎉": 5167,
      "🎊": 5168,
      "🎍": 5169,
      "🎎": 5170,
      "🎐": 5171,
      "🎒": 5172,
      "🎓": 5173,
      "🎖": 5174,
      "🎗": 5175,
      "🎙": 5176,
      "🎚": 5177,
      "🎛": 5178,
      "🎞": 5179,
      "🎟": 5180,
      "🎠": 5181,
      "🎡": 5182,
      "🎢": 5183,
      "🎣": 5184,
      "🎤": 5185,
      "🎥": 5186,
      "🎦": 5187,
      "🎧": 5188,
      "🎨": 5189,
      "🎩": 5190,
      "🎪": 5191,
      "🎬": 5192,
      "🎭": 5193,
      "🎮": 5194,
      "🎯": 5195,
      "🎰": 5196,
      "🎱": 5197,
      "🎲": 5198,
      "🎳": 5199,
      "🎵": 5200,
      "🎶": 5201,
      "🎷": 5202,
      "🎸": 5203,
      "🎹": 5204,
      "🎺": 5205,
      "🎻": 5206,
      "🎼": 5207,
      "🎾": 5208,
      "🎿": 5209,
      "🏀": 5210,
      "🏁": 5211,
      "🏂": 5212,
      "🏃": 5213,
      "🏄": 5214,
      "🏅": 5215,
      "🏆": 5216,
      "🏇": 5217,
      "🏉": 5218,
      "🏊": 5219,
      "🏋": 5220,
      "🏌": 5221,
      "🏍": 5222,
      "🏎": 5223,
      "🏑": 5224,
      "🏒": 5225,
      "🏓": 5226,
      "🏔": 5227,
      "🏕": 5228,
      "🏖": 5229,
      "🏗": 5230,
      "🏙": 5231,
      "🏝": 5232,
      "🏞": 5233,
      "🏠": 5234,
      "🏡": 5235,
      "🏢": 5236,
      "🏥": 5237,
      "🏫": 5238,
      "🏭": 5239,
      "🏰": 5240,
      "🏳": 5241,
      "🏴": 5242,
      "🏵": 5243,
      "🏹": 5244,
      "🏻": 5245,
      "🏼": 5246,
      "🏽": 5247,
      "🏾": 5248,
      "🏿": 5249,
      "🐀": 5250,
      "🐂": 5251,
      "🐃": 5252,
      "🐄": 5253,
      "🐅": 5254,
      "🐆": 5255,
      "🐈": 5256,
      "🐊": 5257,
      "🐍": 5258,
      "🐎": 5259,
      "🐏": 5260,
      "🐐": 5261,
      "🐑": 5262,
      "🐒": 5263,
      "🐓": 5264,
      "🐔": 5265,
      "🐕": 5266,
      "🐖": 5267,
      "🐘": 5268,
      "🐚": 5269,
      "🐜": 5270,
      "🐝": 5271,
      "🐞": 5272,
      "🐟": 5273,
      "🐠": 5274,
      "🐢": 5275,
      "🐣": 5276,
      "🐤": 5277,
      "🐥": 5278,
      "🐦": 5279,
      "🐧": 5280,
      "🐨": 5281,
      "🐩": 5282,
      "🐬": 5283,
      "🐭": 5284,
      "🐮": 5285,
      "🐯": 5286,
      "🐰": 5287,
      "🐱": 5288,
      "🐲": 5289,
      "🐳": 5290,
      "🐴": 5291,
      "🐶": 5292,
      "🐷": 5293,
      "🐸": 5294,
      "🐺": 5295,
      "🐻": 5296,
      "🐼": 5297,
      "🐾": 5298,
      "👀": 5299,
      "👁": 5300,
      "👂": 5301,
      "👃": 5302,
      "👄": 5303,
      "👅": 5304,
      "👆": 5305,
      "👇": 5306,
      "👈": 5307,
      "👉": 5308,
      "👊": 5309,
      "👋": 5310,
      "👌": 5311,
      "👍": 5312,
      "👎": 5313,
      "👏": 5314,
      "👐": 5315,
      "👑": 5316,
      "👓": 5317,
      "👕": 5318,
      "👖": 5319,
      "👗": 5320,
      "👙": 5321,
      "👛": 5322,
      "👜": 5323,
      "👞": 5324,
      "👟": 5325,
      "👠": 5326,
      "👡": 5327,
      "👢": 5328,
      "👣": 5329,
      "👤": 5330,
      "👥": 5331,
      "👦": 5332,
      "👧": 5333,
      "👨": 5334,
      "👩": 5335,
      "👪": 5336,
      "👫": 5337,
      "👭": 5338,
      "👮": 5339,
      "👯": 5340,
      "👰": 5341,
      "👱": 5342,
      "👳": 5343,
      "👴": 5344,
      "👵": 5345,
      "👶": 5346,
      "👸": 5347,
      "👹": 5348,
      "👻": 5349,
      "👼": 5350,
      "👽": 5351,
      "👿": 5352,
      "💀": 5353,
      "💁": 5354,
      "💃": 5355,
      "💄": 5356,
      "💅": 5357,
      "💆": 5358,
      "💇": 5359,
      "💉": 5360,
      "💊": 5361,
      "💋": 5362,
      "💌": 5363,
      "💍": 5364,
      "💎": 5365,
      "💏": 5366,
      "💐": 5367,
      "💒": 5368,
      "💓": 5369,
      "💔": 5370,
      "💕": 5371,
      "💖": 5372,
      "💗": 5373,
      "💘": 5374,
      "💙": 5375,
      "💚": 5376,
      "💛": 5377,
      "💜": 5378,
      "💝": 5379,
      "💞": 5380,
      "💟": 5381,
      "💡": 5382,
      "💢": 5383,
      "💣": 5384,
      "💤": 5385,
      "💥": 5386,
      "💦": 5387,
      "💧": 5388,
      "💨": 5389,
      "💩": 5390,
      "💪": 5391,
      "💫": 5392,
      "💬": 5393,
      "💭": 5394,
      "💯": 5395,
      "💰": 5396,
      "💳": 5397,
      "💵": 5398,
      "💶": 5399,
      "💸": 5400,
      "💻": 5401,
      "💼": 5402,
      "💾": 5403,
      "📃": 5404,
      "📄": 5405,
      "📅": 5406,
      "📆": 5407,
      "📈": 5408,
      "📊": 5409,
      "📌": 5410,
      "📍": 5411,
      "📎": 5412,
      "📔": 5413,
      "📕": 5414,
      "📖": 5415,
      "📘": 5416,
      "📙": 5417,
      "📚": 5418,
      "📝": 5419,
      "📞": 5420,
      "📡": 5421,
      "📢": 5422,
      "📣": 5423,
      "📦": 5424,
      "📧": 5425,
      "📩": 5426,
      "📮": 5427,
      "📰": 5428,
      "📱": 5429,
      "📲": 5430,
      "📷": 5431,
      "📸": 5432,
      "📺": 5433,
      "📻": 5434,
      "📽": 5435,
      "📿": 5436,
      "🔁": 5437,
      "🔂": 5438,
      "🔄": 5439,
      "🔅": 5440,
      "🔆": 5441,
      "🔈": 5442,
      "🔊": 5443,
      "🔋": 5444,
      "🔌": 5445,
      "🔍": 5446,
      "🔎": 5447,
      "🔐": 5448,
      "🔒": 5449,
      "🔔": 5450,
      "🔗": 5451,
      "🔘": 5452,
      "🔙": 5453,
      "🔛": 5454,
      "🔜": 5455,
      "🔝": 5456,
      "🔥": 5457,
      "🔦": 5458,
      "🔧": 5459,
      "🔨": 5460,
      "🔩": 5461,
      "🔪": 5462,
      "🔫": 5463,
      "🔭": 5464,
      "🔮": 5465,
      "🔴": 5466,
      "🔵": 5467,
      "🔶": 5468,
      "🔷": 5469,
      "🔸": 5470,
      "🔹": 5471,
      "🔺": 5472,
      "🔼": 5473,
      "🕊": 5474,
      "🕒": 5475,
      "🕓": 5476,
      "🕔": 5477,
      "🕗": 5478,
      "🕯": 5479,
      "🕰": 5480,
      "🕵": 5481,
      "🕶": 5482,
      "🕷": 5483,
      "🕸": 5484,
      "🕹": 5485,
      "🕺": 5486,
      "🖊": 5487,
      "🖋": 5488,
      "🖌": 5489,
      "🖎": 5490,
      "🖒": 5491,
      "🖕": 5492,
      "🖖": 5493,
      "🖤": 5494,
      "🖥": 5495,
      "🖱": 5496,
      "🗗": 5497,
      "🗡": 5498,
      "🗣": 5499,
      "🗨": 5500,
      "🗸": 5501,
      "🗻": 5502,
      "🗽": 5503,
      "😀": 5504,
      "😁": 5505,
      "😂": 5506,
      "😃": 5507,
      "😄": 5508,
      "😅": 5509,
      "😆": 5510,
      "😇": 5511,
      "😈": 5512,
      "😉": 5513,
      "😊": 5514,
      "😋": 5515,
      "😌": 5516,
      "😍": 5517,
      "😎": 5518,
      "😏": 5519,
      "😐": 5520,
      "😑": 5521,
      "😒": 5522,
      "😓": 5523,
      "😔": 5524,
      "😕": 5525,
      "😖": 5526,
      "😗": 5527,
      "😘": 5528,
      "😙": 5529,
      "😚": 5530,
      "😛": 5531,
      "😜": 5532,
      "😝": 5533,
      "😞": 5534,
      "😟": 5535,
      "😠": 5536,
      "😡": 5537,
      "😢": 5538,
      "😣": 5539,
      "😤": 5540,
      "😥": 5541,
      "😦": 5542,
      "😧": 5543,
      "😨": 5544,
      "😩": 5545,
      "😪": 5546,
      "😫": 5547,
      "😬": 5548,
      "😭": 5549,
      "😮": 5550,
      "😯": 5551,
      "😰": 5552,
      "😱": 5553,
      "😲": 5554,
      "😳": 5555,
      "😴": 5556,
      "😵": 5557,
      "😶": 5558,
      "😷": 5559,
      "😸": 5560,
      "😹": 5561,
      "😺": 5562,
      "😻": 5563,
      "😼": 5564,
      "😽": 5565,
      "😾": 5566,
      "😿": 5567,
      "🙀": 5568,
      "🙁": 5569,
      "🙂": 5570,
      "🙃": 5571,
      "🙄": 5572,
      "🙅": 5573,
      "🙆": 5574,
      "🙇": 5575,
      "🙈": 5576,
      "🙉": 5577,
      "🙊": 5578,
      "🙋": 5579,
      "🙌": 5580,
      "🙏": 5581,
      "🚀": 5582,
      "🚁": 5583,
      "🚂": 5584,
      "🚄": 5585,
      "🚆": 5586,
      "🚋": 5587,
      "🚌": 5588,
      "🚍": 5589,
      "🚎": 5590,
      "🚐": 5591,
      "🚑": 5592,
      "🚒": 5593,
      "🚔": 5594,
      "🚗": 5595,
      "🚘": 5596,
      "🚙": 5597,
      "🚚": 5598,
      "🚜": 5599,
      "🚢": 5600,
      "🚣": 5601,
      "🚤": 5602,
      "🚨": 5603,
      "🚩": 5604,
      "🚫": 5605,
      "🚲": 5606,
      "🚴": 5607,
      "🚶": 5608,
      "🚹": 5609,
      "🚺": 5610,
      "🚾": 5611,
      "🛀": 5612,
      "🛋": 5613,
      "🛌": 5614,
      "🛍": 5615,
      "🛏": 5616,
      "🛑": 5617,
      "🛒": 5618,
      "🛠": 5619,
      "🛡": 5620,
      "🛬": 5621,
      "🛳": 5622,
      "🛴": 5623,
      "🛵": 5624,
      "🛶": 5625,
      "🛷": 5626,
      "🛸": 5627,
      "🟠": 5628,
      "🤍": 5629,
      "🤎": 5630,
      "🤏": 5631,
      "🤐": 5632,
      "🤑": 5633,
      "🤒": 5634,
      "🤓": 5635,
      "🤔": 5636,
      "🤕": 5637,
      "🤖": 5638,
      "🤗": 5639,
      "🤘": 5640,
      "🤙": 5641,
      "🤛": 5642,
      "🤜": 5643,
      "🤝": 5644,
      "🤞": 5645,
      "🤟": 5646,
      "🤠": 5647,
      "🤡": 5648,
      "🤢": 5649,
      "🤣": 5650,
      "🤤": 5651,
      "🤥": 5652,
      "🤦": 5653,
      "🤧": 5654,
      "🤨": 5655,
      "🤩": 5656,
      "🤪": 5657,
      "🤫": 5658,
      "🤬": 5659,
      "🤭": 5660,
      "🤮": 5661,
      "🤯": 5662,
      "🤰": 5663,
      "🤳": 5664,
      "🤴": 5665,
      "🤵": 5666,
      "🤶": 5667,
      "🤷": 5668,
      "🤸": 5669,
      "🤼": 5670,
      "🤽": 5671,
      "🤾": 5672,
      "🥀": 5673,
      "🥁": 5674,
      "🥂": 5675,
      "🥄": 5676,
      "🥅": 5677,
      "🥇": 5678,
      "🥈": 5679,
      "🥉": 5680,
      "🥊": 5681,
      "🥋": 5682,
      "🥌": 5683,
      "🥐": 5684,
      "🥑": 5685,
      "🥕": 5686,
      "🥗": 5687,
      "🥘": 5688,
      "🥙": 5689,
      "🥚": 5690,
      "🥛": 5691,
      "🥜": 5692,
      "🥝": 5693,
      "🥞": 5694,
      "🥠": 5695,
      "🥣": 5696,
      "🥤": 5697,
      "🥥": 5698,
      "🥦": 5699,
      "🥧": 5700,
      "🥩": 5701,
      "🥪": 5702,
      "🥬": 5703,
      "🥰": 5704,
      "🥲": 5705,
      "🥳": 5706,
      "🥴": 5707,
      "🥵": 5708,
      "🥶": 5709,
      "🥺": 5710,
      "🦀": 5711,
      "🦁": 5712,
      "🦃": 5713,
      "🦄": 5714,
      "🦆": 5715,
      "🦈": 5716,
      "🦉": 5717,
      "🦊": 5718,
      "🦋": 5719,
      "🦌": 5720,
      "🦎": 5721,
      "🦐": 5722,
      "🦒": 5723,
      "🦓": 5724,
      "🦕": 5725,
      "🦖": 5726,
      "🦚": 5727,
      "🦠": 5728,
      "🦱": 5729,
      "🦲": 5730,
      "🦴": 5731,
      "🦸": 5732,
      "🦹": 5733,
      "🦼": 5734,
      "🦽": 5735,
      "🧀": 5736,
      "🧁": 5737,
      "🧃": 5738,
      "🧐": 5739,
      "🧑": 5740,
      "🧒": 5741,
      "🧓": 5742,
      "🧖": 5743,
      "🧘": 5744,
      "🧚": 5745,
      "🧜": 5746,
      "🧝": 5747,
      "🧟": 5748,
      "🧠": 5749,
      "🧡": 5750,
      "🧢": 5751,
      "🧣": 5752,
      "🧤": 5753,
      "🧦": 5754,
      "🧨": 5755,
      "🧮": 5756,
      "🧯": 5757,
      "🧵": 5758,
      "🧶": 5759,
      "🧸": 5760,
      "🧼": 5761,
      "🧿": 5762,
      "󰀄": 5763,
      "󰄁": 5764,
      "󰄂": 5765,
      "󰄃": 5766,
      "󰄄": 5767,
      "󲀃": 5768,
      "󶬾": 5769,
      "􀀹": 5770,
      "􌤊": 5771,
      "􌤶": 5772,
      "􌥽": 5773,
      "􌦂": 5774,
      "􌦈": 5775,
      "􌦉": 5776,
      "􌦯": 5777,
      "􏰁": 5778,
      "􏰂": 5779,
      "􏰋": 5780,
      "##0": 5781,
      "##-": 5782,
      "##3": 5783,
      "##2": 5784,
      "##7": 5785,
      "##.": 5786,
      "##e": 5787,
      "##t": 5788,
      "##o": 5789,
      "##b": 5790,
      "##i": 5791,
      "##d": 5792,
      "##r": 5793,
      "##a": 5794,
      "##g": 5795,
      "##]": 5796,
      "##p": 5797,
      "##s": 5798,
      "##l": 5799,
      "##c": 5800,
      "##h": 5801,
      "##f": 5802,
      "##ö": 5803,
      "##n": 5804,
      "##S": 5805,
      "##k": 5806,
      "##ä": 5807,
      "##?": 5808,
      "##H": 5809,
      "##)": 5810,
      "##x": 5811,
      "##m": 5812,
      "##u": 5813,
      "##:": 5814,
      "##v": 5815,
      "##\"": 5816,
      "##,": 5817,
      "##j": 5818,
      "##I": 5819,
      "##/": 5820,
      "##w": 5821,
      "##å": 5822,
      "##D": 5823,
      "##y": 5824,
      "##!": 5825,
      "##é": 5826,
      "##[": 5827,
      "##1": 5828,
      "##”": 5829,
      "##M": 5830,
      "##5": 5831,
      "##O": 5832,
      "##A": 5833,
      "##K": 5834,
      "##V": 5835,
      "##R": 5836,
      "##–": 5837,
      "##8": 5838,
      "##6": 5839,
      "##T": 5840,
      "##B": 5841,
      "##*": 5842,
      "##W": 5843,
      "##E": 5844,
      "##G": 5845,
      "##F": 5846,
      "##U": 5847,
      "##;": 5848,
      "##'": 5849,
      "##z": 5850,
      "##4": 5851,
      "##J": 5852,
      "##9": 5853,
      "##­": 5854,
      "##L": 5855,
      "##N": 5856,
      "##X": 5857,
      "##(": 5858,
      "##C": 5859,
      "##Ä": 5860,
      "##q": 5861,
      "##P": 5862,
      "##&": 5863,
      "##Y": 5864,
      "##’": 5865,
      "##+": 5866,
      "##$": 5867,
      "##}": 5868,
      "##ğ": 5869,
      "##ı": 5870,
      "##=": 5871,
      "##á": 5872,
      "##\\": 5873,
      "##♥": 5874,
      "##â": 5875,
      "##~": 5876,
      "##Ö": 5877,
      "##Å": 5878,
      "###": 5879,
      "##®": 5880,
      "##床": 5881,
      "##Ã": 5882,
      "##¶": 5883,
      "##“": 5884,
      "##🔁": 5885,
      "##В": 5886,
      "##о": 5887,
      "##л": 5888,
      "##н": 5889,
      "##т": 5890,
      "##е": 5891,
      "##р": 5892,
      "##с": 5893,
      "##ь": 5894,
      "##к": 5895,
      "##а": 5896,
      "##>": 5897,
      "##¤": 5898,
      "##<": 5899,
      "##—": 5900,
      "##»": 5901,
      "##_": 5902,
      "##и": 5903,
      "##я": 5904,
      "##ó": 5905,
      "##%": 5906,
      "##в": 5907,
      "##ž": 5908,
      "##′": 5909,
      "##ل": 5910,
      "##ي": 5911,
      "##ه": 5912,
      "##ø": 5913,
      "##«": 5914,
      "##í": 5915,
      "##Ά": 5916,
      "##ν": 5917,
      "##ω": 5918,
      "##😂": 5919,
      "##€": 5920,
      "##Z": 5921,
      "##æ": 5922,
      "##−": 5923,
      "##°": 5924,
      "##¥": 5925,
      "##Q": 5926,
      "##́": 5927,
      "##д": 5928,
      "##б": 5929,
      "##щ": 5930,
      "##А": 5931,
      "##Л": 5932,
      "##У": 5933,
      "##Е": 5934,
      "##О": 5935,
      "##ا": 5936,
      "##د": 5937,
      "##ر": 5938,
      "##،": 5939,
      "##‐": 5940,
      "##|": 5941,
      "##น": 5942,
      "##ิ": 5943,
      "##ล": 5944,
      "##ซ": 5945,
      "##`": 5946,
      "##😁": 5947,
      "##‒": 5948,
      "##م": 5949,
      "##‬": 5950,
      "##🧐": 5951,
      "##š": 5952,
      "##": 5953,
      "##수": 5954,
      "##에": 5955,
      "##게": 5956,
      "##Ì": 5957,
      "##🙏": 5958,
      "##💖": 5959,
      "##😳": 5960,
      "##õ": 5961,
      "##ü": 5962,
      "##😊": 5963,
      "##×": 5964,
      "##ő": 5965,
      "##^": 5966,
      "##£": 5967,
      "##è": 5968,
      "##": 5969,
      "##😒": 5970,
      "##😘": 5971,
      "##ã": 5972,
      "##": 5973,
      "##👌": 5974,
      "##{": 5975,
      "##🖤": 5976,
      "##☀": 5977,
      "##️": 5978,
      "##β": 5979,
      "##": 5980,
      "##Г": 5981,
      "##ń": 5982,
      "##λ": 5983,
      "##ά": 5984,
      "##č": 5985,
      "##": 5986,
      "##⁄": 5987,
      "##Щ": 5988,
      "##Љ": 5989,
      "##Ш": 5990,
      "##©": 5991,
      "##ñ": 5992,
      "##": 5993,
      "##Ѓ": 5994,
      "##±": 5995,
      "##京": 5996,
      "##•": 5997,
      "##饮": 5998,
      "##♭": 5999,
      "##✓": 6000,
      "##Î": 6001,
      "##ů": 6002,
      "##": 6003,
      "##ă": 6004,
      "##ú": 6005,
      "##§": 6006,
      "##у": 6007,
      "##ж": 6008,
      "##ы": 6009,
      "##х": 6010,
      "##🚶": 6011,
      "##👍": 6012,
      "##@": 6013,
      "##َ": 6014,
      "##ō": 6015,
      "##ī": 6016,
      "##¬": 6017,
      "##🌸": 6018,
      "##ē": 6019,
      "##": 6020,
      "##": 6021,
      "##›": 6022,
      "##❤": 6023,
      "##й": 6024,
      "##ł": 6025,
      "##Ł": 6026,
      "##ê": 6027,
      "##ɪ": 6028,
      "##ː": 6029,
      "##ч": 6030,
      "##ј": 6031,
      "##à": 6032,
      "##鰎": 6033,
      "##ß": 6034,
      "##🏻": 6035,
      "##ū": 6036,
      "##↑": 6037,
      "##Ґ": 6038,
      "##ц": 6039,
      "##網": 6040,
      "##頁": 6041,
      "##設": 6042,
      "##計": 6043,
      "##‹": 6044,
      "##ع": 6045,
      "##ë": 6046,
      "##🏼": 6047,
      "##💘": 6048,
      "##ѕ": 6049,
      "##ё": 6050,
      "##є": 6051,
      "##μ": 6052,
      "##ت": 6053,
      "##ش": 6054,
      "##ï": 6055,
      "##¿": 6056,
      "##😉": 6057,
      "##ż": 6058,
      "##ô": 6059,
      "##ç": 6060,
      "##ρ": 6061,
      "##ό": 6062,
      "##ι": 6063,
      "##α": 6064,
      "##г": 6065,
      "##Â": 6066,
      "##🥂": 6067,
      "##✨": 6068,
      "##ج": 6069,
      "##Ă": 6070,
      "##ś": 6071,
      "##ř": 6072,
      "##Č": 6073,
      "##한": 6074,
      "##국": 6075,
      "##어": 6076,
      "##日": 6077,
      "##本": 6078,
      "##語": 6079,
      "##Р": 6080,
      "##ї": 6081,
      "##ш": 6082,
      "##言": 6083,
      "##": 6084,
      "##책": 6085,
      "##😀": 6086,
      "##м": 6087,
      "##ą": 6088,
      "##ζ": 6089,
      "##😍": 6090,
      "##": 6091,
      "##♦": 6092,
      "##î": 6093,
      "##助": 6094,
      "##式": 6095,
      "##餐": 6096,
      "##廳": 6097,
      "##風": 6098,
      "##景": 6099,
      "##優": 6100,
      "##美": 6101,
      "##三": 6102,
      "##敖": 6103,
      "##包": 6104,
      "##🙂": 6105,
      "##ð": 6106,
      "##і": 6107,
      "##Ø": 6108,
      "##森": 6109,
      "##観": 6110,
      "##光": 6111,
      "##ǽ": 6112,
      "##ن": 6113,
      "##ق": 6114,
      "##ئ": 6115,
      "##ی": 6116,
      "##ে": 6117,
      "##ঊ": 6118,
      "##ю": 6119,
      "##É": 6120,
      "##": 6121,
      "##ě": 6122,
      "##↓": 6123,
      "##": 6124,
      "##": 6125,
      "##": 6126,
      "##Ѕ": 6127,
      "##青": 6128,
      "##い": 6129,
      "##鉄": 6130,
      "##道": 6131,
      "##で": 6132,
      "##行": 6133,
      "##き": 6134,
      "##ま": 6135,
      "##し": 6136,
      "##た": 6137,
      "##😎": 6138,
      "##": 6139,
      "##п": 6140,
      "##채": 6141,
      "##า": 6142,
      "##ส": 6143,
      "##ค": 6144,
      "##อ": 6145,
      "##ต": 6146,
      "##์": 6147,
      "##": 6148,
      "##": 6149,
      "##ā": 6150,
      "##·": 6151,
      "##☺": 6152,
      "##Ђ": 6153,
      "##υ": 6154,
      "##τ": 6155,
      "##ο": 6156,
      "##κ": 6157,
      "##η": 6158,
      "##🍷": 6159,
      "##": 6160,
      "##û": 6161,
      "##̈": 6162,
      "##ò": 6163,
      "##ę": 6164,
      "##🕯": 6165,
      "##🎄": 6166,
      "##😜": 6167,
      "##Ü": 6168,
      "##💙": 6169,
      "##茨": 6170,
      "##城": 6171,
      "##県": 6172,
      "##時": 6173,
      "##철": 6174,
      "##ṅ": 6175,
      "##🎩": 6176,
      "##": 6177,
      "##💪": 6178,
      "##ώ": 6179,
      "##‰": 6180,
      "##þ": 6181,
      "##ظ": 6182,
      "##☼": 6183,
      "##": 6184,
      "##ص": 6185,
      "##و": 6186,
      "##ِ": 6187,
      "##ƒ": 6188,
      "##⃰": 6189,
      "##➰": 6190,
      "##ć": 6191,
      "##👊": 6192,
      "##天": 6193,
      "##安": 6194,
      "##門": 6195,
      "##廣": 6196,
      "##場": 6197,
      "##🏠": 6198,
      "##🇸": 6199,
      "##🇪": 6200,
      "##ز": 6201,
      "##ب": 6202,
      "##र": 6203,
      "##Š": 6204,
      "##🎉": 6205,
      "##œ": 6206,
      "##🎬": 6207,
      "##": 6208,
      "##į": 6209,
      "##ง": 6210,
      "##บ": 6211,
      "##カ": 6212,
      "##ニ": 6213,
      "##尽": 6214,
      "##く": 6215,
      "##の": 6216,
      "##民": 6217,
      "##宿": 6218,
      "##🤗": 6219,
      "##😄": 6220,
      "##☆": 6221,
      "##ુ": 6222,
      "##જ": 6223,
      "##ર": 6224,
      "##😃": 6225,
      "##䰀": 6226,
      "##䄀": 6227,
      "##䜀": 6228,
      "##吀": 6229,
      "##䠀": 6230,
      "##唀": 6231,
      "##匀": 6232,
      "##䔀": 6233,
      "##": 6234,
      "##Ñ": 6235,
      "##ӧ": 6236,
      "##ʼ": 6237,
      "##✅": 6238,
      "##💚": 6239,
      "##💋": 6240,
      "##Ё": 6241,
      "##ť": 6242,
      "##ε": 6243,
      "##👶": 6244,
      "##👩": 6245,
      "##ك": 6246,
      "##س": 6247,
      "##Á": 6248,
      "##ร": 6249,
      "##ถ": 6250,
      "##맨": 6251,
      "##스": 6252,
      "##🏽": 6253,
      "##ュ": 6254,
      "##ー": 6255,
      "##エ": 6256,
      "##ラ": 6257,
      "##ş": 6258,
      "##ั": 6259,
      "##": 6260,
      "##І": 6261,
      "##С": 6262,
      "##‚": 6263,
      "##─": 6264,
      "##🙌": 6265,
      "##Ε": 6266,
      "##Í": 6267,
      "##่": 6268,
      "##ท": 6269,
      "##ี": 6270,
      "##ู": 6271,
      "##ก": 6272,
      "##ป": 6273,
      "##ุ": 6274,
      "##ใ": 6275,
      "##ห": 6276,
      "##้": 6277,
      "##ด": 6278,
      "##ข": 6279,
      "##ึ": 6280,
      "##😆": 6281,
      "##θ": 6282,
      "##π": 6283,
      "##ς": 6284,
      "##●": 6285,
      "##Ź": 6286,
      "##ơ": 6287,
      "##ĺ": 6288,
      "##ӓ": 6289,
      "##문": 6290,
      "##했": 6291,
      "##습": 6292,
      "##니": 6293,
      "##다": 6294,
      "##動": 6295,
      "##病": 6296,
      "##έ": 6297,
      "##¦": 6298,
      "##🏾": 6299,
      "##🚣": 6300,
      "##►": 6301,
      "##鋗": 6302,
      "##云": 6303,
      "##―": 6304,
      "##": 6305,
      "##ễ": 6306,
      "##🌞": 6307,
      "##😅": 6308,
      "##з": 6309,
      "##⊕": 6310,
      "##キ": 6311,
      "##ャ": 6312,
      "##ン": 6313,
      "##プ": 6314,
      "##感": 6315,
      "##覚": 6316,
      "##Ş": 6317,
      "##≤": 6318,
      "##ˈ": 6319,
      "##ɔ": 6320,
      "##ɲ": 6321,
      "##💓": 6322,
      "##♡": 6323,
      "##ќ": 6324,
      "##島": 6325,
      "##名": 6326,
      "##残": 6327,
      "##り": 6328,
      "##雪": 6329,
      "##に": 6330,
      "##て": 6331,
      "##は": 6332,
      "##結": 6333,
      "##構": 6334,
      "##積": 6335,
      "##も": 6336,
      "##。": 6337,
      "##ǒ": 6338,
      "##ồ": 6339,
      "##گ": 6340,
      "##ە": 6341,
      "##🤔": 6342,
      "##‘": 6343,
      "##Ľ": 6344,
      "##😭": 6345,
      "##ߨ": 6346,
      "##เ": 6347,
      "##ว": 6348,
      "##ẹ": 6349,
      "##ọ": 6350,
      "##🍦": 6351,
      "##ŏ": 6352,
      "##🌟": 6353,
      "##⭐": 6354,
      "##": 6355,
      "##ة": 6356,
      "##回": 6357,
      "##転": 6358,
      "##寿": 6359,
      "##司": 6360,
      "##": 6361,
      "##屋": 6362,
      "##轉": 6363,
      "##增": 6364,
      "##貸": 6365,
      "##ţ": 6366,
      "##♪": 6367,
      "##♫": 6368,
      "##酒": 6369,
      "##店": 6370,
      "##的": 6371,
      "##位": 6372,
      "##置": 6373,
      "##不": 6374,
      "##错": 6375,
      "##交": 6376,
      "##通": 6377,
      "##很": 6378,
      "##好": 6379,
      "##😝": 6380,
      "##🇳": 6381,
      "##說": 6382,
      "##《": 6383,
      "##🌺": 6384,
      "##ί": 6385,
      "##🔶": 6386,
      "##": 6387,
      "##È": 6388,
      "##掳": 6389,
      "##🔅": 6390,
      "##Ń": 6391,
      "##🎈": 6392,
      "##❄": 6393,
      "##が": 6394,
      "##必": 6395,
      "##要": 6396,
      "##す": 6397,
      "##제": 6398,
      "##판": 6399,
      "##🙊": 6400,
      "##ý": 6401,
      "##ạ": 6402,
      "##😬": 6403,
      "##😓": 6404,
      "##아": 6405,
      "##하": 6406,
      "##는": 6407,
      "##扎": 6408,
      "##如": 6409,
      "##沟": 6410,
      "##İ": 6411,
      "##😕": 6412,
      "##À": 6413,
      "##ف": 6414,
      "##✔": 6415,
      "##🌷": 6416,
      "##☘": 6417,
      "##ط": 6418,
      "##😮": 6419,
      "##💗": 6420,
      "##ふ": 6421,
      "##ぎ": 6422,
      "##国": 6423,
      "##ア": 6424,
      "##リ": 6425,
      "##ス": 6426,
      "##ช": 6427,
      "##漳": 6428,
      "##平": 6429,
      "##💥": 6430,
      "##ቻ": 6431,
      "##ው": 6432,
      "##ን": 6433,
      "##≥": 6434,
      "##Ê": 6435,
      "##🤣": 6436,
      "##": 6437,
      "##😋": 6438,
      "##ย": 6439,
      "##ณ": 6440,
      "##😴": 6441,
      "##ʹ": 6442,
      "##😷": 6443,
      "##ế": 6444,
      "##К": 6445,
      "##租": 6446,
      "##Б": 6447,
      "##ъ": 6448,
      "##Հ": 6449,
      "##ա": 6450,
      "##յ": 6451,
      "##ե": 6452,
      "##ր": 6453,
      "##ն": 6454,
      "##М": 6455,
      "##正": 6456,
      "##在": 6457,
      "##談": 6458,
      "##論": 6459,
      "##這": 6460,
      "##個": 6461,
      "##⛵": 6462,
      "##خ": 6463,
      "##⇒": 6464,
      "##ì": 6465,
      "##ǻ": 6466,
      "##ศ": 6467,
      "##أ": 6468,
      "##地": 6469,
      "##球": 6470,
      "##最": 6471,
      "##後": 6472,
      "##龍": 6473,
      "##њ": 6474,
      "##ち": 6475,
      "##ょ": 6476,
      "##っ": 6477,
      "##と": 6478,
      "##念": 6479,
      "##จ": 6480,
      "##🍰": 6481,
      "##🥥": 6482,
      "##⸮": 6483,
      "##🏁": 6484,
      "##🏆": 6485,
      "##墊": 6486,
      "##洛": 6487,
      "##阳": 6488,
      "##◄": 6489,
      "##̨": 6490,
      "##Н": 6491,
      "##✈": 6492,
      "##흑": 6493,
      "##표": 6494,
      "##Д": 6495,
      "##ș": 6496,
      "##🍀": 6497,
      "##ɳ": 6498,
      "##ɛ": 6499,
      "##ˮ": 6500,
      "##।": 6501,
      "##ा": 6502,
      "##ज": 6503,
      "##्": 6504,
      "##ञ": 6505,
      "##व": 6506,
      "##ल": 6507,
      "##क": 6508,
      "##य": 6509,
      "##ḥ": 6510,
      "##🦁": 6511,
      "##ḳ": 6512,
      "##": 6513,
      "##": 6514,
      "##、": 6515,
      "##기": 6516,
      "##א": 6517,
      "##ב": 6518,
      "##י": 6519,
      "##巧": 6520,
      "##麗": 6521,
      "##渡": 6522,
      "##假": 6523,
      "##飯": 6524,
      "##ứ": 6525,
      "##ή": 6526,
      "##χ": 6527,
      "##→": 6528,
      "##🙄": 6529,
      "##仙": 6530,
      "##🌴": 6531,
      "##大": 6532,
      "##衣": 6533,
      "##👆": 6534,
      "##闻": 6535,
      "##̇": 6536,
      "##際": 6537,
      "##フ": 6538,
      "##ォ": 6539,
      "##ム": 6540,
      "##ک": 6541,
      "##レ": 6542,
      "##ッ": 6543,
      "##シ": 6544,
      "##ի": 6545,
      "##պ": 6546,
      "##ה": 6547,
      "##ו": 6548,
      "##ת": 6549,
      "##ù": 6550,
      "##Κ": 6551,
      "##Τ": 6552,
      "##Ο": 6553,
      "##Σ": 6554,
      "##": 6555,
      "##😔": 6556,
      "##〈": 6557,
      "##ʻ": 6558,
      "##♠": 6559,
      "##🏋": 6560,
      "##⏳": 6561,
      "##✌": 6562,
      "##😱": 6563,
      "##Œ": 6564,
      "##З": 6565,
      "##💕": 6566,
      "##布": 6567,
      "##乡": 6568,
      "##장": 6569,
      "##도": 6570,
      "##ố": 6571,
      "##ị": 6572,
      "##ペ": 6573,
      "##ェ": 6574,
      "##🦐": 6575,
      "##🦀": 6576,
      "##🇮": 6577,
      "##🇹": 6578,
      "##ゼ": 6579,
      "##ト": 6580,
      "##ื": 6581,
      "##γ": 6582,
      "##Ŝ": 6583,
      "##🐒": 6584,
      "##♕": 6585,
      "##👈": 6586,
      "##": 6587,
      "##이": 6588,
      "##■": 6589,
      "##": 6590,
      "##แ": 6591,
      "##ะ": 6592,
      "##ذ": 6593,
      "##든": 6594,
      "##Ç": 6595,
      "##洋": 6596,
      "##務": 6597,
      "##運": 6598,
      "##这": 6599,
      "##家": 6600,
      "##总": 6601,
      "##体": 6602,
      "##也": 6603,
      "##还": 6604,
      "##可": 6605,
      "##以": 6606,
      "##白": 6607,
      "##子": 6608,
      "##一": 6609,
      "##ホ": 6610,
      "##テ": 6611,
      "##ル": 6612,
      "##价": 6613,
      "##格": 6614,
      "##实": 6615,
      "##惠": 6616,
      "##ź": 6617,
      "##ň": 6618,
      "##📲": 6619,
      "##☎": 6620,
      "##🤦": 6621,
      "##✋": 6622,
      "##贡": 6623,
      "##ύ": 6624,
      "##ξ": 6625,
      "##σ": 6626,
      "##🤩": 6627,
      "##ᛚ": 6628,
      "##ᛁ": 6629,
      "##ᚳ": 6630,
      "##ᛖ": 6631,
      "##ķ": 6632,
      "##市": 6633,
      "##💜": 6634,
      "##ǐ": 6635,
      "##觉": 6636,
      "##【": 6637,
      "##Ρ": 6638,
      "##Θ": 6639,
      "##⛥": 6640,
      "##💞": 6641,
      "##ै": 6642,
      "##Т": 6643,
      "##Й": 6644,
      "##ド": 6645,
      "##戦": 6646,
      "##記": 6647,
      "##ม": 6648,
      "##ธ": 6649,
      "##ņ": 6650,
      "##": 6651,
      "##中": 6652,
      "##文": 6653,
      "##🌲": 6654,
      "##φ": 6655,
      "##라": 6656,
      "##⬅": 6657,
      "##⁣": 6658,
      "##🎾": 6659,
      "##📱": 6660,
      "##🐣": 6661,
      "##ू": 6662,
      "##ं": 6663,
      "##ढ": 6664,
      "##😏": 6665,
      "##란": 6666,
      "##神": 6667,
      "##깨": 6668,
      "##비": 6669,
      "##ُ": 6670,
      "##ّ": 6671,
      "##👧": 6672,
      "##ґ": 6673,
      "##ض": 6674,
      "##신": 6675,
      "##学": 6676,
      "##】": 6677,
      "##ể": 6678,
      "##😚": 6679,
      "##ස": 6680,
      "##ර": 6681,
      "##🐶": 6682,
      "##پ": 6683,
      "##‭": 6684,
      "##ľ": 6685,
      "##": 6686,
      "##□": 6687,
      "##方": 6688,
      "##便": 6689,
      "##鏟": 6690,
      "##🔵": 6691,
      "##🤨": 6692,
      "##物": 6693,
      "##상": 6694,
      "##사": 6695,
      "##냥": 6696,
      "##렵": 6697,
      "##म": 6698,
      "##द": 6699,
      "##े": 6700,
      "##💤": 6701,
      "##╓": 6702,
      "##❯": 6703,
      "##눇": 6704,
      "##💐": 6705,
      "##வ": 6706,
      "##ீ": 6707,
      "##ட": 6708,
      "##ி": 6709,
      "##ய": 6710,
      "##ோ": 6711,
      "##💯": 6712,
      "##🤭": 6713,
      "##": 6714,
      "##": 6715,
      "##∅": 6716,
      "##枚": 6717,
      "##🤘": 6718,
      "##ψ": 6719,
      "##Æ": 6720,
      "##台": 6721,
      "##ク": 6722,
      "##マ": 6723,
      "##💄": 6724,
      "##ロ": 6725,
      "##🌿": 6726,
      "##ũ": 6727,
      "##ė": 6728,
      "##ो": 6729,
      "##ख": 6730,
      "##ब": 6731,
      "##़": 6732,
      "##療": 6733,
      "##関": 6734,
      "##係": 6735,
      "##者": 6736,
      "##外": 6737,
      "##ご": 6738,
      "##遠": 6739,
      "##慮": 6740,
      "##下": 6741,
      "##さ": 6742,
      "##ე": 6743,
      "##会": 6744,
      "##社": 6745,
      "##タ": 6746,
      "##ジ": 6747,
      "##オ": 6748,
      "##ブ": 6749,
      "##": 6750,
      "##พ": 6751,
      "##": 6752,
      "##🌠": 6753,
      "##⋅": 6754,
      "##🍩": 6755,
      "##😥": 6756,
      "##Ž": 6757,
      "##": 6758,
      "##口": 6759,
      "##お": 6760,
      "##前": 6761,
      "##ろ": 6762,
      "##施": 6763,
      "##・": 6764,
      "##所": 6765,
      "##属": 6766,
      "##を": 6767,
      "##欄": 6768,
      "##入": 6769,
      "##頂": 6770,
      "##け": 6771,
      "##幸": 6772,
      "##👜": 6773,
      "##💔": 6774,
      "##👏": 6775,
      "##ɹ": 6776,
      "##ʊ": 6777,
      "##ユ": 6778,
      "##ビ": 6779,
      "##东": 6780,
      "##师": 6781,
      "##范": 6782,
      "##🃏": 6783,
      "##Ÿ": 6784,
      "##母": 6785,
      "##山": 6786,
      "##メ": 6787,
      "##せ": 6788,
      "##ん": 6789,
      "##": 6790,
      "##🥀": 6791,
      "##미": 6792,
      "##ŭ": 6793,
      "##강": 6794,
      "##남": 6795,
      "##타": 6796,
      "##일": 6797,
      "##🙋": 6798,
      "##夜": 6799,
      "##札": 6800,
      "##出": 6801,
      "##ぐ": 6802,
      "##イ": 6803,
      "##空": 6804,
      "##間": 6805,
      "##★": 6806,
      "##ी": 6807,
      "##伦": 6808,
      "##镇": 6809,
      "##≧": 6810,
      "##≦": 6811,
      "##紙": 6812,
      "##み": 6813,
      "##➡": 6814,
      "##✭": 6815,
      "##▪": 6816,
      "##黃": 6817,
      "##慧": 6818,
      "##傑": 6819,
      "##香": 6820,
      "##姬": 6821,
      "##昌": 6822,
      "##䤀": 6823,
      "##䬀": 6824,
      "##丸": 6825,
      "##報": 6826,
      "##部": 6827,
      "##็": 6828,
      "##戊": 6829,
      "##辰": 6830,
      "##争": 6831,
      "##虍": 6832,
      "##🍃": 6833,
      "##😡": 6834,
      "##😩": 6835,
      "##🚴": 6836,
      "##√": 6837,
      "##∂": 6838,
      "##ר": 6839,
      "##צ": 6840,
      "##ע": 6841,
      "##🍁": 6842,
      "##房": 6843,
      "##🍡": 6844,
      "##ŕ": 6845,
      "##坑": 6846,
      "##爹": 6847,
      "##🤓": 6848,
      "##▼": 6849,
      "##Ї": 6850,
      "##†": 6851,
      "##„": 6852,
      "##氓": 6853,
      "##愛": 6854,
      "##知": 6855,
      "##🌨": 6856,
      "##⚛": 6857,
      "##δ": 6858,
      "##ո": 6859,
      "##ւ": 6860,
      "##բ": 6861,
      "##🙈": 6862,
      "##ש": 6863,
      "##נ": 6864,
      "##😛": 6865,
      "##😢": 6866,
      "##您": 6867,
      "##找": 6868,
      "##到": 6869,
      "##相": 6870,
      "##关": 6871,
      "##结": 6872,
      "##果": 6873,
      "##个": 6874,
      "##用": 6875,
      "##时": 6876,
      "##८": 6877,
      "##१": 6878,
      "##디": 6879,
      "##Γ": 6880,
      "##Β": 6881,
      "##Η": 6882,
      "##ď": 6883,
      "##동": 6884,
      "##대": 6885,
      "##ǔ": 6886,
      "##ġ": 6887,
      "##Ġ": 6888,
      "##Х": 6889,
      "##э": 6890,
      "##ן": 6891,
      "##Ô": 6892,
      "##💎": 6893,
      "##比": 6894,
      "##💛": 6895,
      "##Ɛ": 6896,
      "##ሻ": 6897,
      "##ț": 6898,
      "##路": 6899,
      "##銷": 6900,
      "##Ó": 6901,
      "##ф": 6902,
      "##ु": 6903,
      "##ˆ": 6904,
      "##ḻ": 6905,
      "##🔥": 6906,
      "##": 6907,
      "##": 6908,
      "##Ú": 6909,
      "##🤪": 6910,
      "##定": 6911,
      "##棋": 6912,
      "##牌": 6913,
      "##ུ": 6914,
      "##ས": 6915,
      "##་": 6916,
      "##ཧ": 6917,
      "##ྲ": 6918,
      "##འ": 6919,
      "##更": 6920,
      "##多": 6921,
      "##谢": 6922,
      "##👻": 6923,
      "##ộ": 6924,
      "##群": 6925,
      "##ქ": 6926,
      "##ა": 6927,
      "##რ": 6928,
      "##თ": 6929,
      "##უ": 6930,
      "##ლ": 6931,
      "##ი": 6932,
      "##⠔": 6933,
      "##墨": 6934,
      "##画": 6935,
      "##易": 6936,
      "##音": 6937,
      "##乐": 6938,
      "##是": 6939,
      "##款": 6940,
      "##专": 6941,
      "##注": 6942,
      "##于": 6943,
      "##发": 6944,
      "##现": 6945,
      "##与": 6946,
      "##分": 6947,
      "##享": 6948,
      "##产": 6949,
      "##品": 6950,
      "##依": 6951,
      "##托": 6952,
      "##业": 6953,
      "##人": 6954,
      "##友": 6955,
      "##推": 6956,
      "##荐": 6957,
      "##及": 6958,
      "##功": 6959,
      "##能": 6960,
      "##为": 6961,
      "##户": 6962,
      "##打": 6963,
      "##造": 6964,
      "##全": 6965,
      "##新": 6966,
      "##生": 6967,
      "##活": 6968,
      "##ى": 6969,
      "##서": 6970,
      "##관": 6971,
      "##ղ": 6972,
      "##մ": 6973,
      "##庭": 6974,
      "##な": 6975,
      "##雰": 6976,
      "##囲": 6977,
      "##気": 6978,
      "##激": 6979,
      "##細": 6980,
      "##工": 6981,
      "##具": 6982,
      "##🐼": 6983,
      "##🦊": 6984,
      "##🦖": 6985,
      "##🦕": 6986,
      "##✊": 6987,
      "##ら": 6988,
      "##ぷ": 6989,
      "##🤷": 6990,
      "##ح": 6991,
      "##ญ": 6992,
      "##은": 6993,
      "##읍": 6994,
      "##đ": 6995,
      "##ॐ": 6996,
      "##❣": 6997,
      "##ų": 6998,
      "##🍫": 6999,
      "##🌻": 7000,
      "##Ə": 7001,
      "##И": 7002,
      "##😵": 7003,
      "##休": 7004,
      "##闲": 7005,
      "##当": 7006,
      "##带": 7007,
      "##点": 7008,
      "##欧": 7009,
      "##风": 7010,
      "##🎅": 7011,
      "##Φ": 7012,
      "##花": 7013,
      "##冠": 7014,
      "##ि": 7015,
      "##फ": 7016,
      "##न": 7017,
      "##ả": 7018,
      "##ṛ": 7019,
      "##ṣ": 7020,
      "##ṇ": 7021,
      "##旨": 7022,
      "##🏡": 7023,
      "##Ь": 7024,
      "##🙀": 7025,
      "##ᛟ": 7026,
      "##龙": 7027,
      "##茶": 7028,
      "##๑": 7029,
      "##ᴖ": 7030,
      "##◡": 7031,
      "##🇫": 7032,
      "##ም": 7033,
      "##ድ": 7034,
      "##Ć": 7035,
      "##重": 7036,
      "##两": 7037,
      "##庆": 7038,
      "##祝": 7039,
      "##建": 7040,
      "##周": 7041,
      "##年": 7042,
      "##̱": 7043,
      "##╔": 7044,
      "##💦": 7045,
      "##🐴": 7046,
      "##⠀": 7047,
      "##坝": 7048,
      "##⬆": 7049,
      "##⬇": 7050,
      "##月": 7051,
      "##Ė": 7052,
      "##🥰": 7053,
      "##ǟ": 7054,
      "##̀": 7055,
      "##ṓ": 7056,
      "##Ý": 7057,
      "##": 7058,
      "##←": 7059,
      "##较": 7060,
      "##满": 7061,
      "##足": 7062,
      "##顾": 7063,
      "##客": 7064,
      "##需": 7065,
      "##求": 7066,
      "##ゅ": 7067,
      "##🐕": 7068,
      "##": 7069,
      "##⌘": 7070,
      "##💸": 7071,
      "##♀": 7072,
      "##": 7073,
      "##": 7074,
      "##🚺": 7075,
      "##间": 7076,
      "##类": 7077,
      "##型": 7078,
      "##整": 7079,
      "##套": 7080,
      "##公": 7081,
      "##寓": 7082,
      "##源": 7083,
      "##别": 7084,
      "##墅": 7085,
      "##住": 7086,
      "##卧": 7087,
      "##室": 7088,
      "##❕": 7089,
      "##❔": 7090,
      "##菲": 7091,
      "##斯": 7092,
      "##约": 7093,
      "##克": 7094,
      "##🙁": 7095,
      "##馨": 7096,
      "##🧚": 7097,
      "##👪": 7098,
      "##旦": 7099,
      "##コ": 7100,
      "##ấ": 7101,
      "##🍑": 7102,
      "##∩": 7103,
      "##버": 7104,
      "##지": 7105,
      "##와": 7106,
      "##县": 7107,
      "##彩": 7108,
      "##走": 7109,
      "##势": 7110,
      "##图": 7111,
      "##나": 7112,
      "##ไ": 7113,
      "##都": 7114,
      "##府": 7115,
      "##": 7116,
      "##დ": 7117,
      "##ს": 7118,
      "##盲": 7119,
      "##ء": 7120,
      "##એ": 7121,
      "##સ": 7122,
      "##리": 7123,
      "##ÿ": 7124,
      "##ầ": 7125,
      "##😇": 7126,
      "##樂": 7127,
      "##開": 7128,
      "##ʿ": 7129,
      "##朝": 7130,
      "##食": 7131,
      "##味": 7132,
      "##昭": 7133,
      "##Ś": 7134,
      "##⚽": 7135,
      "##ѓ": 7136,
      "##🥕": 7137,
      "##̶": 7138,
      "##단": 7139,
      "##히": 7140,
      "##Ћ": 7141,
      "##挺": 7142,
      "##豪": 7143,
      "##华": 7144,
      "##服": 7145,
      "##务": 7146,
      "##โ": 7147,
      "##ภ": 7148,
      "##ַ": 7149,
      "##ׁ": 7150,
      "##ד": 7151,
      "##ּ": 7152,
      "##🕺": 7153,
      "##💃": 7154,
      "##벽": 7155,
      "##ђ": 7156,
      "##": 7157,
      "##∀": 7158,
      "##😌": 7159,
      "##😲": 7160,
      "##こ": 7161,
      "##🏒": 7162,
      "##🥌": 7163,
      "##🎿": 7164,
      "##有": 7165,
      "##": 7166,
      "##信": 7167,
      "##被": 7168,
      "##判": 7169,
      "##刑": 7170,
      "##十": 7171,
      "##🥳": 7172,
      "##🕷": 7173,
      "##ח": 7174,
      "##ק": 7175,
      "##": 7176,
      "##Ι": 7177,
      "##چ": 7178,
      "##": 7179,
      "##♣": 7180,
      "##😫": 7181,
      "##Δ": 7182,
      "##⟩": 7183,
      "##ə": 7184,
      "##Į": 7185,
      "##Ī": 7186,
      "##🍂": 7187,
      "##❾": 7188,
      "##ệ": 7189,
      "##👑": 7190,
      "##恒": 7191,
      "##例": 7192,
      "##旅": 7193,
      "##ג": 7194,
      "##‡": 7195,
      "##Ω": 7196,
      "##": 7197,
      "##∫": 7198,
      "##木": 7199,
      "##々": 7200,
      "##埋": 7201,
      "##れ": 7202,
      "##廃": 7203,
      "##Ò": 7204,
      "##䬶": 7205,
      "##💏": 7206,
      "##舞": 7207,
      "##妓": 7208,
      "##🐤": 7209,
      "##ገ": 7210,
      "##ደ": 7211,
      "##ስ": 7212,
      "##ቲ": 7213,
      "##陽": 7214,
      "##ํ": 7215,
      "##ˋ": 7216,
      "##▽": 7217,
      "##🎵": 7218,
      "##Ļ": 7219,
      "##理": 7220,
      "##소": 7221,
      "##ỵ": 7222,
      "##巴": 7223,
      "##马": 7224,
      "##井": 7225,
      "##": 7226,
      "##砍": 7227,
      "##ズ": 7228,
      "##創": 7229,
      "##立": 7230,
      "##奥": 7231,
      "##様": 7232,
      "##ば": 7233,
      "##あ": 7234,
      "##ゃ": 7235,
      "##だ": 7236,
      "##止": 7237,
      "##め": 7238,
      "##П": 7239,
      "##👛": 7240,
      "##🎀": 7241,
      "##パ": 7242,
      "##長": 7243,
      "##崎": 7244,
      "##駅": 7245,
      "##": 7246,
      "##把": 7247,
      "##栅": 7248,
      "##": 7249,
      "##": 7250,
      "##🤎": 7251,
      "##": 7252,
      "##🧡": 7253,
      "##٦": 7254,
      "##٬": 7255,
      "##٠": 7256,
      "##٥": 7257,
      "##٧": 7258,
      "##バ": 7259,
      "##🎥": 7260,
      "##🔝": 7261,
      "##̦": 7262,
      "##Ν": 7263,
      "##십": 7264,
      "##産": 7265,
      "##絶": 7266,
      "##対": 7267,
      "##🤑": 7268,
      "##람": 7269,
      "##程": 7270,
      "##目": 7271,
      "##转": 7272,
      "##睛": 7273,
      "##蹈": 7274,
      "##亮": 7275,
      "##太": 7276,
      "##ざ": 7277,
      "##犬": 7278,
      "##ヤ": 7279,
      "##素": 7280,
      "##晴": 7281,
      "##ぜ": 7282,
      "##ひ": 7283,
      "##獄": 7284,
      "##落": 7285,
      "##る": 7286,
      "##🏇": 7287,
      "##🏿": 7288,
      "##ở": 7289,
      "##😻": 7290,
      "##": 7291,
      "##海": 7292,
      "##誠": 7293,
      "##ל": 7294,
      "##כ": 7295,
      "##湾": 7296,
      "##街": 7297,
      "##馬": 7298,
      "##ァ": 7299,
      "##訪": 7300,
      "##📩": 7301,
      "##💬": 7302,
      "##奪": 7303,
      "##∣": 7304,
      "##乎": 7305,
      "##じ": 7306,
      "##ぶ": 7307,
      "##か": 7308,
      "##ฯ": 7309,
      "##ଜ": 7310,
      "##ର": 7311,
      "##୍": 7312,
      "##ମ": 7313,
      "##ା": 7314,
      "##ନ": 7315,
      "##ୀ": 7316,
      "##》": 7317,
      "##ǫ": 7318,
      "##管": 7319,
      "##制": 7320,
      "##": 7321,
      "##🥅": 7322,
      "##↩": 7323,
      "##ィ": 7324,
      "##🌹": 7325,
      "##ɑ": 7326,
      "##Α": 7327,
      "##Я": 7328,
      "##ṭ": 7329,
      "##테": 7330,
      "##로": 7331,
      "##ツ": 7332,
      "##🌙": 7333,
      "##经": 7334,
      "##ֶ": 7335,
      "##ס": 7336,
      "##ȁ": 7337,
      "##̧": 7338,
      "##Ấ": 7339,
      "##إ": 7340,
      "##↔": 7341,
      "##명": 7342,
      "##ề": 7343,
      "##🙃": 7344,
      "##": 7345,
      "##ħ": 7346,
      "##保": 7347,
      "##第": 7348,
      "##号": 7349,
      "##􏰋": 7350,
      "##가": 7351,
      "##¢": 7352,
      "##瑞": 7353,
      "##典": 7354,
      "##德": 7355,
      "##哥": 7356,
      "##尔": 7357,
      "##摩": 7358,
      "##评": 7359,
      "##费": 7360,
      "##東": 7361,
      "##性": 7362,
      "##Ή": 7363,
      "##💒": 7364,
      "##": 7365,
      "##🐥": 7366,
      "##身": 7367,
      "##法": 7368,
      "##🌤": 7369,
      "##̂": 7370,
      "##🏕": 7371,
      "##": 7372,
      "##🎶": 7373,
      "##⃣": 7374,
      "##ゾ": 7375,
      "##ミ": 7376,
      "##Λ": 7377,
      "##超": 7378,
      "##碰": 7379,
      "##偷": 7380,
      "##拍": 7381,
      "##牛": 7382,
      "##유": 7383,
      "##과": 7384,
      "##田": 7385,
      "##町": 7386,
      "##内": 7387,
      "##西": 7388,
      "##寄": 7389,
      "##승": 7390,
      "##면": 7391,
      "##鰉": 7392,
      "##अ": 7393,
      "##ग": 7394,
      "##स": 7395,
      "##त": 7396,
      "##": 7397,
      "##ө": 7398,
      "##🐱": 7399,
      "##충": 7400,
      "##주": 7401,
      "##시": 7402,
      "##핵": 7403,
      "##独": 7404,
      "##眼": 7405,
      "##ụ": 7406,
      "##ɡ": 7407,
      "##ʁ": 7408,
      "##州": 7409,
      "##ս": 7410,
      "##良": 7411,
      "##湯": 7412,
      "##堪": 7413,
      "##ں": 7414,
      "##䲥": 7415,
      "##☻": 7416,
      "##蓮": 7417,
      "##寺": 7418,
      "##官": 7419,
      "##站": 7420,
      "##": 7421,
      "##材": 7422,
      "##鮮": 7423,
      "##🍻": 7424,
      "##🦄": 7425,
      "##郊": 7426,
      "##御": 7427,
      "##達": 7428,
      "##ネ": 7429,
      "##북": 7430,
      "##": 7431,
      "##段": 7432,
      "##応": 7433,
      "##박": 7434,
      "##Μ": 7435,
      "##": 7436,
      "##Ф": 7437,
      "##ִ": 7438,
      "##ְ": 7439,
      "##ผ": 7440,
      "##厢": 7441,
      "##富": 7442,
      "##強": 7443,
      "##兵": 7444,
      "##≈": 7445,
      "##差": 7446,
      "##了": 7447,
      "##ὐ": 7448,
      "##ŋ": 7449,
      "##행": 7450,
      "##ܕ": 7451,
      "##ܬ": 7452,
      "##ܐ": 7453,
      "##": 7454,
      "##ǎ": 7455,
      "##선": 7456,
      "##ぃ": 7457,
      "##울": 7458,
      "##七": 7459,
      "##桃": 7460,
      "##👋": 7461,
      "##ਮ": 7462,
      "##ਰ": 7463,
      "##ੀ": 7464,
      "##ਕ": 7465,
      "##ਾ": 7466,
      "##": 7467,
      "##🌼": 7468,
      "##💩": 7469,
      "##Þ": 7470,
      "##腕": 7471,
      "##ữ": 7472,
      "##태": 7473,
      "##연": 7474,
      "##غ": 7475,
      "##國": 7476,
      "##🥚": 7477,
      "##⚡": 7478,
      "##林": 7479,
      "##尚": 7480,
      "##義": 7481,
      "##火": 7482,
      "##😙": 7483,
      "##员": 7484,
      "##态": 7485,
      "##度": 7486,
      "##🍕": 7487,
      "##松": 7488,
      "##‿": 7489,
      "##무": 7490,
      "##阪": 7491,
      "##放": 7492,
      "##简": 7493,
      "##婼": 7494,
      "##焼": 7495,
      "##ց": 7496,
      "##🍸": 7497,
      "##": 7498,
      "##그": 7499,
      "##램": 7500,
      "##💫": 7501,
      "##🧘": 7502,
      "##": 7503,
      "##明": 7504,
      "##ね": 7505,
      "##」": 7506,
      "##件": 7507,
      "##准": 7508,
      "##备": 7509,
      "##应": 7510,
      "##付": 7511,
      "##糟": 7512,
      "##糕": 7513,
      "##情": 7514,
      "##况": 7515,
      "##🌚": 7516,
      "##": 7517,
      "##进": 7518,
      "##营": 7519,
      "##䳳": 7520,
      "##Û": 7521,
      "##帮": 7522,
      "##村": 7523,
      "##Ц": 7524,
      "##🍧": 7525,
      "##ʃ": 7526,
      "##😣": 7527,
      "##": 7528,
      "##び": 7529,
      "##ѵ": 7530,
      "##ջ": 7531,
      "##թ": 7532,
      "##之": 7533,
      "##蒙": 7534,
      "##古": 7535,
      "##际": 7536,
      "##杰": 7537,
      "##📷": 7538,
      "##张": 7539,
      "##川": 7540,
      "##드": 7541,
      "##레": 7542,
      "##업": 7543,
      "##󶬾": 7544,
      "##黑": 7545,
      "##վ": 7546,
      "##✫": 7547,
      "##ļ": 7548,
      "##䢢": 7549,
      "##✖": 7550,
      "##🌬": 7551,
      "##🌫": 7552,
      "##🌧": 7553,
      "##秋": 7554,
      "##我": 7555,
      "##们": 7556,
      "##买": 7557,
      "##阿": 7558,
      "##罗": 7559,
      "##那": 7560,
      "##▾": 7561,
      "##泉": 7562,
      "##銭": 7563,
      "##🐺": 7564,
      "##¡": 7565,
      "##ံ": 7566,
      "##ပ": 7567,
      "##ယ": 7568,
      "##္": 7569,
      "##ခ": 7570,
      "##်": 7571,
      "##စ": 7572,
      "##သ": 7573,
      "##ူ": 7574,
      "##⁠": 7575,
      "##喜": 7576,
      "##│": 7577,
      "##ゲ": 7578,
      "##ョ": 7579,
      "##☔": 7580,
      "##🏔": 7581,
      "##겨": 7582,
      "##갔": 7583,
      "##串": 7584,
      "##৫": 7585,
      "##🐸": 7586,
      "##Õ": 7587,
      "##ি": 7588,
      "##ল": 7589,
      "##﷓": 7590,
      "##河": 7591,
      "##ʺ": 7592,
      "##": 7593,
      "##ˉ": 7594,
      "##👨": 7595,
      "##🛍": 7596,
      "##🍴": 7597,
      "##텔": 7598,
      "##광": 7599,
      "##🍝": 7600,
      "##": 7601,
      "##": 7602,
      "##夡": 7603,
      "##臭": 7604,
      "##』": 7605,
      "##「": 7606,
      "##捕": 7607,
      "##虜": 7608,
      "##ゴ": 7609,
      "##ボ": 7610,
      "##ウ": 7611,
      "##伀": 7612,
      "##䌀": 7613,
      "##䴀": 7614,
      "##מ": 7615,
      "##❓": 7616,
      "##祖": 7617,
      "##乙": 7618,
      "##节": 7619,
      "##↵": 7620,
      "##⌨": 7621,
      "##做": 7622,
      "##过": 7623,
      "##确": 7624,
      "##事": 7625,
      "##今": 7626,
      "##少": 7627,
      "##此": 7628,
      "##高": 7629,
      "##水": 7630,
      "##和": 7631,
      "##妻": 7632,
      "##百": 7633,
      "##赞": 7634,
      "##同": 7635,
      "##次": 7636,
      "##非": 7637,
      "##常": 7638,
      "##棒": 7639,
      "##验": 7640,
      "##团": 7641,
      "##队": 7642,
      "##许": 7643,
      "##谈": 7644,
      "##他": 7645,
      "##提": 7646,
      "##供": 7647,
      "##将": 7648,
      "##向": 7649,
      "##每": 7650,
      "##想": 7651,
      "##岸": 7652,
      "##": 7653,
      "##ȳ": 7654,
      "##💌": 7655,
      "##성": 7656,
      "##탄": 7657,
      "##절": 7658,
      "##╯": 7659,
      "##ฏ": 7660,
      "##ヘ": 7661,
      "##🥬": 7662,
      "##🍔": 7663,
      "##存": 7664,
      "##心": 7665,
      "##愿": 7666,
      "##单": 7667,
      "##👇": 7668,
      "##枢": 7669,
      "##头": 7670,
      "##🌳": 7671,
      "##ݎ": 7672,
      "##님": 7673,
      "##族": 7674,
      "##呂": 7675,
      "##📽": 7676,
      "##浪": 7677,
      "##ぴ": 7678,
      "##론": 7679,
      "##홍": 7680,
      "##▲": 7681,
      "##Ю": 7682,
      "##😸": 7683,
      "##Π": 7684,
      "##ግ": 7685,
      "##ብ": 7686,
      "##ኣ": 7687,
      "##ና": 7688,
      "##ɴ": 7689,
      "##르": 7690,
      "##베": 7691,
      "##립": 7692,
      "##협": 7693,
      "##휘": 7694,
      "##ᵻ": 7695,
      "##刀": 7696,
      "##嘀": 7697,
      "##Ⰰ": 7698,
      "##☮": 7699,
      "##": 7700,
      "##像": 7701,
      "##计": 7702,
      "##其": 7703,
      "##数": 7704,
      "##😖": 7705,
      "##语": 7706,
      "##对": 7707,
      "##自": 7708,
      "##₽": 7709,
      "##韓": 7710,
      "##學": 7711,
      "##校": 7712,
      "##萍": 7713,
      "##环": 7714,
      "##境": 7715,
      "##设": 7716,
      "##齐": 7717,
      "##椒": 7718,
      "##使": 7719,
      "##料": 7720,
      "##": 7721,
      "##ث": 7722,
      "##פ": 7723,
      "##ם": 7724,
      "##🚀": 7725,
      "##회": 7726,
      "##": 7727,
      "##": 7728,
      "##": 7729,
      "##": 7730,
      "##": 7731,
      "##": 7732,
      "##😞": 7733,
      "##徒": 7734,
      "##歩": 7735,
      "##圏": 7736,
      "##繁": 7737,
      "##華": 7738,
      "##近": 7739,
      "##完": 7740,
      "##四": 7741,
      "##君": 7742,
      "##ẕ": 7743,
      "##🐃": 7744,
      "##🐄": 7745,
      "##🐮": 7746,
      "##🏹": 7747,
      "##": 7748,
      "##획": 7749,
      "##ɕ": 7750,
      "##🍒": 7751,
      "##舒": 7752,
      "##才": 7753,
      "##真": 7754,
      "##ฒ": 7755,
      "##番": 7756,
      "##組": 7757,
      "##聞": 7758,
      "##届": 7759,
      "##∧": 7760,
      "##菜": 7761,
      "##ὼ": 7762,
      "##정": 7763,
      "##热": 7764,
      "##ϋ": 7765,
      "##ῆ": 7766,
      "##粋": 7767,
      "##ヌ": 7768,
      "##Ḩ": 7769,
      "##仕": 7770,
      "##探": 7771,
      "##へ": 7772,
      "##ɧ": 7773,
      "##🎁": 7774,
      "##": 7775,
      "##": 7776,
      "##🐾": 7777,
      "##围": 7778,
      "##💝": 7779,
      "##営": 7780,
      "##業": 7781,
      "##坂": 7782,
      "##居": 7783,
      "##🍹": 7784,
      "##ソ": 7785,
      "##ᴠ": 7786,
      "##⏱": 7787,
      "##宜": 7788,
      "##Ą": 7789,
      "##🎊": 7790,
      "##菱": 7791,
      "##電": 7792,
      "##機": 7793,
      "##ナ": 7794,
      "##梅": 7795,
      "##掲": 7796,
      "##載": 7797,
      "##蔵": 7798,
      "##野": 7799,
      "##⏰": 7800,
      "##ฮ": 7801,
      "##ন": 7802,
      "##জ": 7803,
      "##ử": 7804,
      "##唐": 7805,
      "##偶": 7806,
      "##然": 7807,
      "##机": 7808,
      "##该": 7809,
      "##已": 7810,
      "##晚": 7811,
      "##һ": 7812,
      "##鄂": 7813,
      "##楞": 7814,
      "##⛳": 7815,
      "##있": 7816,
      "##ॅ": 7817,
      "##ड": 7818,
      "##ᴓ": 7819,
      "##Ù": 7820,
      "##䳥": 7821,
      "##ĭ": 7822,
      "##錸": 7823,
      "##ɨ": 7824,
      "##📅": 7825,
      "##ቶ": 7826,
      "##ታ": 7827,
      "##ት": 7828,
      "##Ж": 7829,
      "##": 7830,
      "##÷": 7831,
      "##Ē": 7832,
      "##庁": 7833,
      "##舎": 7834,
      "##≡": 7835,
      "##": 7836,
      "##۱": 7837,
      "##۷": 7838,
      "##🧟": 7839,
      "##宧": 7840,
      "##ੋ": 7841,
      "##ਟ": 7842,
      "##ਆ": 7843,
      "##ਂ": 7844,
      "##❌": 7845,
      "##役": 7846,
      "##割": 7847,
      "##演": 7848,
      "##技": 7849,
      "##": 7850,
      "##合": 7851,
      "##搏": 7852,
      "##斗": 7853,
      "##∙": 7854,
      "##🍋": 7855,
      "##Ð": 7856,
      "##宮": 7857,
      "##开": 7858,
      "##始": 7859,
      "##搜": 7860,
      "##索": 7861,
      "##介": 7862,
      "##就": 7863,
      "##🍞": 7864,
      "##🦋": 7865,
      "##🌾": 7866,
      "##🌊": 7867,
      "##": 7868,
      "##ু": 7869,
      "##停": 7870,
      "##车": 7871,
      "##干": 7872,
      "##净": 7873,
      "##̝": 7874,
      "##女": 7875,
      "##🍣": 7876,
      "##让": 7877,
      "##无": 7878,
      "##睡": 7879,
      "##习": 7880,
      "##游": 7881,
      "##般": 7882,
      "##消": 7883,
      "##啊": 7884,
      "##ĩ": 7885,
      "##裸": 7886,
      "##": 7887,
      "##ᐅ": 7888,
      "##✏": 7889,
      "##ߋ": 7890,
      "##油": 7891,
      "##տ": 7892,
      "##Ĺ": 7893,
      "##ў": 7894,
      "##ṃ": 7895,
      "##우": 7896,
      "##ێ": 7897,
      "##╠": 7898,
      "##খ": 7899,
      "##ব": 7900,
      "##😑": 7901,
      "##🇭": 7902,
      "##🐝": 7903,
      "##🐞": 7904,
      "##위": 7905,
      "##트": 7906,
      "##": 7907,
      "##量": 7908,
      "##異": 7909,
      "##代": 7910,
      "##表": 7911,
      "##来": 7912,
      "##说": 7913,
      "##成": 7914,
      "##没": 7915,
      "##昨": 7916,
      "##看": 7917,
      "##见": 7918,
      "##得": 7919,
      "##漂": 7920,
      "##后": 7921,
      "##朋": 7922,
      "##但": 7923,
      "##样": 7924,
      "##动": 7925,
      "##特": 7926,
      "##麋": 7927,
      "##鹿": 7928,
      "##里": 7929,
      "##照": 7930,
      "##片": 7931,
      "##你": 7932,
      "##去": 7933,
      "##候": 7934,
      "##桥": 7935,
      "##从": 7936,
      "##欢": 7937,
      "##迎": 7938,
      "##意": 7939,
      "##思": 7940,
      "##🗽": 7941,
      "##🇺": 7942,
      "##化": 7943,
      "##👄": 7944,
      "##綺": 7945,
      "##╤": 7946,
      "##ɤ": 7947,
      "##Ë": 7948,
      "##ह": 7949,
      "##示": 7950,
      "##板": 7951,
      "##⛄": 7952,
      "##敷": 7953,
      "##🧜": 7954,
      "##💡": 7955,
      "##➕": 7956,
      "##ғ": 7957,
      "##💟": 7958,
      "##📔": 7959,
      "##📖": 7960,
      "##ᄀ": 7961,
      "##😤": 7962,
      "##🙉": 7963,
      "##😹": 7964,
      "##💍": 7965,
      "##泊": 7966,
      "##🏃": 7967,
      "##釣": 7968,
      "##満": 7969,
      "##う": 7970,
      "##ए": 7971,
      "##": 7972,
      "##": 7973,
      "##": 7974,
      "##": 7975,
      "##兆": 7976,
      "##千": 7977,
      "##億": 7978,
      "##円": 7979,
      "##": 7980,
      "##春": 7981,
      "##婦": 7982,
      "##莫": 7983,
      "##墩": 7984,
      "##商": 7985,
      "##ノ": 7986,
      "##モ": 7987,
      "##ガ": 7988,
      "##Ạ": 7989,
      "##🤶": 7990,
      "##ȕ": 7991,
      "##ŷ": 7992,
      "##降": 7993,
      "##霊": 7994,
      "##術": 7995,
      "##師": 7996,
      "##ぼ": 7997,
      "##習": 7998,
      "##": 7999,
      "##輪": 8000,
      "##🐔": 8001,
      "##Ы": 8002,
      "##Ǩ": 8003,
      "##普": 8004,
      "##ḯ": 8005,
      "##栄": 8006,
      "##養": 8007,
      "##士": 8008,
      "##試": 8009,
      "##験": 8010,
      "##": 8011,
      "##": 8012,
      "##弓": 8013,
      "##什": 8014,
      "##么": 8015,
      "##👎": 8016,
      "##": 8017,
      "##լ": 8018,
      "##ֆ": 8019,
      "##կ": 8020,
      "##🇩": 8021,
      "##🇯": 8022,
      "##🔔": 8023,
      "##覆": 8024,
      "##盖": 8025,
      "##随": 8026,
      "##订": 8027,
      "##ந": 8028,
      "##்": 8029,
      "##த": 8030,
      "##ћ": 8031,
      "##济": 8032,
      "##🍌": 8033,
      "##🍏": 8034,
      "##🍐": 8035,
      "##🥑": 8036,
      "##🥝": 8037,
      "##❗": 8038,
      "##ˌ": 8039,
      "##ɐ": 8040,
      "##̯": 8041,
      "##ˀ": 8042,
      "##ổ": 8043,
      "##Ų": 8044,
      "##ű": 8045,
      "##🇰": 8046,
      "##無": 8047,
      "##물": 8048,
      "##화": 8049,
      "##": 8050,
      "##🔧": 8051,
      "##ْ": 8052,
      "##振": 8053,
      "##榮": 8054,
      "##✿": 8055,
      "##💉": 8056,
      "##汉": 8057,
      "##🐠": 8058,
      "##🍾": 8059,
      "##🎂": 8060,
      "##⛹": 8061,
      "##ጻ": 8062,
      "##ӕ": 8063,
      "##": 8064,
      "##ɜ": 8065,
      "##적": 8066,
      "##🥩": 8067,
      "##‧": 8068,
      "##ĕ": 8069,
      "##너": 8070,
      "##ट": 8071,
      "##郡": 8072,
      "##४": 8073,
      "##심": 8074,
      "##ܠ": 8075,
      "##ܗ": 8076,
      "##찮": 8077,
      "##고": 8078,
      "##李": 8079,
      "##亚": 8080,
      "##玲": 8081,
      "##留": 8082,
      "##🤍": 8083,
      "##奧": 8084,
      "##ŧ": 8085,
      "##🐻": 8086,
      "##😯": 8087,
      "##􌥽": 8088,
      "##": 8089,
      "##😠": 8090,
      "##🔩": 8091,
      "##": 8092,
      "##⚓": 8093,
      "##几": 8094,
      "##遇": 8095,
      "##ɉ": 8096,
      "##ሾ": 8097,
      "##ች": 8098,
      "##王": 8099,
      "##切": 8100,
      "##手": 8101,
      "##嵬": 8102,
      "##🔫": 8103,
      "##深": 8104,
      "##敬": 8105,
      "##❁": 8106,
      "##☕": 8107,
      "##幻": 8108,
      "##⤵": 8109,
      "##二": 8110,
      "##☹": 8111,
      "##": 8112,
      "##": 8113,
      "##⠭": 8114,
      "##ט": 8115,
      "##👯": 8116,
      "##❮": 8117,
      "##🤢": 8118,
      "##ど": 8119,
      "##雨": 8120,
      "##": 8121,
      "##財": 8122,
      "##靴": 8123,
      "##傘": 8124,
      "##ピ": 8125,
      "##色": 8126,
      "##": 8127,
      "##🥋": 8128,
      "##サ": 8129,
      "##舐": 8130,
      "##": 8131,
      "##ḿ": 8132,
      "##": 8133,
      "##ḱ": 8134,
      "##遊": 8135,
      "##인": 8136,
      "##터": 8137,
      "##학": 8138,
      "##원": 8139,
      "##": 8140,
      "##園": 8141,
      "##車": 8142,
      "##适": 8143,
      "##반": 8144,
      "##ү": 8145,
      "##急": 8146,
      "##遽": 8147,
      "##颅": 8148,
      "##💁": 8149,
      "##勒": 8150,
      "##宝": 8151,
      "##拉": 8152,
      "##変": 8153,
      "##態": 8154,
      "##부": 8155,
      "##🍬": 8156,
      "##💰": 8157,
      "##背": 8158,
      "##耳": 8159,
      "##☤": 8160,
      "##恩": 8161,
      "##🔆": 8162,
      "##̪": 8163,
      "##ɣ": 8164,
      "##😐": 8165,
      "##🛴": 8166,
      "##": 8167,
      "##": 8168,
      "##‟": 8169,
      "##彡": 8170,
      "##ण": 8171,
      "##": 8172,
      "##印": 8173,
      "##🎤": 8174,
      "##Њ": 8175,
      "##䴴": 8176,
      "##": 8177,
      "##🏵": 8178,
      "##ᚢ": 8179,
      "##ᚱ": 8180,
      "##ᚿ": 8181,
      "##᛬": 8182,
      "##ᛂ": 8183,
      "##ᛋ": 8184,
      "##ᛐ": 8185,
      "##ᛑ": 8186,
      "##ᚮ": 8187,
      "##ᛘ": 8188,
      "##ᛅ": 8189,
      "##ᚽ": 8190,
      "##प": 8191,
      "##😼": 8192,
      "##🇧": 8193,
      "##✩": 8194,
      "##ྒ": 8195,
      "##ེ": 8196,
      "##ར": 8197,
      "##ྩ": 8198,
      "##ྫ": 8199,
      "##ོ": 8200,
      "##ང": 8201,
      "##五": 8202,
      "##甲": 8203,
      "##佑": 8204,
      "##灣": 8205,
      "##栋": 8206,
      "##楼": 8207,
      "##老": 8208,
      "##교": 8209,
      "##悪": 8210,
      "##魔": 8211,
      "##ʏ": 8212,
      "##ɦ": 8213,
      "##実": 8214,
      "##↞": 8215,
      "##话": 8216,
      "##➦": 8217,
      "##": 8218,
      "##": 8219,
      "##쓸": 8220,
      "##Є": 8221,
      "##至": 8222,
      "##➤": 8223,
      "##帰": 8224,
      "##温": 8225,
      "##追": 8226,
      "##悼": 8227,
      "##催": 8228,
      "##遣": 8229,
      "##ွ": 8230,
      "##န": 8231,
      "##လ": 8232,
      "##ိ": 8233,
      "##ု": 8234,
      "##င": 8235,
      "##း": 8236,
      "##ဆ": 8237,
      "##ီ": 8238,
      "##ဒ": 8239,
      "##ေ": 8240,
      "##့": 8241,
      "##ဲ": 8242,
      "##̊": 8243,
      "##🙅": 8244,
      "##∑": 8245,
      "##🦎": 8246,
      "##Ǭ": 8247,
      "##堧": 8248,
      "##票": 8249,
      "##议": 8250,
      "##廊": 8251,
      "##▫": 8252,
      "##워": 8253,
      "##ʔ": 8254,
      "##ʕ": 8255,
      "##닛": 8256,
      "##Ḥ": 8257,
      "##ẗ": 8258,
      "##半": 8259,
      "##露": 8260,
      "##ポ": 8261,
      "##集": 8262,
      "##飲": 8263,
      "##備": 8264,
      "##ይ": 8265,
      "##炉": 8266,
      "##裏": 8267,
      "##端": 8268,
      "##炭": 8269,
      "##↗": 8270,
      "##👉": 8271,
      "##电": 8272,
      "##": 8273,
      "##ு": 8274,
      "##": 8275,
      "##网": 8276,
      "##🌛": 8277,
      "##": 8278,
      "##Ā": 8279,
      "##☃": 8280,
      "##ṁ": 8281,
      "##孝": 8282,
      "##ケ": 8283,
      "##ぬ": 8284,
      "##告": 8285,
      "##": 8286,
      "##舖": 8287,
      "##🐷": 8288,
      "##鷺": 8289,
      "##ギ": 8290,
      "##റ": 8291,
      "##്": 8292,
      "##ൊ": 8293,
      "##ര": 8294,
      "##ു": 8295,
      "##ৌ": 8296,
      "##স": 8297,
      "##ম": 8298,
      "##ী": 8299,
      "##乘": 8300,
      "##鋞": 8301,
      "##◢": 8302,
      "##Ɵ": 8303,
      "##羲": 8304,
      "##洁": 8305,
      "##藩": 8306,
      "##세": 8307,
      "##🐎": 8308,
      "##九": 8309,
      "##測": 8310,
      "##版": 8311,
      "##๊": 8312,
      "##ਥ": 8313,
      "##ੇ": 8314,
      "##ᚦ": 8315,
      "##🔴": 8316,
      "##⚪": 8317,
      "##용": 8318,
      "##를": 8319,
      "##上": 8320,
      "##据": 8321,
      "##线": 8322,
      "##毛": 8323,
      "##チ": 8324,
      "##グ": 8325,
      "##➥": 8326,
      "##吉": 8327,
      "##🎧": 8328,
      "##🎼": 8329,
      "##송": 8330,
      "##편": 8331,
      "##効": 8332,
      "##率": 8333,
      "##ಠ": 8334,
      "##予": 8335,
      "##編": 8336,
      "##ರ": 8337,
      "##ೃ": 8338,
      "##슐": 8339,
      "##幕": 8340,
      "##張": 8341,
      "##🤒": 8342,
      "##🌉": 8343,
      "##ז": 8344,
      "##跟": 8345,
      "##貼": 8346,
      "##預": 8347,
      "##訂": 8348,
      "##慶": 8349,
      "##資": 8350,
      "##員": 8351,
      "##認": 8352,
      "##處": 8353,
      "##給": 8354,
      "##們": 8355,
      "##驚": 8356,
      "##讓": 8357,
      "##精": 8358,
      "##緻": 8359,
      "##尤": 8360,
      "##猴": 8361,
      "##頭": 8362,
      "##菇": 8363,
      "##再": 8364,
      "##顧": 8365,
      "##原": 8366,
      "##因": 8367,
      "##謝": 8368,
      "##鈺": 8369,
      "##善": 8370,
      "##閣": 8371,
      "##ẓ": 8372,
      "##ܤ": 8373,
      "##": 8374,
      "##着": 8375,
      "##🏂": 8376,
      "##": 8377,
      "##规": 8378,
      "##模": 8379,
      "##🍽": 8380,
      "##郎": 8381,
      "##賂": 8382,
      "##": 8383,
      "##朗": 8384,
      "##ự": 8385,
      "##烤": 8386,
      "##鸭": 8387,
      "##": 8388,
      "##😦": 8389,
      "##邪": 8390,
      "##江": 8391,
      "##紗": 8392,
      "##綾": 8393,
      "##༾": 8394,
      "##📸": 8395,
      "##🎡": 8396,
      "##🎠": 8397,
      "##🎢": 8398,
      "##象": 8399,
      "##静": 8400,
      "##雁": 8401,
      "##鋘": 8402,
      "##揚": 8403,
      "##げ": 8404,
      "##": 8405,
      "##薫": 8406,
      "##": 8407,
      "##👿": 8408,
      "##Υ": 8409,
      "##약": 8410,
      "##农": 8411,
      "##场": 8412,
      "##✍": 8413,
      "##ヒ": 8414,
      "##紅": 8415,
      "##よ": 8416,
      "##♤": 8417,
      "##ฎ": 8418,
      "##ฤ": 8419,
      "##♉": 8420,
      "##♎": 8421,
      "##📚": 8422,
      "##혀": 8423,
      "##䈀": 8424,
      "##☂": 8425,
      "##🦠": 8426,
      "##⎿": 8427,
      "##💅": 8428,
      "##": 8429,
      "##宫": 8430,
      "##乱": 8431,
      "##역": 8432,
      "##決": 8433,
      "##🍓": 8434,
      "##🧁": 8435,
      "##👮": 8436,
      "##🤬": 8437,
      "##毯": 8438,
      "##의": 8439,
      "##Ō": 8440,
      "##൯": 8441,
      "##藤": 8442,
      "##岭": 8443,
      "##을": 8444,
      "##🏖": 8445,
      "##": 8446,
      "##😶": 8447,
      "##ằ": 8448,
      "##١": 8449,
      "##👀": 8450,
      "##戲": 8451,
      "##曲": 8452,
      "##昔": 8453,
      "##ሒ": 8454,
      "##ḍ": 8455,
      "##🖕": 8456,
      "##ⵍ": 8457,
      "##ⵣ": 8458,
      "##ⴰ": 8459,
      "##ⵢ": 8460,
      "##ⴻ": 8461,
      "##ⵔ": 8462,
      "##舩": 8463,
      "##🎹": 8464,
      "##ʒ": 8465,
      "##ɚ": 8466,
      "##ἐ": 8467,
      "##픽": 8468,
      "##으": 8469,
      "##초": 8470,
      "##︎": 8471,
      "##右": 8472,
      "##側": 8473,
      "##步": 8474,
      "##": 8475,
      "##": 8476,
      "##脑": 8477,
      "##▻": 8478,
      "##􌦂": 8479,
      "##ָ": 8480,
      "##ダ": 8481,
      "##💭": 8482,
      "##珊": 8483,
      "##装": 8484,
      "##գ": 8485,
      "##翻": 8486,
      "##译": 8487,
      "##ฟ": 8488,
      "##": 8489,
      "##救": 8490,
      "##指": 8491,
      "##令": 8492,
      "##⁩": 8493,
      "##両": 8494,
      "##班": 8495,
      "##抮": 8496,
      "##ฉ": 8497,
      "##软": 8498,
      "##🥧": 8499,
      "##🍪": 8500,
      "##": 8501,
      "##": 8502,
      "##权": 8503,
      "##协": 8504,
      "##条": 8505,
      "##ृ": 8506,
      "##": 8507,
      "##圳": 8508,
      "##萬": 8509,
      "##支": 8510,
      "##持": 8511,
      "##😟": 8512,
      "##死": 8513,
      "##岢": 8514,
      "##☛": 8515,
      "##小": 8516,
      "##̲": 8517,
      "##🍅": 8518,
      "##字": 8519,
      "##叫": 8520,
      "##金": 8521,
      "##广": 8522,
      "##색": 8523,
      "##卡": 8524,
      "##孫": 8525,
      "##临": 8526,
      "##筝": 8527,
      "##绣": 8528,
      "##ἅ": 8529,
      "##饰": 8530,
      "##􌦉": 8531,
      "##🗻": 8532,
      "##✰": 8533,
      "##爾": 8534,
      "##貝": 8535,
      "##": 8536,
      "##": 8537,
      "##": 8538,
      "##": 8539,
      "##": 8540,
      "##♻": 8541,
      "##🚨": 8542,
      "##🌱": 8543,
      "##◕": 8544,
      "##ᴗ": 8545,
      "##禮": 8546,
      "##問": 8547,
      "##ં": 8548,
      "##ગ": 8549,
      "##ળ": 8550,
      "##つ": 8551,
      "##ध": 8552,
      "##🚗": 8553,
      "##ὰ": 8554,
      "##∇": 8555,
      "##운": 8556,
      "##산": 8557,
      "##広": 8558,
      "##": 8559,
      "##😈": 8560,
      "##则": 8561,
      "##や": 8562,
      "##界": 8563,
      "##ḩ": 8564,
      "##启": 8565,
      "##铭": 8566,
      "##되": 8567,
      "##加": 8568,
      "##護": 8569,
      "##絵": 8570,
      "##ớ": 8571,
      "##△": 8572,
      "##Ï": 8573,
      "##‣": 8574,
      "##📺": 8575,
      "##ላ": 8576,
      "##ቸ": 8577,
      "##զ": 8578,
      "##ȝ": 8579,
      "##楽": 8580,
      "##む": 8581,
      "##": 8582,
      "##☝": 8583,
      "##Ξ": 8584,
      "##⦡": 8585,
      "##力": 8586,
      "##": 8587,
      "##ਖ": 8588,
      "##ਲ": 8589,
      "##鋖": 8590,
      "##畫": 8591,
      "##입": 8592,
      "##🐈": 8593,
      "##槽": 8594,
      "##嘉": 8595,
      "##廉": 8596,
      "##稱": 8597,
      "##錿": 8598,
      "##🛡": 8599,
      "##🗡": 8600,
      "##曉": 8601,
      "##霞": 8602,
      "##専": 8603,
      "##魅": 8604,
      "##̴": 8605,
      "##☒": 8606,
      "##🍛": 8607,
      "##🍜": 8608,
      "##ǿ": 8609,
      "##쐀": 8610,
      "##": 8611,
      "##ậ": 8612,
      "##ო": 8613,
      "##ც": 8614,
      "##": 8615,
      "##ߢ": 8616,
      "##豆": 8617,
      "##稲": 8618,
      "##取": 8619,
      "##👅": 8620,
      "##🍆": 8621,
      "##̃": 8622,
      "##流": 8623,
      "##Đ": 8624,
      "##ẽ": 8625,
      "##🚾": 8626,
      "##☢": 8627,
      "##😽": 8628,
      "##任": 8629,
      "##湖": 8630,
      "##🌶": 8631,
      "##ワ": 8632,
      "##些": 8633,
      "##鸟": 8634,
      "##谁": 8635,
      "##啥": 8636,
      "##懂": 8637,
      "##飾": 8638,
      "##🚂": 8639,
      "##": 8640,
      "##च": 8641,
      "##؟": 8642,
      "##ῷ": 8643,
      "##尼": 8644,
      "##园": 8645,
      "##接": 8646,
      "##送": 8647,
      "##连": 8648,
      "##ன": 8649,
      "##ற": 8650,
      "##ḑ": 8651,
      "##💨": 8652,
      "##🤖": 8653,
      "##􏰂": 8654,
      "##ἴ": 8655,
      "##🌈": 8656,
      "##ǥ": 8657,
      "##ċ": 8658,
      "##것": 8659,
      "##श": 8660,
      "##": 8661,
      "##⊂": 8662,
      "##Ħ": 8663,
      "##夹": 8664,
      "##郷": 8665,
      "##앤": 8666,
      "##씨": 8667,
      "##파": 8668,
      "##ʀ": 8669,
      "##港": 8670,
      "##": 8671,
      "##迟": 8672,
      "##早": 8673,
      "##爆": 8674,
      "##炸": 8675,
      "##☚": 8676,
      "##🇴": 8677,
      "##⟶": 8678,
      "##ਨ": 8679,
      "##ੁ": 8680,
      "##ਸ": 8681,
      "##ਣ": 8682,
      "##裂": 8683,
      "##婚": 8684,
      "##圖": 8685,
      "##樣": 8686,
      "##呈": 8687,
      "##現": 8688,
      "##危": 8689,
      "##险": 8690,
      "##馆": 8691,
      "##❊": 8692,
      "##개": 8693,
      "##천": 8694,
      "##☠": 8695,
      "##◊": 8696,
      "##ṯ": 8697,
      "##終": 8698,
      "##ゥ": 8699,
      "##Ř": 8700,
      "##😨": 8701,
      "##օ": 8702,
      "##ɻ": 8703,
      "##ֳ": 8704,
      "##ḫ": 8705,
      "##🇿": 8706,
      "##詹": 8707,
      "##皇": 8708,
      "##🤠": 8709,
      "##⚒": 8710,
      "##利": 8711,
      "##䲫": 8712,
      "##": 8713,
      "##北": 8714,
      "##铁": 8715,
      "##ɬ": 8716,
      "##纸": 8717,
      "##💢": 8718,
      "##⚫": 8719,
      "##宠": 8720,
      "##": 8721,
      "##紫": 8722,
      "##🤛": 8723,
      "##末": 8724,
      "##受": 8725,
      "##给": 8726,
      "##由": 8727,
      "##种": 8728,
      "##派": 8729,
      "##魯": 8730,
      "##🥊": 8731,
      "##": 8732,
      "##⇓": 8733,
      "##各": 8734,
      "##宾": 8735,
      "##栈": 8736,
      "##舍": 8737,
      "##等": 8738,
      "##形": 8739,
      "##选": 8740,
      "##副": 8741,
      "##總": 8742,
      "##統": 8743,
      "##貴": 8744,
      "##賓": 8745,
      "##狗": 8746,
      "##嗎": 8747,
      "##憶": 8748,
      "##體": 8749,
      "##ង": 8750,
      "##់": 8751,
      "##ប": 8752,
      "##ា": 8753,
      "##ន": 8754,
      "##ល": 8755,
      "##្": 8756,
      "##ី": 8757,
      "##ទ": 8758,
      "##ត": 8759,
      "##ែ": 8760,
      "##អ": 8761,
      "##ញ": 8762,
      "##ច": 8763,
      "##ឹ": 8764,
      "##통": 8765,
      "##령": 8766,
      "##ለ": 8767,
      "##በ": 8768,
      "##総": 8769,
      "##ᚾ": 8770,
      "##ờ": 8771,
      "##͡": 8772,
      "##岗": 8773,
      "##♔": 8774,
      "##Ȣ": 8775,
      "##對": 8776,
      "##ฝ": 8777,
      "##🥶": 8778,
      "##呢": 8779,
      "##宽": 8780,
      "##敞": 8781,
      "##आ": 8782,
      "##ヴ": 8783,
      "##デ": 8784,
      "##👣": 8785,
      "##👠": 8786,
      "##̆": 8787,
      "##₩": 8788,
      "##浦": 8789,
      "##碟": 8790,
      "##ゆ": 8791,
      "##🏢": 8792,
      "##↙": 8793,
      "##🏞": 8794,
      "##私": 8795,
      "##ハ": 8796,
      "##緒": 8797,
      "##配": 8798,
      "##願": 8799,
      "##ベ": 8800,
      "##待": 8801,
      "##": 8802,
      "##른": 8803,
      "##바": 8804,
      "##자": 8805,
      "##름": 8806,
      "##답": 8807,
      "##◠": 8808,
      "##☁": 8809,
      "##🐟": 8810,
      "##帽": 8811,
      "##👼": 8812,
      "##致": 8813,
      "##极": 8814,
      "##气": 8815,
      "##息": 8816,
      "##̵": 8817,
      "##🚐": 8818,
      "##䲬": 8819,
      "##∞": 8820,
      "##术": 8821,
      "##피": 8822,
      "##카": 8823,
      "##": 8824,
      "##ḗ": 8825,
      "##": 8826,
      "##ნ": 8827,
      "##ხ": 8828,
      "##ვ": 8829,
      "##브": 8830,
      "##別": 8831,
      "##들": 8832,
      "##었": 8833,
      "##傷": 8834,
      "##끼": 8835,
      "##図": 8836,
      "##書": 8837,
      "##館": 8838,
      "##轻": 8839,
      "##镜": 8840,
      "##鰏": 8841,
      "##까": 8842,
      "##🥙": 8843,
      "##💇": 8844,
      "##證": 8845,
      "##質": 8846,
      "##咖": 8847,
      "##啡": 8848,
      "##烘": 8849,
      "##ษ": 8850,
      "##ư": 8851,
      "##旧": 8852,
      "##峰": 8853,
      "##灘": 8854,
      "##ம": 8855,
      "##ழ": 8856,
      "##": 8857,
      "##℗": 8858,
      "##琴": 8859,
      "##🍲": 8860,
      "##🐍": 8861,
      "##⥬": 8862,
      "##ȧ": 8863,
      "##復": 8864,
      "##簡": 8865,
      "##局": 8866,
      "##😰": 8867,
      "##基": 8868,
      "##科": 8869,
      "##爱": 8870,
      "##座": 8871,
      "##试": 8872,
      "##星": 8873,
      "##期": 8874,
      "##调": 8875,
      "##查": 8876,
      "##它": 8877,
      "##长": 8878,
      "##奇": 8879,
      "##🍄": 8880,
      "##ጢ": 8881,
      "##ẖ": 8882,
      "##": 8883,
      "##🎻": 8884,
      "##퍼": 8885,
      "##엠": 8886,
      "##驎": 8887,
      "##ΐ": 8888,
      "##吧": 8889,
      "##面": 8890,
      "##覧": 8891,
      "##❥": 8892,
      "##ぽ": 8893,
      "##చ": 8894,
      "##్": 8895,
      "##ా": 8896,
      "##ప": 8897,
      "##ు": 8898,
      "##ర": 8899,
      "##ం": 8900,
      "##泰": 8901,
      "##梦": 8902,
      "##元": 8903,
      "##暢": 8904,
      "##Ḇ": 8905,
      "##ḙ": 8906,
      "##": 8907,
      "##ር": 8908,
      "##ኛ": 8909,
      "##Ἐ": 8910,
      "##̷": 8911,
      "##͈": 8912,
      "##⁎": 8913,
      "##꒱": 8914,
      "##໊": 8915,
      "##🎨": 8916,
      "##ष": 8917,
      "##祥": 8918,
      "##醫": 8919,
      "##院": 8920,
      "##🖌": 8921,
      "##蕎": 8922,
      "##麦": 8923,
      "##べ": 8924,
      "##": 8925,
      "##ȫ": 8926,
      "##範": 8927,
      "##枞": 8928,
      "##ؤ": 8929,
      "##佛": 8930,
      "##⁡": 8931,
      "##畅": 8932,
      "##魚": 8933,
      "##ĝ": 8934,
      "##虎": 8935,
      "##峡": 8936,
      "##🧦": 8937,
      "##উ": 8938,
      "##ক": 8939,
      "##◼": 8940,
      "##": 8941,
      "##": 8942,
      "##": 8943,
      "##Ъ": 8944,
      "##آ": 8945,
      "##": 8946,
      "##임": 8947,
      "##Ŋ": 8948,
      "##벨": 8949,
      "##벳": 8950,
      "##琵": 8951,
      "##抣": 8952,
      "##▶": 8953,
      "##": 8954,
      "##љ": 8955,
      "##琶": 8956,
      "##离": 8957,
      "##唯": 8958,
      "##论": 8959,
      "##坛": 8960,
      "##雀": 8961,
      "##区": 8962,
      "##氣": 8963,
      "##製": 8964,
      "##😾": 8965,
      "##修": 8966,
      "##": 8967,
      "##徐": 8968,
      "##종": 8969,
      "##": 8970,
      "##": 8971,
      "##ŝ": 8972,
      "##싸": 8973,
      "##": 8974,
      "##": 8975,
      "##◌": 8976,
      "##": 8977,
      "##土": 8978,
      "##遗": 8979,
      "##址": 8980,
      "##": 8981,
      "##◎": 8982,
      "##茅": 8983,
      "##창": 8984,
      "##군": 8985,
      "##玛": 8986,
      "##輝": 8987,
      "##彦": 8988,
      "##Ĕ": 8989,
      "##議": 8990,
      "##ֿ": 8991,
      "##━": 8992,
      "##隍": 8993,
      "##約": 8994,
      "##線": 8995,
      "##ᛇ": 8996,
      "##ᛏ": 8997,
      "##ᚨ": 8998,
      "##漢": 8999,
      "##ủ": 9000,
      "##⛺": 9001,
      "##尊": 9002,
      "##攘": 9003,
      "##夷": 9004,
      "##角": 9005,
      "##": 9006,
      "##毘": 9007,
      "##沙": 9008,
      "##▷": 9009,
      "##ۆ": 9010,
      "##만": 9011,
      "##顿": 9012,
      "##解": 9013,
      "##👦": 9014,
      "##👱": 9015,
      "##🚍": 9016,
      "##": 9017,
      "##Ԁ": 9018,
      "##❞": 9019,
      "##证": 9020,
      "##ץ": 9021,
      "##👹": 9022,
      "##қ": 9023,
      "##錶": 9024,
      "##教": 9025,
      "##狂": 9026,
      "##聊": 9027,
      "##灌": 9028,
      "##预": 9029,
      "##优": 9030,
      "##雅": 9031,
      "##南": 9032,
      "##苑": 9033,
      "##⚜": 9034,
      "##식": 9035,
      "##ಥ": 9036,
      "##硬": 9037,
      "##廠": 9038,
      "##🍟": 9039,
      "##🍘": 9040,
      "##隆": 9041,
      "##坡": 9042,
      "##ི": 9043,
      "##ཁ": 9044,
      "##ལ": 9045,
      "##👡": 9046,
      "##羅": 9047,
      "##堡": 9048,
      "##卫": 9049,
      "##윤": 9050,
      "##🍈": 9051,
      "##筑": 9052,
      "##往": 9053,
      "##ষ": 9054,
      "##র": 9055,
      "##্": 9056,
      "##ـ": 9057,
      "##〰": 9058,
      "##": 9059,
      "##₝": 9060,
      "##번": 9061,
      "##ῦ": 9062,
      "##": 9063,
      "##": 9064,
      "##": 9065,
      "##作": 9066,
      "##苏": 9067,
      "##🌕": 9068,
      "##主": 9069,
      "##嘈": 9070,
      "##杂": 9071,
      "##🇬": 9072,
      "##ᛞ": 9073,
      "##ᚺ": 9074,
      "##দ": 9075,
      "##শ": 9076,
      "##ỷ": 9077,
      "##敵": 9078,
      "##합": 9079,
      "##": 9080,
      "##頠": 9081,
      "##🤜": 9082,
      "##ֹ": 9083,
      "##葉": 9084,
      "##Ģ": 9085,
      "##叔": 9086,
      "##显": 9087,
      "##📢": 9088,
      "##撫": 9089,
      "##順": 9090,
      "##犯": 9091,
      "##🖖": 9092,
      "##🌇": 9093,
      "##۞": 9094,
      "##見": 9095,
      "##∆": 9096,
      "##借": 9097,
      "##络": 9098,
      "##识": 9099,
      "##鲍": 9100,
      "##迪": 9101,
      "##何": 9102,
      "##或": 9103,
      "##领": 9104,
      "##域": 9105,
      "##质": 9106,
      "##靠": 9107,
      "##且": 9108,
      "##📦": 9109,
      "##児": 9110,
      "##살": 9111,
      "##펴": 9112,
      "##投": 9113,
      "##稿": 9114,
      "##🍉": 9115,
      "##ợ": 9116,
      "##६": 9117,
      "##९": 9118,
      "##해": 9119,
      "##😿": 9120,
      "##Ό": 9121,
      "##✂": 9122,
      "##🧵": 9123,
      "##‛": 9124,
      "##": 9125,
      "##😪": 9126,
      "##🧨": 9127,
      "##🔈": 9128,
      "##听": 9129,
      "##凍": 9130,
      "##冷": 9131,
      "##藏": 9132,
      "##冰": 9133,
      "##箱": 9134,
      "##ỹ": 9135,
      "##骚": 9136,
      "##达": 9137,
      "##価": 9138,
      "##ʉ": 9139,
      "##": 9140,
      "##低": 9141,
      "##🤯": 9142,
      "##🦌": 9143,
      "##䳮": 9144,
      "##ֵ": 9145,
      "##먼": 9146,
      "##래": 9147,
      "##모": 9148,
      "##음": 9149,
      "##武": 9150,
      "##媚": 9151,
      "##娘": 9152,
      "##传": 9153,
      "##🏅": 9154,
      "##֍": 9155,
      "##粵": 9156,
      "##구": 9157,
      "##🧸": 9158,
      "##크": 9159,
      "##": 9160,
      "##ʇ": 9161,
      "##⏋": 9162,
      "##‪": 9163,
      "##鰒": 9164,
      "##🎪": 9165,
      "##逃": 9166,
      "##起": 9167,
      "##直": 9168,
      "##亡": 9169,
      "##🏓": 9170,
      "##视": 9171,
      "##⛷": 9172,
      "##聽": 9173,
      "##写": 9174,
      "##⛱": 9175,
      "##援": 9176,
      "##え": 9177,
      "##沢": 9178,
      "##進": 9179,
      "##ģ": 9180,
      "##ᥱ": 9181,
      "##鍵": 9182,
      "##막": 9183,
      "##걸": 9184,
      "##🏎": 9185,
      "##丹": 9186,
      "##희": 9187,
      "##庙": 9188,
      "##灰": 9189,
      "##升": 9190,
      "##話": 9191,
      "##声": 9192,
      "##ப": 9193,
      "##ர": 9194,
      "##ா": 9195,
      "##ச": 9196,
      "##ূ": 9197,
      "##া": 9198,
      "##력": 9199,
      "##ך": 9200,
      "##互": 9201,
      "##联": 9202,
      "##购": 9203,
      "##器": 9204,
      "##": 9205,
      "##Ķ": 9206,
      "##🤫": 9207,
      "##민": 9208,
      "##共": 9209,
      "##承": 9210,
      "##晩": 9211,
      "##泡": 9212,
      "##沫": 9213,
      "##剑": 9214,
      "##岩": 9215,
      "##🎃": 9216,
      "##׃": 9217,
      "##🔛": 9218,
      "##🔜": 9219,
      "##雄": 9220,
      "##ŵ": 9221,
      "##翌": 9222,
      "##参": 9223,
      "##厚": 9224,
      "##委": 9225,
      "##党": 9226,
      "##根": 9227,
      "##禁": 9228,
      "##錮": 9229,
      "##発": 9230,
      "##远": 9231,
      "##福": 9232,
      "##👰": 9233,
      "##🤵": 9234,
      "##刚": 9235,
      "##妈": 9236,
      "##怎": 9237,
      "##🕶": 9238,
      "##ὸ": 9239,
      "##👽": 9240,
      "##🍳": 9241,
      "##憲": 9242,
      "##姫": 9243,
      "##划": 9244,
      "##算": 9245,
      "##⇣": 9246,
      "##": 9247,
      "##🤕": 9248,
      "##🐰": 9249,
      "##촌": 9250,
      "##🌮": 9251,
      "##🍿": 9252,
      "##🛏": 9253,
      "##🌜": 9254,
      "##史": 9255,
      "##怀": 9256,
      "##孕": 9257,
      "##螺": 9258,
      "##柱": 9259,
      "##驹": 9260,
      "##麻": 9261,
      "##晶": 9262,
      "##": 9263,
      "##仅": 9264,
      "##坚": 9265,
      "##决": 9266,
      "##反": 9267,
      "##延": 9268,
      "##冻": 9269,
      "##矩": 9270,
      "##렸": 9271,
      "##진": 9272,
      "##博": 9273,
      "##Ę": 9274,
      "##마": 9275,
      "##竜": 9276,
      "##재": 9277,
      "##건": 9278,
      "##ը": 9279,
      "##골": 9280,
      "##ỉ": 9281,
      "##ડ": 9282,
      "##ી": 9283,
      "##ય": 9284,
      "##ા": 9285,
      "##દ": 9286,
      "##詞": 9287,
      "##ἷ": 9288,
      "##": 9289,
      "##": 9290,
      "##": 9291,
      "##": 9292,
      "##": 9293,
      "##전": 9294,
      "##🔍": 9295,
      "##\u0000": 9296,
      "##": 9297,
      "##ϊ": 9298,
      "##剣": 9299,
      "##👐": 9300,
      "##男": 9301,
      "##趣": 9302,
      "##ҷ": 9303,
      "##树": 9304,
      "##治": 9305,
      "##ӯ": 9306,
      "##오": 9307,
      "##埕": 9308,
      "##溪": 9309,
      "##库": 9310,
      "##۴": 9311,
      "##": 9312,
      "##": 9313,
      "##": 9314,
      "##": 9315,
      "##鋜": 9316,
      "##調": 9317,
      "##熱": 9318,
      "##換": 9319,
      "##販": 9320,
      "##促": 9321,
      "##迦": 9322,
      "##麟": 9323,
      "##각": 9324,
      "##ฐ": 9325,
      "##值": 9326,
      "##Џ": 9327,
      "##": 9328,
      "##": 9329,
      "##粽": 9330,
      "##험": 9331,
      "##隔": 9332,
      "##效": 9333,
      "##👙": 9334,
      "##བ": 9335,
      "##ད": 9336,
      "##ཡ": 9337,
      "##门": 9338,
      "##違": 9339,
      "##清": 9340,
      "##치": 9341,
      "##": 9342,
      "##喝": 9343,
      "##🏍": 9344,
      "##♂": 9345,
      "##": 9346,
      "##墙": 9347,
      "##壁": 9348,
      "##红": 9349,
      "##👭": 9350,
      "##黒": 9351,
      "##豹": 9352,
      "##వ": 9353,
      "##ి": 9354,
      "##భ": 9355,
      "##గ": 9356,
      "##🌝": 9357,
      "##˅": 9358,
      "##腾": 9359,
      "##讯": 9360,
      "##歌": 9361,
      "##首": 9362,
      "##词": 9363,
      "##铃": 9364,
      "##载": 9365,
      "##": 9366,
      "##✞": 9367,
      "##🏄": 9368,
      "##添": 9369,
      "##練": 9370,
      "##इ": 9371,
      "##": 9372,
      "##宅": 9373,
      "##ˇ": 9374,
      "##": 9375,
      "##": 9376,
      "##￼": 9377,
      "##厂": 9378,
      "##շ": 9379,
      "##": 9380,
      "##": 9381,
      "##옥": 9382,
      "##": 9383,
      "##壟": 9384,
      "##ɒ": 9385,
      "##ὁ": 9386,
      "##痰": 9387,
      "##戶": 9388,
      "##關": 9389,
      "##經": 9390,
      "##요": 9391,
      "##鰀": 9392,
      "##ˊ": 9393,
      "##阅": 9394,
      "##读": 9395,
      "##녀": 9396,
      "##晓": 9397,
      "##戸": 9398,
      "##근": 9399,
      "##혜": 9400,
      "##ʤ": 9401,
      "##հ": 9402,
      "##방": 9403,
      "##Ễ": 9404,
      "##∴": 9405,
      "##ැ": 9406,
      "##🎷": 9407,
      "##್": 9408,
      "##ಷ": 9409,
      "##ಗ": 9410,
      "##ಳ": 9411,
      "##協": 9412,
      "##👸": 9413,
      "##ʋ": 9414,
      "##🌅": 9415,
      "##わ": 9416,
      "##親": 9417,
      "##🛌": 9418,
      "##環": 9419,
      "##抜": 9420,
      "##복": 9421,
      "##伝": 9422,
      "##説": 9423,
      "##🐘": 9424,
      "##庄": 9425,
      "##उ": 9426,
      "##भ": 9427,
      "##奖": 9428,
      "##🌰": 9429,
      "##週": 9430,
      "##曜": 9431,
      "##윗": 9432,
      "##청": 9433,
      "##🔌": 9434,
      "##🔋": 9435,
      "##充": 9436,
      "##请": 9437,
      "##码": 9438,
      "##阁": 9439,
      "##眺": 9440,
      "##ὲ": 9441,
      "##": 9442,
      "##": 9443,
      "##触": 9444,
      "##按": 9445,
      "##键": 9446,
      "##容": 9447,
      "##征": 9448,
      "##裡": 9449,
      "##둔": 9450,
      "##☽": 9451,
      "##散": 9452,
      "##剂": 9453,
      "##记": 9454,
      "##": 9455,
      "##牙": 9456,
      "##煙": 9457,
      "##鋕": 9458,
      "##७": 9459,
      "##३": 9460,
      "##ধ": 9461,
      "##": 9462,
      "##ণ": 9463,
      "##ট": 9464,
      "##瓶": 9465,
      "##粤": 9466,
      "##韶": 9467,
      "##˗": 9468,
      "##ˏ": 9469,
      "##胎": 9470,
      "##🍊": 9471,
      "##◻": 9472,
      "##勢": 9473,
      "##격": 9474,
      "##礼": 9475,
      "##貌": 9476,
      "##均": 9477,
      "##改": 9478,
      "##🐯": 9479,
      "##贴": 9480,
      "##공": 9481,
      "##ფ": 9482,
      "##შ": 9483,
      "##⚘": 9484,
      "##ܪ": 9485,
      "##": 9486,
      "##亲": 9487,
      "##医": 9488,
      "##📘": 9489,
      "##⛪": 9490,
      "##✴": 9491,
      "##실": 9492,
      "##『": 9493,
      "##俺": 9494,
      "##䲡": 9495,
      "##": 9496,
      "##夏": 9497,
      "##थ": 9498,
      "##䣫": 9499,
      "##": 9500,
      "##ছ": 9501,
      "##锦": 9502,
      "##丁": 9503,
      "##快": 9504,
      "##捷": 9505,
      "##∘": 9506,
      "##ߛ": 9507,
      "##๋": 9508,
      "##䥴": 9509,
      "##Э": 9510,
      "##宋": 9511,
      "##级": 9512,
      "##왔": 9513,
      "##설": 9514,
      "##": 9515,
      "##안": 9516,
      "##": 9517,
      "##吃": 9518,
      "##播": 9519,
      "##ฬ": 9520,
      "##친": 9521,
      "##켓": 9522,
      "##妹": 9523,
      "##Ż": 9524,
      "##拯": 9525,
      "##她": 9526,
      "##询": 9527,
      "##问": 9528,
      "##望": 9529,
      "##汽": 9530,
      "##钟": 9531,
      "##抵": 9532,
      "##强": 9533,
      "##烈": 9534,
      "##올": 9535,
      "##✽": 9536,
      "##裤": 9537,
      "##衩": 9538,
      "##려": 9539,
      "##🤸": 9540,
      "##랑": 9541,
      "##김": 9542,
      "##雲": 9543,
      "##월": 9544,
      "##": 9545,
      "##": 9546,
      "##咸": 9547,
      "##適": 9548,
      "##歷": 9549,
      "##久": 9550,
      "##彌": 9551,
      "##扩": 9552,
      "##展": 9553,
      "##滚": 9554,
      "##书": 9555,
      "##衆": 9556,
      "##哦": 9557,
      "##둑": 9558,
      "##傅": 9559,
      "##칸": 9560,
      "##ʐ": 9561,
      "##ᥙ": 9562,
      "##䘀": 9563,
      "##ɗ": 9564,
      "##碗": 9565,
      "##省": 9566,
      "##ף": 9567,
      "##ҫ": 9568,
      "##當": 9569,
      "##愧": 9570,
      "##點": 9571,
      "##飽": 9572,
      "##მ": 9573,
      "##პ": 9574,
      "##კ": 9575,
      "##杉": 9576,
      "##ਤ": 9577,
      "##": 9578,
      "##린": 9579,
      "##鍁": 9580,
      "##언": 9581,
      "##値": 9582,
      "##猿": 9583,
      "##✶": 9584,
      "##ሆ": 9585,
      "##諸": 9586,
      "##🏊": 9587,
      "##": 9588,
      "##脏": 9589,
      "##◤": 9590,
      "##⛸": 9591,
      "##䲴": 9592,
      "##讚": 9593,
      "##陵": 9594,
      "##堂": 9595,
      "##积": 9596,
      "##∼": 9597,
      "##䠴": 9598,
      "##🔮": 9599,
      "##選": 9600,
      "##挙": 9601,
      "##ܓ": 9602,
      "##矢": 9603,
      "##☯": 9604,
      "##ヨ": 9605,
      "##゙": 9606,
      "##鈬": 9607,
      "##敦": 9608,
      "##煌": 9609,
      "##": 9610,
      "##腐": 9611,
      "##败": 9612,
      "##": 9613,
      "##透": 9614,
      "##겠": 9615,
      "##恋": 9616,
      "##ॉ": 9617,
      "##赖": 9618,
      "##龐": 9619,
      "##🎣": 9620,
      "##🚩": 9621,
      "##🚤": 9622,
      "##牧": 9623,
      "##脇": 9624,
      "##玩": 9625,
      "##儿": 9626,
      "##初": 9627,
      "##资": 9628,
      "##": 9629,
      "##솔": 9630,
      "##ừ": 9631,
      "##Ꮩ": 9632,
      "##ཐ": 9633,
      "##ག": 9634,
      "##較": 9635,
      "##為": 9636,
      "##閙": 9637,
      "##鋑": 9638,
      "##": 9639,
      "##旗": 9640,
      "##荣": 9641,
      "##🐏": 9642,
      "##录": 9643,
      "##健": 9644,
      "##變": 9645,
      "##從": 9646,
      "##∗": 9647,
      "##⁦": 9648,
      "##ぱ": 9649,
      "##џ": 9650,
      "##": 9651,
      "##办": 9652,
      "##逛": 9653,
      "##ً": 9654,
      "##变": 9655,
      "##": 9656,
      "##": 9657,
      "##": 9658,
      "##ᮥ": 9659,
      "##ᮔ": 9660,
      "##᮪": 9661,
      "##ᮓ": 9662,
      "##간": 9663,
      "##ḏ": 9664,
      "##☞": 9665,
      "##゚": 9666,
      "##ヮ": 9667,
      "##⤮": 9668,
      "##阴": 9669,
      "##暗": 9670,
      "##汝": 9671,
      "##😺": 9672,
      "##ਹ": 9673,
      "##ῶ": 9674,
      "##先": 9675,
      "##駆": 9676,
      "##尺": 9677,
      "##映": 9678,
      "##🍱": 9679,
      "##🎳": 9680,
      "##늘": 9681,
      "##🕹": 9682,
      "##鼻": 9683,
      "##": 9684,
      "##깝": 9685,
      "##": 9686,
      "##‽": 9687,
      "##鳥": 9688,
      "##🛒": 9689,
      "##🦒": 9690,
      "##♧": 9691,
      "##盘": 9692,
      "##筒": 9693,
      "##Ч": 9694,
      "##烨": 9695,
      "##🔺": 9696,
      "##欠": 9697,
      "##佳": 9698,
      "##추": 9699,
      "##석": 9700,
      "##棟": 9701,
      "##내": 9702,
      "##🎭": 9703,
      "##✲": 9704,
      "##": 9705,
      "##八": 9706,
      "##ᴜ": 9707,
      "##ʟ": 9708,
      "##ᴇ": 9709,
      "##セ": 9710,
      "##": 9711,
      "##⁏": 9712,
      "##ܲ": 9713,
      "##ܵ": 9714,
      "##👕": 9715,
      "##👖": 9716,
      "##👗": 9717,
      "##◦": 9718,
      "##ᗺ": 9719,
      "##ᗷ": 9720,
      "##ᗅ": 9721,
      "##賞": 9722,
      "##🙆": 9723,
      "##⛰": 9724,
      "##ട": 9725,
      "##ക": 9726,
      "##冒": 9727,
      "##険": 9728,
      "##液": 9729,
      "##签": 9730,
      "##ϳ": 9731,
      "##🇷": 9732,
      "##💧": 9733,
      "##溢": 9734,
      "##": 9735,
      "##⭥": 9736,
      "##✕": 9737,
      "##ɖ": 9738,
      "##ɭ": 9739,
      "##ښ": 9740,
      "##🤝": 9741,
      "##🍭": 9742,
      "##환": 9743,
      "##": 9744,
      "##": 9745,
      "##┃": 9746,
      "##": 9747,
      "##অ": 9748,
      "##ভ": 9749,
      "##ত": 9750,
      "##ং": 9751,
      "##○": 9752,
      "##貞": 9753,
      "##雷": 9754,
      "##": 9755,
      "##ღ": 9756,
      "##排": 9757,
      "##世": 9758,
      "##": 9759,
      "##찜": 9760,
      "##질": 9761,
      "##ἱ": 9762,
      "##圣": 9763,
      "##诞": 9764,
      "##ჯ": 9765,
      "##ძ": 9766,
      "##ራ": 9767,
      "##ሕ": 9768,
      "##䲧": 9769,
      "##🎎": 9770,
      "##ә": 9771,
      "##ҧ": 9772,
      "##菉": 9773,
      "##ὶ": 9774,
      "##企": 9775,
      "##頼": 9776,
      "##묵": 9777,
      "##۰": 9778,
      "##٫": 9779,
      "##۶": 9780,
      "##": 9781,
      "##句": 9782,
      "##船": 9783,
      "##": 9784,
      "##速": 9785,
      "##杭": 9786,
      "##변": 9787,
      "##痴": 9788,
      "##摸": 9789,
      "##̥": 9790,
      "##🦓": 9791,
      "##🦚": 9792,
      "##岙": 9793,
      "##岛": 9794,
      "##ŗ": 9795,
      "##극": 9796,
      "##집": 9797,
      "##洲": 9798,
      "##ῳ": 9799,
      "##惑": 9800,
      "##而": 9801,
      "##断": 9802,
      "##寶": 9803,
      "##": 9804,
      "##🔦": 9805,
      "##猫": 9806,
      "##漠": 9807,
      "##": 9808,
      "##": 9809,
      "##🥦": 9810,
      "##🧀": 9811,
      "##🌐": 9812,
      "##": 9813,
      "##ĸ": 9814,
      "##❎": 9815,
      "##": 9816,
      "##გ": 9817,
      "##🎆": 9818,
      "##奈": 9819,
      "##蝓": 9820,
      "##哓": 9821,
      "##赓": 9822,
      "##糈": 9823,
      "##骪": 9824,
      "##頵": 9825,
      "##鰋": 9826,
      "##驺": 9827,
      "##鑕": 9828,
      "##ǧ": 9829,
      "##◘": 9830,
      "##✻": 9831,
      "##Ϡ": 9832,
      "##₡": 9833,
      "##🚢": 9834,
      "##䮮": 9835,
      "##岳": 9836,
      "##錱": 9837,
      "##☄": 9838,
      "##ធ": 9839,
      "##រ": 9840,
      "##ណ": 9841,
      "##ដ": 9842,
      "##ឋ": 9843,
      "##ជ": 9844,
      "##ម": 9845,
      "##ិ": 9846,
      "##ក": 9847,
      "##ព": 9848,
      "##ុ": 9849,
      "##족": 9850,
      "##芸": 9851,
      "##ፈ": 9852,
      "##ል": 9853,
      "##ጦ": 9854,
      "##荡": 9855,
      "##勇": 9856,
      "##敢": 9857,
      "##そ": 9858,
      "##🐳": 9859,
      "##熟": 9860,
      "##ˎ": 9861,
      "##荷": 9862,
      "##ژ": 9863,
      "##攻": 9864,
      "##略": 9865,
      "##ặ": 9866,
      "##💾": 9867,
      "##🚚": 9868,
      "##簧": 9869,
      "##尾": 9870,
      "##銅": 9871,
      "##途": 9872,
      "##": 9873,
      "##👵": 9874,
      "##": 9875,
      "##滕": 9876,
      "##階": 9877,
      "##扫": 9878,
      "##譯": 9879,
      "##草": 9880,
      "##ദ": 9881,
      "##ാ": 9882,
      "##🅿": 9883,
      "##頑": 9884,
      "##鬼": 9885,
      "##破": 9886,
      "##倉": 9887,
      "##🎙": 9888,
      "##🐅": 9889,
      "##🐆": 9890,
      "##դ": 9891,
      "##🚎": 9892,
      "##横": 9893,
      "##浜": 9894,
      "##": 9895,
      "##ⵏ": 9896,
      "##ⴼ": 9897,
      "##ɾ": 9898,
      "##ڵ": 9899,
      "##珞": 9900,
      "##🥵": 9901,
      "##🥴": 9902,
      "##ٌ": 9903,
      "##🐩": 9904,
      "##薙": 9905,
      "##🐜": 9906,
      "##⇨": 9907,
      "##ያ": 9908,
      "##ዳ": 9909,
      "##ዱ": 9910,
      "##审": 9911,
      "##萌": 9912,
      "##節": 9913,
      "##棍": 9914,
      "##🖋": 9915,
      "##忙": 9916,
      "##卤": 9917,
      "##诺": 9918,
      "##兑": 9919,
      "##錯": 9920,
      "##█": 9921,
      "##✚": 9922,
      "##외": 9923,
      "##": 9924,
      "##📮": 9925,
      "##료": 9926,
      "##ٹ": 9927,
      "##ہ": 9928,
      "##育": 9929,
      "##": 9930,
      "##ბ": 9931,
      "##🖒": 9932,
      "##ົ": 9933,
      "##ງ": 9934,
      "##ກ": 9935,
      "##າ": 9936,
      "##ນ": 9937,
      "##ຈ": 9938,
      "##ັ": 9939,
      "##ດ": 9940,
      "##ຕ": 9941,
      "##້": 9942,
      "##蛮": 9943,
      "##씀": 9944,
      "##導": 9945,
      "##🍺": 9946,
      "##报": 9947,
      "##导": 9948,
      "##认": 9949,
      "##욕": 9950,
      "##📡": 9951,
      "##ۀ": 9952,
      "##": 9953,
      "##密": 9954,
      "##📙": 9955,
      "##ๆ": 9956,
      "##🥇": 9957,
      "##责": 9958,
      "##匪": 9959,
      "##蟹": 9960,
      "##喫": 9961,
      "##饭": 9962,
      "##糖": 9963,
      "##撒": 9964,
      "##ɽ": 9965,
      "##樹": 9966,
      "##": 9967,
      "##ʦ": 9968,
      "##✱": 9969,
      "##熊": 9970,
      "##限": 9971,
      "##👴": 9972,
      "##运": 9973,
      "##讀": 9974,
      "##졌": 9975,
      "##🛀": 9976,
      "##錽": 9977,
      "##🤤": 9978,
      "##ই": 9979,
      "##য": 9980,
      "##়": 9981,
      "##䮳": 9982,
      "##徽": 9983,
      "##🍎": 9984,
      "##": 9985,
      "##衡": 9986,
      "##⟯": 9987,
      "##埼": 9988,
      "##玉": 9989,
      "##ⵄ": 9990,
      "##ⵉ": 9991,
      "##ⵛ": 9992,
      "##🚜": 9993,
      "##🚒": 9994,
      "##又": 9995,
      "##ԁ": 9996,
      "##葛": 9997,
      "##ᚲ": 9998,
      "##달": 9999,
      "##橋": 10000,
      "##越": 10001,
      "##鳳": 10002,
      "##挂": 10003,
      "##兒": 10004,
      "##Қ": 10005,
      "##ো": 10006,
      "##ǜ": 10007,
      "##블": 10008,
      "##러": 10009,
      "##啟": 10010,
      "##🥉": 10011,
      "##ᮃ": 10012,
      "##ᮊ": 10013,
      "##ᮞ": 10014,
      "##ᮛ": 10015,
      "##費": 10016,
      "##击": 10017,
      "##获": 10018,
      "##固": 10019,
      "##短": 10020,
      "##": 10021,
      "##⊖": 10022,
      "##💀": 10023,
      "##咫": 10024,
      "##鏡": 10025,
      "##吵": 10026,
      "##茫": 10027,
      "##陈": 10028,
      "##婆": 10029,
      "##": 10030,
      "##鰐": 10031,
      "##剧": 10032,
      "##似": 10033,
      "##影": 10034,
      "##렀": 10035,
      "##던": 10036,
      "##状": 10037,
      "##規": 10038,
      "##寒": 10039,
      "##万": 10040,
      "##铲": 10041,
      "##꒵": 10042,
      "##গ": 10043,
      "##": 10044,
      "##另": 10045,
      "##妖": 10046,
      "##ੈ": 10047,
      "##ሚ": 10048,
      "##午": 10049,
      "##殿": 10050,
      "##악": 10051,
      "##중": 10052,
      "##祠": 10053,
      "##双": 10054,
      "##": 10055,
      "##🕸": 10056,
      "##련": 10057,
      "##ұ": 10058,
      "##♛": 10059,
      "##ʌ": 10060,
      "##⚠": 10061,
      "##鋝": 10062,
      "##ി": 10063,
      "##ൽ": 10064,
      "##髪": 10065,
      "##領": 10066,
      "##綴": 10067,
      "##駄": 10068,
      "##∨": 10069,
      "##ḇ": 10070,
      "##帯": 10071,
      "##抑": 10072,
      "##六": 10073,
      "##蒡": 10074,
      "##ỳ": 10075,
      "##🔂": 10076,
      "##扉": 10077,
      "##ਡ": 10078,
      "##ਓ": 10079,
      "##ਜ": 10080,
      "##਼": 10081,
      "##处": 10082,
      "##囊": 10083,
      "##括": 10084,
      "##命": 10085,
      "##艺": 10086,
      "##组": 10087,
      "##🍇": 10088,
      "##": 10089,
      "##🎰": 10090,
      "##🛠": 10091,
      "##覺": 10092,
      "##裝": 10093,
      "##還": 10094,
      "##沒": 10095,
      "##麼": 10096,
      "##보": 10097,
      "##": 10098,
      "##標": 10099,
      "##準": 10100,
      "##": 10101,
      "##٢": 10102,
      "##佐": 10103,
      "##Ě": 10104,
      "##䲠": 10105,
      "##ⲟ": 10106,
      "##答": 10107,
      "##膠": 10108,
      "##🛷": 10109,
      "##ܝ": 10110,
      "##": 10111,
      "##移": 10112,
      "##˂": 10113,
      "##豬": 10114,
      "##韻": 10115,
      "##🥈": 10116,
      "##🎚": 10117,
      "##🎛": 10118,
      "##🎸": 10119,
      "##🎺": 10120,
      "##ἰ": 10121,
      "##ῖ": 10122,
      "##ঙ": 10123,
      "##􌦈": 10124,
      "##여": 10125,
      "##✤": 10126,
      "##മ": 10127,
      "##ല": 10128,
      "##യ": 10129,
      "##ള": 10130,
      "##ം": 10131,
      "##尘": 10132,
      "##छ": 10133,
      "##浩": 10134,
      "##": 10135,
      "##Ậ": 10136,
      "##売": 10137,
      "##노": 10138,
      "##己": 10139,
      "##🤳": 10140,
      "##賊": 10141,
      "##闘": 10142,
      "##連": 10143,
      "##続": 10144,
      "##稼": 10145,
      "##宣": 10146,
      "##": 10147,
      "##⠡": 10148,
      "##": 10149,
      "##沖": 10150,
      "##縄": 10151,
      "##检": 10152,
      "##⇜": 10153,
      "##◇": 10154,
      "##ာ": 10155,
      "##ဖ": 10156,
      "##ြ": 10157,
      "##盤": 10158,
      "##": 10159,
      "##": 10160,
      "##ျ": 10161,
      "##တ": 10162,
      "##၏": 10163,
      "##灯": 10164,
      "##핑": 10165,
      "##帖": 10166,
      "##勤": 10167,
      "##宗": 10168,
      "##厨": 10169,
      "##ྟ": 10170,
      "##།": 10171,
      "##": 10172,
      "##": 10173,
      "##": 10174,
      "##녕": 10175,
      "##륭": 10176,
      "##⛅": 10177,
      "##🌦": 10178,
      "##⛈": 10179,
      "##ײ": 10180,
      "##倒": 10181,
      "##ֽ": 10182,
      "##ා": 10183,
      "##බ": 10184,
      "##ි": 10185,
      "##ය": 10186,
      "##ේ": 10187,
      "##儚": 10188,
      "##鸡": 10189,
      "##蛋": 10190,
      "##圆": 10191,
      "##葱": 10192,
      "##ẫ": 10193,
      "##🧓": 10194,
      "##掛": 10195,
      "##炊": 10196,
      "##🧖": 10197,
      "##兄": 10198,
      "##弟": 10199,
      "##☟": 10200,
      "##당": 10201,
      "##💊": 10202,
      "##潜": 10203,
      "##伏": 10204,
      "##吕": 10205,
      "##韦": 10206,
      "##ቢ": 10207,
      "##ዎ": 10208,
      "##양": 10209,
      "##": 10210,
      "##簿": 10211,
      "##ࢵ": 10212,
      "##倶": 10213,
      "##Ů": 10214,
      "##🚲": 10215,
      "##거": 10216,
      "##릭": 10217,
      "##쿠": 10218,
      "##데": 10219,
      "##Ў": 10220,
      "##仁": 10221,
      "##潮": 10222,
      "##將": 10223,
      "##麿": 10224,
      "##著": 10225,
      "##称": 10226,
      "##只": 10227,
      "##难": 10228,
      "##捉": 10229,
      "##祉": 10230,
      "##経": 10231,
      "##": 10232,
      "##❭": 10233,
      "##🇦": 10234,
      "##⌣": 10235,
      "##帝": 10236,
      "##坪": 10237,
      "##拿": 10238,
      "##鲁": 10239,
      "##ᾱ": 10240,
      "##궁": 10241,
      "##希": 10242,
      "##할": 10243,
      "##ੂ": 10244,
      "##⠓": 10245,
      "##蜀": 10246,
      "##瓦": 10247,
      "##ෞ": 10248,
      "##ද": 10249,
      "##Ḿ": 10250,
      "##🌭": 10251,
      "##侑": 10252,
      "##ṟ": 10253,
      "##ĥ": 10254,
      "##題": 10255,
      "##驗": 10256,
      "##􌤊": 10257,
      "##識": 10258,
      "##൫": 10259,
      "##孩": 10260,
      "##🎞": 10261,
      "##🍗": 10262,
      "##슬": 10263,
      "##림": 10264,
      "##魂": 10265,
      "##🐦": 10266,
      "##본": 10267,
      "##边": 10268,
      "##현": 10269,
      "##烧": 10270,
      "##肉": 10271,
      "##☾": 10272,
      "##ँ": 10273,
      "##級": 10274,
      "##課": 10275,
      "##≠": 10276,
      "##禅": 10277,
      "##康": 10278,
      "##紀": 10279,
      "##夫": 10280,
      "##凝": 10281,
      "##庵": 10282,
      "##۳": 10283,
      "##۵": 10284,
      "##❂": 10285,
      "##呲": 10286,
      "##葜": 10287,
      "##총": 10288,
      "##🎓": 10289,
      "##⢢": 10290,
      "##ੰ": 10291,
      "##笑": 10292,
      "##顔": 10293,
      "##翼": 10294,
      "##❷": 10295,
      "##": 10296,
      "##🧒": 10297,
      "##📈": 10298,
      "##孔": 10299,
      "##": 10300,
      "##邏": 10301,
      "##🌘": 10302,
      "##锁": 10303,
      "##维": 10304,
      "##吾": 10305,
      "##纪": 10306,
      "##欣": 10307,
      "##秒": 10308,
      "##訳": 10309,
      "##引": 10310,
      "##列": 10311,
      "##🌩": 10312,
      "##🥪": 10313,
      "##🥗": 10314,
      "##🥘": 10315,
      "##🐑": 10316,
      "##則": 10317,
      "##罔": 10318,
      "##殆": 10319,
      "##🏫": 10320,
      "##": 10321,
      "##": 10322,
      "##듬": 10323,
      "##🎯": 10324,
      "##蒲": 10325,
      "##鉾": 10326,
      "##괴": 10327,
      "##骓": 10328,
      "##浙": 10329,
      "##歐": 10330,
      "##詢": 10331,
      "##영": 10332,
      "##": 10333,
      "##左": 10334,
      "##‫": 10335,
      "##ὺ": 10336,
      "##ᖇ": 10337,
      "##ϟ": 10338,
      "##Ő": 10339,
      "##झ": 10340,
      "##ಕ": 10341,
      "##ನ": 10342,
      "##ಡ": 10343,
      "##": 10344,
      "##": 10345,
      "##戚": 10346,
      "##媛": 10347,
      "##🥺": 10348,
      "##隈": 10349,
      "##▃": 10350,
      "##🛑": 10351,
      "##": 10352,
      "##🐖": 10353,
      "##돼": 10354,
      "##": 10355,
      "##🌍": 10356,
      "##🌏": 10357,
      "##🎐": 10358,
      "##ᚹ": 10359,
      "##ᛃ": 10360,
      "##ᛦ": 10361,
      "##┻": 10362,
      "##废": 10363,
      "##浴": 10364,
      "##肮": 10365,
      "##₦": 10366,
      "##浅": 10367,
      "##虫": 10368,
      "##": 10369,
      "##": 10370,
      "##🇲": 10371,
      "##🇾": 10372,
      "##ᚷ": 10373,
      "##ᛊ": 10374,
      "##乌": 10375,
      "##砸": 10376,
      "##抢": 10377,
      "##严": 10378,
      "##暴": 10379,
      "##罪": 10380,
      "##🦸": 10381,
      "##◣": 10382,
      "##ⴢ": 10383,
      "##沼": 10384,
      "##箭": 10385,
      "##竹": 10386,
      "##輯": 10387,
      "##": 10388,
      "##": 10389,
      "##ݕ": 10390,
      "##閞": 10391,
      "##": 10392,
      "##粉": 10393,
      "##塗": 10394,
      "##系": 10395,
      "##": 10396,
      "##መ": 10397,
      "##ቐ": 10398,
      "##鹅": 10399,
      "##🐬": 10400,
      "##匹": 10401,
      "##倭": 10402,
      "##崙": 10403,
      "##羊": 10404,
      "##失": 10405,
      "##🥛": 10406,
      "##😗": 10407,
      "##׳": 10408,
      "##昂": 10409,
      "##兰": 10410,
      "##并": 10411,
      "##伊": 10412,
      "##莎": 10413,
      "##贝": 10414,
      "##帕": 10415,
      "##氛": 10416,
      "##甚": 10417,
      "##描": 10418,
      "##述": 10419,
      "##泳": 10420,
      "##池": 10421,
      "##丽": 10422,
      "##拥": 10423,
      "##阶": 10424,
      "##䮥": 10425,
      "##׺": 10426,
      "##차": 10427,
      "##ɷ": 10428,
      "##折": 10429,
      "##䐀": 10430,
      "##௧": 10431,
      "##剋": 10432,
      "##🌎": 10433,
      "##珍": 10434,
      "##珠": 10435,
      "##滩": 10436,
      "##ܘ": 10437,
      "##ܩ": 10438,
      "##邦": 10439,
      "##损": 10440,
      "##观": 10441,
      "##🥁": 10442,
      "##迁": 10443,
      "##": 10444,
      "##ೆ": 10445,
      "##ಯ": 10446,
      "##刻": 10447,
      "##ׂ": 10448,
      "##ெ": 10449,
      "##ை": 10450,
      "##🧢": 10451,
      "##〉": 10452,
      "##ຄ": 10453,
      "##ຖ": 10454,
      "##ື": 10455,
      "##ໃ": 10456,
      "##": 10457,
      "##∋": 10458,
      "##䮴": 10459,
      "##‖": 10460,
      "##": 10461,
      "##默": 10462,
      "##谷": 10463,
      "##": 10464,
      "##̄": 10465,
      "##ড": 10466,
      "##ও": 10467,
      "##계": 10468,
      "##말": 10469,
      "##桁": 10470,
      "##훈": 10471,
      "##页": 10472,
      "##钢": 10473,
      "##්": 10474,
      "##脂": 10475,
      "##筋": 10476,
      "##🤞": 10477,
      "##🔨": 10478,
      "##Һ": 10479,
      "##": 10480,
      "##├": 10481,
      "##🏌": 10482,
      "##困": 10483,
      "##": 10484,
      "##ず": 10485,
      "##ʖ": 10486,
      "##陰": 10487,
      "##陣": 10488,
      "##ტ": 10489,
      "##": 10490,
      "##₪": 10491,
      "##": 10492,
      "##": 10493,
      "##◆": 10494,
      "##뚱": 10495,
      "##恵": 10496,
      "##ർ": 10497,
      "##ണ": 10498,
      "##澄": 10499,
      "##僅": 10500,
      "##未": 10501,
      "##🛶": 10502,
      "##🦉": 10503,
      "##桟": 10504,
      "##癒": 10505,
      "##◅": 10506,
      "##ɯ": 10507,
      "##彬": 10508,
      "##ፍ": 10509,
      "##ቅ": 10510,
      "##Բ": 10511,
      "##ժ": 10512,
      "##📣": 10513,
      "##🧤": 10514,
      "##Ꮃ": 10515,
      "##Ꭹ": 10516,
      "##壓": 10517,
      "##鎮": 10518,
      "##병": 10519,
      "##册": 10520,
      "##防": 10521,
      "##恶": 10522,
      "##er": 10523,
      "##en": 10524,
      "##ar": 10525,
      "##an": 10526,
      "##et": 10527,
      "##tt": 10528,
      "##ll": 10529,
      "##in": 10530,
      "##ör": 10531,
      "##st": 10532,
      "##om": 10533,
      "##ch": 10534,
      "och": 10535,
      "##ig": 10536,
      "##or": 10537,
      "##de": 10538,
      "##on": 10539,
      "##ag": 10540,
      "##ing": 10541,
      "att": 10542,
      "##ed": 10543,
      "##at": 10544,
      "för": 10545,
      "##är": 10546,
      "##ka": 10547,
      "in": 10548,
      "##ill": 10549,
      "##na": 10550,
      "en": 10551,
      "##ra": 10552,
      "##kt": 10553,
      "##el": 10554,
      "är": 10555,
      "på": 10556,
      "##is": 10557,
      "som": 10558,
      "##än": 10559,
      "##ck": 10560,
      "det": 10561,
      "##te": 10562,
      "med": 10563,
      "av": 10564,
      "till": 10565,
      "##al": 10566,
      "##pp": 10567,
      "##ning": 10568,
      "##es": 10569,
      "##nd": 10570,
      "##am": 10571,
      "##id": 10572,
      "##as": 10573,
      "##il": 10574,
      "##ter": 10575,
      "st": 10576,
      "##ån": 10577,
      "##lig": 10578,
      "##it": 10579,
      "var": 10580,
      "##ver": 10581,
      "har": 10582,
      "##ro": 10583,
      "om": 10584,
      "##år": 10585,
      "##em": 10586,
      "##and": 10587,
      "##ol": 10588,
      "##ad": 10589,
      "jag": 10590,
      "##ion": 10591,
      "##iv": 10592,
      "##re": 10593,
      "##ade": 10594,
      "den": 10595,
      "##sk": 10596,
      "inte": 10597,
      "ut": 10598,
      "##äl": 10599,
      "de": 10600,
      "sk": 10601,
      "##ätt": 10602,
      "##ur": 10603,
      "så": 10604,
      "##un": 10605,
      "fr": 10606,
      "##are": 10607,
      "##ta": 10608,
      "##ik": 10609,
      "##ot": 10610,
      "ett": 10611,
      "an": 10612,
      "kan": 10613,
      "##ller": 10614,
      "##li": 10615,
      "vi": 10616,
      "##der": 10617,
      "du": 10618,
      "##ande": 10619,
      "##omm": 10620,
      "##åg": 10621,
      "##ens": 10622,
      "##ut": 10623,
      "##äg": 10624,
      "##het": 10625,
      "##en.": 10626,
      "##för": 10627,
      "all": 10628,
      "##us": 10629,
      "##itt": 10630,
      "upp": 10631,
      "##sta": 10632,
      "Det": 10633,
      "##..": 10634,
      "##ång": 10635,
      "##ent": 10636,
      "##ort": 10637,
      "##sa": 10638,
      "ska": 10639,
      "##ans": 10640,
      "komm": 10641,
      "##um": 10642,
      "##äll": 10643,
      "man": 10644,
      "##da": 10645,
      "##ss": 10646,
      "be": 10647,
      "från": 10648,
      "##le": 10649,
      "##ri": 10650,
      "##nder": 10651,
      "##inn": 10652,
      "sp": 10653,
      "##og": 10654,
      "##ation": 10655,
      "##fter": 10656,
      "##yck": 10657,
      "men": 10658,
      "##äm": 10659,
      "sam": 10660,
      "eller": 10661,
      "##la": 10662,
      "##ell": 10663,
      "##ligt": 10664,
      "##igt": 10665,
      "##ul": 10666,
      "##ru": 10667,
      "##art": 10668,
      "när": 10669,
      "20": 10670,
      "##yg": 10671,
      "re": 10672,
      "någ": 10673,
      "tr": 10674,
      "##bb": 10675,
      "##ster": 10676,
      "##var": 10677,
      "##att": 10678,
      "##ker": 10679,
      "min": 10680,
      "##äng": 10681,
      "##ram": 10682,
      "##ud": 10683,
      "pro": 10684,
      "sig": 10685,
      "##isk": 10686,
      "##ma": 10687,
      "##bet": 10688,
      "bar": 10689,
      "##ats": 10690,
      "##all": 10691,
      "##sp": 10692,
      "##ff": 10693,
      "##ess": 10694,
      "##ull": 10695,
      "där": 10696,
      "hel": 10697,
      "##sl": 10698,
      "##arna": 10699,
      "här": 10700,
      "över": 10701,
      "##ger": 10702,
      "##jäl": 10703,
      "##ven": 10704,
      "##ast": 10705,
      "år": 10706,
      "##ft": 10707,
      "##gen": 10708,
      "under": 10709,
      "##os": 10710,
      "Jag": 10711,
      "##ska": 10712,
      "##ok": 10713,
      "##era": 10714,
      "ar": 10715,
      "ny": 10716,
      "kon": 10717,
      "##od": 10718,
      "li": 10719,
      "gör": 10720,
      "bli": 10721,
      "efter": 10722,
      "##erna": 10723,
      "##er.": 10724,
      "##et.": 10725,
      "##ers": 10726,
      "pr": 10727,
      "##del": 10728,
      "##så": 10729,
      "##ak": 10730,
      "fl": 10731,
      "bl": 10732,
      "##els": 10733,
      "kommer": 10734,
      "##en,": 10735,
      "##dag": 10736,
      "##inns": 10737,
      "##00": 10738,
      "##ju": 10739,
      "vara": 10740,
      "##ic": 10741,
      "ha": 10742,
      "må": 10743,
      "##vän": 10744,
      "##ekt": 10745,
      "Vi": 10746,
      "##orm": 10747,
      "han": 10748,
      "tid": 10749,
      "##a.": 10750,
      "##ist": 10751,
      "##und": 10752,
      "kr": 10753,
      "##ne": 10754,
      "##ock": 10755,
      "finns": 10756,
      "##ick": 10757,
      "kl": 10758,
      "få": 10759,
      "##sam": 10760,
      "St": 10761,
      "##im": 10762,
      "se": 10763,
      "##edan": 10764,
      "##ling": 10765,
      "##änn": 10766,
      "##iska": 10767,
      "##liga": 10768,
      "vill": 10769,
      "mer": 10770,
      "##opp": 10771,
      "##ina": 10772,
      "and": 10773,
      "##ass": 10774,
      "väl": 10775,
      "nu": 10776,
      "alla": 10777,
      "sl": 10778,
      "För": 10779,
      "allt": 10780,
      "##ld": 10781,
      "##ycket": 10782,
      "dag": 10783,
      "201": 10784,
      "ju": 10785,
      "##ga": 10786,
      "##öj": 10787,
      "##ilj": 10788,
      "del": 10789,
      "##kl": 10790,
      "##eck": 10791,
      "vid": 10792,
      "##akt": 10793,
      "ock": 10794,
      "##ost": 10795,
      "##yr": 10796,
      "##ikt": 10797,
      "då": 10798,
      "fram": 10799,
      "##bl": 10800,
      "mot": 10801,
      "också": 10802,
      "##ningar": 10803,
      "får": 10804,
      "beh": 10805,
      "mig": 10806,
      "##est": 10807,
      "##ord": 10808,
      "än": 10809,
      "bra": 10810,
      "##nad": 10811,
      "##ningen": 10812,
      "##äs": 10813,
      "##öm": 10814,
      "##ber": 10815,
      "En": 10816,
      "gen": 10817,
      "##kar": 10818,
      "##ant": 10819,
      "ver": 10820,
      "mycket": 10821,
      "##ön": 10822,
      "##pa": 10823,
      "##cka": 10824,
      "pl": 10825,
      "ta": 10826,
      "In": 10827,
      "tv": 10828,
      "##iga": 10829,
      "##åll": 10830,
      "##öd": 10831,
      "##ov": 10832,
      "or": 10833,
      "ex": 10834,
      "sv": 10835,
      "dig": 10836,
      "##ste": 10837,
      "##ir": 10838,
      "vis": 10839,
      "##rå": 10840,
      "andra": 10841,
      "##ök": 10842,
      "arbet": 10843,
      "er": 10844,
      "lite": 10845,
      "kun": 10846,
      "även": 10847,
      "##erson": 10848,
      "##org": 10849,
      "bara": 10850,
      "hur": 10851,
      "##ild": 10852,
      "##op": 10853,
      "##mar": 10854,
      "##ånga": 10855,
      "##eg": 10856,
      "##tal": 10857,
      "hon": 10858,
      "##tr": 10859,
      "kv": 10860,
      "##oll": 10861,
      "hö": 10862,
      "##ligen": 10863,
      "##ett": 10864,
      "##äst": 10865,
      "ann": 10866,
      "##per": 10867,
      "bör": 10868,
      "##...": 10869,
      "##ställ": 10870,
      "##ulle": 10871,
      "gr": 10872,
      "##kr": 10873,
      "använ": 10874,
      "##er,": 10875,
      "Men": 10876,
      "vår": 10877,
      "vad": 10878,
      "stor": 10879,
      "##vis": 10880,
      "##je": 10881,
      "hade": 10882,
      "hem": 10883,
      "vil": 10884,
      "Den": 10885,
      "säg": 10886,
      "##ack": 10887,
      "vär": 10888,
      "##ket": 10889,
      "##ott": 10890,
      "##se": 10891,
      "##ote": 10892,
      "res": 10893,
      "##sätt": 10894,
      "skulle": 10895,
      "##lev": 10896,
      "bes": 10897,
      "##av": 10898,
      "##ci": 10899,
      "bet": 10900,
      "genom": 10901,
      "blir": 10902,
      "##pl": 10903,
      "spel": 10904,
      "kom": 10905,
      "##eri": 10906,
      "##jälv": 10907,
      "##äd": 10908,
      "##ygg": 10909,
      "##itet": 10910,
      "utan": 10911,
      "##du": 10912,
      "##jt": 10913,
      "##yd": 10914,
      "person": 10915,
      "br": 10916,
      "##e.": 10917,
      "##nings": 10918,
      "##a,": 10919,
      "samt": 10920,
      "sin": 10921,
      "##ering": 10922,
      "sen": 10923,
      "##ek": 10924,
      "##dr": 10925,
      "##fr": 10926,
      "själv": 10927,
      "##gi": 10928,
      "##iskt": 10929,
      "##ja": 10930,
      "förs": 10931,
      "många": 10932,
      "##öl": 10933,
      "##form": 10934,
      "##ann": 10935,
      "##ar.": 10936,
      "##ende": 10937,
      "någon": 10938,
      "sm": 10939,
      "##ägg": 10940,
      "din": 10941,
      "##ark": 10942,
      "sy": 10943,
      "De": 10944,
      "##vär": 10945,
      "##öp": 10946,
      "##ef": 10947,
      "detta": 10948,
      "##verig": 10949,
      "##ets": 10950,
      "##som": 10951,
      "##sb": 10952,
      "ber": 10953,
      "##ighet": 10954,
      "verk": 10955,
      "oss": 10956,
      "mat": 10957,
      "barn": 10958,
      "något": 10959,
      "sedan": 10960,
      "##ät": 10961,
      "##erade": 10962,
      "##lika": 10963,
      "##ce": 10964,
      "##den": 10965,
      "##över": 10966,
[...]
