{
  "version": "1.0",
  "truncation": null,
  "padding": null,
  "added_tokens": [
    {
      "id": 0,
      "content": "[PAD]",
      "single_word": false,
      "lstrip": false,
      "rstrip": false,
      "normalized": false,
      "special": true
    },
    {
      "id": 1,
      "content": "[UNK]",
      "single_word": false,
      "lstrip": false,
      "rstrip": false,
      "normalized": false,
      "special": true
    },
    {
      "id": 2,
      "content": "[MASK]",
      "single_word": false,
      "lstrip": false,
      "rstrip": false,
      "normalized": false,
      "special": true
    },
    {
      "id": 3,
      "content": "[CLS]",
      "single_word": false,
      "lstrip": false,
      "rstrip": false,
      "normalized": false,
      "special": true
    },
    {
      "id": 4,
      "content": "[SEP]",
      "single_word": false,
      "lstrip": false,
      "rstrip": false,
      "normalized": false,
      "special": true
    }
  ],
  "normalizer": {
    "type": "Sequence",
    "normalizers": [
      {
        "type": "Nmt"
      },
      {
        "type": "NFKC"
      },
      {
        "type": "Replace",
        "pattern": {
          "Regex": " {2,}"
        },
        "content": " "
      }
    ]
  },
  "pre_tokenizer": {
    "type": "Sequence",
    "pretokenizers": [
      {
        "type": "Metaspace",
        "replacement": "▁",
        "add_prefix_space": true
      },
      {
        "type": "Split",
        "pattern": {
          "Regex": "\\d"
        },
        "behavior": "MergedWithPrevious",
        "invert": false
      },
      {
        "type": "Punctuation",
        "behavior": "Isolated"
      }
    ]
  },
  "post_processor": {
    "type": "TemplateProcessing",
    "single": [
      {
        "SpecialToken": {
          "id": "[CLS]",
          "type_id": 0
        }
      },
      {
        "Sequence": {
          "id": "A",
          "type_id": 0
        }
      },
      {
        "SpecialToken": {
          "id": "[SEP]",
          "type_id": 0
        }
      }
    ],
    "pair": [
      {
        "SpecialToken": {
          "id": "[CLS]",
          "type_id": 0
        }
      },
      {
        "Sequence": {
          "id": "A",
          "type_id": 0
        }
      },
      {
        "SpecialToken": {
          "id": "[SEP]",
          "type_id": 0
        }
      },
      {
        "Sequence": {
          "id": "B",
          "type_id": 1
        }
      },
      {
        "SpecialToken": {
          "id": "[SEP]",
          "type_id": 1
        }
      }
    ],
    "special_tokens": {
      "[CLS]": {
        "id": "[CLS]",
        "ids": [
          3
        ],
        "tokens": [
          "[CLS]"
        ]
      },
      "[SEP]": {
        "id": "[SEP]",
        "ids": [
          4
        ],
        "tokens": [
          "[SEP]"
        ]
      }
    }
  },
  "decoder": {
    "type": "Metaspace",
    "replacement": "▁",
    "add_prefix_space": true
  },
  "model": {
    "type": "Unigram",
    "unk_id": 1,
    "vocab": [
      [
        "[PAD]",
        0.0
      ],
      [
        "[UNK]",
        0.0
      ],
      [
        "[MASK]",
        0.0
      ],
      [
        "[CLS]",
        0.0
      ],
      [
        "[SEP]",
        0.0
      ],
      [
        "▁",
        -2.1980828576880818
      ],
      [
        ".",
        -3.1970810266065435
      ],
      [
        ",",
        -3.881384424674362
      ],
      [
        "▁och",
        -3.912196076642708
      ],
      [
        "i",
        -4.034258895433425
      ],
      [
        "s",
        -4.128743747863954
      ],
      [
        "▁att",
        -4.145737870646123
      ],
      [
        "▁är",
        -4.501597262063164
      ],
      [
        "▁som",
        -4.554934629069834
      ],
      [
        "t",
        -4.563837496694166
      ],
      [
        "▁på",
        -4.571366914804486
      ],
      [
        "a",
        -4.587212258492073
      ],
      [
        "▁för",
        -4.638941989543085
      ],
      [
        "▁en",
        -4.669260706551995
      ],
      [
        "▁det",
        -4.676998567948967
      ],
      [
        "▁med",
        -4.842153930959771
      ],
      [
        "0",
        -4.849465283235652
      ],
      [
        "▁av",
        -4.862556023639158
      ],
      [
        "1",
        -4.975959317649824
      ],
      [
        "en",
        -4.991610137684585
      ],
      [
        "▁till",
        -4.998200950446886
      ],
      [
        "-",
        -5.074972649324955
      ],
      [
        "▁har",
        -5.113281075287219
      ],
      [
        "2",
        -5.239301697936526
      ],
      [
        "▁jag",
        -5.252390609777674
      ],
      [
        "▁inte",
        -5.320485373212506
      ],
      [
        "▁om",
        -5.366095106749295
      ],
      [
        "n",
        -5.39716343187883
      ],
      [
        "e",
        -5.425553206378009
      ],
      [
        "▁den",
        -5.444004216871132
      ],
      [
        "▁ett",
        -5.479355948300729
      ],
      [
        "▁så",
        -5.529661299336738
      ],
      [
        "▁kan",
        -5.648206406491784
      ],
      [
        "▁de",
        -5.652233132510414
      ],
      [
        "▁du",
        -5.653284591425756
      ],
      [
        "er",
        -5.657603628277837
      ],
      [
        "▁vi",
        -5.717420868129885
      ],
      [
        ":",
        -5.7192654162684065
      ],
      [
        "r",
        -5.72075632644151
      ],
      [
        "▁var",
        -5.846269155294557
      ],
      [
        "▁Det",
        -5.884014133991506
      ],
      [
        "!",
        -5.897533776122504
      ],
      [
        ")",
        -5.940976009128956
      ],
      [
        "5",
        -5.949528726922988
      ],
      [
        "3",
        -5.963933928104968
      ],
      [
        "▁man",
        -5.964800510217483
      ],
      [
        "▁från",
        -5.968198357441004
      ],
      [
        "\"",
        -6.0141895411831
      ],
      [
        "(",
        -6.087930536919302
      ],
      [
        "▁men",
        -6.094938473948101
      ],
      [
        "▁eller",
        -6.103091765893833
      ],
      [
        "4",
        -6.145078361576314
      ],
      [
        "9",
        -6.150758316773452
      ],
      [
        "o",
        -6.1863211355602346
      ],
      [
        "?",
        -6.207745661107088
      ],
      [
        "d",
        -6.23624273972999
      ],
      [
        "▁ska",
        -6.249102120678819
      ],
      [
        "ar",
        -6.2650166889482595
      ],
      [
        "▁sig",
        -6.300591942011554
      ],
      [
        "6",
        -6.33300531514424
      ],
      [
        "8",
        -6.374489442006016
      ],
      [
        "7",
        -6.387079573408343
      ],
      [
        "▁Jag",
        -6.409910517429633
      ],
      [
        "de",
        -6.415568420318463
      ],
      [
        "▁när",
        -6.421857724972872
      ],
      [
        "▁in",
        -6.422012831964615
      ],
      [
        "▁ut",
        -6.427268557968958
      ],
      [
        "▁upp",
        -6.442275089879908
      ],
      [
        "▁här",
        -6.457578352999734
      ],
      [
        "–",
        -6.476121960057121
      ],
      [
        "▁kommer",
        -6.484882516859212
      ],
      [
        "/",
        -6.524033214361495
      ],
      [
        "m",
        -6.537160413254986
      ],
      [
        "▁vara",
        -6.55141453369343
      ],
      [
        "▁där",
        -6.596688808075742
      ],
      [
        "▁finns",
        -6.597807541937481
      ],
      [
        "▁I",
        -6.599782430210588
      ],
      [
        "▁Vi",
        -6.619540282848368
      ],
      [
        "▁han",
        -6.642458243521016
      ],
      [
        "▁mer",
        -6.645991759884737
      ],
      [
        "et",
        -6.667125195170822
      ],
      [
        "▁alla",
        -6.673285219905763
      ],
      [
        "▁nu",
        -6.705251014431363
      ],
      [
        "▁under",
        -6.724018413771333
      ],
      [
        "▁också",
        -6.7374556141490505
      ],
      [
        "▁får",
        -6.753455423726292
      ],
      [
        "▁över",
        -6.754823111755238
      ],
      [
        "▁mycket",
        -6.764474929674375
      ],
      [
        "▁mig",
        -6.7725910268748635
      ],
      [
        "▁lite",
        -6.790828733364
      ],
      [
        "▁bra",
        -6.796888685074848
      ],
      [
        "▁år",
        -6.803158520362013
      ],
      [
        "▁efter",
        -6.813598689436782
      ],
      [
        "”",
        -6.8261635206112725
      ],
      [
        "▁ha",
        -6.829325583286245
      ],
      [
        "▁då",
        -6.844714563401471
      ],
      [
        "▁vill",
        -6.869015414425421
      ],
      [
        "▁även",
        -6.8742413949266865
      ],
      [
        "▁få",
        -6.876028308632275
      ],
      [
        "▁andra",
        -6.876558671908434
      ],
      [
        "▁bara",
        -6.8823490076319125
      ],
      [
        "▁hur",
        -6.891772031362796
      ],
      [
        "▁vid",
        -6.93185334653243
      ],
      [
        "▁Men",
        -6.947505137951529
      ],
      [
        "▁dig",
        -6.976207981289329
      ],
      [
        "▁hade",
        -6.992219850531631
      ],
      [
        "▁vad",
        -6.994496175618705
      ],
      [
        "k",
        -7.0001557395378295
      ],
      [
        "▁skulle",
        -7.0142447272410475
      ],
      [
        "▁än",
        -7.024919712154119
      ],
      [
        "▁blir",
        -7.0384190812205905
      ],
      [
        "å",
        -7.077228626598565
      ],
      [
        "g",
        -7.094310240650779
      ],
      [
        "▁En",
        -7.096210325977397
      ],
      [
        "▁sin",
        -7.100453795646969
      ],
      [
        "▁mot",
        -7.1090478819740195
      ],
      [
        "▁många",
        -7.123167244172388
      ],
      [
        "▁göra",
        -7.125004470486468
      ],
      [
        "▁min",
        -7.163606349428722
      ],
      [
        "▁ju",
        -7.174523162207839
      ],
      [
        "▁gör",
        -7.175239174014665
      ],
      [
        "▁För",
        -7.18825983985956
      ],
      [
        "v",
        -7.190277725489272
      ],
      [
        "▁detta",
        -7.197819794467527
      ],
      [
        "▁hon",
        -7.201128626896212
      ],
      [
        "p",
        -7.2017441490719065
      ],
      [
        "▁Den",
        -7.207670094261347
      ],
      [
        "▁något",
        -7.211028667608819
      ],
      [
        "▁din",
        -7.222309852654114
      ],
      [
        "l",
        -7.228133993208042
      ],
      [
        "▁De",
        -7.243365019070795
      ],
      [
        "▁sedan",
        -7.243495019597399
      ],
      [
        "erna",
        -7.250077983491838
      ],
      [
        "are",
        -7.251766263601683
      ],
      [
        "▁oss",
        -7.253552322679408
      ],
      [
        "▁utan",
        -7.263764485249096
      ],
      [
        "▁två",
        -7.292242581971426
      ],
      [
        "▁olika",
        -7.294088523673379
      ],
      [
        "▁allt",
        -7.30791908872078
      ],
      [
        "▁se",
        -7.313015459952945
      ],
      [
        "▁säger",
        -7.318396277883318
      ],
      [
        "h",
        -7.320895328848934
      ],
      [
        "▁del",
        -7.338824132540761
      ],
      [
        "▁någon",
        -7.343138762768001
      ],
      [
        "▁bli",
        -7.343462321271577
      ],
      [
        "▁genom",
        -7.367413346305284
      ],
      [
        "▁går",
        -7.370356799817605
      ],
      [
        "▁helt",
        -7.396541080607642
      ],
      [
        "▁fick",
        -7.421156000061636
      ],
      [
        "▁nya",
        -7.44302493790196
      ],
      [
        "▁hela",
        -7.449148271021878
      ],
      [
        "▁fram",
        -7.449783971032186
      ],
      [
        "▁varit",
        -7.466771442063328
      ],
      [
        "▁Om",
        -7.468333592721731
      ],
      [
        "▁måste",
        -7.469340719198286
      ],
      [
        "▁blev",
        -7.477549849314611
      ],
      [
        "▁första",
        -7.481148552330197
      ],
      [
        "▁några",
        -7.485880788085149
      ],
      [
        "▁S",
        -7.487768284901595
      ],
      [
        "▁inom",
        -7.490230205598923
      ],
      [
        "▁dem",
        -7.491176776495191
      ],
      [
        "y",
        -7.499312543629877
      ],
      [
        "f",
        -7.507023662930356
      ],
      [
        "ade",
        -7.511259834034712
      ],
      [
        "▁kunna",
        -7.5334161243343605
      ],
      [
        "▁samt",
        -7.537697522598554
      ],
      [
        "▁mellan",
        -7.548237260767545
      ],
      [
        "c",
        -7.55105318647996
      ],
      [
        "▁denna",
        -7.5533059185179745
      ],
      [
        "▁sätt",
        -7.558735142575792
      ],
      [
        "u",
        -7.578143382634904
      ],
      [
        "▁Du",
        -7.585108702899765
      ],
      [
        "▁När",
        -7.587230139696276
      ],
      [
        "▁själv",
        -7.5923193770312665
      ],
      [
        "ande",
        -7.607358122533766
      ],
      [
        "▁Och",
        -7.61259765109485
      ],
      [
        "▁rätt",
        -7.62009439376396
      ],
      [
        "arna",
        -7.626850505338863
      ],
      [
        "▁annat",
        -7.639744278461139
      ],
      [
        "▁ser",
        -7.64286780603687
      ],
      [
        "▁tid",
        -7.649252584898559
      ],
      [
        "▁vår",
        -7.650030428969691
      ],
      [
        "▁barn",
        -7.652456699599687
      ],
      [
        "▁väl",
        -7.652985759368102
      ],
      [
        "▁Sverige",
        -7.6546404372597365
      ],
      [
        "▁Så",
        -7.685557951318561
      ],
      [
        "▁vilket",
        -7.685692361281328
      ],
      [
        "▁både",
        -7.691174409001865
      ],
      [
        "▁sina",
        -7.697410022279689
      ],
      [
        "▁dag",
        -7.709475793235944
      ],
      [
        "▁gå",
        -7.739364928515172
      ],
      [
        "▁Nu",
        -7.7446255055327615
      ],
      [
        "▁hos",
        -7.749660610011629
      ],
      [
        "▁stor",
        -7.751484497593285
      ],
      [
        "▁behöver",
        -7.762652924479681
      ],
      [
        "▁våra",
        -7.768237834083964
      ],
      [
        "▁kanske",
        -7.780158863123646
      ],
      [
        "▁dessa",
        -7.790162375082025
      ],
      [
        "▁ny",
        -7.806644263528325
      ],
      [
        "▁innan",
        -7.808619095021154
      ],
      [
        "in",
        -7.811431745520219
      ],
      [
        "▁vet",
        -7.8121065689519416
      ],
      [
        "S",
        -7.813012540312821
      ],
      [
        "ingen",
        -7.819167917269612
      ],
      [
        "▁På",
        -7.823481744120013
      ],
      [
        "▁flera",
        -7.826834005186619
      ],
      [
        "ens",
        -7.846383800674094
      ],
      [
        "▁idag",
        -7.847573228521135
      ],
      [
        "▁kom",
        -7.852207515577474
      ],
      [
        "b",
        -7.854410373389044
      ],
      [
        "▁hem",
        -7.856299958655386
      ],
      [
        "▁samma",
        -7.858601245494974
      ],
      [
        "ning",
        -7.859889049363076
      ],
      [
        "▁sitt",
        -7.867867887927659
      ],
      [
        "▁Han",
        -7.870376667640221
      ],
      [
        "▁tar",
        -7.873517386351887
      ],
      [
        "▁alltid",
        -7.8845924444381605
      ],
      [
        ";",
        -7.8853122728648515
      ],
      [
        "▁bästa",
        -7.8936330402898545
      ],
      [
        "▁ger",
        -7.908213850343069
      ],
      [
        "▁A",
        -7.912170618342065
      ],
      [
        "▁tre",
        -7.920788278321522
      ],
      [
        "▁väldigt",
        -7.9208599489501434
      ],
      [
        "▁be",
        -7.9219435210124285
      ],
      [
        "&",
        -7.9281411466532425
      ],
      [
        "▁stora",
        -7.929213231620569
      ],
      [
        "▁bort",
        -7.932243178709289
      ],
      [
        "▁Att",
        -7.933571079329759
      ],
      [
        "▁ditt",
        -7.933602934436923
      ],
      [
        "▁Här",
        -7.934099758164473
      ],
      [
        "▁ner",
        -7.93435854200361
      ],
      [
        "▁varje",
        -7.942191128953713
      ],
      [
        "▁bland",
        -7.94636092207152
      ],
      [
        "▁bättre",
        -7.947936538390326
      ],
      [
        "▁tycker",
        -7.958116772511731
      ],
      [
        "ing",
        -7.964741511840376
      ],
      [
        "▁Detta",
        -7.972401780102411
      ],
      [
        "▁igen",
        -7.972699100036127
      ],
      [
        "or",
        -7.984808950235081
      ],
      [
        "▁fall",
        -7.987846539073756
      ],
      [
        "▁gäller",
        -7.992494080591799
      ],
      [
        "▁nog",
        -8.004497054335975
      ],
      [
        "▁ligger",
        -8.005843204530388
      ],
      [
        "▁tidigare",
        -8.014472351366297
      ],
      [
        "▁fått",
        -8.0209472434218
      ],
      [
        "▁just",
        -8.024385747846516
      ],
      [
        "▁mitt",
        -8.030545051221782
      ],
      [
        "▁gång",
        -8.032886378412355
      ],
      [
        "▁komma",
        -8.045347200933463
      ],
      [
        "%",
        -8.047458286550503
      ],
      [
        "▁Läs",
        -8.062784260414317
      ],
      [
        "▁tror",
        -8.071074177767969
      ],
      [
        "▁B",
        -8.071826552598633
      ],
      [
        "▁riktigt",
        -8.079814898634305
      ],
      [
        "des",
        -8.083356531506189
      ],
      [
        "▁hitta",
        -8.086175675043739
      ],
      [
        "▁skall",
        -8.093736046650275
      ],
      [
        "▁dock",
        -8.094645856513612
      ],
      [
        "▁ge",
        -8.098482006962879
      ],
      [
        "▁Har",
        -8.103334833362487
      ],
      [
        "▁eftersom",
        -8.104536215184881
      ],
      [
        "▁Vad",
        -8.106006707009191
      ],
      [
        "▁annan",
        -8.10799444103182
      ],
      [
        "▁enligt",
        -8.109001247775963
      ],
      [
        "▁plats",
        -8.110636125669524
      ],
      [
        "▁gick",
        -8.113165636534303
      ],
      [
        "▁mest",
        -8.120606299099098
      ],
      [
        "▁redan",
        -8.125565361527919
      ],
      [
        "▁Med",
        -8.128706422011511
      ],
      [
        "▁Ett",
        -8.14397441861305
      ],
      [
        "▁Hur",
        -8.148407505830418
      ],
      [
        "▁svenska",
        -8.149787689398929
      ],
      [
        "el",
        -8.152398005288385
      ],
      [
        "▁P",
        -8.153416702600573
      ],
      [
        "▁runt",
        -8.158916137307514
      ],
      [
        "▁kunde",
        -8.16178542241486
      ],
      [
        "man",
        -8.16602990175219
      ],
      [
        "▁fler",
        -8.17196582323552
      ],
      [
        "▁företag",
        -8.173449320279344
      ],
      [
        "j",
        -8.17530569495151
      ],
      [
        "▁gjort",
        -8.176443380463112
      ],
      [
        "▁C",
        -8.194041984953717
      ],
      [
        "▁hjälp",
        -8.194931694462525
      ],
      [
        "▁deras",
        -8.19643296846501
      ],
      [
        "▁M",
        -8.200344785953092
      ],
      [
        "▁dina",
        -8.20380726460633
      ],
      [
        "▁E",
        -8.203898715597852
      ],
      [
        "▁människor",
        -8.204857981854062
      ],
      [
        "▁aldrig",
        -8.214996004674756
      ],
      [
        "▁dom",
        -8.217568519290129
      ],
      [
        "▁verkligen",
        -8.225015837107001
      ],
      [
        "▁tillbaka",
        -8.23331887372844
      ],
      [
        "▁tillsammans",
        -8.233875385108652
      ],
      [
        "▁F",
        -8.234993101740681
      ],
      [
        "▁gjorde",
        -8.242126931365906
      ],
      [
        "▁G",
        -8.243462640573359
      ],
      [
        "▁Man",
        -8.254422304553035
      ],
      [
        "▁tiden",
        -8.259487469790864
      ],
      [
        "▁ofta",
        -8.272681508897465
      ],
      [
        "▁information",
        -8.28451532036116
      ],
      [
        "▁tog",
        -8.288401207395426
      ],
      [
        "▁lika",
        -8.289937936610855
      ],
      [
        "▁mina",
        -8.292127556678167
      ],
      [
        "▁lätt",
        -8.295603783390769
      ],
      [
        "▁personer",
        -8.29764929930868
      ],
      [
        "▁K",
        -8.297713155503756
      ],
      [
        "▁därför",
        -8.29842168063025
      ],
      [
        "▁använda",
        -8.300433157430001
      ],
      [
        "▁mindre",
        -8.308644381411455
      ],
      [
        "▁sen",
        -8.317638003831444
      ],
      [
        "x",
        -8.31904803092848
      ],
      [
        "▁läsa",
        -8.319828549973742
      ],
      [
        "för",
        -8.320843086723531
      ],
      [
        "▁honom",
        -8.330567831779428
      ],
      [
        "▁mat",
        -8.332844865419563
      ],
      [
        "'",
        -8.337962483017332
      ],
      [
        "▁säga",
        -8.338101868762003
      ],
      [
        "▁hemma",
        -8.343459054688097
      ],
      [
        "▁direkt",
        -8.34363654048924
      ],
      [
        "om",
        -8.346680995962675
      ],
      [
        "▁ur",
        -8.347970331287767
      ],
      [
        "▁ändå",
        -8.356067949710747
      ],
      [
        "▁större",
        -8.356923286354034
      ],
      [
        "▁bör",
        -8.361683751245868
      ],
      [
        "▁grund",
        -8.366468117219025
      ],
      [
        "ö",
        -8.36714758947814
      ],
      [
        "▁kr",
        -8.367254505333708
      ],
      [
        "▁små",
        -8.374459140999763
      ],
      [
        "▁slut",
        -8.37510639423956
      ],
      [
        "▁kvar",
        -8.38347654635646
      ],
      [
        "▁egen",
        -8.384120785948205
      ],
      [
        "▁hög",
        -8.385206423832976
      ],
      [
        "▁innebär",
        -8.387264453870412
      ],
      [
        "▁står",
        -8.387636108039445
      ],
      [
        "▁Som",
        -8.388053562365442
      ],
      [
        "▁enkelt",
        -8.390436167922921
      ],
      [
        "▁mål",
        -8.391979524123924
      ],
      [
        "▁exempel",
        -8.392518791877597
      ],
      [
        "▁Efter",
        -8.393192795274722
      ],
      [
        "▁T",
        -8.394719794017853
      ],
      [
        "▁Hon",
        -8.400873558670687
      ],
      [
        "▁hans",
        -8.408814195834044
      ],
      [
        "▁vatten",
        -8.40991833127209
      ],
      [
        "▁problem",
        -8.414257660181518
      ],
      [
        "▁liv",
        -8.420010333816556
      ],
      [
        "▁spel",
        -8.42165688558695
      ],
      [
        "▁senaste",
        -8.424564747425405
      ],
      [
        "▁procent",
        -8.425608526415008
      ],
      [
        "▁längre",
        -8.428057950862065
      ],
      [
        "on",
        -8.429922009689589
      ],
      [
        "▁haft",
        -8.430067763728717
      ],
      [
        "▁par",
        -8.43179328211683
      ],
      [
        "▁känner",
        -8.434591493499898
      ],
      [
        "▁dagar",
        -8.437380273633206
      ],
      [
        "▁Då",
        -8.441226558598958
      ],
      [
        "▁stort",
        -8.441560383316727
      ],
      [
        "▁god",
        -8.444798875547269
      ],
      [
        "▁hand",
        -8.455559887751896
      ],
      [
        "▁saker",
        -8.460524747284024
      ],
      [
        "▁H",
        -8.463178523214815
      ],
      [
        "▁Under",
        -8.471456768154162
      ],
      [
        "▁blivit",
        -8.47358284645072
      ],
      [
        "▁per",
        -8.474307680147364
      ],
      [
        "▁länge",
        -8.477293435399051
      ],
      [
        "▁skapa",
        -8.481365106969072
      ],
      [
        "▁Stockholm",
        -8.482146461180275
      ],
      [
        "▁lång",
        -8.482961215733456
      ],
      [
        "B",
        -8.484868734714155
      ],
      [
        "▁möjligt",
        -8.485562928360377
      ],
      [
        "▁faktiskt",
        -8.489889134770864
      ],
      [
        "liga",
        -8.49598760490136
      ],
      [
        "]",
        -8.496600797222598
      ],
      [
        "[",
        -8.496906795720903
      ],
      [
        "D",
        -8.499938325378771
      ],
      [
        "▁pengar",
        -8.50686516391469
      ],
      [
        "▁kort",
        -8.50876607050174
      ],
      [
        "▁visar",
        -8.51005567139741
      ],
      [
        "▁köpa",
        -8.510640546294436
      ],
      [
        "|",
        -8.51867880046125
      ],
      [
        "▁L",
        -8.519824679491952
      ],
      [
        "▁svårt",
        -8.52473664186127
      ],
      [
        "▁ganska",
        -8.52781418326547
      ],
      [
        "▁känns",
        -8.529020107226502
      ],
      [
        "▁Där",
        -8.529466419104013
      ],
      [
        "ännu",
        -8.53039221114437
      ],
      [
        "▁börjar",
        -8.53948193978353
      ],
      [
        "▁nytt",
        -8.541916656610383
      ],
      [
        "▁väg",
        -8.544605872694428
      ],
      [
        "▁liten",
        -8.544765329694654
      ],
      [
        "▁hålla",
        -8.545685850437913
      ],
      [
        "▁inför",
        -8.548314949951385
      ],
      [
        "ligt",
        -8.549228650318373
      ],
      [
        "▁gärna",
        -8.550257456787397
      ],
      [
        "nde",
        -8.551713570352995
      ],
      [
        "▁folk",
        -8.553505603728704
      ],
      [
        "▁inget",
        -8.558419064542063
      ],
      [
        "A",
        -8.565768625350607
      ],
      [
        "▁Är",
        -8.566021824343814
      ],
      [
        "▁bil",
        -8.56885457914608
      ],
      [
        "▁ca",
        -8.5759084266618
      ],
      [
        "▁håller",
        -8.576601977647808
      ],
      [
        "ig",
        -8.578554938227105
      ],
      [
        "▁spela",
        -8.579871610533724
      ],
      [
        "▁nästan",
        -8.582892741092676
      ],
      [
        "▁hotell",
        -8.583475944792422
      ],
      [
        "▁fortfarande",
        -8.590195919803474
      ],
      [
        "gått",
        -8.590587793835194
      ],
      [
        "▁extra",
        -8.593342643258646
      ],
      [
        "▁kommun",
        -8.594151932131517
      ],
      [
        "▁hittar",
        -8.595553711486344
      ],
      [
        "▁vårt",
        -8.597905610311336
      ],
      [
        "▁Ja",
        -8.597922352229048
      ],
      [
        "▁handlar",
        -8.599387148625992
      ],
      [
        "▁ute",
        -8.601676914602118
      ],
      [
        "▁frågor",
        -8.603434605480023
      ],
      [
        "▁fast",
        -8.604139748084027
      ],
      [
        "▁vissa",
        -8.604677725826592
      ],
      [
        "▁dagen",
        -8.605038158615812
      ],
      [
        "är",
        -8.611676812836699
      ],
      [
        "▁kronor",
        -8.613095140229756
      ],
      [
        "▁dess",
        -8.613988615423578
      ],
      [
        "▁först",
        -8.617877129448905
      ],
      [
        "▁gånger",
        -8.619424031745488
      ],
      [
        "▁precis",
        -8.621171352358845
      ],
      [
        "▁N",
        -8.623873579366093
      ],
      [
        "▁vilka",
        -8.624125178219138
      ],
      [
        "▁samtidigt",
        -8.62641666515777
      ],
      [
        "la",
        -8.62965615381384
      ],
      [
        "▁alltså",
        -8.630862125614941
      ],
      [
        "vägen",
        -8.632733376910034
      ],
      [
        "ut",
        -8.633123779278694
      ],
      [
        "▁henne",
        -8.63487589398451
      ],
      [
        "▁vidare",
        -8.636031858938425
      ],
      [
        "▁hoppas",
        -8.638785660399426
      ],
      [
        "▁istället",
        -8.639049309338166
      ],
      [
        "▁åter",
        -8.64103078507636
      ],
      [
        "▁fel",
        -8.641742488479064
      ],
      [
        "▁senare",
        -8.642844987328239
      ],
      [
        "▁Alla",
        -8.646072006282793
      ],
      [
        "▁använder",
        -8.647007177372055
      ],
      [
        "▁bilder",
        -8.647853798227496
      ],
      [
        "▁form",
        -8.648681913216183
      ],
      [
        "▁året",
        -8.64971712428437
      ],
      [
        "▁minst",
        -8.650120670530947
      ],
      [
        "▁viktigt",
        -8.651448197915867
      ],
      [
        "*",
        -8.652328844529796
      ],
      [
        "▁D",
        -8.654700122116566
      ],
      [
        "▁vilken",
        -8.65728015069068
      ],
      [
        "berg",
        -8.66155495608401
      ],
      [
        "▁person",
        -8.662400884148017
      ],
      [
        "vis",
        -8.662686924240095
      ],
      [
        "▁lag",
        -8.66306439250805
      ],
      [
        "▁arbete",
        -8.66570382556748
      ],
      [
        "het",
        -8.667457504696962
      ],
      [
        "▁började",
        -8.66787260012247
      ],
      [
        "son",
        -8.672624838528945
      ],
      [
        "▁gott",
        -8.67358416191198
      ],
      [
        "▁nästa",
        -8.67506750903231
      ],
      [
        "▁fyra",
        -8.67785702267653
      ],
      [
        "▁skriver",
        -8.681404195805657
      ],
      [
        "talet",
        -8.681869599117201
      ],
      [
        "▁Till",
        -8.685458805533441
      ],
      [
        "▁stöd",
        -8.686772448685213
      ],
      [
        "▁sidan",
        -8.69102200769108
      ],
      [
        "▁gratis",
        -8.692719108188843
      ],
      [
        "▁pris",
        -8.693813404096675
      ],
      [
        "▁sista",
        -8.696793488237802
      ],
      [
        "▁ihop",
        -8.697123920681975
      ],
      [
        "ex",
        -8.697580316683261
      ],
      [
        "­",
        -8.699001605911452
      ],
      [
        "▁största",
        -8.69931890850524
      ],
      [
        "verkar",
        -8.703541463640537
      ],
      [
        "▁endast",
        -8.70441363059639
      ],
      [
        "området",
        -8.706624289493604
      ],
      [
        "▁fråga",
        -8.706909162224802
      ],
      [
        "▁jobb",
        -8.709309804606148
      ],
      [
        "K",
        -8.717582506677074
      ],
      [
        "▁erbjuder",
        -8.718157061142357
      ],
      [
        "▁kvinnor",
        -8.719119186653655
      ],
      [
        "▁flesta",
        -8.721598478727243
      ],
      [
        "▁nära",
        -8.72728770983692
      ],
      [
        "▁själva",
        -8.73690408730659
      ],
      [
        "▁sett",
        -8.7389376470399
      ],
      [
        "▁kring",
        -8.740305992932505
      ],
      [
        "▁snabbt",
        -8.741189315111106
      ],
      [
        "ska",
        -8.741528852309463
      ],
      [
        "▁hel",
        -8.743839227870314
      ],
      [
        "▁bild",
        -8.744371552685367
      ],
      [
        "▁egna",
        -8.751327829638642
      ],
      [
        "▁hennes",
        -8.75197898311201
      ],
      [
        "▁R",
        -8.755179657375985
      ],
      [
        "lig",
        -8.75869452060884
      ],
      [
        "▁O",
        -8.759712997792054
      ],
      [
        "▁såg",
        -8.760480201720485
      ],
      [
        "▁välja",
        -8.76083945299225
      ],
      [
        "▁möjlighet",
        -8.761368542347878
      ],
      [
        "M",
        -8.762136631968175
      ],
      [
        "T",
        -8.768068310102564
      ],
      [
        "▁börja",
        -8.76877617437868
      ],
      [
        "▁beslut",
        -8.770862800726622
      ],
      [
        "▁all",
        -8.770985478031115
      ],
      [
        "▁världen",
        -8.773844765485185
      ],
      [
        "▁dessutom",
        -8.77587005621002
      ],
      [
        "tagit",
        -8.780033306623324
      ],
      [
        "▁borde",
        -8.78162825641679
      ],
      [
        "▁klart",
        -8.782281605408434
      ],
      [
        "▁V",
        -8.783644624976908
      ],
      [
        "▁fin",
        -8.784520223772134
      ],
      [
        "C",
        -8.786385372238682
      ],
      [
        "▁veckan",
        -8.7874912918519
      ],
      [
        "ä",
        -8.788118224240595
      ],
      [
        "aste",
        -8.789086490482033
      ],
      [
        "iga",
        -8.792693004276328
      ],
      [
        "▁Idag",
        -8.793149565443626
      ],
      [
        "▁gamla",
        -8.795203588975435
      ],
      [
        "▁vecka",
        -8.79967601074903
      ],
      [
        "▁kul",
        -8.802472211959302
      ],
      [
        "▁kl",
        -8.807053523248122
      ],
      [
        "▁sex",
        -8.809491689577628
      ],
      [
        "L",
        -8.810404998261193
      ],
      [
        "▁fem",
        -8.812210365983425
      ],
      [
        "▁svar",
        -8.813885953731264
      ],
      [
        "P",
        -8.814729424887688
      ],
      [
        "▁helst",
        -8.82124998455643
      ],
      [
        "▁långt",
        -8.824538515500468
      ],
      [
        "▁AB",
        -8.824564942443226
      ],
      [
        "iska",
        -8.825185464986202
      ],
      [
        "▁miljö",
        -8.825253684812106
      ],
      [
        "inga",
        -8.827316626741968
      ],
      [
        "▁Även",
        -8.827669391920125
      ],
      [
        "ej",
        -8.828246255436616
      ],
      [
        "▁varför",
        -8.83079250919033
      ],
      [
        "▁visa",
        -8.830821981612711
      ],
      [
        "▁tips",
        -8.831678104761222
      ],
      [
        "▁lägga",
        -8.833381011548498
      ],
      [
        "▁behov",
        -8.835973921679315
      ],
      [
        "▁trots",
        -8.839145986767432
      ],
      [
        "▁rum",
        -8.844604749335595
      ],
      [
        "▁delar",
        -8.845215991700242
      ],
      [
        "ja",
        -8.84713430050794
      ],
      [
        "_",
        -8.847508839830633
      ],
      [
        "▁typ",
        -8.853917919484754
      ],
      [
        "▁början",
        -8.856539117689584
      ],
      [
        "▁minuter",
        -8.860808165504062
      ],
      [
        "▁Air",
        -8.861017890441271
      ],
      [
        "▁känna",
        -8.863261016645698
      ],
      [
        "▁brukar",
        -8.863271685064122
      ],
      [
        "▁hjälpa",
        -8.866167174784616
      ],
      [
        "▁namn",
        -8.866279230885711
      ],
      [
        "▁Nike",
        -8.86823820673151
      ],
      [
        "▁ville",
        -8.870834746120517
      ],
      [
        "ch",
        -8.87370635987604
      ],
      [
        "▁skriva",
        -8.87408720084245
      ],
      [
        "hjälper",
        -8.87420948695704
      ],
      [
        "▁Max",
        -8.876574319225627
      ],
      [
        "▁medan",
        -8.878460270527558
      ],
      [
        "▁emot",
        -8.878892704536
      ],
      [
        "com",
        -8.880610714868972
      ],
      [
        "▁tänka",
        -8.880905339662492
      ],
      [
        "▁ibland",
        -8.883826048822915
      ],
      [
        "▁snart",
        -8.885527786380491
      ],
      [
        "▁enda",
        -8.886657710653695
      ],
      [
        "▁Se",
        -8.887651165870228
      ],
      [
        "igt",
        -8.887737563772118
      ],
      [
        "▁fina",
        -8.890848811375795
      ],
      [
        "▁Vid",
        -8.892905864979518
      ],
      [
        "▁of",
        -8.895955203943569
      ],
      [
        "▁val",
        -8.896285887101413
      ],
      [
        "▁heller",
        -8.900843839045184
      ],
      [
        "▁arbetar",
        -8.901895434422899
      ],
      [
        "▁tag",
        -8.909118120291664
      ],
      [
        "sk",
        -8.912778045358547
      ],
      [
        "▁gången",
        -8.914066263214533
      ],
      [
        "▁färg",
        -8.914476582581212
      ],
      [
        "▁resultat",
        -8.917013835936176
      ],
      [
        "stod",
        -8.91723545234391
      ],
      [
        "▁Denna",
        -8.9190614324895
      ],
      [
        "▁egentligen",
        -8.919362561994733
      ],
      [
        "fanns",
        -8.9194144304499
      ],
      [
        "▁vanligt",
        -8.920123748902986
      ],
      [
        "tal",
        -8.921728428365153
      ],
      [
        "sson",
        -8.922835688441916
      ],
      [
        "▁Av",
        -8.923819620258199
      ],
      [
        "▁ned",
        -8.925897950490175
      ],
      [
        "▁Sedan",
        -8.926311629498162
      ],
      [
        "▁In",
        -8.928891093613784
      ],
      [
        "▁livet",
        -8.931895814451453
      ],
      [
        "▁miljoner",
        -8.934016521687441
      ],
      [
        "▁ord",
        -8.934348699537354
      ],
      [
        "▁förslag",
        -8.934675332847078
      ],
      [
        "▁online",
        -8.935235312058353
      ],
      [
        "▁energi",
        -8.937890802353104
      ],
      [
        "▁timmar",
        -8.94242318276307
      ],
      [
        "+",
        -8.943090744492272
      ],
      [
        "I",
        -8.946355217672092
      ],
      [
        "men",
        -8.946668132675027
      ],
      [
        "▁sådan",
        -8.946735840355391
      ],
      [
        "▁låg",
        -8.95094216206246
      ],
      [
        "G",
        -8.95417473097491
      ],
      [
        "▁EU",
        -8.95511041668648
      ],
      [
        "▁bäst",
        -8.956034737334086
      ],
      [
        "▁dags",
        -8.957869215247028
      ],
      [
        "·",
        -8.958860233285714
      ],
      [
        "▁antal",
        -8.959732972660277
      ],
      [
        "▁bok",
        -8.963019120585903
      ],
      [
        "▁utanför",
        -8.965164975648229
      ],
      [
        "=",
        -8.965246208248372
      ],
      [
        "▁hus",
        -8.966358867387893
      ],
      [
        "▁Tack",
        -8.967331170613592
      ],
      [
        "▁Min",
        -8.968794068722957
      ],
      [
        "▁framför",
        -8.969690737576085
      ],
      [
        "▁inne",
        -8.970219462563408
      ],
      [
        "att",
        -8.970334615251076
      ],
      [
        "▁km",
        -8.97223481441986
      ],
      [
        "▁jätte",
        -8.973352563994112
      ],
      [
        "▁veta",
        -8.973844780776435
      ],
      [
        "sagt",
        -8.974061079887091
      ],
      [
        "▁varandra",
        -8.974948846018064
      ],
      [
        "▁Sveriges",
        -8.976497686574048
      ],
      [
        "sitter",
        -8.9785145042935
      ],
      [
        "▁passar",
        -8.981474307038962
      ],
      [
        "▁särskilt",
        -8.982767279114151
      ],
      [
        "▁ytterligare",
        -8.982992810988046
      ],
      [
        "orna",
        -8.992393284783327
      ],
      [
        "▁båda",
        -8.995328592581568
      ],
      [
        "▁fungerar",
        -8.996172057288769
      ],
      [
        "ger",
        -8.996817459592846
      ],
      [
        "▁verksamhet",
        -8.998878086969937
      ],
      [
        "▁betala",
        -9.001696397182942
      ],
      [
        "▁kontakt",
        -9.002744666213655
      ],
      [
        "år",
        -9.003251091053414
      ],
      [
        "“",
        -9.00524683612383
      ],
      [
        "w",
        -9.005960938204264
      ],
      [
        "▁J",
        -9.006805007087014
      ],
      [
        "▁förra",
        -9.008052980244466
      ],
      [
        "▁används",
        -9.01121405978596
      ],
      [
        "▁resa",
        -9.013104861390019
      ],
      [
        "av",
        -9.014015020114762
      ],
      [
        "▁produkter",
        -9.01437800639171
      ],
      [
        "F",
        -9.015446475248147
      ],
      [
        "z",
        -9.016281413870471
      ],
      [
        "▁Sen",
        -9.021323899200732
      ],
      [
        "▁kommit",
        -9.022293892683338
      ],
      [
        "▁gillar",
        -9.023950516176068
      ],
      [
        "▁USA",
        -9.033813275377433
      ],
      [
        "tänker",
        -9.041905885276943
      ],
      [
        "▁arbeta",
        -9.04252679225294
      ],
      [
        "▁skolan",
        -9.044040675387112
      ],
      [
        "H",
        -9.044406261685484
      ],
      [
        "▁besök",
        -9.044559903522936
      ],
      [
        "▁maj",
        -9.045460473551135
      ],
      [
        "▁händer",
        -9.048628995457683
      ],
      [
        "▁landet",
        -9.052437729597148
      ],
      [
        "▁tur",
        -9.052488298005457
      ],
      [
        "och",
        -9.057644934746797
      ],
      [
        "▁bakom",
        -9.058318478633305
      ],
      [
        "▁Inte",
        -9.058577576949105
      ],
      [
        "▁Kan",
        -9.05878908869876
      ],
      [
        "▁söker",
        -9.059593646136184
      ],
      [
        "▁spelar",
        -9.062013523452675
      ],
      [
        "lagen",
        -9.063242564820403
      ],
      [
        "tid",
        -9.064673410907798
      ],
      [
        "▁omdömen",
        -9.064721414137011
      ],
      [
        "väl",
        -9.072643913976039
      ],
      [
        "▁bor",
        -9.074838322912683
      ],
      [
        "▁åka",
        -9.077512358372298
      ],
      [
        "▁igenom",
        -9.079115973861098
      ],
      [
        "▁projekt",
        -9.083215347421895
      ],
      [
        "▁svensk",
        -9.08437912702467
      ],
      [
        "▁utveckling",
        -9.085151884425429
      ],
      [
        "▁ja",
        -9.08543960823897
      ],
      [
        "▁lämna",
        -9.086122631991921
      ],
      [
        "era",
        -9.088429227161797
      ],
      [
        "▁huvud",
        -9.090621751537785
      ],
      [
        "ge",
        -9.091674605936593
      ],
      [
        "▁säkert",
        -9.09386808580741
      ],
      [
        "▁visst",
        -9.095321552273138
      ],
      [
        "▁barnen",
        -9.095942337570827
      ],
      [
        "▁sak",
        -9.096773336800688
      ],
      [
        "▁ovan",
        -9.097696883863307
      ],
      [
        "▁ljus",
        -9.097764780185216
      ],
      [
        "▁veckor",
        -9.099379259872778
      ],
      [
        "▁män",
        -9.099859861985486
      ],
      [
        "▁inlägg",
        -9.099996082269103
      ],
      [
        "samma",
        -9.100688412429635
      ],
      [
        "be",
        -9.101370916148662
      ],
      [
        "▁dra",
        -9.10302545071298
      ],
      [
        "Dessutom",
        -9.105774373504369
      ],
      [
        "▁lilla",
        -9.10699101015321
      ],
      [
        "▁film",
        -9.110436896288663
      ],
      [
        "▁Var",
        -9.112882989701635
      ],
      [
        "▁The",
        -9.113978851467664
      ],
      [
        "▁jobba",
        -9.114016889477831
      ],
      [
        "▁innehåller",
        -9.116947696508607
      ],
      [
        "▁äta",
        -9.11776064054198
      ],
      [
        "▁krav",
        -9.118467959904608
      ],
      [
        "▁steg",
        -9.120325161109548
      ],
      [
        "▁Enligt",
        -9.120890781669193
      ],
      [
        "▁högre",
        -9.121692697191737
      ],
      [
        "▁månader",
        -9.121914502648366
      ],
      [
        "▁musik",
        -9.125336704825514
      ],
      [
        "▁U",
        -9.125337576882059
      ],
      [
        "▁kör",
        -9.128432412206198
      ],
      [
        "▁bygga",
        -9.130702445063354
      ],
      [
        "ell",
        -9.13622959574355
      ],
      [
        "▁kroppen",
        -9.136533276311264
      ],
      [
        "▁betyg",
        -9.136759709363192
      ],
      [
        "▁sida",
        -9.13750765639507
      ],
      [
        "▁berättar",
        -9.138086232514318
      ],
      [
        "▁the",
        -9.138862398786896
      ],
      [
        "▁arbets",
        -9.139068506880955
      ],
      [
        "▁W",
        -9.139803137224142
      ],
      [
        "▁öppna",
        -9.140308267514689
      ],
      [
        "▁full",
        -9.14221665750711
      ],
      [
        "▁ingår",
        -9.145601017007728
      ],
      [
        "▁max",
        -9.147547840589398
      ],
      [
        "▁alls",
        -9.149945260298125
      ],
      [
        "▁lära",
        -9.151735957139005
      ],
      [
        ">",
        -9.153896980819347
      ],
      [
        "▁personal",
        -9.154008707576292
      ],
      [
        "▁Vill",
        -9.154843128287768
      ],
      [
        "▁försöka",
        -9.155136502495495
      ],
      [
        "▁kunder",
        -9.158014314687277
      ],
      [
        "Många",
        -9.159439715880504
      ],
      [
        "ström",
        -9.160858278051455
      ],
      [
        "spel",
        -9.16402683336743
      ],
      [
        "väljer",
        -9.164973378043832
      ],
      [
        "▁mamma",
        -9.16519424225128
      ],
      [
        "um",
        -9.165663498890902
      ],
      [
        "▁äldre",
        -9.16694863735423
      ],
      [
        "▁åren",
        -9.169767883926259
      ],
      [
        "▁roligt",
        -9.173793866312565
      ],
      [
        "▁främst",
        -9.17581316362324
      ],
      [
        "▁viktig",
        -9.177174170069437
      ],
      [
        "▁alternativ",
        -9.178307381715811
      ],
      [
        "▁följa",
        -9.180725061433169
      ],
      [
        "▁skrev",
        -9.184925842822159
      ],
      [
        "▁Göteborg",
        -9.185727351853352
      ],
      [
        "ste",
        -9.186783781790863
      ],
      [
        "▁tack",
        -9.186859973829511
      ],
      [
        "ras",
        -9.186942443807283
      ],
      [
        "▁frågan",
        -9.193715399715337
      ],
      [
        "▁perfekt",
        -9.196230810430913
      ],
      [
        "▁Ta",
        -9.200915838726441
      ],
      [
        "▁tydlig",
        -9.201022067212213
      ],
      [
        "rum",
        -9.202831895628352
      ],
      [
        "▁blogg",
        -9.203336563818606
      ],
      [
        "▁sommar",
        -9.204813022156769
      ],
      [
        "E",
        -9.205809422266801
      ],
      [
        "V",
        -9.20661859040283
      ],
      [
        "▁Ska",
        -9.206746906168947
      ],
      [
        "▁ansvar",
        -9.20863003057608
      ],
      [
        "läget",
        -9.210759196274813
      ],
      [
        "▁lär",
        -9.21140361973286
      ],
      [
        "ligen",
        -9.212045481844036
      ],
      [
        "sätta",
        -9.215104201996354
      ],
      [
        "▁igång",
        -9.216274638434133
      ],
      [
        "▁spelare",
        -9.216521033297596
      ],
      [
        "laget",
        -9.220495814877253
      ],
      [
        "▁Bra",
        -9.222065518768119
      ],
      [
        "▁spännande",
        -9.225172484588533
      ],
      [
        "by",
        -9.225212699460652
      ],
      [
        "▁ifrån",
        -9.227206156378056
      ],
      [
        "▁fort",
        -9.227399149931697
      ],
      [
        "ast",
        -9.227550675629944
      ],
      [
        "▁sker",
        -9.227593098815595
      ],
      [
        "▁Malmö",
        -9.230626506701425
      ],
      [
        "▁fint",
        -9.233129935696425
      ],
      [
        "▁vänner",
        -9.233368291755381
      ],
      [
        "▁vanlig",
        -9.236365781381487
      ],
      [
        "▁samband",
        -9.239069210813375
      ],
      [
        "▁massa",
        -9.239391208174538
      ],
      [
        "slutet",
        -9.239560485327043
      ],
      [
        "land",
        -9.242902109811789
      ],
      [
        "▁nätet",
        -9.243251668869515
      ],
      [
        "som",
        -9.243944293609985
      ],
      [
        "▁minska",
        -9.244678679881625
      ],
      [
        "Det",
        -9.245492159396601
      ],
      [
        "▁Ni",
        -9.245727736489298
      ],
      [
        "▁goda",
        -9.246832697210442
      ],
      [
        "▁poäng",
        -9.248303507270233
      ],
      [
        "▁följande",
        -9.248838744202205
      ],
      [
        "▁roll",
        -9.248948208232877
      ],
      [
        "▁uppgifter",
        -9.250936523779707
      ],
      [
        "▁satt",
        -9.253514538982389
      ],
      [
        "▁öka",
        -9.256000023083676
      ],
      [
        "▁skicka",
        -9.2561766801222
      ],
      [
        "ny",
        -9.25669474270958
      ],
      [
        "▁fri",
        -9.25896621360996
      ],
      [
        "▁Svenska",
        -9.259051796723321
      ],
      [
        "▁Genom",
        -9.260345227236593
      ],
      [
        "▁januari",
        -9.261381938294967
      ],
      [
        "▁dit",
        -9.26239071845577
      ],
      [
        "▁jobbar",
        -9.263688641144348
      ],
      [
        "▁kommunen",
        -9.266584638054692
      ],
      [
        "▁ex",
        -9.267029376913975
      ],
      [
        "går",
        -9.270081680990438
      ],
      [
        "▁erfarenhet",
        -9.270582235387028
      ],
      [
        "▁titta",
        -9.271151942066492
      ],
      [
        "den",
        -9.27158078749438
      ],
      [
        "▁Allt",
        -9.27202664173488
      ],
      [
        "▁jobbet",
        -9.272302727287316
      ],
      [
        "▁jul",
        -9.272702322160196
      ],
      [
        "▁län",
        -9.274498931814414
      ],
      [
        "▁Bo",
        -9.274679079422338
      ],
      [
        "▁eget",
        -9.275491412360253
      ],
      [
        "ningen",
        -9.277550409218872
      ],
      [
        "▁utbildning",
        -9.278280610929608
      ],
      [
        "▁månad",
        -9.278745053557792
      ],
      [
        "▁augusti",
        -9.279555342532172
      ],
      [
        "▁Be",
        -9.279774263395193
      ],
      [
        "N",
        -9.280025432932723
      ],
      [
        "▁älskar",
        -9.280689032311958
      ],
      [
        "▁företaget",
        -9.280697204485675
      ],
      [
        "▁stå",
        -9.281471371765413
      ],
      [
        "ering",
        -9.281921869155862
      ],
      [
        "▁liknande",
        -9.282470566985351
      ],
      [
        "▁fortsätta",
        -9.283153487566024
      ],
      [
        "▁glad",
        -9.286324402356234
      ],
      [
        "▁liksom",
        -9.28767084679536
      ],
      [
        "dag",
        -9.288297312586398
      ],
      [
        "▁Dessa",
        -9.288674048654137
      ],
      [
        "försöker",
        -9.2910657837842
      ],
      [
        "▁tro",
        -9.291909173769882
      ],
      [
        "▁unga",
        -9.293145931358053
      ],
      [
        "▁utveckla",
        -9.297159446380187
      ],
      [
        "▁tio",
        -9.29741542574597
      ],
      [
        "▁pa",
        -9.2974344555625
      ],
      [
        "eller",
        -9.29819666676473
      ],
      [
        "▁igår",
        -9.29822241315841
      ],
      [
        "▁Nej",
        -9.299078991429944
      ],
      [
        "låter",
        -9.300464276583678
      ],
      [
        "▁fortsätter",
        -9.30122569112433
      ],
      [
        "▁grupp",
        -9.301979460392879
      ],
      [
        "▁start",
        -9.30507368540074
      ],
      [
        "§",
        -9.305514291577744
      ],
      [
        "▁tredje",
        -9.306460999486472
      ],
      [
        "▁behövs",
        -9.307753188908379
      ],
      [
        "▁vem",
        -9.308741553104639
      ],
      [
        "▁års",
        -9.309221641831387
      ],
      [
        "R",
        -9.309301887392094
      ],
      [
        "▁kolla",
        -9.309590094767914
      ],
      [
        "▁kultur",
        -9.311460825527075
      ],
      [
        "▁vanliga",
        -9.31324689916442
      ],
      [
        "▁priser",
        -9.315826423360171
      ],
      [
        "▁mars",
        -9.316008244301804
      ],
      [
        "▁vilja",
        -9.316128134480858
      ],
      [
        "▁krävs",
        -9.316950285342454
      ],
      [
        "▁material",
        -9.317023051778664
      ],
      [
        "står",
        -9.317757684891845
      ],
      [
        "#",
        -9.318501758690763
      ],
      [
        "▁bl",
        -9.318652551573676
      ],
      [
        "▁rör",
        -9.318697032143596
      ],
      [
        "▁vård",
        -9.320555180770693
      ],
      [
        "▁program",
        -9.321053214047707
      ],
      [
        "▁Från",
        -9.321243226273676
      ],
      [
        "▁Visa",
        -9.321638402530892
      ],
      [
        "▁hälsa",
        -9.323623520952786
      ],
      [
        "Därför",
        -9.324730454955048
      ],
      [
        "delen",
        -9.326321093539612
      ],
      [
        "Jag",
        -9.327925819884415
      ],
      [
        "▁kvalitet",
        -9.328370564784136
      ],
      [
        "▁användas",
        -9.328676976091122
      ],
      [
        "hus",
        -9.329366874091699
      ],
      [
        "▁maskinöver",
        -9.329962137029268
      ],
      [
        "isk",
        -9.332273013253989
      ],
      [
        "▁arbetet",
        -9.332921214109671
      ],
      [
        "▁service",
        -9.333068531747466
      ],
      [
        "▁halv",
        -9.336793729297769
      ],
      [
        "▁Eller",
        -9.337499990112759
      ],
      [
        "betyder",
        -9.337657542342818
      ],
      [
        "rätt",
        -9.337939488831465
      ],
      [
        "▁länder",
        -9.343134460625897
      ],
      [
        "▁kväll",
        -9.345196894365097
      ],
      [
        "val",
        -9.345858214923197
      ],
      [
        "▁råd",
        -9.347246314320367
      ],
      [
        "▁bidra",
        -9.34815944926287
      ],
      [
        "bar",
        -9.34990880682986
      ],
      [
        "▁köra",
        -9.350431756997803
      ],
      [
        "▁fortsatt",
        -9.350683946829596
      ],
      [
        "▁hör",
        -9.354151524535904
      ],
      [
        "▁tillgång",
        -9.354766703313354
      ],
      [
        "▁bo",
        -9.355994962114636
      ],
      [
        "▁and",
        -9.356401451503599
      ],
      [
        "▁ungefär",
        -9.3570350134301
      ],
      [
        "▁djur",
        -9.357039331125401
      ],
      [
        "mer",
        -9.357439887581114
      ],
      [
        "▁nedan",
        -9.358366691819183
      ],
      [
        "▁stund",
        -9.35938593186741
      ],
      [
        "▁prata",
        -9.359596334114324
      ],
      [
        "▁påverka",
        -9.359925784016669
      ],
      [
        "bo",
        -9.362682436617302
      ],
      [
        "▁va",
        -9.363730081424407
      ],
      [
        "därmed",
        -9.363960702600616
      ],
      [
        "»",
        -9.366829185858334
      ],
      [
        "stället",
        -9.367008269322227
      ],
      [
        "nas",
        -9.367080144807437
      ],
      [
        "▁kontakta",
        -9.36859966731124
      ],
      [
        "ring",
        -9.370244726934423
      ],
      [
        "▁bilen",
        -9.370498734054536
      ],
      [
        "▁meter",
        -9.371702460450019
      ],
      [
        "O",
        -9.37392896032447
      ],
      [
        "anser",
        -9.375026590011863
      ],
      [
        "med",
        -9.379980521525711
      ],
      [
        "▁samarbete",
        -9.381707750702555
      ],
      [
        "▁engelska",
        -9.382783311605257
      ],
      [
        "Kanske",
        -9.38371412822263
      ],
      [
        "tyckte",
        -9.38387698535272
      ],
      [
        "ka",
        -9.383961674253976
      ],
      [
        "sta",
        -9.385215588723268
      ],
      [
        "▁skor",
        -9.385926033113805
      ],
      [
        "▁exempelvis",
        -9.388050008413451
      ],
      [
        "Varför",
        -9.391084885763869
      ],
      [
        "▁heter",
        -9.392646409359063
      ],
      [
        "▁cirka",
        -9.393297812398531
      ],
      [
        "lan",
        -9.393316574334909
      ],
      [
        "é",
        -9.393771241944163
      ],
      [
        "▁Vår",
        -9.394159065893152
      ],
      [
        "▁morgon",
        -9.396563310767279
      ],
      [
        "▁air",
        -9.396975088514552
      ],
      [
        "▁klar",
        -9.39736239762543
      ],
      [
        "system",
        -9.398691712188315
      ],
      [
        "▁viss",
        -9.398893178634514
      ],
      [
        "▁kunskap",
        -9.39892227908291
      ],
      [
        "▁Ut",
        -9.39893846645109
      ],
      [
        "finnas",
        -9.399156121282994
      ],
      [
        "▁telefon",
        -9.402737424300739
      ],
      [
        "▁Anna",
        -9.40292696216074
      ],
      [
        "▁uppdrag",
        -9.403186722186662
      ],
      [
        "▁favorit",
        -9.405015345864765
      ],
      [
        "bolaget",
        -9.405727273104253
      ],
      [
        "min",
        -9.406792848397384
      ],
      [
        "oftast",
        -9.40788129113035
      ],
      [
        "▁absolut",
        -9.408035626189424
      ],
      [
        "▁sommaren",
        -9.408879540785346
      ],
      [
        "på",
        -9.409027684985775
      ],
      [
        "▁boken",
        -9.409749630402311
      ],
      [
        "ats",
        -9.410420420625297
      ],
      [
        "▁juni",
        -9.41098699497393
      ],
      [
        "lägger",
        -9.415087194137532
      ],
      [
        "▁hår",
        -9.419448967888021
      ],
      [
        "▁gav",
        -9.419979543771227
      ],
      [
        "▁fokus",
        -9.420008062251672
      ],
      [
        "▁TV",
        -9.420040803291377
      ],
      [
        "behöva",
        -9.42027059697391
      ],
      [
        "▁helgen",
        -9.421045123028572
      ],
      [
        "tänkte",
        -9.421856616975276
      ],
      [
        "ha",
        -9.423849125282757
      ],
      [
        "▁risk",
        -9.42408156090125
      ],
      [
        "▁Ha",
        -9.424559111199876
      ],
      [
        "▁data",
        -9.424958031690034
      ],
      [
        "▁system",
        -9.425369251765805
      ],
      [
        "visade",
        -9.425373999111423
      ],
      [
        "▁Europa",
        -9.426212422142566
      ],
      [
        "▁klara",
        -9.428444074796959
      ],
      [
        "tiden",
        -9.428776901738331
      ],
      [
        "▁kvällen",
        -9.429786219706122
      ],
      [
        "består",
        -9.429826416648245
      ],
      [
        "▁berätta",
        -9.430156506849581
      ],
      [
        "▁land",
        -9.430277547062799
      ],
      [
        "▁övriga",
        -9.432497252383238
      ],
      [
        "▁tanke",
        -9.432594512739884
      ],
      [
        "▁behandling",
        -9.432843255364688
      ],
      [
        "▁framtiden",
        -9.433195820687605
      ],
      [
        "▁förstår",
        -9.433451539237286
      ],
      [
        "▁följer",
        -9.433466761024892
      ],
      [
        "▁ställa",
        -9.434605424583285
      ],
      [
        "▁nike",
        -9.435484583419413
      ],
      [
        "▁speciellt",
        -9.436846595281274
      ],
      [
        "▁match",
        -9.437941515934188
      ],
      [
        "▁sol",
        -9.438997197279365
      ],
      [
        "▁intressant",
        -9.44003324288312
      ],
      [
        "ton",
        -9.440889181741538
      ],
      [
        "▁senast",
        -9.442353189502587
      ],
      [
        "▁plan",
        -9.44499233351124
      ],
      [
        "▁svår",
        -9.445915949686109
      ],
      [
        "▁april",
        -9.446060177351516
      ],
      [
        "▁beroende",
        -9.446906112687872
      ],
      [
        "ur",
        -9.447214721193212
      ],
      [
        "▁familj",
        -9.448512251631113
      ],
      [
        "ly",
        -9.44974798709376
      ],
      [
        "gruppen",
        -9.450595465443538
      ],
      [
        "▁oktober",
        -9.451548436066991
      ],
      [
        "▁skönt",
        -9.451592130055543
      ],
      [
        "åkte",
        -9.452207008444775
      ],
      [
        "▁nämligen",
        -9.453740115788984
      ],
      [
        "emot",
        -9.455976840851738
      ],
      [
        "▁september",
        -9.457096543452774
      ],
      [
        "gående",
        -9.458022072357927
      ],
      [
        "ifrån",
        -9.459485658742816
      ],
      [
        "▁tänkt",
        -9.459524270213686
      ],
      [
        "bara",
        -9.460542608839026
      ],
      [
        "▁intresse",
        -9.46163810263564
      ],
      [
        "▁bilden",
        -9.462510048163468
      ],
      [
        "Eftersom",
        -9.462656576937656
      ],
      [
        "▁förstå",
        -9.462941384660558
      ],
      [
        "▁snabb",
        -9.463150871533955
      ],
      [
        "ont",
        -9.464129865204665
      ],
      [
        "▁lan",
        -9.466887722296327
      ],
      [
        "▁Ny",
        -9.467317720499317
      ],
      [
        "▁familjen",
        -9.47102459059255
      ],
      [
        "del",
        -9.471392101579301
      ],
      [
        "•",
        -9.47263209238814
      ],
      [
        "såsom",
        -9.47314105662672
      ],
      [
        "programmet",
        -9.473361460376193
      ],
      [
        "▁vackra",
        -9.474046476388276
      ],
      [
        "▁lever",
        -9.474545781475369
      ],
      [
        "W",
        -9.47525843485281
      ],
      [
        "erade",
        -9.476290520689124
      ],
      [
        "▁ändra",
        -9.47742511111247
      ],
      [
        "stående",
        -9.479228135421309
      ],
      [
        "alldeles",
        -9.480148787898923
      ],
      [
        "otroligt",
        -9.480272305380227
      ],
      [
        "—",
        -9.480679274691141
      ],
      [
        "▁natur",
        -9.48178836747551
      ],
      [
        "kräver",
        -9.483710342224128
      ],
      [
        "▁verksamheten",
        -9.483966611221307
      ],
      [
        "▁regeringen",
        -9.484241909925107
      ],
      [
        "▁staden",
        -9.484269950583192
      ],
      [
        "annars",
        -9.48459226755128
      ],
      [
        "▁träffa",
        -9.48513580520432
      ],
      [
        "▁skol",
        -9.485983696770415
      ],
      [
        "▁Mer",
        -9.486156566078598
      ],
      [
        "systemet",
        -9.48620071671558
      ],
      [
        "▁skapar",
        -9.486611615628474
      ],
      [
        "▁språk",
        -9.487999908691284
      ],
      [
        "kar",
        -9.489081513174996
      ],
      [
        "▁anledning",
        -9.490679068813384
      ],
      [
        "▁boende",
        -9.492246818460517
      ],
      [
        "▁låta",
        -9.492290390097128
      ],
      [
        "▁köp",
        -9.4941151488439
      ],
      [
        "▁samhället",
        -9.494180159309405
      ],
      [
        "▁säker",
        -9.494372218586273
      ],
      [
        "till",
        -9.495152325514661
      ],
      [
        "väntar",
        -9.495212292522496
      ],
      [
        "▁skillnad",
        -9.495924425405265
      ],
      [
        "höll",
        -9.496596599847752
      ],
      [
        "▁februari",
        -9.497071202390682
      ],
      [
        "kände",
        -9.499519730551055
      ],
      [
        "▁design",
        -9.499802318136222
      ],
      [
        "gen",
        -9.50010841364244
      ],
      [
        "▁cm",
        -9.50484759512449
      ],
      [
        "sätter",
        -9.505286948099297
      ],
      [
        "▁föräldrar",
        -9.505369348611778
      ],
      [
        "▁tjänster",
        -9.507320493420897
      ],
      [
        "▁kund",
        -9.50737098829041
      ],
      [
        "▁hemsida",
        -9.507679610648093
      ],
      [
        "▁hund",
        -9.507993338566138
      ],
      [
        "▁närheten",
        -9.508024739241874
      ],
      [
        "▁ökar",
        -9.509455009292815
      ],
      [
        "beror",
        -9.510982024517547
      ],
      [
        "ett",
        -9.51230505312078
      ],
      [
        "▁Hej",
        -9.512998596423998
      ],
      [
        "ningar",
        -9.513125093123257
      ],
      [
        "▁Stockholms",
        -9.513302015023681
      ],
      [
        "lag",
        -9.514170059337031
      ],
      [
        "▁planera",
        -9.517241912959264
      ],
      [
        "▁dagens",
        -9.518833145457833
      ],
      [
        "▁träning",
        -9.519475003902231
      ],
      [
        "▁sociala",
        -9.52053029709816
      ],
      [
        "▁natt",
        -9.521171798474027
      ],
      [
        "▁samla",
        -9.521926777905882
      ],
      [
        "▁lugn",
        -9.52373887565885
      ],
      [
        "spelet",
        -9.524375023395045
      ],
      [
        "▁höra",
        -9.525891300562169
      ],
      [
        "▁super",
        -9.526458006369774
      ],
      [
        "oavsett",
        -9.527162655647832
      ],
      [
        "typer",
        -9.52892547767795
      ],
      [
        "▁möjligheter",
        -9.5290775005863
      ],
      [
        "▁fungera",
        -9.53061425176928
      ],
      [
        "▁erbjuda",
        -9.53062444537932
      ],
      [
        "▁förbättra",
        -9.53107472141379
      ],
      [
        "▁december",
        -9.534623449916355
      ],
      [
        "▁produkt",
        -9.534868165725232
      ],
      [
        "▁kvinna",
        -9.53649261128846
      ],
      [
        "▁utifrån",
        -9.538213907458736
      ],
      [
        "▁leder",
        -9.538708843923
      ],
      [
        "▁huset",
        -9.54241538640854
      ],
      [
        "ets",
        -9.543594304816223
      ],
      [
        "▁nöjd",
        -9.543916464191954
      ],
      [
        "ner",
        -9.544782798513744
      ],
      [
        "▁flyg",
        -9.548073573444794
      ],
      [
        "▁hantera",
        -9.549344759588545
      ],
      [
        "▁viktiga",
        -9.550563397103533
      ],
      [
        "mannen",
        -9.550723931378903
      ],
      [
        "satts",
        -9.551136352668998
      ],
      [
        "▁värde",
        -9.552679686731395
      ],
      [
        "▁leva",
        -9.554884760210589
      ],
      [
        "▁flytta",
        -9.555807521189111
      ],
      [
        "▁mobil",
        -9.556900045768092
      ],
      [
        "kan",
        -9.557370878435666
      ],
      [
        "▁november",
        -9.557842166158913
      ],
      [
        "Vi",
        -9.558912180646509
      ],
      [
        "▁tas",
        -9.559049589127977
      ],
      [
        "▁världens",
        -9.56008625578394
      ],
      [
        "▁testa",
        -9.560621898172448
      ],
      [
        "▁iväg",
        -9.56144634756616
      ],
      [
        "gatan",
        -9.563835647172064
      ],
      [
        "värt",
        -9.563968505781252
      ],
      [
        "▁juli",
        -9.565362717169094
      ],
      [
        "▁gammal",
        -9.565884525232306
      ],
      [
        "▁for",
        -9.566319925058897
      ],
      [
        "▁klockan",
        -9.566381010083829
      ],
      [
        "kort",
        -9.568018295841682
      ],
      [
        "▁matchen",
        -9.568714139552409
      ],
      [
        "▁elever",
        -9.569074853861864
      ],
      [
        "▁vikt",
        -9.56919920092701
      ],
      [
        "menar",
        -9.569742849346023
      ],
      [
        "sådana",
        -9.569951425733608
      ],
      [
        "▁polisen",
        -9.570160419986145
      ],
      [
        "ler",
        -9.572157484556927
      ],
      [
        "▁högt",
        -9.575261946608808
      ],
      [
        "▁Jo",
        -9.579361360722832
      ],
      [
        "platsen",
        -9.579610352562728
      ],
      [
        "gren",
        -9.58010332361095
      ],
      [
        "▁höga",
        -9.580968174132535
      ],
      [
        "▁rad",
        -9.582361673831608
      ],
      [
        "tyvärr",
        -9.582436465604665
      ],
      [
        "tar",
        -9.583583668478802
      ],
      [
        "▁uttryck",
        -9.583779892788993
      ],
      [
        "▁svart",
        -9.584530260935692
      ],
      [
        "▁marknaden",
        -9.58487176304266
      ],
      [
        "▁topp",
        -9.585079071323097
      ],
      [
        "sökte",
        -9.585648559524895
      ],
      [
        "hända",
        -9.586144092051399
      ],
      [
        "resten",
        -9.586838303309408
      ],
      [
        "▁stark",
        -9.590141835822646
      ],
      [
        "▁ordförande",
        -9.590390906759147
      ],
      [
        "▁åker",
        -9.593078394507714
      ],
      [
        "▁historia",
        -9.595090247242085
      ],
      [
        "antalet",
        -9.595622373132427
      ],
      [
        "▁X",
        -9.595924018704883
      ],
      [
        "co",
        -9.598398945897518
      ],
      [
        "ling",
        -9.598517742811461
      ],
      [
        "drar",
        -9.601244678640846
      ],
      [
        "▁kallas",
        -9.602249335982595
      ],
      [
        "▁internet",
        -9.602942015050122
      ],
      [
        "▁byta",
        -9.60518447184243
      ],
      [
        "▁ögon",
        -9.605260825491692
      ],
      [
        "▁stanna",
        -9.60824452380384
      ],
      [
        "▁säsongen",
        -9.608292475657402
      ],
      [
        "▁omkring",
        -9.608625621583624
      ],
      [
        "▁Anders",
        -9.60863928490953
      ],
      [
        "▁dator",
        -9.609648553530999
      ],
      [
        "▁fullt",
        -9.6097174328058
      ],
      [
        "var",
        -9.609881345012091
      ],
      [
        "▁snö",
        -9.6110094107657
      ],
      [
        "▁kap",
        -9.611762676126446
      ],
      [
        "▁dryg",
        -9.613650402741964
      ],
      [
        "sidan",
        -9.614162456124195
      ],
      [
        "plan",
        -9.614689502849213
      ],
      [
        "▁Per",
        -9.617961428825389
      ],
      [
        "▁trött",
        -9.618240608343573
      ],
      [
        "▁totalt",
        -9.618290239238473
      ],
      [
        "▁La",
        -9.620251652265969
      ],
      [
        "▁lägre",
        -9.621611669806747
      ],
      [
        "▁stil",
        -9.621710220496904
      ],
      [
        "▁långa",
        -9.62213989147749
      ],
      [
        "ation",
        -9.622380259270617
      ],
      [
        "▁pappa",
        -9.622471507291218
      ],
      [
        "rna",
        -9.623843334841844
      ],
      [
        "▁Hotel",
        -9.624331829837068
      ],
      [
        "▁vänta",
        -9.625311130228342
      ],
      [
        "▁bygg",
        -9.625416415302709
      ],
      [
        "▁Johan",
        -9.625985142056127
      ],
      [
        "ledande",
        -9.626959334822047
      ],
      [
        "▁medlemmar",
        -9.62738645608581
      ],
      [
        "▁icke",
        -9.628399838031077
      ],
      [
        "aren",
        -9.6293072759128
      ],
      [
        "▁stad",
        -9.629412450612497
      ],
      [
        "▁sitta",
        -9.631332915022092
      ],
      [
        "▁bär",
        -9.631970851886196
      ],
      [
        "tidigt",
        -9.632500209214575
      ],
      [
        "▁luft",
        -9.633858121947851
      ],
      [
        "▁teknik",
        -9.634763206399676
      ],
      [
        "▁kläder",
        -9.635175621522457
      ],
      [
        "▁Facebook",
        -9.635615192407124
      ],
      [
        "lund",
        -9.636000777518547
      ],
      [
        "▁diskutera",
        -9.636711099459289
      ],
      [
        "lättare",
        -9.636842217650754
      ],
      [
        "plats",
        -9.638730618056382
      ],
      [
        "▁Just",
        -9.638815816210345
      ],
      [
        "▁söka",
        -9.639379525891998
      ],
      [
        "▁hittade",
        -9.640740236744747
      ],
      [
        "ör",
        -9.640752732950213
      ],
      [
        "form",
        -9.641125452486369
      ],
      [
        "▁semester",
        -9.641978837837577
      ],
      [
        "▁Re",
        -9.642318696667525
      ],
      [
        "▁förstås",
        -9.644740488729639
      ],
      [
        "▁hämta",
        -9.644766141708937
      ],
      [
        "▁hösten",
        -9.645639768586587
      ],
      [
        "resenärer",
        -9.646337335731054
      ],
      [
        "mat",
        -9.648231682510119
      ],
      [
        "▁årets",
        -9.648406259532363
      ],
      [
        "▁medel",
        -9.649654995757425
      ],
      [
        "skrivit",
        -9.64975931248777
      ],
      [
        "▁allra",
        -9.652267781859784
      ],
      [
        "▁område",
        -9.652451989741614
      ],
      [
        "▁recept",
        -9.654015411515264
      ],
      [
        "▁vinna",
        -9.654184253835147
      ],
      [
        "log",
        -9.65445749484217
      ],
      [
        "▁böcker",
        -9.655346853402673
      ],
      [
        "▁områden",
        -9.655787574864338
      ],
      [
        "▁håll",
        -9.656431014937075
      ],
      [
        "▁vän",
        -9.65693647791014
      ],
      [
        "▁född",
        -9.65754587222149
      ],
      [
        "▁dåligt",
        -9.65819755119718
      ],
      [
        "ans",
        -9.660417359897181
      ],
      [
        "▁exakt",
        -9.66116621285813
      ],
      [
        "▁åtgärder",
        -9.661276256713002
      ],
      [
        "▁artikel",
        -9.661545204798069
      ],
      [
        "▁spara",
        -9.661919198269795
      ],
      [
        "▁träna",
        -9.662492764955257
      ],
      [
        "▁An",
        -9.668057632741371
      ],
      [
        "▁konstatera",
        -9.66828167234586
      ],
      [
        "▁lokala",
        -9.669054225068972
      ],
      [
        "ställer",
        -9.669272491087211
      ],
      [
        "▁nivå",
        -9.670413830435281
      ],
      [
        "me",
        -9.670686982878173
      ],
      [
        "up",
        -9.671059136106061
      ],
      [
        "▁kraft",
        -9.672096374782209
      ],
      [
        "enbart",
        -9.67358336627774
      ],
      [
        "▁lunch",
        -9.674308013127629
      ],
      [
        "köpte",
        -9.674344559034648
      ],
      [
        "samtliga",
        -9.674364922980033
      ],
      [
        "▁hit",
        -9.67579052125516
      ],
      [
        "▁Tänk",
        -9.67722751563352
      ],
      [
        "▁kontroll",
        -9.67751113176783
      ],
      [
        "så",
        -9.677548886869795
      ],
      [
        "▁bak",
        -9.678191938445812
      ],
      [
        "tillräckligt",
        -9.679533002361241
      ],
      [
        "▁samman",
        -9.680117478918284
      ],
      [
        "börjat",
        -9.680484340300042
      ],
      [
        "fri",
        -9.682048529922339
      ],
      [
        "▁enkel",
        -9.682188489480229
      ],
      [
        "▁värme",
        -9.682311458059452
      ],
      [
        "▁dela",
        -9.682505934643867
      ],
      [
        "▁ljud",
        -9.682529732194629
      ],
      [
        "▁lokal",
        -9.682658581421274
      ],
      [
        "▁dejting",
        -9.68273629522911
      ],
      [
        "ver",
        -9.684325527544656
      ],
      [
        "▁pass",
        -9.686301025767554
      ],
      [
        "▁glas",
        -9.686758393106304
      ],
      [
        "▁känsla",
        -9.686986100564546
      ],
      [
        "post",
        -9.68856713932639
      ],
      [
        "▁delta",
        -9.688595765666218
      ],
      [
        "▁kaffe",
        -9.68869873755295
      ],
      [
        "▁vann",
        -9.689214415338345
      ],
      [
        "huset",
        -9.689268819956357
      ],
      [
        "▁lärare",
        -9.689599381578986
      ],
      [
        "vi",
        -9.689835040268552
      ],
      [
        "▁borta",
        -9.68989572397817
      ],
      [
        "iskt",
        -9.690058604184637
      ],
      [
        "▁behöv",
        -9.691483550557624
      ],
      [
        "vin",
        -9.6936379415444
      ],
      [
        "▁respektive",
        -9.694022138651434
      ],
      [
        "▁vänster",
        -9.695071925590003
      ],
      [
        "fall",
        -9.695995274566108
      ],
      [
        "läser",
        -9.69606890589018
      ],
      [
        "▁trä",
        -9.69627430006709
      ],
      [
        "lin",
        -9.696582479272909
      ],
      [
        "▁tillhör",
        -9.697306487806365
      ],
      [
        "Samtidigt",
        -9.697855573039645
      ],
      [
        "▁sju",
        -9.698546239424957
      ],
      [
        "ion",
        -9.699209320847242
      ],
      [
        "▁användning",
        -9.701295540356988
      ],
      [
        "kända",
        -9.701391016415007
      ],
      [
        "fallet",
        -9.7016228329128
      ],
      [
        "▁konst",
        -9.701898581072827
      ],
      [
        "utmärkt",
        -9.70446757673882
      ],
      [
        "program",
        -9.70452280711288
      ],
      [
        "▁lån",
        -9.704614615445841
      ],
      [
        "▁casino",
        -9.705335226027248
      ],
      [
        "▁Peter",
        -9.70763492488102
      ],
      [
        "bygger",
        -9.710265219820432
      ],
      [
        "▁hälso",
        -9.710273179472598
      ],
      [
        "▁forskning",
        -9.710379795773251
      ],
      [
        "▁handla",
        -9.712530188891128
      ],
      [
        "lar",
        -9.712549310109603
      ],
      [
        "säkra",
        -9.712813642589206
      ],
      [
        "▁smak",
        -9.713564644098263
      ],
      [
        "▁bolag",
        -9.713771032295993
      ],
      [
        "▁trevlig",
        -9.714588219864032
      ],
      [
        "▁höger",
        -9.715326857161605
      ],
      [
        "hört",
        -9.715455101935543
      ],
      [
        "Mycket",
        -9.716463254368728
      ],
      [
        "▁lyckas",
        -9.716483296609562
      ],
      [
        "J",
        -9.717022521898574
      ],
      [
        "dagarna",
        -9.717443866770145
      ],
      [
        "maste",
        -9.71878388696353
      ],
      [
        "▁billiga",
        -9.719311125509504
      ],
      [
        "▁kompetens",
        -9.719534118222162
      ],
      [
        "erad",
        -9.71962202791146
      ],
      [
        "▁massor",
        -9.720457747058514
      ],
      [
        "▁Y",
        -9.721125887983622
      ],
      [
        "U",
        -9.721953234126167
      ],
      [
        "▁högsta",
        -9.723448240435266
      ],
      [
        "efter",
        -9.724746999535522
      ],
      [
        "▁skada",
        -9.724814797524044
      ],
      [
        "▁reda",
        -9.725807866818371
      ],
      [
        "verket",
        -9.72609536509957
      ],
      [
        "▁gällande",
        -9.727238264155858
      ],
      [
        "▁ekonomi",
        -9.727817726668391
      ],
      [
        "sam",
        -9.728575564416612
      ],
      [
        "▁framåt",
        -9.729078311001325
      ],
      [
        "▁låt",
        -9.730604878393098
      ],
      [
        "▁anställda",
        -9.73127452212227
      ],
      [
        "sådant",
        -9.731360878343475
      ],
      [
        "’",
        -9.731392719320215
      ],
      [
        "▁bi",
        -9.732580691347456
      ],
      [
        "itet",
        -9.732882376156153
      ],
      [
        "▁text",
        -9.73306357915664
      ],
      [
        "<",
        -9.733396460022337
      ],
      [
        "▁ekonomiska",
        -9.733397873254832
      ],
      [
        "ist",
        -9.734843703336857
      ],
      [
        "▁sälja",
        -9.735772892458263
      ],
      [
        "▁ske",
        -9.739920483453005
      ],
      [
        "▁verktyg",
        -9.739955116463147
      ],
      [
        "▁säkerhet",
        -9.740093033308419
      ],
      [
        "▁läst",
        -9.740365171593615
      ],
      [
        "▁hårt",
        -9.741984605315373
      ],
      [
        "▁Hitta",
        -9.743002810233616
      ],
      [
        "▁gäster",
        -9.743240090041033
      ],
      [
        "▁skola",
        -9.744161390027092
      ],
      [
        "▁Barn",
        -9.745300713280724
      ],
      [
        "▁försök",
        -9.74840537240308
      ],
      [
        "▁Uppsala",
        -9.750750965200632
      ],
      [
        "▁vuxna",
        -9.752785196485616
      ],
      [
        "▁nån",
        -9.75425558179998
      ],
      [
        "▁Låt",
        -9.755164206802464
      ],
      [
        "▁regler",
        -9.75532083055464
      ],
      [
        "viktigaste",
        -9.755705610513623
      ],
      [
        "bok",
        -9.756180638760926
      ],
      [
        "▁centrum",
        -9.756948621312507
      ],
      [
        "tur",
        -9.75698210152619
      ],
      [
        "▁platser",
        -9.75789040278093
      ],
      [
        "▁sade",
        -9.758317125816859
      ],
      [
        "Varje",
        -9.758511151823813
      ],
      [
        "▁mark",
        -9.759597751240378
      ],
      [
        "▁storlek",
        -9.75968605537229
      ],
      [
        "skolan",
        -9.759786932483692
      ],
      [
        "▁övrigt",
        -9.760456513407311
      ],
      [
        "kostar",
        -9.761195028841009
      ],
      [
        "▁mängd",
        -9.761264306366819
      ],
      [
        "spelade",
        -9.761755824364215
      ],
      [
        "▁önskar",
        -9.762245040588983
      ],
      [
        "vård",
        -9.762601241552371
      ],
      [
        "utveckling",
        -9.762920200471434
      ],
      [
        "Hoppas",
        -9.763529357507803
      ],
      [
        "▁leda",
        -9.76385472623674
      ],
      [
        "▁valt",
        -9.764427415397327
      ],
      [
        "målet",
        -9.765725663282046
      ],
      [
        "utgör",
        -9.767606434530826
      ],
      [
        "▁rolig",
        -9.767816311075512
      ],
      [
        "▁effekt",
        -9.768463517170368
      ],
      [
        "trodde",
        -9.76985685150258
      ],
      [
        "▁hud",
        -9.772391470393748
      ],
      [
        "ades",
        -9.772464941924447
      ],
      [
        "▁Foto",
        -9.77256722973083
      ],
      [
        "else",
        -9.772665207378248
      ],
      [
        "▁chans",
        -9.772903385865813
      ],
      [
        "företag",
        -9.774322038864302
      ],
      [
        "▁Hans",
        -9.775154881790291
      ],
      [
        "▁ålder",
        -9.775412897879548
      ],
      [
        "▁besökare",
        -9.775782270033822
      ],
      [
        "gick",
        -9.775812371806564
      ],
      [
        "närmare",
        -9.777726608753706
      ],
      [
        "▁ordning",
        -9.777729939690401
      ],
      [
        "stad",
        -9.777822432974222
      ],
      [
        "mar",
        -9.778712960859988
      ],
      [
        "▁Ingen",
        -9.779803968725153
      ],
      [
        "▁Fortsätt",
        -9.78045566095894
      ],
      [
        "$",
        -9.780493052009
      ],
      [
        "▁Kina",
        -9.781677335113987
      ],
      [
        "▁Trots",
        -9.781975448079239
      ],
      [
        "▁drog",
        -9.782588583917187
      ],
      [
        "▁filmen",
        -9.782636741913137
      ],
      [
        "▁betydelse",
        -9.78278892607538
      ],
      [
        "▁läge",
        -9.78316901277073
      ],
      [
        "▁bidrag",
        -9.783977476281628
      ],
      [
        "ella",
        -9.784283640951449
      ],
      [
        "▁frukost",
        -9.78464547471499
      ],
      [
        "▁samtal",
        -9.784712690362692
      ],
      [
        "▁Två",
        -9.7850525526934
      ],
      [
        "▁härlig",
        -9.785332888097956
      ],
      [
        "▁starta",
        -9.78545562065856
      ],
      [
        "namnet",
        -9.786728894527334
      ],
      [
        "▁studie",
        -9.78881957080134
      ],
      [
        "valet",
        -9.788984980720556
      ],
      [
        "betydligt",
        -9.789559976675008
      ],
      [
        "▁äter",
        -9.789633887213293
      ],
      [
        "▁syn",
        -9.789770042262997
      ],
      [
        "▁kommande",
        -9.789852557815987
      ],
      [
        "▁fantastisk",
        -9.790693002426277
      ],
      [
        "ken",
        -9.791860287117592
      ],
      [
        "▁boka",
        -9.792765928782044
      ],
      [
        "skap",
        -9.79300098823544
      ],
      [
        "▁död",
        -9.793509010292222
      ],
      [
        "äger",
        -9.794148823387514
      ],
      [
        "däremot",
        -9.795653087424425
      ],
      [
        "▁stan",
        -9.796234318468864
      ],
      [
        "▁Gud",
        -9.797494588648576
      ],
      [
        "▁klimat",
        -9.800440540527434
      ],
      [
        "▁Å",
        -9.801858863508075
      ],
      [
        "branschen",
        -9.804291581010446
      ],
      [
        "▁sport",
        -9.80459077804794
      ],
      [
        "▁personliga",
        -9.804868518365645
      ],
      [
        "▁rent",
        -9.805645690865749
      ],
      [
        "liv",
        -9.806337323766362
      ],
      [
        "▁ben",
        -9.807987327477662
      ],
      [
        "vore",
        -9.808446067384132
      ],
      [
        "nar",
        -9.808519605792165
      ],
      [
        "▁lyssna",
        -9.810834193478325
      ],
      [
        "upp",
        -9.811667721112293
      ],
      [
        "▁någonsin",
        -9.812463495210581
      ],
      [
        "▁tankar",
        -9.814169902234593
      ],
      [
        "▁kredit",
        -9.814547617470417
      ],
      [
        "ökad",
        -9.814671566861554
      ],
      [
        "▁natten",
        -9.814701877255066
      ],
      [
        "▁tak",
        -9.815422526590151
      ],
      [
        "▁påverkar",
        -9.815872387593402
      ],
      [
        "▁kropp",
        -9.816704920378958
      ],
      [
        "▁New",
        -9.816949890979458
      ],
      [
        "▁valde",
        -9.81753333369758
      ],
      [
        "▁Maria",
        -9.819416449579066
      ],
      [
        "jämfört",
        -9.822073948216866
      ],
      [
        "▁prova",
        -9.823891885026507
      ],
      [
        "▁El",
        -9.82462549066498
      ],
      [
        "▁lista",
        -9.82575126911291
      ],
      [
        "gården",
        -9.826126835698563
      ],
      [
        "▁variera",
        -9.827773688263832
      ],
      [
        "▁Ö",
        -9.828282431165295
      ],
      [
        "▁höst",
        -9.829414280772918
      ],
      [
        "erar",
        -9.829430307179809
      ],
      [
        "▁vakna",
        -9.831032050426098
      ],
      [
        "▁skäl",
        -9.831941002633085
      ],
      [
        "▁privat",
        -9.83385507798151
      ],
      [
        "▁slå",
        -9.834023937101875
      ],
      [
        "kändes",
        -9.834441007857382
      ],
      [
        "▁kommentar",
        -9.834630952242176
      ],
      [
        "perioden",
        -9.835596596872653
      ],
      [
        "▁klass",
        -9.83591474946992
      ],
      [
        "▁därefter",
        -9.836971924380366
      ],
      [
        "▁kurs",
        -9.837909651119821
      ],
      [
        "skydd",
        -9.839744879755187
      ],
      [
        "▁förbi",
        -9.840449626571639
      ],
      [
        "▁social",
        -9.841079648828195
      ],
      [
        "▁helg",
        -9.842858469794528
      ],
      [
        "▁villkor",
        -9.844556998244133
      ],
      [
        "▁polis",
        -9.845807939891492
      ],
      [
        "ol",
        -9.846334891719138
      ],
      [
        "▁vinter",
        -9.846861242830617
      ],
      [
        "▁förutsättningar",
        -9.84728733667313
      ],
      [
        "▁syfte",
        -9.847411670180183
      ],
      [
        "inklusive",
        -9.847426032976415
      ],
      [
        "▁våren",
        -9.847514119357268
      ],
      [
        "▁priset",
        -9.848065647636474
      ],
      [
        "▁innehåll",
        -9.84839210235405
      ],
      [
        "arbete",
        -9.848505450608744
      ],
      [
        "▁passa",
        -9.848772559962773
      ],
      [
        "▁sjuk",
        -9.849129165653345
      ],
      [
        "▁bad",
        -9.8492323080915
      ],
      [
        "Ibland",
        -9.849390364542062
      ],
      [
        "▁standard",
        -9.849565831464218
      ],
      [
        "▁uppskatta",
        -9.850845010393076
      ],
      [
        "dagen",
        -9.85088989787203
      ],
      [
        "▁tillstånd",
        -9.85265831560448
      ],
      [
        "▁samhälls",
        -9.852713309740988
      ],
      [
        "▁trafik",
        -9.85403531930637
      ],
      [
        "▁bank",
        -9.854257762305688
      ],
      [
        "väg",
        -9.85525977463141
      ],
      [
        "▁billigt",
        -9.85581852439377
      ],
      [
        "självklart",
        -9.856155066938905
      ],
      [
        "▁Bara",
        -9.856441135813313
      ],
      [
        "▁ändring",
        -9.856832604594745
      ],
      [
        "starkt",
        -9.85779586017911
      ],
      [
        "▁bit",
        -9.85813536517106
      ],
      [
        "saknar",
        -9.858141532769304
      ],
      [
        "▁personlig",
        -9.858695008208574
      ],
      [
        "▁hotellet",
        -9.85896132225406
      ],
      [
        "erat",
        -9.85980006509395
      ],
      [
        "▁uppgift",
        -9.860281997253054
      ],
      [
        "tydligt",
        -9.860284720038297
      ],
      [
        "▁trygg",
        -9.860620055647477
      ],
      [
        "▁universitet",
        -9.860969180108565
      ],
      [
        "nummer",
        -9.86149697120347
      ],
      [
        "▁ligga",
        -9.86211143624743
      ],
      [
        "▁risker",
        -9.862506079129844
      ],
      [
        "lös",
        -9.863089394428489
      ],
      [
        "Ja",
        -9.864186289510195
      ],
      [
        "▁Andersson",
        -9.864376048546724
      ],
      [
        "ihåg",
        -9.864790712487737
      ],
      [
        "▁brott",
        -9.865214221224987
      ],
      [
        "▁lön",
        -9.865250740246418
      ],
      [
        "lämnar",
        -9.865527530673866
      ],
      [
        "▁dålig",
        -9.865637287418727
      ],
      [
        "▁talar",
        -9.86671409834667
      ],
      [
        "▁Mitt",
        -9.867206024737493
      ],
      [
        "▁ungdomar",
        -9.868032841945922
      ],
      [
        "äntligen",
        -9.868532787620596
      ],
      [
        "▁Lars",
        -9.869119517121009
      ],
      [
        "▁etc",
        -9.870733994213277
      ],
      [
        "▁nej",
        -9.870817428283813
      ],
      [
        "ord",
        -9.871890065175055
      ],
      [
        "funnit",
        -9.872392382815907
      ],
      [
        "ort",
        -9.872715716700792
      ],
      [
        "▁fönster",
        -9.873251564372895
      ],
      [
        "▁Finns",
        -9.87394023330365
      ],
      [
        "▁Lite",
        -9.875284759781728
      ],
      [
        "▁Upp",
        -9.876674916171059
      ],
      [
        "ko",
        -9.877050703436181
      ],
      [
        "▁vinst",
        -9.877150663722103
      ],
      [
        "trax",
        -9.877533182277217
      ],
      [
        "▁ladda",
        -9.878364402407957
      ],
      [
        "▁Sa",
        -9.878950525123734
      ],
      [
        "▁läkare",
        -9.879070225520069
      ],
      [
        "▁utvecklas",
        -9.879499178411018
      ],
      [
        "▁leverera",
        -9.879790318476276
      ],
      [
        "▁tryck",
        -9.880769411366423
      ],
      [
        "▁Över",
        -9.881163277369106
      ],
      [
        "▁kärlek",
        -9.881249640743444
      ],
      [
        "dal",
        -9.882669061576832
      ],
      [
        "▁lager",
        -9.883418227212498
      ],
      [
        "▁sluta",
        -9.883929106944436
      ],
      [
        "▁varmt",
        -9.88442172228451
      ],
      [
        "▁avtal",
        -9.884541516706642
      ],
      [
        "▁barnet",
        -9.884601833526219
      ],
      [
        "▁sist",
        -9.885259465336977
      ],
      [
        "rakt",
        -9.885701769170689
      ],
      [
        "tor",
        -9.885751172190727
      ],
      [
        "▁tittar",
        -9.887710970249062
      ],
      [
        "▁utför",
        -9.887856992849708
      ],
      [
        "▁Köp",
        -9.888322288000966
      ],
      [
        "▁genomföra",
        -9.889306645010755
      ],
      [
        "än",
        -9.890551798253414
      ],
      [
        "▁vattnet",
        -9.891548124779021
      ],
      [
        "förutom",
        -9.8922386887214
      ],
      [
        "▁Kom",
        -9.893298203805124
      ],
      [
        "▁projektet",
        -9.893709637215872
      ],
      [
        "▁bonus",
        -9.894744659193794
      ],
      [
        "skickade",
        -9.895121825681256
      ],
      [
        "▁dam",
        -9.895996068728824
      ],
      [
        "▁medarbetare",
        -9.89716133428552
      ],
      [
        "▁imorgon",
        -9.898665748206387
      ],
      [
        "▁säkerhets",
        -9.898968759335991
      ],
      [
        "▁gilla",
        -9.899250810014616
      ],
      [
        "▁färger",
        -9.899939048386953
      ],
      [
        "▁läs",
        -9.901114012377498
      ],
      [
        "chef",
        -9.902977498551815
      ],
      [
        "▁fundera",
        -9.903093955222735
      ],
      [
        "▁politiska",
        -9.90546730128414
      ],
      [
        "▁mesta",
        -9.905908098610062
      ],
      [
        "▁åtta",
        -9.906141846891575
      ],
      [
        "▁hamna",
        -9.906843953989677
      ],
      [
        "naturligtvis",
        -9.90707567294634
      ],
      [
        "▁populära",
        -9.907369327709375
      ],
      [
        "Några",
        -9.908342151820632
      ],
      [
        "▁solen",
        -9.90900439465449
      ],
      [
        "▁nåt",
        -9.909199097761707
      ],
      [
        "fritt",
        -9.909712730469728
      ],
      [
        "använt",
        -9.909746347052414
      ],
      [
        "▁listan",
        -9.911864068979233
      ],
      [
        "undrar",
        -9.912334052169554
      ],
      [
        "ansvarig",
        -9.912425395510873
      ],
      [
        "▁St",
        -9.912548311688196
      ],
      [
        "det",
        -9.912767532181368
      ],
      [
        "▁ensam",
        -9.914276035661569
      ],
      [
        "▁osv",
        -9.914496792254415
      ],
      [
        "▁glöm",
        -9.915491300984169
      ],
      [
        "▁sidor",
        -9.915686204215993
      ],
      [
        "▁kommentarer",
        -9.915821151282902
      ],
      [
        "▁blå",
        -9.91709002680174
      ],
      [
        "▁period",
        -9.917408358485474
      ],
      [
        "rejäl",
        -9.917793966153672
      ],
      [
        "▁lösa",
        -9.919163941810933
      ],
      [
        "▁aktiviteter",
        -9.92002822022521
      ],
      [
        "▁far",
        -9.920264369518787
      ],
      [
        "köper",
        -9.920376042073027
      ],
      [
        "▁sova",
        -9.920985153628038
      ],
      [
        "▁parti",
        -9.924131953192694
      ],
      [
        "▁lagt",
        -9.924833752883114
      ],
      [
        "▁serie",
        -9.925314804989176
      ],
      [
        "fantastiskt",
        -9.9257625536063
      ],
      [
        "▁längs",
        -9.925832551319369
      ],
      [
        "▁djup",
        -9.92668128640899
      ],
      [
        "▁undvika",
        -9.927094464987519
      ],
      [
        "▁Fast",
        -9.927613239097562
      ],
      [
        "▁Välkommen",
        -9.928059228594005
      ],
      [
        "▁eventuell",
        -9.928899273698994
      ],
      [
        "Vilken",
        -9.929095782588014
      ],
      [
        "▁grader",
        -9.929111743451694
      ],
      [
        "▁svara",
        -9.929242370673723
      ],
      [
        "▁ingenting",
        -9.931038613309703
      ],
      [
        "▁knappt",
        -9.932210238323194
      ],
      [
        "pratar",
        -9.93280545324692
      ],
      [
        "▁häst",
        -9.933169028903292
      ],
      [
        "dvs",
        -9.93321422821939
      ],
      [
        "▁middag",
        -9.934050031487931
      ],
      [
        "▁timme",
        -9.935606477343118
      ],
      [
        "▁njuta",
        -9.936313331317669
      ],
      [
        "▁slag",
        -9.9368266318669
      ],
      [
        "Klicka",
        -9.936911290861964
      ],
      [
        "▁öppen",
        -9.937245842471572
      ],
      [
        "sch",
        -9.93804460903008
      ],
      [
        "▁lördag",
        -9.93896103417851
      ],
      [
        "▁matcher",
        -9.94093443758563
      ],
      [
        "växer",
        -9.941331667810765
      ],
      [
        "▁huvudet",
        -9.94146538156537
      ],
      [
        "antingen",
        -9.941709919354
      ],
      [
        "tan",
        -9.941905140290173
      ],
      [
        "▁fredag",
        -9.942294540007996
      ],
      [
        "▁vita",
        -9.942638659447434
      ],
      [
        "▁internationella",
        -9.94267750180577
      ],
      [
        "▁Wi",
        -9.942917585057739
      ],
      [
        "lade",
        -9.942928366843681
      ],
      [
        "▁väder",
        -9.943862356202454
      ],
      [
        "▁skatte",
        -9.943956422370366
      ],
      [
        "▁oro",
        -9.944178769158233
      ],
      [
        "produkter",
        -9.94471880114177
      ],
      [
        "▁Lund",
        -9.945305016310895
      ],
      [
        "▁drabba",
        -9.945555621604539
      ],
      [
        "▁Nya",
        -9.945611836226028
      ],
      [
        "räcker",
        -9.94708909412057
      ],
      [
        "▁kalla",
        -9.948363623089339
      ],
      [
        "▁omdöme",
        -9.948532363063341
      ],
      [
        "▁webbplats",
        -9.949304369014035
      ],
      [
        "ina",
        -9.949345861403907
      ],
      [
        "▁Visst",
        -9.949466576907408
      ],
      [
        "klarar",
        -9.949715064413482
      ],
      [
        "▁förmåga",
        -9.95041860804967
      ],
      [
        "▁idé",
        -9.950429859320721
      ],
      [
        "▁värld",
        -9.950840887503814
      ],
      [
        "▁cykel",
        -9.951153615510387
      ],
      [
        "▁annorlunda",
        -9.951502759679045
      ],
      [
        "▁Skåne",
        -9.952330481758628
      ],
      [
        "slag",
        -9.952498382511035
      ],
      [
        "▁samhälle",
        -9.954325086519352
      ],
      [
        "▁frukt",
        -9.954379181008454
      ],
      [
        "▁fantastiska",
        -9.954657616040224
      ],
      [
        "▁Sätt",
        -9.954680769030192
      ],
      [
        "sten",
        -9.955026520353046
      ],
      [
        "▁partner",
        -9.956261227599038
      ],
      [
        "▁riktig",
        -9.956426227335028
      ],
      [
        "▁tala",
        -9.956442317397768
      ],
      [
        "plötsligt",
        -9.956492322591165
      ],
      [
        "▁ansökan",
        -9.95658618113931
      ],
      [
        "ings",
        -9.956741138768194
      ],
      [
        "▁Först",
        -9.956842651805072
      ],
      [
        "ämre",
        -9.957509922010694
      ],
      [
        "▁test",
        -9.958119487323138
      ],
      [
        "mål",
        -9.958822100991007
      ],
      [
        "▁mår",
        -9.959397032905612
      ],
      [
        "▁utvecklingen",
        -9.959451456898428
      ],
      [
        "▁knapp",
        -9.959818779615112
      ],
      [
        "▁koll",
        -9.960331601142707
      ],
      [
        "kallade",
        -9.960932617456805
      ],
      [
        "▁Tre",
        -9.96111077041203
      ],
      [
        "tjänst",
        -9.961249791500151
      ],
      [
        "▁promenad",
        -9.96174561655408
      ],
      [
        "▁skit",
        -9.962279403578808
      ],
      [
        "▁kommuner",
        -9.962409694740572
      ],
      [
        "gel",
        -9.963446288178888
      ],
      [
        "hänt",
        -9.964040916132918
      ],
      [
        "▁kostnader",
        -9.964328985632324
      ],
      [
        "▁budget",
        -9.964599739525854
      ],
      [
        "▁bloggen",
        -9.964952128363533
      ],
      [
        "lyckades",
        -9.966029615747596
      ],
      [
        "gång",
        -9.966996874884748
      ],
      [
        "▁klicka",
        -9.96704572796747
      ],
      [
        "nivå",
        -9.967772994564559
      ],
      [
        "▁spår",
        -9.968043947299755
      ],
      [
        "🙂",
        -9.968081519838442
      ],
      [
        "bil",
        -9.968946336913888
      ],
      [
        "mark",
        -9.969068717528593
      ],
      [
        "hem",
        -9.970087968118262
      ],
      [
        "ernas",
        -9.970095598176428
      ],
      [
        "▁låna",
        -9.970657843541197
      ],
      [
        "▁Bland",
        -9.971865146900097
      ],
      [
        "▁Välj",
        -9.972379125502878
      ],
      [
        "EN",
        -9.972613635098732
      ],
      [
        "▁prov",
        -9.972988502853315
      ],
      [
        "någonting",
        -9.974945051881463
      ],
      [
        "▁Pro",
        -9.974959979808471
      ],
      [
        "▁situation",
        -9.974975874162705
      ],
      [
        "▁huden",
        -9.9754731261716
      ],
      [
        "▁sjukdom",
        -9.977245860076604
      ],
      [
        "▁högst",
        -9.977290169236891
      ],
      [
        "anses",
        -9.977298731919712
      ],
      [
        "du",
        -9.97822568410221
      ],
      [
        "rik",
        -9.978572532604153
      ],
      [
        "▁funktion",
        -9.979590942764533
      ],
      [
        "▁försäljning",
        -9.979891574515717
      ],
      [
        "körde",
        -9.980564656368792
      ],
      [
        "▁lösning",
        -9.981722861695113
      ],
      [
        "▁Ar",
        -9.982324246493368
      ],
      [
        "▁plus",
        -9.983143920529155
      ],
      [
        "▁guld",
        -9.983568150925027
      ],
      [
        "▁bas",
        -9.98381945849409
      ],
      [
        "▁ME",
        -9.984580342243394
      ],
      [
        "▁Finland",
        -9.984653062933058
      ],
      [
        "▁princip",
        -9.985205932935344
      ],
      [
        "▁mil",
        -9.986097355593584
      ],
      [
        "rad",
        -9.986801827666223
      ],
      [
        "skor",
        -9.987214202737956
      ],
      [
        "▁uppdatera",
        -9.987420584562727
      ],
      [
        "pass",
        -9.989070799585399
      ],
      [
        "nu",
        -9.989557226342189
      ],
      [
        "▁datorn",
        -9.989753093545303
      ],
      [
        "▁bilar",
        -9.99012203206589
      ],
      [
        "tro",
        -9.990898266808044
      ],
      [
        "ökat",
        -9.991795928753275
      ],
      [
        "▁regn",
        -9.992117013859051
      ],
      [
        "möta",
        -9.992215632661107
      ],
      [
        "lyckat",
        -9.992418867682673
      ],
      [
        "nuvarande",
        -9.993061184105796
      ],
      [
        "▁tillväxt",
        -9.993127423386886
      ],
      [
        "▁tvinga",
        -9.993794877098788
      ],
      [
        "resa",
        -9.993888230885032
      ],
      [
        "finner",
        -9.994264204170872
      ],
      [
        "▁special",
        -9.994900599555422
      ],
      [
        "▁dels",
        -9.994946500043847
      ],
      [
        "▁tillgängliga",
        -9.995301217741165
      ],
      [
        "▁våld",
        -9.995382502618265
      ],
      [
        "▁söndag",
        -9.995577788779622
      ],
      [
        "pris",
        -9.99593373147147
      ],
      [
        "▁köpt",
        -9.996390976821893
      ],
      [
        "▁Jan",
        -9.997308568920618
      ],
      [
        "▁må",
        -9.998130099023705
      ],
      [
        "startade",
        -9.998390755965886
      ],
      [
        "▁himla",
        -9.998650828979395
      ],
      [
        "▁satte",
        -9.998683138405388
      ],
      [
        "▁Andra",
        -10.000092479599122
      ],
      [
        "▁ställe",
        -10.000546009690279
      ],
      [
        "▁rättigheter",
        -10.001295684768444
      ],
      [
        "▁Co",
        -10.001733771099337
      ],
      [
        "känt",
        -10.00298184087264
      ],
      [
        "▁modell",
        -10.003509596064896
      ],
      [
        "ökade",
        -10.003703230738346
      ],
      [
        "▁Johansson",
        -10.003792507274861
      ],
      [
        "Igår",
        -10.0043366243798
      ],
      [
        "samt",
        -10.00462947064722
      ],
      [
        "bild",
        -10.004985971801384
      ],
      [
        "▁Erik",
        -10.005078220380787
      ],
      [
        "han",
        -10.005481069919458
      ],
      [
        "▁sällan",
        -10.006948215688293
      ],
      [
        "▁bar",
        -10.007244622940801
      ],
      [
        "▁fa",
        -10.007598094895707
      ],
      [
        "▁All",
        -10.00886078554179
      ],
      [
        "▁Martin",
        -10.008911144726222
      ],
      [
        "▁såklart",
        -10.01037320964911
      ],
      [
        "▁intresserad",
        -10.01058259128119
      ],
      [
        "én",
        -10.010768751218322
      ],
      [
        "▁Al",
        -10.01093576172177
      ],
      [
        "ju",
        -10.011022040618036
      ],
      [
        "▁förhållande",
        -10.011761490875182
      ],
      [
        "▁yrkes",
        -10.011915435222107
      ],
      [
        "▁sten",
        -10.011988396019587
      ],
      [
        "▁öppet",
        -10.012218100216707
      ],
      [
        "▁OK",
        -10.012916216176183
      ],
      [
        "▁miljarder",
        -10.013759349524902
      ],
      [
        "Tack",
        -10.013905853220034
      ],
      [
        "ism",
        -10.014915709008609
      ],
      [
        "nade",
        -10.016439244306234
      ],
      [
        "▁stolt",
        -10.017958273198042
      ],
      [
        "X",
        -10.019524740275244
      ],
      [
        "▁skydda",
        -10.01953043419355
      ],
      [
        "▁medlem",
        -10.019859214600691
      ],
      [
        "ivetvis",
        -10.02033572426516
      ],
      [
        "▁video",
        -10.020557884109948
      ],
      [
        "▁enkla",
        -10.020746127726563
      ],
      [
        "▁Z",
        -10.020856207256687
      ],
      [
        "Mer",
        -10.021455425733409
      ],
      [
        "▁lägenhet",
        -10.02176548397397
      ],
      [
        "▁utnyttja",
        -10.021891126599291
      ],
      [
        "▁gett",
        -10.023640730041473
      ],
      [
        "sjö",
        -10.023875041719245
      ],
      [
        "▁avsluta",
        -10.023980921094882
      ],
      [
        "Vilka",
        -10.02411613552239
      ],
      [
        "bjuder",
        -10.024259120758838
      ],
      [
        "vid",
        -10.0249471724469
      ],
      [
        "http",
        -10.025228498963775
      ],
      [
        "▁Ka",
        -10.025466119428284
      ],
      [
        "▁Hem",
        -10.025613086159021
      ],
      [
        "fattar",
        -10.025718830437947
      ],
      [
        "möten",
        -10.02582213044217
      ],
      [
        "▁Använd",
        -10.025860768975264
      ],
      [
        "▁restaurang",
        -10.026279507930264
      ],
      [
        "▁alkohol",
        -10.02726885866218
      ],
      [
        "bolag",
        -10.02729978272528
      ],
      [
        "JL",
        -10.027430502562083
      ],
      [
        "▁modern",
        -10.028114584486797
      ],
      [
        "▁pro",
        -10.028411594706164
      ],
      [
        "▁resultatet",
        -10.028552359422182
      ],
      [
        "▁omdömet",
        -10.029115616489776
      ],
      [
        "▁tal",
        -10.029525664884412
      ],
      [
        "▁positiv",
        -10.02954080582186
      ],
      [
        "▁Fredrik",
        -10.029848129260644
      ],
      [
        "▁fixa",
        -10.029940529459076
      ],
      [
        "▁säljer",
        -10.03064080686564
      ],
      [
        "▁blod",
        -10.030683327419966
      ],
      [
        "numera",
        -10.03087094416121
      ],
      [
        "▁havet",
        -10.031687351907786
      ],
      [
        "▁förklara",
        -10.031916529848887
      ],
      [
        "▁skön",
        -10.032515372176663
      ],
      [
        "risken",
        -10.033430421308083
      ],
      [
        "modligen",
        -10.033792152093703
      ],
      [
        "ster",
        -10.034812371699319
      ],
      [
        "sida",
        -10.034890020838139
      ],
      [
        "▁föreslå",
        -10.035519042981283
      ],
      [
        "▁patienter",
        -10.035973781369592
      ],
      [
        "liggande",
        -10.036228828552147
      ],
      [
        "▁räkna",
        -10.036630564832379
      ],
      [
        "▁Tyskland",
        -10.03669610226632
      ],
      [
        "▁Vet",
        -10.037921373030454
      ],
      [
        "träffade",
        -10.037931157093743
      ],
      [
        "ER",
        -10.037943830598671
      ],
      [
        "▁utbud",
        -10.039187016165801
      ],
      [
        "ADRESS",
        -10.039388266257392
      ],
      [
        "sättet",
        -10.039454644069322
      ],
      [
        "▁medier",
        -10.040789647132806
      ],
      [
        "▁varm",
        -10.040979642250434
      ],
      [
        "igen",
        -10.041260857530846
      ],
      [
        "åtminstone",
        -10.04185312066582
      ],
      [
        "▁inkludera",
        -10.041868902404545
      ],
      [
        "▁slog",
        -10.042383305116237
      ],
      [
        "bedriv",
        -10.042566680107766
      ],
      [
        "▁Din",
        -10.04440485806709
      ],
      [
        "▁möte",
        -10.045305839782477
      ],
      [
        "▁vacker",
        -10.04566009955249
      ],
      [
        "ständigt",
        -10.046044101054788
      ],
      [
        "▁missa",
        -10.046321392770084
      ],
      [
        "Förutom",
        -10.046482838623524
      ],
      [
        "Vissa",
        -10.046658126417755
      ],
      [
        "▁tjej",
        -10.046908017688642
      ],
      [
        "▁säsong",
        -10.047559207918887
      ],
      [
        "▁lösningar",
        -10.047811022138292
      ],
      [
        "▁post",
        -10.048971699306652
      ],
      [
        "fylla",
        -10.04910087451523
      ],
      [
        "▁ges",
        -10.049221175910974
      ],
      [
        "▁människa",
        -10.049447957785839
      ],
      [
        "▁mitten",
        -10.049641820362659
      ],
      [
        "▁haha",
        -10.049781946650773
      ],
      [
        "▁IT",
        -10.04979390812808
      ],
      [
        "▁Dock",
        -10.050831977065817
      ],
      [
        "▁miss",
        -10.05138584275574
      ],
      [
        "▁norr",
        -10.051812911313394
      ],
      [
        "▁uppnå",
        -10.053576062704902
      ],
      [
        "▁Gör",
        -10.053726408914759
      ],
      [
        "slutade",
        -10.054020417582871
      ],
      [
        "ock",
        -10.054964597091725
      ],
      [
        "▁trevligt",
        -10.056820149552008
      ],
      [
        "▁by",
        -10.058077015352096
      ],
      [
        "▁År",
        -10.058349842731099
      ],
      [
        "ställen",
        -10.06092511019272
      ],
      [
        "omfattande",
        -10.06113883191534
      ],
      [
        "relativt",
        -10.061333687481644
      ],
      [
        "▁nämn",
        -10.061441602387141
      ],
      [
        "▁undan",
        -10.061448164350786
      ],
      [
        "jag",
        -10.061838550328208
      ],
      [
        "▁pengarna",
        -10.06241868817128
      ],
      [
        "band",
        -10.062644717854084
      ],
      [
        "Tyvärr",
        -10.063031194165898
      ],
      [
        "▁plast",
        -10.063429679466003
      ],
      [
        "▁leta",
        -10.064475874819296
      ],
      [
        "▁brev",
        -10.065831528029914
      ],
      [
        "▁gäst",
        -10.06588509000753
      ],
      [
        "▁amerikanska",
        -10.066363624023337
      ],
      [
        "▁acceptera",
        -10.066385063995982
      ],
      [
        "Våra",
        -10.067414120672504
      ],
      [
        "▁stress",
        -10.068095928445848
      ],
      [
        "▁följd",
        -10.068671750937714
      ],
      [
        "▁brist",
        -10.070155380915912
      ],
      [
        "via",
        -10.070355949060916
      ],
      [
        "lån",
        -10.070975945195325
      ],
      [
        "▁välkomna",
        -10.071042319207102
      ],
      [
        "▁Dom",
        -10.072183082322635
      ],
      [
        "▁fest",
        -10.072630882582311
      ],
      [
        "satsa",
        -10.073324909848559
      ],
      [
        "▁betalar",
        -10.073732515575294
      ],
      [
        "▁normalt",
        -10.07445828041607
      ],
      [
        "aktuella",
        -10.074973973547158
      ],
      [
        "enklare",
        -10.07503986715994
      ],
      [
        "▁makt",
        -10.075899227913228
      ],
      [
        "▁kontrollera",
        -10.07634215542482
      ],
      [
        "garantera",
        -10.076977132853411
      ],
      [
        "▁ordentligt",
        -10.076997402310116
      ],
      [
        "▁förut",
        -10.077739182310326
      ],
      [
        "▁konto",
        -10.077740210071955
      ],
      [
        "▁Pa",
        -10.079258618634158
      ],
      [
        "lämnade",
        -10.079473032641372
      ],
      [
        "slår",
        -10.079951712640295
      ],
      [
        "▁foto",
        -10.082123600331325
      ],
      [
        "▁besöka",
        -10.082458943731034
      ],
      [
        "▁www",
        -10.083566242931246
      ],
      [
        "▁utföra",
        -10.083982104658322
      ],
      [
        "▁tillfälle",
        -10.084184617698229
      ],
      [
        "▁Örebro",
        -10.084438572641936
      ],
      [
        "Skulle",
        -10.085798919839945
      ],
      [
        "▁Norge",
        -10.085860977478626
      ],
      [
        "▁bakgrund",
        -10.086940880001558
      ],
      [
        "▁bekväm",
        -10.087758577232197
      ],
      [
        "▁rummet",
        -10.090488839792279
      ],
      [
        "▁jord",
        -10.091053557126461
      ],
      [
        "▁Nästa",
        -10.091869005477193
      ],
      [
        "▁fisk",
        -10.091895736526482
      ],
      [
        "▁Anmäl",
        -10.092242296192362
      ],
      [
        "▁affärs",
        -10.093022234682596
      ],
      [
        "▁morgonen",
        -10.093334161484279
      ],
      [
        "▁förändring",
        -10.093406888114137
      ],
      [
        "▁Själv",
        -10.094158775127413
      ],
      [
        "▁glädje",
        -10.09469529064658
      ],
      [
        "www",
        -10.094862776433256
      ],
      [
        "▁Hos",
        -10.095188393953103
      ],
      [
        "▁Le",
        -10.09561006026825
      ],
      [
        "funkar",
        -10.095957932772937
      ],
      [
        "mötet",
        -10.097159267895917
      ],
      [
        "▁hänsyn",
        -10.097845920523541
      ],
      [
        "▁nyligen",
        -10.098181491207683
      ],
      [
        "ck",
        -10.098319909863006
      ],
      [
        "▁hot",
        -10.098339649038671
      ],
      [
        "▁sjukhus",
        -10.0994768151474
      ],
      [
        "möjliga",
        -10.09954605619214
      ],
      [
        "processen",
        -10.099915719563088
      ],
      [
        "▁Hade",
        -10.100235026747628
      ],
      [
        "gemensamma",
        -10.100283831375968
      ],
      [
        "löst",
        -10.10062277136205
      ],
      [
        "▁tjejer",
        -10.100643378644323
      ],
      [
        "▁dyr",
        -10.100771249466494
      ],
      [
        "sel",
        -10.101428630196898
      ],
      [
        "planen",
        -10.10154229766908
      ],
      [
        "▁ersättning",
        -10.103068770009246
      ],
      [
        "▁Val",
        -10.103930459203704
      ],
      [
        "li",
        -10.104959997441066
      ],
      [
        "▁bred",
        -10.106062319026242
      ],
      [
        "▁Berg",
        -10.108073664099535
      ],
      [
        "kombinera",
        -10.108807999032397
      ],
      [
        "tvung",
        -10.109736134816984
      ],
      [
        "▁görs",
        -10.109990273759777
      ],
      [
        "▁Lägg",
        -10.110116457028138
      ],
      [
        "▁Mo",
        -10.11127149527289
      ],
      [
        "▁Google",
        -10.11140250577827
      ],
      [
        "För",
        -10.112048682689418
      ],
      [
        "▁slags",
        -10.112583403265164
      ],
      [
        "sättningar",
        -10.113494384336997
      ],
      [
        "dan",
        -10.11398331555568
      ],
      [
        "▁måndag",
        -10.11513518612444
      ],
      [
        "▁bio",
        -10.11615158235743
      ],
      [
        "▁media",
        -10.116279294270758
      ],
      [
        "▁livs",
        -10.116829490853291
      ],
      [
        "bestämt",
        -10.116920536757387
      ],
      [
        "▁tids",
        -10.117297333339167
      ],
      [
        "teknik",
        -10.11738400105759
      ],
      [
        "▁Inga",
        -10.117455631572446
      ],
      [
        "titeln",
        -10.118842526874335
      ],
      [
        "▁inlägget",
        -10.119200110577449
      ],
      [
        "▁choklad",
        -10.119468734710146
      ],
      [
        "▁erbjud",
        -10.120729899889866
      ],
      [
        "▁centrala",
        -10.121303236292084
      ],
      [
        "▁översättning",
        -10.12153307214825
      ],
      [
        "allmänna",
        -10.121806753903996
      ],
      [
        "▁tjänst",
        -10.122017399188282
      ],
      [
        "▁Carl",
        -10.122071630971941
      ],
      [
        "▁röst",
        -10.122600793097044
      ],
      [
        "▁process",
        -10.122713579216933
      ],
      [
        "varande",
        -10.123398509997855
      ],
      [
        "per",
        -10.124403303060118
      ],
      [
        "▁studier",
        -10.124448520569473
      ],
      [
        "▁läkemedel",
        -10.125523431214836
      ],
      [
        "▁problemet",
        -10.12616805341331
      ],
      [
        "▁röd",
        -10.126405850837637
      ],
      [
        "▁Na",
        -10.126973342869814
      ],
      [
        "ker",
        -10.127053838727852
      ],
      [
        "▁rekommenderar",
        -10.127075134193106
      ],
      [
        "▁snygg",
        -10.129605042125366
      ],
      [
        "all",
        -10.130185892468903
      ],
      [
        "En",
        -10.13039375704066
      ],
      [
        "eleverna",
        -10.131236692854799
      ],
      [
        "tog",
        -10.132097040391375
      ],
      [
        "vatten",
        -10.133723298825942
      ],
      [
        "rar",
        -10.134380588008346
      ],
      [
        "▁nummer",
        -10.135114835419563
      ],
      [
        "▁användare",
        -10.135645190836327
      ],
      [
        "▁socker",
        -10.136770901275838
      ],
      [
        "▁önska",
        -10.136853168831042
      ],
      [
        "▁mån",
        -10.137671458009251
      ],
      [
        "▁Få",
        -10.137998537294056
      ],
      [
        "▁genomför",
        -10.138237128232198
      ],
      [
        "▁ringa",
        -10.13826472578177
      ],
      [
        "▁jorden",
        -10.138322780199523
      ],
      [
        "▁mörk",
        -10.13888615256989
      ],
      [
        "▁korrekt",
        -10.141510029978525
      ],
      [
        "▁båt",
        -10.142113761609622
      ],
      [
        "befinner",
        -10.142155810905992
      ],
      [
        "▁roliga",
        -10.142421997141247
      ],
      [
        "tre",
        -10.142644299956451
      ],
      [
        "rådet",
        -10.143247747835268
      ],
      [
        "gar",
        -10.14342503158388
      ],
      [
        "bra",
        -10.143840312406699
      ],
      [
        "verk",
        -10.144968789486517
      ],
      [
        "▁världs",
        -10.145027302558145
      ],
      [
        "▁kapital",
        -10.145345485929006
      ],
      [
        "▁Stor",
        -10.14651502284668
      ],
      [
        "▁kyrkan",
        -10.146715524883254
      ],
      [
        "▁träd",
        -10.147076138906417
      ],
      [
        "▁orsak",
        -10.147216791848592
      ],
      [
        "▁företags",
        -10.147909131564832
      ],
      [
        "▁starka",
        -10.148192944263313
      ],
      [
        "stöd",
        -10.148251161805463
      ],
      [
        "borg",
        -10.149094438688268
      ],
      [
        "skrevs",
        -10.149710809631129
      ],
      [
        "tjänster",
        -10.149786637307432
      ],
      [
        "▁kök",
        -10.151306121989712
      ],
      [
        "▁magen",
        -10.151361005199599
      ],
      [
        "▁hundra",
        -10.151724681526604
      ],
      [
        "berättade",
        -10.151934565275592
      ],
      [
        "link",
        -10.152132837014966
      ],
      [
        "▁stycken",
        -10.152146161063364
      ],
      [
        "heten",
        -10.15239987308233
      ],
      [
        "verksamhet",
        -10.1530253867568
      ],
      [
        "▁ses",
        -10.153420723515307
      ],
      [
        "▁kombination",
        -10.153958748395132
      ],
      [
        "grupp",
        -10.154080121653665
      ],
      [
        "▁använde",
        -10.154707864438382
      ],
      [
        "situationen",
        -10.155018307490922
      ],
      [
        "▁politiker",
        -10.15522889484436
      ],
      [
        "▁upplevelse",
        -10.15530361191394
      ],
      [
        "avseende",
        -10.155457590847838
      ],
      [
        "förbundet",
        -10.156414691376934
      ],
      [
        "▁nödvändigt",
        -10.156649966443464
      ],
      [
        "▁motsvarande",
        -10.156960176783327
      ],
      [
        "▁snabba",
        -10.157028301549866
      ],
      [
        "område",
        -10.157345801440538
      ],
      [
        "▁Första",
        -10.157665809502992
      ],
      [
        "möjligheten",
        -10.15984206780046
      ],
      [
        "▁Vem",
        -10.161205219742596
      ],
      [
        "▁ända",
        -10.161431174383678
      ],
      [
        "snabbare",
        -10.161761138219653
      ],
      [
        "▁Er",
        -10.161899573579113
      ],
      [
        "▁lek",
        -10.162718579508006
      ],
      [
        "▁ung",
        -10.163212573218667
      ],
      [
        "▁grad",
        -10.164082698771775
      ],
      [
        "▁nät",
        -10.16508314116891
      ],
      [
        "▁Sol",
        -10.165196096445506
      ],
      [
        "▁styr",
        -10.165266364874821
      ],
      [
        "▁illa",
        -10.165294961378615
      ],
      [
        "▁fyller",
        -10.165576925633061
      ],
      [
        "svarade",
        -10.166472623170865
      ],
      [
        "värre",
        -10.16712081675891
      ],
      [
        "▁förvänta",
        -10.167299001116602
      ],
      [
        "▁organisation",
        -10.16794199386064
      ],
      [
        "konstigt",
        -10.168915450257922
      ],
      [
        "center",
        -10.169137506492236
      ],
      [
        "▁förändringar",
        -10.16940297191623
      ],
      [
        "▁ägg",
        -10.16975617929773
      ],
      [
        "▁minns",
        -10.169999627659184
      ],
      [
        "▁avgörande",
        -10.170073468648877
      ],
      [
        "▁skogen",
        -10.17099247926027
      ],
      [
        "▁Me",
        -10.171295537500807
      ],
      [
        "lösa",
        -10.171342737204355
      ],
      [
        "chansen",
        -10.171607479743516
      ],
      [
        "▁inspiration",
        -10.171740414046154
      ],
      [
        "est",
        -10.171777505490704
      ],
      [
        "slagen",
        -10.172455091864007
      ],
      [
        "▁resurser",
        -10.173031325939986
      ],
      [
        "▁redo",
        -10.173653813568459
      ],
      [
        "▁jämföra",
        -10.173716795067643
      ],
      [
        "▁mening",
        -10.173988312105674
      ],
      [
        "▁Stefan",
        -10.174916532712784
      ],
      [
        "▁sam",
        -10.17497965241058
      ],
      [
        "▁Mat",
        -10.175460480273447
      ],
      [
        "rätten",
        -10.17590630867623
      ],
      [
        "Omdöme",
        -10.1769941357952
      ],
      [
        "priserna",
        -10.177030237926987
      ],
      [
        "dejta",
        -10.177127917407535
      ],
      [
        "▁vackert",
        -10.177559091683996
      ],
      [
        "▁ämnen",
        -10.178158236514289
      ],
      [
        "känslan",
        -10.179031990035543
      ],
      [
        "▁grupper",
        -10.17932819342269
      ],
      [
        "läge",
        -10.179397672000189
      ],
      [
        "▁Internet",
        -10.180776928162693
      ],
      [
        "visat",
        -10.180947059963977
      ],
      [
        "▁funktioner",
        -10.18099911443818
      ],
      [
        "▁transport",
        -10.181107395647386
      ],
      [
        "har",
        -10.182147198232837
      ],
      [
        "▁digitala",
        -10.183629336451968
      ],
      [
        "▁SVT",
        -10.184058902151545
      ],
      [
        "▁rädda",
        -10.184218590209722
      ],
      [
        "▁dröm",
        -10.184864725690597
      ],
      [
        "beskriver",
        -10.186101288264258
      ],
      [
        "▁botten",
        -10.186178980738132
      ],
      [
        "▁ton",
        -10.18626637147013
      ],
      [
        "▁buss",
        -10.18663463355481
      ],
      [
        "▁Nilsson",
        -10.186844484598371
      ],
      [
        "▁tecken",
        -10.1869621890182
      ],
      [
        "▁naturen",
        -10.187025535848152
      ],
      [
        "van",
        -10.188967225525849
      ],
      [
        "▁beställa",
        -10.190754500162816
      ],
      [
        "▁informationen",
        -10.190811541992321
      ],
      [
        "ber",
        -10.191374246927081
      ],
      [
        "bart",
        -10.191693778897987
      ],
      [
        "▁fot",
        -10.192508097848409
      ],
      [
        "▁regel",
        -10.192619715786998
      ],
      [
        "skatt",
        -10.192835090983097
      ],
      [
        "▁dotter",
        -10.192965179730441
      ],
      [
        "material",
        -10.19299798826497
      ],
      [
        "▁Pris",
        -10.194036953155848
      ],
      [
        "▁kött",
        -10.194263682547847
      ],
      [
        "bord",
        -10.194279065999394
      ],
      [
        "Y",
        -10.194597959042111
      ],
      [
        "▁Daniel",
        -10.19462280498248
      ],
      [
        "▁hopp",
        -10.194973166528685
      ],
      [
        "▁frisk",
        -10.195239103041143
      ],
      [
        "▁röda",
        -10.195396715070446
      ],
      [
        "age",
        -10.19596376146806
      ],
      [
        "▁hittills",
        -10.196035683254717
      ],
      [
        "▁ovanlig",
        -10.196331599869387
      ],
      [
        "▁utomhus",
        -10.197374046516941
      ],
      [
        "▁tänk",
        -10.197477080261681
      ],
      [
        "Dålig",
        -10.197512053529445
      ],
      [
        "▁grundläggande",
        -10.197927618398387
      ],
      [
        "▁plocka",
        -10.197980696852916
      ],
      [
        "▁Bild",
        -10.19844938386767
      ],
      [
        "såg",
        -10.198910074178377
      ],
      [
        "enheter",
        -10.199074091660096
      ],
      [
        "▁säng",
        -10.200004769167878
      ],
      [
        "▁Bil",
        -10.200348867069318
      ],
      [
        "▁leverans",
        -10.200753850535195
      ],
      [
        "visas",
        -10.201485337504558
      ],
      [
        "▁ägare",
        -10.201554148506181
      ],
      [
        "▁fart",
        -10.20160028558511
      ],
      [
        "▁Dam",
        -10.20217499482727
      ],
      [
        "Någon",
        -10.20242212003987
      ],
      [
        "▁inled",
        -10.202613703176517
      ],
      [
        "▁hamnar",
        -10.202616081771511
      ],
      [
        "▁känd",
        -10.202861165397332
      ],
      [
        "framförallt",
        -10.203332843765365
      ],
      [
        "kallar",
        -10.203415966054294
      ],
      [
        "råd",
        -10.203467831611825
      ],
      [
        "▁idéer",
        -10.203526433984072
      ],
      [
        "▁framtid",
        -10.203984972662928
      ],
      [
        "Z",
        -10.205281453859767
      ],
      [
        "myndigheten",
        -10.205307869535329
      ],
      [
        "▁fördel",
        -10.206016083906013
      ],
      [
        "▁bedömning",
        -10.20721157027182
      ],
      [
        "▁perspektiv",
        -10.207442953885435
      ],
      [
        "▁butik",
        -10.207694663146608
      ],
      [
        "Något",
        -10.208104112687774
      ],
      [
        "andet",
        -10.208499298934294
      ],
      [
        "▁bedöm",
        -10.208575818012385
      ],
      [
        "▁betyd",
        -10.210148835184336
      ],
      [
        "▁ledare",
        -10.210420395874358
      ],
      [
        "▁mjuk",
        -10.211064545299548
      ],
      [
        "▁live",
        -10.211546628502747
      ],
      [
        "▁Svensk",
        -10.211870526445914
      ],
      [
        "▁mode",
        -10.211909433821171
      ],
      [
        "varken",
        -10.213028565746718
      ],
      [
        "Innan",
        -10.214085302042683
      ],
      [
        "▁känslor",
        -10.214305694068823
      ],
      [
        "▁anti",
        -10.214336208873627
      ],
      [
        "öppnar",
        -10.21434540996589
      ],
      [
        "möter",
        -10.214480465313367
      ],
      [
        "kul",
        -10.214776392172872
      ],
      [
        "Vilket",
        -10.21528691576063
      ],
      [
        "▁rädd",
        -10.216319691574324
      ],
      [
        "▁driva",
        -10.21717723710454
      ],
      [
        "▁detaljer",
        -10.217429933783384
      ],
      [
        "▁Fri",
        -10.218005907724663
      ],
      [
        "▁driver",
        -10.218078100340334
      ],
      [
        "nationella",
        -10.219385873360192
      ],
      [
        "▁håret",
        -10.220163794737202
      ],
      [
        "▁tillämpa",
        -10.220331922134669
      ],
      [
        "▁hundar",
        -10.222692392877452
      ],
      [
        "kom",
        -10.223225001703687
      ],
      [
        "▁staten",
        -10.223472341212682
      ],
      [
        "▁sväng",
        -10.223998898673793
      ],
      [
        "▁springa",
        -10.22406860984223
      ],
      [
        "spelare",
        -10.224792563120442
      ],
      [
        "▁katt",
        -10.225061112834194
      ],
      [
        "▁chef",
        -10.225144098849533
      ],
      [
        "▁månaden",
        -10.225433784333397
      ],
      [
        "▁kost",
        -10.225746637387491
      ],
      [
        "▁kon",
        -10.22585439639754
      ],
      [
        "namn",
        -10.226274806851375
      ],
      [
        "▁cookies",
        -10.227895816788903
      ],
      [
        "industrin",
        -10.22812549994383
      ],
      [
        "positivt",
        -10.228744584326439
      ],
      [
        "▁Nord",
        -10.229180048613545
      ],
      [
        "▁rapport",
        -10.230755491344791
      ],
      [
        "blad",
        -10.230804797052873
      ],
      [
        "▁besluta",
        -10.231003689458051
      ],
      [
        "▁privata",
        -10.231141031764588
      ],
      [
        "▁värd",
        -10.232161763874313
      ],
      [
        "letar",
        -10.232201796720858
      ],
      [
        "▁London",
        -10.232312242651306
      ],
      [
        "▁dating",
        -10.23231776768923
      ],
      [
        "▁förlora",
        -10.23257325060323
      ],
      [
        "▁avsnitt",
        -10.232748893967516
      ],
      [
        "▁kommunikation",
        -10.232769114783126
      ],
      [
        "▁Information",
        -10.233249676831742
      ],
      [
        "▁mor",
        -10.233819640686727
      ],
      [
        "▁stoppa",
        -10.234133675115803
      ],
      [
        "▁politik",
        -10.234219099040322
      ],
      [
        "▁kunskaper",
        -10.23558093334355
      ],
      [
        "▁resan",
        -10.235768123568212
      ],
      [
        "▁Lo",
        -10.235951157490035
      ],
      [
        "▁verksamheter",
        -10.236243641659163
      ],
      [
        "▁bostads",
        -10.236274730855644
      ],
      [
        "yl",
        -10.236530408751353
      ],
      [
        "▁rese",
        -10.237058427139338
      ],
      [
        "narare",
        -10.238330767575967
      ],
      [
        "▁No",
        -10.238510484789037
      ],
      [
        "▁mjölk",
        -10.238750303823748
      ],
      [
        "▁rygg",
        -10.23881757654949
      ],
      [
        "▁inkomst",
        -10.239092302665155
      ],
      [
        "▁växa",
        -10.239330551621366
      ],
      [
        "▁analys",
        -10.239805040030278
      ],
      [
        "▁tycka",
        -10.23998404745427
      ],
      [
        "▁inre",
        -10.240692333076796
      ],
      [
        "▁erfarenheter",
        -10.241030924014908
      ],
      [
        "▁paket",
        -10.24127710395964
      ],
      [
        "▁unik",
        -10.24191985398467
      ],
      [
        "▁sjö",
        -10.242189219898005
      ],
      [
        "▁svarar",
        -10.242318796353489
      ],
      [
        "partiet",
        -10.24260382793232
      ],
      [
        "▁maten",
        -10.242795238833786
      ],
      [
        "▁app",
        -10.242842725815976
      ],
      [
        "red",
        -10.243199533990362
      ],
      [
        "bjöd",
        -10.243754213429293
      ],
      [
        "faller",
        -10.24386922583528
      ],
      [
        "▁punkt",
        -10.244080153579636
      ],
      [
        "▁nätdejting",
        -10.244517685145532
      ],
      [
        "▁hård",
        -10.245145700232767
      ],
      [
        "▁jämför",
        -10.245242661759779
      ],
      [
        "▁restauranger",
        -10.24546035537954
      ],
      [
        "▁Sam",
        -10.245643777811164
      ],
      [
        "▁Får",
        -10.24574780442742
      ],
      [
        "▁tränings",
        -10.24587177615544
      ],
      [
        "granskar",
        -10.246646270024023
      ],
      [
        "▁Spel",
        -10.246838515552842
      ],
      [
        "Å",
        -10.24728578323356
      ],
      [
        "▁led",
        -10.24761219042652
      ],
      [
        "▁ikväll",
        -10.247858619039572
      ],
      [
        "san",
        -10.248190800417555
      ],
      [
        "▁Skriv",
        -10.248752563141196
      ],
      [
        "äck",
        -10.248787858823992
      ],
      [
        "minskar",
        -10.248954868520403
      ],
      [
        "▁sikt",
        -10.249069355215633
      ],
      [
        "qvist",
        -10.249323684592603
      ],
      [
        "information",
        -10.249334475030121
      ],
      [
        "▁San",
        -10.249486753136312
      ],
      [
        "service",
        -10.249672024599583
      ],
      [
        "tanken",
        -10.250382819184392
      ],
      [
        "▁relation",
        -10.250416548868284
      ],
      [
        "sätt",
        -10.250516042807645
      ],
      [
        "→",
        -10.250649478592127
      ],
      [
        "▁föreningen",
        -10.250687452871771
      ],
      [
        "▁skydd",
        -10.251317097009721
      ],
      [
        "vall",
        -10.251362833369424
      ],
      [
        "perfekta",
        -10.251410768505808
      ],
      [
        "▁Park",
        -10.251785621850797
      ],
      [
        "▁erbjudanden",
        -10.252570583225962
      ],
      [
        "▁Lag",
        -10.252834497440292
      ],
      [
        "▁aktiv",
        -10.253057291765172
      ],
      [
        "▁brand",
        -10.25314702798565
      ],
      [
        "dörren",
        -10.253891623345998
      ],
      [
        "▁mail",
        -10.253984988305605
      ],
      [
        "▁döda",
        -10.254396883098922
      ],
      [
        "▁rimlig",
        -10.254417829228252
      ],
      [
        "▁toppen",
        -10.254625735315097
      ],
      [
        "▁dans",
        -10.254656968787312
      ],
      [
        "stämmer",
        -10.254706930034908
      ],
      [
        "▁Ju",
        -10.254717210340232
      ],
      [
        "▁effektivt",
        -10.255313883559124
      ],
      [
        "▁vitt",
        -10.255403081723248
      ],
      [
        "värde",
        -10.255489627243476
      ],
      [
        "▁fett",
        -10.25566396800489
      ],
      [
        "▁organisationer",
        -10.255692781915462
      ],
      [
        "politiken",
        -10.255818748251313
      ],
      [
        "loppet",
        -10.256451699487089
      ],
      [
        "enskilda",
        -10.256593059661387
      ],
      [
        "▁moderna",
        -10.257051608731304
      ],
      [
        "▁press",
        -10.257366314837347
      ],
      [
        "uppleva",
        -10.257446437518553
      ],
      [
        "▁aktivt",
        -10.257579987404984
      ],
      [
        "▁He",
        -10.257742955566973
      ],
      [
        "sängen",
        -10.257836658553925
      ],
      [
        "▁Bygg",
        -10.258340159001067
      ],
      [
        "▁nätverk",
        -10.258762981567333
      ],
      [
        "världen",
        -10.259003918514676
      ],
      [
        "▁tillåt",
        -10.259302745338852
      ],
      [
        "medel",
        -10.259423039338326
      ],
      [
        "▁bilderna",
        -10.259652674042668
      ],
      [
        "ack",
        -10.259719918525349
      ],
      [
        "▁undantag",
        -10.260380600680769
      ],
      [
        "▁sverige",
        -10.2605670870428
      ],
      [
        "▁söder",
        -10.260801859967374
      ],
      [
        "▁vila",
        -10.26187954564701
      ],
      [
        "▁hyra",
        -10.262178686584292
      ],
      [
        "▁Ge",
        -10.262658346043382
      ],
      [
        "frågade",
        -10.263110657508875
      ],
      [
        "näs",
        -10.264482719433705
      ],
      [
        "orsaka",
        -10.264717351924977
      ],
      [
        "▁band",
        -10.264834187022768
      ],
      [
        "närvarande",
        -10.265003430868411
      ],
      [
        "kursen",
        -10.265373929108426
      ],
      [
        "▁säg",
        -10.265946645440062
      ],
      [
        "▁möjlig",
        -10.26605782861198
      ],
      [
        "pan",
        -10.266170698775007
      ],
      [
        "▁insatser",
        -10.266339045387289
      ],
      [
        "▁sent",
        -10.267368463422663
      ],
      [
        "▁reklam",
        -10.267574507334162
      ],
      [
        "ros",
        -10.26780768976452
      ],
      [
        "▁sån",
        -10.268529548809504
      ],
      [
        "▁allmän",
        -10.268675618490533
      ],
      [
        "ökning",
        -10.269694944405646
      ],
      [
        "▁straff",
        -10.270028119509032
      ],
      [
        "▁klubb",
        -10.270312437505233
      ],
      [
        "mängder",
        -10.270418642307293
      ],
      [
        "mässigt",
        -10.270501754663194
      ],
      [
        "stått",
        -10.270857996294485
      ],
      [
        "akt",
        -10.270902189813585
      ],
      [
        "▁York",
        -10.27097473050447
      ],
      [
        "▁gäng",
        -10.271998136600926
      ],
      [
        "sättning",
        -10.272073018269287
      ],
      [
        "▁drift",
        -10.272502046260312
      ],
      [
        "▁butiker",
        -10.274052485056412
      ],
      [
        "ull",
        -10.274219746583082
      ],
      [
        "▁överens",
        -10.274292687934208
      ],
      [
        "rummet",
        -10.274318162586756
      ],
      [
        "▁Danmark",
        -10.274801301061418
      ],
      [
        "utbildning",
        -10.275199013681991
      ],
      [
        "▁tider",
        -10.275553046615135
      ],
      [
        "▁Del",
        -10.276070085964655
      ],
      [
        "▁John",
        -10.276336704668319
      ],
      [
        "träning",
        -10.276563006932667
      ],
      [
        "bilder",
        -10.276954074112677
      ],
      [
        "▁fika",
        -10.276971554438534
      ],
      [
        "▁utbildnings",
        -10.277204862392761
      ],
      [
        "▁köket",
        -10.278940753047438
      ],
      [
        "▁fakta",
        -10.279856239763792
      ],
      [
        "tips",
        -10.279964215883851
      ],
      [
        "▁Björn",
        -10.280367202965115
      ],
      [
        "▁uppmärksamma",
        -10.280722987882598
      ],
      [
        "▁di",
        -10.280966777629951
      ],
      [
        "▁dubbel",
        -10.281579673740739
      ],
      [
        "▁herr",
        -10.28244078537983
      ],
      [
        "▁tekniska",
        -10.282707565808979
      ],
      [
        "härligt",
        -10.282937722136703
      ],
      [
        "▁SM",
        -10.28473234887783
      ],
      [
        "▁vintern",
        -10.286006658737861
      ],
      [
        "tryck",
        -10.28631682754076
      ],
      [
        "▁Sch",
        -10.286963749619781
      ],
      [
        "▁bevis",
        -10.28719753966522
      ],
      [
        "läste",
        -10.2874508414984
      ],
      [
        "▁fr",
        -10.287497420256134
      ],
      [
        "vinner",
        -10.287918522063688
      ],
      [
        "▁blommor",
        -10.288785810269129
      ],
      [
        "▁myndigheter",
        -10.288854650218925
      ],
      [
        "ram",
        -10.2895244821441
      ],
      [
        "ill",
        -10.289819758079059
      ],
      [
        "ledes",
        -10.290080764407039
      ],
      [
        "▁euro",
        -10.290091200476997
      ],
      [
        "▁syns",
        -10.290105344918603
      ],
      [
        "▁tåg",
        -10.290172475382091
      ],
      [
        "fria",
        -10.290174011688759
      ],
      [
        "ll",
        -10.290511019690854
      ],
      [
        "▁vända",
        -10.290608334343302
      ],
      [
        "▁jakt",
        -10.291178302640315
      ],
      [
        "▁Ryssland",
        -10.29130200130627
      ],
      [
        "▁tillfällen",
        -10.291474028623721
      ],
      [
        "▁extremt",
        -10.291783059771245
      ],
      [
        "▁nio",
        -10.291845985470689
      ],
      [
        "▁serien",
        -10.292303987633755
      ],
      [
        "▁ungdoms",
        -10.292327061640052
      ],
      [
        "orkar",
        -10.292657905079544
      ],
      [
        "beslutet",
        -10.292659013645654
      ],
      [
        "▁underbara",
        -10.293149985228293
      ],
      [
        "delas",
        -10.293319793206686
      ],
      [
        "projekt",
        -10.293630443055171
      ],
      [
        "▁Ca",
        -10.293638080429247
      ],
      [
        "full",
        -10.293713712970003
      ],
      [
        "sånt",
        -10.293833753428485
      ],
      [
        "personen",
        -10.294711063629949
      ],
      [
        "skaffa",
        -10.29484476904918
      ],
      [
        "▁info",
        -10.29533277787522
      ],
      [
        "▁rörelse",
        -10.295679084352015
      ],
      [
        "▁Car",
        -10.295773846153162
      ],
      [
        "▁datum",
        -10.29648092265788
      ],
      [
        "▁utrymme",
        -10.29648565394191
      ],
      [
        "▁fira",
        -10.296526471999378
      ],
      [
        "▁hy",
        -10.297485000068264
      ],
      [
        "platser",
        -10.297851099663673
      ],
      [
        "▁tidningen",
        -10.298439324970909
      ],
      [
        "▁glada",
        -10.298856799842005
      ],
      [
        "▁definitiv",
        -10.29889734449536
      ],
      [
        "alt",
        -10.299908051631533
      ],
      [
        "bergs",
        -10.300009577515107
      ],
      [
        "Fi",
        -10.300167990946617
      ],
      [
        "vädret",
        -10.300327221715435
      ],
      [
        "▁framgångsrik",
        -10.300744805048403
      ],
      [
        "originalet",
        -10.300748028689009
      ],
      [
        "▁undersökning",
        -10.301435421202399
      ],
      [
        "frågor",
        -10.301883833430761
      ],
      [
        "dla",
        -10.301955435844082
      ],
      [
        "▁underbar",
        -10.302157992709377
      ],
      [
        "ho",
        -10.302774025410065
      ],
      [
        "▁skull",
        -10.302849665601643
      ],
      [
        "▁David",
        -10.303493737808422
      ],
      [
        "klass",
        -10.303825866788852
      ],
      [
        "serien",
        -10.304657183515598
      ],
      [
        "rika",
        -10.305496997992185
      ],
      [
        "unika",
        -10.307318304373467
      ],
      [
        "▁metod",
        -10.307459659405882
      ],
      [
        "▁våga",
        -10.30758542724316
      ],
      [
        "Både",
        -10.308011064655826
      ],
      [
        "▁Jonas",
        -10.308188282533937
      ],
      [
        "▁släpp",
        -10.308351929137089
      ],
      [
        "▁färdig",
        -10.308650559444061
      ],
      [
        "mera",
        -10.308805473218797
      ],
      [
        "ung",
        -10.309264447160578
      ],
      [
        "fors",
        -10.30929662044311
      ],
      [
        "▁löne",
        -10.309301976410696
      ],
      [
        "▁klubben",
        -10.309937523361805
      ],
      [
        "upplever",
        -10.310945472334776
      ],
      [
        "jo",
        -10.311071078733361
      ],
      [
        "▁total",
        -10.311079186765578
      ],
      [
        "▁Frankrike",
        -10.311355500707732
      ],
      [
        "▁tillgänglig",
        -10.311878681080803
      ],
      [
        "fin",
        -10.311957107806926
      ],
      [
        "▁Hela",
        -10.312065268153347
      ],
      [
        "▁svarta",
        -10.313201033692904
      ],
      [
        "▁utredning",
        -10.313330450226584
      ],
      [
        "▁slutar",
        -10.313591179238443
      ],
      [
        "framtida",
        -10.31413718807898
      ],
      [
        "▁hälften",
        -10.314611577792842
      ],
      [
        "▁ordet",
        -10.315783332292881
      ],
      [
        "vik",
        -10.315789980934275
      ],
      [
        "▁Dagens",
        -10.316400207826996
      ],
      [
        "▁familje",
        -10.316951825335234
      ],
      [
        "▁sp",
        -10.317076841246058
      ],
      [
        "▁offentlig",
        -10.317218833838643
      ],
      [
        "ium",
        -10.318099113530874
      ],
      [
        "hörde",
        -10.318285694721508
      ],
      [
        "▁Umeå",
        -10.31847238991944
      ],
      [
        "▁bekräfta",
        -10.318694569570578
      ],
      [
        "holm",
        -10.318821579337904
      ],
      [
        "▁hållbar",
        -10.319382735379902
      ],
      [
        "▁Samma",
        -10.320627617980692
      ],
      [
        "flyttade",
        -10.321241247909567
      ],
      [
        "▁höjd",
        -10.321252992614825
      ],
      [
        "positiva",
        -10.321713894931891
      ],
      [
        "startar",
        -10.32202607008363
      ],
      [
        "▁Svar",
        -10.322568604792686
      ],
      [
        "▁mönster",
        -10.322797079990213
      ],
      [
        "problem",
        -10.322975847832373
      ],
      [
        "▁bära",
        -10.323641009039429
      ],
      [
        "kläder",
        -10.32377556121327
      ],
      [
        "▁webb",
        -10.324323800803167
      ],
      [
        "▁utsikt",
        -10.324498233420018
      ],
      [
        "längst",
        -10.324641826930955
      ],
      [
        "▁Kommer",
        -10.324717727125309
      ],
      [
        "▁torr",
        -10.324775892639037
      ],
      [
        "Förbättra",
        -10.325808774421754
      ],
      [
        "▁Sök",
        -10.326014091231462
      ],
      [
        "▁utom",
        -10.32602694558756
      ],
      [
        "we",
        -10.3262668441006
      ],
      [
        "▁hände",
        -10.32629978633989
      ],
      [
        "ley",
        -10.326515695448062
      ],
      [
        "▁Lind",
        -10.327095192733442
      ],
      [
        "▁fotboll",
        -10.327290796584103
      ],
      [
        "stor",
        -10.327331712841328
      ],
      [
        "▁filmer",
        -10.327752296225892
      ],
      [
        "avtalet",
        -10.32807130860285
      ],
      [
        "faktum",
        -10.328553359000553
      ],
      [
        "▁kol",
        -10.32955734691793
      ],
      [
        "▁underbart",
        -10.330378569533211
      ],
      [
        "▁upplev",
        -10.330647529086752
      ],
      [
        "▁offentliga",
        -10.331692839142343
      ],
      [
        "▁allvar",
        -10.331718113902824
      ],
      [
        "▁uppenbar",
        -10.331798369121676
      ],
      [
        "▁fullständig",
        -10.331966285959014
      ],
      [
        "met",
        -10.332104613516975
      ],
      [
        "Ä",
        -10.332224133478928
      ],
      [
        "▁fru",
        -10.332295277906649
      ],
      [
        "▁vind",
        -10.33302190980549
      ],
      [
        "baserade",
        -10.333170865805982
      ],
      [
        "▁medför",
        -10.3333946900532
      ],
      [
        "▁metoder",
        -10.333587357018393
      ],
      [
        "▁enhet",
        -10.336009070252445
      ],
      [
        "tals",
        -10.33645204508031
      ],
      [
        "▁Göteborgs",
        -10.336630972061768
      ],
      [
        "ledde",
        -10.336821704903544
      ],
      [
        "mor",
        -10.337391829115885
      ],
      [
        "hinner",
        -10.337593975509941
      ],
      [
        "▁adress",
        -10.338088909762847
      ],
      [
        "▁badrum",
        -10.33841160095801
      ],
      [
        "ick",
        -10.338684344644822
      ],
      [
        "▁Gå",
        -10.33907905903221
      ],
      [
        "▁snygga",
        -10.339103223167351
      ],
      [
        "behandling",
        -10.339240943710891
      ],
      [
        "bruk",
        -10.339351802545288
      ],
      [
        "politik",
        -10.339678860555784
      ],
      [
        "▁öl",
        -10.339708399127066
      ],
      [
        "▁styrelsen",
        -10.340290356421077
      ],
      [
        "▁egenskaper",
        -10.34058372390822
      ],
      [
        "jobbigt",
        -10.340728776801134
      ],
      [
        "din",
        -10.341283069810851
      ],
      [
        "lugnt",
        -10.34145207018591
      ],
      [
        "▁Sp",
        -10.341693391296543
      ],
      [
        "finansiella",
        -10.342336844606848
      ],
      [
        "▁fjärde",
        -10.34244472701503
      ],
      [
        "▁svåra",
        -10.342565624275364
      ],
      [
        "handel",
        -10.34257022755456
      ],
      [
        "utöver",
        -10.34265074152578
      ],
      [
        "▁betalnings",
        -10.34280631706935
      ],
      [
        "intresserade",
        -10.343245658431432
      ],
      [
        "skola",
        -10.343371802237709
      ],
      [
        "▁forsknings",
        -10.343729890449723
      ],
      [
        "▁hål",
        -10.343759320066237
      ],
      [
        "okej",
        -10.344057396482787
      ],
      [
        "▁Karl",
        -10.344277771791818
      ],
      [
        "soffan",
        -10.345896920258904
      ],
      [
        "▁fordon",
        -10.346013894887694
      ],
      [
        "▁bestämma",
        -10.346165983017976
      ],
      [
        "▁psykisk",
        -10.346350605300708
      ],
      [
        "stans",
        -10.346390130892223
      ],
      [
        "lat",
        -10.346757245438933
      ],
      [
        "generell",
        -10.346953765799077
      ],
      [
        "▁City",
        -10.347660969665505
      ],
      [
        "▁free",
        -10.348232977307426
      ],
      [
        "▁Ro",
        -10.348350504115288
      ],
      [
        "▁Q",
        -10.348389091773521
      ],
      [
        "▁Bi",
        -10.348551471572874
      ],
      [
        "▁yngre",
        -10.348749843249028
      ],
      [
        "områden",
        -10.348907358787372
      ],
      [
        "▁låga",
        -10.349284463732406
      ],
      [
        "▁dricka",
        -10.349712178650627
      ],
      [
        "▁hjärtat",
        -10.350109289997949
      ],
      [
        "erande",
        -10.350230087626553
      ],
      [
        "▁jämn",
        -10.35077210499523
      ],
      [
        "▁sammanhang",
        -10.35128299135454
      ],
      [
        "▁Sten",
        -10.351523995832292
      ],
      [
        "arter",
        -10.35179457588706
      ],
      [
        "▁Mina",
        -10.352434188942357
      ],
      [
        "▁stads",
        -10.353134315286644
      ],
      [
        "kontoret",
        -10.353406072003043
      ],
      [
        "▁Sjö",
        -10.353557383067196
      ],
      [
        "bor",
        -10.35393369397225
      ],
      [
        "kon",
        -10.35440396405699
      ],
      [
        "▁marknads",
        -10.354877915831398
      ],
      [
        "isering",
        -10.355257990072344
      ],
      [
        "närmast",
        -10.355715123254875
      ],
      [
        "▁daglig",
        -10.356195715602121
      ],
      [
        "lopp",
        -10.356220594636405
      ],
      [
        "pga",
        -10.356323243727676
      ],
      [
        "▁ekonomisk",
        -10.356593878211767
      ],
      [
        "desto",
        -10.357434705337953
      ],
      [
        "aktörer",
        -10.35830940976643
      ],
      [
        "▁utvecklings",
        -10.359410941789474
      ],
      [
        "färg",
        -10.35951119674762
      ],
      [
        "▁industri",
        -10.359557321989918
      ],
      [
        "▁hunn",
        -10.359633703023363
      ],
      [
        "Hotell",
        -10.359971333316208
      ],
      [
        "tas",
        -10.359997343625485
      ],
      [
        "grupper",
        -10.360356514558534
      ],
      [
        "modellen",
        -10.360449960338366
      ],
      [
        "skiljer",
        -10.360607743711796
      ],
      [
        "▁Casino",
        -10.36127060064789
      ],
      [
        "Bolaget",
        -10.361650053467327
      ],
      [
        "köp",
        -10.361954496729524
      ],
      [
        "▁balans",
        -10.36195850813903
      ],
      [
        "▁iaf",
        -10.363000119583939
      ],
      [
        "▁koppla",
        -10.363165270764254
      ],
      [
        "▁kille",
        -10.363487683941864
      ],
      [
        "▁växt",
        -10.363577456480101
      ],
      [
        "▁förrän",
        -10.36417862843541
      ],
      [
        "▁sov",
        -10.36463820801347
      ],
      [
        "vänder",
        -10.364768300750775
      ],
      [
        "riktiga",
        -10.365118019845172
      ],
      [
        "▁naturligt",
        -10.365119320917566
      ],
      [
        "▁skador",
        -10.365120581212013
      ],
      [
        "ytan",
        -10.365189309202488
      ],
      [
        "▁sko",
        -10.365678044135223
      ],
      [
        "sett",
        -10.365726510030754
      ],
      [
        "▁intressanta",
        -10.366154631664145
      ],
      [
        "tittade",
        -10.366645283751119
      ],
      [
        "bb",
        -10.366895884012198
      ],
      [
        "försäkring",
        -10.367020992834977
      ],
      [
        "▁skogs",
        -10.367114638842754
      ],
      [
        "▁fiske",
        -10.367588567405347
      ],
      [
        "▁äventyr",
        -10.368863855615698
      ],
      [
        "hand",
        -10.368948495867963
      ],
      [
        "bjuda",
        -10.369026601604743
      ],
      [
        "▁VM",
        -10.369193434191715
      ],
      [
        "släppa",
        -10.369278372673445
      ],
      [
        "golvet",
        -10.369540452540354
      ],
      [
        "▁motor",
        -10.369800739271192
      ],
      [
        "▁grunden",
        -10.37217066026196
      ],
      [
        "▁karriär",
        -10.37241624130652
      ],
      [
        "hänger",
        -10.372586275323682
      ],
      [
        "line",
        -10.37306719035375
      ],
      [
        "▁Li",
        -10.37347725914399
      ],
      [
        "gård",
        -10.373641892979922
      ],
      [
        "▁former",
        -10.373675080234392
      ],
      [
        "dom",
        -10.374297743417168
      ],
      [
        "▁utrustning",
        -10.374693786151882
      ],
      [
        "åriga",
        -10.374924412968577
      ],
      [
        "texten",
        -10.375052565372986
      ],
      [
        "▁korta",
        -10.375757825395791
      ],
      [
        "▁sjukt",
        -10.376429118470387
      ],
      [
        "▁banan",
        -10.377708683579288
      ],
      [
        "▁Bar",
        -10.37918927442116
      ],
      [
        "▁tjäna",
        -10.379213231509805
      ],
      [
        "▁taget",
        -10.379511795896224
      ],
      [
        "▁välkommen",
        -10.379572689547642
      ],
      [
        "▁Ma",
        -10.37962113270494
      ],
      [
        "▁sömn",
        -10.379643734804516
      ],
      [
        "Flera",
        -10.380493244340725
      ],
      [
        "▁team",
        -10.381346858904399
      ],
      [
        "brett",
        -10.381720282815799
      ],
      [
        "män",
        -10.381812194092488
      ],
      [
        "za",
        -10.381955663749297
      ],
      [
        "▁aktier",
        -10.382194091329517
      ],
      [
        "baserad",
        -10.38220065899175
      ],
      [
        "▁effektiv",
        -10.383671310625827
      ],
      [
        "▁mått",
        -10.384388059659974
      ],
      [
        "▁Film",
        -10.384474012004306
      ],
      [
        "▁vapen",
        -10.38459665392849
      ],
      [
        "▁kompis",
        -10.385006915831173
      ],
      [
        "mon",
        -10.385115279151853
      ],
      [
        "▁dokument",
        -10.385385224600716
      ],
      [
        "▁gröna",
        -10.385762722895869
      ],
      [
        "▁Ser",
        -10.386165469061714
      ],
      [
        "livet",
        -10.386217327215196
      ],
      [
        "arbetat",
        -10.386499742214484
      ],
      [
        "▁cancer",
        -10.387087788016276
      ],
      [
        "▁kostnad",
        -10.38848644935413
      ],
      [
        "▁forskare",
        -10.388742085615297
      ],
      [
        "▁bostäder",
        -10.38882493501558
      ],
      [
        "▁vardag",
        -10.389010170457626
      ],
      [
        "▁hjärta",
        -10.389160138033342
      ],
      [
        "▁Magnus",
        -10.389591401268518
      ],
      [
        "und",
        -10.389668541599644
      ],
      [
        "gränsen",
        -10.389704613309904
      ],
      [
        "▁tillfällig",
        -10.390024523332674
      ],
      [
        "intill",
        -10.390503511017311
      ],
      [
        "▁karaktär",
        -10.391761425172735
      ],
      [
        "priset",
        -10.391831805078404
      ],
      [
        "▁skolor",
        -10.39276246346783
      ],
      [
        "framöver",
        -10.39312068216651
      ],
      [
        "handlade",
        -10.393816163377831
      ],
      [
        "▁Arbets",
        -10.393822868369359
      ],
      [
        "▁Precis",
        -10.394112651375341
      ],
      [
        "▁Ko",
        -10.394706091896921
      ],
      [
        "par",
        -10.395027855161338
      ],
      [
        "▁tränar",
        -10.395145255525893
      ],
      [
        "og",
        -10.395493140557225
      ],
      [
        "▁Go",
        -10.395518258497066
      ],
      [
        "vunnit",
        -10.395634891175654
      ],
      [
        "▁TripAdvisor",
        -10.396044765434677
      ],
      [
        "▁levande",
        -10.396084829254653
      ],
      [
        "q",
        -10.39658318283272
      ],
      [
        "▁Namn",
        -10.397021596137634
      ],
      [
        "gas",
        -10.397372707896412
      ],
      [
        "her",
        -10.397404613319468
      ],
      [
        "▁nere",
        -10.398329632823145
      ],
      [
        "▁salt",
        -10.399287924745911
      ],
      [
        "ledare",
        -10.400487680955179
      ],
      [
        "lista",
        -10.40072816651277
      ],
      [
        "nått",
        -10.400856883085414
      ],
      [
        "▁deltagare",
        -10.400888036672466
      ],
      [
        "▁styrelse",
        -10.40098509354971
      ],
      [
        "▁God",
        -10.401169782930499
      ],
      [
        "emellan",
        -10.401415439780076
      ],
      [
        "▁presentera",
        -10.401782279679292
      ],
      [
        "marknaden",
        -10.40198353431082
      ],
      [
        "▁Bästa",
        -10.402000519095987
      ],
      [
        "Årets",
        -10.402384811402422
      ],
      [
        "märken",
        -10.40253246652534
      ],
      [
        "▁framgång",
        -10.403096523748655
      ],
      [
        "▁Mar",
        -10.403328904558155
      ],
      [
        "linjen",
        -10.403750521473206
      ],
      [
        "▁Ba",
        -10.404163022175096
      ],
      [
        "▁Kalmar",
        -10.404303798842669
      ],
      [
        "någonstans",
        -10.40447622733044
      ],
      [
        "heter",
        -10.404520099289936
      ],
      [
        "▁wid",
        -10.404539123439877
      ],
      [
        "▁Eva",
        -10.404591380836836
      ],
      [
        "▁Paris",
        -10.404806184853706
      ],
      [
        "▁sönder",
        -10.405108371870462
      ],
      [
        "▁uppfyll",
        -10.405284451045794
      ],
      [
        "ang",
        -10.40619314100238
      ],
      [
        "▁syster",
        -10.406377077927885
      ],
      [
        "▁bry",
        -10.406967596057147
      ],
      [
        "▁duktig",
        -10.407192169477103
      ],
      [
        "brott",
        -10.407487421313048
      ],
      [
        "▁dusch",
        -10.40750633525042
      ],
      [
        "▁tjänsten",
        -10.407612363268314
      ],
      [
        "förekommer",
        -10.40791742057454
      ],
      [
        "▁skatt",
        -10.408026884160302
      ],
      [
        "▁hänga",
        -10.40824989773573
      ],
      [
        "lev",
        -10.408812419237869
      ],
      [
        "▁särskild",
        -10.410126889284472
      ],
      [
        "lik",
        -10.410209727949637
      ],
      [
        "▁personuppgifter",
        -10.410219259313127
      ],
      [
        "▁me",
        -10.41025155934759
      ],
      [
        "▁anpassa",
        -10.410291655209662
      ],
      [
        "▁Super",
        -10.410637141578135
      ],
      [
        "kväll",
        -10.410815120334702
      ],
      [
        "äkta",
        -10.410949284523554
      ],
      [
        "▁kallad",
        -10.411420701666282
      ],
      [
        "▁marken",
        -10.41154763921814
      ],
      [
        "gjorda",
        -10.411703935556336
      ],
      [
        "ong",
        -10.411902838082783
      ],
      [
        "▁Jesus",
        -10.412142037347312
      ],
      [
        "▁gemensam",
        -10.412154680914538
      ],
      [
        "bestämde",
        -10.41295432534115
      ],
      [
        "▁artikeln",
        -10.41308365087787
      ],
      [
        "ögonen",
        -10.413284385541338
      ],
      [
        "▁nyheter",
        -10.413392172912772
      ],
      [
        "▁fastighets",
        -10.413403805151377
      ],
      [
        "▁Sport",
        -10.413850414002123
      ],
      [
        "▁lyfta",
        -10.41386235414602
      ],
      [
        "▁Storbritannien",
        -10.41401519500572
      ],
      [
        "eras",
        -10.414767773892557
      ],
      [
        "▁golv",
        -10.414786962402566
      ],
      [
        "reglerna",
        -10.414942003769834
      ],
      [
        "▁bostad",
        -10.415017585707535
      ],
      [
        "ång",
        -10.415485161667489
      ],
      [
        "tillfället",
        -10.415526292273011
      ],
      [
        "▁dollar",
        -10.415761984626696
      ],
      [
        "lighet",
        -10.415994167139695
      ],
      [
        "uppgifter",
        -10.416011859721673
      ],
      [
        "▁invånare",
        -10.416744185599256
      ],
      [
        "▁Helt",
        -10.417622893551915
      ],
      [
        "slipper",
        -10.419021094976646
      ],
      [
        "▁finna",
        -10.419201179295735
      ],
      [
        "▁varor",
        -10.419998032445863
      ],
      [
        "böcker",
        -10.420464556611355
      ],
      [
        "▁saknas",
        -10.420563407883867
      ],
      [
        "▁Miljö",
        -10.421038989030345
      ],
      [
        "out",
        -10.421050746795602
      ],
      [
        "▁My",
        -10.421312439588919
      ],
      [
        "▁kilometer",
        -10.421430478420364
      ],
      [
        "rör",
        -10.42179190939619
      ],
      [
        "▁torsdag",
        -10.42224351065417
      ],
      [
        "givande",
        -10.42231189090998
      ],
      [
        "▁Vårt",
        -10.422632045210365
      ],
      [
        "▁södra",
        -10.422999847711418
      ],
      [
        "stärka",
        -10.423021558689186
      ],
      [
        "▁frakt",
        -10.423061513590735
      ],
      [
        "▁enskild",
        -10.423257474874307
      ],
      [
        "▁verkligheten",
        -10.423264981476178
      ],
      [
        "▁samverkan",
        -10.423266769816685
      ],
      [
        "Ö",
        -10.424052814509471
      ],
      [
        "klassiska",
        -10.424280010497029
      ],
      [
        "▁aktiva",
        -10.424493475193715
      ],
      [
        "nät",
        -10.42461827384845
      ],
      [
        "▁totala",
        -10.424919796452166
      ],
      [
        "▁lågt",
        -10.426257518599234
      ],
      [
        "▁resor",
        -10.426288519170733
      ],
      [
        "les",
        -10.426330106353392
      ],
      [
        "▁Ad",
        -10.426394606247602
      ],
      [
        "nämnden",
        -10.426614645784113
      ],
      [
        "Annar",
        -10.427665688862584
      ],
      [
        "▁avgifter",
        -10.427729370409907
      ],
      [
        "▁Hög",
        -10.42824119889813
      ],
      [
        "skickar",
        -10.42860231911543
      ],
      [
        "▁Kram",
        -10.428747912028154
      ],
      [
        "▁uppmärksamhet",
        -10.429439429666198
      ],
      [
        "▁personalen",
        -10.429492704126195
      ],
      [
        "▁papper",
        -10.43054712489514
      ],
      [
        "▁dejtingsajt",
        -10.430786032449625
      ],
      [
        "översättningen",
        -10.430847373601845
      ],
      [
        "bestämmer",
        -10.430869636553666
      ],
      [
        "▁Inom",
        -10.431512157977432
      ],
      [
        "▁synd",
        -10.432442533739225
      ],
      [
        "hallen",
        -10.43330815228854
      ],
      [
        "▁Larsson",
        -10.433686361267537
      ],
      [
        "förening",
        -10.434259392774639
      ],
      [
        "owa",
        -10.434290372523717
      ],
      [
        "▁publik",
        -10.434398080804097
      ],
      [
        "▁hoppa",
        -10.434408433701517
      ],
      [
        "äng",
        -10.434838147065786
      ],
      [
        "▁laga",
        -10.435115626644707
      ],
      [
        "Börja",
        -10.435128887683238
      ],
      [
        "▁kön",
        -10.4356409300545
      ],
      [
        "▁tyst",
        -10.436163971012038
      ],
      [
        "▁behålla",
        -10.436885634200596
      ],
      [
        "TV",
        -10.436992725695747
      ],
      [
        "naturliga",
        -10.437068747443332
      ],
      [
        "▁röra",
        -10.437314988121324
      ],
      [
        "▁motsvara",
        -10.437831930361616
      ],
      [
        "göra",
        -10.43789001302933
      ],
      [
        "▁radio",
        -10.43819037810461
      ],
      [
        "▁stranden",
        -10.438286322045197
      ],
      [
        "banan",
        -10.439027713114463
      ],
      [
        "▁snar",
        -10.439096607458003
      ],
      [
        "one",
        -10.43920209088999
      ],
      [
        "▁Ed",
        -10.439477273152285
      ],
      [
        "▁Da",
        -10.43965336647762
      ],
      [
        "pågår",
        -10.439716005678768
      ],
      [
        "eventuella",
        -10.439733960753697
      ],
      [
        "Oavsett",
        -10.440127779926675
      ],
      [
        "anges",
        -10.441146052914592
      ],
      [
        "▁alltför",
        -10.441194223420698
      ],
      [
        "▁tuff",
        -10.441292576198517
      ],
      [
        "▁Mikael",
        -10.441315133671948
      ],
      [
        "▁grön",
        -10.441435764709519
      ],
      [
        "▁Am",
        -10.441604212612097
      ],
      [
        "▁linje",
        -10.441774303984628
      ],
      [
        "▁skuld",
        -10.441774456408732
      ],
      [
        "▁Thomas",
        -10.442436237240148
      ],
      [
        "ämnet",
        -10.442806800299952
      ],
      [
        "let",
        -10.442893304441528
      ],
      [
        "nämnda",
        -10.443270642602466
      ],
      [
        "ator",
        -10.443340643212691
      ],
      [
        "▁Mi",
        -10.443471233314636
      ],
      [
        "▁stål",
        -10.443496865269429
      ],
      [
        "ben",
        -10.444050370004438
      ],
      [
        "▁Ga",
        -10.444110136566596
      ],
      [
        "året",
        -10.444142036185761
      ],
      [
        "▁tyska",
        -10.444391063289181
      ],
      [
        "tråkigt",
        -10.444623939235731
      ],
      [
        "▁seger",
        -10.444659663231151
      ],
      [
        "▁lät",
        -10.44515564226854
      ],
      [
        "▁avse",
        -10.44529914683973
      ],
      [
        "Tror",
        -10.446783089079608
      ],
      [
        "▁Tillsammans",
        -10.44704937995412
      ],
      [
        "täcker",
        -10.447227015003902
      ],
      [
        "▁syft",
        -10.447350706622423
      ],
      [
        "kraft",
        -10.447524906228704
      ],
      [
        "▁kallt",
        -10.447541150435791
      ],
      [
        "start",
        -10.448553285691002
      ],
      [
        "▁snyggt",
        -10.448686888720447
      ],
      [
        "▁populär",
        -10.448856592299087
      ],
      [
        "väntade",
        -10.449156986164732
      ],
      [
        "▁bröd",
        -10.449195365654415
      ],
      [
        "▁Stora",
        -10.449895097874547
      ],
      [
        "▁påbörja",
        -10.449942300742284
      ],
      [
        "▁kritik",
        -10.45005959731228
      ],
      [
        "▁Bank",
        -10.450434892734375
      ],
      [
        "▁lov",
        -10.45096738377653
      ],
      [
        "▁anslutning",
        -10.451225014765738
      ],
      [
        "▁lokaler",
        -10.451278853307976
      ],
      [
        "▁van",
        -10.451314172843924
      ],
      [
        "väntat",
        -10.451481733312518
      ],
      [
        "gemensamt",
        -10.451558674742843
      ],
      [
        "pratade",
        -10.451581035460796
      ],
      [
        "°",
        -10.451893755949156
      ],
      [
        "HL",
        -10.452027901389059
      ],
      [
        "mysigt",
        -10.452079842069711
      ],
      [
        "▁fördelar",
        -10.452471248743095
      ],
      [
        "▁version",
        -10.452798187677606
      ],
      [
        "särskilda",
        -10.45296718671693
      ],
      [
        "slut",
        -10.45349997432736
      ],
      [
        "▁insats",
        -10.45407490118434
      ],
      [
        "▁beteende",
        -10.454261340118192
      ],
      [
        "▁kontor",
        -10.454279555637637
      ],
      [
        "▁fan",
        -10.454387711985948
      ],
      [
        "▁modeller",
        -10.45448426214409
      ],
      [
        "▁maskin",
        -10.454767690380686
      ],
      [
        "årig",
        -10.455181672660457
      ],
      [
        "▁förtroende",
        -10.455350038004712
      ],
      [
        "▁Nyheter",
        -10.455666366727737
      ],
      [
        "strand",
        -10.455903052585985
      ],
      [
        "byn",
        -10.456285093884627
      ],
      [
        "▁engagemang",
        -10.45643110392077
      ],
      [
        "nivån",
        -10.456811881163471
      ],
      [
        "▁utmaningar",
        -10.457234153500908
      ],
      [
        "▁förändra",
        -10.457462198436493
      ],
      [
        "▁normal",
        -10.45912479408965
      ],
      [
        "▁sannolik",
        -10.459153112165367
      ],
      [
        "▁fil",
        -10.459223916508506
      ],
      [
        "▁Kultur",
        -10.460860242111155
      ],
      [
        "▁flertal",
        -10.461304324896595
      ],
      [
        "▁Västra",
        -10.461366836656103
      ],
      [
        "▁trädgård",
        -10.46141882574941
      ],
      [
        "▁Di",
        -10.461636598836993
      ],
      [
        "▁smart",
        -10.461867522143734
      ],
      [
        "▁miljon",
        -10.462491355447714
      ],
      [
        "▁Italien",
        -10.462499121315197
      ],
      [
        "wa",
        -10.463007036662347
      ],
      [
        "▁skriv",
        -10.463659603705674
      ],
      [
        "▁takt",
        -10.463719006113323
      ],
      [
        "▁behandla",
        -10.463916692897282
      ],
      [
        "▁kunden",
        -10.464113768731167
      ],
      [
        "förslaget",
        -10.464408606120237
      ],
      [
        "ister",
        -10.46446812504551
      ],
      [
        "▁tävling",
        -10.464613393651048
      ],
      [
        "Redan",
        -10.464644334287057
      ],
      [
        "▁hjärt",
        -10.465044896597174
      ],
      [
        "baserat",
        -10.46506156086661
      ],
      [
        "kraftigt",
        -10.465064774465388
      ],
      [
        "värsta",
        -10.465286898377544
      ],
      [
        "▁avstånd",
        -10.465357217611379
      ],
      [
        "pekar",
        -10.46603387393824
      ],
      [
        "verkade",
        -10.466523184138554
      ],
      [
        "tycks",
        -10.467459934545376
      ],
      [
        "ägna",
        -10.46748781592889
      ],
      [
        "frågan",
        -10.46777089182024
      ],
      [
        "▁aktivitet",
        -10.468024411289274
      ],
      [
        "▁återkomm",
        -10.468314983566485
      ],
      [
        "reagera",
        -10.46836190456087
      ],
      [
        "Om",
        -10.46920800103648
      ],
      [
        "▁SD",
        -10.46972574725858
      ],
      [
        "▁Plan",
        -10.469869582488494
      ],
      [
        "▁arrangera",
        -10.470208714301965
      ],
      [
        "serie",
        -10.47033159818013
      ],
      [
        "över",
        -10.470645127131286
      ],
      [
        "▁SEK",
        -10.471643696223872
      ],
      [
        "▁berör",
        -10.47194576495329
      ],
      [
        "▁lämplig",
        -10.472066665062968
      ],
      [
        "▁bod",
        -10.472450192893124
      ],
      [
        "mänskliga",
        -10.47245840870852
      ],
      [
        "dagar",
        -10.472462459902976
      ],
      [
        "▁sekunder",
        -10.47278450338815
      ],
      [
        "▁fängelse",
        -10.472857632712103
      ],
      [
        "▁Region",
        -10.472888930915074
      ],
      [
        "tagna",
        -10.473935712398362
      ],
      [
        "▁mej",
        -10.474045455423315
      ],
      [
        "bandet",
        -10.474818520350418
      ],
      [
        "▁Ra",
        -10.475190852415457
      ],
      [
        "▁förståelse",
        -10.47533971858757
      ],
      [
        "enheten",
        -10.475352748463306
      ],
      [
        "▁styrka",
        -10.47561976717188
      ],
      [
        "kommit",
        -10.476005597725047
      ],
      [
        "▁respekt",
        -10.476006724883009
      ],
      [
        "miljö",
        -10.476377028896916
      ],
      [
        "▁överallt",
        -10.476582127483354
      ],
      [
        "▁miljön",
        -10.476903173496929
      ],
      [
        "▁Folk",
        -10.476957347108026
      ],
      [
        "lämnat",
        -10.47798573436774
      ],
      [
        "resultera",
        -10.478638059348189
      ],
      [
        "orolig",
        -10.478699026387964
      ],
      [
        "olja",
        -10.47935725249239
      ],
      [
        "▁ka",
        -10.479496264805396
      ],
      [
        "talade",
        -10.479533008992773
      ],
      [
        "▁rekommendera",
        -10.480215209082445
      ],
      [
        "ges",
        -10.480428546866074
      ],
      [
        "▁Windows",
        -10.480509557549382
      ],
      [
        "männen",
        -10.480606015336326
      ],
      [
        "▁andel",
        -10.480796609587504
      ],
      [
        "pp",
        -10.480800880356577
      ],
      [
        "▁återg",
        -10.480969239747159
      ],
      [
        "▁Mark",
        -10.481118124351692
      ],
      [
        "▁Spanien",
        -10.481335203800793
      ],
      [
        "▁författare",
        -10.481661574335263
      ],
      [
        "▁produkten",
        -10.482056514529509
      ],
      [
        "automatiskt",
        -10.482174628555313
      ],
      [
        "banken",
        -10.482419974965648
      ],
      [
        "▁tränare",
        -10.482431352000134
      ],
      [
        "ow",
        -10.482451537228819
      ],
      [
        "▁moms",
        -10.482691247717236
      ],
      [
        "▁hästar",
        -10.482937407378989
      ],
      [
        "▁planerar",
        -10.483731325231274
      ],
      [
        "fullt",
        -10.483735876401429
      ],
      [
        "▁Fick",
        -10.48440380493684
      ],
      [
        "lad",
        -10.484780860035398
      ],
      [
        "▁servera",
        -10.485311727545655
      ],
      [
        "▁kall",
        -10.485357697926936
      ],
      [
        "▁bevilja",
        -10.48567212011957
      ],
      [
        "▁näst",
        -10.486249236829673
      ],
      [
        "frågorna",
        -10.486354898108202
      ],
      [
        "▁tappa",
        -10.486632192879036
      ],
      [
        "kollegor",
        -10.48665599436673
      ],
      [
        "fel",
        -10.48691505729665
      ],
      [
        "▁Va",
        -10.487465105202842
      ],
      [
        "▁felaktig",
        -10.48762087373093
      ],
      [
        "▁trolig",
        -10.487776805053278
      ],
      [
        "länderna",
        -10.48786880661214
      ],
      [
        "▁hemmet",
        -10.488018622607067
      ],
      [
        "byggnad",
        -10.488044727724981
      ],
      [
        "nöjda",
        -10.488236559127149
      ],
      [
        "enlighet",
        -10.488530578621457
      ],
      [
        "pol",
        -10.489069322428042
      ],
      [
        "filer",
        -10.489169585688478
      ],
      [
        "▁To",
        -10.489498950194118
      ],
      [
        "kel",
        -10.489530606959686
      ],
      [
        "taket",
        -10.48982989819152
      ],
      [
        "▁smärta",
        -10.490319046507548
      ],
      [
        "▁vuxen",
        -10.49044142802456
      ],
      [
        "▁produktion",
        -10.490656471550512
      ],
      [
        "▁söt",
        -10.491039510636478
      ],
      [
        "delvis",
        -10.491287455821801
      ],
      [
        "AR",
        -10.491689404727806
      ],
      [
        "▁planer",
        -10.491928189680756
      ],
      [
        "▁spendera",
        -10.49227066779729
      ],
      [
        "▁Karlsson",
        -10.49249314249935
      ],
      [
        "föll",
        -10.492504525919314
      ],
      [
        "test",
        -10.492669797443947
      ],
      [
        "▁intervju",
        -10.492824351467274
      ],
      [
        "▁Dag",
        -10.492873834897432
      ],
      [
        "▁sällskap",
        -10.493271418601484
      ],
      [
        "åsikter",
        -10.49351414725929
      ],
      [
        "övningar",
        -10.494929949830977
      ],
      [
        "De",
        -10.495774705776816
      ],
      [
        "▁bredvid",
        -10.495968668758813
      ],
      [
        "bas",
        -10.496244101852877
      ],
      [
        "förvaltningen",
        -10.496902831371814
      ],
      [
        "▁lagom",
        -10.497481658113564
      ],
      [
        "res",
        -10.498005196978946
      ],
      [
        "sko",
        -10.498052899922639
      ],
      [
        "▁studenter",
        -10.498195277936137
      ],
      [
        "▁Aktiebolag",
        -10.498356890710344
      ],
      [
        "hinna",
        -10.49906254413401
      ],
      [
        "ting",
        -10.499523602525022
      ],
      [
        "lades",
        -10.499902112026286
      ],
      [
        "▁Hotels",
        -10.500054400565963
      ],
      [
        "▁sjukdomar",
        -10.500336677414728
      ],
      [
        "Syftet",
        -10.50134593992813
      ],
      [
        "▁riksdagen",
        -10.501352838395011
      ],
      [
        "▁beskriv",
        -10.501914799997383
      ],
      [
        "bad",
        -10.502095653896477
      ],
      [
        "▁Jämför",
        -10.502599449110507
      ],
      [
        "▁grå",
        -10.502798589920397
      ],
      [
        "bit",
        -10.50295673457962
      ],
      [
        "paket",
        -10.502982729568135
      ],
      [
        "backen",
        -10.502989862207729
      ],
      [
        "▁onsdag",
        -10.50311409777572
      ],
      [
        "omfattar",
        -10.503132822568352
      ],
      [
        "nych",
        -10.503235616071688
      ],
      [
        "hantering",
        -10.503691518611861
      ],
      [
        "hunden",
        -10.503779211632128
      ],
      [
        "▁tillägg",
        -10.504933666118546
      ],
      [
        "▁Tidigare",
        -10.505207853213358
      ],
      [
        "ocz",
        -10.506014829556628
      ],
      [
        "▁rosa",
        -10.506222327927258
      ],
      [
        "Tycker",
        -10.506373879734577
      ],
      [
        "▁butiken",
        -10.506759901162571
      ],
      [
        "kostnad",
        -10.507054105623585
      ],
      [
        "ze",
        -10.507114734897508
      ],
      [
        "luften",
        -10.507894468815211
      ],
      [
        "drag",
        -10.507975194425077
      ],
      [
        "▁verksamhets",
        -10.508335966688433
      ],
      [
        "▁webbplatsen",
        -10.50932236321463
      ],
      [
        "vet",
        -10.509452899877674
      ],
      [
        "sugen",
        -10.509824888853675
      ],
      [
        "hall",
        -10.510612270729016
      ],
      [
        "▁Billiga",
        -10.511129210564153
      ],
      [
        "▁vägg",
        -10.5121515566755
      ],
      [
        "nytta",
        -10.512415799632308
      ],
      [
        "satta",
        -10.51251614289199
      ],
      [
        "▁silver",
        -10.512766234297509
      ],
      [
        "▁städer",
        -10.512898752508631
      ],
      [
        "▁Persson",
        -10.513227842867384
      ],
      [
        "▁ryggen",
        -10.513459095943974
      ],
      [
        "älskade",
        -10.514001260544783
      ],
      [
        "▁fl",
        -10.514179164954395
      ],
      [
        "▁identifiera",
        -10.5142999473955
      ],
      [
        "▁arbetsmiljö",
        -10.514402384569706
      ],
      [
        "▁utseende",
        -10.514692093032828
      ],
      [
        "▁inomhus",
        -10.514958440253377
      ],
      [
        "▁krig",
        -10.515639087329891
      ],
      [
        "▁byggde",
        -10.51582327634436
      ],
      [
        "▁Pe",
        -10.515891445102941
      ],
      [
        "▁informera",
        -10.516467739032628
      ],
      [
        "▁upptäcka",
        -10.516488801262028
      ],
      [
        "slaget",
        -10.517157093373681
      ],
      [
        "▁Utan",
        -10.51797772227312
      ],
      [
        "▁rena",
        -10.51801367670656
      ],
      [
        "vågar",
        -10.518430026694928
      ],
      [
        "▁student",
        -10.518583390660895
      ],
      [
        "▁Dr",
        -10.51858596048253
      ],
      [
        "▁Henrik",
        -10.518745551778972
      ],
      [
        "ses",
        -10.519315426552446
      ],
      [
        "▁elev",
        -10.520244090802345
      ],
      [
        "domstolen",
        -10.520336034884759
      ],
      [
        "▁tex",
        -10.52045211101561
      ],
      [
        "▁leverantörer",
        -10.520487924687949
      ],
      [
        "kod",
        -10.520810278873519
      ],
      [
        "▁Herr",
        -10.520824074351557
      ],
      [
        "sserligen",
        -10.521601294745576
      ],
      [
        "▁Kar",
        -10.522766823660852
      ],
      [
        "innehållet",
        -10.523045543612099
      ],
      [
        "▁Mats",
        -10.523332037697804
      ],
      [
        "▁Red",
        -10.523375665462616
      ],
      [
        "möte",
        -10.524138131823019
      ],
      [
        "▁region",
        -10.524262410029714
      ],
      [
        "▁artiklar",
        -10.524679229593414
      ],
      [
        "fest",
        -10.524808528518912
      ],
      [
        "▁Jul",
        -10.524969305996546
      ],
      [
        "ssystem",
        -10.525088132382972
      ],
      [
        "önskemål",
        -10.525458822987243
      ],
      [
        "▁Su",
        -10.525972678387708
      ],
      [
        "▁tusen",
        -10.526172346529693
      ],
      [
        "orter",
        -10.52646039705111
      ],
      [
        "▁Totalt",
        -10.526926024562336
      ],
      [
        "ansvarar",
        -10.527335312148308
      ],
      [
        "▁Fler",
        -10.527362618576673
      ],
      [
        "▁aktie",
        -10.5274008392591
      ],
      [
        "▁sök",
        -10.528199563950619
      ],
      [
        "lam",
        -10.52851827793999
      ],
      [
        "▁träffar",
        -10.528535343802616
      ],
      [
        "▁fotbolls",
        -10.528632801556087
      ],
      [
        "resor",
        -10.528823148419077
      ],
      [
        "hjälp",
        -10.52887976796805
      ],
      [
        "▁Tur",
        -10.530210241906849
      ],
      [
        "delar",
        -10.53132863388795
      ],
      [
        "▁sovrum",
        -10.531453852819613
      ],
      [
        "härliga",
        -10.531527111239882
      ],
      [
        "försvinner",
        -10.531552510925627
      ],
      [
        "jobb",
        -10.531579501562227
      ],
      [
        "avdelningen",
        -10.531613395726975
      ],
      [
        "▁urval",
        -10.531913904235418
      ],
      [
        "▁sortiment",
        -10.53205242405319
      ],
      [
        "▁lägenheten",
        -10.532265990775196
      ],
      [
        "▁FÖR",
        -10.532902417614126
      ],
      [
        "▁statistik",
        -10.533319086972806
      ],
      [
        "läggning",
        -10.53414277956122
      ],
      [
        "säkerställa",
        -10.534153918327215
      ],
      [
        "svaret",
        -10.534507094871397
      ],
      [
        "utvecklat",
        -10.534707255143278
      ],
      [
        "▁tävla",
        -10.53486270329556
      ],
      [
        "föreningen",
        -10.53563578352074
      ],
      [
        "▁uppfattning",
        -10.535659560875903
      ],
      [
        "lle",
        -10.535667341086404
      ],
      [
        "chefen",
        -10.535710956741516
      ],
      [
        "▁Vidare",
        -10.536179388434183
      ],
      [
        "▁profil",
        -10.536440486676321
      ],
      [
        "prov",
        -10.536613661235931
      ],
      [
        "▁separat",
        -10.537028281420099
      ],
      [
        "byggnaden",
        -10.53703759204985
      ],
      [
        "▁doft",
        -10.53706673575891
      ],
      [
        "omöjligt",
        -10.537133666916993
      ],
      [
        "▁handen",
        -10.537285481282785
      ],
      [
        "▁kämpa",
        -10.537587103873241
      ],
      [
        "▁ränta",
        -10.537682289385526
      ],
      [
        "tag",
        -10.537838174887877
      ],
      [
        "of",
        -10.537983039059082
      ],
      [
        "▁räknar",
        -10.538209660846013
      ],
      [
        "▁za",
        -10.53864025611671
      ],
      [
        "kvinnan",
        -10.53865363694042
      ],
      [
        "hu",
        -10.539053263595095
      ],
      [
        "individer",
        -10.539162023845398
      ],
      [
        "▁styra",
        -10.53916746576251
      ],
      [
        "box",
        -10.539469382376558
      ],
      [
        "▁trygghet",
        -10.539481655020852
      ],
      [
        "▁påminn",
        -10.539482705183747
      ],
      [
        "ite",
        -10.539558994033372
      ],
      [
        "▁situationer",
        -10.539602587763513
      ],
      [
        "saken",
        -10.539617096967918
      ],
      [
        "▁tvätt",
        -10.539706070958916
      ],
      [
        "▁lycka",
        -10.53985093323551
      ],
      [
        "▁FN",
        -10.540315522364835
      ],
      [
        "▁lägenheter",
        -10.540361875467696
      ],
      [
        "cy",
        -10.540510723660422
      ],
      [
        "▁Kl",
        -10.540711812852502
      ],
      [
        "▁Väl",
        -10.540913862053548
      ],
      [
        "▁fria",
        -10.541993749673448
      ],
      [
        "▁Karin",
        -10.542021641585988
      ],
      [
        "▁historien",
        -10.542231545577874
      ],
      [
        "▁svag",
        -10.542746570028422
      ],
      [
        "▁Kort",
        -10.542807076612553
      ],
      [
        "ID",
        -10.54326127482291
      ],
      [
        "▁drag",
        -10.543401619983102
      ],
      [
        "företagen",
        -10.54371690596253
      ],
      [
        "bordet",
        -10.543833921074041
      ],
      [
        "Alltså",
        -10.543944387566862
      ],
      [
        "▁sprid",
        -10.544125804598162
      ],
      [
        "släppte",
        -10.544180970847249
      ],
      [
        "jobbat",
        -10.544267863391626
      ],
      [
        "funderar",
        -10.545172245486148
      ],
      [
        "▁Br",
        -10.545769680640657
      ],
      [
        "steg",
        -10.546437573466703
      ],
      [
        "▁rea",
        -10.546507091823186
      ],
      [
        "▁föremål",
        -10.546640873933747
      ],
      [
        "väggen",
        -10.546850013410578
      ],
      [
        "▁global",
        -10.546899369011905
      ],
      [
        "räknas",
[...]
