{
  "version": "1.0",
  "truncation": null,
  "padding": null,
  "added_tokens": [
    {
      "id": 0,
      "special": true,
      "content": "[PAD]",
      "single_word": false,
      "lstrip": false,
      "rstrip": false,
      "normalized": false
    },
    {
      "id": 1,
      "special": true,
      "content": "[UNK]",
      "single_word": false,
      "lstrip": false,
      "rstrip": false,
      "normalized": false
    },
    {
      "id": 2,
      "special": true,
      "content": "[MASK]",
      "single_word": false,
      "lstrip": false,
      "rstrip": false,
      "normalized": false
    },
    {
      "id": 3,
      "special": true,
      "content": "[CLS]",
      "single_word": false,
      "lstrip": false,
      "rstrip": false,
      "normalized": false
    },
    {
      "id": 4,
      "special": true,
      "content": "[SEP]",
      "single_word": false,
      "lstrip": false,
      "rstrip": false,
      "normalized": false
    }
  ],
  "normalizer": {
    "type": "Sequence",
    "normalizers": [
      {
        "type": "Nmt"
      },
      {
        "type": "NFKC"
      },
      {
        "type": "Replace",
        "pattern": {
          "Regex": " {2,}"
        },
        "content": " "
      }
    ]
  },
  "pre_tokenizer": {
    "type": "Sequence",
    "pretokenizers": [
      {
        "type": "Metaspace",
        "replacement": "▁",
        "add_prefix_space": true
      }
    ]
  },
  "post_processor": {
    "type": "TemplateProcessing",
    "single": [
      {
        "SpecialToken": {
          "id": "[CLS]",
          "type_id": 0
        }
      },
      {
        "Sequence": {
          "id": "A",
          "type_id": 0
        }
      },
      {
        "SpecialToken": {
          "id": "[SEP]",
          "type_id": 0
        }
      }
    ],
    "pair": [
      {
        "SpecialToken": {
          "id": "[CLS]",
          "type_id": 0
        }
      },
      {
        "Sequence": {
          "id": "A",
          "type_id": 0
        }
      },
      {
        "SpecialToken": {
          "id": "[SEP]",
          "type_id": 0
        }
      },
      {
        "Sequence": {
          "id": "B",
          "type_id": 1
        }
      },
      {
        "SpecialToken": {
          "id": "[SEP]",
          "type_id": 1
        }
      }
    ],
    "special_tokens": {
      "[CLS]": {
        "id": "[CLS]",
        "ids": [
          3
        ],
        "tokens": [
          "[CLS]"
        ]
      },
      "[SEP]": {
        "id": "[SEP]",
        "ids": [
          4
        ],
        "tokens": [
          "[SEP]"
        ]
      }
    }
  },
  "decoder": {
    "type": "Metaspace",
    "replacement": "▁",
    "add_prefix_space": true
  },
  "model": {
    "type": "Unigram",
    "unk_id": 1,
    "vocab": [
      [
        "[PAD]",
        0.0
      ],
      [
        "[UNK]",
        0.0
      ],
      [
        "[MASK]",
        0.0
      ],
      [
        "[CLS]",
        0.0
      ],
      [
        "[SEP]",
        0.0
      ],
      [
        "▁",
        -3.0913451069428852
      ],
      [
        ".",
        -3.603736412645187
      ],
      [
        "▁och",
        -3.784070928015071
      ],
      [
        ",",
        -3.8236771132164
      ],
      [
        "▁att",
        -4.0339876153742615
      ],
      [
        "▁i",
        -4.113480271646813
      ],
      [
        "s",
        -4.243454159405109
      ],
      [
        "▁är",
        -4.398949236310406
      ],
      [
        "▁som",
        -4.4293353245886635
      ],
      [
        "▁på",
        -4.432005228167167
      ],
      [
        "▁en",
        -4.486950066271017
      ],
      [
        "▁för",
        -4.55279373074732
      ],
      [
        "▁det",
        -4.5660241851791294
      ],
      [
        "▁med",
        -4.696519776847245
      ],
      [
        "▁av",
        -4.725727153973649
      ],
      [
        "▁till",
        -4.864686000562051
      ],
      [
        "▁har",
        -4.991847766716866
      ],
      [
        "▁jag",
        -5.1384828140692385
      ],
      [
        "t",
        -5.171922578160141
      ],
      [
        "en",
        -5.203032566435473
      ],
      [
        "▁inte",
        -5.207768184784156
      ],
      [
        "a",
        -5.235406344516653
      ],
      [
        "▁om",
        -5.24094563622528
      ],
      [
        "▁den",
        -5.3070164490835925
      ],
      [
        "▁ett",
        -5.355534280533309
      ],
      [
        "▁så",
        -5.417876133703116
      ],
      [
        "▁du",
        -5.494654782696777
      ],
      [
        "▁de",
        -5.499557772360667
      ],
      [
        "▁kan",
        -5.514009176335275
      ],
      [
        "▁vi",
        -5.6936059001253145
      ],
      [
        "▁var",
        -5.744005488934233
      ],
      [
        "r",
        -5.745954195326535
      ],
      [
        "▁Det",
        -5.775962495276817
      ],
      [
        "er",
        -5.814872155120021
      ],
      [
        "▁från",
        -5.819089042426029
      ],
      [
        "▁man",
        -5.829863005079137
      ],
      [
        "▁eller",
        -5.949604970905476
      ],
      [
        "-",
        -5.972067301879301
      ],
      [
        ":",
        -5.977139803222922
      ],
      [
        "▁men",
        -6.000637243434403
      ],
      [
        "n",
        -6.026792573808153
      ],
      [
        "e",
        -6.12529542187942
      ],
      [
        "▁ska",
        -6.146540442380493
      ],
      [
        "!",
        -6.180442378755183
      ],
      [
        "▁sig",
        -6.222015894257005
      ],
      [
        "▁Jag",
        -6.292683470730935
      ],
      [
        "▁in",
        -6.343072054302015
      ],
      [
        "?",
        -6.347145355487774
      ],
      [
        "▁när",
        -6.3498723411068685
      ],
      [
        "▁kommer",
        -6.370381388539826
      ],
      [
        "▁-",
        -6.379316273436508
      ],
      [
        ")",
        -6.39417012671214
      ],
      [
        "▁här",
        -6.413997500839052
      ],
      [
        "▁–",
        -6.4195022412426574
      ],
      [
        "▁upp",
        -6.423893963169487
      ],
      [
        "▁vara",
        -6.429666745019942
      ],
      [
        "▁ut",
        -6.436282972568039
      ],
      [
        "▁I",
        -6.438419830295839
      ],
      [
        "▁finns",
        -6.472069775625117
      ],
      [
        "de",
        -6.473554437757084
      ],
      [
        "▁Vi",
        -6.481924979107907
      ],
      [
        "▁mer",
        -6.512255862245713
      ],
      [
        "▁alla",
        -6.515088388934897
      ],
      [
        "▁han",
        -6.529552230972973
      ],
      [
        "▁där",
        -6.533311373541013
      ],
      [
        "ar",
        -6.568497487240382
      ],
      [
        "i",
        -6.612681163371349
      ],
      [
        "▁under",
        -6.620512746484836
      ],
      [
        "▁får",
        -6.639173636988929
      ],
      [
        "▁mycket",
        -6.648718446063949
      ],
      [
        "▁(",
        -6.661580979839734
      ],
      [
        "▁också",
        -6.691323468228205
      ],
      [
        "▁nu",
        -6.691929190995577
      ],
      [
        "▁efter",
        -6.705272741900215
      ],
      [
        "▁ha",
        -6.715356484420704
      ],
      [
        "▁vill",
        -6.72122887439123
      ],
      [
        "▁över",
        -6.733654947488201
      ],
      [
        "o",
        -6.748132363382441
      ],
      [
        "▁lite",
        -6.748519799692291
      ],
      [
        "▁andra",
        -6.750500826562689
      ],
      [
        "▁få",
        -6.754685835065457
      ],
      [
        "d",
        -6.754892596812335
      ],
      [
        "▁bara",
        -6.758295343046266
      ],
      [
        "▁även",
        -6.7602721484188635
      ],
      [
        "▁bra",
        -6.772088113834862
      ],
      [
        "▁då",
        -6.779666262395683
      ],
      [
        "▁hur",
        -6.786855874210588
      ],
      [
        "▁mig",
        -6.7886925276210786
      ],
      [
        "▁vid",
        -6.796974235544248
      ],
      [
        "et",
        -6.798025771773778
      ],
      [
        "na",
        -6.836552582735159
      ],
      [
        "▁Men",
        -6.843626186015912
      ],
      [
        "▁vad",
        -6.872693259111678
      ],
      [
        "▁hade",
        -6.87688068125215
      ],
      [
        "▁dig",
        -6.905082886937425
      ],
      [
        "▁skulle",
        -6.906927252825961
      ],
      [
        "▁år",
        -6.908250818327989
      ],
      [
        "▁än",
        -6.914108981303926
      ],
      [
        "...",
        -6.916200898568572
      ],
      [
        "▁blir",
        -6.924457842390421
      ],
      [
        "▁En",
        -6.944701646651856
      ],
      [
        "▁sin",
        -6.981450792098105
      ],
      [
        "▁mot",
        -6.999052849844123
      ],
      [
        "▁många",
        -7.02015547008175
      ],
      [
        "\"",
        -7.022842615539767
      ],
      [
        "/",
        -7.040970575867712
      ],
      [
        "▁Den",
        -7.045614360560755
      ],
      [
        "▁ju",
        -7.054411436541288
      ],
      [
        "▁din",
        -7.058362547801028
      ],
      [
        "▁ta",
        -7.05909163805403
      ],
      [
        "▁1",
        -7.063346265788837
      ],
      [
        "▁gör",
        -7.070006596315251
      ],
      [
        "▁hon",
        -7.083949952247064
      ],
      [
        "▁göra",
        -7.100516489898858
      ],
      [
        "▁min",
        -7.105248025533285
      ],
      [
        "▁utan",
        -7.1106310723411905
      ],
      [
        "▁något",
        -7.117144095819221
      ],
      [
        "▁\"",
        -7.130283801858177
      ],
      [
        "▁sedan",
        -7.141755494688418
      ],
      [
        "▁detta",
        -7.149079332937003
      ],
      [
        "▁För",
        -7.156449773063093
      ],
      [
        "▁De",
        -7.157089739341126
      ],
      [
        "▁se",
        -7.160834044843215
      ],
      [
        "▁olika",
        -7.168932445449602
      ],
      [
        "▁två",
        -7.183561532905383
      ],
      [
        "▁allt",
        -7.194327980098354
      ],
      [
        "▁bli",
        -7.215475703331659
      ],
      [
        "▁oss",
        -7.223632474301219
      ],
      [
        "▁någon",
        -7.23695509254755
      ],
      [
        "▁säger",
        -7.248713385653939
      ],
      [
        "▁genom",
        -7.250942937993381
      ],
      [
        "▁del",
        -7.2523116954012234
      ],
      [
        "▁går",
        -7.257912208064456
      ],
      [
        "m",
        -7.279948625118067
      ],
      [
        "▁nya",
        -7.2916999862831435
      ],
      [
        "▁2",
        -7.300230733721829
      ],
      [
        "▁fick",
        -7.301204494889474
      ],
      [
        "▁helt",
        -7.3057810639989444
      ],
      [
        "▁Om",
        -7.324608707389324
      ],
      [
        "▁hela",
        -7.327787727115389
      ],
      [
        "▁inom",
        -7.339679499686193
      ],
      [
        "▁varit",
        -7.358181450174728
      ],
      [
        "▁måste",
        -7.360579226574972
      ],
      [
        "▁blev",
        -7.364388341322007
      ],
      [
        "▁första",
        -7.366909412145665
      ],
      [
        "▁några",
        -7.3856101865479165
      ],
      [
        "▁fram",
        -7.391226200117488
      ],
      [
        "▁samt",
        -7.3919254927105005
      ],
      [
        "▁denna",
        -7.4196458846064814
      ],
      [
        "▁Du",
        -7.420003509639198
      ],
      [
        "▁mellan",
        -7.423369842890741
      ],
      [
        "▁kunna",
        -7.429980859632693
      ],
      [
        "en.",
        -7.458465898264761
      ],
      [
        "▁ni",
        -7.461231789659969
      ],
      [
        "an",
        -7.476532139214086
      ],
      [
        "▁Och",
        -7.490918234961155
      ],
      [
        "▁När",
        -7.5100885922851255
      ],
      [
        "▁vår",
        -7.515541990782701
      ],
      [
        "erna",
        -7.52194339804883
      ],
      [
        "▁ser",
        -7.530962746146228
      ],
      [
        "▁S",
        -7.549897945202638
      ],
      [
        "▁dem",
        -7.557593019165726
      ],
      [
        "▁väl",
        -7.559011825272444
      ],
      [
        "▁sina",
        -7.5698443638199
      ],
      [
        "▁hos",
        -7.570269544674318
      ],
      [
        "▁vilket",
        -7.572540680200097
      ],
      [
        "▁annat",
        -7.573538619173744
      ],
      [
        "▁3",
        -7.581706588124705
      ],
      [
        "▁både",
        -7.5836094620833805
      ],
      [
        "▁rätt",
        -7.583880712245993
      ],
      [
        "▁Så",
        -7.6017647720094015
      ],
      [
        "▁våra",
        -7.617161092459826
      ],
      [
        "▁Nu",
        -7.618810992327697
      ],
      [
        "▁gå",
        -7.626119383577457
      ],
      [
        "▁tid",
        -7.630205501153631
      ],
      [
        "▁behöver",
        -7.645955834454112
      ],
      [
        "ade",
        -7.656678295762308
      ],
      [
        "g",
        -7.6644603629392645
      ],
      [
        "▁På",
        -7.665121809633858
      ],
      [
        "▁stor",
        -7.666975402349307
      ],
      [
        "▁dessa",
        -7.6699094683628015
      ],
      [
        "▁kanske",
        -7.670219647368381
      ],
      [
        "▁bästa",
        -7.673995988098586
      ],
      [
        "▁sätt",
        -7.674460808979926
      ],
      [
        ").",
        -7.686064270852333
      ],
      [
        "▁flera",
        -7.69757677935862
      ],
      [
        "▁ny",
        -7.703294519626256
      ],
      [
        "▁vet",
        -7.707359527233452
      ],
      [
        "”",
        -7.70833831622884
      ],
      [
        "▁innan",
        -7.7110051918001545
      ],
      [
        "▁själv",
        -7.711486528103627
      ],
      [
        "▁barn",
        -7.711562221016338
      ],
      [
        "▁samma",
        -7.714339167296998
      ],
      [
        "l",
        -7.714716449778653
      ],
      [
        "▁&",
        -7.7174192110955655
      ],
      [
        "▁ger",
        -7.726393286826772
      ],
      [
        "▁tar",
        -7.738846157407119
      ],
      [
        "▁Han",
        -7.743676862171299
      ],
      [
        "▁ner",
        -7.748511658936794
      ],
      [
        "▁kom",
        -7.758346333081876
      ],
      [
        "▁Sverige",
        -7.761532201246947
      ],
      [
        "▁alltid",
        -7.767458230461017
      ],
      [
        "▁ditt",
        -7.7752723832327995
      ],
      [
        "v",
        -7.778765302327775
      ],
      [
        "▁tre",
        -7.784472006926128
      ],
      [
        "▁Läs",
        -7.789398848305414
      ],
      [
        "▁stora",
        -7.790558784124487
      ],
      [
        "▁sitt",
        -7.798025071568484
      ],
      [
        "▁bland",
        -7.803826364866296
      ],
      [
        "▁varje",
        -7.807578978937892
      ],
      [
        "▁Här",
        -7.807966911862961
      ],
      [
        "▁4",
        -7.80907688029234
      ],
      [
        "▁5",
        -7.809284528538649
      ],
      [
        ";",
        -7.8154154444826425
      ],
      [
        "▁Att",
        -7.8186108980525635
      ],
      [
        "▁dag",
        -7.820837439803105
      ],
      [
        "ens",
        -7.826186799620849
      ],
      [
        "▁väldigt",
        -7.830443092842854
      ],
      [
        "▁tycker",
        -7.849577673076826
      ],
      [
        "▁Detta",
        -7.849692950770049
      ],
      [
        "at",
        -7.856381208246175
      ],
      [
        "▁ligger",
        -7.864367040651347
      ],
      [
        "▁10",
        -7.8772987245080675
      ],
      [
        "▁gäller",
        -7.879980919072439
      ],
      [
        "▁just",
        -7.897297376128945
      ],
      [
        "y",
        -7.897882833934782
      ],
      [
        "▁A",
        -7.902890673467985
      ],
      [
        "▁hotell",
        -7.90536605437693
      ],
      [
        "ande",
        -7.908902596035675
      ],
      [
        "▁hem",
        -7.912634463315442
      ],
      [
        "▁fått",
        -7.91265854438096
      ],
      [
        "▁bort",
        -7.9200663092918155
      ],
      [
        "▁mitt",
        -7.922019510697478
      ],
      [
        "▁hitta",
        -7.931164613154513
      ],
      [
        "des",
        -7.932558475888182
      ],
      [
        "▁komma",
        -7.934848425327409
      ],
      [
        "▁”",
        -7.935915634365779
      ],
      [
        "▁ingen",
        -7.950473010705496
      ],
      [
        "▁ge",
        -7.960674985784962
      ],
      [
        "▁Har",
        -7.960884735248959
      ],
      [
        "k",
        -7.961302602829331
      ],
      [
        "are",
        -7.961952922906434
      ],
      [
        "▁tror",
        -7.963195715101509
      ],
      [
        "▁riktigt",
        -7.964491010708533
      ],
      [
        "▁svenska",
        -7.966148541733485
      ],
      [
        "h",
        -7.966288098277113
      ],
      [
        "▁bättre",
        -7.968504135717122
      ],
      [
        "▁Vad",
        -7.9730511655286325
      ],
      [
        "▁tidigare",
        -7.976776916506244
      ],
      [
        "▁Med",
        -7.97773195505612
      ],
      [
        "▁dock",
        -7.982208071063912
      ],
      [
        "▁åt",
        -7.98247588104296
      ],
      [
        "▁nog",
        -7.982873136700196
      ],
      [
        "▁skall",
        -7.9844764146681
      ],
      [
        "▁gick",
        -7.98554543138318
      ],
      [
        "▁enligt",
        -7.993968008552153
      ],
      [
        "▁eftersom",
        -7.995632699576332
      ],
      [
        "▁|",
        -8.000853192879374
      ],
      [
        "▁mest",
        -8.002568544962266
      ],
      [
        "▁redan",
        -8.006628203138183
      ],
      [
        "▁Ett",
        -8.01410091832637
      ],
      [
        "▁annan",
        -8.017431380661076
      ],
      [
        "▁f",
        -8.021972003534039
      ],
      [
        "arna",
        -8.026369759874795
      ],
      [
        "▁Hur",
        -8.027075399076951
      ],
      [
        "▁dina",
        -8.02841335293511
      ],
      [
        "ing",
        -8.03165048531287
      ],
      [
        "▁runt",
        -8.038245059748371
      ],
      [
        "▁fler",
        -8.042815806252577
      ],
      [
        "▁kunde",
        -8.047546610293695
      ],
      [
        "▁fall",
        -8.0650337088928
      ],
      [
        "as",
        -8.066331536497048
      ],
      [
        "re",
        -8.067390012520406
      ],
      [
        "▁personer",
        -8.069679010935223
      ],
      [
        "▁idag",
        -8.074755900936793
      ],
      [
        "▁deras",
        -8.075093253124123
      ],
      [
        "▁gratis",
        -8.083501588538144
      ],
      [
        "▁dom",
        -8.095818320244764
      ],
      [
        "▁aldrig",
        -8.09747979580789
      ],
      [
        "▁senaste",
        -8.106051065096532
      ],
      [
        "▁·",
        -8.111125127936598
      ],
      [
        "▁verkligen",
        -8.1147268394037
      ],
      [
        "▁B",
        -8.116873888176602
      ],
      [
        "▁F",
        -8.118157911253032
      ],
      [
        "▁Man",
        -8.125994457022257
      ],
      [
        "▁information",
        -8.135020259398619
      ],
      [
        "▁mina",
        -8.146743846789054
      ],
      [
        "▁tog",
        -8.148344440788557
      ],
      [
        "▁företag",
        -8.149488871223989
      ],
      [
        "▁plats",
        -8.150583822739229
      ],
      [
        "▁gång",
        -8.15064192687028
      ],
      [
        "▁människor",
        -8.151944914411695
      ],
      [
        "f",
        -8.15289559138986
      ],
      [
        "▁tillsammans",
        -8.1602981893824
      ],
      [
        "▁6",
        -8.16389180175236
      ],
      [
        "or",
        -8.165307317599183
      ],
      [
        "▁hjälp",
        -8.166352491886723
      ],
      [
        "▁sen",
        -8.166736496418077
      ],
      [
        "▁C",
        -8.168258070727031
      ],
      [
        "▁M",
        -8.172016401727474
      ],
      [
        "▁mindre",
        -8.177478041177046
      ],
      [
        "▁gjorde",
        -8.177534775286972
      ],
      [
        "▁be",
        -8.177740972334927
      ],
      [
        "▁gjort",
        -8.180068955318804
      ],
      [
        "▁ofta",
        -8.18093445398556
      ],
      [
        "▁använda",
        -8.183072396799528
      ],
      [
        "▁p",
        -8.205606710318856
      ],
      [
        "▁tillbaka",
        -8.209105637979908
      ],
      [
        "▁läsa",
        -8.21207837976253
      ],
      [
        "p",
        -8.215427808346295
      ],
      [
        "▁därför",
        -8.216302988555618
      ],
      [
        "▁köpa",
        -8.217070517065471
      ],
      [
        "▁ur",
        -8.217472026084584
      ],
      [
        "▁20",
        -8.219054337973859
      ],
      [
        "▁lika",
        -8.221003415266855
      ],
      [
        "x",
        -8.23855799524109
      ],
      [
        "▁står",
        -8.243001944253841
      ],
      [
        "▁Som",
        -8.251171893688682
      ],
      [
        "on",
        -8.25380477153049
      ],
      [
        "▁lätt",
        -8.256932270978915
      ],
      [
        "in",
        -8.25878276790455
      ],
      [
        "▁bör",
        -8.259246922066911
      ],
      [
        "▁egen",
        -8.261415833922028
      ],
      [
        "▁större",
        -8.2621027040146
      ],
      [
        "▁Efter",
        -8.264864229989543
      ],
      [
        "c",
        -8.273059950262834
      ],
      [
        "▁hans",
        -8.273232499583704
      ],
      [
        "å",
        -8.274759361168654
      ],
      [
        "▁exempel",
        -8.278295040993417
      ],
      [
        "▁P",
        -8.282893622592235
      ],
      [
        "ad",
        -8.283187591697411
      ],
      [
        "▁per",
        -8.287492243624042
      ],
      [
        "▁direkt",
        -8.288158197742263
      ],
      [
        "▁grund",
        -8.28830780129325
      ],
      [
        "▁säga",
        -8.288533706163022
      ],
      [
        "▁K",
        -8.300277735079943
      ],
      [
        "▁Hon",
        -8.300281399168382
      ],
      [
        "▁via",
        -8.30161324891234
      ],
      [
        "▁...",
        -8.30564133515317
      ],
      [
        "▁/",
        -8.306230605136985
      ],
      [
        "▁enkelt",
        -8.314939362592758
      ],
      [
        "▁hög",
        -8.321220143709896
      ],
      [
        "▁haft",
        -8.323428356396027
      ],
      [
        "▁8",
        -8.325242300554805
      ],
      [
        "▁E",
        -8.327254826727549
      ],
      [
        "en,",
        -8.329277360506389
      ],
      [
        "▁känner",
        -8.332048517595464
      ],
      [
        "▁L",
        -8.33411906883338
      ],
      [
        "▁par",
        -8.334559824389304
      ],
      [
        "▁Då",
        -8.336246222445206
      ],
      [
        "ning",
        -8.338561776938043
      ],
      [
        "▁stort",
        -8.343074483684449
      ],
      [
        "▁kr",
        -8.34916700588783
      ],
      [
        "▁blivit",
        -8.354897011608145
      ],
      [
        "▁7",
        -8.356952313237587
      ],
      [
        "▁spel",
        -8.36085284418388
      ],
      [
        "▁Under",
        -8.361590615981571
      ],
      [
        "▁T",
        -8.362461680635434
      ],
      [
        "▁15",
        -8.362778860951
      ],
      [
        "▁ändå",
        -8.363456289413886
      ],
      [
        "▁hemma",
        -8.366341581024523
      ],
      [
        "▁tiden",
        -8.375633970903918
      ],
      [
        "▁visar",
        -8.377289931873666
      ],
      [
        "▁online",
        -8.378755642535003
      ],
      [
        "u",
        -8.378983137603115
      ],
      [
        "▁små",
        -8.385314079007278
      ],
      [
        "▁hittar",
        -8.38946386971753
      ],
      [
        "▁ca",
        -8.400326292819212
      ],
      [
        "▁inget",
        -8.403122891912439
      ],
      [
        "▁of",
        -8.407608484031003
      ],
      [
        "▁vårt",
        -8.407767224832037
      ],
      [
        "▁liten",
        -8.40895739470432
      ],
      [
        "▁innebär",
        -8.410388959730666
      ],
      [
        "▁dagar",
        -8.410915424192382
      ],
      [
        "▁saker",
        -8.414603288327386
      ],
      [
        "▁Är",
        -8.415918305493559
      ],
      [
        "▁ganska",
        -8.417336004933153
      ],
      [
        "▁nära",
        -8.419811527505885
      ],
      [
        "▁vatten",
        -8.421257424642084
      ],
      [
        "▁ännu",
        -8.422448378811364
      ],
      [
        "▁svårt",
        -8.42287142617778
      ],
      [
        "▁faktiskt",
        -8.425002945022495
      ],
      [
        "▁gärna",
        -8.431853051766478
      ],
      [
        "▁honom",
        -8.434314208503327
      ],
      [
        "▁längre",
        -8.434683564875387
      ],
      [
        "▁börjar",
        -8.436854645204527
      ],
      [
        "▁känns",
        -8.438317233720326
      ],
      [
        "▁kvar",
        -8.438488090131857
      ],
      [
        "▁18",
        -8.440285950868423
      ],
      [
        "▁sex",
        -8.441054450288998
      ],
      [
        "▁pengar",
        -8.449672309492117
      ],
      [
        "▁hålla",
        -8.449901559982598
      ],
      [
        "▁omdömen",
        -8.453239200796318
      ],
      [
        "er.",
        -8.453785133388534
      ],
      [
        "▁året",
        -8.455189242428984
      ],
      [
        "▁god",
        -8.455646298068915
      ],
      [
        "▁the",
        -8.460568621962404
      ],
      [
        "▁30",
        -8.462102591620065
      ],
      [
        "▁hand",
        -8.462493889524316
      ],
      [
        "▁Alla",
        -8.4651925563551
      ],
      [
        "▁håller",
        -8.465268552366291
      ],
      [
        "▁mål",
        -8.470960695108943
      ],
      [
        "▁extra",
        -8.47423917028529
      ],
      [
        "▁nästan",
        -8.476481837081112
      ],
      [
        "▁inför",
        -8.479731024158797
      ],
      [
        "▁sa",
        -8.479775104518374
      ],
      [
        "▁länge",
        -8.482056275766052
      ],
      [
        "▁fortfarande",
        -8.48207781433496
      ],
      [
        "▁mat",
        -8.48438769531119
      ],
      [
        "▁kvinnor",
        -8.484403453800239
      ],
      [
        "▁vilka",
        -8.489497929805644
      ],
      [
        "▁vissa",
        -8.489766343519923
      ],
      [
        "▁procent",
        -8.490074468796644
      ],
      [
        "▁H",
        -8.490984910723679
      ],
      [
        "\".",
        -8.491418015413338
      ],
      [
        "▁vilken",
        -8.49423824561685
      ],
      [
        "▁handlar",
        -8.496522372818974
      ],
      [
        "),",
        -8.497708136342903
      ],
      [
        "▁problem",
        -8.497924661898823
      ],
      [
        "▁erbjuder",
        -8.499900313175864
      ],
      [
        "▁liv",
        -8.507399633782997
      ],
      [
        "▁nytt",
        -8.50755211248869
      ],
      [
        "▁kort",
        -8.509236089222973
      ],
      [
        "nde",
        -8.509267978604107
      ],
      [
        "▁använder",
        -8.512929649308896
      ],
      [
        "▁söker",
        -8.513195326788198
      ],
      [
        "es",
        -8.513718816092533
      ],
      [
        "▁igen",
        -8.513910656680657
      ],
      [
        "▁skapa",
        -8.514932456455565
      ],
      [
        "▁precis",
        -8.517095849195766
      ],
      [
        "▁lång",
        -8.519840224858207
      ],
      [
        "▁Stockholm",
        -8.526531003201422
      ],
      [
        "▁12",
        -8.527863436150461
      ],
      [
        "▁folk",
        -8.52835984969383
      ],
      [
        "▁hoppas",
        -8.535903270515579
      ],
      [
        "▁D",
        -8.535921758421903
      ],
      [
        "▁samtidigt",
        -8.538507727635535
      ],
      [
        "▁kommun",
        -8.540820091268104
      ],
      [
        "▁största",
        -8.541360824295401
      ],
      [
        "S",
        -8.54140330086208
      ],
      [
        "▁frågor",
        -8.54150395647384
      ],
      [
        "▁R",
        -8.541944198660588
      ],
      [
        "▁dess",
        -8.544396684147817
      ],
      [
        "man",
        -8.545373343037928
      ],
      [
        "▁flesta",
        -8.550858917749624
      ],
      [
        "▁000",
        -8.5605438504608
      ],
      [
        "▁fyra",
        -8.562058840805983
      ],
      [
        "▁endast",
        -8.562144965571205
      ],
      [
        "▁nästa",
        -8.56383293202769
      ],
      [
        "▁ute",
        -8.564882227316364
      ],
      [
        "▁bil",
        -8.568219605301492
      ],
      [
        "▁fast",
        -8.568615689665421
      ],
      [
        "▁sista",
        -8.569422130073248
      ],
      [
        "▁började",
        -8.571402674929704
      ],
      [
        "▁G",
        -8.572260547389156
      ],
      [
        "▁viktigt",
        -8.573068453395953
      ],
      [
        "▁sidan",
        -8.575121150206662
      ],
      [
        "▁pris",
        -8.577480583776
      ],
      [
        "▁alltså",
        -8.577732521504243
      ],
      [
        "t.",
        -8.577936347043908
      ],
      [
        "er,",
        -8.578429948670978
      ],
      [
        "▁senare",
        -8.57978296298446
      ],
      [
        "▁bilder",
        -8.582536618107158
      ],
      [
        "▁väg",
        -8.58821922605186
      ],
      [
        "▁Till",
        -8.589192182044856
      ],
      [
        "▁först",
        -8.592501457227923
      ],
      [
        "▁dejting",
        -8.59292050878618
      ],
      [
        "▁rum",
        -8.599066263600974
      ],
      [
        "▁9",
        -8.60215762446846
      ],
      [
        "▁form",
        -8.602721234449024
      ],
      [
        "▁stöd",
        -8.603163515260265
      ],
      [
        "▁sett",
        -8.603513348873426
      ],
      [
        "▁minst",
        -8.614091976904632
      ],
      [
        "▁hennes",
        -8.618302345629942
      ],
      [
        "▁skriver",
        -8.618460960352603
      ],
      [
        "▁kring",
        -8.621795312907025
      ],
      [
        "▁egna",
        -8.621801024727732
      ],
      [
        "▁bild",
        -8.624718734219636
      ],
      [
        "▁spela",
        -8.635012342328825
      ],
      [
        "▁and",
        -8.635191289377996
      ],
      [
        "▁ihop",
        -8.636645771701751
      ],
      [
        "▁hel",
        -8.638058855922896
      ],
      [
        "ra",
        -8.63861777673142
      ],
      [
        "▁välja",
        -8.643505107130974
      ],
      [
        "▁slut",
        -8.644200274320507
      ],
      [
        "▁såg",
        -8.645090998192074
      ],
      [
        "▁gånger",
        -8.648826761766873
      ],
      [
        "▁år.",
        -8.649827312433922
      ],
      [
        "▁Idag",
        -8.656710933465646
      ],
      [
        "j",
        -8.658063532793555
      ],
      [
        "▁tips",
        -8.658224744450163
      ],
      [
        "▁gamla",
        -8.658231082260853
      ],
      [
        "▁km",
        -8.659341192234187
      ],
      [
        "▁dessutom",
        -8.661246276630221
      ],
      [
        "▁all",
        -8.66147291781835
      ],
      [
        "▁före",
        -8.67070158358313
      ],
      [
        "▁gott",
        -8.671560439747903
      ],
      [
        "▁person",
        -8.673841851866525
      ],
      [
        "▁henne",
        -8.67722138106592
      ],
      [
        "▁vidare",
        -8.6795751780935
      ],
      [
        "▁istället",
        -8.679722071352808
      ],
      [
        "▁snabbt",
        -8.682545570908633
      ],
      [
        "▁själva",
        -8.691303885578874
      ],
      [
        "▁fel",
        -8.695734243098538
      ],
      [
        "▁fråga",
        -8.69594205742406
      ],
      [
        "▁2016",
        -8.696719575187153
      ],
      [
        "▁arbete",
        -8.69791481667911
      ],
      [
        "▁lägga",
        -8.705810374338853
      ],
      [
        "▁hjälper",
        -8.709506124906925
      ],
      [
        "▁betala",
        -8.71129270254047
      ],
      [
        "▁verkar",
        -8.712869492894649
      ],
      [
        "▁borde",
        -8.714771952265757
      ],
      [
        "▁hjälpa",
        -8.715328364853727
      ],
      [
        "▁dagen",
        -8.718225127868397
      ],
      [
        "▁typ",
        -8.718962150343389
      ],
      [
        "▁fem",
        -8.720328102104094
      ],
      [
        "▁möjlighet",
        -8.721559300555969
      ],
      [
        "▁AB",
        -8.723216661750323
      ],
      [
        "1",
        -8.723947945476642
      ],
      [
        "liga",
        -8.725958122660588
      ],
      [
        "▁trots",
        -8.726674331994898
      ],
      [
        "▁delar",
        -8.728071229881271
      ],
      [
        "▁ville",
        -8.729168383715905
      ],
      [
        "▁Även",
        -8.731053775047577
      ],
      [
        "Hotell",
        -8.731751852872367
      ],
      [
        "▁börja",
        -8.732219370104618
      ],
      [
        "▁fina",
        -8.732382342377873
      ],
      [
        "▁Sveriges",
        -8.733287761864837
      ],
      [
        "▁jobb",
        -8.736234870443793
      ],
      [
        "▁gått",
        -8.736632380203302
      ],
      [
        "▁emot",
        -8.737187649431503
      ],
      [
        "▁The",
        -8.739703770142837
      ],
      [
        "inga",
        -8.739820600867482
      ],
      [
        "­",
        -8.741063617202093
      ],
      [
        "▁skriva",
        -8.74334741476523
      ],
      [
        "▁Visa",
        -8.743426143379246
      ],
      [
        "b",
        -8.746291435497325
      ],
      [
        "▁varför",
        -8.746807882153886
      ],
      [
        "▁Se",
        -8.749892682900425
      ],
      [
        "▁klart",
        -8.750721906915663
      ],
      [
        "▁enda",
        -8.751809873589693
      ],
      [
        "▁Vid",
        -8.752944637087255
      ],
      [
        "▁16",
        -8.754359192652057
      ],
      [
        "▁lag",
        -8.75642283778805
      ],
      [
        "ska",
        -8.75740137253222
      ],
      [
        "▁O",
        -8.758181396875981
      ],
      [
        "▁långt",
        -8.759062548408046
      ],
      [
        "▁känna",
        -8.761690333446234
      ],
      [
        "att",
        -8.763540445606944
      ],
      [
        "▁män",
        -8.764815412077928
      ],
      [
        "▁brukar",
        -8.767377874645929
      ],
      [
        "▁visa",
        -8.767613013998233
      ],
      [
        "▁14",
        -8.768257107520427
      ],
      [
        "▁tagit",
        -8.770401777312074
      ],
      [
        "▁tänka",
        -8.77174329549795
      ],
      [
        "▁2017",
        -8.77393588607807
      ],
      [
        "▁kronor",
        -8.775258214333642
      ],
      [
        "▁arbetar",
        -8.77674819257185
      ],
      [
        "M",
        -8.777122024535561
      ],
      [
        "▁11",
        -8.786257577043578
      ],
      [
        "▁2015",
        -8.78723719876337
      ],
      [
        "2",
        -8.787814942098166
      ],
      [
        "▁:)",
        -8.787979919606078
      ],
      [
        "▁medan",
        -8.788101497933324
      ],
      [
        "▁N",
        -8.790179283992558
      ],
      [
        "▁Nike",
        -8.790690686576314
      ],
      [
        "▁beslut",
        -8.791368177260326
      ],
      [
        "▁antal",
        -8.795778744583279
      ],
      [
        "▁möjligt",
        -8.796009912303001
      ],
      [
        ".se",
        -8.801384317329779
      ],
      [
        "▁miljoner",
        -8.802984898255328
      ],
      [
        "▁100",
        -8.808281549276163
      ],
      [
        "▁passar",
        -8.808539286110978
      ],
      [
        "▁namn",
        -8.808964098148186
      ],
      [
        "▁Sedan",
        -8.809646484055028
      ],
      [
        "▁b",
        -8.80971200851828
      ],
      [
        "▁fin",
        -8.812251588260132
      ],
      [
        "▁fanns",
        -8.813038820498406
      ],
      [
        "▁priser",
        -8.815601370515235
      ],
      [
        "▁Air",
        -8.817310961293138
      ],
      [
        "▁Max",
        -8.818259741515453
      ],
      [
        "▁snart",
        -8.820113350494431
      ],
      [
        "▁vecka",
        -8.82098164676685
      ],
      [
        "ta",
        -8.82239346678559
      ],
      [
        "▁sitter",
        -8.828313052149849
      ],
      [
        "▁25",
        -8.82907196689355
      ],
      [
        "▁lämna",
        -8.829897334948077
      ],
      [
        "▁17",
        -8.83339342308217
      ],
      [
        "▁början",
        -8.835411304288595
      ],
      [
        "▁veta",
        -8.836042995844707
      ],
      [
        "▁Tack",
        -8.836305598763412
      ],
      [
        "▁V",
        -8.840933932229872
      ],
      [
        "▁kul",
        -8.84258247344035
      ],
      [
        "▁ibland",
        -8.843556853542951
      ],
      [
        "Denna",
        -8.846746585075262
      ],
      [
        "▁kontakt",
        -8.853781796107837
      ],
      [
        "▁50",
        -8.854801648257203
      ],
      [
        "▁Där",
        -8.855953426580914
      ],
      [
        "▁13",
        -8.856448407456735
      ],
      [
        "▁dating",
        -8.857388602429292
      ],
      [
        "▁gillar",
        -8.857859580408807
      ],
      [
        "▁utanför",
        -8.85957195082343
      ],
      [
        "▁Av",
        -8.861360307289752
      ],
      [
        "▁låg",
        -8.861438004854786
      ],
      [
        "▁tag",
        -8.86522318321284
      ],
      [
        "▁svar",
        -8.8673349121615
      ],
      [
        "▁egentligen",
        -8.871142323066625
      ],
      [
        "▁ytterligare",
        -8.872545912798532
      ],
      [
        "▁båda",
        -8.87514761325218
      ],
      [
        "▁h",
        -8.877040911043844
      ],
      [
        "▁behov",
        -8.877255952858137
      ],
      [
        "▁Min",
        -8.878235913354294
      ],
      [
        "▁framför",
        -8.880775551743382
      ],
      [
        "▁särskilt",
        -8.881827065962524
      ],
      [
        "▁hus",
        -8.883234772375323
      ],
      [
        "▁#",
        -8.884808185579255
      ],
      [
        "▁%",
        -8.885351251280653
      ],
      [
        "son",
        -8.887056278391464
      ],
      [
        "▁helst",
        -8.88863429262337
      ],
      [
        "ed",
        -8.888806804157587
      ],
      [
        "▁minuter",
        -8.88903265409335
      ],
      [
        "▁maj",
        -8.889139500933403
      ],
      [
        "▁2014",
        -8.890583230998311
      ],
      [
        "et.",
        -8.891996593369152
      ],
      [
        "▁arbeta",
        -8.893857703712582
      ],
      [
        "▁kommit",
        -8.893993230731258
      ],
      [
        "\",",
        -8.896623299029967
      ],
      [
        "▁bok",
        -8.900659969290313
      ],
      [
        "▁tur",
        -8.902019022597806
      ],
      [
        "iga",
        -8.904908207791088
      ],
      [
        "▁svensk",
        -8.90626205013046
      ],
      [
        "▁ned",
        -8.90670285625863
      ],
      [
        "▁världen",
        -8.906861271664804
      ],
      [
        "▁skicka",
        -8.910910259280577
      ],
      [
        "▁for",
        -8.918900770972865
      ],
      [
        "▁bäst",
        -8.919387552442275
      ],
      [
        "▁ord",
        -8.920761184373507
      ],
      [
        "▁to",
        -8.921696577998945
      ],
      [
        "▁sagt",
        -8.923143730313512
      ],
      [
        "▁gången",
        -8.923971355549956
      ],
      [
        "▁används",
        -8.924914211647298
      ],
      [
        "▁Inte",
        -8.925508422329802
      ],
      [
        "▁produkter",
        -8.92627156498709
      ],
      [
        "▁förra",
        -8.931751175834547
      ],
      [
        "▁bakom",
        -8.931873386683801
      ],
      [
        "ig",
        -8.93470343246529
      ],
      [
        "iska",
        -8.936458744457813
      ],
      [
        "▁Kan",
        -8.938875120782424
      ],
      [
        "▁heller",
        -8.938879441659655
      ],
      [
        "om",
        -8.940307980555968
      ],
      [
        "▁2013",
        -8.94131172415201
      ],
      [
        "▁Svenska",
        -8.941538808217642
      ],
      [
        "▁timmar",
        -8.943123297393587
      ],
      [
        "▁fungerar",
        -8.943253428907317
      ],
      [
        "▁bor",
        -8.946974498734736
      ],
      [
        "▁spelar",
        -8.94731352923875
      ],
      [
        "da",
        -8.94740015816142
      ],
      [
        "▁sätta",
        -8.95183410708063
      ],
      [
        "n.",
        -8.953235142275574
      ],
      [
        "▁lilla",
        -8.958739989717383
      ],
      [
        "▁ja",
        -8.96079505449499
      ],
      [
        "▁livet",
        -8.963261252289325
      ],
      [
        "ligt",
        -8.964350371360464
      ],
      [
        "▁tänker",
        -8.964467853912344
      ],
      [
        "el",
        -8.964806721637704
      ],
      [
        "▁resultat",
        -8.967688288826183
      ],
      [
        "▁Hotel",
        -8.968121367510276
      ],
      [
        "A",
        -8.969636669236753
      ],
      [
        "▁film",
        -8.972949946408018
      ],
      [
        "▁k",
        -8.973098483961419
      ],
      [
        "▁åka",
        -8.973820049301017
      ],
      [
        "▁energi",
        -8.97419438020122
      ],
      [
        "▁dags",
        -8.97501309736868
      ],
      [
        "▁veckan",
        -8.978405197548328
      ],
      [
        "▁äldre",
        -8.978564315458012
      ],
      [
        "▁igen.",
        -8.982019500891127
      ],
      [
        "▁innehåller",
        -8.987939331564515
      ],
      [
        "▁säkert",
        -8.987960255426673
      ],
      [
        "]",
        -8.989213033467726
      ],
      [
        "▁inne",
        -8.99013584714792
      ],
      [
        "Dessutom",
        -8.99026704918049
      ],
      [
        "3",
        -8.990585003448912
      ],
      [
        "▁högre",
        -8.998389878127933
      ],
      [
        "▁Vill",
        -8.998445618600675
      ],
      [
        "▁Sen",
        -8.998982511816601
      ],
      [
        "4",
        -9.001522551587675
      ],
      [
        "▁kör",
        -9.006820979211646
      ],
      [
        "▁igenom",
        -9.009361286781154
      ],
      [
        "us",
        -9.009376973979938
      ],
      [
        "▁In",
        -9.009820006699908
      ],
      [
        "▁betyg",
        -9.010945117285669
      ],
      [
        "Enligt",
        -9.013287401301397
      ],
      [
        "▁krav",
        -9.01347260501767
      ],
      [
        "är",
        -9.014328574601839
      ],
      [
        "▁val",
        -9.015395976760963
      ],
      [
        "al",
        -9.0162898093407
      ],
      [
        "▁landet",
        -9.017513968221463
      ],
      [
        "▁unga",
        -9.022021774295688
      ],
      [
        "▁händer",
        -9.02212774210649
      ],
      [
        "▁verksamhet",
        -9.025252118771222
      ],
      [
        "▁miljö",
        -9.02605288347821
      ],
      [
        "▁bygga",
        -9.030317271485227
      ],
      [
        "▁Var",
        -9.033430073467006
      ],
      [
        "▁24",
        -9.036382369100156
      ],
      [
        "▁Ja",
        -9.038057501823907
      ],
      [
        "▁sådan",
        -9.03833676067458
      ],
      [
        "▁äta",
        -9.039309311988632
      ],
      [
        "▁2012",
        -9.03996941768727
      ],
      [
        "▁0",
        -9.043418804916543
      ],
      [
        "▁full",
        -9.04476384041696
      ],
      [
        "▁berättar",
        -9.045932486545597
      ],
      [
        "▁skrev",
        -9.04931101011014
      ],
      [
        "!!",
        -9.050957852588791
      ],
      [
        "Många",
        -9.05135881281038
      ],
      [
        "▁steg",
        -9.05275504399463
      ],
      [
        "▁max",
        -9.054414707973253
      ],
      [
        "▁ingår",
        -9.054767593017958
      ],
      [
        "▁lära",
        -9.05704709378132
      ],
      [
        "▁Bra",
        -9.060210990624036
      ],
      [
        "▁menar",
        -9.061999799973595
      ],
      [
        "▁jobba",
        -9.063467654384356
      ],
      [
        "▁19",
        -9.06547588690029
      ],
      [
        "▁försöka",
        -9.065917246057037
      ],
      [
        "▁väljer",
        -9.066109110955523
      ],
      [
        "▁utveckling",
        -9.06725733662617
      ],
      [
        "▁dejta",
        -9.068528719749324
      ],
      [
        "▁nätet",
        -9.069363134030317
      ],
      [
        "▁öka",
        -9.069589860415281
      ],
      [
        "▁främst",
        -9.07088866597579
      ],
      [
        "ste",
        -9.074889977297335
      ],
      [
        "▁personal",
        -9.084544992269022
      ],
      [
        "▁Ta",
        -9.08573262861941
      ],
      [
        "▁mamma",
        -9.086258071103886
      ],
      [
        "▁titta",
        -9.086380202007426
      ],
      [
        "▁Göteborg",
        -9.08830425337145
      ],
      [
        "▁sker",
        -9.089244033906253
      ],
      [
        "era",
        -9.089512686824738
      ],
      [
        "▁sida",
        -9.090457060404473
      ],
      [
        "▁färg",
        -9.090675246176254
      ],
      [
        "▁veckor",
        -9.091803153045538
      ],
      [
        "väl",
        -9.093670419470003
      ],
      [
        "▁nå",
        -9.09384431680462
      ],
      [
        "▁samband",
        -9.094862675010555
      ],
      [
        "▁skolan",
        -9.099379360742738
      ],
      [
        "▁satt",
        -9.102592218361005
      ],
      [
        "▁musik",
        -9.104606528669411
      ],
      [
        "T",
        -9.108885622740424
      ],
      [
        "▁januari",
        -9.110718168985828
      ],
      [
        "▁vanligt",
        -9.1114414299461
      ],
      [
        "▁lär",
        -9.112417915711864
      ],
      [
        "▁st",
        -9.112551640033848
      ],
      [
        "▁följa",
        -9.113558907907331
      ],
      [
        "för",
        -9.113866584335195
      ],
      [
        "▁projekt",
        -9.11707797516665
      ],
      [
        "▁ifrån",
        -9.117883333707944
      ],
      [
        "▁företaget",
        -9.119034153647654
      ],
      [
        "▁40",
        -9.121272982017244
      ],
      [
        "▁[",
        -9.122497054827395
      ],
      [
        "ö",
        -9.123495700137019
      ],
      [
        "vis",
        -9.12403650409998
      ],
      [
        "▁21",
        -9.12480815568157
      ],
      [
        "▁ej",
        -9.12612896601419
      ],
      [
        "▁Från",
        -9.127366001342228
      ],
      [
        "▁eget",
        -9.127589498377494
      ],
      [
        "sk",
        -9.127907145525011
      ],
      [
        "▁hotellet",
        -9.130627505012678
      ],
      [
        "▁bonus",
        -9.131739618803245
      ],
      [
        "▁goda",
        -9.132234411699283
      ],
      [
        "▁Genom",
        -9.133289630162677
      ],
      [
        "▁inlägg",
        -9.136696104416245
      ],
      [
        "▁Allt",
        -9.138031772459446
      ],
      [
        "▁massa",
        -9.138870945263402
      ],
      [
        "▁Malmö",
        -9.139080278079147
      ],
      [
        "▁utbildning",
        -9.141802752049637
      ],
      [
        "lig",
        -9.143305998281267
      ],
      [
        "▁huvud",
        -9.143443692670568
      ],
      [
        "▁tillgång",
        -9.144021584826849
      ],
      [
        "▁frågan",
        -9.146255835333506
      ],
      [
        "▁dra",
        -9.148372701600003
      ],
      [
        "▁varandra",
        -9.151041013262727
      ],
      [
        "▁pa",
        -9.152786011183347
      ],
      [
        "▁spelare",
        -9.153572494191446
      ],
      [
        "▁Vår",
        -9.153667349263
      ],
      [
        "▁års",
        -9.154013579248383
      ],
      [
        "Dessa",
        -9.157186425258136
      ],
      [
        "▁augusti",
        -9.159862150546006
      ],
      [
        "▁förslag",
        -9.160527699473455
      ],
      [
        "▁22",
        -9.162324551593287
      ],
      [
        "ger",
        -9.163197894320362
      ],
      [
        "▁kommunen",
        -9.164167948269055
      ],
      [
        "▁prata",
        -9.164964182050085
      ],
      [
        "▁fortsätta",
        -9.16568821460323
      ],
      [
        "▁älskar",
        -9.165820065757938
      ],
      [
        "▁vem",
        -9.16666768430742
      ],
      [
        "▁kände",
        -9.167311707024902
      ],
      [
        "▁jobbar",
        -9.167388550568909
      ],
      [
        "▁kvinna",
        -9.167653745821603
      ],
      [
        "▁tio",
        -9.168136176364538
      ],
      [
        "▁tack",
        -9.168465517570953
      ],
      [
        "het",
        -9.168478884553117
      ],
      [
        "▁kunder",
        -9.168724950682309
      ],
      [
        "▁“",
        -9.17117975657021
      ],
      [
        "▁mars",
        -9.172098944603956
      ],
      [
        "▁kl",
        -9.172214405761359
      ],
      [
        "▁månader",
        -9.172479614904882
      ],
      [
        "▁uppgifter",
        -9.17306073539866
      ],
      [
        "”.",
        -9.174485351360923
      ],
      [
        "▁ljus",
        -9.175525942823267
      ],
      [
        "▁försöker",
        -9.178486948210503
      ],
      [
        "z",
        -9.180913936256598
      ],
      [
        "▁Ni",
        -9.18279016119723
      ],
      [
        "▁spännande",
        -9.18365833554317
      ],
      [
        "▁sak",
        -9.183877734065886
      ],
      [
        "▁råd",
        -9.18489176749051
      ],
      [
        "▁resa",
        -9.185914135408051
      ],
      [
        "▁åter",
        -9.186354252593244
      ],
      [
        "▁kroppen",
        -9.18778032362809
      ],
      [
        "▁erfarenhet",
        -9.189019606849897
      ],
      [
        "▁Ska",
        -9.190912956033845
      ],
      [
        "▁vilja",
        -9.192034397827026
      ],
      [
        "▁program",
        -9.192383145929673
      ],
      [
        "5",
        -9.192918253769468
      ],
      [
        "▁barnen",
        -9.19520468203941
      ],
      [
        "▁betyder",
        -9.195755266782411
      ],
      [
        "▁roligt",
        -9.197208243882827
      ],
      [
        "▁casino",
        -9.197248108899965
      ],
      [
        "▁fortsätter",
        -9.198740323234476
      ],
      [
        "▁nätdejting",
        -9.201486818716099
      ],
      [
        "se",
        -9.203239550263454
      ],
      [
        "▁rör",
        -9.203547024053474
      ],
      [
        "▁bidra",
        -9.204396582905671
      ],
      [
        "▁23",
        -9.20494670559923
      ],
      [
        "▁J",
        -9.20535658866911
      ],
      [
        "▁Eller",
        -9.207470999764679
      ],
      [
        "▁stå",
        -9.207505780010608
      ],
      [
        "▁fint",
        -9.209454995473543
      ],
      [
        "▁vägen",
        -9.209641683911775
      ],
      [
        "▁2018",
        -9.209778632600155
      ],
      [
        "▁kontakta",
        -9.21079023240132
      ],
      [
        "▁igång",
        -9.211219130253795
      ],
      [
        "▁perfekt",
        -9.211902069111524
      ],
      [
        "▁öppna",
        -9.215696532229781
      ],
      [
        "▁90",
        -9.216114511287422
      ],
      [
        "▁tredje",
        -9.21898950095615
      ],
      [
        "▁heter",
        -9.219306884914019
      ],
      [
        "aste",
        -9.219361893501315
      ],
      [
        "▁ansvar",
        -9.219898141777715
      ],
      [
        "▁2011",
        -9.220190933626991
      ],
      [
        "▁liksom",
        -9.222082725174149
      ],
      [
        "▁låter",
        -9.224791141031059
      ],
      [
        "▁fri",
        -9.227850433812993
      ],
      [
        "▁el",
        -9.229210192848857
      ],
      [
        "▁vänner",
        -9.229922751074357
      ],
      [
        "▁Mer",
        -9.230168215299184
      ],
      [
        "▁alls",
        -9.230402064283581
      ],
      [
        "▁ex",
        -9.230412882171208
      ],
      [
        "▁köra",
        -9.231127889583354
      ],
      [
        "▁krävs",
        -9.231596763299958
      ],
      [
        "▁risk",
        -9.23172725692568
      ],
      [
        "ut",
        -9.234362452268284
      ],
      [
        "▁gav",
        -9.235907117674806
      ],
      [
        "▁liknande",
        -9.23603677880141
      ],
      [
        "▁slutet",
        -9.236097859121402
      ],
      [
        "▁mig.",
        -9.236543296871538
      ],
      [
        "▁W",
        -9.238649480100243
      ],
      [
        "Därför",
        -9.241876712171763
      ],
      [
        "▁alternativ",
        -9.242621347824834
      ],
      [
        "▁kolla",
        -9.244901076311882
      ],
      [
        "▁finnas",
        -9.2481017640772
      ],
      [
        "▁utveckla",
        -9.248595711339918
      ],
      [
        "▁USA",
        -9.250170106867065
      ],
      [
        "▁hör",
        -9.25080395632287
      ],
      [
        "berg",
        -9.251056021909386
      ],
      [
        "▁juni",
        -9.255061360365316
      ],
      [
        "▁roll",
        -9.255768717330307
      ],
      [
        "▁favorit",
        -9.25628257436075
      ],
      [
        "▁besök",
        -9.261473854121926
      ],
      [
        "▁dit",
        -9.263092238977807
      ],
      [
        "▁maskinövers",
        -9.263184287348052
      ],
      [
        "▁viktig",
        -9.263734772212157
      ],
      [
        "▁skor",
        -9.263782397639966
      ],
      [
        "▁tyckte",
        -9.266973330460088
      ],
      [
        "▁material",
        -9.269042192652686
      ],
      [
        "▁jul",
        -9.270414829464814
      ],
      [
        "▁Sverige.",
        -9.273394753988569
      ],
      [
        "▁cirka",
        -9.274045153129874
      ],
      [
        "▁användas",
        -9.27428224624657
      ],
      [
        "▁glad",
        -9.274919716515225
      ],
      [
        "▁viss",
        -9.276227769830658
      ],
      [
        "▁bo",
        -9.276588463072695
      ],
      [
        "▁absolut",
        -9.277293927330357
      ],
      [
        "ar.",
        -9.277844402113978
      ],
      [
        "▁Nej",
        -9.27804793636192
      ],
      [
        "▁exempelvis",
        -9.278068887466155
      ],
      [
        "▁•",
        -9.27946506788234
      ],
      [
        "därmed",
        -9.282531581775473
      ],
      [
        "▁ungefär",
        -9.285466166833633
      ],
      [
        "▁sommar",
        -9.28635757932865
      ],
      [
        "anser",
        -9.289205717594482
      ],
      [
        "▁meter",
        -9.289968480857086
      ],
      [
        "▁va",
        -9.290449402168028
      ],
      [
        "▁kvalitet",
        -9.29045215004915
      ],
      [
        "▁grupp",
        -9.290481085950596
      ],
      [
        "▁beroende",
        -9.29156606038076
      ],
      [
        "na.",
        -9.291722855917124
      ],
      [
        "▁åren",
        -9.29223331990357
      ],
      [
        "'",
        -9.293884350704854
      ],
      [
        "▁service",
        -9.294453159607956
      ],
      [
        "▁följande",
        -9.295880338329974
      ],
      [
        "▁engelska",
        -9.298441891417257
      ],
      [
        "▁*",
        -9.299421449149998
      ],
      [
        "▁visade",
        -9.302529555818198
      ],
      [
        "▁vård",
        -9.304002343722363
      ],
      [
        "▁samarbete",
        -9.30453427722618
      ],
      [
        "▁Kanske",
        -9.30468004051544
      ],
      [
        "K",
        -9.304850655000926
      ],
      [
        "▁blogg",
        -9.30531821191153
      ],
      [
        "▁vanliga",
        -9.306295847754312
      ],
      [
        "▁tänkte",
        -9.306743966619722
      ],
      [
        "▁oftast",
        -9.306837834687036
      ],
      [
        "▁2010",
        -9.308115196000427
      ],
      [
        "▁klara",
        -9.308289652132023
      ],
      [
        "består",
        -9.309301315458395
      ],
      [
        "▁arbetet",
        -9.309319396253048
      ],
      [
        "▁stod",
        -9.313163213819665
      ],
      [
        "▁Hitta",
        -9.313615491841093
      ],
      [
        "▁lan",
        -9.313829788539767
      ],
      [
        "▁april",
        -9.314233396971796
      ],
      [
        "▁övriga",
        -9.314279259856518
      ],
      [
        "▁månad",
        -9.315713895858536
      ],
      [
        "le",
        -9.315966150617527
      ],
      [
        "B",
        -9.315973029085168
      ],
      [
        "▁förstår",
        -9.316803581658982
      ],
      [
        "▁oktober",
        -9.317602888095744
      ],
      [
        "▁regeringen",
        -9.318451813220122
      ],
      [
        "▁speciellt",
        -9.320574779104707
      ],
      [
        "▁match",
        -9.321124448832876
      ],
      [
        "▁ställa",
        -9.321966824337723
      ],
      [
        "▁kunskap",
        -9.322288918182362
      ],
      [
        "▁Anna",
        -9.324410435670025
      ],
      [
        "by",
        -9.32449030706537
      ],
      [
        "▁behövs",
        -9.325768813276067
      ],
      [
        "lägger",
        -9.32593516258322
      ],
      [
        "▁dejtingsajt",
        -9.326984293294416
      ],
      [
        "▁recept",
        -9.328719090546164
      ],
      [
        "▁sådana",
        -9.329220831336807
      ],
      [
        "▁följer",
        -9.330691202260963
      ],
      [
        "▁boken",
        -9.331443547577612
      ],
      [
        "▁Ny",
        -9.332048979880401
      ],
      [
        "▁tro",
        -9.333498872525277
      ],
      [
        "▁september",
        -9.334472769001913
      ],
      [
        "▁närheten",
        -9.334660722607346
      ],
      [
        "▁skapar",
        -9.341113005867724
      ],
      [
        "▁uppdrag",
        -9.341776473283979
      ],
      [
        "▁system",
        -9.341916752422025
      ],
      [
        "▁dem.",
        -9.344342466740477
      ],
      [
        "såsom",
        -9.344576718263504
      ],
      [
        "▁området",
        -9.345395297107087
      ],
      [
        "▁fort",
        -9.345885560716061
      ],
      [
        "Eftersom",
        -9.347429828079159
      ],
      [
        "▁cm",
        -9.347716408252795
      ],
      [
        "▁län",
        -9.348261949030778
      ],
      [
        "▁§",
        -9.349512152842031
      ],
      [
        "▁februari",
        -9.349935492725965
      ],
      [
        "▁poäng",
        -9.350845694681665
      ],
      [
        "igt",
        -9.35085101981974
      ],
      [
        "▁hälsa",
        -9.35199039453331
      ],
      [
        "▁otroligt",
        -9.352086384147077
      ],
      [
        "▁lever",
        -9.354213773228343
      ],
      [
        "▁bilen",
        -9.354934542616821
      ],
      [
        "▁staden",
        -9.355283329941651
      ],
      [
        "▁jobbet",
        -9.355868504867422
      ],
      [
        "▁halv",
        -9.355938948861612
      ],
      [
        "▁behöva",
        -9.356722149308332
      ],
      [
        "▁fr",
        -9.357970565352373
      ],
      [
        "▁start",
        -9.35973584385152
      ],
      [
        "▁dagens",
        -9.361362298021733
      ],
      [
        "▁kultur",
        -9.361477878534878
      ],
      [
        "▁senast",
        -9.361657898199141
      ],
      [
        "▁snabb",
        -9.362029941340015
      ],
      [
        "▁nämligen",
        -9.362894348082902
      ],
      [
        "▁Be",
        -9.363537658775638
      ],
      [
        "ja",
        -9.363646585401002
      ],
      [
        "ni",
        -9.36469834064239
      ],
      [
        "▁åkte",
        -9.364970238288308
      ],
      [
        "▁alldeles",
        -9.36524407291977
      ],
      [
        "ge",
        -9.366681820724203
      ],
      [
        "I",
        -9.369075207110006
      ],
      [
        "▁stund",
        -9.372036131923354
      ],
      [
        "▁lån",
        -9.373594935304308
      ],
      [
        "▁säker",
        -9.374229726319113
      ],
      [
        "▁fokus",
        -9.375103454889357
      ],
      [
        "▁Varför",
        -9.3759302553
      ],
      [
        "▁köp",
        -9.377041966564121
      ],
      [
        "▁air",
        -9.377599911028396
      ],
      [
        "▁kräver",
        -9.377753868997862
      ],
      [
        "▁Ja,",
        -9.380836309526703
      ],
      [
        "▁länder",
        -9.382982335952224
      ],
      [
        "▁+",
        -9.383526062885613
      ],
      [
        "▁»",
        -9.386154284160686
      ],
      [
        "▁klar",
        -9.387346599068922
      ],
      [
        "▁Stockholms",
        -9.391409868427642
      ],
      [
        "_",
        -9.391613105914594
      ],
      [
        "▁juli",
        -9.396185737447063
      ],
      [
        "▁land",
        -9.396258337544515
      ],
      [
        "(",
        -9.39637332913515
      ],
      [
        "▁nike",
        -9.397887996067233
      ],
      [
        "▁behandling",
        -9.39841459248827
      ],
      [
        "▁minska",
        -9.399115807565638
      ],
      [
        "▁här.",
        -9.399411942919865
      ],
      [
        "▁hantera",
        -9.399535515084636
      ],
      [
        "▁höra",
        -9.401811979038094
      ],
      [
        "▁leder",
        -9.402445744364876
      ],
      [
        "▁igår",
        -9.402772905685962
      ],
      [
        "um",
        -9.403736376270619
      ],
      [
        "▁december",
        -9.403829563791158
      ],
      [
        "▁tanke",
        -9.404155617950266
      ],
      [
        "isk",
        -9.4042084027827
      ],
      [
        "▁sociala",
        -9.404209265220292
      ],
      [
        "▁jätte",
        -9.404709358591024
      ],
      [
        "▁1.",
        -9.404762755948234
      ],
      [
        "▁kund",
        -9.40626213401669
      ],
      [
        "▁förstå",
        -9.406551502659664
      ],
      [
        "▁delen",
        -9.406910396735523
      ],
      [
        "beror",
        -9.407047591068496
      ],
      [
        "▁stället",
        -9.407961396421104
      ],
      [
        "▁SEK",
        -9.408213186996399
      ],
      [
        "la",
        -9.408821221546642
      ],
      [
        "▁intressant",
        -9.409382847502487
      ],
      [
        "▁låta",
        -9.409906217345757
      ],
      [
        "▁världens",
        -9.411233084510599
      ],
      [
        "▁bilden",
        -9.412608825755779
      ],
      [
        "▁intresse",
        -9.413625767714585
      ],
      [
        "men",
        -9.416491484514374
      ],
      [
        "F",
        -9.416492325618002
      ],
      [
        "▁ovan",
        -9.417961747785345
      ],
      [
        "▁november",
        -9.418604258025102
      ],
      [
        "▁håll",
        -9.42067606773681
      ],
      [
        "▁klockan",
        -9.420870441145972
      ],
      [
        "▁28",
        -9.421011145714894
      ],
      [
        "▁boende",
        -9.421529508288616
      ],
      [
        "▁vackra",
        -9.42172411811448
      ],
      [
        "▁tänkt",
        -9.42180471617327
      ],
      [
        "▁djur",
        -9.421949038961051
      ],
      [
        "▁annars",
        -9.422211322185966
      ],
      [
        "▁oavsett",
        -9.422618079827389
      ],
      [
        "ningen",
        -9.423480779503693
      ],
      [
        "▁kväll",
        -9.425304250985558
      ],
      [
        "▁produkt",
        -9.427520149712228
      ],
      [
        "▁viktiga",
        -9.428624238378728
      ],
      [
        "▁rad",
        -9.428948650065896
      ],
      [
        "▁data",
        -9.429187493552702
      ],
      [
        "▁app",
        -9.430810957751381
      ],
      [
        "▁familj",
        -9.43397836100288
      ],
      [
        "▁erbjuda",
        -9.435031977804401
      ],
      [
        "▁svart",
        -9.435035399839272
      ],
      [
        "▁utifrån",
        -9.436759336074484
      ],
      [
        "▁träna",
        -9.437088794676255
      ],
      [
        "▁höga",
        -9.437386100612285
      ],
      [
        "ledande",
        -9.438028988769224
      ],
      [
        "ar,",
        -9.4401177399929
      ],
      [
        "▁morgon",
        -9.441549378793974
      ],
      [
        "går",
        -9.441895244282621
      ],
      [
        "▁träffa",
        -9.44294110602006
      ],
      [
        "▁tjänster",
        -9.44307995315084
      ],
      [
        "▁26",
        -9.443636566470333
      ],
      [
        "▁Johan",
        -9.446132932421003
      ],
      [
        "▁Anders",
        -9.446232528891503
      ],
      [
        "▁dela",
        -9.447614571845962
      ],
      [
        "▁Per",
        -9.447665731923893
      ],
      [
        "▁hår",
        -9.44799571163204
      ],
      [
        "ä",
        -9.448607192906477
      ],
      [
        "▁—",
        -9.449185463486009
      ],
      [
        "7",
        -9.449674230428881
      ],
      [
        "▁leva",
        -9.450249640445842
      ],
      [
        "▁fullt",
        -9.452207868257414
      ],
      [
        "ets",
        -9.454356494619265
      ],
      [
        "▁spara",
        -9.454469314939605
      ],
      [
        "orna",
        -9.4545118533968
      ],
      [
        "▁sol",
        -9.45512458859937
      ],
      [
        "▁60",
        -9.458295278090988
      ],
      [
        "▁familjen",
        -9.458554276504621
      ],
      [
        "▁sommaren",
        -9.458804457211347
      ],
      [
        "▁mm",
        -9.459581935647478
      ],
      [
        "▁Europa",
        -9.460214289549603
      ],
      [
        "▁kallas",
        -9.4643159836638
      ],
      [
        "▁bra.",
        -9.465076067981906
      ],
      [
        "▁arbets",
        -9.465648009216592
      ],
      [
        "▁ökar",
        -9.466368221588803
      ],
      [
        "▁Just",
        -9.466864228568124
      ],
      [
        "▁internet",
        -9.467021811943695
      ],
      [
        "▁kvällen",
        -9.468189059810253
      ],
      [
        "▁möjligheter",
        -9.470706567718784
      ],
      [
        "be",
        -9.471111795335444
      ],
      [
        "▁anledning",
        -9.472742349160233
      ],
      [
        "▁omkring",
        -9.476019923721525
      ],
      [
        "▁vänta",
        -9.477182345809425
      ],
      [
        "▁New",
        -9.477676391900493
      ],
      [
        "▁natt",
        -9.478047241087038
      ],
      [
        "▁visst",
        -9.48019560406714
      ],
      [
        "▁dejtingsajter",
        -9.480735627551184
      ],
      [
        "▁långa",
        -9.481001367638575
      ],
      [
        "▁telefon",
        -9.481897201629392
      ],
      [
        "Mycket",
        -9.482249754382202
      ],
      [
        "▁Kina",
        -9.483953378435958
      ],
      [
        "tittade",
        -9.48412176893901
      ],
      [
        "▁byta",
        -9.486491331498945
      ],
      [
        "▁lägre",
        -9.487187903973147
      ],
      [
        "▁föräldrar",
        -9.48809728603841
      ],
      [
        "▁sätt.",
        -9.488185265224777
      ],
      [
        "▁Ha",
        -9.488361158039819
      ],
      [
        "▁Bo",
        -9.489385895643691
      ],
      [
        "▁söka",
        -9.490113385560596
      ],
      [
        "▁börjat",
        -9.49019891470129
      ],
      [
        "▁recensioner",
        -9.490296325152078
      ],
      [
        "tt",
        -9.490617661952161
      ],
      [
        "▁sitta",
        -9.490617877002277
      ],
      [
        "ma",
        -9.490819498619059
      ],
      [
        "▁testa",
        -9.491033763516022
      ],
      [
        "▁U",
        -9.491415133982443
      ],
      [
        "▁nu.",
        -9.492246142784353
      ],
      [
        "▁helgen",
        -9.492760543759385
      ],
      [
        "*",
        -9.493975774818912
      ],
      [
        "sson",
        -9.495476454573502
      ],
      [
        "antalet",
        -9.496280995017237
      ],
      [
        "▁27",
        -9.497288603152006
      ],
      [
        "▁planera",
        -9.49753453501382
      ],
      [
        "▁2019",
        -9.498135434793435
      ],
      [
        "▁design",
        -9.4984482216315
      ],
      [
        "▁Jo",
        -9.498493874720683
      ],
      [
        "▁skönt",
        -9.498962574985441
      ],
      [
        "▁vanlig",
        -9.499463460095388
      ],
      [
        "▁sådant",
        -9.502202518981175
      ],
      [
        "6",
        -9.50370806632988
      ],
      [
        "▁hittade",
        -9.504572653518137
      ],
      [
        "▁lokala",
        -9.504663211422189
      ],
      [
        "▁hämta",
        -9.504821632466127
      ],
      [
        "▁boka",
        -9.505389590931992
      ],
      [
        "▁totalt",
        -9.505918744168275
      ],
      [
        "▁gammal",
        -9.507011027582537
      ],
      [
        "+",
        -9.50757116332032
      ],
      [
        "▁idag.",
        -9.508103377007759
      ],
      [
        "▁kl.",
        -9.508163912244228
      ],
      [
        "▁berätta",
        -9.508545282931307
      ],
      [
        "▁högt",
        -9.50898275082505
      ],
      [
        "▁ordförande",
        -9.5092545449962
      ],
      [
        "▁artikel",
        -9.509682087165672
      ],
      [
        "▁träning",
        -9.511279337123538
      ],
      [
        "▁handla",
        -9.51222508555638
      ],
      [
        "▁billiga",
        -9.51282097105656
      ],
      [
        "▁skrivit",
        -9.513607650237132
      ],
      [
        "▁elever",
        -9.513625943255866
      ],
      [
        "▁Ut",
        -9.515460870284205
      ],
      [
        "P",
        -9.516073938880456
      ],
      [
        "▁tjejer",
        -9.516094950125423
      ],
      [
        "▁skillnad",
        -9.516176518694964
      ],
      [
        "▁vare",
        -9.516337319377124
      ],
      [
        "allra",
        -9.51700282946413
      ],
      [
        "▁vann",
        -9.520702169896646
      ],
      [
        "L",
        -9.521905169438266
      ],
      [
        "ch",
        -9.522297933192824
      ],
      [
        "▁by",
        -9.523241066556151
      ],
      [
        "▁hund",
        -9.526337458816508
      ],
      [
        "▁respektive",
        -9.526801289800899
      ],
      [
        "▁användning",
        -9.52716628316372
      ],
      [
        "'s",
        -9.528142675388624
      ],
      [
        "▁sig.",
        -9.528890659819126
      ],
      [
        "ly",
        -9.529715863262501
      ],
      [
        "▁plan",
        -9.530649453687866
      ],
      [
        "▁natur",
        -9.530869326313287
      ],
      [
        "▁typer",
        -9.530941665623152
      ],
      [
        "▁exakt",
        -9.531345414606257
      ],
      [
        "8",
        -9.53160081524425
      ],
      [
        "land",
        -9.531969759150206
      ],
      [
        "▁resenärer",
        -9.532395982389248
      ],
      [
        "▁född",
        -9.534010638225737
      ],
      [
        "▁lista",
        -9.534435980758548
      ],
      [
        "▁samtliga",
        -9.534654525402454
      ],
      [
        "▁Köp",
        -9.537965509332642
      ],
      [
        "▁super",
        -9.538080041709627
      ],
      [
        "▁sju",
        -9.538709803892258
      ],
      [
        "▁polisen",
        -9.53954209252521
      ],
      [
        "▁bär",
        -9.539846346399386
      ],
      [
        "bar",
        -9.541550148310359
      ],
      [
        "▁höll",
        -9.542348672630407
      ],
      [
        "▁iväg",
        -9.543255872650493
      ],
      [
        "▁språk",
        -9.545390861098506
      ],
      [
        "hus",
        -9.545562902980425
      ],
      [
        "sta",
        -9.545785872148446
      ],
      [
        "▁date",
        -9.54643962477079
      ],
      [
        "▁La",
        -9.546943993594017
      ],
      [
        "▁dejtingsidor",
        -9.547905473793646
      ],
      [
        "den",
        -9.551254643798758
      ],
      [
        "▁tyvärr",
        -9.552055055420348
      ],
      [
        "▁kostar",
        -9.553261262789315
      ],
      [
        "▁vän",
        -9.555064310378524
      ],
      [
        "▁lättare",
        -9.556036206617184
      ],
      [
        "▁hemsida",
        -9.556691882663031
      ],
      [
        "▁åker",
        -9.556891810956254
      ],
      [
        "▁utmärkt",
        -9.557887108677031
      ],
      [
        "▁massor",
        -9.55906314530193
      ],
      [
        "▁möjligt.",
        -9.560469653933637
      ],
      [
        "drar",
        -9.560750215797345
      ],
      [
        "gående",
        -9.563774046837837
      ],
      [
        "fall",
        -9.564292252742975
      ],
      [
        "tal",
        -9.564542137659048
      ],
      [
        "▁tas",
        -9.564703634300391
      ],
      [
        "▁köpte",
        -9.564765079858585
      ],
      [
        "▁2.",
        -9.565120458405751
      ],
      [
        "av",
        -9.565954045319467
      ],
      [
        "▁stark",
        -9.567543862496128
      ],
      [
        "▁ändra",
        -9.568019478960911
      ],
      [
        "▁t.ex.",
        -9.568222606944284
      ],
      [
        "▁väntar",
        -9.569129006406012
      ],
      [
        "C",
        -9.569555614363571
      ],
      [
        "▁bak",
        -9.5697493087139
      ],
      [
        "▁medlemmar",
        -9.57127437288699
      ],
      [
        "▁böcker",
        -9.57319168492866
      ],
      [
        "▁verksamheten",
        -9.574145445240688
      ],
      [
        "▁tidigt",
        -9.5757836381008
      ],
      [
        "▁vinna",
        -9.579253122029677
      ],
      [
        "▁läser",
        -9.580317078730289
      ],
      [
        "▁dag.",
        -9.580859522858509
      ],
      [
        "med",
        -9.5809515241435
      ],
      [
        "▁huset",
        -9.581859705679097
      ],
      [
        "▁2009",
        -9.581865585901001
      ],
      [
        "▁fortsatt",
        -9.583842481755166
      ],
      [
        "▁pass",
        -9.584062229834256
      ],
      [
        "▁Maria",
        -9.584070984474717
      ],
      [
        "▁spelade",
        -9.584092746245519
      ],
      [
        "▁bolag",
        -9.586000804485629
      ],
      [
        "sätter",
        -9.586313944301432
      ],
      [
        "▁tillräckligt",
        -9.586462539949856
      ],
      [
        "▁El",
        -9.586683077720155
      ],
      [
        "E",
        -9.587255605358598
      ],
      [
        "▁200",
        -9.587428638282455
      ],
      [
        "▁vikt",
        -9.588111383442259
      ],
      [
        "▁enkel",
        -9.58890276430117
      ],
      [
        "▁bygger",
        -9.589621626538397
      ],
      [
        "▁nedan",
        -9.590759219444989
      ],
      [
        "▁litet",
        -9.591278582243802
      ],
      [
        "▁forskning",
        -9.591532823567366
      ],
      [
        "▁pappa",
        -9.592392033338307
      ],
      [
        "▁lagen",
        -9.59301806492509
      ],
      [
        "gatan",
        -9.593890606744212
      ],
      [
        "▁teknik",
        -9.594499828793715
      ],
      [
        "▁stad",
        -9.596251551365794
      ],
      [
        "▁värde",
        -9.598010420792434
      ],
      [
        "▁topp",
        -9.599623455827167
      ],
      [
        "▁dator",
        -9.600388809953872
      ],
      [
        "▁lyckas",
        -9.600815916833461
      ],
      [
        "▁reda",
        -9.600826438902914
      ],
      [
        "Samtidigt",
        -9.603447900505861
      ],
      [
        "▁trä",
        -9.60426211222489
      ],
      [
        "ställer",
        -9.605072367115405
      ],
      [
        "▁högsta",
        -9.605471744993613
      ],
      [
        "▁31",
        -9.608032228168163
      ],
      [
        "lan",
        -9.60998760927271
      ],
      [
        "ell",
        -9.61163827443731
      ],
      [
        "▁valt",
        -9.61222714360605
      ],
      [
        "▁regler",
        -9.612491754267118
      ],
      [
        "▁Facebook",
        -9.613487913885155
      ],
      [
        "R",
        -9.61403895744848
      ],
      [
        "▁29",
        -9.61476868076013
      ],
      [
        "▁gällande",
        -9.616146391415635
      ],
      [
        "▁la",
        -9.616566231869607
      ],
      [
        "▁samhället",
        -9.619325793687212
      ],
      [
        "D",
        -9.620869550354868
      ],
      [
        "▁flyg",
        -9.621227494879575
      ],
      [
        "▁tillhör",
        -9.621584059682517
      ],
      [
        "▁ren",
        -9.62242322798174
      ],
      [
        "▁nöjd",
        -9.622623991897902
      ],
      [
        "▁text",
        -9.623416457100031
      ],
      [
        "▁förbättra",
        -9.623680805322897
      ],
      [
        "Varje",
        -9.62372668480164
      ],
      [
        "▁Tänk",
        -9.624127908010804
      ],
      [
        "▁åtgärder",
        -9.624985224812805
      ],
      [
        "▁matchen",
        -9.625549640213983
      ],
      [
        "aren",
        -9.626413364824613
      ],
      [
        "▁Peter",
        -9.626467194808809
      ],
      [
        "▁Två",
        -9.626606788683931
      ],
      [
        "▁ekonomiska",
        -9.62711224927265
      ],
      [
        "▁glas",
        -9.628376477750312
      ],
      [
        "ka",
        -9.630069628124549
      ],
      [
        "▁vuxna",
        -9.630626160345722
      ],
      [
        "▁Ingen",
        -9.631261582396576
      ],
      [
        "▁samtal",
        -9.631478069070315
      ],
      [
        "kända",
        -9.631524503116834
      ],
      [
        "▁gäster",
        -9.63189472357001
      ],
      [
        "▁hårt",
        -9.631964631938262
      ],
      [
        "bo",
        -9.63293636555002
      ],
      [
        "▁Uppsala",
        -9.633323737732788
      ],
      [
        "▁lunch",
        -9.63364826328333
      ],
      [
        "▁oss.",
        -9.633655182104546
      ],
      [
        "▁hända",
        -9.634370605735006
      ],
      [
        "▁barnet",
        -9.634920906656456
      ],
      [
        "▁EU",
        -9.637613422960632
      ],
      [
        "ter",
        -9.637982338368774
      ],
      [
        "▁stil",
        -9.638270956421337
      ],
      [
        "▁snö",
        -9.63986686421187
      ],
      [
        ".\"",
        -9.639887246307907
      ],
      [
        "▁ladda",
        -9.641082430079596
      ],
      [
        "▁dåligt",
        -9.64110505349142
      ],
      [
        "▁leda",
        -9.641475788599408
      ],
      [
        "del",
        -9.643114784062455
      ],
      [
        "▁mobil",
        -9.643449474960054
      ],
      [
        "▁eventuell",
        -9.64434416415417
      ],
      [
        "▁dig.",
        -9.64434791948441
      ],
      [
        "▁viktigaste",
        -9.644505944025225
      ],
      [
        "▁Barn",
        -9.64451670835096
      ],
      [
        "▁kaffe",
        -9.645604233280002
      ],
      [
        "▁historia",
        -9.648006321795028
      ],
      [
        "ering",
        -9.648299996812348
      ],
      [
        "▁verktyg",
        -9.648814800468058
      ],
      [
        "▁sade",
        -9.650080587169336
      ],
      [
        "▁ske",
        -9.651368805204818
      ],
      [
        "Rewards",
        -9.651450480619232
      ],
      [
        "▁bolaget",
        -9.652541175615612
      ],
      [
        "▁Bara",
        -9.653036848588028
      ],
      [
        "▁ut.",
        -9.65335476084732
      ],
      [
        "va",
        -9.654108373744146
      ],
      [
        "▁påverka",
        -9.655253504852608
      ],
      [
        "▁hösten",
        -9.656189134220595
      ],
      [
        "▁skol",
        -9.656299229779796
      ],
      [
        "▁kommande",
        -9.65725448562862
      ],
      [
        "▁Hans",
        -9.657256348085872
      ],
      [
        "Hoppas",
        -9.65731923020952
      ],
      [
        "▁kläder",
        -9.657471557036924
      ],
      [
        "▁år,",
        -9.657496445621383
      ],
      [
        "▁rent",
        -9.658022593860597
      ],
      [
        "▁500",
        -9.658885719743354
      ],
      [
        "▁hit",
        -9.659474891766562
      ],
      [
        "w",
        -9.660481998317772
      ],
      [
        "▁förstås",
        -9.660518877715504
      ],
      [
        "▁låna",
        -9.662562649266496
      ],
      [
        "▁marknaden",
        -9.664817661754832
      ],
      [
        "inklusive",
        -9.666030907774287
      ],
      [
        "▁X",
        -9.66732909083221
      ],
      [
        "▁läge",
        -9.667674034708577
      ],
      [
        "▁ljud",
        -9.668140520774033
      ],
      [
        "▁trodde",
        -9.668664049028347
      ],
      [
        "▁tillgängliga",
        -9.669238212168505
      ],
      [
        "ton",
        -9.669718637174402
      ],
      [
        "▁Lars",
        -9.670536997559863
      ],
      [
        "▁bit",
        -9.671087915108675
      ],
      [
        "▁platser",
        -9.671891191604834
      ],
      [
        "–",
        -9.672188966282977
      ],
      [
        "dag",
        -9.672299197107971
      ],
      [
        "▁skola",
        -9.672809821473718
      ],
      [
        "▁tydligt",
        -9.672868565229743
      ],
      [
        "▁frukost",
        -9.67290307242693
      ],
      [
        "▁bad",
        -9.673803310910872
      ],
      [
        "▁lugn",
        -9.674626623192136
      ],
      [
        "▁trevlig",
        -9.675704049854936
      ],
      [
        "▁lyssna",
        -9.676336608199529
      ],
      [
        "▁mesta",
        -9.676767303793893
      ],
      [
        "▁framtiden",
        -9.67714959649397
      ],
      [
        "▁flytta",
        -9.67862594521261
      ],
      [
        "▁kontroll",
        -9.67881982172433
      ],
      [
        "Klicka",
        -9.678872008399729
      ],
      [
        "▁ögon",
        -9.678985920370563
      ],
      [
        "▁påverkar",
        -9.679482542027529
      ],
      [
        "ke",
        -9.679788675248531
      ],
      [
        "▁lärare",
        -9.680370638662584
      ],
      [
        "▁syn",
        -9.680631363519003
      ],
      [
        "▁läst",
        -9.680722667142284
      ],
      [
        "”,",
        -9.681063388259288
      ],
      [
        "▁personliga",
        -9.681317624839693
      ],
      [
        "▁närmare",
        -9.681779765874817
      ],
      [
        "▁däremot",
        -9.682285131198574
      ],
      [
        "▁förutsättningar",
        -9.682856333815408
      ],
      [
        "!!!",
        -9.684009626448898
      ],
      [
        "10",
        -9.685721270636133
      ],
      [
        "▁filmen",
        -9.686151990017999
      ],
      [
        "▁klicka",
        -9.686365677469507
      ],
      [
        "▁avtal",
        -9.686445435726121
      ],
      [
        "9",
        -9.687613875903137
      ],
      [
        "▁Hotels.com",
        -9.690077771804697
      ],
      [
        "▁svara",
        -9.691842832201889
      ],
      [
        "▁Trots",
        -9.692448403449967
      ],
      [
        "▁kallade",
        -9.693278748766591
      ],
      [
        "▁video",
        -9.69383891386899
      ],
      [
        "▁storlek",
        -9.69394540183437
      ],
      [
        "▁prova",
        -9.694434617596166
      ],
      [
        "▁ont",
        -9.694876360673174
      ],
      [
        "▁Finns",
        -9.694904903779069
      ],
      [
        "▁säsongen",
        -9.695683748164004
      ],
      [
        "▁låt",
        -9.696493331947178
      ],
      [
        "▁äter",
        -9.697458452522987
      ],
      [
        "enbart",
        -9.697478421011317
      ],
      [
        "▁Välkommen",
        -9.697643717685931
      ],
      [
        "utgör",
        -9.698804749445234
      ],
      [
        "▁Å",
        -9.70013539255224
      ],
      [
        "▁områden",
        -9.700402331469673
      ],
      [
        "▁må",
        -9.700611276909235
      ],
      [
        "▁dejtingsida",
        -9.70097773670715
      ],
      [
        "betydligt",
        -9.702766379570468
      ],
      [
        "▁önskar",
        -9.702970451008062
      ],
      [
        "▁känsla",
        -9.704108692498261
      ],
      [
        "▁borta",
        -9.705534735205733
      ],
      [
        "vore",
        -9.706117554352254
      ],
      [
        "gen",
        -9.706656766895286
      ],
      [
        "▁Re",
        -9.707188487805617
      ],
      [
        "▁område",
        -9.707735361990185
      ],
      [
        "▁vänster",
        -9.707785117606543
      ],
      [
        "▁skäl",
        -9.709373725466918
      ],
      [
        "▁Lite",
        -9.710863842061556
      ],
      [
        "▁syfte",
        -9.711347368850959
      ],
      [
        "▁Fortsätt",
        -9.711362827587692
      ],
      [
        "▁bi",
        -9.71219242632592
      ],
      [
        "▁mängd",
        -9.713926119136353
      ],
      [
        "▁också.",
        -9.714022415910257
      ],
      [
        "▁test",
        -9.714682674483381
      ],
      [
        "▁värme",
        -9.715795555256244
      ],
      [
        "▁Gud",
        -9.715804951785087
      ],
      [
        "▁slå",
        -9.716461437055587
      ],
      [
        "▁valde",
        -9.717412241333301
      ],
      [
        "▁kraft",
        -9.71745118559856
      ],
      [
        "▁övrigt",
        -9.71755058423172
      ],
      [
        "på",
        -9.717751053490165
      ],
      [
        "▁drog",
        -9.720428210705116
      ],
      [
        "▁nån",
        -9.72045605621254
      ],
      [
        "▁erbjudanden",
        -9.72088271441149
      ],
      [
        "ökad",
        -9.720940194862933
      ],
      [
        "▁billigt",
        -9.721268158462966
      ],
      [
        "▁dam",
        -9.721785852659096
      ],
      [
        "▁Välj",
        -9.72383966833377
      ],
      [
        "▁privat",
        -9.725163098896386
      ],
      [
        "▁besökare",
        -9.725231430388561
      ],
      [
        "ström",
        -9.725809404803377
      ],
      [
        "erna.",
        -9.727217343824057
      ],
      [
        "▁sport",
        -9.72773217561813
      ],
      [
        "▁starkt",
        -9.728208738852764
      ],
      [
        "▁medlem",
        -9.729740135721869
      ],
      [
        "▁Nya",
        -9.7316463208973
      ],
      [
        "V",
        -9.732842545482423
      ],
      [
        "ans",
        -9.733727319579854
      ],
      [
        "▁konto",
        -9.735590188719755
      ],
      [
        "▁säkerhet",
        -9.73559165135495
      ],
      [
        "spel",
        -9.735601944762896
      ],
      [
        "ur",
        -9.737840837873165
      ],
      [
        "▁lager",
        -9.737916901510305
      ],
      [
        "▁höger",
        -9.738722938099077
      ],
      [
        "▁=",
        -9.73965073510844
      ],
      [
        "▁FV",
        -9.739816471289478
      ],
      [
        "drygt",
        -9.740036648156305
      ],
      [
        "Ibland",
        -9.740095426003972
      ],
      [
        "▁'",
        -9.740262663876972
      ],
      [
        "stod",
        -9.741034581970155
      ],
      [
        "▁talar",
        -9.741142789334434
      ],
      [
        "Vilken",
        -9.741193701847292
      ],
      [
        "▁kommentarer",
        -9.743004180152887
      ],
      [
        "mer",
        -9.743457870323398
      ],
      [
        "och",
        -9.743477462160127
      ],
      [
        "▁självklart",
        -9.74353816654693
      ],
      [
        "▁ligga",
        -9.743600915426867
      ],
      [
        "▁fungera",
        -9.744005497352063
      ],
      [
        "rum",
        -9.744226483981732
      ],
      [
        "jämfört",
        -9.74447909866768
      ],
      [
        "▁lokal",
        -9.745005258822427
      ],
      [
        "▁omdömet",
        -9.745083837278711
      ],
      [
        "▁kredit",
        -9.746145871457394
      ],
      [
        "▁fantastisk",
        -9.74653686340399
      ],
      [
        "N",
        -9.747551138166015
      ],
      [
        "▁2008",
        -9.748955097582565
      ],
      [
        "▁vin",
        -9.749647401161543
      ],
      [
        "▁Låt",
        -9.74974252766453
      ],
      [
        "▁ihåg",
        -9.750554555182571
      ],
      [
        "▁köper",
        -9.750815649560744
      ],
      [
        "▁saknar",
        -9.751826922310078
      ],
      [
        "▁serie",
        -9.752112291571105
      ],
      [
        "▁passa",
        -9.752388809738605
      ],
      [
        "▁semester",
        -9.752511911273341
      ],
      [
        "▁ekonomi",
        -9.752757243249723
      ],
      [
        "▁chans",
        -9.753019975861607
      ],
      [
        "G",
        -9.753241914482988
      ],
      [
        "▁anställda",
        -9.754572979727037
      ],
      [
        "▁TV",
        -9.754895488274311
      ],
      [
        "▁nivå",
        -9.755451701027603
      ],
      [
        "nings",
        -9.756014585927304
      ],
      [
        "▁lösa",
        -9.756670559407619
      ],
      [
        "▁trött",
        -9.756984005136427
      ],
      [
        "▁studie",
        -9.757499548531925
      ],
      [
        "▁Mitt",
        -9.757786128750652
      ],
      [
        "▁tak",
        -9.758032610502159
      ],
      [
        "gick",
        -9.75880016005525
      ],
      [
        "▁kompetens",
        -9.758849043843343
      ],
      [
        "▁funktion",
        -9.759234417184938
      ],
      [
        "▁sidor",
        -9.759552600908938
      ],
      [
        "H",
        -9.759703056545664
      ],
      [
        "▁free",
        -9.759916135806645
      ],
      [
        "▁luft",
        -9.761246146342685
      ],
      [
        "▁listan",
        -9.762292612083579
      ],
      [
        "log",
        -9.762610509425931
      ],
      [
        "▁Andra",
        -9.763386954132313
      ],
      [
        "▁tankar",
        -9.763491931148291
      ],
      [
        "▁mannen",
        -9.765390427074374
      ],
      [
        "▁tid.",
        -9.765662118819332
      ],
      [
        "▁sluta",
        -9.766703914042791
      ],
      [
        "▁blå",
        -9.768034135131844
      ],
      [
        "▁tala",
        -9.768320092198872
      ],
      [
        "▁laget",
        -9.768536841808508
      ],
      [
        "▁död",
        -9.768980809504514
      ],
      [
        "▁sälja",
        -9.769080420376177
      ],
      [
        "▁ändring",
        -9.769740924523957
      ],
      [
        "ett",
        -9.770205148581192
      ],
      [
        "▁populära",
        -9.773547533414007
      ],
      [
        "▁utbud",
        -9.7747059901011
      ],
      [
        "▁konst",
        -9.775772155292747
      ],
      [
        "▁medel",
        -9.775876920032319
      ],
      [
        "▁Gratis",
        -9.776863939253174
      ],
      [
        "▁starta",
        -9.77701295917657
      ],
      [
        "ha",
        -9.777510360602182
      ],
      [
        "▁tittar",
        -9.778976181485387
      ],
      [
        "▁guld",
        -9.779948816736109
      ],
      [
        "▁därefter",
        -9.781079780252064
      ],
      [
        "▁Andersson",
        -9.78142729109308
      ],
      [
        "▁politiska",
        -9.781512954371339
      ],
      [
        "▁Fast",
        -9.782107816892683
      ],
      [
        "▁samman",
        -9.782487472580362
      ],
      [
        "Några",
        -9.78267180590745
      ],
      [
        "▁öppen",
        -9.782847454900203
      ],
      [
        "▁hittat",
        -9.783939313754694
      ],
      [
        "▁lämnar",
        -9.786752084352884
      ],
      [
        "▁Jan",
        -9.787294195693075
      ],
      [
        "▁äntligen",
        -9.787568738590231
      ],
      [
        "vägen",
        -9.787568970019343
      ],
      [
        "▁internationella",
        -9.787774169939189
      ],
      [
        "▁tal",
        -9.787953314107217
      ],
      [
        "▁Hem",
        -9.7891570441192
      ],
      [
        "▁vita",
        -9.789253861680855
      ],
      [
        "▁mark",
        -9.789875977055697
      ],
      [
        "▁njuta",
        -9.790169548868867
      ],
      [
        "▁effekt",
        -9.790197917678304
      ],
      [
        "▁Upp",
        -9.790393184105707
      ],
      [
        "nas",
        -9.790846565660857
      ],
      [
        "▁åtta",
        -9.79115224458912
      ],
      [
        "▁lagt",
        -9.791238245233595
      ],
      [
        "▁själv.",
        -9.791591506363067
      ],
      [
        "▁bidrag",
        -9.792310315347247
      ],
      [
        "▁hamna",
        -9.792487131596987
      ],
      [
        "▁försök",
        -9.792906610310311
      ],
      [
        "▁kommentar",
        -9.793355937299097
      ],
      [
        "▁pratar",
        -9.793565285648228
      ],
      [
        "▁priset",
        -9.79727443565055
      ],
      [
        "▁prov",
        -9.797422042082264
      ],
      [
        "dvs",
        -9.797839301478323
      ],
      [
        "▁fantastiska",
        -9.798436063602196
      ],
      [
        "tid",
        -9.798623488603992
      ],
      [
        "▁resten",
        -9.79882745438394
      ],
      [
        "▁webbplats",
        -9.80026038065111
      ],
      [
        "▁post",
        -9.801694694560053
      ],
      [
        "▁kr.",
        -9.802253154533688
      ],
      [
        "▁centrum",
        -9.802577779636424
      ],
      [
        "▁skada",
        -9.80305577556129
      ],
      [
        "▁koll",
        -9.803891868652302
      ],
      [
        "▁tjej",
        -9.803906661121292
      ],
      [
        "▁bank",
        -9.804106386508112
      ],
      [
        "os",
        -9.80483849646892
      ],
      [
        "▁kalla",
        -9.805088969506844
      ],
      [
        "▁läs",
        -9.806553000104902
      ],
      [
        "▁naturligtvis",
        -9.806640111408997
      ],
      [
        "0",
        -9.807372240805346
      ],
      [
        "▁Din",
        -9.807522111618882
      ],
      [
        "var",
        -9.808669334127508
      ],
      [
        "ats",
        -9.810298253034818
      ],
      [
        "▁antingen",
        -9.812315321293395
      ],
      [
        "W",
        -9.81333623715815
      ],
      [
        "▁ungdomar",
        -9.813458258345438
      ],
      [
        "▁stanna",
        -9.815075843533261
      ],
      [
        "▁härlig",
        -9.815370937804776
      ],
      [
        "▁plus",
        -9.8156093517635
      ],
      [
        "OF",
        -9.815996083175952
      ],
      [
        "▁satte",
        -9.816928048237216
      ],
      [
        "▁knappt",
        -9.817935928908428
      ],
      [
        "▁kurs",
        -9.818129562601927
      ],
      [
        "▁bygg",
        -9.818152931256446
      ],
      [
        "▁80",
        -9.818176873555503
      ],
      [
        "▁leta",
        -9.818618320329612
      ],
      [
        "▁Hej",
        -9.819495237073854
      ],
      [
        "▁klass",
        -9.819661024777393
      ],
      [
        "▁ålder",
        -9.82132361332566
      ],
      [
        "▁princip",
        -9.821849619358655
      ],
      [
        "▁tryck",
        -9.822118372451264
      ],
      [
        "▁varmt",
        -9.823337658040515
      ],
      [
        "▁vit",
        -9.823658788884542
      ],
      [
        "▁sverige",
        -9.823866817367044
      ],
      [
        "▁ben",
        -9.824015518404686
      ],
      [
        ".com",
        -9.824024920582872
      ],
      [
        "▁3.",
        -9.824641996248346
      ],
      [
        "▁fantastiskt",
        -9.824720784135625
      ],
      [
        "▁undrar",
        -9.825980898514741
      ],
      [
        "▁far",
        -9.826206361157931
      ],
      [
        "▁(1",
        -9.826358358411671
      ],
      [
        "▁spår",
        -9.826358687310579
      ],
      [
        "▁;)",
        -9.827408090245266
      ],
      [
        "▁kropp",
        -9.827884196679616
      ],
      [
        "▁läkare",
        -9.828025834960995
      ],
      [
        "Hotels.comT",
        -9.828619645676469
      ],
      [
        "▁Mat",
        -9.828884503437497
      ],
      [
        "▁beställa",
        -9.828910306333354
      ],
      [
        "bara",
        -9.830260363974078
      ],
      [
        "finner",
        -9.830682922438575
      ],
      [
        "▁Nr",
        -9.830920279347778
      ],
      [
        "▁lön",
        -9.831872671544867
      ],
      [
        "▁undvika",
        -9.8323096529915
      ],
      [
        "Få",
        -9.832806673099743
      ],
      [
        "▁Hotell",
        -9.83293685927283
      ],
      [
        "▁stan",
        -9.833007942033717
      ],
      [
        "år",
        -9.833609389626481
      ],
      [
        "O",
        -9.833766002465095
      ],
      [
        "▁social",
        -9.83437502024281
      ],
      [
        "▁www.",
        -9.834451514872324
      ],
      [
        "▁idé",
        -9.836439368014107
      ],
      [
        "▁OK",
        -9.838061247917958
      ],
      [
        "▁dålig",
        -9.838268496906943
      ],
      [
        "▁All",
        -9.838934883550337
      ],
      [
        "▁[...]",
        -9.839715171163375
      ],
      [
        "▁standard",
        -9.840093858812068
      ],
      [
        "▁perfekta",
        -9.840777429672793
      ],
      [
        "▁Bland",
        -9.842574231211572
      ],
      [
        "▁hud",
        -9.843234597738153
      ],
      [
        "▁Lägg",
        -9.84337078759885
      ],
      [
        "▁omdöme",
        -9.844441013062863
      ],
      [
        "▁klarar",
        -9.844753796671478
      ],
      [
        "▁mår",
        -9.845133920885262
      ],
      [
        "▁Använd",
        -9.845773721351547
      ],
      [
        "sjö",
        -9.847238917542748
      ],
      [
        "▁klimat",
        -9.847311983429197
      ],
      [
        "▁växer",
        -9.847558805734543
      ],
      [
        "▁våren",
        -9.847638130837568
      ],
      [
        "ll",
        -9.847734961096485
      ],
      [
        "▁dejt",
        -9.848366344268959
      ],
      [
        "▁kontrollera",
        -9.849301477994773
      ],
      [
        "▁använt",
        -9.849595315471873
      ],
      [
        "▁Själv",
        -9.849601333312698
      ],
      [
        "et,",
        -9.84983794067419
      ],
      [
        "▁någonsin",
        -9.851014774132516
      ],
      [
        "▁2020",
        -9.851739424304593
      ],
      [
        "▁Hos",
        -9.852009759151137
      ],
      [
        "▁höst",
        -9.852235251240161
      ],
      [
        "▁kärlek",
        -9.852863014245877
      ],
      [
        "erade",
        -9.853661135605908
      ],
      [
        "▁Fredrik",
        -9.853871177820618
      ],
      [
        "▁Bästa",
        -9.854570367325634
      ],
      [
        "förutom",
        -9.854798137392473
      ],
      [
        "▁Foto:",
        -9.85481904598177
      ],
      [
        "▁häst",
        -9.855032178818707
      ],
      [
        "▁visas",
        -9.855169866600232
      ],
      [
        "▁universitet",
        -9.85535294750201
      ],
      [
        "▁special",
        -9.856146018948255
      ],
      [
        "▁ensam",
        -9.856391073766563
      ],
      [
        "▁kronor.",
        -9.856560933040374
      ],
      [
        "system",
        -9.856599190022084
      ],
      [
        "▁skydda",
        -9.856782826673172
      ],
      [
        "▁solen",
        -9.857218979794563
      ],
      [
        "▁mg",
        -9.858313937612916
      ],
      [
        "🙂",
        -9.85849152480805
      ],
      [
        "▁namnet",
        -9.85929274337863
      ],
      [
        "▁räcker",
        -9.859555313186654
      ],
      [
        "▁dels",
        -9.859838175221723
      ],
      [
        "▁betydelse",
        -9.85988017477622
      ],
      [
        "▁Sätt",
        -9.859927929838326
      ],
      [
        "▁timmen",
        -9.860203049960242
      ],
      [
        "▁aktiviteter",
        -9.860877054887565
      ],
      [
        "▁bar",
        -9.862787090557134
      ],
      [
        "▁brott",
        -9.863568414299285
      ],
      [
        "▁70",
        -9.863925720965016
      ],
      [
        "tt*",
        -9.864163711669493
      ],
      [
        "▁Lund",
        -9.864363505271212
      ],
      [
        "▁möjliga",
        -9.864609545870273
      ],
      [
        "▁lyckades",
        -9.864681646044852
      ],
      [
        "▁uppgift",
        -9.86526896501534
      ],
      [
        "▁tionde",
        -9.865550599266975
      ],
      [
        "▁projektet",
        -9.86640519666066
      ],
      [
        "▁35",
        -9.867283891122598
      ],
      [
        "▁högst",
        -9.867889187177985
      ],
      [
        "▁öppet",
        -9.869111243472975
      ],
      [
        "▁promenad",
        -9.870153958727498
      ],
      [
        "▁Z",
        -9.87077325509116
      ],
      [
        "▁himla",
        -9.872281499104119
      ],
      [
        "▁>",
        -9.872836235133535
      ],
      [
        "▁modern",
        -9.873062923302115
      ],
      [
        "▁plötsligt",
        -9.873081245770818
      ],
      [
        "▁modell",
        -9.874211221820161
      ],
      [
        "ernas",
        -9.874418808580874
      ],
      [
        "▁gett",
        -9.875698090229598
      ],
      [
        "▁Kom",
        -9.875998204913362
      ],
      [
        "▁cykel",
        -9.876537009721394
      ],
      [
        "▁bas",
        -9.876723434956507
      ],
      [
        "▁Stockholm.",
        -9.877346133933289
      ],
      [
        "ist",
        -9.877717721314571
      ],
      [
        "▁miljarder",
        -9.87831198132921
      ],
      [
        "bjuder",
        -9.87832039813446
      ],
      [
        "▁Casino",
        -9.878898320707087
      ],
      [
        "▁partner",
        -9.879531590425932
      ],
      [
        "▁visste",
        -9.880012390406183
      ],
      [
        "▁spelet",
        -9.880153353812132
      ],
      [
        "▁Över",
        -9.880193985646438
      ],
      [
        "vi",
        -9.881123829371468
      ],
      [
        "▁trafik",
        -9.8838578702608
      ],
      [
        "▁säljer",
        -9.884022903926398
      ],
      [
        "ling",
        -9.884982463410953
      ],
      [
        "▁säkra",
        -9.885356746628075
      ],
      [
        "▁vacker",
        -9.885890661007654
      ],
      [
        "▁möta",
        -9.885954419977184
      ],
      [
        "▁enkla",
        -9.886377903079158
      ],
      [
        "▁villkor",
        -9.886815785434264
      ],
      [
        "▁nej",
        -9.886822013825773
      ],
      [
        "▁eleverna",
        -9.887114242646064
      ],
      [
        "▁nuvarande",
        -9.887509155043322
      ],
      [
        "▁slog",
        -9.887559930058602
      ],
      [
        "▁förmåga",
        -9.887692444908614
      ],
      [
        "▁intresserad",
        -9.887945509543458
      ],
      [
        "▁nyligen",
        -9.889326082881665
      ],
      [
        "ningar",
        -9.891159563339963
      ],
      [
        "▁restaurang",
        -9.891505367384925
      ],
      [
        "▁amerikanska",
        -9.892354573140684
      ],
      [
        "▁parti",
        -9.892676195926562
      ],
      [
        "lar",
        -9.893545169908409
      ],
      [
        "▁natten",
        -9.894968437521008
      ],
      [
        "▁polis",
        -9.89509205851154
      ],
      [
        "till",
        -9.895161685016612
      ],
      [
        "▁sjuk",
        -9.895689776801172
      ],
      [
        "▁möte",
        -9.896315843225285
      ],
      [
        "▁delta",
        -9.896891543082182
      ],
      [
        "▁Först",
        -9.897676352177012
      ],
      [
        "▁möjligheten",
        -9.897754548381082
      ],
      [
        "ga",
        -9.898415378965106
      ],
      [
        "▁tv",
        -9.898840058370018
      ],
      [
        "▁startade",
        -9.89928369831411
      ],
      [
        "Vilka",
        -9.899711442653675
      ],
      [
        "▁kostnader",
        -9.902017949941758
      ],
      [
        "▁förbi",
        -9.902530770100956
      ],
      [
        "▁riktig",
        -9.903084086489578
      ],
      [
        "▁vinst",
        -9.903203664863975
      ],
      [
        "skickade",
        -9.904086259464039
      ],
      [
        "▁utvecklingen",
        -9.904447223392147
      ],
      [
        "20",
        -9.904823984164823
      ],
      [
        "▁samla",
        -9.90587491622104
      ],
      [
        "▁plast",
        -9.908054870845222
      ],
      [
        "Vissa",
        -9.909003203785455
      ],
      [
        "▁fönster",
        -9.909033172220443
      ],
      [
        "▁tillstånd",
        -9.909248973833153
      ],
      [
        "▁köpt",
        -9.909607524307189
      ],
      [
        "▁vinter",
        -9.910043741849568
      ],
      [
        "▁datum",
        -9.91066720789792
      ],
      [
        "▁koppla",
        -9.910738252985384
      ],
      [
        "▁Online",
        -9.911349183705532
      ],
      [
        "▁patienter",
        -9.911617805965738
      ],
      [
        "▁Erik",
        -9.911772653135946
      ],
      [
        "▁målet",
        -9.911972555324144
      ],
      [
        "▁Dock",
        -9.913025618282726
      ],
      [
        "▁icke",
        -9.91323513417661
      ],
      [
        "anses",
        -9.913605395682367
      ],
      [
        "▁satsa",
        -9.91373652673339
      ],
      [
        "▁svår",
        -9.914153434821937
      ],
      [
        "▁ingenting",
        -9.915848196524228
      ],
      [
        "▁mån",
        -9.916143400509737
      ],
      [
        "▁innehåll",
        -9.916297644174003
      ],
      [
        "▁längs",
        -9.916350841413315
      ],
      [
        "▁sova",
        -9.917411126411489
      ],
      [
        "tar",
        -9.91789767791084
      ],
      [
        "kan",
        -9.91802381762862
      ],
      [
        "▁framåt",
        -9.91994179590612
      ],
      [
        "känt",
        -9.920242819231923
      ],
      [
        "▁färger",
        -9.920917198650752
      ],
      [
        "▁bedriv",
        -9.920929114906343
      ],
      [
        "▁ges",
        -9.92102568001113
      ],
      [
        "lin",
        -9.921238281112892
      ],
      [
        "▁(som",
        -9.922306115022518
      ],
      [
        "▁Park",
        -9.922399976667949
      ],
      [
        "▁Visst",
        -9.922822255133424
      ],
      [
        "▁Svensk",
        -9.923942529526391
      ],
      [
        "▁väder",
        -9.924004387997652
      ],
      [
        "▁mil",
        -9.925145449403136
      ],
      [
        "iskt",
        -9.925227154519833
      ],
      [
        "relativt",
        -9.92567444135661
      ],
      [
        "Det",
        -9.92621388398661
      ],
      [
        "ler",
        -9.927086552809106
      ],
      [
        "▁Nästa",
        -9.92773100733428
      ],
      [
        "▁re",
        -9.928276655462168
      ],
      [
        "▁utvecklas",
        -9.928885026131116
      ],
      [
        "▁Martin",
        -9.928917522961576
      ],
      [
        "▁City",
        -9.929437950878825
      ],
      [
        "▁mitten",
        -9.929533392857135
      ],
      [
        "▁Tre",
        -9.930655876850492
      ],
      [
        "▁timme",
        -9.930858878336554
      ],
      [
        "▁funkar",
        -9.931281548436694
      ],
      [
        "lade",
        -9.931639662074353
      ],
      [
        "▁förhållande",
        -9.93192862769814
      ],
      [
        "▁försäljning",
        -9.93277006277693
      ],
      [
        "▁närmaste",
        -9.932891297774503
      ],
      [
        "plan",
        -9.933302025021788
      ],
      [
        "▁nåt",
        -9.933363556313056
      ],
      [
        "▁bestämt",
        -9.933863870423375
      ],
      [
        "▁uttryck",
        -9.934268147221758
      ],
      [
        "▁sällan",
        -9.934620364402079
      ],
      [
        "▁betalning",
        -9.935217944657412
      ],
      [
        "▁säkerhets",
        -9.936985815476376
      ],
      [
        "▁ansökan",
        -9.937100858211831
      ],
      [
        "▁smak",
        -9.937361033487637
      ],
      [
        "▁hot",
        -9.937416625482523
      ],
      [
        "▁uppe",
        -9.937478693661113
      ],
      [
        "▁betalar",
        -9.937913190425931
      ],
      [
        "▁bilar",
        -9.938815140112952
      ],
      [
        "Igår",
        -9.938861721488843
      ],
      [
        "▁besöka",
        -9.939358064807914
      ],
      [
        "é",
        -9.94060024734141
      ],
      [
        "▁kombinera",
        -9.941412429633756
      ],
      [
        "em",
        -9.941472191729826
      ],
      [
        "30",
        -9.941632101911916
      ],
      [
        "▁ses",
        -9.941761561352795
      ],
      [
        "▁aktuella",
        -9.942092298608298
      ],
      [
        "▁ersättning",
        -9.942109585038569
      ],
      [
        "▁Gör",
        -9.94232837130564
      ],
      [
        "▁medarbetare",
        -9.946323144889586
      ],
      [
        "▁cookies",
        -9.947003342778475
      ],
      [
        "Förutom",
        -9.94713342510962
      ],
      [
        "▁Örebro",
        -9.947478003140585
      ],
      [
        "▁numera",
        -9.94751877309266
      ],
      [
        "▁Inga",
        -9.947754020739145
      ],
      [
        "▁Johansson",
        -9.947860221583834
      ],
      [
        "ic",
        -9.948526947888144
      ],
      [
        "▁2007",
        -9.948666363656628
      ],
      [
        "▁fundera",
        -9.948695099481444
      ],
      [
        "▁centrala",
        -9.948861051449303
      ],
      [
        "Skulle",
        -9.949543642514406
      ],
      [
        "▁kommuner",
        -9.94978126888962
      ],
      [
        "▁Inn",
        -9.950271368459799
      ],
      [
        "▁ung",
        -9.950272950412154
      ],
      [
        "▁Google",
        -9.950531680704787
      ],
      [
        "▁skit",
        -9.952521105319494
      ],
      [
        "▁rummet",
        -9.952844087076132
      ],
      [
        "▁Anmäl",
        -9.953001291829667
      ],
      [
        "co",
        -9.953516625259486
      ],
      [
        "▁Finland",
        -9.953908673897065
      ],
      [
        "▁Pro",
        -9.95473303185578
      ],
      [
        "▁Co",
        -9.95482209510223
      ],
      [
        "▁middag",
        -9.955060666041597
      ],
      [
        "▁tiden.",
        -9.9571883149397
      ],
      [
        "EN",
        -9.95757057071879
      ],
      [
        "▁fylla",
        -9.957663859494309
      ],
      [
        "▁nummer",
        -9.959630214940079
      ],
      [
        "▁ägg",
        -9.960255308895896
      ],
      [
        "▁lägenhet",
        -9.96043493851543
      ],
      [
        "▁hört",
        -9.960906413876051
      ],
      [
        "▁blod",
        -9.96192631663541
      ],
      [
        "▁enklare",
        -9.961981694474531
      ],
      [
        "▁rekommenderar",
        -9.963295536445774
      ],
      [
        "▁Carl",
        -9.965005974286813
      ],
      [
        "▁brev",
        -9.965029271279223
      ],
      [
        "ve",
        -9.965221793950422
      ],
      [
        "snarare",
        -9.967524978869578
      ],
      [
        "▁röd",
        -9.967858368767821
      ],
      [
        "strax",
        -9.968118475108431
      ],
      [
        "Se",
        -9.968511478051619
      ],
      [
        "▁frukt",
        -9.968651750666158
      ],
      [
        "▁Hade",
        -9.968850566001809
      ],
      [
        "▁info",
        -9.96903295616755
      ],
      [
        "▁dagarna",
        -9.969040911953504
      ],
      [
        "▁Tyvärr",
        -9.969077917654394
      ],
      [
        "▁bakgrund",
        -9.969537838386303
      ],
      [
        "▁förklara",
        -9.969629597423438
      ],
      [
        "▁År",
        -9.970541874589223
      ],
      [
        "▁helg",
        -9.970553257761615
      ],
      [
        "▁Första",
        -9.971114603224501
      ],
      [
        "▁ton",
        -9.971136567833055
      ],
      [
        "ökade",
        -9.971761439534589
      ],
      [
        "▁görs",
        -9.9720989061471
      ],
      [
        "▁Internet",
        -9.97274250492759
      ],
      [
        "▁diskutera",
        -9.972871196895642
      ],
      [
        "▁45",
        -9.973505354207507
      ],
      [
        "▁budget",
        -9.973793515791591
      ],
      [
        "▁åtminstone",
        -9.974697433774901
      ],
      [
        ":s",
        -9.97471885725898
      ],
      [
        "▁resultatet",
        -9.975866251792192
      ],
      [
        "▁liv.",
        -9.976846296284418
      ],
      [
        "▁uppnå",
        -9.97789230132642
      ],
      [
        "▁Skåne",
        -9.978473473663227
      ],
      [
        "→",
        -9.979151066099673
      ],
      [
        "▁styr",
        -9.979531371265388
      ],
      [
        "▁inlägget",
        -9.979822324272469
      ],
      [
        "▁fredag",
        -9.980116836004182
      ],
      [
        "▁vattnet",
        -9.980214260597382
      ],
      [
        "lund",
        -9.98098017237572
      ],
      [
        "▁fixa",
        -9.981964725038157
      ],
      [
        "▁San",
        -9.982198508580234
      ],
      [
        "▁matcher",
        -9.982244647459453
      ],
      [
        "Våra",
        -9.982271586977689
      ],
      [
        "▁butik",
        -9.983171491748223
      ],
      [
        "▁skön",
        -9.983204673190157
      ],
      [
        "▁någonting",
        -9.985292946366316
      ],
      [
        "▁annorlunda",
        -9.985889183865046
      ],
      [
        "▁Vet",
        -9.986084808695933
      ],
      [
        "▁snabba",
        -9.986601899417769
      ],
      [
        "▁ringa",
        -9.9877652805083
      ],
      [
        "▁plocka",
        -9.987779781659114
      ],
      [
        "▁chansen",
        -9.988437377969834
      ],
      [
        "lag",
        -9.989460121660168
      ],
      [
        "ck",
        -9.989523994870568
      ],
      [
        "▁ordning",
        -9.990140313089446
      ],
      [
        "körde",
        -9.99106064186618
      ],
      [
        "▁Norge",
        -9.992314446588637
      ],
      [
        "▁platsen",
        -9.992680003515147
      ],
      [
        "▁slags",
        -9.993015520535925
      ],
      [
        "▁äger",
        -9.994018147239672
      ],
      [
        "▁jord",
        -9.994297184041631
      ],
      [
        "sidan",
        -9.996360207736119
      ],
      [
        "to",
        -9.996419958441322
      ],
      [
        "ng",
        -9.99854578821019
      ],
      [
        "▁personlig",
        -9.998843779393438
      ],
      [
        "▁starka",
        -9.999045926887344
      ],
      [
        "▁värt",
        -9.999335915480668
      ],
      [
        "▁allmänna",
        -9.999638398570557
      ],
      [
        "▁kyrkan",
        -10.000881192236513
      ],
      [
        "▁stress",
        -10.001162977313399
      ],
      [
        "▁period",
        -10.001226627376125
      ],
      [
        "▁utföra",
        -10.002483025938838
      ],
      [
        "▁mera",
        -10.003048099427135
      ],
      [
        "▁datorn",
        -10.00336320496579
      ],
      [
        "one",
        -10.004742755405783
      ],
      [
        "▁huvudet",
        -10.005331624162832
      ],
      [
        "▁normalt",
        -10.006167409087363
      ],
      [
        "mo",
        -10.0062758240319
      ],
      [
        "▁massage",
        -10.007231354163988
      ],
      [
        "▁Stefan",
        -10.00737811281237
      ],
      [
        "▁röst",
        -10.007676313829831
      ],
      [
        "▁lyckats",
        -10.007725624843264
      ],
      [
        "▁you",
        -10.007985253888897
      ],
      [
        "▁lördag",
        -10.008585906690778
      ],
      [
        "▁studier",
        -10.009322954814444
      ],
      [
        "▁varumärken",
        -10.009686945251698
      ],
      [
        "Omdömet",
        -10.010094384190591
      ],
      [
        "▁grader",
        -10.010386487359684
      ],
      [
        "▁rädda",
        -10.01124697999128
      ],
      [
        "▁avseende",
        -10.011841515653087
      ],
      [
        "▁chef",
        -10.011919518348021
      ],
      [
        "▁Le",
        -10.014323355443087
      ],
      [
        "▁jämför",
        -10.01523347825244
      ],
      [
        "▁samhälls",
        -10.015534504862835
      ],
      [
        "▁våld",
        -10.015699806930968
      ],
      [
        "▁kilometer",
        -10.016019869843747
      ],
      [
        "▁räkna",
        -10.017018965275142
      ],
      [
        "me",
        -10.0171677409974
      ],
      [
        "▁omfattande",
        -10.017289238278007
      ],
      [
        "▁anpassa",
        -10.017808742922684
      ],
      [
        "▁lösning",
        -10.018167275017186
      ],
      [
        "▁Få",
        -10.01905786220182
      ],
      [
        "▁Vem",
        -10.019451565305998
      ],
      [
        "▁Ålder",
        -10.019504472717678
      ],
      [
        "▁följd",
        -10.020164098632321
      ],
      [
        "▁varm",
        -10.02061249461492
      ],
      [
        "▁fett",
        -10.02186308696999
      ],
      [
        "▁brist",
        -10.02301911726736
      ],
      [
        "Mer",
        -10.024035812052986
      ],
      [
        "▁röda",
        -10.024622330374552
      ],
      [
        "befinner",
        -10.026320323501505
      ],
      [
        "▁live",
        -10.028449195380777
      ],
      [
        "ör",
        -10.030072503513463
      ],
      [
        "▁huden",
        -10.03010635490813
      ],
      [
        "▁press",
        -10.030706961837785
      ],
      [
        "▁Pris",
        -10.030904673695446
      ],
      [
        "▁beskriver",
        -10.030952382702406
      ],
      [
        "▁bloggen",
        -10.031776216004735
      ],
      [
        "kort",
        -10.032911312186824
      ],
      [
        "▁motsvarande",
        -10.033114685112121
      ],
      [
        "▁transport",
        -10.033581156157727
      ],
      [
        "▁tillväxt",
        -10.034013755618382
      ],
      [
        "▁berättade",
        -10.034052576292677
      ],
      [
        "slår",
        -10.03428805226164
      ],
      [
        "▁personen",
        -10.03469919314077
      ],
      [
        "▁Daniel",
        -10.035083946710479
      ],
      [
        "15",
        -10.035104531797534
      ],
      [
        "▁glädje",
        -10.035181207999898
      ],
      [
        "▁använde",
        -10.035513081562481
      ],
      [
        "▁yngre",
        -10.03634939874415
      ],
      [
        "▁värld",
        -10.036732813483262
      ],
      [
        "program",
        -10.0370892492003
      ],
      [
        "▁MEJLADRESS",
        -10.037253746912157
      ],
      [
        "▁digitala",
        -10.0375582084965
      ],
      [
        "▁slag",
        -10.037602488512935
      ],
      [
        "link",
        -10.038123991700019
      ],
      [
        "slutade",
        -10.038524854477226
      ],
      [
        "▁fyller",
        -10.038914589447497
      ],
      [
        "▁Gå",
        -10.039230938721412
      ],
      [
        "▁gemensamma",
        -10.039253683495097
      ],
      [
        "▁rättigheter",
        -10.03932733362012
      ],
      [
        "▁grad",
        -10.039498492194342
      ],
      [
        "▁bedömning",
        -10.039713596592339
      ],
      [
        "▁gång.",
        -10.040424630933305
      ],
      [
        "▁skydd",
        -10.040724460080366
      ],
      [
        "▁programmet",
        -10.040973023903607
      ],
      [
        "▁moderna",
        -10.041247933743234
      ],
      [
        "▁sättet",
        -10.041498138212145
      ],
      [
        "▁jämföra",
        -10.04160793699205
      ],
      [
        "▁sjukdom",
        -10.04224927618493
      ],
      [
        "▁ständigt",
        -10.043375261820302
      ],
      [
        "▁adress",
        -10.043674382983374
      ],
      [
        "▁Kommun",
        -10.044280875235456
      ],
      [
        "▁foto",
        -10.044519272605882
      ],
      [
        "ligen",
        -10.045321279682732
      ],
      [
        "▁välkomna",
        -10.04578563264665
      ],
      [
        "▁roliga",
        -10.046341341879685
      ],
      [
        "▁Information",
        -10.046456402369634
      ],
      [
        "▁York",
        -10.047453542869373
      ],
      [
        "ner",
        -10.047776588900417
      ],
      [
        "▁ända",
        -10.04804571610136
      ],
      [
        "▁barn.",
        -10.04828406914108
      ],
      [
        "▁norr",
        -10.048745600878833
      ],
      [
        "▁hänt",
        -10.048999308652236
      ],
      [
        "▁plats.",
        -10.049358110270385
      ],
      [
        "▁minns",
        -10.049623176749078
      ],
      [
        "▁oerhör",
        -10.049901820147733
      ],
      [
        "▁pengarna",
        -10.050178252324473
      ],
      [
        "▁300",
        -10.050466887248357
      ],
      [
        "▁kille",
        -10.050685975011316
      ],
      [
        "tog",
        -10.051494958568112
      ],
      [
        "▁lösningar",
        -10.052041175744028
      ],
      [
        "skydd",
        -10.052191040928122
      ],
      [
        "natt!",
        -10.052839191677904
      ],
      [
        "▁sten",
        -10.052845220960098
      ],
      [
        "▁läkemedel",
        -10.053343264491271
      ],
      [
        "▁hyra",
        -10.05353375728811
      ],
      [
        "▁sist",
        -10.053878638220013
      ],
      [
        "▁människa",
        -10.054079325257854
      ],
      [
        "▁bl.a.",
        -10.05408388408935
      ],
      [
        "ER",
        -10.05440669505856
      ],
      [
        "▁givetvis",
        -10.05478992286677
      ],
      [
        "▁organisation",
        -10.055315529331702
      ],
      [
        "risken",
        -10.055518710954793
      ],
      [
        "▁Bil",
        -10.055736292521631
      ],
      [
        "▁An",
        -10.056309183886544
      ],
      [
        "▁regn",
        -10.056490614972521
      ],
      [
        "▁redo",
        -10.05703276462463
      ],
      [
        "lämnade",
        -10.057127101981889
      ],
      [
        "▁honom.",
        -10.058306631204774
      ],
      [
        "▁detta.",
        -10.05849439004193
      ],
      [
        "mat",
        -10.058496554700898
      ],
      [
        "Däremot",
        -10.059386310676233
      ],
      [
        "▁såklart",
        -10.059428294013419
      ],
      [
        "▁Skriv",
        -10.05991673743388
      ],
      [
        "▁staten",
        -10.06006461030395
      ],
      [
        "▁mail",
        -10.06128787092817
      ],
      [
        "min",
        -10.061740576222101
      ],
      [
        "▁trevligt",
        -10.061971214252562
      ],
      [
        "▁TripAdvisor",
        -10.063564574422195
      ],
      [
        "▁nytta",
        -10.063808852914875
      ],
      [
        "▁London",
        -10.063969969848731
      ],
      [
        "huset",
        -10.064072132759822
      ],
      [
        "fri",
        -10.064085034895879
      ],
      [
        "▁rapport",
        -10.064624632868737
      ],
      [
        "▁grupper",
        -10.065113893075361
      ],
      [
        "▁samhälle",
        -10.065229910701772
      ],
      [
        "▁imorgon",
        -10.06524981544784
      ],
      [
        "erad",
        -10.06527273353556
      ],
      [
        "▁Sök",
        -10.065812050679645
      ],
      [
        "▁översättning",
        -10.065968865907212
      ],
      [
        "▁känd",
        -10.06598103575803
      ],
      [
        "val",
        -10.067504615136333
      ],
      [
        "▁Stor",
        -10.067628121110005
      ],
      [
        "▁Dam",
        -10.067743623230626
      ],
      [
        "▁avsnitt",
        -10.068172307969352
      ],
      [
        "▁karta",
        -10.06902530072998
      ],
      [
        "ökat",
        -10.069115001639592
      ],
      [
        "▁Al",
        -10.069751450677568
      ],
      [
        "▁uppleva",
        -10.069896691340123
      ],
      [
        "▁informationen",
        -10.070783185824718
      ],
      [
        "▁media",
        -10.071311715186125
      ],
      [
        "▁söndag",
        -10.07169136081728
      ],
      [
        "▁restauranger",
        -10.071694747570936
      ],
      [
        "▁mjölk",
        -10.071728084930669
      ],
      [
        "(och",
        -10.072239573745911
      ],
      [
        "▁hänsyn",
        -10.072272595887954
      ],
      [
        "förmodligen",
        -10.072460902162241
      ],
      [
        "og",
        -10.072573089427935
      ],
      [
        "letar",
        -10.073044114787917
      ],
      [
        "▁härligt",
        -10.073303916668808
      ],
      [
        "12",
        -10.07385700044544
      ],
      [
        "▁Umeå",
        -10.074868050130508
      ],
      [
        "form",
        -10.07572563891504
      ],
      [
        "▁hamnar",
        -10.076834192826675
      ],
      [
        "chef",
        -10.077596430024233
      ],
      [
        "▁utför",
        -10.07871242172361
      ],
      [
        "▁avgörande",
        -10.07971764207087
      ],
      [
        "▁(1)",
        -10.079967619117824
      ],
      [
        "▁politiker",
        -10.080309498645141
      ],
      [
        "▁tjänst",
        -10.080392112120142
      ],
      [
        "▁titeln",
        -10.081944611761514
      ],
      [
        "▁världen.",
        -10.082071873469728
      ],
      [
        "▁stockholm",
        -10.082161180621036
      ],
      [
        "▁pågår",
        -10.082215729549636
      ],
      [
        "▁Björn",
        -10.082469078084518
      ],
      [
        "▁fisk",
        -10.083164082970335
      ],
      [
        "ella",
        -10.085207269491358
      ],
      [
        "▁mode",
        -10.085297133680195
      ],
      [
        "▁ställe",
        -10.08576680631545
      ],
      [
        "▁undan",
        -10.085794586402713
      ],
      [
        "▁stjärnor",
        -10.087081856557495
      ],
      [
        "▁ro",
        -10.087120786238401
      ],
      [
        "▁svarar",
        -10.087281833973552
      ],
      [
        "▁with",
        -10.087424656023368
      ],
      [
        "▁kombination",
        -10.087436881564834
      ],
      [
        "ades",
        -10.087936699544999
      ],
      [
        "▁makt",
        -10.088207624566742
      ],
      [
        "mm",
        -10.088729147423892
      ],
      [
        "▁fa",
        -10.088839221763081
      ],
      [
        "▁herr",
        -10.088962078768253
      ],
      [
        "▁driver",
        -10.08971019193955
      ],
      [
        "▁öppnar",
        -10.089848431501956
      ],
      [
        "19",
        -10.090328456836758
      ],
      [
        "▁minskar",
        -10.093462239783333
      ],
      [
        "▁kök",
        -10.094658692239717
      ],
      [
        "▁priserna",
        -10.095222966842503
      ],
      [
        "▁ämnen",
        -10.095992943821548
      ],
      [
        "▁kött",
        -10.096329490432202
      ],
      [
        "▁alkohol",
        -10.096393926776186
      ],
      [
        "▁resa.",
        -10.096775893643455
      ],
      [
        "Vilket",
        -10.096814905910797
      ],
      [
        "ro",
        -10.09762647183931
      ],
      [
        "sten",
        -10.097825829191784
      ],
      [
        "▁valet",
        -10.09787669958533
      ],
      [
        "▁grundläggande",
        -10.098571710499503
      ],
      [
        "ingen",
        -10.099056603578596
      ],
      [
        "▁startar",
        -10.099288815134992
      ],
      [
        "pris",
        -10.099650505846961
      ],
      [
        "▁Dom",
        -10.099800690881052
      ],
      [
        "▁tecken",
        -10.10024876707534
      ],
      [
        "▁Nord",
        -10.10082003529199
      ],
      [
        "▁Ö",
        -10.100989757595704
      ],
      [
        "▁situation",
        -10.103371927075955
      ],
      [
        "▁inkomst",
        -10.103830730521327
      ],
      [
        "▁utsikt",
        -10.103901267484034
      ],
      [
        "Något",
        -10.104114472162665
      ],
      [
        "▁Y",
        -10.104344325147606
      ],
      [
        "ken",
        -10.104459075837491
      ],
      [
        "▁orsaka",
        -10.104492935493212
      ],
      [
        "▁katt",
        -10.104608086507909
      ],
      [
        "▁rädd",
        -10.104787260924102
      ],
      [
        "▁Del",
        -10.104910270386174
      ],
      [
        "▁springa",
        -10.105003178510803
      ],
      [
        "▁etc.",
        -10.105100920989681
      ],
      [
        "▁Tyskland",
        -10.105187470986657
      ],
      [
        "▁hål",
        -10.105738204841895
      ],
      [
        "▁funnits",
        -10.10574348323877
      ],
      [
        "▁längst",
        -10.10609914470561
      ],
      [
        "▁SVT",
        -10.106329398722279
      ],
      [
        "▁driva",
        -10.106616443017526
      ],
      [
        "▁privata",
        -10.10701618599721
      ],
      [
        "▁Innan",
        -10.107345537681567
      ],
      [
        "▁genomföra",
        -10.107511879481338
      ],
      [
        "▁fallet",
        -10.108082565829193
      ],
      [
        "▁$",
        -10.108321793926825
      ],
      [
        "▁underbara",
        -10.109502154792827
      ],
      [
        "▁Nilsson",
        -10.109611272908284
      ],
      [
        "18",
        -10.110973819164618
      ],
      [
        "Jag",
        -10.111604565694027
      ],
      [
        "▁positiv",
        -10.111884079572205
      ],
      [
        "varken",
        -10.11229635031848
      ],
      [
        "▁göras",
        -10.112577776470829
      ],
      [
        "▁kallar",
        -10.112782580050027
      ],
      [
        "▁filmer",
        -10.113169282751482
      ],
      [
        "▁oro",
        -10.11320895748931
      ],
      [
        "▁förändringar",
        -10.113371697485652
      ],
      [
        "▁David",
        -10.114356322098699
      ],
      [
        "▁medier",
        -10.114363341017713
      ],
      [
        "ce",
        -10.115008534614205
      ],
      [
        "▁Dagens",
        -10.115431573900906
      ],
      [
        "▁analys",
        -10.11551433290454
      ],
      [
        "ion",
        -10.115683684395666
      ],
      [
        "▁nationella",
        -10.116153991369554
      ],
      [
        "▁fot",
        -10.117375590576954
      ],
      [
        "▁Mina",
        -10.117395003930236
      ],
      [
        "nar",
        -10.117923260758438
      ],
      [
        "▁utnyttja",
        -10.117932012912954
      ],
      [
        "arna.",
        -10.117983482349624
      ],
      [
        "bjöd",
        -10.118223572704373
      ],
      [
        "▁svarade",
        -10.118321831123396
      ],
      [
        "▁framförallt",
        -10.118634026774417
      ],
      [
        "▁stycken",
        -10.119732944436922
      ],
      [
        "▁tekniska",
        -10.119748032859562
      ],
      [
        "▁Någon",
        -10.119839470913272
      ],
      [
        "▁glada",
        -10.119958365206724
      ],
      [
        "upp",
        -10.120990613636796
      ],
      [
        "▁punkt",
        -10.121309079955207
      ],
      [
        "▁fira",
        -10.12151106261894
      ],
      [
        "skolan",
        -10.121817391593147
      ],
      [
        "▁ledare",
        -10.122621026932887
      ],
      [
        ".se/",
        -10.123347208886852
      ],
      [
        "▁svarta",
        -10.123767046926634
      ],
      [
        "▁snabbare",
        -10.123869504735511
      ],
      [
        "▁jakt",
        -10.124271773706457
      ],
      [
        "▁dans",
        -10.125873243736029
      ],
      [
        "▁behövde",
        -10.125979719850468
      ],
      [
        "▁hävda",
        -10.126465206763672
      ],
      [
        "▁Sex",
        -10.12673371128599
      ],
      [
        "ring",
        -10.127095507717426
      ],
      [
        "▁unik",
        -10.127211780999454
      ],
      [
        "▁fakta",
        -10.12771215993693
      ],
      [
        "▁Aktiebolag",
        -10.127925554790481
      ],
      [
        "▁vackert",
        -10.127995637707508
      ],
      [
        "ation",
        -10.12837331798048
      ],
      [
        "bok",
        -10.1290541719008
      ],
      [
        "▁användare",
        -10.129090223798581
      ],
      [
        "▁positivt",
        -10.129836141789669
      ],
      [
        "▁Jonas",
        -10.130038084817704
      ],
      [
        "▁avsluta",
        -10.130122246839067
      ],
      [
        "▁Super",
        -10.13165161155134
      ],
      [
        "▁Hela",
        -10.131741368773472
      ],
      [
        "▁aktivt",
        -10.133322744764197
      ],
      [
        "▁öl",
        -10.13364642825715
      ],
      [
        "▁mig,",
        -10.133806987788214
      ],
      [
        "▁havet",
        -10.133891697510501
      ],
      [
        "▁kapital",
        -10.133982049429953
      ],
      [
        "▁tycka",
        -10.134833482922708
      ],
      [
        "▁flertal",
        -10.135055906272049
      ],
      [
        "▁funktioner",
        -10.135188809115856
      ],
      [
        "▁utrymme",
        -10.135435541132335
      ],
      [
        "▁choklad",
        -10.13543860328693
      ],
      [
        "▁skaffa",
        -10.135825545249972
      ],
      [
        "▁kunskaper",
        -10.13658225847243
      ],
      [
        "▁föreningen",
        -10.136780712719432
      ],
      [
        "▁sämre",
        -10.136868959471746
      ],
      [
        "ca",
        -10.136910186630384
      ],
      [
        "▁kap.",
        -10.136995593777446
      ],
      [
        "bil",
        -10.137166335627931
      ],
      [
        "5(",
        -10.137551792211926
      ],
      [
        "▁2006",
        -10.138345625792956
      ],
      [
        "▁fördel",
        -10.13884940801868
      ],
      [
        "▁Lag",
        -10.138990937837491
      ],
      [
        "▁John",
        -10.1391919963871
      ],
      [
        "▁positiva",
        -10.140679002317455
      ],
      [
        "▁snygga",
        -10.140826635225892
      ],
      [
        "▁dotter",
        -10.14100647746782
      ],
      [
        "▁gäng",
        -10.141327508497017
      ],
      [
        "möter",
        -10.141887526720884
      ],
      [
        "▁styrelsen",
        -10.142223219407215
      ],
      [
        "▁måndag",
        -10.143346578328426
      ],
      [
        "▁gruppen",
        -10.143417423912574
      ],
      [
        "▁kompis",
        -10.144309811434475
      ],
      [
        "▁underbar",
        -10.14446282297125
      ],
      [
        "verifierade",
        -10.144668705921909
      ],
      [
        "▁tåg",
        -10.144707952123527
      ],
      [
        "▁erbjuds",
        -10.145252007649166
      ],
      [
        "11",
        -10.145526783010377
      ],
      [
        "▁Ge",
        -10.145650486280598
      ],
      [
        "▁fart",
        -10.146093779022525
      ],
      [
        "▁led",
        -10.146769979616593
      ],
      [
        "▁avgifter",
        -10.147285657396717
      ],
      [
        "▁jobbat",
        -10.147349709953508
      ],
      [
        "▁sjukhus",
        -10.14739647412859
      ],
      [
        "▁djup",
        -10.147789844812579
      ],
      [
        "▁lugnt",
        -10.148127228553466
      ],
      [
        "▁växa",
        -10.148195909638233
      ],
      [
        "liggande",
        -10.148684553040344
      ],
      [
        "▁snygg",
        -10.14922204133524
      ],
      [
        "▁illa",
        -10.149678538696305
      ],
      [
        "▁säg",
        -10.149679684512295
      ],
      [
        "▁Får",
        -10.149863965432846
      ],
      [
        "▁botten",
        -10.149869623154336
      ],
      [
        "dde",
        -10.149979324569761
      ],
      [
        "▁igen,",
        -10.150500126757953
      ],
      [
        "▁bio",
        -10.151027248507571
      ],
      [
        "▁32",
        -10.151504818697191
      ],
      [
        "företag",
        -10.151711763798913
      ],
      [
        "▁morgonen",
        -10.151885815114573
      ],
      [
        "▁leverans",
        -10.152863993596773
      ],
      [
        "▁unika",
        -10.153530437730277
      ],
      [
        "▁Jämför",
        -10.153637980738301
      ],
      [
        "▁sent",
        -10.153751768800566
      ],
      [
        "utveckling",
        -10.154704112812148
      ],
      [
        "skor",
        -10.155107695105556
      ],
      [
        "▁rakt",
        -10.155984170986814
      ],
      [
        "▁inre",
        -10.156022822083896
      ],
      [
        "hem",
        -10.156067425729788
      ],
      [
        "▁dröm",
        -10.156836868255244
      ],
      [
        "▁Bygg",
        -10.15684166086661
      ],
      [
        "▁Ju",
        -10.15690663287726
      ],
      [
        "▁band",
        -10.158124662457114
      ],
      [
        "▁förändring",
        -10.158461001842424
      ],
      [
        "▁idéer",
        -10.158462310054313
      ],
      [
        "▁resurser",
        -10.158547891863805
      ],
      [
        "▁paket",
        -10.15856770459594
      ],
      [
        "sam",
        -10.158822168442653
      ],
      [
        "▁båt",
        -10.159282428370478
      ],
      [
        "▁Eva",
        -10.159610075309741
      ],
      [
        "▁mängder",
        -10.160133026398684
      ],
      [
        "▁spelat",
        -10.161062155981408
      ],
      [
        "verkade",
        -10.161142397020416
      ],
      [
        "▁värd",
        -10.162095407266404
      ],
      [
        "försökte",
        -10.162556652548123
      ],
      [
        "▁nödvändigt",
        -10.163275782153814
      ],
      [
        "▁St",
        -10.163702478872233
      ],
      [
        "▁ordet",
        -10.164020019769078
      ],
      [
        "▁gilla",
        -10.16407345084287
      ],
      [
        "▁Frankrike",
        -10.16451080294676
      ],
      [
        "▁förslag.",
        -10.165493910745475
      ],
      [
        "▁härliga",
        -10.165983539051963
      ],
      [
        "▁vända",
        -10.167335394491092
      ],
      [
        "▁process",
        -10.167896387331107
      ],
      [
        "▁4.",
        -10.16798816057534
      ],
      [
        "▁Stora",
        -10.168021449834729
      ],
      [
        "varande",
        -10.168183820443664
      ],
      [
        "per",
        -10.16893165077713
      ],
      [
        "bild",
        -10.169280527950814
      ],
      [
        "nsåg",
        -10.169388371369616
      ],
      [
        "▁hundar",
        -10.170200472866874
      ],
      [
        "▁Fri",
        -10.170528579363335
      ],
      [
        "▁tydlig",
        -10.171164018748941
      ],
      [
        "▁euro",
        -10.171169718300838
      ],
      [
        "▁ägare",
        -10.172073970675463
      ],
      [
        "rådet",
        -10.17221582765095
      ],
      [
        "pa",
        -10.173457833078684
      ],
      [
        "▁döda",
        -10.173465481277718
      ],
      [
        "▁billig",
        -10.173538028288785
      ],
      [
        "▁Sport",
        -10.174728955102832
      ],
      [
        "ast",
        -10.174729005503428
      ],
      [
        "▁syns",
        -10.1749901400242
      ],
      [
        "▁jorden",
        -10.175411411393652
      ],
      [
        "stående",
        -10.175501990844383
      ],
      [
        "▁socker",
        -10.175512496887517
      ],
      [
        "▁hittills",
        -10.176069111114156
      ],
      [
        "▁tillgänglig",
        -10.179053654425324
      ],
      [
        "▁Bild",
        -10.17905674933484
      ],
      [
        "▁Paris",
        -10.179631220517031
      ],
      [
        "▁problemet",
        -10.17981565155312
      ],
      [
        "▁butiker",
        -10.179994800469935
      ],
      [
        "▁upplevelse",
        -10.180541784677958
      ],
      [
        "▁aktier",
        -10.180779449940623
      ],
      [
        "▁Er",
        -10.180933150001112
      ],
      [
        "▁konstigt",
        -10.180982179722836
      ],
      [
        "▁serien",
        -10.181890480115829
      ],
      [
        "....",
        -10.182137338096886
      ],
      [
        "▁Miljö",
        -10.182481834845014
      ],
      [
        "▁extremt",
        -10.18321320392837
      ],
      [
        "plats",
        -10.183298213177839
      ],
      [
        "▁hundra",
        -10.183340652462679
      ],
      [
        "ledes",
        -10.185183725886722
      ],
      [
        "▁upplever",
        -10.185552240863116
      ],
      [
        "▁aning",
        -10.185572114481454
      ],
      [
        "▁träd",
        -10.18667893419834
      ],
      [
        "▁kvinnan",
        -10.186959641973315
      ],
      [
        "Både",
        -10.18715946952588
      ],
      [
        "▁buss",
        -10.187448646791399
      ],
      [
        "▁bära",
        -10.187704424357365
      ],
      [
        "▁sånt",
        -10.18839910477052
      ],
      [
        "stad",
        -10.189814944160185
      ],
      [
        "▁perioden",
        -10.190057756880414
      ],
      [
        "gått",
        -10.190265773063791
      ],
      [
        "▁säsong",
        -10.19044529885816
      ],
      [
        "▁läste",
        -10.190945796308467
      ],
      [
        "▁svåra",
        -10.191660313185599
      ],
      [
        "▁lågt",
        -10.19182265285911
      ],
      [
        "▁nyheter",
        -10.191830535534972
      ],
      [
        "gren",
        -10.191841459584767
      ],
      [
        "▁Kommer",
        -10.193067297204784
      ],
      [
        "Årets",
        -10.193067352254262
      ],
      [
        "▁medför",
        -10.19323037342918
      ],
      [
        "▁släppa",
        -10.193339451184004
      ],
      [
        "▁metoder",
        -10.19349227806701
      ],
      [
        "&",
        -10.194443005607868
      ],
      [
        "▁vuxen",
        -10.194568470591086
      ],
      [
        "▁granskar",
        -10.195633653944528
      ],
      [
        "▁korta",
        -10.19636954600342
      ],
      [
        "▁närvarande",
        -10.196660319166424
      ],
      [
        "▁hopp",
        -10.196737491446003
      ],
      [
        "▁slutar",
        -10.196980566411622
      ],
      [
        "▁ring",
        -10.197097244082885
      ],
      [
        "ver",
        -10.197267351932535
      ],
      [
        "▁låga",
        -10.197485869450386
      ],
      [
        "▁organisationer",
        -10.197763006532787
      ],
      [
        "framtida",
        -10.197902051876948
      ],
      [
        "▁08",
        -10.197982782595089
      ],
      [
        "Ja",
        -10.198124024311877
      ],
      [
        "▁mjuk",
        -10.198919733945791
      ],
      [
        "▁Mo",
        -10.198948010644488
      ],
      [
        "▁Magnus",
        -10.199034120279753
      ],
      [
        "▁(S",
        -10.199249788623804
      ],
      [
        "▁metod",
        -10.199265309811148
      ],
      [
        "▁bry",
        -10.19962568163086
      ],
      [
        "▁ordentligt",
        -10.199781839665716
      ],
      [
        "▁detaljer",
        -10.20080869986808
      ],
      [
        "som",
        -10.201315028801986
      ],
      [
        "▁skapat",
        -10.201417139083535
      ],
      [
        "▁resan",
        -10.201680679703236
      ],
      [
        "erat",
        -10.201949019489932
      ],
      [
        "▁intressanta",
        -10.202022059389845
      ],
      [
        "resa",
        -10.202596171597852
      ],
      [
        "▁drift",
        -10.202738352776878
      ],
      [
        "pass",
        -10.203080708538312
      ],
      [
        "▁Sverige,",
        -10.203602122947105
      ],
      [
        "▁vila",
        -10.204430635969324
      ],
      [
        "▁badrum",
        -10.204644707004908
      ],
      [
        "▁Helt",
        -10.205358907628911
      ],
      [
        "▁kunden",
        -10.206571091657839
      ],
      [
        "▁dricka",
        -10.206576069184004
      ],
      [
        "are.",
        -10.206895144547007
      ],
      [
        "hunnit",
        -10.207151516434767
      ],
      [
        "▁blommor",
        -10.207222991181755
      ],
      [
        "▁erfarenheter",
        -10.207785678843804
      ],
      [
        "▁nio",
        -10.20834462156395
      ],
      [
        "lösa",
        -10.208642774413695
      ],
      [
        "X",
        -10.209058938913874
      ],
      [
        "▁No",
        -10.2093571566433
      ],
      [
        "ant",
        -10.209457476281212
      ],
      [
        "▁vd",
        -10.210634398221767
      ],
      [
        "▁enhet",
        -10.210797918565035
      ],
      [
        "▁klubb",
        -10.212057668314651
      ],
      [
        "▁tanken",
        -10.212503195484054
      ],
      [
        "bart",
        -10.212673924890858
      ],
      [
        "’",
        -10.21267486975203
      ],
      [
        "▁webbplatsen",
        -10.213381075968774
      ],
      [
        "andet",
        -10.213504523334958
      ],
      [
        "ry",
        -10.213905188563249
      ],
      [
        "▁det?",
        -10.213933461088768
      ],
      [
        "▁stoppa",
        -10.214041446063785
      ],
      [
        "▁systemet",
        -10.21432701001943
      ],
      [
        "▁frakt",
        -10.214573948387171
      ],
      [
        "▁originalet",
        -10.215435889940219
      ],
      [
        "▁singlar",
        -10.215469156585234
      ],
      [
        "▁skatt",
        -10.215801410881287
      ],
      [
        "▁Vårt",
        -10.216205701527624
      ],
      [
        "je",
        -10.216529900908649
      ],
      [
        "▁Västra",
        -10.217047832592044
      ],
      [
        "▁fest",
        -10.21743436731966
      ],
      [
        "▁människan",
        -10.217456251524329
      ],
      [
        "tur",
        -10.217673004805253
      ],
      [
        "▁pro",
        -10.217916440381325
      ],
      [
        "mark",
        -10.218349845162155
      ],
      [
        "▁varandra.",
        -10.218458587237276
      ],
      [
        "▁Spel",
        -10.218529511498883
      ],
      [
        "förbundet",
        -10.218530833145927
      ],
      [
        "▁offentliga",
        -10.219269352425494
      ],
      [
        "16",
        -10.219346699868872
      ],
      [
        "▁hälften",
        -10.219499791472485
      ],
      [
        "▁nere",
        -10.220027407092001
      ],
      [
        "▁Windows",
        -10.220159886002488
      ],
      [
        "▁våga",
        -10.220346736774745
      ],
      [
        "▁möten",
        -10.220948793863851
      ],
      [
        "▁rygg",
        -10.221132649510992
      ],
      [
        "▁familje",
        -10.221990308418823
      ],
      [
        "▁artiklar",
        -10.222139999513656
      ],
      [
        "▁Nyheter",
        -10.22216737174968
      ],
      [
        "▁rolig",
        -10.222338436028886
      ],
      [
        "▁team",
        -10.22261091099576
      ],
      [
        "▁syft",
        -10.222686676668488
      ],
      [
        "▁dokument",
        -10.222791457175301
      ],
      [
        "▁nät",
        -10.22290323355316
      ],
      [
        "▁tillfälle",
        -10.223278193419185
      ],
      [
        "=",
        -10.223509696849408
      ],
      [
        "▁gröna",
        -10.22364672207993
      ],
      [
        "▁håret",
        -10.223884567203402
      ],
      [
        "slag",
        -10.224193373308005
      ],
      [
        "▁tider",
        -10.224545886435857
      ],
      [
        "▁forskare",
        -10.226157727290847
      ],
      [
        "▁riktiga",
        -10.226387171454366
      ],
      [
        "▁färdig",
        -10.22640617161606
      ],
      [
        "▁klubben",
        -10.226808725683105
      ],
      [
        "band",
        -10.227034633977947
      ],
      [
        "▁undersökning",
        -10.227583298103376
      ],
      [
        "▁fokusera",
        -10.227663572945048
      ],
      [
        "its",
        -10.228467481762296
      ],
      [
        "▁bostäder",
        -10.228585242283735
      ],
      [
        "▁effektivt",
        -10.22859374706226
      ],
      [
        "Förbättra",
        -10.228976801932857
      ],
      [
        "ol",
        -10.229216754166806
      ],
      [
        "▁Larsson",
        -10.229501950921476
      ],
      [
        "▁reklam",
        -10.229618554048994
      ],
      [
        "Annars",
        -10.229980945023028
      ],
      [
        "▁växt",
        -10.230371950386932
      ],
      [
        "▁vitt",
        -10.230668278826165
      ],
      [
        "▁skriv",
        -10.231164765318736
      ],
      [
        "▁EU-",
        -10.231204304050221
      ],
      [
        "▁bilderna",
        -10.231334489390298
      ],
      [
        "▁tydligen",
        -10.231535271757732
      ],
      [
        "▁garantera",
        -10.232159025780646
      ],
      [
        "▁utomhus",
        -10.232380519452501
      ],
      [
        "▁magen",
        -10.232476530975898
      ],
      [
        "▁nu,",
        -10.234165932699952
      ],
      [
        "▁toppen",
        -10.235004262386065
      ],
      [
        "▁faktum",
        -10.235326510509367
      ],
      [
        "▁känslor",
        -10.235362323763425
      ],
      [
        "▁kontor",
        -10.235613730461163
      ],
      [
        "▁välkommen",
        -10.235661611271464
      ],
      [
        "Flera",
        -10.236134032170222
      ],
      [
        "Bolaget",
        -10.236562243391266
      ],
      [
        "ord",
        -10.236577681685803
      ],
      [
        "▁150",
        -10.237569300822953
      ],
      [
        "▁Berg",
        -10.238394789703628
      ],
      [
        "▁naturen",
        -10.238419007975338
      ],
      [
        "▁nätverk",
        -10.238766807805312
      ],
      [
        "rätt",
        -10.239095049142238
      ],
      [
        "▁pdf",
        -10.239669698819778
      ],
      [
        "▁produkten",
        -10.23986686843916
      ],
      [
        "▁webbplatser",
        -10.240371736204123
      ],
      [
        "▁orkar",
        -10.24156163613904
      ],
      [
        "▁hinner",
        -10.241653856574722
      ],
      [
        "▁sväng",
        -10.24195757828803
      ],
      [
        "▁straff",
        -10.241969836539647
      ],
      [
        "pga",
        -10.242188507858183
      ],
      [
        "Y",
        -10.24235814822572
      ],
      [
        "ret",
        -10.24240746605178
      ],
      [
        "▁känslan",
        -10.244047976584682
      ],
      [
        "▁varor",
        -10.24406090661816
      ],
      [
        "▁2000",
        -10.244232020178972
      ],
      [
        "▁personuppgifter",
        -10.24438684368877
      ],
      [
        "▁vinner",
        -10.244482210007416
      ],
      [
        "▁naturligt",
        -10.244548502228472
      ],
      [
        "▁aktiva",
        -10.244983184406852
      ],
      [
        "▁erbjudande",
        -10.245574882968622
      ],
      [
        "baserade",
        -10.245897951938238
      ],
      [
        "visat",
        -10.245933087211384
      ],
      [
        "▁däck",
        -10.246684274567185
      ],
      [
        "ny",
        -10.248172000795332
      ],
      [
        "▁definitivt",
        -10.248742365674307
      ],
      [
        "▁grunden",
        -10.248783794615226
      ],
      [
        "vård",
        -10.249366225441754
      ],
      [
        "▁maten",
        -10.249473991733845
      ],
      [
        "information",
        -10.250102905296757
      ],
      [
        "▁variera",
        -10.250147005152124
      ],
      [
        "desto",
        -10.250641932596581
      ],
      [
        "▁rosa",
        -10.250696245088404
      ],
      [
        "▁bestämma",
        -10.251184363270081
      ],
      [
        "föreningen",
        -10.251402019264084
      ],
      [
        ".”",
        -10.251891290285208
      ],
      [
        "service",
        -10.25204165843795
      ],
      [
        "▁sko",
        -10.252319623039657
      ],
      [
        "▁världs",
        -10.252422211836029
      ],
      [
        "▁ungdoms",
        -10.252585464289385
      ],
      [
        "▁insatser",
        -10.253015171234523
      ],
      [
        "▁2017.",
        -10.253173717306966
      ],
      [
        "▁relation",
        -10.253267847715968
      ],
      [
        "utöver",
        -10.253493257418711
      ],
      [
        "▁idag,",
        -10.254396076985595
      ],
      [
        "▁aktiv",
        -10.255528863995952
      ],
      [
        "▁arrangera",
        -10.255703138070368
      ],
      [
        "▁Thomas",
        -10.25576575284358
      ],
      [
        "▁Danmark",
        -10.255820632978404
      ],
      [
        "▁allmän",
        -10.256180899791284
      ],
      [
        "▁Go",
        -10.256690054465091
      ],
      [
        "▁kommunikation",
        -10.257353003384555
      ],
      [
        "▁Sol",
        -10.257423801999389
      ],
      [
        "▁sjukt",
        -10.257898566818296
      ],
      [
        "rna",
        -10.258592875174806
      ],
      [
        "Därefter",
        -10.258765794711195
      ],
      [
        "▁politik",
        -10.25901040772447
      ],
      [
        "▁salt",
        -10.259085543403517
      ],
      [
        "▁:-)",
        -10.259192682766825
      ],
      [
        "▁Mar",
        -10.259278725958467
      ],
      [
        "▁bred",
        -10.259577593049999
      ],
      [
        "▁total",
        -10.25965256837318
      ],
      [
        "▁överens",
        -10.259778045296303
      ],
      [
        "▁linje",
        -10.259867904273184
      ],
      [
        "▁Kontakta",
        -10.259905763406316
      ],
      [
        "skiljer",
        -10.260270090181967
      ],
      [
        "▁Ca",
        -10.260420640794496
      ],
      [
        "▁mått",
        -10.260714508553306
      ],
      [
        "▁Tillväxt",
        -10.260837870198781
      ],
      [
        "▁bevis",
        -10.261063461135763
      ],
      [
        "▁förrän",
        -10.261115054985929
      ],
      [
        "▁Region",
        -10.261326337473552
      ],
      [
        "▁flyttade",
        -10.261350772652134
      ],
      [
        "▁sikt",
        -10.261355009559871
      ],
      [
        "▁skogen",
        -10.261636755376259
      ],
      [
        "▁za",
        -10.261699227629926
      ],
      [
        "17",
        -10.262438127640984
      ],
      [
        "▁Karl",
        -10.262441694321724
      ],
      [
        "▁inspiration",
        -10.262726371872066
      ],
      [
        "▁anges",
        -10.263159894745858
      ],
      [
        "lagen",
        -10.263162550518391
      ],
      [
        "▁städer",
        -10.263192830524883
      ],
      [
        "▁FÖR",
        -10.26536584772521
      ],
      [
        "▁bra,",
        -10.265892761799972
      ],
      [
        "slagen",
        -10.265936400909032
      ],
      [
        "▁version",
        -10.265952227814717
      ],
      [
        "klassiska",
        -10.266160025111368
      ],
      [
        "▁mönster",
        -10.266291582954903
      ],
      [
        "▁Sten",
        -10.267611544036773
      ],
      [
        "▁gemensamt",
        -10.267854855468999
      ],
      [
        "▁radio",
        -10.268532291403687
      ],
      [
        "▁bröd",
        -10.268845050778975
      ],
      [
        "▁Göteborgs",
        -10.268933970411027
      ],
      [
        "kar",
        -10.270071760402786
      ],
      [
        "skrevs",
        -10.270677443385381
      ],
      [
        "▁fria",
        -10.270759511220856
      ],
      [
        "södra",
        -10.270804639836816
      ],
      [
        "gar",
        -10.271252483229004
      ],
      [
        "▁Kalmar",
        -10.272096311379618
      ],
      [
        "ts.",
        -10.272239077579732
      ],
      [
        "▁levande",
        -10.272378024288685
      ],
      [
        "▁frågade",
        -10.272510240129037
      ],
      [
        "▁fordon",
        -10.272773854340173
      ],
      [
        "hörde",
        -10.272939400504173
      ],
      [
        "vanligaste",
        -10.274006590957795
      ],
      [
        "▁brand",
        -10.274435757444317
      ],
      [
        "▁tränings",
        -10.274574708645643
      ],
      [
        "▁rätta",
        -10.274974714220612
      ],
      [
        "▁brett",
        -10.275153504508314
      ],
      [
        "▁di",
        -10.275220052354275
      ],
      [
        "väg",
        -10.275657082314368
      ],
      [
        "▁karriär",
        -10.275741341278128
      ],
      [
        "Dålig",
        -10.27627151157723
      ],
      [
        "▁laga",
        -10.276897584864347
      ],
      [
        "▁sms",
        -10.276916628565399
      ],
      [
        "▁sök",
        -10.277424637998795
      ],
      [
        "▁motor",
        -10.277863252105794
      ],
      [
        "▁särskild",
        -10.278602796054606
      ],
      [
        "verk",
        -10.279159228479257
      ],
      [
        "▁400",
        -10.279497299796448
      ],
      [
        "▁golv",
        -10.279505150309262
      ],
      [
        "▁säng",
        -10.279888182924319
      ],
      [
        "baserat",
        -10.281175535713647
      ],
      [
        "▁fjärde",
        -10.2819687822066
      ],
      [
        "ko",
        -10.28247587572997
      ],
      [
        "▁tyska",
        -10.282726343624647
      ],
      [
        "Visa",
        -10.283284430874495
      ],
      [
        "▁tränar",
        -10.2833124668995
      ],
      [
        "▁Ladda",
        -10.283319358362188
      ],
      [
        "▁Black",
        -10.284746373182381
      ],
      [
        "▁Val",
        -10.285014650896043
      ],
      [
        "▁Fler",
        -10.285645265073386
      ],
      [
        "▁kost",
        -10.285804578439118
      ],
      [
        "▁lek",
        -10.285994600947996
      ],
      [
        "▁Jesus",
        -10.286285733357701
      ],
      [
        "▁fru",
        -10.286362725651887
      ],
      [
        "▁van",
        -10.286459218167572
      ],
      [
        "baserad",
        -10.28679981315375
      ],
      [
        "▁träffar",
        -10.287200322096869
      ],
      [
        "▁frisk",
        -10.287234933642491
      ],
      [
        "▁förut",
        -10.287526858078055
      ],
      [
        "▁Mikael",
        -10.28760391866548
      ],
      [
        "▁hem.",
        -10.287721997778695
      ],
      [
        "▁hände",
        -10.288496704643546
      ],
      [
        "▁Kultur",
        -10.289099903605559
      ],
      [
        "bolag",
        -10.289800459519487
      ],
      [
        "hänger",
        -10.289986337230758
      ],
      [
        "▁styrka",
        -10.29000628206004
      ],
      [
        "▁e-post",
        -10.290196583286859
      ],
      [
        "▁omedelbart",
        -10.290609956329755
      ],
      [
        "▁36",
        -10.290659200923363
      ],
      [
        "▁procent.",
        -10.291129863823096
      ],
      [
        "▁totala",
        -10.291539098353155
      ],
      [
        "▁kallad",
        -10.291736808770404
      ],
      [
        "vatten",
        -10.29177558676962
      ],
      [
        "▁vapen",
        -10.292510858634246
      ],
      [
        "▁webb",
        -10.293033249427102
      ],
      [
        "▁gas",
        -10.293570717860046
      ],
      [
        "▁100%",
        -10.294195031068893
      ],
      [
        "▁dagen.",
        -10.294274911840775
      ],
      [
        "▁seger",
        -10.294612510254101
      ],
      [
        "mål",
        -10.294914217193716
      ],
      [
        "▁verksamheter",
        -10.294977392120167
      ],
      [
        "▁regel",
        -10.295469089045291
      ],
      [
        "▁korrekt",
        -10.295661822083842
      ],
      [
        "▁takt",
        -10.295847975533706
      ],
      [
        "▁pratade",
        -10.296519393338357
      ],
      [
        "▁af",
        -10.296530208378066
      ],
      [
        "▁former",
        -10.297537331098326
      ],
      [
        "nivå",
        -10.297615191091516
      ],
      [
        "slipper",
        -10.298078722760952
      ],
      [
        "området",
        -10.298358200516873
      ],
      [
        "▁anslutning",
        -10.299097156173607
      ],
      [
        "▁Ser",
        -10.299172558232712
      ],
      [
        "▁tidningen",
        -10.300086036147876
      ],
      [
        "▁nämn",
        -10.300209139586766
      ],
      [
        "▁återg",
        -10.300782835993981
      ],
      [
        "▁inled",
        -10.301125706048884
      ],
      [
        "▁naturliga",
        -10.301426624550528
      ],
      [
        "vänder",
        -10.301450764767713
      ],
      [
        "▁fl",
        -10.301692276233254
      ],
      [
        "▁tjäna",
        -10.302194043083817
      ],
      [
        "finansiella",
        -10.30228510069955
      ],
      [
        "tes",
        -10.302560984748203
      ],
      [
        "▁industri",
        -10.303119858050442
      ],
      [
        "enskilda",
        -10.303175218363796
      ],
      [
        "▁andel",
        -10.303813553278477
      ],
      [
        "vid",
        -10.303905150915043
      ],
      [
        "▁företags",
        -10.304349963391534
      ],
      [
        "arbete",
        -10.304750596096788
      ],
      [
        "▁profil",
        -10.306156369677161
      ],
      [
        "▁hänga",
        -10.306988479035267
      ],
      [
        "▁vind",
        -10.307196277532151
      ],
      [
        "▁Namn:",
        -10.307362573308453
      ],
      [
        "▁bättre.",
        -10.308150585756058
      ],
      [
        "liv",
        -10.308492443053538
      ],
      [
        "▁höjd",
        -10.308526532976575
      ],
      [
        "▁ber",
        -10.30901594628176
      ],
      [
        "▁förekommer",
        -10.309057626463238
      ],
      [
        "▁fördelar",
        -10.309094723161778
      ],
      [
        "▁personalen",
        -10.309115623729701
      ],
      [
        "▁myndigheter",
        -10.309826925955047
      ],
      [
        "▁hoppa",
        -10.31099830209101
      ],
      [
        "▁översättningen",
        -10.311610178273275
      ],
      [
        "▁länk",
        -10.311724835052912
      ],
      [
        "else",
        -10.311813365343866
      ],
      [
        "▁ställen",
        -10.312460641345128
      ],
      [
        "▁Italien",
        -10.312495962962316
      ],
      [
        "▁Tillsammans",
        -10.313123076932795
      ],
      [
        "▁gånger.",
        -10.31349377683483
      ],
      [
        "▁grön",
        -10.313807387840265
      ],
      [
        "▁osv.",
        -10.31381717543304
      ],
      [
        "▁dubbel",
        -10.31400488636256
      ],
      [
        "▁resor",
        -10.3141960619649
      ],
      [
        "lös",
        -10.314479390905348
      ],
      [
        "▁skuld",
        -10.3145726057324
      ],
      [
        "▁göteborg",
        -10.314692586798028
      ],
      [
        "och/eller",
        -10.314876788488931
      ],
      [
        "len",
        -10.31526913185227
      ],
      [
        "▁mötet",
        -10.316206329732172
      ],
      [
        "▁månaden",
        -10.3168647229118
      ],
      [
        "▁rese",
        -10.316924757423925
      ],
      [
        "▁kostnad",
        -10.31696242378269
      ],
      [
        "▁09",
        -10.317017335082257
      ],
      [
        "▁producera",
        -10.317486273123482
      ],
      [
        "▁Totalt",
        -10.317850847856063
      ],
      [
        "▁fotboll",
        -10.318115940544208
      ],
      [
        "rar",
        -10.318901949648428
      ],
      [
        "▁Inom",
        -10.31900596444889
      ],
      [
        "én",
        -10.319219369701258
      ],
      [
        "▁tillverkare",
        -10.319232027284922
      ],
      [
        "▁Precis",
        -10.319409657158124
      ],
      [
        "material",
        -10.319437547936046
      ],
      [
        "▁lyfta",
        -10.320257014989151
      ],
      [
        "lades",
        -10.3202651666198
      ],
      [
        "▁grå",
        -10.320406441267018
      ],
      [
        "▁fritt",
        -10.320673217936202
      ],
      [
        "▁Beach",
        -10.320729965276936
      ],
      [
        "▁syster",
        -10.321044834735009
      ],
      [
        "▁Kort",
        -10.321171324049677
      ],
      [
        "▁smart",
        -10.32178092996152
      ],
      [
        "▁leverera",
        -10.321785877706564
      ],
      [
        "▁modeller",
        -10.322237854887181
      ],
      [
        "▁silver",
        -10.323078069872205
      ],
      [
        "erar",
        -10.323112175260356
      ],
      [
        "ala",
        -10.323261428973659
      ],
      [
        "Vikt:",
        -10.32371953995156
      ],
      [
        "?Tack",
        -10.324459657205708
      ],
      [
        "▁aktörer",
        -10.324769876316497
      ],
      [
        "tor",
        -10.324994388239944
      ],
      [
        "▁omfatta",
        -10.3251246769621
      ],
      [
        "ine",
        -10.32526303331315
      ],
      [
        "Oavsett",
        -10.325280999577501
      ],
      [
        "▁värsta",
        -10.325444464274492
      ],
      [
        "▁stärka",
        -10.325669759924308
      ],
      [
        "▁försökt",
        -10.325804808228812
      ],
      [
        "▁dagar.",
        -10.32587661478809
      ],
      [
        "har",
        -10.326203663875344
      ],
      [
        "▁trygghet",
        -10.327978528983738
      ],
      [
        "▁skatte",
        -10.328288575172886
      ],
      [
        "▁stål",
        -10.328431244502555
      ],
      [
        "▁tillfällen",
        -10.32844236360646
      ],
      [
        "▁balans",
        -10.328602195976504
      ],
      [
        "▁behålla",
        -10.329068964726451
      ],
      [
        "rik",
        -10.32940702537084
      ],
      [
        "▁statistik",
        -10.330084655264383
      ],
      [
        "▁ekonomisk",
        -10.330130682932724
      ],
      [
        "▁hälso",
        -10.330845256221009
      ],
      [
        "▁spendera",
        -10.331127653659022
      ],
      [
        "▁33",
        -10.33133623503576
      ],
      [
        "▁mening",
        -10.332015892723584
      ],
      [
        "▁Henrik",
        -10.332418984074335
      ],
      [
        "▁året.",
        -10.33335566196812
      ],
      [
        "▁räknas",
        -10.333440335141198
      ],
      [
        "Utcheckning",
        -10.333808293136789
      ],
      [
        "▁skapade",
        -10.333947593216267
      ],
      [
        "▁uppstår",
        -10.334002664750017
      ],
      [
        "tiden",
        -10.334673851830981
      ],
      [
        "▁nöjda",
        -10.334714454484624
      ],
      [
        "▁Sa",
        -10.335013846176334
      ],
      [
        "▁fika",
        -10.33505230822124
      ],
      [
        "24",
        -10.335362988128526
      ],
      [
        "▁artikeln",
        -10.336712018295147
      ],
      [
        "▁röra",
        -10.336790251879506
      ],
      [
        "▁kraftigt",
        -10.336803574023074
      ],
      [
        "▁lät",
        -10.337184828861025
      ],
      [
        "▁Bar",
        -10.337222187843542
      ],
      [
        "▁kg",
        -10.337667200606283
      ],
      [
        "▁Utan",
        -10.337893652260963
      ],
      [
        "▁leverantörer",
        -10.337912775643105
      ],
      [
        "▁Karin",
        -10.338697739887571
      ],
      [
        "▁Fick",
        -10.33882352987362
      ],
      [
        "OCH",
        -10.338909183822539
      ],
      [
        "▁2005",
        -10.339106824051713
      ],
      [
        "▁hunden",
        -10.339466119381305
      ],
      [
        "▁mor",
        -10.339544544596032
      ],
      [
        "▁me",
        -10.340354235160307
      ],
      [
        "▁Persson",
        -10.341191007348103
      ],
      [
        "(eller",
        -10.34133053122493
      ],
      [
        "▁effektiv",
        -10.341391971690982
      ],
      [
        "▁album",
        -10.341892646014937
      ],
      [
        "▁skolor",
        -10.342434367889062
      ],
      [
        "Tror",
        -10.342527335909535
      ],
      [
        "ven",
        -10.34296832504441
      ],
      [
        "▁sjö",
        -10.343508340161124
      ],
      [
        "▁perspektiv",
        -10.343662931452267
      ],
      [
        "▁Svart",
        -10.343706778234623
      ],
      [
        "▁livs",
        -10.344519656469961
      ],
      [
        "▁läget",
        -10.34466506550674
      ],
      [
        "▁Mats",
        -10.34468054007173
      ],
      [
        "▁urval",
        -10.345023823907823
      ],
      [
        "heten",
        -10.34563545981233
      ],
      [
        "kändes",
        -10.345715706773639
      ],
      [
        "▁träffade",
        -10.34626083565083
      ],
      [
        "▁parkering",
        -10.346269408652146
      ],
      [
        "▁sängen",
        -10.347932135080137
      ],
      [
        "▁rörelse",
        -10.348270007316362
      ],
      [
        "▁framtid",
        -10.348431615736464
      ],
      [
        "▁agera",
        -10.34853467659583
      ],
      [
        "▁bestämmer",
        -10.349134542568487
      ],
      [
        "▁enorm",
        -10.349485804002946
      ],
      [
        "▁komplett",
        -10.349946056067058
      ],
      [
        "▁planerar",
        -10.350396754182826
      ],
      [
        "▁Lo",
        -10.351159444864145
      ],
      [
        "▁planer",
        -10.351392306195928
      ],
      [
        "Z",
        -10.351646821714192
      ],
      [
        "tvungen",
        -10.352305394013326
      ],
      [
        "▁söder",
        -10.352333307585257
      ],
      [
        "▁marknads",
        -10.35238756219103
      ],
      [
        "du",
        -10.352707639037046
      ],
      [
        "▁hjärtat",
        -10.352806655449932
      ],
      [
        "▁ikväll",
        -10.353483893010681
      ],
      [
        "handlade",
        -10.353691538417511
      ],
      [
        "▁resultera",
        -10.35396571116999
      ],
      [
        "▁ränta",
        -10.354590201534657
      ],
      [
        "▁Apple",
        -10.355077052138007
      ],
      [
        "net",
        -10.355396132579706
      ],
      [
        "▁Tidigare",
        -10.356047573217065
      ],
      [
        "▁Billiga",
        -10.356055569579595
      ],
      [
        "▁undantag",
        -10.356511919607454
      ],
      [
        "▁kurser",
        -10.356573907031063
      ],
      [
        "go",
        -10.356669348912146
      ],
      [
        "▁ögonen",
        -10.357152107942616
      ],
      [
        "▁utrustning",
        -10.35840613120269
      ],
      [
        "▁tjänsten",
        -10.358915235487823
      ],
      [
        "▁lagom",
        -10.359242503675988
      ],
      [
        "na,",
        -10.3593505868157
      ],
      [
        "▁gäst",
        -10.360332908666043
      ],
      [
        "▁By",
        -10.36042867843602
      ],
      [
        "▁svårare",
        -10.36090768900709
      ],
      [
        "▁bredvid",
        -10.360958457421892
      ],
      [
        "▁Spanien",
        -10.361179064323307
      ],
      [
        "▁=)",
        -10.3614068994777
      ],
      [
        "når",
        -10.361422539026616
      ],
      [
        "▁synd",
        -10.361498251738398
      ],
      [
        "age",
        -10.36162965203286
      ],
      [
        "laget",
        -10.361700842122207
      ],
      [
        "gruppen",
        -10.36279321289606
      ],
      [
        "▁tids",
        -10.363190793053294
      ],
      [
        "▁vintern",
        -10.363246030670856
      ],
      [
        "tycks",
        -10.363457818092419
      ],
      [
        "▁deltagare",
        -10.363776260916968
      ],
      [
        "bestämde",
        -10.364124020425884
      ],
      [
        "▁kön",
        -10.36492840536046
      ],
      [
        "▁normal",
        -10.36505139176616
      ],
      [
        "▁Dating",
        -10.365051895354629
      ],
      [
        "▁killar",
        -10.365253816562193
      ],
      [
        "▁ledning",
        -10.365457419021228
      ],
      [
        "▁Herr",
        -10.365708895850709
      ],
      [
        "mar",
        -10.365770083138385
      ],
      [
        "▁kritik",
        -10.365859864344538
      ],
      [
        "▁situationen",
        -10.365918359180318
      ],
      [
        "▁faller",
        -10.366591843233454
      ],
      [
        "än",
        -10.366656582256017
      ],
      [
        "▁minsta",
        -10.367063350009827
      ],
      [
        "▁Q",
        -10.367238658754838
      ],
      [
        "▁skador",
        -10.367475967517104
      ],
      [
        "▁hjärta",
        -10.367493543587623
      ],
      [
        "▁Innehåll",
        -10.367854429841314
      ],
      [
        "▁uppfattning",
        -10.368250008327431
      ],
      [
        "sett",
        -10.368616885212155
      ],
      [
        "▁förklarar",
        -10.36881368396565
      ],
      [
        "▁tränare",
        -10.369687820782334
      ],
      [
        "lån",
        -10.369981396080634
      ],
      [
        "sjön",
        -10.370588166236143
      ],
      [
        "Q",
        -10.371073409826327
      ],
      [
        "Redan",
        -10.371136522941036
      ],
      [
        "▁jobbigt",
        -10.371643341598967
      ],
      [
        "bolaget",
        -10.371875554952593
      ],
      [
        "råd",
        -10.372194890781953
      ],
      [
        "itet",
        -10.372548432302674
      ],
      [
        "▁mm.",
        -10.373616376469043
      ],
      [
        "bodde",
        -10.37375429854803
      ],
      [
        "▁underbart",
        -10.374574254815922
      ],
      [
        "bra",
        -10.374742354755808
      ],
      [
        "▁förståelse",
        -10.374765999053393
      ],
      [
        "▁samverkan",
        -10.375242388017918
      ],
      [
        "▁papper",
        -10.37565493675077
      ],
      [
        "▁näst",
        -10.376042305288717
      ],
      [
        "▁inkluderar",
        -10.376295947524286
      ],
      [
        "vin",
        -10.37629609255081
      ],
      [
        "samma",
        -10.376679064857662
      ],
      [
        "▁Folk",
        -10.376934675262207
      ],
      [
        "▁lägg",
        -10.377091891781225
      ],
      [
        "▁vågar",
        -10.377183679099916
      ],
      [
        "▁köket",
        -10.37782033913874
      ],
      [
        "▁studera",
        -10.3779184114102
      ],
      [
        "▁dog",
        -10.378244173490527
      ],
      [
        "dla",
        -10.378759301820539
      ],
      [
        "▁ställning",
        -10.378839080367662
      ],
      [
        "▁saknas",
        -10.37907111436053
      ],
      [
        "mot",
        -10.379137179734927
      ],
      [
        "▁norra",
        -10.380015670708104
      ],
      [
        "föll",
        -10.380022209312726
      ],
      [
        "▁Ed",
        -10.380499200178347
      ],
      [
        "▁automatiskt",
        -10.38050360729822
      ],
      [
        "▁hållbar",
        -10.38156507510414
      ],
      [
        "▁intresserade",
        -10.3815956405948
      ],
      [
        "▁Ryssland",
        -10.38177163312536
      ],
      [
        "▁dåliga",
        -10.382287104363021
      ],
      [
        "▁bostads",
        -10.382969643407135
      ],
      [
        "▁enskild",
        -10.383098954137546
      ],
      [
        "▁rea",
        -10.38413101152521
      ],
      [
        "omfattar",
        -10.384641729258252
      ],
      [
        "▁duktig",
        -10.384976203401871
      ],
      [
        "▁folket",
        -10.385226135340663
      ],
      [
        "▁rabatt",
        -10.385359135349217
      ],
      [
        "▁sortiment",
        -10.386107880451327
      ],
      [
        "Tycker",
        -10.386138379140723
      ],
      [
        "▁frågar",
        -10.38669941181953
      ],
      [
        "▁egenskaper",
        -10.38674304228532
      ],
      [
        "▁noga",
        -10.387777109037414
      ],
      [
        "▁maskin",
        -10.387888681845268
      ],
      [
        "▁2004",
        -10.388419290301613
      ],
      [
        "▁Mark",
        -10.388732974282703
      ],
      [
        "▁metall",
        -10.38881979275495
      ],
      [
        "delvis",
        -10.389622074960666
      ],
      [
        "vanligtvis",
        -10.389796927772295
      ],
      [
        "delade",
        -10.389988221125611
      ],
      [
        "▁partiet",
        -10.390018559053049
      ],
      [
        "▁förening",
        -10.391036586740649
      ],
      [
        "14",
        -10.391338314616437
      ],
      [
        "särskilda",
        -10.391935961320197
      ],
      [
        "▁skogs",
        -10.392184863230272
      ],
      [
        "alltför",
        -10.392951701087673
      ],
      [
        "▁utbildnings",
        -10.393011173652377
      ],
      [
        "50",
        -10.393044452022478
      ],
      [
        "▁digital",
        -10.393188630758774
      ],
      [
        "▁behandlas",
        -10.393209237852632
      ],
      [
        "▁banan",
        -10.393439823460412
      ],
      [
        "▁landet.",
        -10.393507531349936
      ],
      [
        "vida",
        -10.393688078963438
      ],
      [
        "▁risker",
        -10.394177133856047
      ],
      [
        "▁Kram",
        -10.39525835562305
      ],
      [
        "tro",
        -10.395299611682072
      ],
      [
        "▁wid",
        -10.395909573808382
      ],
      [
        "programmet",
        -10.396168728540427
      ],
      [
        "Logga",
        -10.39623845786737
      ],
      [
        "▁To",
        -10.396260699876303
      ],
      [
        "sida",
        -10.396336654136437
      ],
      [
        "▁Robert",
        -10.396493432469928
      ],
      [
        "▁tema",
        -10.397200596990182
      ],
      [
        "står",
        -10.397295451231548
      ],
      [
        "▁åsikter",
        -10.39741776407714
      ],
      [
        "▁problem.",
        -10.397692145831119
      ],
      [
        "▁moms",
        -10.398072647496166
      ],
      [
        "▁gemensam",
        -10.398092147271914
      ],
      [
        "▁separat",
        -10.398371950838026
      ],
      [
        "▁berör",
        -10.398898631547063
      ],
      [
        "▁utredning",
        -10.399013636581156
      ],
      [
        "knappast",
        -10.399086388175075
      ],
      [
        "▁säkerställa",
        -10.399262139008332
      ],
      [
        "▁beskriv",
        -10.399273134845021
      ],
      [
        "▁dag,",
        -10.399672029137614
      ],
      [
        "delas",
        -10.399964418169336
      ],
      [
        "ledde",
        -10.401572033366826
      ],
      [
        "▁funderar",
        -10.401893151575361
      ],
      [
        "un",
        -10.402456881367062
      ],
      [
        "▁Karlsson",
        -10.402546081780901
      ],
      [
        "▁My",
        -10.402617461938314
      ],
      [
        "▁Bi",
        -10.402845160008923
      ],
      [
        "▁1:",
        -10.403256591488537
      ],
      [
        "▁kris",
        -10.403285366264853
      ],
      [
        "grupp",
        -10.403921721972951
      ],
      [
        "▁m.m.",
        -10.404360673939621
      ],
      [
        "▁Vidare",
        -10.404438730749984
      ],
      [
        "▁stopp",
        -10.404452401882917
      ],
      [
        "▁finansiering",
        -10.404577539049075
      ],
      [
        "▁raka",
        -10.404585444244393
      ],
      [
        "der",
        -10.404876308240066
      ],
      [
        "▁verk",
        -10.40504757247488
      ],
      [
        "▁Me",
        -10.40563481641836
      ],
      [
        "nummer",
        -10.406151249042612
      ],
      [
        "▁styra",
        -10.406541383255236
      ],
      [
        "▁tvinga",
        -10.40738979816746
      ],
      [
        "dagen",
        -10.407417467262198
      ],
      [
        "▁torr",
        -10.407512490194856
      ],
      [
        "▁kall",
        -10.40758631409464
      ],
      [
        "▁studenter",
        -10.407882882217013
      ],
      [
        ":)",
        -10.408626817932204
      ],
      [
        "▁nått",
        -10.40979572053885
      ],
      [
        "▁engagemang",
        -10.409962267061324
      ],
      [
        "årets",
        -10.410166280232428
      ],
      [
        "talade",
        -10.410167390419526
      ],
      [
        "▁75",
        -10.410228963237598
      ],
      [
        "▁distans",
        -10.41032125124494
      ],
      [
        "▁Helsingborg",
        -10.410447019806169
      ],
      [
        "▁strand",
        -10.410791257299126
      ],
      [
        "▁intervju",
        -10.411175802509312
      ],
      [
        "▁sk",
        -10.411226595295117
      ],
      [
        "▁fan",
        -10.412337803779076
      ],
      [
        "▁Pa",
        -10.41243401399734
      ],
      [
        "▁henne.",
        -10.412807982844022
      ],
      [
        "dig",
        -10.412814243897502
      ],
      [
        "▁löne",
        -10.41348140572634
      ],
      [
        "▁region",
        -10.413630035102324
      ],
      [
        "▁Bank",
        -10.413744926319014
      ],
      [
        "ych",
        -10.413903853805325
      ],
      [
        "verksamhet",
        -10.414322331655303
      ],
      [
        "▁mänskliga",
        -10.414754714283513
      ],
      [
        "sannolikt",
        -10.41477380134029
      ],
      [
        "▁upptäcka",
        -10.414888153294179
      ],
      [
        "▁student",
        -10.415025497224168
      ],
      [
        "▁34",
        -10.415200502751642
      ],
      [
        "▁tävling",
        -10.415650668725338
      ],
      [
        "utav",
        -10.415889732113381
      ],
      [
        "▁dollar",
        -10.416254108277947
      ],
      [
        "▁ras",
        -10.416498769605411
      ],
      [
        "▁uppmärksamma",
        -10.41699121485754
      ],
      [
        "▁sov",
        -10.41743361186183
      ],
      [
        "▁flashback",
        -10.417791080630728
      ],
      [
        "▁veckan.",
        -10.418873055619038
      ],
      [
        "▁produktion",
        -10.418968724998418
      ],
      [
        "▁(se",
        -10.419834789551572
      ],
      [
        "Syftet",
        -10.420077668856928
      ],
      [
        "▁mej",
        -10.420424886747627
      ],
      [
        "▁Israel",
        -10.42044164564264
      ],
      [
        "▁kursen",
        -10.420980002677394
      ],
      [
        "▁billigare",
        -10.421005535713315
      ],
      [
        "▁beslutet",
        -10.42131674303298
      ],
      [
        "▁höj",
        -10.421642291527402
      ],
      [
        "▁analysera",
        -10.42206694711143
      ],
      [
        "up",
        -10.422391898535905
      ],
      [
        "område",
        -10.423479417334928
      ],
      [
        "tra",
        -10.423500359323521
      ],
      [
        "ok",
        -10.423503671822573
      ],
      [
        "▁beskriva",
        -10.423902285602216
      ],
      [
        "▁forsknings",
        -10.424078738637297
      ],
      [
        "▁miljon",
        -10.424575144298581
      ],
      [
        "▁minuter.",
        -10.424709308910431
      ],
      [
        "▁dygnet",
        -10.42472443735318
      ],
      [
        "▁ok",
        -10.424894606922612
      ],
      [
        "▁sovrum",
        -10.425217929103326
      ],
      [
        "▁cancer",
        -10.42557774619088
      ],
      [
        "▁Andreas",
        -10.425705497486385
      ],
      [
        "▁krig",
        -10.42572815429637
      ],
      [
        "▁Skor",
        -10.425843351753638
      ],
      [
        "▁kallt",
        -10.426686673325612
      ],
      [
        "film",
        -10.426796058173373
      ],
      [
        "▁räknar",
        -10.427105410296674
      ],
      [
        "▁intill",
        -10.427387925789192
      ],
      [
        "ros",
        -10.427696103374663
      ],
      [
        "▁VD",
        -10.427744819781243
      ],
      [
        "ning.",
        -10.42837557282779
      ],
      [
        "▁uppfyll",
        -10.428423071426812
      ],
      [
        "mannen",
        -10.42862206029045
      ],
      [
        "stöd",
        -10.428917398434164
      ],
      [
        "▁kortare",
        -10.42894408415159
      ],
      [
        "▁varma",
        -10.429015514010448
      ],
      [
        "▁Senaste",
        -10.429187760322826
      ],
      [
        "▁Hus",
        -10.429692778555047
      ],
      [
        "▁bl",
        -10.430003814904463
      ],
      [
        "▁torsdag",
        -10.430045804961736
      ],
      [
        "ina",
        -10.430213465064758
      ],
      [
        "namn",
        -10.430486014299296
      ],
      [
        "▁Ring",
        -10.43051299204469
      ],
      [
        "▁Lind",
        -10.43082005158445
      ],
      [
        "▁bevilja",
        -10.43111383303683
      ],
      [
        "▁ovanligt",
        -10.431132332648907
      ],
      [
        "▁författare",
        -10.431197569741796
      ],
      [
        "▁placera",
        -10.43160676883593
      ],
      [
        "▁fiske",
        -10.431774038293332
      ],
      [
        "delen",
        -10.431962859680274
      ],
      [
        "▁föremål",
        -10.431987491238061
      ],
      [
        "▁rena",
        -10.432309168596145
      ],
      [
        "▁drag",
        -10.432440775545771
      ],
      [
        "näs",
        -10.432514971089219
      ],
      [
        "▁ämne",
        -10.432582978575333
      ],
      [
        "▁fil",
        -10.43277727533866
      ],
      [
        "J",
        -10.433001686855167
      ],
      [
        "▁någonstans",
        -10.433578499468698
      ],
      [
        "▁lokaler",
        -10.434889902081672
      ],
      [
        "▁speciell",
        -10.43490424277134
      ],
      [
        "▁gravid",
        -10.434995879212062
      ],
      [
        "ings",
        -10.436376681905797
      ],
      [
        "▁riskera",
        -10.436421694487825
      ],
      [
        "▁belopp",
        -10.43679054689132
      ],
      [
        "▁närmast",
        -10.436857740759063
      ],
      [
        "arbetat",
        -10.437150048322591
      ],
      [
        "▁faktorer",
        -10.437400292385625
      ],
      [
        "▁stannar",
        -10.437564934494178
      ],
      [
        "▁onsdag",
        -10.437901994464145
      ],
      [
        "▁bostad",
        -10.438573579022398
      ],
      [
        "▁dialog",
        -10.438573797217112
      ],
      [
        "▁Plats",
        -10.43877335021487
      ],
      [
        "▁Radio",
        -10.438849786363605
      ],
      [
        "▁klassisk",
        -10.439124476264892
      ],
      [
        "▁mobilen",
        -10.439292316657166
      ],
      [
        "▁Bli",
        -10.440397127837466
      ],
      [
        "\"Det",
        -10.440772645163554
      ],
      [
        "▁affärs",
        -10.440903431939086
      ],
      [
        "holm",
        -10.441531854748394
      ],
      [
        "▁symtom",
        -10.441611918867348
      ],
      [
        "vik",
        -10.441752589197494
      ],
      [
        "▁avstånd",
        -10.441896062728043
      ],
      [
        "▁styrelse",
        -10.442108334464862
      ],
      [
        "▁soffan",
        -10.44216952049134
      ],
      [
        "skap",
        -10.442182506429862
      ],
      [
        "▁strategi",
        -10.442485655879246
      ],
      [
        "▁snyggt",
        -10.442684317677717
      ],
      [
        "▁God",
        -10.442837649278063
      ],
      [
        "▁förändra",
        -10.442846302040103
      ],
      [
        "▁iaf",
        -10.442905754681814
      ],
      [
        "\"Jag",
        -10.443046420698519
      ],
      [
        "▁byggt",
        -10.44402708273714
      ],
      [
        "ju",
        -10.44406448707736
      ],
      [
        "bilder",
        -10.444514144274324
      ],
      [
        "▁älskade",
        -10.444581017584126
      ],
      [
        "▁this",
        -10.444971645155432
      ],
      [
        "▁olja",
        -10.445015190317589
      ],
      [
        "▁Sam",
        -10.445448543170347
      ],
      [
        "▁Storbritannien",
        -10.445515265661605
      ],
      [
        "▁dusch",
        -10.445526609495376
      ],
      [
        "▁skott",
        -10.4460902699113
      ],
      [
        "▁acceptera",
        -10.446209027481983
      ],
      [
        "▁Gävle",
        -10.447141612325243
      ],
      [
        "▁hell",
        -10.44804524178256
      ],
      [
        "▁stranden",
        -10.448216418516058
      ],
      [
        "▁stämmer",
        -10.448404252350187
      ],
      [
        "▁vidare.",
        -10.44866243849094
      ],
      [
        "▁no",
        -10.44876159114965
      ],
      [
        "owan",
        -10.449261922677445
      ],
      [
        "▁lagar",
        -10.449264221693985
      ],
      [
        "fyllt",
        -10.449847953549625
      ],
      [
        "▁objekt",
        -10.450242023027343
      ],
      [
        "▁55",
        -10.450936384576657
      ],
      [
        "▁texten",
        -10.451237203030256
      ],
      [
        "gång",
        -10.451762781393581
      ],
      [
        "-1",
        -10.451931199784081
      ],
      [
        "▁publik",
        -10.452187835684398
      ],
      [
        "färg",
        -10.452616090933116
      ],
      [
        "▁Alltså",
        -10.452859939391859
      ],
      [
        "▁Borås",
        -10.453419929198784
      ],
      [
        "produkter",
        -10.453510615079116
      ],
      [
        "▁38",
        -10.453550184948881
      ],
      [
        "så",
        -10.453628298800819
      ],
      [
        "▁Art",
        -10.45380992112658
      ],
      [
        "▁okej",
        -10.453996999402744
      ],
      [
        "▁fastighets",
        -10.454500755067764
      ],
      [
        "li",
        -10.454704563464869
      ],
      [
        "fortsatte",
        -10.455444790173521
      ],
      [
        "sch",
        -10.455654837748028
      ],
      [
        "▁patienten",
        -10.455674754128754
      ],
      [
        "▁ansvarig",
        -10.455814566996825
      ],
      [
        "▁finna",
        -10.455880187611722
      ],
      [
        "▁Sven",
        -10.456043893726637
      ],
      [
        "▁medicin",
        -10.456102583042165
      ],
      [
        "21",
        -10.456817643047287
      ],
      [
        "▁aktivitet",
        -10.456848180439627
      ],
      [
        "▁utforska",
        -10.457263813502426
      ],
      [
        "▁Stockholm,",
        -10.458179761176151
      ],
      [
        "klubb",
        -10.458396604213295
      ],
      [
        "färre",
        -10.458422419051404
      ],
      [
        "▁Sweden",
        -10.45924336718185
      ],
      [
        "▁sprid",
        -10.459295463681679
      ],
      [
        "ansvarar",
        -10.45941314501562
      ],
      [
        "▁minuters",
        -10.459504874167607
      ],
      [
        "▁inriktning",
        -10.46014863024234
      ],
      [
        "▁insats",
        -10.460167742400287
      ],
      [
        "▁Dag",
        -10.460289779314554
      ],
      [
        "▁förhindra",
        -10.460635584494321
      ],
      [
        "▁Volvo",
        -10.46094972346597
      ],
      [
        "▁5.",
        -10.461161511381238
      ],
      [
        "▁tävla",
        -10.462212692966814
      ],
      [
        "▁Sara",
        -10.462248678354921
      ],
      [
        "▁undersöka",
        -10.462345489327687
      ],
      [
        "▁trivs",
[...]
