{
  "version": "1.0",
  "truncation": null,
  "padding": null,
  "added_tokens": [
    {
      "id": 0,
      "content": "[PAD]",
      "single_word": false,
      "lstrip": false,
      "rstrip": false,
      "normalized": false,
      "special": true
    },
    {
      "id": 1,
      "content": "[UNK]",
      "single_word": false,
      "lstrip": false,
      "rstrip": false,
      "normalized": false,
      "special": true
    },
    {
      "id": 2,
      "content": "[MASK]",
      "single_word": false,
      "lstrip": false,
      "rstrip": false,
      "normalized": false,
      "special": true
    },
    {
      "id": 3,
      "content": "[CLS]",
      "single_word": false,
      "lstrip": false,
      "rstrip": false,
      "normalized": false,
      "special": true
    },
    {
      "id": 4,
      "content": "[SEP]",
      "single_word": false,
      "lstrip": false,
      "rstrip": false,
      "normalized": false,
      "special": true
    }
  ],
  "normalizer": {
    "type": "Sequence",
    "normalizers": [
      {
        "type": "Nmt"
      },
      {
        "type": "NFKC"
      },
      {
        "type": "Replace",
        "pattern": {
          "Regex": " {2,}"
        },
        "content": " "
      }
    ]
  },
  "pre_tokenizer": {
    "type": "Sequence",
    "pretokenizers": [
      {
        "type": "Metaspace",
        "replacement": "▁",
        "add_prefix_space": true
      },
      {
        "type": "Split",
        "pattern": {
          "Regex": "\\d"
        },
        "behavior": "MergedWithPrevious",
        "invert": false
      },
      {
        "type": "Punctuation",
        "behavior": "Isolated"
      }
    ]
  },
  "post_processor": {
    "type": "TemplateProcessing",
    "single": [
      {
        "SpecialToken": {
          "id": "[CLS]",
          "type_id": 0
        }
      },
      {
        "Sequence": {
          "id": "A",
          "type_id": 0
        }
      },
      {
        "SpecialToken": {
          "id": "[SEP]",
          "type_id": 0
        }
      }
    ],
    "pair": [
      {
        "SpecialToken": {
          "id": "[CLS]",
          "type_id": 0
        }
      },
      {
        "Sequence": {
          "id": "A",
          "type_id": 0
        }
      },
      {
        "SpecialToken": {
          "id": "[SEP]",
          "type_id": 0
        }
      },
      {
        "Sequence": {
          "id": "B",
          "type_id": 1
        }
      },
      {
        "SpecialToken": {
          "id": "[SEP]",
          "type_id": 1
        }
      }
    ],
    "special_tokens": {
      "[CLS]": {
        "id": "[CLS]",
        "ids": [
          3
        ],
        "tokens": [
          "[CLS]"
        ]
      },
      "[SEP]": {
        "id": "[SEP]",
        "ids": [
          4
        ],
        "tokens": [
          "[SEP]"
        ]
      }
    }
  },
  "decoder": {
    "type": "Metaspace",
    "replacement": "▁",
    "add_prefix_space": true
  },
  "model": {
    "type": "Unigram",
    "unk_id": 1,
    "vocab": [
      [
        "[PAD]",
        0.0
      ],
      [
        "[UNK]",
        0.0
      ],
      [
        "[MASK]",
        0.0
      ],
      [
        "[CLS]",
        0.0
      ],
      [
        "[SEP]",
        0.0
      ],
      [
        "▁",
        -2.143202794095309
      ],
      [
        ".",
        -3.1852165188552526
      ],
      [
        ",",
        -3.8402281457129384
      ],
      [
        "▁och",
        -3.9432040300124562
      ],
      [
        "i",
        -4.076961897436426
      ],
      [
        "▁att",
        -4.196851470463333
      ],
      [
        "s",
        -4.287457773763826
      ],
      [
        "▁är",
        -4.562061875711908
      ],
      [
        "▁som",
        -4.590480345782538
      ],
      [
        "▁på",
        -4.593937800764326
      ],
      [
        "▁för",
        -4.669439273087363
      ],
      [
        "▁en",
        -4.693064479048484
      ],
      [
        "0",
        -4.695729560963837
      ],
      [
        "▁det",
        -4.725481261790044
      ],
      [
        "a",
        -4.746670135040429
      ],
      [
        "t",
        -4.761593822975097
      ],
      [
        "1",
        -4.789868456466248
      ],
      [
        "▁med",
        -4.8562013602670575
      ],
      [
        "▁av",
        -4.879997310220965
      ],
      [
        "-",
        -4.946481319800959
      ],
      [
        "▁till",
        -5.017309260622341
      ],
      [
        "2",
        -5.066735514831791
      ],
      [
        "▁har",
        -5.1539011883451735
      ],
      [
        "en",
        -5.203309979427878
      ],
      [
        "▁jag",
        -5.306725379886334
      ],
      [
        "▁inte",
        -5.370228125140482
      ],
      [
        "▁om",
        -5.400422264979618
      ],
      [
        "▁den",
        -5.4695235546715075
      ],
      [
        "▁ett",
        -5.518158653502763
      ],
      [
        "n",
        -5.553987889665368
      ],
      [
        ":",
        -5.569731904213853
      ],
      [
        "e",
        -5.573845193882185
      ],
      [
        "▁så",
        -5.606598509807782
      ],
      [
        "▁du",
        -5.65622362038356
      ],
      [
        "▁kan",
        -5.677301953643305
      ],
      [
        "▁de",
        -5.695097182895424
      ],
      [
        "r",
        -5.708809214801011
      ],
      [
        "5",
        -5.738869065205428
      ],
      [
        "3",
        -5.7630823420297155
      ],
      [
        "▁vi",
        -5.7646243426826835
      ],
      [
        ")",
        -5.783163522529218
      ],
      [
        "er",
        -5.8605652289909
      ],
      [
        "▁var",
        -5.875847459958969
      ],
      [
        "!",
        -5.879806976494116
      ],
      [
        "(",
        -5.90361125349985
      ],
      [
        "4",
        -5.932062353207876
      ],
      [
        "▁Det",
        -5.939277420857433
      ],
      [
        "9",
        -5.979581700369241
      ],
      [
        "▁från",
        -5.982345027242594
      ],
      [
        "▁man",
        -6.00376054336818
      ],
      [
        "\"",
        -6.00987063612337
      ],
      [
        "6",
        -6.113736759670999
      ],
      [
        "▁eller",
        -6.11508648002274
      ],
      [
        "▁men",
        -6.1464477640183794
      ],
      [
        "8",
        -6.164320975196645
      ],
      [
        "7",
        -6.169348834943744
      ],
      [
        "?",
        -6.195554591741669
      ],
      [
        "/",
        -6.259070098736439
      ],
      [
        "▁ska",
        -6.307729218123775
      ],
      [
        "▁sig",
        -6.349272759756696
      ],
      [
        "d",
        -6.403300725670572
      ],
      [
        "o",
        -6.424985334036608
      ],
      [
        "▁in",
        -6.4513144715768185
      ],
      [
        "▁Jag",
        -6.465944761937122
      ],
      [
        "▁ut",
        -6.468435525046335
      ],
      [
        "▁här",
        -6.47727128436129
      ],
      [
        "▁när",
        -6.483330554961947
      ],
      [
        "de",
        -6.489798898988052
      ],
      [
        "▁upp",
        -6.494104919644013
      ],
      [
        "–",
        -6.504613490208728
      ],
      [
        "ar",
        -6.507219489236364
      ],
      [
        "▁kommer",
        -6.533264773584948
      ],
      [
        "m",
        -6.543411038075352
      ],
      [
        "▁vara",
        -6.598007911764446
      ],
      [
        "▁I",
        -6.60970204028116
      ],
      [
        "▁finns",
        -6.6359434947275115
      ],
      [
        "▁mer",
        -6.642686055890355
      ],
      [
        "▁Vi",
        -6.65520730068198
      ],
      [
        "▁där",
        -6.6593137711164
      ],
      [
        "▁alla",
        -6.679082868950397
      ],
      [
        "▁han",
        -6.695690172178939
      ],
      [
        "▁nu",
        -6.734843600597211
      ],
      [
        "▁under",
        -6.754419979597932
      ],
      [
        "▁också",
        -6.7934272274931615
      ],
      [
        "▁får",
        -6.8021736483603785
      ],
      [
        "▁mycket",
        -6.811661950452674
      ],
      [
        "▁över",
        -6.813931310146888
      ],
      [
        "▁år",
        -6.815207641998402
      ],
      [
        "▁bra",
        -6.823855635552915
      ],
      [
        "▁mig",
        -6.827100980906325
      ],
      [
        "”",
        -6.846728297549763
      ],
      [
        "▁lite",
        -6.847866107881343
      ],
      [
        "▁efter",
        -6.852597763954064
      ],
      [
        "▁ha",
        -6.876711855530054
      ],
      [
        "▁vill",
        -6.881793096737162
      ],
      [
        "et",
        -6.9012561851500696
      ],
      [
        "▁då",
        -6.908159411480343
      ],
      [
        "▁andra",
        -6.90996802123318
      ],
      [
        "▁få",
        -6.914066511289619
      ],
      [
        "▁även",
        -6.924553948014019
      ],
      [
        "▁bara",
        -6.928281223918898
      ],
      [
        "▁hur",
        -6.93473896882249
      ],
      [
        "▁vid",
        -6.948530747110771
      ],
      [
        "▁dig",
        -6.978500706864823
      ],
      [
        "▁Men",
        -7.009389467273893
      ],
      [
        "▁vad",
        -7.038676298051488
      ],
      [
        "▁hade",
        -7.042134206461121
      ],
      [
        "▁skulle",
        -7.069531113083967
      ],
      [
        "g",
        -7.0753508669469785
      ],
      [
        "▁än",
        -7.083450955781393
      ],
      [
        "▁blir",
        -7.085822914306677
      ],
      [
        "▁En",
        -7.11785493837467
      ],
      [
        "▁mot",
        -7.138438404213485
      ],
      [
        "▁sin",
        -7.142720109727469
      ],
      [
        "k",
        -7.167677895016155
      ],
      [
        "▁många",
        -7.180613128543831
      ],
      [
        "v",
        -7.183105134320726
      ],
      [
        "▁göra",
        -7.184784111816544
      ],
      [
        "▁gör",
        -7.186480384685341
      ],
      [
        "▁min",
        -7.205107579872694
      ],
      [
        "▁din",
        -7.215881927354399
      ],
      [
        "▁ju",
        -7.222683619934013
      ],
      [
        "l",
        -7.228465373938494
      ],
      [
        "▁Den",
        -7.233307333167
      ],
      [
        "▁detta",
        -7.239182422104893
      ],
      [
        "▁För",
        -7.246657237965136
      ],
      [
        "▁hon",
        -7.256401730669516
      ],
      [
        "▁oss",
        -7.262636543232043
      ],
      [
        "▁utan",
        -7.267208906590335
      ],
      [
        "▁sedan",
        -7.276523161480775
      ],
      [
        "▁något",
        -7.277141492413191
      ],
      [
        "▁De",
        -7.2923519749288985
      ],
      [
        "p",
        -7.294154195144321
      ],
      [
        "are",
        -7.304816373065528
      ],
      [
        "f",
        -7.318439279837314
      ],
      [
        "▁se",
        -7.327992449125144
      ],
      [
        "▁olika",
        -7.331497611426075
      ],
      [
        "▁allt",
        -7.342743900290637
      ],
      [
        "▁två",
        -7.35297624142582
      ],
      [
        "▁bli",
        -7.377266309054214
      ],
      [
        "▁genom",
        -7.3975261692559595
      ],
      [
        "▁säger",
        -7.4012564182986775
      ],
      [
        "▁någon",
        -7.401298471039167
      ],
      [
        "▁går",
        -7.405419195765559
      ],
      [
        "h",
        -7.4112921465215695
      ],
      [
        "▁del",
        -7.423474705969603
      ],
      [
        "▁helt",
        -7.431492647581413
      ],
      [
        "▁fick",
        -7.466726241742045
      ],
      [
        "▁nya",
        -7.467387044645635
      ],
      [
        "▁hela",
        -7.4880014710042
      ],
      [
        "▁Om",
        -7.496423980733322
      ],
      [
        "▁fram",
        -7.500484949466628
      ],
      [
        "▁inom",
        -7.503244586696519
      ],
      [
        "▁varit",
        -7.52018848465141
      ],
      [
        "▁blev",
        -7.52138737508961
      ],
      [
        "▁måste",
        -7.529235616316919
      ],
      [
        "▁första",
        -7.531559398648845
      ],
      [
        "▁några",
        -7.542906942267797
      ],
      [
        "▁dem",
        -7.554726954541174
      ],
      [
        "erna",
        -7.5558933310252865
      ],
      [
        "▁samt",
        -7.55990438336922
      ],
      [
        "▁denna",
        -7.570584685571644
      ],
      [
        "▁mellan",
        -7.581438479095411
      ],
      [
        "▁Du",
        -7.585889069811314
      ],
      [
        "▁S",
        -7.591259533656826
      ],
      [
        "▁kunna",
        -7.593839374902291
      ],
      [
        "ade",
        -7.619012450574532
      ],
      [
        "▁Sverige",
        -7.631920921629121
      ],
      [
        "▁När",
        -7.637267324587938
      ],
      [
        "▁sätt",
        -7.645564079145688
      ],
      [
        "▁Och",
        -7.658253312095951
      ],
      [
        "&",
        -7.663211659314294
      ],
      [
        "▁själv",
        -7.668575801080351
      ],
      [
        "▁vår",
        -7.674175156765791
      ],
      [
        "▁barn",
        -7.67900717447187
      ],
      [
        "▁tid",
        -7.682137087680978
      ],
      [
        "▁annat",
        -7.6865316077806405
      ],
      [
        "▁ser",
        -7.690135638487421
      ],
      [
        ";",
        -7.694047957221901
      ],
      [
        "▁väl",
        -7.696638832673232
      ],
      [
        "å",
        -7.703274059287674
      ],
      [
        "c",
        -7.70391230383359
      ],
      [
        "▁Så",
        -7.733504875272013
      ],
      [
        "▁vilket",
        -7.733943761813011
      ],
      [
        "▁hos",
        -7.735703373693841
      ],
      [
        "▁sina",
        -7.737038360214685
      ],
      [
        "▁dag",
        -7.741213382109972
      ],
      [
        "▁både",
        -7.746065812874658
      ],
      [
        "▁rätt",
        -7.746804415962323
      ],
      [
        "y",
        -7.7726804029276035
      ],
      [
        "▁Nu",
        -7.773915129579171
      ],
      [
        "▁våra",
        -7.778002627625469
      ],
      [
        "▁gå",
        -7.7893047708144625
      ],
      [
        "u",
        -7.80127002344018
      ],
      [
        "▁stor",
        -7.808756214827737
      ],
      [
        "▁behöver",
        -7.812215812255511
      ],
      [
        "▁kanske",
        -7.823600686555551
      ],
      [
        "▁dessa",
        -7.8285817099666755
      ],
      [
        "▁ny",
        -7.8318500039127485
      ],
      [
        "▁bästa",
        -7.834519325779143
      ],
      [
        "▁På",
        -7.836048454892307
      ],
      [
        "▁innan",
        -7.850255633924096
      ],
      [
        "▁vet",
        -7.852676706411202
      ],
      [
        "▁flera",
        -7.865944259957031
      ],
      [
        "▁be",
        -7.8710984749905695
      ],
      [
        "S",
        -7.875818372100861
      ],
      [
        "▁idag",
        -7.8783078336985035
      ],
      [
        "ande",
        -7.887020927446287
      ],
      [
        "▁samma",
        -7.894887702768921
      ],
      [
        "▁tar",
        -7.908185186886286
      ],
      [
        "▁A",
        -7.911403738542594
      ],
      [
        "▁ger",
        -7.914725197319049
      ],
      [
        "▁ner",
        -7.918114099602617
      ],
      [
        "%",
        -7.920802256827514
      ],
      [
        "▁hem",
        -7.923377541406461
      ],
      [
        "b",
        -7.927165333329521
      ],
      [
        "▁alltid",
        -7.928019717924055
      ],
      [
        "▁sitt",
        -7.929483481216092
      ],
      [
        "▁kom",
        -7.930255317352129
      ],
      [
        "▁Han",
        -7.932758894826648
      ],
      [
        "▁ditt",
        -7.937442922536832
      ],
      [
        "▁bort",
        -7.943571987527271
      ],
      [
        "▁stora",
        -7.955507972485286
      ],
      [
        "▁Här",
        -7.96042693607138
      ],
      [
        "▁tre",
        -7.961093741847153
      ],
      [
        "ens",
        -7.964342252536111
      ],
      [
        "▁varje",
        -7.9690316544785915
      ],
      [
        "▁Läs",
        -7.969605309343839
      ],
      [
        "▁bland",
        -7.973833236566927
      ],
      [
        "▁Att",
        -7.979578998071391
      ],
      [
        "▁väldigt",
        -7.990834676796686
      ],
      [
        "▁hitta",
        -8.000297094846129
      ],
      [
        "▁bättre",
        -8.004508623690873
      ],
      [
        "ur",
        -8.008069867497898
      ],
      [
        "arna",
        -8.009483578771867
      ],
      [
        "▁Detta",
        -8.011892887879835
      ],
      [
        "▁igen",
        -8.015068650531473
      ],
      [
        "▁tycker",
        -8.015189845506995
      ],
      [
        "▁ligger",
        -8.023570886593294
      ],
      [
        "▁gäller",
        -8.040781507062864
      ],
      [
        "▁fall",
        -8.04822339615361
      ],
      [
        "▁nog",
        -8.052379063489626
      ],
      [
        "▁tidigare",
        -8.062604416938198
      ],
      [
        "▁just",
        -8.063634873889953
      ],
      [
        "▁fått",
        -8.072741621560228
      ],
      [
        "▁mitt",
        -8.077323767614915
      ],
      [
        "▁gång",
        -8.088580937652518
      ],
      [
        "ing",
        -8.096453126570903
      ],
      [
        "▁hotell",
        -8.1005812964126
      ],
      [
        "▁komma",
        -8.102942295376659
      ],
      [
        "▁ingen",
        -8.108654126841852
      ],
      [
        "|",
        -8.114380635285015
      ],
      [
        "▁riktigt",
        -8.126077306747115
      ],
      [
        "▁svenska",
        -8.129040133194662
      ],
      [
        "▁tror",
        -8.129755721248296
      ],
      [
        "▁mest",
        -8.133512240517573
      ],
      [
        "des",
        -8.134150450516916
      ],
      [
        "▁B",
        -8.135723552646168
      ],
      [
        "▁Har",
        -8.135924355217117
      ],
      [
        "▁åt",
        -8.140218615925095
      ],
      [
        "▁skall",
        -8.1427649169101
      ],
      [
        "▁dock",
        -8.143001560149425
      ],
      [
        "▁ge",
        -8.143440733101718
      ],
      [
        "▁Vad",
        -8.143831938336156
      ],
      [
        "▁Med",
        -8.144786359555617
      ],
      [
        "'",
        -8.152536350093056
      ],
      [
        "▁annan",
        -8.153503275010353
      ],
      [
        "▁enligt",
        -8.158727267287603
      ],
      [
        "▁eftersom",
        -8.159923278884728
      ],
      [
        "▁gick",
        -8.162640408902021
      ],
      [
        "▁F",
        -8.166316590281696
      ],
      [
        "▁redan",
        -8.16692938656924
      ],
      [
        "▁Ett",
        -8.169302992035846
      ],
      [
        "▁fler",
        -8.177280239663986
      ],
      [
        "▁plats",
        -8.182290236871689
      ],
      [
        "▁Hur",
        -8.182327549348443
      ],
      [
        "x",
        -8.18720492673202
      ],
      [
        "▁gratis",
        -8.18831555808488
      ],
      [
        "▁runt",
        -8.1886987548059
      ],
      [
        "▁personer",
        -8.198069539940134
      ],
      [
        "▁dina",
        -8.199814219174824
      ],
      [
        "▁människor",
        -8.20515391114981
      ],
      [
        "▁kunde",
        -8.210474183072836
      ],
      [
        "▁M",
        -8.223446796315253
      ],
      [
        "▁information",
        -8.224890635068105
      ],
      [
        "▁C",
        -8.231178015729467
      ],
      [
        "▁hjälp",
        -8.232920758295275
      ],
      [
        "▁kr",
        -8.234618114014506
      ],
      [
        "▁deras",
        -8.239123391173347
      ],
      [
        "▁företag",
        -8.239413952397808
      ],
      [
        "▁dom",
        -8.246353091095711
      ],
      [
        "▁gjort",
        -8.246427567200522
      ],
      [
        "▁E",
        -8.252559595615324
      ],
      [
        "▁lika",
        -8.258349934772445
      ],
      [
        "▁tillbaka",
        -8.259210328976382
      ],
      [
        "▁aldrig",
        -8.260852808178623
      ],
      [
        "▁tillsammans",
        -8.26562851272467
      ],
      [
        "▁P",
        -8.267673369003687
      ],
      [
        "▁verkligen",
        -8.275633612228674
      ],
      [
        "▁senaste",
        -8.276040464933917
      ],
      [
        "in",
        -8.277312500228998
      ],
      [
        "or",
        -8.280867536107818
      ],
      [
        "*",
        -8.296043163276833
      ],
      [
        "▁gjorde",
        -8.296586040228906
      ],
      [
        "▁tiden",
        -8.302645935017994
      ],
      [
        "▁ofta",
        -8.304782938649103
      ],
      [
        "▁Man",
        -8.3104417673416
      ],
      [
        "man",
        -8.319720836022306
      ],
      [
        "·",
        -8.330537763371936
      ],
      [
        "▁H",
        -8.331855209826132
      ],
      [
        "▁mina",
        -8.334211235402721
      ],
      [
        "▁mindre",
        -8.336687682256846
      ],
      [
        "▁lätt",
        -8.337020863834645
      ],
      [
        "▁tog",
        -8.338976495089176
      ],
      [
        "▁använda",
        -8.352808693229063
      ],
      [
        "▁Stockholm",
        -8.35719864431387
      ],
      [
        "▁sen",
        -8.35933259394655
      ],
      [
        "▁direkt",
        -8.36131676986676
      ],
      [
        "▁köpa",
        -8.369356182426586
      ],
      [
        "▁mat",
        -8.372459214944703
      ],
      [
        "▁därför",
        -8.372493167391285
      ],
      [
        "▁läsa",
        -8.374083849775344
      ],
      [
        "com",
        -8.376073378667684
      ],
      [
        "▁honom",
        -8.377852803475621
      ],
      [
        "[",
        -8.385568191850856
      ],
      [
        "▁R",
        -8.385667664830612
      ],
      [
        "]",
        -8.385988585969178
      ],
      [
        "▁G",
        -8.386815324392362
      ],
      [
        "▁hemma",
        -8.390014064232425
      ],
      [
        "▁enkelt",
        -8.402752166489517
      ],
      [
        "▁säga",
        -8.40596154766301
      ],
      [
        "▁exempel",
        -8.408059979716668
      ],
      [
        "▁online",
        -8.40903391321749
      ],
      [
        "känner",
        -8.410924969463718
      ],
      [
        "▁spel",
        -8.41553023586654
      ],
      [
        "▁större",
        -8.418648117226597
      ],
      [
        "▁Som",
        -8.418880644604883
      ],
      [
        "▁ändå",
        -8.425313233676215
      ],
      [
        "▁T",
        -8.425821551685663
      ],
      [
        "▁bör",
        -8.42647605238739
      ],
      [
        "▁små",
        -8.427204078191128
      ],
      [
        "▁egen",
        -8.427513055024761
      ],
      [
        "▁grund",
        -8.429890011472631
      ],
      [
        "▁kvar",
        -8.43381129514458
      ],
      [
        "j",
        -8.434182583701258
      ],
      [
        "▁hans",
        -8.434920195217254
      ],
      [
        "▁god",
        -8.439634530312386
      ],
      [
        "▁står",
        -8.442552688232606
      ],
      [
        "▁hög",
        -8.443597451684436
      ],
      [
        "▁dagar",
        -8.443687034523508
      ],
      [
        "▁Efter",
        -8.44453593487724
      ],
      [
        "▁innebär",
        -8.453309812785681
      ],
      [
        "▁vatten",
        -8.453482860997301
      ],
      [
        "▁slut",
        -8.454448036504413
      ],
      [
        "▁K",
        -8.456458438631909
      ],
      [
        "el",
        -8.463335070966105
      ],
      [
        "▁procent",
        -8.464586451038098
      ],
      [
        "on",
        -8.4664547803236
      ],
      [
        "▁mål",
        -8.467311975275363
      ],
      [
        "▁liv",
        -8.46870139860646
      ],
      [
        "ning",
        -8.472074577623179
      ],
      [
        "▁stort",
        -8.479510629245889
      ],
      [
        "▁Hon",
        -8.482035401963707
      ],
      [
        "▁haft",
        -8.482523211852687
      ],
      [
        "▁längre",
        -8.488175034978028
      ],
      [
        "▁per",
        -8.489183827458463
      ],
      [
        "▁problem",
        -8.496596595774077
      ],
      [
        "▁saker",
        -8.49781436160164
      ],
      [
        "▁Då",
        -8.507551167562136
      ],
      [
        "▁pengar",
        -8.50905618679613
      ],
      [
        "▁Under",
        -8.515849957307939
      ],
      [
        "▁blivit",
        -8.519641727964755
      ],
      [
        "▁par",
        -8.526272563781992
      ],
      [
        "▁L",
        -8.528757405873193
      ],
      [
        "▁länge",
        -8.535078156513652
      ],
      [
        "A",
        -8.537866477674598
      ],
      [
        "▁of",
        -8.539331931143163
      ],
      [
        "▁visar",
        -8.540887979723404
      ],
      [
        "▁kort",
        -8.541268053921582
      ],
      [
        "▁kvinnor",
        -8.541910017338965
      ],
      [
        "▁lång",
        -8.545572515824876
      ],
      [
        "▁faktiskt",
        -8.54705870921302
      ],
      [
        "▁möjligt",
        -8.552444548545266
      ],
      [
        "▁hand",
        -8.554553592815138
      ],
      [
        "▁skapa",
        -8.560177645944979
      ],
      [
        "▁pris",
        -8.568785343506693
      ],
      [
        "▁inget",
        -8.569016392302785
      ],
      [
        "ligt",
        -8.571649089439402
      ],
      [
        "ganska",
        -8.572293033680737
      ],
      [
        "▁liten",
        -8.575351417837002
      ],
      [
        "▁ca",
        -8.580101008225132
      ],
      [
        "▁Där",
        -8.583316988934667
      ],
      [
        "▁nytt",
        -8.58353802770067
      ],
      [
        "▁vårt",
        -8.585403866081037
      ],
      [
        "▁ännu",
        -8.5857840627805
      ],
      [
        "_",
        -8.58878049566936
      ],
      [
        "▁svårt",
        -8.591072750269552
      ],
      [
        "hittar",
        -8.591401242705318
      ],
      [
        "▁gärna",
        -8.593604000143564
      ],
      [
        "▁Är",
        -8.595123364513498
      ],
      [
        "▁börjar",
        -8.596482355441688
      ],
      [
        "liga",
        -8.599064039048994
      ],
      [
        "▁omdömen",
        -8.599485128990098
      ],
      [
        "▁känns",
        -8.59990920265266
      ],
      [
        "▁bilder",
        -8.604317347854503
      ],
      [
        "▁sex",
        -8.608220543595234
      ],
      [
        "▁fast",
        -8.609344746588972
      ],
      [
        "▁hålla",
        -8.612584529669546
      ],
      [
        "▁frågor",
        -8.61314738109869
      ],
      [
        "▁Alla",
        -8.6150508685954
      ],
      [
        "▁extra",
        -8.618289190505575
      ],
      [
        "▁spela",
        -8.621665747868523
      ],
      [
        "▁nära",
        -8.624320991360069
      ],
      [
        "▁inför",
        -8.627207483634539
      ],
      [
        "▁bil",
        -8.629740418052707
      ],
      [
        "▁ute",
        -8.631592749881944
      ],
      [
        "▁kommun",
        -8.63165783299358
      ],
      [
        "▁the",
        -8.635370026712256
      ],
      [
        "▁håller",
        -8.637457523758233
      ],
      [
        "▁nästan",
        -8.638704330647133
      ],
      [
        "▁fortfarande",
        -8.639770589550551
      ],
      [
        "▁folk",
        -8.639858241072394
      ],
      [
        "gått",
        -8.648631144166107
      ],
      [
        "+",
        -8.648890948141196
      ],
      [
        "▁dagen",
        -8.649313934864859
      ],
      [
        "▁vissa",
        -8.649980924125478
      ],
      [
        "▁gånger",
        -8.65070883906432
      ],
      [
        "▁dess",
        -8.650931907102331
      ],
      [
        "▁kronor",
        -8.65220434484816
      ],
      [
        "▁Ja",
        -8.652318570778753
      ],
      [
        "▁handlar",
        -8.653438551856215
      ],
      [
        "D",
        -8.65888846217034
      ],
      [
        "för",
        -8.659644644568742
      ],
      [
        "▁vilken",
        -8.660084402861221
      ],
      [
        "▁vilka",
        -8.660482196558242
      ],
      [
        "▁senare",
        -8.661824576996173
      ],
      [
        "▁precis",
        -8.664002856027306
      ],
      [
        "▁erbjuder",
        -8.665313960281727
      ],
      [
        "▁söker",
        -8.665611576235333
      ],
      [
        "▁samtidigt",
        -8.665822624413629
      ],
      [
        "▁D",
        -8.668772695533098
      ],
      [
        "▁använder",
        -8.670587982612352
      ],
      [
        "▁först",
        -8.671360814514498
      ],
      [
        "Hotell",
        -8.67166939000513
      ],
      [
        "ö",
        -8.67899200817023
      ],
      [
        "▁vidare",
        -8.679234179276712
      ],
      [
        "▁henne",
        -8.680513014121962
      ],
      [
        "▁rum",
        -8.682395031943805
      ],
      [
        "▁fel",
        -8.690331642610735
      ],
      [
        "▁jobb",
        -8.692428794933774
      ],
      [
        "▁alltså",
        -8.694166719743151
      ],
      [
        "▁sidan",
        -8.696097268860669
      ],
      [
        "▁hoppas",
        -8.696765502462
      ],
      [
        "▁året",
        -8.704633695333955
      ],
      [
        "▁gott",
        -8.704913368871292
      ],
      [
        "▁största",
        -8.705534542601853
      ],
      [
        "▁istället",
        -8.706100843980293
      ],
      [
        "▁form",
        -8.707416677751405
      ],
      [
        "=",
        -8.70748226042755
      ],
      [
        "om",
        -8.707975710620937
      ],
      [
        "▁flesta",
        -8.708951649084035
      ],
      [
        "▁åter",
        -8.709166099492649
      ],
      [
        "▁minst",
        -8.709701347203087
      ],
      [
        "▁väg",
        -8.7122681241688
      ],
      [
        "vägen",
        -8.71314966457849
      ],
      [
        "talet",
        -8.716909850959626
      ],
      [
        "▁endast",
        -8.71724879778049
      ],
      [
        "▁viktigt",
        -8.718984660651197
      ],
      [
        "▁arbete",
        -8.720507874933707
      ],
      [
        "▁person",
        -8.72102153078425
      ],
      [
        "▁skriver",
        -8.722997467169906
      ],
      [
        "▁fyra",
        -8.725076519530159
      ],
      [
        ">",
        -8.728896738235019
      ],
      [
        "▁nästa",
        -8.729145016723072
      ],
      [
        "▁började",
        -8.732100194782069
      ],
      [
        "▁sista",
        -8.732497193248575
      ],
      [
        "▁ihop",
        -8.73283544156124
      ],
      [
        "son",
        -8.735096787224718
      ],
      [
        "▁O",
        -8.735847282786656
      ],
      [
        "▁V",
        -8.735948146071097
      ],
      [
        "▁AB",
        -8.738178876006211
      ],
      [
        "▁bild",
        -8.74055829096692
      ],
      [
        "▁km",
        -8.74261455772054
      ],
      [
        "verkar",
        -8.744451138996494
      ],
      [
        "▁lag",
        -8.745561547791764
      ],
      [
        "▁dejting",
        -8.755431094761637
      ],
      [
        "▁Till",
        -8.758121670055832
      ],
      [
        "▁stöd",
        -8.763206161888695
      ],
      [
        "B",
        -8.763753080154192
      ],
      [
        "▁all",
        -8.76971898151611
      ],
      [
        "▁snabbt",
        -8.770510608927678
      ],
      [
        "▁fråga",
        -8.774564809895008
      ],
      [
        "▁and",
        -8.774961640312894
      ],
      [
        "▁kl",
        -8.777807425966179
      ],
      [
        "vis",
        -8.778152942849871
      ],
      [
        "▁kring",
        -8.784999032572424
      ],
      [
        "▁sett",
        -8.785923937609844
      ],
      [
        "▁välja",
        -8.786831492156624
      ],
      [
        "▁hennes",
        -8.789544434159895
      ],
      [
        "▁egna",
        -8.789846712953254
      ],
      [
        "berg",
        -8.790577409701353
      ],
      [
        "ska",
        -8.793123136031992
      ],
      [
        "▁N",
        -8.793637096329912
      ],
      [
        "▁själva",
        -8.801480512800696
      ],
      [
        "▁hel",
        -8.802435168410403
      ],
      [
        "▁världen",
        -8.807658546452572
      ],
      [
        "▁tips",
        -8.814145143983842
      ],
      [
        "▁vecka",
        -8.815686645632578
      ],
      [
        "#",
        -8.816542664230894
      ],
      [
        "ig",
        -8.81998366598391
      ],
      [
        "▁gamla",
        -8.822529958319183
      ],
      [
        "▁dessutom",
        -8.823888324884265
      ],
      [
        "tagit",
        -8.825830154480034
      ],
      [
        "▁fin",
        -8.827459503754662
      ],
      [
        "▁Idag",
        -8.830431681938409
      ],
      [
        "▁klart",
        -8.833941369406258
      ],
      [
        "aste",
        -8.834039073093091
      ],
      [
        "▁veckan",
        -8.834383894675481
      ],
      [
        "▁börja",
        -8.834776311404589
      ],
      [
        "▁såg",
        -8.836937551589386
      ],
      [
        "▁möjlighet",
        -8.839168619710152
      ],
      [
        "T",
        -8.844528786637708
      ],
      [
        "▁borde",
        -8.851890091724504
      ],
      [
        "inga",
        -8.854932339558145
      ],
      [
        "▁helst",
        -8.861013404354864
      ],
      [
        "ex",
        -8.862027708777541
      ],
      [
        "▁kul",
        -8.86326821366995
      ],
      [
        "▁beslut",
        -8.865405674625167
      ],
      [
        "igt",
        -8.868633181170324
      ],
      [
        "▁män",
        -8.871739965603863
      ],
      [
        "▁delar",
        -8.876014656024017
      ],
      [
        "▁svar",
        -8.87706157360314
      ],
      [
        "▁minuter",
        -8.877473559287912
      ],
      [
        "P",
        -8.88584050512279
      ],
      [
        "▁priser",
        -8.886645271352288
      ],
      [
        "iga",
        -8.887893737581873
      ],
      [
        "▁trots",
        -8.888076039176445
      ],
      [
        "▁behov",
        -8.888165313389031
      ],
      [
        "▁långt",
        -8.889325375592902
      ],
      [
        "▁varför",
        -8.889647440686671
      ],
      [
        "▁hjälpa",
        -8.890201284490125
      ],
      [
        "▁Även",
        -8.890219993738636
      ],
      [
        "▁fem",
        -8.892003505245246
      ],
      [
        "▁typ",
        -8.894498714225389
      ],
      [
        "▁namn",
        -8.896610801678564
      ],
      [
        "I",
        -8.897989885681161
      ],
      [
        "▁lägga",
        -8.900391385982537
      ],
      [
        "▁visa",
        -8.902921617952416
      ],
      [
        "hjälper",
        -8.904309247397364
      ],
      [
        "▁skriva",
        -8.905979317622862
      ],
      [
        "M",
        -8.909630347502159
      ],
      [
        "▁medan",
        -8.910194752738596
      ],
      [
        "▁fina",
        -8.914626356527691
      ],
      [
        "▁resultat",
        -8.915350091148829
      ],
      [
        "▁början",
        -8.916062983262517
      ],
      [
        "▁Vid",
        -8.916557454860591
      ],
      [
        "▁Denna",
        -8.916817571303953
      ],
      [
        "“",
        -8.917030789210637
      ],
      [
        "▁brukar",
        -8.917456719243038
      ],
      [
        "▁Sveriges",
        -8.919441353550882
      ],
      [
        "la",
        -8.920132496918825
      ],
      [
        "▁Nike",
        -8.921703330134141
      ],
      [
        "▁Air",
        -8.922295363390967
      ],
      [
        "▁ville",
        -8.922878133679474
      ],
      [
        "▁enda",
        -8.925350862261318
      ],
      [
        "▁snart",
        -8.925452977397692
      ],
      [
        "▁känna",
        -8.925865220040853
      ],
      [
        "▁emot",
        -8.926048357743776
      ],
      [
        "▁The",
        -8.92816328628954
      ],
      [
        "ä",
        -8.92890509556209
      ],
      [
        "▁ibland",
        -8.931726660687504
      ],
      [
        "▁Visa",
        -8.932733533304114
      ],
      [
        "iska",
        -8.93606957142813
      ],
      [
        "▁Se",
        -8.937957490823331
      ],
      [
        "▁Max",
        -8.93932495722516
      ],
      [
        "▁miljö",
        -8.944288055111743
      ],
      [
        "▁tänka",
        -8.94613088468704
      ],
      [
        "är",
        -8.949127373611827
      ],
      [
        "▁arbetar",
        -8.950226149003365
      ],
      [
        "▁nätet",
        -8.95408818602461
      ],
      [
        "▁heller",
        -8.959398467801453
      ],
      [
        "fanns",
        -8.959930273203211
      ],
      [
        "▁livet",
        -8.961237218816748
      ],
      [
        "▁timmar",
        -8.962231091871164
      ],
      [
        "▁kontakt",
        -8.964927692606135
      ],
      [
        "▁miljoner",
        -8.966741618927117
      ],
      [
        "▁bäst",
        -8.967417279120234
      ],
      [
        "nde",
        -8.96792068491547
      ],
      [
        "▁vanligt",
        -8.968349772637946
      ],
      [
        "▁to",
        -8.96878477469624
      ],
      [
        "▁antal",
        -8.968986766281256
      ],
      [
        "▁gången",
        -8.969611605613947
      ],
      [
        "▁passar",
        -8.971864453309149
      ],
      [
        "▁USA",
        -8.97390300607718
      ],
      [
        "▁Sedan",
        -8.974231824202766
      ],
      [
        "▁egentligen",
        -8.976370914112932
      ],
      [
        "­",
        -8.977492871751105
      ],
      [
        "ej",
        -8.978417040955339
      ],
      [
        "F",
        -8.983748093468595
      ],
      [
        "▁färg",
        -8.984440456954564
      ],
      [
        "▁hus",
        -8.987297312556299
      ],
      [
        "▁Av",
        -8.989001000918652
      ],
      [
        "▁ord",
        -8.989289590960055
      ],
      [
        "▁produkter",
        -8.990550240077265
      ],
      [
        "▁EU",
        -8.995294497380792
      ],
      [
        "sitter",
        -8.995753221621438
      ],
      [
        "▁Tack",
        -8.997834405203138
      ],
      [
        "C",
        -9.001570916865308
      ],
      [
        "▁veta",
        -9.001776438234778
      ],
      [
        "▁dags",
        -9.003420073485865
      ],
      [
        "▁tag",
        -9.006614679028267
      ],
      [
        "het",
        -9.006807440460515
      ],
      [
        "▁J",
        -9.007640237809088
      ],
      [
        "▁förslag",
        -9.007696147844014
      ],
      [
        "N",
        -9.009730268810971
      ],
      [
        "▁inne",
        -9.01043051799485
      ],
      [
        "▁val",
        -9.011752022682822
      ],
      [
        "▁energi",
        -9.012926818528232
      ],
      [
        "lig",
        -9.01338564249051
      ],
      [
        "▁låg",
        -9.01457975977117
      ],
      [
        "▁dating",
        -9.015421847110595
      ],
      [
        "▁utanför",
        -9.018982866486079
      ],
      [
        "▁maj",
        -9.020121217194765
      ],
      [
        "▁ytterligare",
        -9.02247494914428
      ],
      [
        "K",
        -9.022753384505075
      ],
      [
        "▁ned",
        -9.022782548522125
      ],
      [
        "▁varandra",
        -9.023402654600757
      ],
      [
        "▁fungerar",
        -9.023994563375393
      ],
      [
        "sagt",
        -9.024399256461262
      ],
      [
        "och",
        -9.029828591433986
      ],
      [
        "▁gillar",
        -9.030151682063925
      ],
      [
        "▁jätte",
        -9.032024761845477
      ],
      [
        "att",
        -9.033784006593274
      ],
      [
        "▁verksamhet",
        -9.034220960527797
      ],
      [
        "▁svensk",
        -9.03513139880168
      ],
      [
        "▁framför",
        -9.04220930630796
      ],
      [
        "▁resa",
        -9.043580600154671
      ],
      [
        "▁båda",
        -9.046024360892678
      ],
      [
        "▁ansvar",
        -9.04804777876424
      ],
      [
        "▁Min",
        -9.048217078627014
      ],
      [
        "▁särskilt",
        -9.049109137057622
      ],
      [
        "▁används",
        -9.05109598729919
      ],
      [
        "▁sådan",
        -9.059063229825066
      ],
      [
        "▁Sen",
        -9.062422282532575
      ],
      [
        "▁betala",
        -9.064547283892525
      ],
      [
        "L",
        -9.06593098626774
      ],
      [
        "ja",
        -9.071695037095898
      ],
      [
        "▁kommit",
        -9.075608048888148
      ],
      [
        "▁förra",
        -9.07774369946859
      ],
      [
        "sson",
        -9.081033788738255
      ],
      [
        "▁Göteborg",
        -9.082709978150916
      ],
      [
        "▁bok",
        -9.084985591947055
      ],
      [
        "▁Kan",
        -9.089529279024944
      ],
      [
        "▁spelar",
        -9.09133462254486
      ],
      [
        "▁Inte",
        -9.091739908376697
      ],
      [
        "▁tur",
        -9.093184544975816
      ],
      [
        "▁skolan",
        -9.094081814540965
      ],
      [
        "▁bakom",
        -9.097225453275298
      ],
      [
        "▁händer",
        -9.101676125006112
      ],
      [
        "▁äldre",
        -9.102295830011277
      ],
      [
        "▁sida",
        -9.105505669730908
      ],
      [
        "lagen",
        -9.106012188311205
      ],
      [
        "tänker",
        -9.10704887854235
      ],
      [
        "▁utveckling",
        -9.112192453262175
      ],
      [
        "▁Var",
        -9.112643065233595
      ],
      [
        "▁film",
        -9.114898989517087
      ],
      [
        "▁landet",
        -9.11539128184385
      ],
      [
        "▁natt",
        -9.115629839057016
      ],
      [
        "▁inlägg",
        -9.117157997226219
      ],
      [
        "år",
        -9.123899348643478
      ],
      [
        "▁veckor",
        -9.12412304724715
      ],
      [
        "▁arbeta",
        -9.125063134070892
      ],
      [
        "▁Svenska",
        -9.126465752896713
      ],
      [
        "▁igenom",
        -9.126536419274043
      ],
      [
        "▁lilla",
        -9.129893709762063
      ],
      [
        "▁bor",
        -9.130379410519703
      ],
      [
        "▁ovan",
        -9.132727499605116
      ],
      [
        "▁säkert",
        -9.134060838346011
      ],
      [
        "▁ja",
        -9.136321650862135
      ],
      [
        "▁for",
        -9.140331359649537
      ],
      [
        "▁besök",
        -9.140834064278325
      ],
      [
        "▁åka",
        -9.143450849299233
      ],
      [
        "▁innehåller",
        -9.143790462453351
      ],
      [
        "▁barnen",
        -9.146005523993297
      ],
      [
        "▁månader",
        -9.146127967154273
      ],
      [
        "▁ljus",
        -9.151111397087567
      ],
      [
        "▁musik",
        -9.152805079845981
      ],
      [
        "▁personal",
        -9.154427205744355
      ],
      [
        "▁högre",
        -9.155580447110891
      ],
      [
        "▁ingår",
        -9.157795409775998
      ],
      [
        "▁Dessutom",
        -9.158610056703406
      ],
      [
        "▁Vill",
        -9.158794592251748
      ],
      [
        "▁huvud",
        -9.16156985050142
      ],
      [
        "E",
        -9.162853645661036
      ],
      [
        "▁projekt",
        -9.163113552319496
      ],
      [
        "ger",
        -9.166178466754735
      ],
      [
        "Enligt",
        -9.166482532618659
      ],
      [
        "▁unga",
        -9.168007035945376
      ],
      [
        "▁Hotel",
        -9.172230892253571
      ],
      [
        "▁betyg",
        -9.173250251408573
      ],
      [
        "▁äta",
        -9.176429143966292
      ],
      [
        "▁steg",
        -9.1785240153161
      ],
      [
        "▁sak",
        -9.180860961663177
      ],
      [
        "▁kroppen",
        -9.181141002279757
      ],
      [
        "▁mamma",
        -9.183173237172825
      ],
      [
        "▁Malmö",
        -9.183559992863488
      ],
      [
        "samma",
        -9.1839442119345
      ],
      [
        "G",
        -9.184666267909234
      ],
      [
        "▁max",
        -9.189077963306003
      ],
      [
        "<",
        -9.189277573310747
      ],
      [
        "▁krav",
        -9.189511554148725
      ],
      [
        "▁full",
        -9.189530993507251
      ],
      [
        "▁kunder",
        -9.19096498769648
      ],
      [
        "▁öppna",
        -9.193162463832309
      ],
      [
        "▁bygga",
        -9.193270800103546
      ],
      [
        "▁jobba",
        -9.193278255265541
      ],
      [
        "▁U",
        -9.193814974257085
      ],
      [
        "▁lämna",
        -9.194078285157763
      ],
      [
        "men",
        -9.196723689954624
      ],
      [
        "▁In",
        -9.199644880318756
      ],
      [
        "▁alls",
        -9.199929082260267
      ],
      [
        "▁berättar",
        -9.203447021997231
      ],
      [
        "sätta",
        -9.207546428282555
      ],
      [
        "w",
        -9.207636530619459
      ],
      [
        "väljer",
        -9.211788813614932
      ],
      [
        "▁åren",
        -9.213021651568889
      ],
      [
        "Många",
        -9.213330834361939
      ],
      [
        "▁alternativ",
        -9.21633832846289
      ],
      [
        "▁kör",
        -9.21666432529945
      ],
      [
        "▁perfekt",
        -9.216774276864353
      ],
      [
        "▁lära",
        -9.217233364253063
      ],
      [
        "X",
        -9.218932355792806
      ],
      [
        "främst",
        -9.219185898280017
      ],
      [
        "▁arbets",
        -9.220212219310213
      ],
      [
        "▁roligt",
        -9.222312473788508
      ],
      [
        "▁tack",
        -9.223651997498838
      ],
      [
        "tid",
        -9.227314773382762
      ],
      [
        "ligen",
        -9.228477456837986
      ],
      [
        "▁försöka",
        -9.228961308555988
      ],
      [
        "▁januari",
        -9.22979069397709
      ],
      [
        "Det",
        -9.238462148404905
      ],
      [
        "ström",
        -9.238924843664583
      ],
      [
        "▁vänner",
        -9.238972624789588
      ],
      [
        "▁viktig",
        -9.24063663291798
      ],
      [
        "▁skrev",
        -9.242422301558284
      ],
      [
        "z",
        -9.244039339626612
      ],
      [
        "▁augusti",
        -9.244455412755432
      ],
      [
        "▁sommar",
        -9.244852409626853
      ],
      [
        "▁spelare",
        -9.245028442275695
      ],
      [
        "era",
        -9.245702907501759
      ],
      [
        "▁följa",
        -9.245942502296021
      ],
      [
        "▁dra",
        -9.246174508983424
      ],
      [
        "▁kvinna",
        -9.247193044344652
      ],
      [
        "▁fint",
        -9.251172801470318
      ],
      [
        "ut",
        -9.25131000359398
      ],
      [
        "▁dejta",
        -9.2516775441077
      ],
      [
        "▁hotellet",
        -9.253223582363384
      ],
      [
        "▁bonus",
        -9.255716751471297
      ],
      [
        "▁län",
        -9.255954434958218
      ],
      [
        "tal",
        -9.256808355558434
      ],
      [
        "▁sker",
        -9.26005925484949
      ],
      [
        "▁blogg",
        -9.262843861695266
      ],
      [
        "$",
        -9.264688491401994
      ],
      [
        "▁samband",
        -9.268304331264684
      ],
      [
        "▁frågan",
        -9.271104908855751
      ],
      [
        "▁följande",
        -9.272531514049664
      ],
      [
        "▁titta",
        -9.273444783600834
      ],
      [
        "▁spännande",
        -9.273634232757363
      ],
      [
        "som",
        -9.27376638340098
      ],
      [
        "▁Ta",
        -9.274765403282345
      ],
      [
        "▁igång",
        -9.278759379350749
      ],
      [
        "▁service",
        -9.27997726364319
      ],
      [
        "▁års",
        -9.283933335422226
      ],
      [
        "▁Allt",
        -9.28404436667465
      ],
      [
        "▁mars",
        -9.286264321294782
      ],
      [
        "▁ifrån",
        -9.289368570936375
      ],
      [
        "ste",
        -9.289927432921488
      ],
      [
        "»",
        -9.291230871094792
      ],
      [
        "▁liknande",
        -9.293169908448208
      ],
      [
        "▁goda",
        -9.293379135965441
      ],
      [
        "▁området",
        -9.294671116732777
      ],
      [
        "▁Från",
        -9.296192005644947
      ],
      [
        "V",
        -9.296216825036904
      ],
      [
        "▁månad",
        -9.297113873373819
      ],
      [
        "R",
        -9.297380574111845
      ],
      [
        "▁massa",
        -9.298049359226152
      ],
      [
        "▁Bra",
        -9.298148193175424
      ],
      [
        "slutet",
        -9.299621850827968
      ],
      [
        "▁pa",
        -9.300936064669049
      ],
      [
        "▁dit",
        -9.301420453170799
      ],
      [
        "▁Genom",
        -9.301609489424036
      ],
      [
        "▁satt",
        -9.302069121683488
      ],
      [
        "▁uppgifter",
        -9.303592255384624
      ],
      [
        "▁fort",
        -9.304353676953271
      ],
      [
        "▁jul",
        -9.307189922060513
      ],
      [
        "laget",
        -9.307897141214161
      ],
      [
        "▁eget",
        -9.308686143315851
      ],
      [
        "▁minska",
        -9.308979060008136
      ],
      [
        "▁roll",
        -9.309437390997187
      ],
      [
        "av",
        -9.309475426613414
      ],
      [
        "▁lär",
        -9.310141443466804
      ],
      [
        "▁vanlig",
        -9.312176917068165
      ],
      [
        "▁cm",
        -9.313055771400359
      ],
      [
        "▁utbildning",
        -9.313128729508858
      ],
      [
        "H",
        -9.313661241082144
      ],
      [
        "▁tillgång",
        -9.313770876569654
      ],
      [
        "läget",
        -9.315319309497877
      ],
      [
        "▁länder",
        -9.31545756737044
      ],
      [
        "▁tydlig",
        -9.317115477022943
      ],
      [
        "▁älskar",
        -9.317510848065812
      ],
      [
        "▁skor",
        -9.318427292740381
      ],
      [
        "▁poäng",
        -9.319463859956969
      ],
      [
        "▁erfarenhet",
        -9.3201451409475
      ],
      [
        "▁Dessa",
        -9.320886050160308
      ],
      [
        "▁jobbar",
        -9.321125943608912
      ],
      [
        "▁jobbet",
        -9.321971966134193
      ],
      [
        "▁material",
        -9.322292749012767
      ],
      [
        "•",
        -9.323477788695296
      ],
      [
        "▁casino",
        -9.32698539378091
      ],
      [
        "▁öka",
        -9.32854012459131
      ],
      [
        "▁skicka",
        -9.331938107328167
      ],
      [
        "▁Nej",
        -9.333238897124467
      ],
      [
        "▁TV",
        -9.334904408534191
      ],
      [
        "▁kvalitet",
        -9.335164233680095
      ],
      [
        "▁liksom",
        -9.338779345867037
      ],
      [
        "▁tro",
        -9.339309729390713
      ],
      [
        "▁fortsätta",
        -9.339369272805714
      ],
      [
        "▁nedan",
        -9.340371077347928
      ],
      [
        "▁tio",
        -9.340558646445457
      ],
      [
        "▁vem",
        -9.340934413261841
      ],
      [
        "Jag",
        -9.341778997089897
      ],
      [
        "▁hälsa",
        -9.342628571773075
      ],
      [
        "▁igår",
        -9.343002197891362
      ],
      [
        "▁glad",
        -9.345424456265606
      ],
      [
        "▁W",
        -9.345485467927949
      ],
      [
        "eller",
        -9.347583680958774
      ],
      [
        "▁tredje",
        -9.347994692624649
      ],
      [
        "ras",
        -9.348909591688317
      ],
      [
        "låter",
        -9.352533850493906
      ],
      [
        "▁program",
        -9.354587256094323
      ],
      [
        "▁juni",
        -9.357949593055444
      ],
      [
        "försöker",
        -9.358308398798718
      ],
      [
        "▁företaget",
        -9.359356805348229
      ],
      [
        "▁fortsätter",
        -9.359362974791512
      ],
      [
        "sjön",
        -9.360433737534343
      ],
      [
        "§",
        -9.360618235322793
      ],
      [
        "▁nätdejting",
        -9.361868125583499
      ],
      [
        "▁ex",
        -9.361927236259087
      ],
      [
        "▁krävs",
        -9.36199211886026
      ],
      [
        "▁kultur",
        -9.362637476483172
      ],
      [
        "betyder",
        -9.363893523540284
      ],
      [
        "▁kontakta",
        -9.365133605967483
      ],
      [
        "sk",
        -9.368743641982263
      ],
      [
        "▁behövs",
        -9.369431524650777
      ],
      [
        "höll",
        -9.369999269227726
      ],
      [
        "▁engelska",
        -9.370152189902054
      ],
      [
        "▁rör",
        -9.370260961561124
      ],
      [
        "▁kommunen",
        -9.370807864570068
      ],
      [
        "▁användas",
        -9.37109216862004
      ],
      [
        "by",
        -9.372476643377201
      ],
      [
        "▁vilja",
        -9.372574640359359
      ],
      [
        "—",
        -9.374404612592844
      ],
      [
        "▁Eller",
        -9.376279030861078
      ],
      [
        "▁vanliga",
        -9.378930589335873
      ],
      [
        "▁stund",
        -9.379372547804264
      ],
      [
        "▁Vår",
        -9.380592591829771
      ],
      [
        "▁stå",
        -9.383104476704109
      ],
      [
        "orna",
        -9.38373248314885
      ],
      [
        "▁meter",
        -9.385648847580986
      ],
      [
        "▁utveckla",
        -9.386937908754188
      ],
      [
        "▁match",
        -9.388275968656854
      ],
      [
        "▁kväll",
        -9.388337124318337
      ],
      [
        "▁dejtingsajt",
        -9.389971018070483
      ],
      [
        "Därför",
        -9.391019995297686
      ],
      [
        "tydligt",
        -9.391071980704213
      ],
      [
        "▁favorit",
        -9.391241233405863
      ],
      [
        "▁start",
        -9.392000019445968
      ],
      [
        "▁närheten",
        -9.392649869787933
      ],
      [
        "▁råd",
        -9.394718719286757
      ],
      [
        "▁Mer",
        -9.395339159268328
      ],
      [
        "nike",
        -9.395985609067449
      ],
      [
        "▁bidra",
        -9.39612798366081
      ],
      [
        "står",
        -9.397595023232645
      ],
      [
        "▁oktober",
        -9.397730981178452
      ],
      [
        "▁april",
        -9.397987244714177
      ],
      [
        "▁recept",
        -9.398900146686051
      ],
      [
        "▁Ska",
        -9.399063087081378
      ],
      [
        "▁Ni",
        -9.399657319041362
      ],
      [
        "▁fortsatt",
        -9.400138510876975
      ],
      [
        "▁fr",
        -9.403616543962963
      ],
      [
        "▁arbetet",
        -9.40385392320848
      ],
      [
        "▁grupp",
        -9.40414006494136
      ],
      [
        "lösa",
        -9.404714766871352
      ],
      [
        "▁vård",
        -9.405410278082515
      ],
      [
        "▁hör",
        -9.406176823798106
      ],
      [
        "▁bilen",
        -9.407561902174194
      ],
      [
        "▁köra",
        -9.408785541713552
      ],
      [
        "▁september",
        -9.411474111456686
      ],
      [
        "▁morgon",
        -9.41560197327301
      ],
      [
        "▁heter",
        -9.417821939312214
      ],
      [
        "▁kolla",
        -9.418953641608557
      ],
      [
        "▁ungefär",
        -9.421365659897099
      ],
      [
        "stället",
        -9.422485428046006
      ],
      [
        "går",
        -9.422604240210573
      ],
      [
        "▁samarbete",
        -9.423274470829563
      ],
      [
        "bar",
        -9.427088398982205
      ],
      [
        "tyckte",
        -9.427915280148136
      ],
      [
        "▁prata",
        -9.428392041951694
      ],
      [
        "▁va",
        -9.428631507107696
      ],
      [
        "▁Europa",
        -9.429529189345034
      ],
      [
        "Varför",
        -9.429543561154022
      ],
      [
        "med",
        -9.429635810455174
      ],
      [
        "Kanske",
        -9.4305070807479
      ],
      [
        "▁träffa",
        -9.431694064626875
      ],
      [
        "▁påverka",
        -9.431943005712357
      ],
      [
        "därmed",
        -9.433054440115354
      ],
      [
        "▁cirka",
        -9.433729089430672
      ],
      [
        "▁halv",
        -9.436520953499032
      ],
      [
        "finnas",
        -9.439086812793862
      ],
      [
        "O",
        -9.439130540340274
      ],
      [
        "▁fri",
        -9.439594556266025
      ],
      [
        "▁Anna",
        -9.440192435685233
      ],
      [
        "bolaget",
        -9.440442366033928
      ],
      [
        "▁hemsida",
        -9.442308545324735
      ],
      [
        "▁behandling",
        -9.442985014296575
      ],
      [
        "▁absolut",
        -9.444809133999332
      ],
      [
        "▁exempelvis",
        -9.446301272323636
      ],
      [
        "▁kunskap",
        -9.447728475089429
      ],
      [
        "▁viss",
        -9.44783725727298
      ],
      [
        "▁boken",
        -9.447889729420869
      ],
      [
        "▁hår",
        -9.448095812162396
      ],
      [
        "ny",
        -9.448284591060547
      ],
      [
        "dag",
        -9.44973793475951
      ],
      [
        "oftast",
        -9.449978012967073
      ],
      [
        "▁sommaren",
        -9.450358978726335
      ],
      [
        "▁februari",
        -9.45084738519989
      ],
      [
        "▁bl",
        -9.452542515952082
      ],
      [
        "▁risk",
        -9.452686600561806
      ],
      [
        "visade",
        -9.45368760626245
      ],
      [
        "▁helgen",
        -9.454442923996584
      ],
      [
        "▁köp",
        -9.455508231112043
      ],
      [
        "▁land",
        -9.456135191144613
      ],
      [
        "▁Be",
        -9.456891471305745
      ],
      [
        "▁gav",
        -9.457302217898906
      ],
      [
        "▁telefon",
        -9.457982913214794
      ],
      [
        "▁intresse",
        -9.459531848353011
      ],
      [
        "land",
        -9.459627423687678
      ],
      [
        "består",
        -9.460298505596592
      ],
      [
        "▁hämta",
        -9.461077428727116
      ],
      [
        "▁senast",
        -9.462023149761864
      ],
      [
        "▁uppdrag",
        -9.462154814367313
      ],
      [
        "▁system",
        -9.463377630247962
      ],
      [
        "▁klar",
        -9.463602833694763
      ],
      [
        "bara",
        -9.466239281906885
      ],
      [
        "spel",
        -9.467476154654571
      ],
      [
        "behöva",
        -9.468701020577964
      ],
      [
        "▁beroende",
        -9.468882551364407
      ],
      [
        "▁djur",
        -9.469661018191466
      ],
      [
        "programmet",
        -9.470554367797375
      ],
      [
        "anser",
        -9.472375268238643
      ],
      [
        "▁boende",
        -9.472668839072327
      ],
      [
        "▁övriga",
        -9.475217078440338
      ],
      [
        "lägger",
        -9.47604972451593
      ],
      [
        "▁speciellt",
        -9.476217847714983
      ],
      [
        "▁kvällen",
        -9.477503782449025
      ],
      [
        "▁air",
        -9.477993616635542
      ],
      [
        "▁december",
        -9.479533461042708
      ],
      [
        "på",
        -9.47989122303025
      ],
      [
        "▁bilden",
        -9.479961011080782
      ],
      [
        "tänkte",
        -9.48015644188878
      ],
      [
        "▁familj",
        -9.481306731339254
      ],
      [
        "▁fokus",
        -9.481706041482429
      ],
      [
        "▁internet",
        -9.481978732559206
      ],
      [
        "▁framtiden",
        -9.483353522752523
      ],
      [
        "▁tanke",
        -9.486105703350042
      ],
      [
        "▁intressant",
        -9.487106876597641
      ],
      [
        "▁snabb",
        -9.489745560369785
      ],
      [
        "▁förstår",
        -9.49135054052669
      ],
      [
        "▁svart",
        -9.492638809855551
      ],
      [
        "▁Ny",
        -9.492801479255075
      ],
      [
        "▁följer",
        -9.492805810767075
      ],
      [
        "▁bo",
        -9.493015980728234
      ],
      [
        "ifrån",
        -9.495155650609885
      ],
      [
        "såsom",
        -9.495485207970003
      ],
      [
        "▁berätta",
        -9.495700438404787
      ],
      [
        "nat",
        -9.496282188041214
      ],
      [
        "▁Hitta",
        -9.49834439357116
      ],
      [
        "ökar",
        -9.4984687122308
      ],
      [
        "▁klara",
        -9.498763909032574
      ],
      [
        "nas",
        -9.500901570262988
      ],
      [
        "ast",
        -9.50146555712484
      ],
      [
        "▁november",
        -9.50602990964557
      ],
      [
        "▁vackra",
        -9.508596469267594
      ],
      [
        "åkte",
        -9.508886604154306
      ],
      [
        "emot",
        -9.509467070715866
      ],
      [
        "▁skönt",
        -9.50971668815689
      ],
      [
        "▁juli",
        -9.51077693603577
      ],
      [
        "▁familjen",
        -9.511796076044151
      ],
      [
        "Eftersom",
        -9.511834366281679
      ],
      [
        "▁tjänster",
        -9.51326535184388
      ],
      [
        "▁svår",
        -9.514608660803821
      ],
      [
        "gående",
        -9.515483559205718
      ],
      [
        "▁Stockholms",
        -9.516005363701723
      ],
      [
        "ats",
        -9.516105907895511
      ],
      [
        "mer",
        -9.516349843620079
      ],
      [
        "▁lever",
        -9.516752970379143
      ],
      [
        "nämligen",
        -9.51764627755179
      ],
      [
        "▁skol",
        -9.519474229284809
      ],
      [
        "▁data",
        -9.519685281393084
      ],
      [
        "menar",
        -9.521049062046421
      ],
      [
        "▁stod",
        -9.521101191337296
      ],
      [
        "sätter",
        -9.523258067554712
      ],
      [
        "▁Ut",
        -9.52370267826065
      ],
      [
        "▁Hej",
        -9.523749859737995
      ],
      [
        "stående",
        -9.525474199505089
      ],
      [
        "otroligt",
        -9.525678783433044
      ],
      [
        "gatan",
        -9.52598532769293
      ],
      [
        "▁produkt",
        -9.526369302924794
      ],
      [
        "▁staden",
        -9.52791193746095
      ],
      [
        "▁kund",
        -9.528072979255171
      ],
      [
        "alldeles",
        -9.528333831257385
      ],
      [
        "annars",
        -9.531536988936434
      ],
      [
        "typer",
        -9.531803884901468
      ],
      [
        "▁design",
        -9.532620514188633
      ],
      [
        "▁förstå",
        -9.533775246080152
      ],
      [
        "gruppen",
        -9.533971891920062
      ],
      [
        "▁skapar",
        -9.534296269069241
      ],
      [
        "Vi",
        -9.536081422065807
      ],
      [
        "▁språk",
        -9.536611208475252
      ],
      [
        "kräver",
        -9.538219771492363
      ],
      [
        "▁super",
        -9.538742350793383
      ],
      [
        "den",
        -9.542246955578912
      ],
      [
        "▁värde",
        -9.543393381076383
      ],
      [
        "▁delen",
        -9.546748394956815
      ],
      [
        "▁samla",
        -9.54980598132736
      ],
      [
        "system",
        -9.55058166985576
      ],
      [
        "▁säker",
        -9.55295787162159
      ],
      [
        "ring",
        -9.553424951567099
      ],
      [
        "▁låta",
        -9.55582850243814
      ],
      [
        "▁verksamheten",
        -9.556207699424565
      ],
      [
        "▁anledning",
        -9.55633234099941
      ],
      [
        "beror",
        -9.556960724219246
      ],
      [
        "▁träning",
        -9.557258675601567
      ],
      [
        "▁sociala",
        -9.560899594673288
      ],
      [
        "▁erbjuda",
        -9.561133264994133
      ],
      [
        "▁föräldrar",
        -9.56137944179783
      ],
      [
        "▁skillnad",
        -9.561973008875162
      ],
      [
        "▁samhället",
        -9.563244030425954
      ],
      [
        "▁lån",
        -9.563808579743643
      ],
      [
        "systemet",
        -9.564712194440496
      ],
      [
        "▁ställa",
        -9.56494859365202
      ],
      [
        "▁regeringen",
        -9.566344627417662
      ],
      [
        "kände",
        -9.56651449822677
      ],
      [
        "um",
        -9.566931224076834
      ],
      [
        "ont",
        -9.570098876864167
      ],
      [
        "▁tänkt",
        -9.570584231575896
      ],
      [
        "▁dagens",
        -9.570711764909682
      ],
      [
        "oavsett",
        -9.571207232348955
      ],
      [
        "▁vän",
        -9.571701049567448
      ],
      [
        "isk",
        -9.572671169759161
      ],
      [
        "▁höra",
        -9.574224306344245
      ],
      [
        "ch",
        -9.57422556732622
      ],
      [
        "▁fungera",
        -9.574580391477491
      ],
      [
        "▁natur",
        -9.576890976230287
      ],
      [
        "▁lan",
        -9.577542827032056
      ],
      [
        "hus",
        -9.578098377677083
      ],
      [
        "▁gammal",
        -9.578295187534597
      ],
      [
        "såväl",
        -9.581003876115995
      ],
      [
        "▁leder",
        -9.5821034040483
      ],
      [
        "▁världens",
        -9.584283968002815
      ],
      [
        "sökte",
        -9.585255236901892
      ],
      [
        "ledande",
        -9.585573549313379
      ],
      [
        "▁klockan",
        -9.586332094846881
      ],
      [
        "▁rad",
        -9.586596024808777
      ],
      [
        "rum",
        -9.587945419461589
      ],
      [
        "▁tas",
        -9.590369010366716
      ],
      [
        "▁Facebook",
        -9.592785366976585
      ],
      [
        "▁förbättra",
        -9.593485227933892
      ],
      [
        "▁hund",
        -9.595653855675996
      ],
      [
        "▁trött",
        -9.59899839197735
      ],
      [
        "▁möjligheter",
        -9.601179497635103
      ],
      [
        "▁Anders",
        -9.601422514866716
      ],
      [
        "▁historia",
        -9.602680653508903
      ],
      [
        "sådana",
        -9.603581714441276
      ],
      [
        "▁sol",
        -9.606033643090841
      ],
      [
        "▁ändra",
        -9.606342482649993
      ],
      [
        "▁viktiga",
        -9.606374327394592
      ],
      [
        "rätt",
        -9.60713402507785
      ],
      [
        "▁lugn",
        -9.60818140359054
      ],
      [
        "▁utifrån",
        -9.608191292095574
      ],
      [
        "TM",
        -9.608505393224648
      ],
      [
        "▁stil",
        -9.609369494817155
      ],
      [
        "▁planera",
        -9.609678819016901
      ],
      [
        "▁tjejer",
        -9.612025987452418
      ],
      [
        "▁marknaden",
        -9.613091687144063
      ],
      [
        "▁leva",
        -9.614020784320845
      ],
      [
        "▁testa",
        -9.614372103045815
      ],
      [
        "▁matchen",
        -9.614553767113652
      ],
      [
        "▁höga",
        -9.615095689340386
      ],
      [
        "▁kläder",
        -9.615367837347547
      ],
      [
        "▁huset",
        -9.615841086048512
      ],
      [
        "▁hantera",
        -9.616269022583651
      ],
      [
        "▁Ha",
        -9.617006396167483
      ],
      [
        "▁Köp",
        -9.618331962240037
      ],
      [
        "▁app",
        -9.619445729677857
      ],
      [
        "val",
        -9.619985697998715
      ],
      [
        "▁icke",
        -9.621559631754295
      ],
      [
        "▁Per",
        -9.621953133082908
      ],
      [
        "▁iväg",
        -9.622209642072875
      ],
      [
        "▁högt",
        -9.62498646729645
      ],
      [
        "▁stad",
        -9.625314719314177
      ],
      [
        "▁Just",
        -9.625627642247983
      ],
      [
        "▁nöjd",
        -9.625735650869196
      ],
      [
        "▁kallas",
        -9.625905170352528
      ],
      [
        "▁medlemmar",
        -9.62612923817026
      ],
      [
        "tyvärr",
        -9.626458849595416
      ],
      [
        "▁visst",
        -9.626827071439227
      ],
      [
        "värt",
        -9.626970116430016
      ],
      [
        "▁elever",
        -9.627671581277498
      ],
      [
        "Mycket",
        -9.629443215266745
      ],
      [
        "resten",
        -9.629814317630922
      ],
      [
        "antalet",
        -9.630998233832129
      ],
      [
        "ge",
        -9.63168153177649
      ],
      [
        "lan",
        -9.632613771646065
      ],
      [
        "▁spara",
        -9.63412556911047
      ],
      [
        "tittade",
        -9.6357757847962
      ],
      [
        "▁polisen",
        -9.636465909036312
      ],
      [
        "satts",
        -9.637597876443547
      ],
      [
        "▁semester",
        -9.638307409245552
      ],
      [
        "sidan",
        -9.638337230627384
      ],
      [
        "▁totalt",
        -9.63871185361965
      ],
      [
        "▁Bo",
        -9.63967243196217
      ],
      [
        "▁ordförande",
        -9.639909661996217
      ],
      [
        "program",
        -9.643582852856667
      ],
      [
        "▁byta",
        -9.644299743155175
      ],
      [
        "resenärer",
        -9.645157437394808
      ],
      [
        "▁mobil",
        -9.645388211150967
      ],
      [
        "▁vikt",
        -9.645601947444574
      ],
      [
        "post",
        -9.64763853958382
      ],
      [
        "▁plan",
        -9.64794879391562
      ],
      [
        "▁flytta",
        -9.648830148267319
      ],
      [
        "▁omkring",
        -9.649055786883624
      ],
      [
        "▁fullt",
        -9.64950842672599
      ],
      [
        "▁dator",
        -9.651923852465806
      ],
      [
        "ly",
        -9.652806706683165
      ],
      [
        "▁artikel",
        -9.652829205601572
      ],
      [
        "▁dejtingsajter",
        -9.653669225438486
      ],
      [
        "▁Johan",
        -9.655052256791267
      ],
      [
        "▁New",
        -9.655533023602755
      ],
      [
        "▁ögon",
        -9.658657375815777
      ],
      [
        "▁långa",
        -9.659387180322646
      ],
      [
        "▁söka",
        -9.65962074997711
      ],
      [
        "og",
        -9.659746966598679
      ],
      [
        "▁stark",
        -9.66024801934331
      ],
      [
        "plan",
        -9.66057306427266
      ],
      [
        "▁hittade",
        -9.661006130243608
      ],
      [
        "hända",
        -9.665293268423838
      ],
      [
        "▁billiga",
        -9.666178937426455
      ],
      [
        "ton",
        -9.667591952242406
      ],
      [
        "▁SEK",
        -9.667894321606479
      ],
      [
        "▁stanna",
        -9.668942420785275
      ],
      [
        "▁årets",
        -9.66992845393958
      ],
      [
        "▁säsongen",
        -9.67086119932459
      ],
      [
        "▁Uppsala",
        -9.671640909383779
      ],
      [
        "allra",
        -9.672160877001184
      ],
      [
        "▁lägre",
        -9.67256197691701
      ],
      [
        "▁sitta",
        -9.673986693341995
      ],
      [
        "drar",
        -9.674097557094262
      ],
      [
        "▁tillhör",
        -9.67428902628971
      ],
      [
        "politiska",
        -9.674423945081436
      ],
      [
        "tidigt",
        -9.67478248537341
      ],
      [
        "▁böcker",
        -9.675159407906879
      ],
      [
        "ell",
        -9.677025250850084
      ],
      [
        "▁åker",
        -9.677566095902431
      ],
      [
        "▁uttryck",
        -9.680373225288575
      ],
      [
        "▁vann",
        -9.681461125994488
      ],
      [
        "▁lokala",
        -9.681516792612939
      ],
      [
        "▁respektive",
        -9.68269341116902
      ],
      [
        "▁vinna",
        -9.683379526864055
      ],
      [
        "skrivit",
        -9.684543728397566
      ],
      [
        "▁vuxna",
        -9.685764749669703
      ],
      [
        "▁exakt",
        -9.688296256215981
      ],
      [
        "▁diskutera",
        -9.68899533786333
      ],
      [
        "be",
        -9.689931463287389
      ],
      [
        "’",
        -9.690435874451545
      ],
      [
        "börjat",
        -9.694190472648694
      ],
      [
        "lund",
        -9.694437805914804
      ],
      [
        "▁teknik",
        -9.69466532929906
      ],
      [
        "▁lunch",
        -9.695046651728886
      ],
      [
        "till",
        -9.69535762981433
      ],
      [
        "▁date",
        -9.69730269515733
      ],
      [
        "▁hösten",
        -9.697977987563746
      ],
      [
        "▁storlek",
        -9.698744066542513
      ],
      [
        "kända",
        -9.698819035786752
      ],
      [
        "▁topp",
        -9.69955885100733
      ],
      [
        "ett",
        -9.700191474473296
      ],
      [
        "▁boka",
        -9.700393242951247
      ],
      [
        "▁billigt",
        -9.700505280742842
      ],
      [
        "▁delta",
        -9.701064396229151
      ],
      [
        "lättare",
        -9.701622143882782
      ],
      [
        "▁områden",
        -9.701788278869104
      ],
      [
        "samtliga",
        -9.702178587156883
      ],
      [
        "▁betydelse",
        -9.703283800978365
      ],
      [
        "enbart",
        -9.70401939736807
      ],
      [
        "▁kaffe",
        -9.705150703786424
      ],
      [
        "ets",
        -9.70536554660368
      ],
      [
        "▁recensioner",
        -9.70652455106425
      ],
      [
        "▁flyg",
        -9.707186223540928
      ],
      [
        "▁glas",
        -9.70923888723298
      ],
      [
        "▁användning",
        -9.709641891407612
      ],
      [
        "▁samtal",
        -9.70965651183311
      ],
      [
        "▁född",
        -9.70975036345789
      ],
      [
        "▁dåligt",
        -9.710999688652864
      ],
      [
        "maste",
        -9.71158178478842
      ],
      [
        "▁frukost",
        -9.712547788025388
      ],
      [
        "området",
        -9.712667260457792
      ],
      [
        "▁forskning",
        -9.712951898841988
      ],
      [
        "▁text",
        -9.714383178318464
      ],
      [
        "▁trevlig",
        -9.714599886483423
      ],
      [
        "bo",
        -9.718536770706708
      ],
      [
        "▁förstås",
        -9.719395754035578
      ],
      [
        "Hotels",
        -9.719670539832508
      ],
      [
        "▁dela",
        -9.720814913073582
      ],
      [
        "köpte",
        -9.722355828755811
      ],
      [
        "▁samman",
        -9.72428403893611
      ],
      [
        "utmärkt",
        -9.724375110504083
      ],
      [
        "▁nivå",
        -9.724615557826887
      ],
      [
        "▁Foto",
        -9.72480683087194
      ],
      [
        "tiden",
        -9.724901095083924
      ],
      [
        "▁gäster",
        -9.726133044488073
      ],
      [
        "kostar",
        -9.728237627073907
      ],
      [
        "så",
        -9.728976845509777
      ],
      [
        "▁hit",
        -9.730716670890681
      ],
      [
        "▁Tänk",
        -9.730878703943254
      ],
      [
        "▁håll",
        -9.732024865403238
      ],
      [
        "▁pappa",
        -9.732036279819795
      ],
      [
        "▁åtgärder",
        -9.733178567032978
      ],
      [
        "▁konstatera",
        -9.733203133114486
      ],
      [
        "▁borta",
        -9.733512231249174
      ],
      [
        "▁Kina",
        -9.735110309391212
      ],
      [
        "▁väntar",
        -9.735695165437226
      ],
      [
        "▁bär",
        -9.73666447789457
      ],
      [
        "▁webbplats",
        -9.736752455641405
      ],
      [
        "▁Jo",
        -9.73713123541506
      ],
      [
        "iskt",
        -9.737795603084475
      ],
      [
        "▁platser",
        -9.73918732935924
      ],
      [
        "efter",
        -9.739816792119255
      ],
      [
        "▁område",
        -9.740167689874129
      ],
      [
        "bygger",
        -9.741074852356226
      ],
      [
        "▁massor",
        -9.742473969004294
      ],
      [
        "▁lärare",
        -9.74313669460099
      ],
      [
        "▁centrum",
        -9.743428470312969
      ],
      [
        "tillräckligt",
        -9.744231418915541
      ],
      [
        "erade",
        -9.744364944012734
      ],
      [
        "▁vänta",
        -9.744599968045382
      ],
      [
        "läser",
        -9.745007842848702
      ],
      [
        "▁ljud",
        -9.745425357422528
      ],
      [
        "dagarna",
        -9.748182727152754
      ],
      [
        "▁handla",
        -9.748352111060134
      ],
      [
        "▁läge",
        -9.749173658051568
      ],
      [
        "▁vänster",
        -9.750701523256303
      ],
      [
        "▁högsta",
        -9.751421607064133
      ],
      [
        "▁dejtingsidor",
        -9.752396025931834
      ],
      [
        "▁höger",
        -9.754037385939572
      ],
      [
        "▁känsla",
        -9.754975565706886
      ],
      [
        "ställer",
        -9.755661178181658
      ],
      [
        "▁sju",
        -9.756078815888644
      ],
      [
        "▁träna",
        -9.75665638295896
      ],
      [
        "▁enkel",
        -9.757221365658852
      ],
      [
        "▁smak",
        -9.758597513145343
      ],
      [
        "U",
        -9.758748144482801
      ],
      [
        "▁La",
        -9.759748322571445
      ],
      [
        "▁regler",
        -9.759977088078452
      ],
      [
        "▁lyckas",
        -9.76183616936764
      ],
      [
        "▁kontroll",
        -9.762100608518114
      ],
      [
        "▁skola",
        -9.764025189386393
      ],
      [
        "spelade",
        -9.764050722609726
      ],
      [
        "Samtidigt",
        -9.76458415464863
      ],
      [
        "ka",
        -9.76501438543657
      ],
      [
        "sådant",
        -9.765046073345403
      ],
      [
        "▁ensam",
        -9.767709667459437
      ],
      [
        "▁bak",
        -9.768871439302131
      ],
      [
        "fallet",
        -9.769730313441883
      ],
      [
        "▁värme",
        -9.772213531959464
      ],
      [
        "▁snar",
        -9.772547219284329
      ],
      [
        "via",
        -9.773447655580831
      ],
      [
        "▁trä",
        -9.773917181407299
      ],
      [
        "▁reda",
        -9.774141161922666
      ],
      [
        "▁behöv",
        -9.774364648444422
      ],
      [
        "gren",
        -9.774435812118238
      ],
      [
        "gick",
        -9.775064362331504
      ],
      [
        "▁ålder",
        -9.776387868712263
      ],
      [
        "plats",
        -9.777082354252173
      ],
      [
        "▁Å",
        -9.777670232646086
      ],
      [
        "▁bygg",
        -9.778014696293914
      ],
      [
        "Varje",
        -9.77891695194839
      ],
      [
        "▁Maria",
        -9.778961001099608
      ],
      [
        "▁bolag",
        -9.77969735202315
      ],
      [
        "▁hud",
        -9.779927287036829
      ],
      [
        "▁pass",
        -9.780878342983293
      ],
      [
        "▁Barn",
        -9.781884045125617
      ],
      [
        "▁gällande",
        -9.782495598462882
      ],
      [
        "▁ekonomi",
        -9.782719616273061
      ],
      [
        "▁säkerhet",
        -9.78306554005294
      ],
      [
        "▁kraft",
        -9.784559829092169
      ],
      [
        "▁snö",
        -9.784709128267592
      ],
      [
        "huset",
        -9.784946190917179
      ],
      [
        "illa",
        -9.785433408706155
      ],
      [
        "▁Peter",
        -9.785750002329902
      ],
      [
        "▁Låt",
        -9.786367217057938
      ],
      [
        "▁effekt",
        -9.787376525506094
      ],
      [
        "▁kompetens",
        -9.78749187742079
      ],
      [
        "▁Ingen",
        -9.7875470170583
      ],
      [
        "Hoppas",
        -9.788672517527752
      ],
      [
        "▁framåt",
        -9.790520103449067
      ],
      [
        "▁filmen",
        -9.79129359874381
      ],
      [
        "▁stan",
        -9.791784505612739
      ],
      [
        "▁sälja",
        -9.792211999447568
      ],
      [
        "▁död",
        -9.792877554676096
      ],
      [
        "▁ekonomiska",
        -9.79416002062038
      ],
      [
        "▁lokal",
        -9.795100636188263
      ],
      [
        "www",
        -9.797190376440904
      ],
      [
        "▁Två",
        -9.797216520481886
      ],
      [
        "▁valt",
        -9.7976375828698
      ],
      [
        "▁sade",
        -9.797892402828243
      ],
      [
        "▁anställda",
        -9.79800921896441
      ],
      [
        "bok",
        -9.798148453536738
      ],
      [
        "▁lista",
        -9.798917618277109
      ],
      [
        "▁variera",
        -9.800359435604786
      ],
      [
        "▁nån",
        -9.800730427429512
      ],
      [
        "▁önskar",
        -9.801080387631854
      ],
      [
        "namnet",
        -9.801166488343311
      ],
      [
        "▁låt",
        -9.801523828577851
      ],
      [
        "▁tillgängliga",
        -9.803788700912435
      ],
      [
        "▁lager",
        -9.80394995612803
      ],
      [
        "viktigaste",
        -9.804020690464851
      ],
      [
        "▁hårt",
        -9.804082374089084
      ],
      [
        "säkra",
        -9.804096515817358
      ],
      [
        "▁luft",
        -9.805788298191182
      ],
      [
        "inklusive",
        -9.806848626432545
      ],
      [
        "▁konto",
        -9.808155733248391
      ],
      [
        "▁rolig",
        -9.809384246834972
      ],
      [
        "▁besökare",
        -9.809454160590168
      ],
      [
        "▁konst",
        -9.809498260703528
      ],
      [
        "▁populära",
        -9.809786850821952
      ],
      [
        "▁sverige",
        -9.810363257556235
      ],
      [
        "▁sidor",
        -9.8122211377095
      ],
      [
        "▁ske",
        -9.81247014675729
      ],
      [
        "▁Välkommen",
        -9.813543343102573
      ],
      [
        "▁Hans",
        -9.814778787036623
      ],
      [
        "▁maskin",
        -9.8149031641794
      ],
      [
        "▁by",
        -9.815662086115735
      ],
      [
        "▁leda",
        -9.817998722076155
      ],
      [
        "sta",
        -9.818843590213037
      ],
      [
        "trodde",
        -9.819157042453803
      ],
      [
        "http",
        -9.821312342338654
      ],
      [
        "valet",
        -9.82178840096133
      ],
      [
        "kort",
        -9.822029847488295
      ],
      [
        "stod",
        -9.822379261408251
      ],
      [
        "▁trygg",
        -9.822878059073757
      ],
      [
        "▁övrigt",
        -9.823096407125659
      ],
      [
        "målet",
        -9.824227947277974
      ],
      [
        "maskinöver",
        -9.824338814752737
      ],
      [
        "▁mängd",
        -9.825916264606224
      ],
      [
        "▁rent",
        -9.826499059270859
      ],
      [
        "▁kredit",
        -9.826523242266806
      ],
      [
        "lag",
        -9.827550787054536
      ],
      [
        "▁Lars",
        -9.830057563960313
      ],
      [
        "▁läst",
        -9.831971005768999
      ],
      [
        "▁ben",
        -9.832055014565862
      ],
      [
        "▁verktyg",
        -9.832779531033138
      ],
      [
        "ha",
        -9.833415288197047
      ],
      [
        "▁bad",
        -9.83396544151583
      ],
      [
        "▁universitet",
        -9.835592709049463
      ],
      [
        "närmare",
        -9.836094191048627
      ],
      [
        "▁chans",
        -9.836792485587981
      ],
      [
        "▁ladda",
        -9.837648580251805
      ],
      [
        "kan",
        -9.837834468307575
      ],
      [
        "▁Bara",
        -9.83817830844787
      ],
      [
        "ningen",
        -9.83963745847385
      ],
      [
        "▁härlig",
        -9.839796299138959
      ],
      [
        "▁Trots",
        -9.840803056666543
      ],
      [
        "▁Andersson",
        -9.84087305496861
      ],
      [
        "W",
        -9.84091861242879
      ],
      [
        "En",
        -9.84136866638629
      ],
      [
        "▁kommande",
        -9.841537035089159
      ],
      [
        "▁funktion",
        -9.84331045803795
      ],
      [
        "▁personliga",
        -9.846124845324006
      ],
      [
        "dagen",
        -9.846218362232955
      ],
      [
        "Klicka",
        -9.846747786880448
      ],
      [
        "▁natten",
        -9.84783445039412
      ],
      [
        "ökad",
        -9.848270684973535
      ],
      [
        "▁dejtingsida",
        -9.848357556123316
      ],
      [
        "▁prova",
        -9.84913025884227
      ],
      [
        "▁privat",
        -9.849644402504529
      ],
      [
        "▁äter",
        -9.849904410862003
      ],
      [
        "▁höst",
        -9.850475100387175
      ],
      [
        "▁kropp",
        -9.852010339101998
      ],
      [
        "del",
        -9.852154850506267
      ],
      [
        "▁tjej",
        -9.852570922853827
      ],
      [
        "▁priset",
        -9.853745424492097
      ],
      [
        "▁hälso",
        -9.853787665433408
      ],
      [
        "jämfört",
        -9.853846978228978
      ],
      [
        "▁kommentar",
        -9.853952976680118
      ],
      [
        "verket",
        -9.854240493461614
      ],
      [
        "vore",
        -9.854668218953494
      ],
      [
        "ner",
        -9.855868859895402
      ],
      [
        "▁Finns",
        -9.856401173195971
      ],
      [
        "utgör",
        -9.85771212767661
      ],
      [
        "▁Gud",
        -9.860607613708611
      ],
      [
        "▁tankar",
        -9.860764377508227
      ],
      [
        "ewards",
        -9.860850959965006
      ],
      [
        "▁bi",
        -9.861463335655074
      ],
      [
        "ering",
        -9.861758569134732
      ],
      [
        "▁läs",
        -9.862712155477517
      ],
      [
        "▁innehåll",
        -9.863491101833313
      ],
      [
        "▁kärlek",
        -9.864119610967858
      ],
      [
        "däremot",
        -9.864174751226356
      ],
      [
        "▁någonsin",
        -9.864598003996544
      ],
      [
        "▁Fortsätt",
        -9.864951127217575
      ],
      [
        "▁etc",
        -9.866640255476952
      ],
      [
        "erar",
        -9.870000080455089
      ],
      [
        "▁klimat",
        -9.870772223517662
      ],
      [
        "▁försök",
        -9.870791019277066
      ],
      [
        "▁kommentarer",
        -9.87097825658552
      ],
      [
        "▁partner",
        -9.872298176008192
      ],
      [
        "▁dam",
        -9.875157333424132
      ],
      [
        "▁påverkar",
        -9.87621359437771
      ],
      [
        "starkt",
        -9.87660612961514
      ],
      [
        "▁syn",
        -9.876918017452732
      ],
      [
        "▁Re",
        -9.877493171309343
      ],
      [
        "▁bidrag",
        -9.877931696278111
      ],
      [
        "▁ordning",
        -9.878298697909816
      ],
      [
        "▁helg",
        -9.878413679683915
      ],
      [
        "ling",
        -9.878666803879655
      ],
      [
        "▁vinter",
        -9.878951236788122
      ],
      [
        "▁uppdatera",
        -9.879111569366763
      ],
      [
        "▁fantastiskt",
        -9.879163560503004
      ],
      [
        "fritt",
        -9.880572795117727
      ],
      [
        "ades",
        -9.880812848156367
      ],
      [
        "▁vakna",
        -9.880935440006995
      ],
      [
        "▁studie",
        -9.881340245770469
      ],
      [
        "▁personlig",
        -9.882047063688999
      ],
      [
        "▁valde",
        -9.884232623304625
      ],
      [
        "▁våren",
        -9.884829776243025
      ],
      [
        "▁video",
        -9.88581398986955
      ],
      [
        "skolan",
        -9.88649447598713
      ],
      [
        "▁drog",
        -9.887786369486513
      ],
      [
        "▁ligga",
        -9.889120943353689
      ],
      [
        "▁Välj",
        -9.890396807828465
      ],
      [
        "▁färger",
        -9.890797465206171
      ],
      [
        "perioden",
        -9.892456335830028
      ],
      [
        "▁Nya",
        -9.893135492776436
      ],
      [
        "▁standard",
        -9.893861223318702
      ],
      [
        "▁starta",
        -9.894798437816663
      ],
      [
        "▁El",
        -9.895165746284427
      ],
      [
        "▁Fast",
        -9.895680742511749
      ],
      [
        "arbete",
        -9.895976344280983
      ],
      [
        "▁Lite",
        -9.896207172614405
      ],
      [
        "▁tak",
        -9.896459154776709
      ],
      [
        "▁villkor",
        -9.896920542872055
      ],
      [
        "kändes",
        -9.896932562458938
      ],
      [
        "▁kap",
        -9.897251182120447
      ],
      [
        "▁Mitt",
        -9.897438931546064
      ],
      [
        "▁fantastisk",
        -9.898221785193925
      ],
      [
        "Ibland",
        -9.898851578560095
      ],
      [
        "var",
        -9.899166363084007
      ],
      [
        "▁uppskatta",
        -9.900965021347867
      ],
      [
        "▁förbi",
        -9.901000348281952
      ],
      [
        "saknar",
        -9.901115714206187
      ],
      [
        "▁fönster",
        -9.902078554358805
      ],
      [
        "▁kurs",
        -9.902222220164088
      ],
      [
        "▁medel",
        -9.90235064826501
      ],
      [
        "▁omdömet",
        -9.902412663865947
      ],
      [
        "▁listan",
        -9.904395666925875
      ],
      [
        "därefter",
        -9.90462835743785
      ],
      [
        "Få",
        -9.904784559863566
      ],
      [
        "drygt",
        -9.905497025632178
      ],
      [
        "▁läkare",
        -9.906022089623239
      ],
      [
        "▁ungdomar",
        -9.907225071016445
      ],
      [
        "▁skäl",
        -9.907736611851343
      ],
      [
        "branschen",
        -9.908510932947852
      ],
      [
        "▁avtal",
        -9.909605303784959
      ],
      [
        "▁sport",
        -9.909847830181295
      ],
      [
        "▁talar",
        -9.910204380422144
      ],
      [
        "▁polis",
        -9.910653629128301
      ],
      [
        "sam",
        -9.910769210358843
      ],
      [
        "form",
        -9.91117701261899
      ],
      [
        "▁free",
        -9.91161622309802
      ],
      [
        "▁låna",
        -9.912707998683638
      ],
      [
        "företag",
        -9.91333837248341
      ],
      [
        "självklart",
        -9.913418890712038
      ],
      [
        "det",
        -9.91468875582188
      ],
      [
        "▁ME",
        -9.915251219342986
      ],
      [
        "funnit",
        -9.917274397853607
      ],
      [
        "gen",
        -9.917827447436018
      ],
      [
        "ihåg",
        -9.917985641282955
      ],
      [
        "▁cookies",
        -9.918110030926918
      ],
      [
        "▁Andra",
        -9.918748489917004
      ],
      [
        "▁sist",
        -9.920074943699879
      ],
      [
        "ler",
        -9.921512618211583
      ],
      [
        "köper",
        -9.922068139732872
      ],
      [
        "Mer",
        -9.922292915218348
      ],
      [
        "▁medlem",
        -9.922919919529248
      ],
      [
        "äntligen",
        -9.923169544899777
      ],
      [
        "▁varmt",
        -9.923462382513572
      ],
      [
        "▁syfte",
        -9.923648299884738
      ],
      [
        "▁risker",
        -9.924135841126725
      ],
      [
        "trax",
        -9.92427463501286
      ],
      [
        "▁erbjudanden",
        -9.924391905514895
      ],
      [
        "▁skada",
        -9.924871917321061
      ],
      [
        "▁förutsättningar",
        -9.925570184564203
      ],
      [
        "▁lyssna",
        -9.925812314000586
      ],
      [
        "nummer",
        -9.926160072040867
      ],
      [
        "lämnar",
        -9.926746376854378
      ],
      [
        "▁plus",
        -9.927787245865083
      ],
      [
        "▁klicka",
        -9.928004653843947
      ],
      [
        "Vilken",
        -9.928066817228546
      ],
      [
        "▁klass",
        -9.929834230674908
      ],
      [
        "▁aktiviteter",
        -9.93039325170804
      ],
      [
        "▁social",
        -9.930500655703934
      ],
      [
        "rna",
        -9.931498137345194
      ],
      [
        "▁Hotels",
        -9.932849766049811
      ],
      [
        "▁nej",
        -9.933278341916141
      ],
      [
        "▁passa",
        -9.933733208599723
      ],
      [
        "▁dålig",
        -9.934376659672976
      ],
      [
        "▁bit",
        -9.936468002231463
      ],
      [
        "▁test",
        -9.936651929150294
      ],
      [
        "chef",
        -9.937237450677953
      ],
      [
        "▁utvecklas",
        -9.93765425482811
      ],
      [
        "▁tittar",
        -9.937841957028107
      ],
      [
        "▁middag",
        -9.938189046531438
      ],
      [
        "▁Gratis",
        -9.938249028760405
      ],
      [
        "▁Upp",
        -9.939469260152647
      ],
      [
        "vi",
        -9.93986741058456
      ],
      [
        "▁lön",
        -9.939955500561478
      ],
      [
        "▁solen",
        -9.94157017033643
      ],
      [
        "▁imorgon",
        -9.941638876140074
      ],
      [
        "▁ändring",
        -9.941672316459238
      ],
      [
        "▁osv",
        -9.941729926695483
      ],
      [
        "me",
        -9.941820910011765
      ],
      [
        "▁slå",
        -9.942141791447538
      ],
      [
        "JL",
        -9.942797657538499
      ],
      [
        "▁Finland",
        -9.942953275092918
      ],
      [
        "▁vita",
        -9.944810575608535
      ],
      [
        "▁omdöme",
        -9.94483002810944
      ],
      [
        "▁internationella",
        -9.945106888083432
      ],
      [
        "▁mesta",
        -9.945473198206335
      ],
      [
        "ansvarig",
        -9.946407208788148
      ],
      [
        "Några",
        -9.946531849526407
      ],
      [
        "Ja",
        -9.946802331292137
      ],
      [
        "▁spelet",
        -9.947138367058614
      ],
      [
        "förutom",
        -9.947429849023921
      ],
      [
        "▁projektet",
        -9.947906478486674
      ],
      [
        "fri",
        -9.949008915280483
      ],
      [
        "▁sluta",
        -9.949499252768616
      ],
      [
        "▁uppgift",
        -9.950235606264945
      ],
      [
        "▁djup",
        -9.951700309358156
      ],
      [
        "▁vattnet",
        -9.951831409777277
      ],
      [
        "▁ingenting",
        -9.952812118085449
      ],
      [
        "▁stjärnor",
        -9.952952085147542
      ],
      [
        "dvs",
        -9.953039922754426
      ],
      [
        "▁gilla",
        -9.953684354783187
      ],
      [
        "undrar",
        -9.953762048729601
      ],
      [
        "▁njuta",
        -9.953986699189555
      ],
      [
        "▁öppen",
        -9.954102568125794
      ],
      [
        "▁svara",
        -9.954764525209002
      ],
      [
        "▁bank",
        -9.9559251579466
      ],
      [
        "▁hamna",
        -9.956247399429591
      ],
      [
        "▁medarbetare",
        -9.956896292606714
      ],
      [
        "ADRESS",
        -9.957143420758946
      ],
      [
        "▁restaurang",
        -9.957570168102576
      ],
      [
        "naturligtvis",
        -9.957827478532472
      ],
      [
        "▁utför",
        -9.958102810031816
      ],
      [
        "skickade",
        -9.959254808026195
      ],
      [
        "▁Nr",
        -9.959988207795368
      ],
      [
        "▁glöm",
        -9.961002414199202
      ],
      [
        "▁brott",
        -9.961720579045533
      ],
      [
        "▁fantastiska",
        -9.961807789120154
      ],
      [
        "▁sjuk",
        -9.962212224979833
      ],
      [
        "▁lördag",
        -9.96249068178646
      ],
      [
        "▁fundera",
        -9.9629677707604
      ],
      [
        "▁timme",
        -9.963201406296514
      ],
      [
        "lös",
        -9.964121464185572
      ],
      [
        "använt",
        -9.96467789407961
      ],
      [
        "▁barnet",
        -9.96641553153114
      ],
      [
        "▁trafik",
        -9.96671854263725
      ],
      [
        "resa",
        -9.967450426174095
      ],
      [
        "antingen",
        -9.967648879516391
      ],
      [
        "nivå",
        -9.967676004659191
      ],
      [
        "▁åtta",
        -9.968082703419709
      ],
      [
        "▁fredag",
        -9.968940766426385
      ],
      [
        "stått",
        -9.969463891201519
      ],
      [
        "▁genomföra",
        -9.969601190794737
      ],
      [
        "▁matcher",
        -9.969813702988356
      ],
      [
        "▁serie",
        -9.970097415187306
      ],
      [
        "äger",
        -9.970204370416575
      ],
      [
        "▁sova",
        -9.97044755016817
      ],
      [
        "▁leverera",
        -9.971239370250597
      ],
      [
        "▁vinst",
        -9.971903715802064
      ],
      [
        "▁Martin",
        -9.97254789051316
      ],
      [
        "aren",
        -9.97258125784348
      ],
      [
        "▁Jan",
        -9.973043009010759
      ],
      [
        "▁mark",
        -9.973480557429149
      ],
      [
        "hört",
        -9.974242171850683
      ],
      [
        "▁guld",
        -9.974346302180544
      ],
      [
        "▁modell",
        -9.97513081452788
      ],
      [
        "▁promenad",
        -9.975669472189365
      ],
      [
        "▁häst",
        -9.977058751339134
      ],
      [
        "rejäl",
        -9.977202468415053
      ],
      [
        "pratar",
        -9.977245729865759
      ],
      [
        "▁period",
        -9.977327403773252
      ],
      [
        "▁far",
        -9.977332304944866
      ],
      [
        "▁nåt",
        -9.97770607146274
      ],
      [
        "▁knappt",
        -9.978084409649702
      ],
      [
        "▁Johansson",
        -9.978107725321916
      ],
      [
        "▁blå",
        -9.978613247291001
      ],
      [
        "▁Skåne",
        -9.979761950915211
      ],
      [
        "gården",
        -9.979786254470335
      ],
      [
        "▁väder",
        -9.981021463731334
      ],
      [
        "▁Din",
        -9.983823283210217
      ],
      [
        "▁samhälls",
        -9.984370386865518
      ],
      [
        "finner",
        -9.986048031547195
      ],
      [
        "▁Över",
        -9.986319321275978
      ],
      [
        "▁tillstånd",
        -9.987343212847598
      ],
      [
        "▁Namn",
        -9.987467720220792
      ],
      [
        "▁utbud",
        -9.98768406158877
      ],
      [
        "▁undvika",
        -9.989393413916087
      ],
      [
        "▁ansökan",
        -9.990073024693714
      ],
      [
        "tar",
        -9.990190606454645
      ],
      [
        "löst",
        -9.990596991374655
      ],
      [
        "ella",
        -9.990838670634602
      ],
      [
        "▁Hem",
        -9.991077374152313
      ],
      [
        "kallade",
        -9.991319152209613
      ],
      [
        "nar",
        -9.993186825413279
      ],
      [
        "▁annorlunda",
        -9.993214239646921
      ],
      [
        "▁parti",
        -9.99485038835471
      ],
      [
        "sjö",
        -9.99525738922181
      ],
      [
        "▁regn",
        -9.996518048643436
      ],
      [
        "▁datorn",
        -9.99803445327588
      ],
      [
        "skor",
        -9.998222652070847
      ],
      [
        "▁längs",
        -9.998814211895427
      ],
      [
        "▁huvudet",
        -9.99903121829081
      ],
      [
        "▁beställa",
        -9.99934989161567
      ],
      [
        "växer",
        -9.999429787427022
      ],
      [
        "▁All",
        -9.999501825653123
      ],
      [
        "▁huden",
        -9.999756674059649
      ],
      [
        "erat",
        -9.99982754837706
      ],
      [
        "▁eventuell",
        -10.000079955363294
      ],
      [
        "lin",
        -10.000505223876493
      ],
      [
        "utveckling",
        -10.000585665710956
      ],
      [
        "▁Visst",
        -10.000794096279437
      ],
      [
        "▁grader",
        -10.000931727747355
      ],
      [
        "klarar",
        -10.001268774814855
      ],
      [
        "▁Kom",
        -10.00134118106509
      ],
      [
        "▁patienter",
        -10.002739381015578
      ],
      [
        "▁försäljning",
        -10.003719368659139
      ],
      [
        "▁rummet",
        -10.00381872937609
      ],
      [
        "Tack",
        -10.003994281402916
      ],
      [
        "▁riktig",
        -10.004275892142973
      ],
      [
        "▁dels",
        -10.004472979352736
      ],
      [
        "▁Y",
        -10.004583519388255
      ],
      [
        "▁bilar",
        -10.004903528535936
      ],
      [
        "▁Pris",
        -10.00497808432287
      ],
      [
        "▁sjukdom",
        -10.005058639536683
      ],
      [
        "skydd",
        -10.0073535816533
      ],
      [
        "räcker",
        -10.00752523695046
      ],
      [
        "▁www",
        -10.008055444188289
      ],
      [
        "ämre",
        -10.008388479055158
      ],
      [
        "é",
        -10.009217185395261
      ],
      [
        "▁värld",
        -10.009537399801811
      ],
      [
        "▁Lägg",
        -10.009939849329015
      ],
      [
        "▁bloggen",
        -10.010307694282456
      ],
      [
        "▁söndag",
        -10.011426509766856
      ],
      [
        "▁koll",
        -10.011473554242208
      ],
      [
        "▁utvecklingen",
        -10.011566171555865
      ],
      [
        "▁leta",
        -10.01183948394539
      ],
      [
        "▁öppet",
        -10.012244519801294
      ],
      [
        "garantera",
        -10.012362311512266
      ],
      [
        "▁idé",
        -10.013225758394821
      ],
      [
        "▁Sätt",
        -10.013343432710649
      ],
      [
        "▁livs",
        -10.013534252470341
      ],
      [
        "▁kalla",
        -10.013825059276797
      ],
      [
        "▁special",
        -10.013888145444483
      ],
      [
        "ökat",
        -10.01434285440352
      ],
      [
        "Våra",
        -10.015479448547902
      ],
      [
        "▁kommuner",
        -10.015538466775538
      ],
      [
        "produkter",
        -10.016137284824357
      ],
      [
        "▁Bland",
        -10.018193309460411
      ],
      [
        "▁mår",
        -10.01847645826928
      ],
      [
        "samt",
        -10.018572272681853
      ],
      [
        "lyckades",
        -10.019763986837091
      ],
      [
        "▁Bästa",
        -10.0220516055167
      ],
      [
        "▁alkohol",
        -10.022293601186252
      ],
      [
        "▁yrkes",
        -10.022486980372635
      ],
      [
        "hänt",
        -10.022703546751453
      ],
      [
        "plötsligt",
        -10.024922719787083
      ],
      [
        "ökade",
        -10.025635300420936
      ],
      [
        "▁drabba",
        -10.025989113912987
      ],
      [
        "nuvarande",
        -10.026129342559384
      ],
      [
        "▁havet",
        -10.026138264614431
      ],
      [
        "▁tala",
        -10.026637716366126
      ],
      [
        "▁budget",
        -10.027063560210195
      ],
      [
        "bjuder",
        -10.027343370899292
      ],
      [
        "▁förmåga",
        -10.027752939644003
      ],
      [
        "min",
        -10.027760023554764
      ],
      [
        "🙂",
        -10.028168213565355
      ],
      [
        "anses",
        -10.028173865883726
      ],
      [
        "▁lägenhet",
        -10.028829495657499
      ],
      [
        "▁OK",
        -10.03159654017841
      ],
      [
        "▁högst",
        -10.032127258389323
      ],
      [
        "stad",
        -10.032296963609767
      ],
      [
        "▁kostnader",
        -10.0323068383568
      ],
      [
        "▁Fredrik",
        -10.032424120043729
      ],
      [
        "▁Örebro",
        -10.032435624553127
      ],
      [
        "lyckat",
        -10.033127822767613
      ],
      [
        "▁princip",
        -10.033403708633019
      ],
      [
        "erad",
        -10.033692320827596
      ],
      [
        "▁slag",
        -10.035173392080871
      ],
      [
        "▁rättigheter",
        -10.035549944015719
      ],
      [
        "▁tryck",
        -10.036169630618978
      ],
      [
        "▁mannen",
        -10.036868872867837
      ],
      [
        "Igår",
        -10.03797370821732
      ],
      [
        "▁skit",
        -10.03931870434966
      ],
      [
        "▁samhälle",
        -10.040189698247977
      ],
      [
        "▁intresserad",
        -10.040278799111881
      ],
      [
        "skrevs",
        -10.041620927409467
      ],
      [
        "▁mil",
        -10.041771397764373
      ],
      [
        "▁lösning",
        -10.041947807928178
      ],
      [
        "▁Lund",
        -10.042041576825472
      ],
      [
        "▁oro",
        -10.04500717403842
      ],
      [
        "ans",
        -10.046317554107054
      ],
      [
        "▁himla",
        -10.046818333093723
      ],
      [
        "▁lagt",
        -10.047415357073655
      ],
      [
        "▁säljer",
        -10.047840132300458
      ],
      [
        "▁platsen",
        -10.047934495555378
      ],
      [
        "fall",
        -10.048591872232015
      ],
      [
        "▁IT",
        -10.048608894418319
      ],
      [
        "nu",
        -10.049143269900124
      ],
      [
        "▁frukt",
        -10.049480524508686
      ],
      [
        "▁köpt",
        -10.049618789701823
      ],
      [
        "▁Först",
        -10.049828335470249
      ],
      [
        "▁ställe",
        -10.049924451953999
      ],
      [
        "någonting",
        -10.050645686331867
      ],
      [
        "▁må",
        -10.051244547134143
      ],
      [
        "Vilka",
        -10.052434973323434
      ],
      [
        "▁miljarder",
        -10.0529812646604
      ],
      [
        "▁prov",
        -10.053549531712912
      ],
      [
        "▁vacker",
        -10.05361831358121
      ],
      [
        "▁våld",
        -10.053899989634525
      ],
      [
        "▁Hos",
        -10.05469942887995
      ],
      [
        "▁tvinga",
        -10.05531241027054
      ],
      [
        "▁Online",
        -10.05585611475331
      ],
      [
        "▁nyligen",
        -10.05594781380557
      ],
      [
        "känt",
        -10.056267152182375
      ],
      [
        "co",
        -10.059542917980432
      ],
      [
        "▁enkla",
        -10.059832615728343
      ],
      [
        "▁amerikanska",
        -10.061011661916247
      ],
      [
        "möta",
        -10.061053680010952
      ],
      [
        "▁spår",
        -10.061410684352735
      ],
      [
        "ivetvis",
        -10.062361585089983
      ],
      [
        "▁förvänta",
        -10.06256158780093
      ],
      [
        "EN",
        -10.062618375754106
      ],
      [
        "▁hot",
        -10.06262379867767
      ],
      [
        "▁plast",
        -10.063389629608515
      ],
      [
        "▁missa",
        -10.06379141574793
      ],
      [
        "▁Casino",
        -10.064706828903534
      ],
      [
        "▁cykel",
        -10.06487430491247
      ],
      [
        "sättet",
        -10.065032343249666
      ],
      [
        "▁stolt",
        -10.065123288646875
      ],
      [
        "▁förhållande",
        -10.06540910661794
      ],
      [
        "▁satte",
        -10.06547732922972
      ],
      [
        "▁Carl",
        -10.066047904285856
      ],
      [
        "visas",
        -10.06644948515331
      ],
      [
        "▁skön",
        -10.066503112026432
      ],
      [
        "▁dejt",
        -10.066811343955733
      ],
      [
        "▁Pro",
        -10.066927488555699
      ],
      [
        "▁sten",
        -10.066964305092071
      ],
      [
        "▁bakgrund",
        -10.06734694205131
      ],
      [
        "▁såklart",
        -10.068415461543601
      ],
      [
        "▁bas",
        -10.068490062416545
      ],
      [
        "▁utnyttja",
        -10.069242684747962
      ],
      [
        "▁Tre",
        -10.069745304375346
      ],
      [
        "▁medier",
        -10.070147569472514
      ],
      [
        "▁Använd",
        -10.071312724320807
      ],
      [
        "numera",
        -10.071414008166187
      ],
      [
        "▁startade",
        -10.071791317679065
      ],
      [
        "▁trevligt",
        -10.072261191816644
      ],
      [
        "▁situation",
        -10.07246362512539
      ],
      [
        "▁Svensk",
        -10.07302799802861
      ],
      [
        "priserna",
        -10.073721665576528
      ],
      [
        "▁avsluta",
        -10.073830077631115
      ],
      [
        "risken",
        -10.073936219583956
      ],
      [
        "▁sällan",
        -10.07467905413939
      ],
      [
        "▁skydda",
        -10.074851691951725
      ],
      [
        "▁Internet",
        -10.074923992134739
      ],
      [
        "▁Tyskland",
        -10.075702791692699
      ],
      [
        "▁Google",
        -10.075840701886069
      ],
      [
        "Vissa",
        -10.075959183438915
      ],
      [
        "▁timmen",
        -10.07611518119636
      ],
      [
        "▁mitten",
        -10.076928928075024
      ],
      [
        "igen",
        -10.07700966387677
      ],
      [
        "ningar",
        -10.07710648923149
      ],
      [
        "▁resultatet",
        -10.077156760456583
      ],
      [
        "▁butik",
        -10.0774381533642
      ],
      [
        "modligen",
        -10.07753092736172
      ],
      [
        "fylla",
        -10.077600599899716
      ],
      [
        "▁Norge",
        -10.079284634077235
      ],
      [
        "▁tionde",
        -10.081307021758802
      ],
      [
        "▁gett",
        -10.08135971567295
      ],
      [
        "▁modern",
        -10.081745251627838
      ],
      [
        "slutade",
        -10.083127193185796
      ],
      [
        "ll",
        -10.083243611572613
      ],
      [
        "ist",
        -10.083334574208266
      ],
      [
        "▁pengarna",
        -10.083384008906847
      ],
      [
        "mark",
        -10.083499966699224
      ],
      [
        "▁mån",
        -10.084297327677517
      ],
      [
        "▁Dock",
        -10.085466643188353
      ],
      [
        "▁ung",
        -10.08549016753893
      ],
      [
        "pris",
        -10.085675974890925
      ],
      [
        "▁slog",
        -10.086156506802611
      ],
      [
        "▁acceptera",
        -10.086441291877062
      ],
      [
        "visste",
        -10.087690148762768
      ],
      [
        "bestämt",
        -10.088076890008844
      ],
      [
        "▁massage",
        -10.088090569420835
      ],
      [
        "aktuella",
        -10.088404290667727
      ],
      [
        "▁tillväxt",
        -10.089081411400137
      ],
      [
        "▁Anmäl",
        -10.08940782232394
      ],
      [
        "▁London",
        -10.090797352092086
      ],
      [
        "lar",
        -10.092329687157472
      ],
      [
        "▁Ö",
        -10.093371516336585
      ],
      [
        "▁läkemedel",
        -10.093579084016831
      ],
      [
        "träffade",
        -10.093879636936684
      ],
      [
        "▁St",
        -10.094089322227214
      ],
      [
        "▁ges",
        -10.094515046151503
      ],
      [
        "▁Erik",
        -10.094664633802456
      ],
      [
        "funkar",
        -10.09525574354909
      ],
      [
        "▁lösningar",
        -10.096020516824915
      ],
      [
        "relativt",
        -10.097764146795543
      ],
      [
        "▁erbjud",
        -10.098007699197403
      ],
      [
        "▁betalar",
        -10.098077945783354
      ],
      [
        "möjliga",
        -10.098755618400945
      ],
      [
        "▁mörk",
        -10.099731563431646
      ],
      [
        "Förutom",
        -10.101502142861051
      ],
      [
        "▁Park",
        -10.101963689247128
      ],
      [
        "ört",
        -10.10229169024385
      ],
      [
        "Omdöme",
        -10.10243352339875
      ],
      [
        "▁välkomna",
        -10.102756640978004
      ],
      [
        "omfattande",
        -10.102800243219892
      ],
      [
        "Tyvärr",
        -10.103544698554556
      ],
      [
        "▁människa",
        -10.104999139101052
      ],
      [
        "▁föreslå",
        -10.105379356491929
      ],
      [
        "▁brev",
        -10.105862300544146
      ],
      [
        "▁bar",
        -10.10602078682423
      ],
      [
        "▁undan",
        -10.106908768065388
      ],
      [
        "processen",
        -10.1073802143578
      ],
      [
        "▁normalt",
        -10.107503833263904
      ],
      [
        "▁An",
        -10.108081242424213
      ],
      [
        "▁post",
        -10.10846354289758
      ],
      [
        "▁Gör",
        -10.108493581964254
      ],
      [
        "åtminstone",
        -10.109171627661345
      ],
      [
        "körde",
        -10.109764434080224
      ],
      [
        "▁snygg",
        -10.110014463911522
      ],
      [
        "▁centrala",
        -10.110223478988605
      ],
      [
        "fattar",
        -10.110387455248054
      ],
      [
        "▁fixa",
        -10.110614701546146
      ],
      [
        "▁uppnå",
        -10.111230456249576
      ],
      [
        "TV",
        -10.11248334582694
      ],
      [
        "▁blod",
        -10.112785938063405
      ],
      [
        "▁besöka",
        -10.113382820836827
      ],
      [
        "▁säsong",
        -10.113549135364094
      ],
      [
        "▁stress",
        -10.11508860180997
      ],
      [
        "dal",
        -10.11522174106942
      ],
      [
        "▁Inga",
        -10.115352791703412
      ],
      [
        "▁stockholm",
        -10.115899997098417
      ],
      [
        "▁kille",
        -10.11769305180053
      ],
      [
        "▁roliga",
        -10.11821442065006
      ],
      [
        "väg",
        -10.118358889216504
      ],
      [
        "enklare",
        -10.118460396436866
      ],
      [
        "▁säkerhets",
        -10.118534987157096
      ],
      [
        "jag",
        -10.118818039636775
      ],
      [
        "▁kontrollera",
        -10.118835077486146
      ],
      [
        "Skulle",
        -10.119151692504735
      ],
      [
        "▁York",
        -10.119964718144992
      ],
      [
        "kombinera",
        -10.120669427797703
      ],
      [
        "▁möte",
        -10.121172732706155
      ],
      [
        "material",
        -10.122074057835073
      ],
      [
        "lämnade",
        -10.122888272675612
      ],
      [
        "bild",
        -10.123383075357253
      ],
      [
        "▁bred",
        -10.124328617689223
      ],
      [
        "▁hopp",
        -10.124611207947153
      ],
      [
        "▁Nästa",
        -10.124895054606124
      ],
      [
        "verksamhet",
        -10.125286122342503
      ],
      [
        "lade",
        -10.125437046486818
      ],
      [
        "vin",
        -10.126254872882525
      ],
      [
        "sida",
        -10.127711354233801
      ],
      [
        "slår",
        -10.127750975857836
      ],
      [
        "liggande",
        -10.127814067571515
      ],
      [
        "ställen",
        -10.128651376011534
      ],
      [
        "▁Z",
        -10.129616588079838
      ],
      [
        "▁positiv",
        -10.12995155427626
      ],
      [
        "▁rekommenderar",
        -10.131407014847191
      ],
      [
        "▁ses",
        -10.131634678062786
      ],
      [
        "▁tillfälle",
        -10.131656889727578
      ],
      [
        "▁kök",
        -10.13203514841909
      ],
      [
        "▁datum",
        -10.13214730805538
      ],
      [
        "bolag",
        -10.132943237428679
      ],
      [
        "▁tuff",
        -10.133089797330843
      ],
      [
        "▁morgonen",
        -10.133883296031966
      ],
      [
        "▁röd",
        -10.13389050006561
      ],
      [
        "▁makt",
        -10.133936573390933
      ],
      [
        "▁info",
        -10.1351751922952
      ],
      [
        "▁norr",
        -10.135556218361899
      ],
      [
        "▁Al",
        -10.135683917457929
      ],
      [
        "▁Själv",
        -10.135839608814049
      ],
      [
        "perfekta",
        -10.136417994761743
      ],
      [
        "▁live",
        -10.136998384011694
      ],
      [
        "mål",
        -10.13707313359692
      ],
      [
        "▁snabba",
        -10.137578363148334
      ],
      [
        "▁brist",
        -10.138009993448895
      ],
      [
        "▁Spel",
        -10.138067218522155
      ],
      [
        "▁leverans",
        -10.138487355812638
      ],
      [
        "▁nummer",
        -10.138628938505118
      ],
      [
        "▁ordentligt",
        -10.138730354158183
      ],
      [
        "ständigt",
        -10.139595448901
      ],
      [
        "▁Vet",
        -10.140817375459632
      ],
      [
        "▁räkna",
        -10.14082538458213
      ],
      [
        "▁förut",
        -10.143310552303705
      ],
      [
        "▁Första",
        -10.143378979450304
      ],
      [
        "▁restauranger",
        -10.14485225675167
      ],
      [
        "gemensamma",
        -10.145051984933872
      ],
      [
        "▁Bild",
        -10.145386167676579
      ],
      [
        "▁studier",
        -10.145524456119979
      ],
      [
        "▁glädje",
        -10.145652109473348
      ],
      [
        "▁nämn",
        -10.146113841095614
      ],
      [
        "▁inlägget",
        -10.14836017313174
      ],
      [
        "▁haha",
        -10.148710823674724
      ],
      [
        "▁Hade",
        -10.148916187161582
      ],
      [
        "▁mjuk",
        -10.149070735417773
      ],
      [
        "▁City",
        -10.149895357011339
      ],
      [
        "▁användare",
        -10.150132456090475
      ],
      [
        "ort",
        -10.15036088684087
      ],
      [
        "▁Inn",
        -10.150715890357336
      ],
      [
        "▁tal",
        -10.151090073406339
      ],
      [
        "liv",
        -10.15114993822024
      ],
      [
        "▁utföra",
        -10.151467373804273
      ],
      [
        "mötet",
        -10.152392138608102
      ],
      [
        "▁ägare",
        -10.154353906461576
      ],
      [
        "▁måndag",
        -10.154480135881927
      ],
      [
        "▁US",
        -10.154769818038545
      ],
      [
        "satsa",
        -10.15514036347478
      ],
      [
        "visat",
        -10.155845535778143
      ],
      [
        "→",
        -10.155930118398594
      ],
      [
        "én",
        -10.155996429238106
      ],
      [
        "▁sjukhus",
        -10.15631623675451
      ],
      [
        "allmänna",
        -10.156896455216035
      ],
      [
        "tog",
        -10.157289491882738
      ],
      [
        "▁Nilsson",
        -10.157787055958936
      ],
      [
        "▁följd",
        -10.157858878290227
      ],
      [
        "▁slags",
        -10.158175982753974
      ],
      [
        "nade",
        -10.159348434143967
      ],
      [
        "▁miss",
        -10.159411948165848
      ],
      [
        "▁adress",
        -10.159719664866085
      ],
      [
        "bedriv",
        -10.161384700846796
      ],
      [
        "▁Dam",
        -10.161557636613697
      ],
      [
        "tvung",
        -10.164632292262676
      ],
      [
        "OF",
        -10.164978701807994
      ],
      [
        "▁jord",
        -10.165042098600757
      ],
      [
        "▁fysisk",
        -10.166452924743169
      ],
      [
        "ernas",
        -10.166651098644083
      ],
      [
        "hem",
        -10.166746522272307
      ],
      [
        "dan",
        -10.16712892449501
      ],
      [
        "▁skatte",
        -10.16730782756744
      ],
      [
        "planen",
        -10.16846237430234
      ],
      [
        "ting",
        -10.168901796821618
      ],
      [
        "▁webbplatser",
        -10.16977755108667
      ],
      [
        "▁hänsyn",
        -10.170196026054363
      ],
      [
        "▁Vem",
        -10.172307977866554
      ],
      [
        "ingen",
        -10.17240500252146
      ],
      [
        "▁önska",
        -10.173139145053387
      ],
      [
        "▁upplevelse",
        -10.173325334694992
      ],
      [
        "▁ringa",
        -10.174126489081045
      ],
      [
        "ord",
        -10.174193449437047
      ],
      [
        "möjligheten",
        -10.174367610655247
      ],
      [
        "▁problemet",
        -10.174761592106774
      ],
      [
        "▁organisation",
        -10.175072518917764
      ],
      [
        "teknik",
        -10.175429842614644
      ],
      [
        "up",
        -10.175501234452636
      ],
      [
        "▁styr",
        -10.1757167418376
      ],
      [
        "▁funktioner",
        -10.176455480148874
      ],
      [
        "svarade",
        -10.18000692998173
      ],
      [
        "▁redo",
        -10.181048982542054
      ],
      [
        "▁Stefan",
        -10.18129296604955
      ],
      [
        "avseende",
        -10.181491689758824
      ],
      [
        "rakt",
        -10.181528369603575
      ],
      [
        "mat",
        -10.182321227148467
      ],
      [
        "▁choklad",
        -10.182340749943444
      ],
      [
        "ver",
        -10.182559276289199
      ],
      [
        "▁media",
        -10.182638491919606
      ],
      [
        "▁kombination",
        -10.183731458444825
      ],
      [
        "▁Frankrike",
        -10.184701049303847
      ],
      [
        "chansen",
        -10.185118007349972
      ],
      [
        "grupp",
        -10.185563415422353
      ],
      [
        "▁År",
        -10.186132859797112
      ],
      [
        "▁Gå",
        -10.186675220147878
      ],
      [
        "▁Ålder",
        -10.187282062028613
      ],
      [
        "▁kyrkan",
        -10.188052553319043
      ],
      [
        "titeln",
        -10.188141612571432
      ],
      [
        "▁stycken",
        -10.18823354586807
      ],
      [
        "▁you",
        -10.188293611205557
      ],
      [
        "J",
        -10.18843070877999
      ],
      [
        "▁Daniel",
        -10.188846750746302
      ],
      [
        "letar",
        -10.189427590744367
      ],
      [
        "▁ersättning",
        -10.190215436975093
      ],
      [
        "ram",
        -10.19060145433326
      ],
      [
        "▁Stor",
        -10.190778145254562
      ],
      [
        "bart",
        -10.190791584325224
      ],
      [
        "befinner",
        -10.191161684451304
      ],
      [
        "▁fyller",
        -10.191578978012156
      ],
      [
        "han",
        -10.19292432308052
      ],
      [
        "▁starka",
        -10.19303085196734
      ],
      [
        "▁fest",
        -10.193156191603752
      ],
      [
        "▁magen",
        -10.193787141675623
      ],
      [
        "▁hundra",
        -10.194001079087176
      ],
      [
        "▁jämför",
        -10.194301250639414
      ],
      [
        "▁fa",
        -10.194618013587672
      ],
      [
        "▁motsvarande",
        -10.196358346195778
      ],
      [
        "▁fisk",
        -10.197106416055798
      ],
      [
        "▁fördel",
        -10.197370714474296
      ],
      [
        "▁röst",
        -10.197696539979535
      ],
      [
        "information",
        -10.198180673985588
      ],
      [
        "service",
        -10.198455575833663
      ],
      [
        "▁vackert",
        -10.199149114019214
      ],
      [
        "▁snabbare",
        -10.19968900042615
      ],
      [
        "▁översättning",
        -10.200008736323097
      ],
      [
        "▁använde",
        -10.200076012890957
      ],
      [
        "▁dotter",
        -10.200331081603025
      ],
      [
        "▁tjänst",
        -10.200820960497289
      ],
      [
        "valda",
        -10.20166213374039
      ],
      [
        "▁grupper",
        -10.20180936737028
      ],
      [
        "▁ägg",
        -10.202199708287687
      ],
      [
        "situationen",
        -10.20359363593463
      ],
      [
        "tjänster",
        -10.20384503095014
      ],
      [
        "▁Mat",
        -10.205130191898142
      ],
      [
        "▁SVT",
        -10.205505817207827
      ],
      [
        "▁ämnen",
        -10.2057400643743
      ],
      [
        "eleverna",
        -10.205825915177657
      ],
      [
        "▁dyr",
        -10.206023854917582
      ],
      [
        "▁politiker",
        -10.207822179111547
      ],
      [
        "▁Fri",
        -10.207923630476163
      ],
      [
        "▁skogen",
        -10.208902880727683
      ],
      [
        "band",
        -10.209254737548907
      ],
      [
        "berättade",
        -10.20969886163485
      ],
      [
        "▁kilometer",
        -10.209923490818564
      ],
      [
        "bilder",
        -10.210332696048583
      ],
      [
        "pass",
        -10.21068514979283
      ],
      [
        "▁tecken",
        -10.210823082639005
      ],
      [
        "▁digitala",
        -10.211451911173667
      ],
      [
        "▁Nord",
        -10.211508670087587
      ],
      [
        "sten",
        -10.213261145540125
      ],
      [
        "▁jämföra",
        -10.214451930955065
      ],
      [
        "▁röda",
        -10.214463124854207
      ],
      [
        "▁affärs",
        -10.215023346688406
      ],
      [
        "▁naturen",
        -10.215439857797312
      ],
      [
        "har",
        -10.21550814327708
      ],
      [
        "konstigt",
        -10.216331883704308
      ],
      [
        "▁minns",
        -10.216383516800127
      ],
      [
        "▁transport",
        -10.216471237739386
      ],
      [
        "beskriver",
        -10.216698467316828
      ],
      [
        "▁John",
        -10.217324166468078
      ],
      [
        "namn",
        -10.217643658606457
      ],
      [
        "▁press",
        -10.218263446515452
      ],
      [
        "▁båt",
        -10.219134483037742
      ],
      [
        "▁utomhus",
        -10.220189979312076
      ],
      [
        "område",
        -10.220670427927013
      ],
      [
        "▁företags",
        -10.220697652406367
      ],
      [
        "▁detaljer",
        -10.220871180854585
      ],
      [
        "rätten",
        -10.221189476574096
      ],
      [
        "Någon",
        -10.22147923971211
      ],
      [
        "link",
        -10.222219959256703
      ],
      [
        "▁dröm",
        -10.222244525549458
      ],
      [
        "▁mail",
        -10.224912475110349
      ],
      [
        "förbundet",
        -10.225361975147248
      ],
      [
        "▁Le",
        -10.22553170414666
      ],
      [
        "▁Vikt",
        -10.225622744819827
      ],
      [
        "▁fart",
        -10.226125857700406
      ],
      [
        "▁TripAdvisor",
        -10.227616865488807
      ],
      [
        "Om",
        -10.227851788401788
      ],
      [
        "▁filmer",
        -10.228164596145419
      ],
      [
        "▁säkerställ",
        -10.22832165394499
      ],
      [
        "slag",
        -10.228325672916524
      ],
      [
        "från",
        -10.229394416306489
      ],
      [
        "▁Del",
        -10.229692352220463
      ],
      [
        "FV",
        -10.229704195251903
      ],
      [
        "▁fot",
        -10.229938256899196
      ],
      [
        "▁socker",
        -10.230615697613704
      ],
      [
        "värre",
        -10.23140173226271
      ],
      [
        "▁herr",
        -10.231409825745109
      ],
      [
        "▁genomför",
        -10.231640897057456
      ],
      [
        "▁Co",
        -10.232474476621283
      ],
      [
        "▁förklara",
        -10.233413337677934
      ],
      [
        "▁förändringar",
        -10.234139038273767
      ],
      [
        "▁butiker",
        -10.234375171430372
      ],
      [
        "▁Ge",
        -10.234599448501504
      ],
      [
        "▁nödvändigt",
        -10.234721936079346
      ],
      [
        "känslan",
        -10.23516391748256
      ],
      [
        "▁grad",
        -10.23656573616988
      ],
      [
        "▁resurser",
        -10.237122003866704
      ],
      [
        "▁yngre",
        -10.237137067250051
      ],
      [
        "▁ända",
        -10.237817214432
      ],
      [
        "▁varm",
        -10.239444564369125
      ],
      [
        "▁hundar",
        -10.240029682385204
      ],
      [
        "▁inled",
        -10.24003324542116
      ],
      [
        "▁inspiration",
        -10.240527115095187
      ],
      [
        "▁ledare",
        -10.240587318183591
      ],
      [
        "▁botten",
        -10.242180400002594
      ],
      [
        "▁informationen",
        -10.242399817181973
      ],
      [
        "▁badrum",
        -10.243162136573583
      ],
      [
        "möter",
        -10.243743198049877
      ],
      [
        "▁kött",
        -10.243747633775127
      ],
      [
        "▁avgörande",
        -10.244000736717057
      ],
      [
        "▁moderna",
        -10.244074694058268
      ],
      [
        "q",
        -10.244283097463905
      ],
      [
        "▁with",
        -10.244950023585902
      ],
      [
        "▁förändring",
        -10.245190835162981
      ],
      [
        "▁hittills",
        -10.245231205089322
      ],
      [
        "För",
        -10.245322346603787
      ],
      [
        "varken",
        -10.245672230075213
      ],
      [
        "▁Umeå",
        -10.245715605040806
      ],
      [
        "▁San",
        -10.246925396147176
      ],
      [
        "▁idéer",
        -10.247587946887732
      ],
      [
        "▁hyra",
        -10.248427357382791
      ],
      [
        "faller",
        -10.249095900932256
      ],
      [
        "baserade",
        -10.249338579717847
      ],
      [
        "▁ovanlig",
        -10.249378368029534
      ],
      [
        "positivt",
        -10.251506959038558
      ],
      [
        "▁webbplatsen",
        -10.251821141125404
      ],
      [
        "▁grundläggande",
        -10.252763088094097
      ],
      [
        "▁perspektiv",
        -10.252957102404675
      ],
      [
        "▁mode",
        -10.253092252764619
      ],
      [
        "nationella",
        -10.253858527938304
      ],
      [
        "▁hamnar",
        -10.254053628521605
      ],
      [
        "▁Paris",
        -10.255496528385718
      ],
      [
        "Vilket",
        -10.255929876656547
      ],
      [
        "▁känd",
        -10.258313546588361
      ],
      [
        "full",
        -10.258460450931254
      ],
      [
        "▁Danmark",
        -10.258514381092432
      ],
      [
        "ER",
        -10.25915236294833
      ],
      [
        "du",
        -10.259177751918287
      ],
      [
        "▁katt",
        -10.259559490005774
      ],
      [
        "Något",
        -10.260392147154096
      ],
      [
        "▁privata",
        -10.260446104219838
      ],
      [
        "▁svarar",
        -10.260559385648643
      ],
      [
        "Innan",
        -10.260730247403194
      ],
      [
        "▁foto",
        -10.260919800923498
      ],
      [
        "▁Björn",
        -10.261134367274742
      ],
      [
        "bra",
        -10.261172636426265
      ],
      [
        "▁chef",
        -10.261349733860287
      ],
      [
        "▁Dom",
        -10.262058777767697
      ],
      [
        "▁tids",
        -10.262735004907217
      ],
      [
        "▁rapport",
        -10.263832220725506
      ],
      [
        "▁orsak",
        -10.263854105866246
      ],
      [
        "▁säng",
        -10.264037320415687
      ],
      [
        "kallar",
        -10.265768780120329
      ],
      [
        "rika",
        -10.265833682041883
      ],
      [
        "▁tillgänglig",
        -10.26617004380477
      ],
      [
        "▁håret",
        -10.266506766904792
      ],
      [
        "myndigheten",
        -10.266835491954483
      ],
      [
        "▁korrekt",
        -10.266848752934829
      ],
      [
        "▁omedelbart",
        -10.267463409189064
      ],
      [
        "▁springa",
        -10.268339468405586
      ],
      [
        "▁ikväll",
        -10.26849368826807
      ],
      [
        "▁tider",
        -10.2688664610916
      ],
      [
        "▁besluta",
        -10.269222148422983
      ],
      [
        "▁resan",
        -10.269402976067942
      ],
      [
        "▁regel",
        -10.270103699138446
      ],
      [
        "ina",
        -10.270319692501698
      ],
      [
        "▁driver",
        -10.270323650233943
      ],
      [
        "framförallt",
        -10.270493374345147
      ],
      [
        "▁framtid",
        -10.270583301987065
      ],
      [
        "▁toppen",
        -10.270803793545907
      ],
      [
        "▁jorden",
        -10.271346928532122
      ],
      [
        "▁karta",
        -10.271565453709181
      ],
      [
        "▁skydd",
        -10.27172712295528
      ],
      [
        "▁rädda",
        -10.272539721715717
      ],
      [
        "▁känslor",
        -10.27257614022717
      ],
      [
        "▁frakt",
        -10.272889481781029
      ],
      [
        "▁plocka",
        -10.273046014433886
      ],
      [
        "rummet",
        -10.273672981717374
      ],
      [
        "▁träd",
        -10.27368229012879
      ],
      [
        "▁kommunikation",
        -10.273995694547597
      ],
      [
        "▁fett",
        -10.275813861989647
      ],
      [
        "▁varumärken",
        -10.276236456208693
      ],
      [
        "▁långsiktig",
        -10.276686185717315
      ],
      [
        "▁David",
        -10.277182588883916
      ],
      [
        "▁vitt",
        -10.27934978542391
      ],
      [
        "▁frisk",
        -10.279395317824225
      ],
      [
        "▁månaden",
        -10.280070436150636
      ],
      [
        "delas",
        -10.28096199067203
      ],
      [
        "▁erfarenheter",
        -10.28165405521649
      ],
      [
        "gång",
        -10.282218203200225
      ],
      [
        "tanken",
        -10.282334070950125
      ],
      [
        "▁politik",
        -10.282367803448809
      ],
      [
        "▁unik",
        -10.28247092685516
      ],
      [
        "▁startar",
        -10.28258871935198
      ],
      [
        "▁led",
        -10.283186751987007
      ],
      [
        "▁sent",
        -10.283436810682245
      ],
      [
        "▁snygga",
        -10.28364280105302
      ],
      [
        "▁utsikt",
        -10.28366392795723
      ],
      [
        "▁bedöm",
        -10.283787312042199
      ],
      [
        "▁maten",
        -10.284641457526758
      ],
      [
        "▁driva",
        -10.284662573695975
      ],
      [
        "▁inkomst",
        -10.284707759977055
      ],
      [
        "▁underbara",
        -10.285336955876792
      ],
      [
        "uppleva",
        -10.285368523017878
      ],
      [
        "bjöd",
        -10.286569588040104
      ],
      [
        "▁bilderna",
        -10.287449589024778
      ],
      [
        "▁sikt",
        -10.287931326234768
      ],
      [
        "https",
        -10.288301154242548
      ],
      [
        "näs",
        -10.289608050795914
      ],
      [
        "unika",
        -10.289627212434064
      ],
      [
        "▁blommor",
        -10.28970938065852
      ],
      [
        "▁bedömning",
        -10.289823356287446
      ],
      [
        "▁analys",
        -10.28983735676264
      ],
      [
        "minskar",
        -10.289972400787436
      ],
      [
        "härligt",
        -10.290039981063233
      ],
      [
        "▁di",
        -10.290140857536386
      ],
      [
        "▁Få",
        -10.291293701081345
      ],
      [
        "▁tänk",
        -10.291525439676422
      ],
      [
        "▁staten",
        -10.291731892302009
      ],
      [
        "partiet",
        -10.292005038935129
      ],
      [
        "▁Mina",
        -10.292637901486891
      ],
      [
        "slagen",
        -10.293175359859434
      ],
      [
        "▁avsnitt",
        -10.293559940684236
      ],
      [
        "▁uppmärksamma",
        -10.293960724137222
      ],
      [
        "▁världs",
        -10.294147490993206
      ],
      [
        "utbildning",
        -10.295717828093956
      ],
      [
        "▁kunskaper",
        -10.29611671603432
      ],
      [
        "▁Jonas",
        -10.296183677796638
      ],
      [
        "serien",
        -10.296210602496435
      ],
      [
        "▁SM",
        -10.29632015373355
      ],
      [
        "▁Dagens",
        -10.296775386639396
      ],
      [
        "▁tillämpa",
        -10.296974317263814
      ],
      [
        "▁svarta",
        -10.2980349249952
      ],
      [
        "läge",
        -10.298487588510058
      ],
      [
        "▁mening",
        -10.298889481483473
      ],
      [
        "kursen",
        -10.299652992573716
      ],
      [
        "dörren",
        -10.29983729519752
      ],
      [
        "nsåg",
        -10.30009928597417
      ],
      [
        "▁fakta",
        -10.300307923372864
      ],
      [
        "tre",
        -10.30039337106093
      ],
      [
        "enskilda",
        -10.30078627685619
      ],
      [
        "mässigt",
        -10.300862296185228
      ],
      [
        "mängder",
        -10.302471544582248
      ],
      [
        "sängen",
        -10.302962213744504
      ],
      [
        "▁Nyheter",
        -10.303346659105696
      ],
      [
        "närvarande",
        -10.303404811914133
      ],
      [
        "ation",
        -10.303989916224754
      ],
      [
        "▁nyheter",
        -10.304276385288299
      ],
      [
        "kar",
        -10.304455438435493
      ],
      [
        "▁tycka",
        -10.304654105083417
      ],
      [
        "▁förlora",
        -10.304985822418946
      ],
      [
        "▁effektivt",
        -10.305069193181406
      ],
      [
        "▁buss",
        -10.305383276182488
      ],
      [
        "föreningen",
        -10.307145271921348
      ],
      [
        "frågade",
        -10.307472292164867
      ],
      [
        "▁vila",
        -10.307768134613406
      ],
      [
        "▁Windows",
        -10.307973954120335
      ],
      [
        "▁kost",
        -10.308441295004538
      ],
      [
        "▁dubbel",
        -10.30894106592839
      ],
      [
        "▁växa",
        -10.309282415604383
      ],
      [
        "▁verksamheter",
        -10.310491926319205
      ],
      [
        "▁Svar",
        -10.310551321883985
      ],
      [
        "erande",
        -10.310824193603572
      ],
      [
        "stämmer",
        -10.310850886246135
      ],
      [
        "frågor",
        -10.310873874136334
      ],
      [
        "▁organisationer",
        -10.310909323005104
      ],
      [
        "line",
        -10.311212929533228
      ],
      [
        "▁aktivt",
        -10.31152682196714
      ],
      [
        "▁underbar",
        -10.31204677616908
      ],
      [
        "▁Får",
        -10.312224459701826
      ],
      [
        "De",
        -10.312304161471962
      ],
      [
        "▁nätverk",
        -10.313153005326823
      ],
      [
        "ant",
        -10.313238100431017
      ],
      [
        "▁tekniska",
        -10.313640597681578
      ],
      [
        "▁Super",
        -10.313854351487743
      ],
      [
        "▁paket",
        -10.314378391379309
      ],
      [
        "▁inre",
        -10.314781368775567
      ],
      [
        "▁billig",
        -10.316135722930545
      ],
      [
        "spelare",
        -10.316188577981503
      ],
      [
        "▁köket",
        -10.316633080281855
      ],
      [
        "▁söder",
        -10.317195416684978
      ],
      [
        "▁stoppa",
        -10.317281499822748
      ],
      [
        "▁reklam",
        -10.318126410416282
      ],
      [
        "▁tränings",
        -10.319305084271102
      ],
      [
        "▁fotboll",
        -10.319630501084292
      ],
      [
        "▁produkten",
        -10.320239807280869
      ],
      [
        "▁säg",
        -10.3205035867129
      ],
      [
        "▁fira",
        -10.320513418120132
      ],
      [
        "lugnt",
        -10.320588735889741
      ],
      [
        "▁syns",
        -10.32076242434412
      ],
      [
        "▁Hela",
        -10.321082030866705
      ],
      [
        "▁mönster",
        -10.321292320293498
      ],
      [
        "sånt",
        -10.32190963454294
      ],
      [
        "▁tillfällen",
        -10.32208175061611
      ],
      [
        "riktiga",
        -10.322396011612183
      ],
      [
        "öppnar",
        -10.322549170845297
      ],
      [
        "granskar",
        -10.322624443005358
      ],
      [
        "▁serien",
        -10.322813401583312
      ],
      [
        "▁relation",
        -10.323125374472468
      ],
      [
        "▁Berg",
        -10.32348308285091
      ],
      [
        "▁gäng",
        -10.323739961793196
      ],
      [
        "▁rimlig",
        -10.324293785685533
      ],
      [
        "vid",
        -10.32442637357009
      ],
      [
        "▁bio",
        -10.325230994618575
      ],
      [
        "qvist",
        -10.32564463627322
      ],
      [
        "▁sån",
        -10.32791617194332
      ],
      [
        "bil",
        -10.328240891582785
      ],
      [
        "▁överens",
        -10.328484931471015
      ],
      [
        "▁insatser",
        -10.328523294480584
      ],
      [
        "ken",
        -10.33021448782236
      ],
      [
        "▁dans",
        -10.330479834642963
      ],
      [
        "one",
        -10.331086237405865
      ],
      [
        "orsaka",
        -10.331320420508456
      ],
      [
        "▁rädd",
        -10.331699021440606
      ],
      [
        "▁tidningen",
        -10.332097819667135
      ],
      [
        "upp",
        -10.33229193938388
      ],
      [
        "▁vintern",
        -10.332486170908
      ],
      [
        "▁värd",
        -10.332490931875832
      ],
      [
        "längst",
        -10.333385486781744
      ],
      [
        "▁döda",
        -10.333447497122775
      ],
      [
        "▁allmän",
        -10.333690853051893
      ],
      [
        "▁Storbritannien",
        -10.334106699607405
      ],
      [
        "▁Göteborgs",
        -10.334817575311654
      ],
      [
        "rik",
        -10.33496232087944
      ],
      [
        "▁ordet",
        -10.335263815885122
      ],
      [
        "varande",
        -10.335763195149084
      ],
      [
        "▁Sport",
        -10.336074885142736
      ],
      [
        "ledes",
        -10.336588047230855
      ],
      [
        "▁tillåt",
        -10.336942631183728
      ],
      [
        "projekt",
        -10.336953557669489
      ],
      [
        "vatten",
        -10.336963195084175
      ],
      [
        "ion",
        -10.337008068392029
      ],
      [
        "▁extremt",
        -10.337146058440727
      ],
      [
        "▁glada",
        -10.337232625988738
      ],
      [
        "▁No",
        -10.33808488210985
      ],
      [
        "rådet",
        -10.3384932635206
      ],
      [
        "framtida",
        -10.339055162969139
      ],
      [
        "▁Bygg",
        -10.340050281320384
      ],
      [
        "läste",
        -10.340651443559636
      ],
      [
        "Z",
        -10.340680681817762
      ],
      [
        "personen",
        -10.341423966934814
      ],
      [
        "positiva",
        -10.343185406007107
      ],
      [
        "▁Stora",
        -10.343299708361329
      ],
      [
        "▁möjlig",
        -10.343408437231913
      ],
      [
        "orkar",
        -10.344093633145116
      ],
      [
        "▁sväng",
        -10.344858505226844
      ],
      [
        "▁process",
        -10.345409746657625
      ],
      [
        "skap",
        -10.345576752771244
      ],
      [
        "intresserade",
        -10.345614253639326
      ],
      [
        "▁tåg",
        -10.346070072599558
      ],
      [
        "världen",
        -10.346276592109522
      ],
      [
        "▁slutar",
        -10.346526506512017
      ],
      [
        "▁framgångsrik",
        -10.346664477639276
      ],
      [
        "▁definitiv",
        -10.34697497717392
      ],
      [
        "▁nio",
        -10.347372520455325
      ],
      [
        "kläder",
        -10.348409779836748
      ],
      [
        "▁utrymme",
        -10.348576421570913
      ],
      [
        "▁vända",
        -10.348964508815962
      ],
      [
        "▁familje",
        -10.349319123727028
      ],
      [
        "▁total",
        -10.349450986625666
      ],
      [
        "▁myndigheter",
        -10.350041380567898
      ],
      [
        "vädret",
        -10.350979087760527
      ],
      [
        "än",
        -10.351374579164812
      ],
      [
        "▁metod",
        -10.352121154616674
      ],
      [
        "Y",
        -10.352614466570714
      ],
      [
        "▁underbart",
        -10.352939866545707
      ],
      [
        "▁utbildnings",
        -10.353014960644634
      ],
      [
        "delen",
        -10.353244007647804
      ],
      [
        "▁skull",
        -10.353274818341115
      ],
      [
        "beslutet",
        -10.354231245001799
      ],
      [
        "loppet",
        -10.355453707344376
      ],
      [
        "▁Italien",
        -10.35568003458824
      ],
      [
        "▁kapital",
        -10.356178449256506
      ],
      [
        "▁färdig",
        -10.357154977174655
      ],
      [
        "▁ton",
        -10.357755255185186
      ],
      [
        "Både",
        -10.358017985359952
      ],
      [
        "▁låga",
        -10.358554334374453
      ],
      [
        "▁lek",
        -10.358735110497165
      ],
      [
        "flyttade",
        -10.358753327512849
      ],
      [
        "▁fordon",
        -10.358842527203679
      ],
      [
        "brett",
        -10.359648531690398
      ],
      [
        "▁egenskaper",
        -10.359751207434517
      ],
      [
        "▁avgifter",
        -10.360495825297086
      ],
      [
        "▁euro",
        -10.360883135087207
      ],
      [
        "▁band",
        -10.361260458410586
      ],
      [
        "originalet",
        -10.362084848762729
      ],
      [
        "mött",
        -10.363211877585892
      ],
      [
        "medel",
        -10.363661403858885
      ],
      [
        "upplever",
        -10.363719375231337
      ],
      [
        "sätt",
        -10.363825488070182
      ],
      [
        "▁våga",
        -10.364479498242494
      ],
      [
        "▁rörelse",
        -10.364678811018297
      ],
      [
        "▁fullständig",
        -10.364693326719948
      ],
      [
        "▁lågt",
        -10.364754763862104
      ],
      [
        "industrin",
        -10.364818305127281
      ],
      [
        "▁bekräfta",
        -10.364825479420132
      ],
      [
        "▁hjärtat",
        -10.365233130351932
      ],
      [
        "▁vuxen",
        -10.366310736296171
      ],
      [
        "områden",
        -10.366415247923717
      ],
      [
        "The",
        -10.366433045257232
      ],
      [
        "▁bära",
        -10.366973480756068
      ],
      [
        "▁ungdoms",
        -10.3673974720329
      ],
      [
        "▁punkt",
        -10.367723996911497
      ],
      [
        "grupper",
        -10.367978119474245
      ],
      [
        "hälften",
        -10.36816110757411
      ],
      [
        "▁Val",
        -10.368164762968496
      ],
      [
        "▁mjölk",
        -10.368233625881903
      ],
      [
        "▁nät",
        -10.369105019381134
      ],
      [
        "modellen",
        -10.369295716216705
      ],
      [
        "▁offentliga",
        -10.369298174559338
      ],
      [
        "▁Eva",
        -10.369756673619921
      ],
      [
        "skaffa",
        -10.370111830080578
      ],
      [
        "▁singlar",
        -10.37022024222138
      ],
      [
        "▁jakt",
        -10.370412519618197
      ],
      [
        "▁Sex",
        -10.370534248404823
      ],
      [
        "▁dokument",
        -10.371121655378177
      ],
      [
        "stöd",
        -10.371146499635387
      ],
      [
        "män",
        -10.371412727071453
      ],
      [
        "hörde",
        -10.371426635529815
      ],
      [
        "tals",
        -10.371516455700476
      ],
      [
        "ledde",
        -10.371644546691755
      ],
      [
        "▁metoder",
        -10.372651771730286
      ],
      [
        "eras",
        -10.37289647606
      ],
      [
        "politiken",
        -10.373269606091586
      ],
      [
        "baserat",
        -10.373884060832662
      ],
      [
        "fria",
        -10.374150899229194
      ],
      [
        "▁Spanien",
        -10.374204048373572
      ],
      [
        "▁hård",
        -10.374912793859666
      ],
      [
        "arbetat",
        -10.375110820833653
      ],
      [
        "▁kostnad",
        -10.375649330503522
      ],
      [
        "▁bevis",
        -10.375816775020986
      ],
      [
        "mar",
        -10.376835952403368
      ],
      [
        "holm",
        -10.376969690106252
      ],
      [
        "Förbättra",
        -10.377244838929952
      ],
      [
        "▁Magnus",
        -10.37737252626126
      ],
      [
        "▁former",
        -10.378272295726505
      ],
      [
        "pga",
        -10.378696721576143
      ],
      [
        "▁Ju",
        -10.37902743685008
      ],
      [
        "▁Kommer",
        -10.380265930658943
      ],
      [
        "▁straff",
        -10.38097391214425
      ],
      [
        "▁Bil",
        -10.38120374864327
      ],
      [
        "psykisk",
        -10.381325030425247
      ],
      [
        "Årets",
        -10.381584186497886
      ],
      [
        "▁enhet",
        -10.381635637539597
      ],
      [
        "rad",
        -10.382402893359886
      ],
      [
        "▁dricka",
        -10.383020699157557
      ],
      [
        "▁Västra",
        -10.383423486924231
      ],
      [
        "▁betalnings",
        -10.383645856825664
      ],
      [
        "baserad",
        -10.383690577478268
      ],
      [
        "soffan",
        -10.383776353568148
      ],
      [
        "▁föreningen",
        -10.384262632173446
      ],
      [
        "faktum",
        -10.384347184303532
      ],
      [
        "jobbigt",
        -10.384607368505016
      ],
      [
        "▁VM",
        -10.384940931782314
      ],
      [
        "Flera",
        -10.385698108703021
      ],
      [
        "▁klubben",
        -10.386261366636807
      ],
      [
        "▁torr",
        -10.386887253689773
      ],
      [
        "▁fjärde",
        -10.38709859692757
      ],
      [
        "tor",
        -10.387160150785599
      ],
      [
        "▁vardag",
        -10.387797983349538
      ],
      [
        "▁allvar",
        -10.388366412743231
      ],
      [
        "texten",
        -10.388413412009513
      ],
      [
        "hinner",
        -10.388879351196511
      ],
      [
        "▁utom",
        -10.389329430701302
      ],
      [
        "▁intressanta",
        -10.389988464210402
      ],
      [
        "Annars",
        -10.390659720195
      ],
      [
        "▁medför",
        -10.39085657369715
      ],
      [
        "▁hände",
        -10.391197904540181
      ],
      [
        "sett",
        -10.391556347056222
      ],
      [
        "ytan",
        -10.392094610929497
      ],
      [
        "▁rese",
        -10.392202049626082
      ],
      [
        "Visa",
        -10.392606973138642
      ],
      [
        "▁öl",
        -10.392753395553477
      ],
      [
        "▁hål",
        -10.39277547029319
      ],
      [
        "▁Skriv",
        -10.392972230507974
      ],
      [
        "blad",
        -10.393771945140674
      ],
      [
        "klassiska",
        -10.394233051097231
      ],
      [
        "utöver",
        -10.39435488293809
      ],
      [
        "▁hjärta",
        -10.394453875120794
      ],
      [
        "generell",
        -10.394931290974437
      ],
      [
        "Utmärkt",
        -10.395499709922326
      ],
      [
        "▁Tillväxt",
        -10.396358796171453
      ],
      [
        "▁iaf",
        -10.39647110616322
      ],
      [
        "▁pdf",
        -10.396949682233798
      ],
      [
        "▁erbjudande",
        -10.397772139269328
      ],
      [
        "okej",
        -10.398098144127381
      ],
      [
        "▁Bar",
        -10.398155423095206
      ],
      [
        "▁nere",
        -10.398361047024462
      ],
      [
        "▁Lind",
        -10.398603900955946
      ],
      [
        "nämnden",
        -10.399314445834328
      ],
      [
        "▁tjäna",
        -10.399799396949346
      ],
      [
        "▁Helt",
        -10.400263243208373
      ],
      [
        "▁anti",
        -10.400320420543569
      ],
      [
        "desto",
        -10.400560661399243
      ],
      [
        "finansiella",
        -10.400707080902789
      ],
      [
        "▁kompis",
        -10.400841825057082
      ],
      [
        "Dålig",
        -10.401302868430301
      ],
      [
        "▁Ryssland",
        -10.401304526111979
      ],
      [
        "mera",
        -10.40142515173735
      ],
      [
        "översättningar",
        -10.401730211807614
      ],
      [
        "▁studera",
        -10.403433100574524
      ],
      [
        "▁Larsson",
        -10.4040415723768
      ],
      [
        "▁bestämma",
        -10.404488540286454
      ],
      [
        "▁stranden",
        -10.404948619252
      ],
      [
        "kontoret",
        -10.405349084274675
      ],
      [
        "▁svåra",
        -10.405542257168218
      ],
      [
        "▁artikeln",
        -10.406117550970805
      ],
      [
        "▁välkommen",
        -10.40655906609534
      ],
      [
        "▁Vårt",
        -10.406609430300966
      ],
      [
        "▁vinner",
        -10.406649980323179
      ],
      [
        "▁Information",
        -10.406754867832957
      ],
      [
        "▁sms",
        -10.406945756938883
      ],
      [
        "▁gröna",
        -10.408059939574105
      ],
      [
        "▁modeller",
        -10.408463688315566
      ],
      [
        "▁aktiv",
        -10.408846345014666
      ],
      [
        "skiljer",
        -10.408928455713104
      ],
      [
        "▁IP",
        -10.408934088157027
      ],
      [
        "avtalet",
        -10.409213336120084
      ],
      [
        "▁Sök",
        -10.409859973330441
      ],
      [
        "▁korta",
        -10.410236672768649
      ],
      [
        "▁utrustning",
        -10.410298296915007
      ],
      [
        "▁upplev",
        -10.410327970810446
      ],
      [
        "▁bostads",
        -10.410450688060559
      ],
      [
        "▁undersökning",
        -10.410915894292053
      ],
      [
        "▁aktier",
        -10.411244048501683
      ],
      [
        "▁deltagare",
        -10.411750873672826
      ],
      [
        "intill",
        -10.411911862408232
      ],
      [
        "▁styrelsen",
        -10.411913476555243
      ],
      [
        "▁undantag",
        -10.412352368076979
      ],
      [
        "vänder",
        -10.412470280736768
      ],
      [
        "▁Thomas",
        -10.412522005150947
      ],
      [
        "▁släpp",
        -10.412706548456276
      ],
      [
        "{",
        -10.412899381182587
      ],
      [
        "▁naturligt",
        -10.413141529592913
      ],
      [
        "närmast",
        -10.4136021771467
      ],
      [
        "▁hållbar",
        -10.413778084692849
      ],
      [
        "▁profil",
        -10.413791305855387
      ],
      [
        "Bolaget",
        -10.413804005339305
      ],
      [
        "▁sammanhang",
        -10.413979984336342
      ],
      [
        "▁offentlig",
        -10.414373403703584
      ],
      [
        "tjänst",
        -10.414397994784917
      ],
      [
        "▁mått",
        -10.414636263419547
      ],
      [
        "ör",
        -10.415335485568395
      ],
      [
        "▁Sten",
        -10.415726346097703
      ],
      [
        "kommit",
        -10.415857654684917
      ],
      [
        "▁forskare",
        -10.415876706099164
      ],
      [
        "▁moms",
        -10.416535863408589
      ],
      [
        "▁Kultur",
        -10.416645640984283
      ],
      [
        "golvet",
        -10.417786983073714
      ],
      [
        "▁grunden",
        -10.41784553959688
      ],
      [
        "Börja",
        -10.41796990317894
      ],
      [
        "▁bostäder",
        -10.417989817468705
      ],
      [
        "nått",
        -10.418500734109221
      ],
      [
        "tur",
        -10.419086460290853
      ],
      [
        "▁version",
        -10.419953895583689
      ],
      [
        "▁skador",
        -10.420027411421263
      ],
      [
        "släppa",
        -10.420354111550044
      ],
      [
        "▁effektiv",
        -10.420465379283462
      ],
      [
        "▁ekonomisk",
        -10.420894217017459
      ],
      [
        "▁aktiva",
        -10.422245044297812
      ],
      [
        "vik",
        -10.422685095644255
      ],
      [
        "per",
        -10.42296409577281
      ],
      [
        "oerh",
        -10.422986856705847
      ],
      [
        "tan",
        -10.42326445104809
      ],
      [
        "serie",
        -10.42370942060596
      ],
      [
        "skickar",
        -10.424264918633561
      ],
      [
        "▁sjukt",
        -10.425293664907539
      ],
      [
        "▁höjd",
        -10.426048580620195
      ],
      [
        "▁sömn",
        -10.426274988887009
      ],
      [
        "▁Kalmar",
        -10.426366013245199
      ],
      [
        "vunnit",
        -10.426606715167372
      ],
      [
        "▁varor",
        -10.427227496036656
      ],
      [
        "▁lov",
        -10.427346404680826
      ],
      [
        "▁artiklar",
        -10.427739272249626
      ],
      [
        "▁uppenbar",
        -10.427817609323387
      ],
      [
        "▁levande",
        -10.428050773326884
      ],
      [
        "aktörer",
        -10.428189931413614
      ],
      [
        "gjorda",
        -10.428232810845326
      ],
      [
        "▁daglig",
        -10.429250489905982
      ],
      [
        "▁rygg",
        -10.429991213389888
      ],
      [
        "verk",
        -10.429994193800004
      ],
      [
        "▁Miljö",
        -10.430943962110257
      ],
      [
        "▁saknas",
        -10.431492030878925
      ],
      [
        "förrän",
        -10.431778680949465
      ],
      [
        "▁team",
        -10.432524671134749
      ],
      [
        "▁dusch",
        -10.432535094206248
      ],
      [
        "▁hunn",
        -10.432606436859919
      ],
      [
        "▁Aktiebolag",
        -10.433042192884601
      ],
      [
        "▁Bank",
        -10.433884881359697
      ],
      [
        "förening",
        -10.435245253804329
      ],
      [
        "hänger",
        -10.435849597668
      ],
      [
        "▁fika",
        -10.435978453950836
      ],
      [
        "▁dollar",
        -10.436118506728116
      ],
      [
        "▁taget",
        -10.436177862446554
      ],
      [
        "åriga",
        -10.43651499311495
      ],
      [
        "▁forsknings",
        -10.436735462656607
      ],
      [
        "▁skolor",
        -10.436951383763203
      ],
      [
        "bjuda",
        -10.437107514043797
      ],
      [
        "▁vind",
        -10.437220537859714
      ],
      [
        "▁möten",
        -10.438368218932082
      ],
      [
        "problem",
        -10.438939299075441
      ],
      [
        "äkta",
        -10.43897444016117
      ],
      [
        "ögonen",
        -10.439129892134709
      ],
      [
        "▁parkering",
        -10.439243308173218
      ],
      [
        "▁Ne",
        -10.440037553393887
      ],
      [
        "}",
        -10.44055289416919
      ],
      [
        "▁gäst",
        -10.441536922183193
      ],
      [
        "eventuella",
        -10.442033881720572
      ],
      [
        "▁kön",
        -10.442422536836409
      ],
      [
        "▁industri",
        -10.443091494298976
      ],
      [
        "▁kontor",
        -10.443438916949178
      ],
      [
        "▁skriv",
        -10.44408036953596
      ],
      [
        "▁jämn",
        -10.444390349055826
      ],
      [
        "▁Kontakta",
        -10.4448704779621
      ],
      [
        "fors",
        -10.445137754088249
      ],
      [
        "naturliga",
        -10.445495562757134
      ],
      [
        "pågår",
        -10.445816246400875
      ],
      [
        "▁webb",
        -10.445887164781372
      ],
      [
        "▁marknads",
        -10.446598501235599
      ],
      [
        "▁Jämför",
        -10.446667656729538
      ],
      [
        "▁städer",
        -10.44678487235059
      ],
      [
        "▁invånare",
        -10.448079713966258
      ],
      [
        "▁torsdag",
        -10.448103332771735
      ],
      [
        "▁södra",
        -10.448254088133284
      ],
      [
        "▁Mikael",
        -10.44898576676238
      ],
      [
        "▁Helsingborg",
        -10.44927653222146
      ],
      [
        "▁bostad",
        -10.449293128971469
      ],
      [
        "▁kallad",
        -10.44942352887084
      ],
      [
        "tillfället",
        -10.450149368594722
      ],
      [
        "lån",
        -10.450192501479986
      ],
      [
        "▁sov",
        -10.450567700077634
      ],
      [
        "▁tillfällig",
        -10.45092970450243
      ],
      [
        "▁papper",
        -10.451103004859924
      ],
      [
        "anges",
        -10.451323132780782
      ],
      [
        "▁klubb",
        -10.451689802044244
      ],
      [
        "▁vapen",
        -10.451819812359116
      ],
      [
        "▁Jesus",
        -10.451905098472011
      ],
      [
        "▁linje",
        -10.452404218421126
      ],
      [
        "slipper",
        -10.45321670494014
      ],
      [
        "tips",
        -10.454531269039721
      ],
      [
        "▁mobilen",
        -10.454945711591472
      ],
      [
        "▁personuppgifter",
        -10.45517094221991
      ],
      [
        "▁Region",
        -10.455516036580816
      ],
      [
        "förekommer",
        -10.455579410210024
      ],
      [
        "▁sök",
        -10.455940519782422
      ],
      [
        "▁göteborg",
        -10.456294439241834
      ],
      [
        "linjen",
        -10.456427138464568
      ],
      [
        "▁salt",
        -10.456730759896383
      ],
      [
        "▁rosa",
        -10.45714462095051
      ],
      [
        "▁motor",
        -10.45771097501537
      ],
      [
        "▁Beach",
        -10.458281387064467
      ],
      [
        "▁sortiment",
        -10.45855790576573
      ],
      [
        "▁totala",
        -10.45860459413433
      ],
      [
        "▁motsvara",
        -10.459116048979029
      ],
      [
        "nytta",
        -10.45969419815142
      ],
      [
        "▁Fler",
        -10.460492606913547
      ],
      [
        "politik",
        -10.460977041488675
      ],
      [
        "▁seger",
        -10.461166528668567
      ],
      [
        "▁grön",
        -10.461182781926862
      ],
      [
        "▁sovrum",
        -10.46167175492471
      ],
      [
        "andet",
        -10.462274358050907
      ],
      [
        "▁karriär",
        -10.462777413004831
      ],
      [
        "gränsen",
        -10.463646965761358
      ],
      [
        "▁marken",
        -10.463691456290277
      ],
      [
        "▁hänga",
        -10.463750000104783
      ],
      [
        "\\",
        -10.463812725757451
      ],
      [
        "mysigt",
        -10.464432732632606
      ],
      [
        "Oavsett",
        -10.464747711746774
      ],
      [
        "▁tjänsten",
        -10.465305465232772
      ],
      [
        "▁banan",
        -10.46668976872148
      ],
      [
        "framöver",
        -10.466811243068904
      ],
      [
        "▁normal",
        -10.467645683980335
      ],
      [
        "ämnet",
        -10.468302866091179
      ],
      [
        "▁tyska",
        -10.468832270469033
      ],
      [
        "▁Sweden",
        -10.469090137191651
      ],
      [
        "▁Karlsson",
        -10.469487024826421
      ],
      [
        "▁pro",
        -10.469754416515002
      ],
      [
        "▁verkligheten",
        -10.470119748561173
      ],
      [
        "▁Black",
        -10.4702876785076
      ],
      [
        "▁Innehåll",
        -10.470388681480244
      ],
      [
        "▁Precis",
        -10.470490530264323
      ],
      [
        "▁automatiskt",
        -10.470701087017103
      ],
      [
        "▁knapp",
        -10.470828925779388
      ],
      [
        "▁SD",
        -10.471125289008024
      ],
      [
        "kväll",
        -10.471250082319226
      ],
      [
        "lämnat",
        -10.471320256806585
      ],
      [
        "▁Inom",
        -10.471696852098688
      ],
      [
        "▁snyggt",
        -10.47170623977356
      ],
      [
        "någonstans",
        -10.47211439626901
      ],
      [
        "ökning",
        -10.472417301623883
      ],
      [
        "▁gemensam",
        -10.472617238569134
      ],
      [
        "▁Kort",
        -10.472864608594982
      ],
      [
        "▁personalen",
        -10.473080700406824
      ],
      [
        "jobb",
        -10.473696228360762
      ],
      [
        "▁tränar",
        -10.473799197427764
      ],
      [
        "▁trädgård",
        -10.47399468994766
      ],
      [
        "▁rabatt",
        -10.47422517178492
      ],
      [
        "uppgifter",
        -10.474516065236333
      ],
      [
        "rar",
        -10.474609332408422
      ],
      [
        "gemensamt",
        -10.474636462823232
      ],
      [
        "skatt",
        -10.475554701975351
      ],
      [
        "▁ursprunglig",
        -10.475633218634417
      ],
      [
        "▁servera",
        -10.475875154250714
      ],
      [
        "▁sko",
        -10.476411705253069
      ],
      [
        "▁duktig",
        -10.476796904461265
      ],
      [
        "▁van",
        -10.477165634754492
      ],
      [
        "▁syster",
        -10.477461212245471
      ],
      [
        "▁Mark",
        -10.477584176394709
      ],
      [
        "▁golv",
        -10.47808151717037
      ],
      [
        "vård",
        -10.478495350915303
      ],
      [
        "hallen",
        -10.47938350843119
      ],
      [
        "▁sekunder",
        -10.479550318087314
      ],
      [
        "▁lyfta",
        -10.480246827733179
      ],
      [
        "bestämde",
        -10.480435179477789
      ],
      [
        "åsikter",
        -10.481099575165791
      ],
      [
        "▁Tillsammans",
        -10.481560116955368
      ],
      [
        "▁Karl",
        -10.481571565196889
      ],
      [
        "▁Kram",
        -10.481750804536235
      ],
      [
        "▁lokaler",
        -10.48187165886931
      ],
      [
        "året",
        -10.481962972586858
      ],
      [
        "▁stål",
        -10.48273141826002
      ],
      [
        "Tror",
        -10.483121607529332
      ],
      [
        "väntat",
        -10.483275088568028
      ],
      [
        "▁balans",
        -10.483284202917314
      ],
      [
        "borg",
        -10.48412289330332
      ],
      [
        "▁särskild",
        -10.484149438480532
      ],
      [
        "härliga",
        -10.48510418132761
      ],
      [
        "▁Q",
        -10.485596895089481
      ],
      [
        "Du",
        -10.485975734357405
      ],
      [
        "▁växt",
        -10.486445469252859
      ],
      [
        "▁Ser",
        -10.486986584468404
      ],
      [
        "tro",
        -10.487018466859794
      ],
      [
        "▁laga",
        -10.487556874014459
      ],
      [
        "▁aktivitet",
        -10.4879705599626
      ],
      [
        "kraftigt",
        -10.488169997604146
      ],
      [
        "▁resor",
        -10.488296246443984
      ],
      [
        "dla",
        -10.488300486939831
      ],
      [
        "▁silver",
        -10.488767884785492
      ],
      [
        "särskilda",
        -10.488822585827194
      ],
      [
        "handlade",
        -10.488884785870624
      ],
      [
        "▁uppmärksamhet",
        -10.489450982472396
      ],
      [
        "▁bröd",
        -10.489794465741728
      ],
      [
        "▁söt",
        -10.490082268389052
      ],
      [
        "Den",
        -10.490123427354993
      ],
      [
        "▁tyst",
        -10.491436081870958
      ],
      [
        "bestämmer",
        -10.491878878745254
      ],
      [
        "stärka",
        -10.492101612075317
      ],
      [
        "▁kallt",
        -10.49214678976978
      ],
      [
        "▁statistik",
        -10.492662106117454
      ],
      [
        "▁synd",
        -10.493098561601196
      ],
      [
        "▁lät",
        -10.493711116406118
      ],
      [
        "▁me",
        -10.493914273652104
      ],
      [
        "▁sönder",
        -10.494073368771845
      ],
      [
        "enlighet",
        -10.494741879880552
      ],
      [
        "▁skuld",
        -10.494996476275363
      ],
      [
        "stans",
        -10.49535341894517
      ],
      [
        "▁fördelar",
        -10.495594192997915
      ],
      [
        "film",
        -10.495652520742418
      ],
      [
        "sch",
        -10.495720099950239
      ],
      [
        "dagar",
        -10.495750928663705
      ],
      [
        "itet",
        -10.495805469494648
      ],
      [
        "▁smart",
        -10.495819493027284
      ],
      [
        "böcker",
        -10.496290903076552
      ],
      [
        "fel",
        -10.496436297790918
      ],
      [
        "▁Persson",
        -10.496980757476349
      ],
      [
        "OCH",
        -10.496996652862821
      ],
      [
        "▁radio",
        -10.497433984179834
      ],
      [
        "▁brand",
        -10.497712050905797
      ],
      [
        "översättningen",
        -10.49780652128326
      ],
      [
        "Ladda",
        -10.498520087906867
      ],
      [
        "▁finna",
        -10.498530973458534
      ],
      [
        "▁utvecklings",
        -10.498640877380097
      ],
      [
        "▁Mo",
        -10.498722575206777
      ],
      [
        "▁Plats",
        -10.500242670082285
      ],
      [
        "▁Sjö",
        -10.500529660422826
      ],
      [
        "▁rea",
        -10.50061644512819
      ],
      [
        "▁behålla",
        -10.500819781714476
      ],
      [
        "pratade",
        -10.50158874275218
      ],
      [
        "▁Er",
        -10.50205391448204
      ],
      [
        "tråkigt",
        -10.502331297569096
      ],
      [
        "▁Billiga",
        -10.502400028179995
      ],
      [
        "▁trolig",
        -10.50261468541142
      ],
      [
        "▁Go",
        -10.502767952848243
      ],
      [
        "▁hoppa",
        -10.503215198566025
      ],
      [
        "▁tillverkare",
        -10.503655847466622
      ],
      [
        "▁Fick",
        -10.503739906849793
      ],
      [
        "▁bry",
        -10.503842258977054
      ],
      [
        "▁Henrik",
        -10.50393334553234
      ],
      [
        "▁författare",
        -10.504607739051382
      ],
      [
        "▁skatt",
        -10.50496760077431
      ],
      [
        "center",
        -10.505126021986348
      ],
      [
        "▁komplett",
        -10.505158497392623
      ],
      [
        "utvecklat",
        -10.506058329095676
      ],
      [
        "▁tävling",
        -10.506238965742972
      ],
      [
        "ism",
        -10.506623858592903
      ],
      [
        "nöjda",
        -10.507191920625203
      ],
      [
        "▁styrelse",
        -10.507528253548836
      ],
      [
        "▁grå",
        -10.507582399108772
      ],
      [
        "▁röra",
        -10.507700095135046
      ],
      [
        "▁urval",
        -10.508041011766474
      ],
      [
        "▁spendera",
        -10.508158915472851
      ],
      [
        "▁mej",
        -10.508257437631636
      ],
      [
        "▁presentera",
        -10.508325872420546
      ],
      [
        "▁Me",
        -10.508677154062319
      ],
      [
        "värde",
        -10.509374940216281
      ],
      [
        "kul",
        -10.509486566012788
      ],
      [
        "▁Totalt",
        -10.509709770209488
      ],
      [
        "▁Utan",
        -10.509943233523282
      ],
      [
        "▁avstånd",
        -10.510044938737629
      ],
      [
        "verkade",
        -10.510116680944696
      ],
      [
        "▁sannolik",
        -10.510190819575982
      ],
      [
        "hittat",
        -10.51048187976446
      ],
      [
        "▁studenter",
        -10.51114289449138
      ],
      [
        "resultera",
        -10.511712800319089
      ],
      [
        "▁rekommendera",
        -10.512413322316537
      ],
      [
        "årig",
        -10.512670191242691
      ],
      [
        "väntade",
        -10.513053221646357
      ],
      [
        "nämnda",
        -10.51318237284338
      ],
      [
        "givande",
        -10.513340502038794
      ],
      [
        "▁insats",
        -10.513827145845866
      ],
      [
        "▁mor",
        -10.514363506141041
      ],
      [
        "Redan",
        -10.515389912885482
      ],
      [
        "▁kritik",
        -10.515768728425648
      ],
      [
        "Bra",
        -10.516056436186535
      ],
      [
        "▁engagemang",
        -10.51617224774171
      ],
      [
        "mänskliga",
        -10.516247786514652
      ],
      [
        "▁Mats",
        -10.516590741870383
      ],
      [
        "▁drift",
        -10.516816858268513
      ],
      [
        "▁flertal",
        -10.517250011564464
      ],
      [
        "▁anpassa",
        -10.51775584914599
      ],
      [
        "▁butiken",
        -10.517910922520322
      ],
      [
        "talade",
        -10.518152249034593
      ],
      [
        "▁enskild",
        -10.518460951508844
      ],
      [
        "HL",
        -10.518467178218037
      ],
      [
        "värsta",
        -10.518568020129011
      ],
      [
        "jobbat",
        -10.518881405181997
      ],
      [
        "▁hemmet",
        -10.519838576413445
      ],
      [
        "owa",
        -10.520405968152094
      ],
      [
        "▁utmaningar",
        -10.520807713050267
      ],
      [
        "▁rätta",
        -10.521105606594965
      ],
      [
        "delvis",
        -10.521392549105324
      ],
      [
        "▁fastighets",
        -10.521473475696299
      ],
      [
        "▁styrka",
        -10.521724061265473
      ],
      [
        "▁Karin",
        -10.521810876614712
      ],
      [
        "▁album",
        -10.521959351626252
      ],
      [
        "▁digital",
        -10.522073562852036
      ],
      [
        "▁avse",
        -10.522080221133765
      ],
      [
        "platsen",
        -10.522315875103896
      ],
      [
        "marknaden",
        -10.523127890399655
      ],
      [
        "▁bod",
        -10.523244386148196
      ],
      [
        "▁takt",
        -10.523278376023793
      ],
      [
        "tycks",
        -10.5235086544619
      ],
      [
        "reagera",
        -10.523538779828886
      ],
      [
        "fullt",
        -10.523598923401188
      ],
      [
        "▁leverantörer",
        -10.524434280722284
      ],
      [
        "mannen",
        -10.524984484635597
      ],
      [
        "sugen",
        -10.525325714510059
      ],
      [
        "omfattar",
        -10.525453167265484
      ],
      [
        "▁lagom",
        -10.525517906976617
      ],
      [
        "pekar",
        -10.525553862799987
      ],
      [
        "frågan",
        -10.526062642237783
      ],
      [
        "▁uppfyll",
        -10.526671061884471
      ],
      [
        "banan",
        -10.526698246378556
      ],
      [
        "nivån",
        -10.526712895633846
      ],
      [
        "▁Färg",
        -10.527280457220664
      ],
      [
        "▁producera",
        -10.52750490403906
      ],
      [
        "▁överallt",
        -10.52760969300453
      ],
      [
        "▁bevilja",
        -10.52823800043156
      ],
      [
        "▁planerar",
        -10.528262138338922
      ],
      [
        "▁felaktig",
        -10.528631148145116
      ],
      [
        "▁produktion",
        -10.528741861078396
      ],
      [
        "▁hästar",
        -10.528863109482993
      ],
      [
        "Ö",
        -10.52949769797575
      ],
      [
        "bord",
        -10.529824478339624
      ],
      [
        "▁sjukdomar",
        -10.530051154934828
      ],
      [
        "enheten",
        -10.530307718130407
      ],
      [
        "▁onsdag",
        -10.530367081387702
      ],
      [
        "satta",
        -10.530503809102697
      ],
      [
        "▁Sol",
        -10.530553917255286
      ],
      [
        "▁Tidigare",
        -10.530835278414994
      ],
      [
        "▁bredvid",
        -10.530872124443151
      ],
      [
        "aning",
        -10.531227025569281
      ],
      [
        "▁student",
        -10.531251227840116
      ],
      [
        "▁fru",
        -10.531505279829359
      ],
      [
        "backen",
        -10.532040328056691
      ],
      [
        "alltför",
        -10.532251199253716
      ],
      [
        "hindra",
        -10.532320144681306
      ],
      [
        "▁Svart",
        -10.532438279937086
      ],
      [
        "▁My",
        -10.533231944758203
      ],
      [
        "▁länk",
        -10.533974669576109
      ],
      [
        "Utcheckning",
        -10.534737513983943
      ],
      [
        "▁killar",
        -10.534867667463294
      ],
      [
        "▁dygnet",
        -10.535132361573842
      ],
      [
        "▁ränta",
        -10.535461849406781
      ],
      [
        "bordet",
        -10.535582004240647
      ],
      [
        "▁utseende",
        -10.535646944767203
      ],
      [
        "tagna",
        -10.535670965812978
      ],
      [
        "inkluderar",
        -10.535876941237266
      ],
      [
        "▁planer",
        -10.535936799373928
      ],
      [
        "taket",
        -10.537248910081525
      ],
      [
        "▁utomlands",
        -10.537674583900534
      ],
      [
        "kollegor",
        -10.53893939011001
      ],
      [
        "▁kunden",
        -10.539018818097722
      ],
      [
        "▁wid",
        -10.539685727006834
      ],
      [
        "▁cancer",
        -10.540048357641068
      ],
      [
        "förhindra",
        -10.540133033867994
      ],
      [
        "▁populär",
        -10.540427536805321
      ],
      [
        "föll",
        -10.54076528504721
      ],
      [
        "sidor",
        -10.540908921051171
      ],
      [
        "▁fria",
        -10.540972668517096
      ],
      [
        "förslaget",
        -10.541121304716173
      ],
      [
        "▁miljön",
        -10.541148656861669
      ],
      [
        "▁Herr",
        -10.54176235932341
      ],
      [
        "▁tränare",
        -10.541925220285702
      ],
      [
        "vall",
        -10.542072736651702
      ],
      [
        "olja",
        -10.542245869138954
      ],
      [
        "▁löne",
        -10.542498320450637
      ],
      [
        "▁Apple",
        -10.542527610237858
      ],
      [
        "▁ryggen",
        -10.542604404056197
      ],
      [
        "▁Linköping",
        -10.542670148113137
      ],
      [
        "▁sam",
        -10.542733428908729
      ],
      [
        "▁smärta",
        -10.542987114478112
      ],
      [
        "lades",
        -10.54358319478019
      ],
      [
        "▁fan",
        -10.543933151955802
      ],
      [
        "kostnader",
        -10.543948597917602
      ],
      [
        "▁FÖR",
        -10.54431457417129
      ],
      [
        "▁träffar",
        -10.5446346770762
      ],
      [
        "▁Mar",
        -10.54524192595855
      ],
      [
        "▁rena",
        -10.545746401288115
      ],
      [
        "▁respekt",
        -10.54636895743576
      ],
      [
        "▁påbörja",
        -10.546436648786818
      ],
      [
        "Tycker",
        -10.546474703594269
      ],
      [
        "▁Samma",
        -10.546482051526064
      ],
      [
        "▁Västerås",
        -10.546505337436422
      ],
      [
        "▁Eriksson",
        -10.546557822038954
      ],
      [
        "förvaltningen",
        -10.546694463555708
      ],
      [
        "▁NICK",
        -10.547581740923695
      ],
      [
        "räknas",
        -10.547635544834018
      ],
      [
        "▁riksdagen",
        -10.54783124998201
      ],
      [
        "▁däck",
        -10.548852890973793
      ],
      [
        "älskade",
        -10.548945007032076
      ],
      [
        "▁karaktär",
        -10.548949849919152
      ],
      [
        "övningar",
        -10.549392793343014
      ],
      [
        "▁berör",
        -10.550010208962107
      ],
      [
        "ley",
        -10.550206612311069
      ],
      [
        "▁skogs",
        -10.550478812007702
      ],
      [
        "▁tex",
        -10.550666712358623
      ],
      [
        "▁metall",
        -10.550993666052177
      ],
      [
        "▁lämplig",
        -10.551073409681523
      ],
      [
        "▁näst",
        -10.551079655809271
      ],
      [
        "▁Wi",
        -10.551641389198405
      ],
      [
        "▁tappa",
        -10.553405399011105
      ],
      [
        "ärenden",
        -10.55354525847742
      ],
      [
        "billigare",
        -10.554974123756256
      ],
      [
        "▁Hög",
        -10.555713513505596
      ],
      [
        "▁tillägg",
        -10.555845578499445
      ],
      [
        "fulla",
        -10.55598240285151
      ],
      [
        "▁vägg",
        -10.556168054194359
      ],
      [
        "paket",
        -10.556520805765985
      ],
      [
        "▁Ed",
        -10.556824891948745
      ],
      [
        "▁lägenheter",
        -10.556870815562815
      ],
      [
        "kvinnan",
        -10.55717880282202
      ],
      [
        "kommer",
        -10.557307166472006
      ],
      [
        "avdelningen",
        -10.558177876515964
      ],
      [
        "utav",
        -10.558391798666703
      ],
      [
        "innehållet",
        -10.558651918003646
      ],
      [
        "Syftet",
        -10.558802924246876
      ],
      [
        "ck",
        -10.558848408654702
      ],
      [
        "typ",
        -10.558962555727227
      ],
      [
        "koppla",
        -10.559649431960796
      ],
      [
        "frågorna",
        -10.5598843433799
      ],
      [
        "männen",
        -10.560007686511236
      ],
      [
        "▁förståelse",
        -10.560112165683108
      ],
      [
        "▁byggde",
        -10.560167070827486
      ],
      [
        "▁informera",
        -10.560307140386566
      ],
      [
        "▁förändra",
        -10.560348008685182
      ],
      [
        "▁miljon",
        -10.560631861447389
      ],
      [
        "reglerna",
        -10.561061090468279
      ],
      [
        "▁Dating",
        -10.56109183943536
      ],
      [
        "heten",
        -10.561347539233038
      ],
      [
        "li",
        -10.561502649231397
      ],
      [
        "priset",
        -10.561604541958241
      ],
      [
        "ings",
        -10.562107805875755
      ],
      [
        "▁separat",
        -10.562217255498812
      ],
      [
        "Logga",
        -10.562248242791552
      ],
      [
        "klubb",
        -10.563591061021096
      ],
      [
        "▁flashback",
        -10.563938467395232
      ],
      [
        "miljö",
        -10.564318438872064
      ],
      [
        "företagen",
        -10.565879241810407
      ],
      [
        "▁kurser",
        -10.566047132743234
      ],
      [
        "▁utredning",
        -10.568004367612335
      ],
      [
        "▁gift",
        -10.568292130435651
      ],
      [
        "▁luften",
        -10.569219505676655
      ],
      [
        "san",
        -10.56934856917266
      ],
      [
        "orolig",
        -10.569606045337235
      ],
      [
        "▁region",
        -10.569634618507942
      ],
      [
        "▁behandla",
        -10.569695350929589
      ],
      [
        "vågar",
        -10.570096967014527
      ],
      [
        "banken",
        -10.570452865563956
      ],
      [
        "▁Lag",
        -10.57067997073393
      ],
      [
        "▁handen",
        -10.570695074477642
      ],
      [
        "svaret",
        -10.570911182765315
      ],
      [
        "▁tema",
        -10.57143272672368
      ],
      [
        "saken",
        -10.572408917504813
      ],
      [
        "arbetet",
        -10.572440776780397
      ],
      [
        "▁omsorg",
        -10.572713807675502
      ],
      [
        "▁FN",
        -10.57280997431363
      ],
      [
        "önskemål",
        -10.574146284152766
      ],
      [
        "▁identifiera",
        -10.57423254745404
      ],
      [
        "▁Dag",
        -10.574395066308352
      ],
      [
        "▁kall",
        -10.574462806453393
      ],
      [
        "▁återg",
        -10.576549890697075
      ],
      [
        "▁president",
        -10.576611049751085
      ],
      [
        "▁publik",
        -10.576611089156046
      ],
      [
        "▁ämne",
        -10.576612202611486
      ],
      [
        "▁fotbolls",
        -10.57704030428155
      ],
      [
        "bergs",
        -10.577510295777591
      ],
      [
        "sserligen",
        -10.578282864480768
      ],
      [
        "domstolen",
        -10.578385704649458
      ],
      [
        "ica",
        -10.578408680905815
      ],
      [
        "alt",
        -10.578642254298769
      ],
      [
        "▁anslutning",
        -10.579091605205038
      ],
      [
        "individer",
        -10.579135514414883
      ],
      [
        "▁God",
        -10.579550834761555
      ],
      [
        "▁historien",
        -10.58016927669782
      ],
      [
        "▁gravid",
        -10.58086165837607
      ],
      [
        "▁förtroende",
        -10.58201124119254
      ],
      [
        "▁original",
        -10.582312070940079
      ],
      [
        "▁aktie",
        -10.582398257408741
      ],
      [
        "handel",
        -10.583487467041584
      ],
      [
        "släppte",
        -10.58369446224777
      ],
      [
        "▁påminn",
        -10.58402062501383
      ],
      [
        "▁tävla",
        -10.584663705780246
      ],
      [
        "start",
        -10.584863827402451
      ],
      [
        "▁presentation",
        -10.585525008771707
      ],
      [
        "▁återkomm",
        -10.585531800040703
      ],
      [
        "data",
        -10.585931400478978
      ],
      [
        "▁Ca",
        -10.586185588801206
      ],
      [
        "chefen",
        -10.586351009765012
      ],
      [
        "▁upptäcka",
        -10.586373111507353
      ],
      [
        "delar",
        -10.58730677628077
      ],
      [
        "slaget",
        -10.587538174066477
      ],
      [
        "▁global",
        -10.587735939510056
      ],
      [
        "▁kvalitets",
        -10.587949271313823
      ],
      [
        "ran",
        -10.588200388952359
      ],
      [
        "bandet",
        -10.588562506399493
      ],
      [
        "▁Andreas",
        -10.588959032299405
      ],
      [
        "funderar",
        -10.589306354930708
      ],
      [
        "▁gas",
        -10.589633044183005
      ],
      [
        "▁England",
        -10.589649983804463
      ],
      [
        "▁medicin",
        -10.589894968429494
      ],
      [
        "tas",
        -10.590651116030374
      ],
      [
        "▁tusen",
        -10.591161889287793
      ],
      [
        "▁dog",
        -10.591500727048093
      ],
      [
        "vit",
        -10.591509729129656
      ],
      [
        "▁Art",
        -10.591934538201693
      ],
      [
        "▁styra",
        -10.592053416556046
      ],
      [
        "▁ber",
        -10.592094492559134
      ],
      [
        "omöjligt",
        -10.593527762701216
      ],
      [
        "▁Exempel",
        -10.593751916903246
      ],
      [
        "fyllt",
        -10.594026600082081
      ],
      [
        "▁Arbets",
        -10.594923093348356
      ],
      [
        "spelat",
        -10.595491631287958
      ],
      [
        "▁arbetsmiljö",
        -10.59551540598325
      ],
      [
        "försvinner",
        -10.5963169179435
      ],
      [
        "▁Vidare",
        -10.596506759426333
      ],
      [
        "▁OS",
        -10.597162452447273
      ],
      [
        "hunden",
        -10.597188294048465
      ],
      [
        "Alltså",
        -10.597329835877638
      ],
      [
        "▁Ek",
        -10.597354722518963
      ],
      [
        "rapporten",
        -10.597393890115551
      ],
      [
        "▁intervju",
        -10.598004332987978
      ],
      [
        "▁ledning",
        -10.598065402101426
      ],
      [
        "strand",
        -10.598287474344495
      ],
      [
        "▁kämpa",
        -10.598706413270603
      ],
      [
        "▁lägenheten",
        -10.598899297267582
      ],
      [
        "kostnad",
        -10.600415142537258
      ],
      [
        "▁Sven",
        -10.60043836414443
      ],
      [
        "▁lycka",
        -10.600744687038903
      ],
      [
        "kanten",
        -10.60088417989066
      ],
      [
        "▁Folk",
        -10.601467614690394
      ],
      [
        "ekonomiskt",
        -10.602076566552348
      ],
      [
        "▁jämförelse",
        -10.602467415228979
      ],
      [
        "▁situationer",
        -10.602651703691423
      ],
      [
        "▁räknar",
        -10.602657027329542
      ],
      [
        "▁Dan",
        -10.602851511169812
      ],
      [
        "▁trygghet",
        -10.60374296570622
      ],
      [
        "ledare",
        -10.604477517998932
      ],
      [
        "▁uppfattning",
        -10.604644017173104
      ],
      [
        "behandling",
        -10.605145507547938
      ],
      [
        "▁sprid",
        -10.605326174758382
      ],
      [
        "europeiska",
        -10.606256783008897
      ],
      [
        "uppgifterna",
        -10.606293220819522
      ],
      [
        "platser",
        -10.606452039901882
      ],
      [
        "färg",
        -10.606835506494585
      ],
      [
        "▁varma",
        -10.607544342404871
      ],
      [
        "bit",
        -10.607898758081738
      ],
      [
        "råd",
        -10.608340133528802
      ],
      [
        "▁faktorer",
        -10.60871818959661
      ],
      [
        "▁framgång",
        -10.608833758553091
      ],
      [
        "behovet",
        -10.608902200824792
      ],
      [
        "resor",
        -10.608942682924605
      ],
      [
        "frågar",
        -10.609094005241367
      ],
      [
        "▁sambo",
        -10.610352698978136
      ],
      [
        "▁samverkan",
        -10.61055414772689
      ],
      [
        "orter",
        -10.610693359774295
      ],
      [
        "▁beteende",
        -10.610857202338307
      ],
      [
        "befintliga",
        -10.611326138679821
      ],
      [
        "▁elev",
        -10.611512223830344
      ],
      [
        "▁byggt",
        -10.611533812705629
      ],
      [
        "▁Göran",
        -10.611578741486525
      ],
      [
        "▁Skor",
        -10.611603194960614
      ],
      [
        "eftermiddagen",
        -10.611760026742417
      ],
      [
        "▁Emma",
        -10.612014009585268
      ],
      [
        "▁utländsk",
        -10.61245492107103
      ],
      [
        "▁Jönköping",
        -10.612677071036266
      ],
      [
        "▁föremål",
        -10.612913680185873
      ],
      [
        "▁sorg",
        -10.613259330959716
      ],
      [
        "▁Gävle",
        -10.613647892238415
      ],
      [
        "Men",
        -10.61434089620517
      ],
      [
        "ges",
        -10.615078988744427
      ],
      [
        "▁doft",
        -10.61522656922176
      ],
      [
        "▁sällskap",
        -10.615367937692758
      ],
      [
        "▁lagar",
        -10.615434626399248
      ],
      [
        "stänga",
        -10.615824359434422
      ],
      [
        "▁arbetsgivare",
        -10.616015564526354
      ],
      [
        "skillnaden",
        -10.616050454317348
      ],
      [
        "historiska",
        -10.616527040563595
      ],
      [
        "▁vistelse",
        -10.616598270886323
      ],
      [
        "nych",
        -10.617050233474266
      ],
      [
        "▁hy",
        -10.617396874010355
      ],
      [
        "norra",
        -10.617667189971725
      ],
      [
        "formen",
        -10.617707909855772
      ],
      [
        "torget",
        -10.61796412327312
      ],
      [
        "▁franska",
        -10.618202076800996
      ],
      [
        "klass",
        -10.618988474550434
      ],
      [
        "ytor",
        -10.619334840186852
      ],
      [
        "▁VD",
        -10.619729401839072
      ],
      [
        "kurs",
        -10.619876856023874
      ],
      [
        "ocz",
        -10.61998234175172
      ],
      [
        "▁speciell",
        -10.620060570767059
      ],
      [
        "▁central",
        -10.620481732104563
      ],
      [
        "▁trädgården",
        -10.620500833481092
      ],
      [
        "byxor",
        -10.62108438386346
      ],
      [
        "▁konkret",
        -10.621128322710554
      ],
      [
        "barn",
        -10.62124124972921
      ],
      [
        "ifall",
        -10.622937549766684
      ],
      [
        "▁fängelse",
        -10.623382178873584
      ],
      [
        "▁strand",
[...]
