{
  "version": "1.0",
  "truncation": null,
  "padding": null,
  "added_tokens": [
    {
      "id": 0,
      "content": "[PAD]",
      "single_word": false,
      "lstrip": false,
      "rstrip": false,
      "normalized": false,
      "special": true
    },
    {
      "id": 1,
      "content": "[UNK]",
      "single_word": false,
      "lstrip": false,
      "rstrip": false,
      "normalized": false,
      "special": true
    },
    {
      "id": 2,
      "content": "[MASK]",
      "single_word": false,
      "lstrip": false,
      "rstrip": false,
      "normalized": false,
      "special": true
    },
    {
      "id": 3,
      "content": "[CLS]",
      "single_word": false,
      "lstrip": false,
      "rstrip": false,
      "normalized": false,
      "special": true
    },
    {
      "id": 4,
      "content": "[SEP]",
      "single_word": false,
      "lstrip": false,
      "rstrip": false,
      "normalized": false,
      "special": true
    }
  ],
  "normalizer": {
    "type": "Sequence",
    "normalizers": [
      {
        "type": "Nmt"
      },
      {
        "type": "NFKC"
      },
      {
        "type": "Replace",
        "pattern": {
          "Regex": " {2,}"
        },
        "content": " "
      }
    ]
  },
  "pre_tokenizer": {
    "type": "Sequence",
    "pretokenizers": [
      {
        "type": "ByteLevel",
        "add_prefix_space": true,
        "trim_offsets": true,
        "use_regex": true
      }
    ]
  },
  "post_processor": {
    "type": "TemplateProcessing",
    "single": [
      {
        "SpecialToken": {
          "id": "[CLS]",
          "type_id": 0
        }
      },
      {
        "Sequence": {
          "id": "A",
          "type_id": 0
        }
      },
      {
        "SpecialToken": {
          "id": "[SEP]",
          "type_id": 0
        }
      }
    ],
    "pair": [
      {
        "SpecialToken": {
          "id": "[CLS]",
          "type_id": 0
        }
      },
      {
        "Sequence": {
          "id": "A",
          "type_id": 0
        }
      },
      {
        "SpecialToken": {
          "id": "[SEP]",
          "type_id": 0
        }
      },
      {
        "Sequence": {
          "id": "B",
          "type_id": 1
        }
      },
      {
        "SpecialToken": {
          "id": "[SEP]",
          "type_id": 1
        }
      }
    ],
    "special_tokens": {
      "[CLS]": {
        "id": "[CLS]",
        "ids": [
          3
        ],
        "tokens": [
          "[CLS]"
        ]
      },
      "[SEP]": {
        "id": "[SEP]",
        "ids": [
          4
        ],
        "tokens": [
          "[SEP]"
        ]
      }
    }
  },
  "decoder": {
    "type": "ByteLevel",
    "add_prefix_space": true,
    "trim_offsets": true,
    "use_regex": true
  },
  "model": {
    "type": "BPE",
    "dropout": null,
    "unk_token": null,
    "continuing_subword_prefix": null,
    "end_of_word_suffix": null,
    "fuse_unk": false,
    "vocab": {
      "[PAD]": 0,
      "[UNK]": 1,
      "[MASK]": 2,
      "[CLS]": 3,
      "[SEP]": 4,
      "!": 5,
      "\"": 6,
      "#": 7,
      "$": 8,
      "%": 9,
      "&": 10,
      "'": 11,
      "(": 12,
      ")": 13,
      "*": 14,
      "+": 15,
      ",": 16,
      "-": 17,
      ".": 18,
      "/": 19,
      "0": 20,
      "1": 21,
      "2": 22,
      "3": 23,
      "4": 24,
      "5": 25,
      "6": 26,
      "7": 27,
      "8": 28,
      "9": 29,
      ":": 30,
      ";": 31,
      "<": 32,
      "=": 33,
      ">": 34,
      "?": 35,
      "@": 36,
      "A": 37,
      "B": 38,
      "C": 39,
      "D": 40,
      "E": 41,
      "F": 42,
      "G": 43,
      "H": 44,
      "I": 45,
      "J": 46,
      "K": 47,
      "L": 48,
      "M": 49,
      "N": 50,
      "O": 51,
      "P": 52,
      "Q": 53,
      "R": 54,
      "S": 55,
      "T": 56,
      "U": 57,
      "V": 58,
      "W": 59,
      "X": 60,
      "Y": 61,
      "Z": 62,
      "[": 63,
      "\\": 64,
      "]": 65,
      "^": 66,
      "_": 67,
      "`": 68,
      "a": 69,
      "b": 70,
      "c": 71,
      "d": 72,
      "e": 73,
      "f": 74,
      "g": 75,
      "h": 76,
      "i": 77,
      "j": 78,
      "k": 79,
      "l": 80,
      "m": 81,
      "n": 82,
      "o": 83,
      "p": 84,
      "q": 85,
      "r": 86,
      "s": 87,
      "t": 88,
      "u": 89,
      "v": 90,
      "w": 91,
      "x": 92,
      "y": 93,
      "z": 94,
      "{": 95,
      "|": 96,
      "}": 97,
      "~": 98,
      "¡": 99,
      "¢": 100,
      "£": 101,
      "¤": 102,
      "¥": 103,
      "¦": 104,
      "§": 105,
      "¨": 106,
      "©": 107,
      "ª": 108,
      "«": 109,
      "¬": 110,
      "®": 111,
      "¯": 112,
      "°": 113,
      "±": 114,
      "²": 115,
      "³": 116,
      "´": 117,
      "µ": 118,
      "¶": 119,
      "·": 120,
      "¸": 121,
      "¹": 122,
      "º": 123,
      "»": 124,
      "¼": 125,
      "½": 126,
      "¾": 127,
      "¿": 128,
      "Â": 129,
      "Ã": 130,
      "Ä": 131,
      "Å": 132,
      "Æ": 133,
      "Ç": 134,
      "È": 135,
      "É": 136,
      "Ê": 137,
      "Ë": 138,
      "Ì": 139,
      "Í": 140,
      "Î": 141,
      "Ï": 142,
      "Ð": 143,
      "Ñ": 144,
      "Ò": 145,
      "Ó": 146,
      "Ô": 147,
      "Õ": 148,
      "Ö": 149,
      "×": 150,
      "Ø": 151,
      "Ù": 152,
      "Ú": 153,
      "Û": 154,
      "Ü": 155,
      "Ý": 156,
      "Þ": 157,
      "ß": 158,
      "à": 159,
      "á": 160,
      "â": 161,
      "ã": 162,
      "ä": 163,
      "å": 164,
      "æ": 165,
      "ç": 166,
      "è": 167,
      "é": 168,
      "ê": 169,
      "ë": 170,
      "ì": 171,
      "í": 172,
      "î": 173,
      "ï": 174,
      "ð": 175,
      "ñ": 176,
      "ó": 177,
      "ô": 178,
      "Ā": 179,
      "Ġ": 180,
      "Ģ": 181,
      "ģ": 182,
      "Ĥ": 183,
      "ĥ": 184,
      "Ħ": 185,
      "ħ": 186,
      "Ĩ": 187,
      "ĩ": 188,
      "Ī": 189,
      "ī": 190,
      "Ĭ": 191,
      "ĭ": 192,
      "Į": 193,
      "į": 194,
      "İ": 195,
      "ı": 196,
      "Ĳ": 197,
      "ĳ": 198,
      "Ĵ": 199,
      "ĵ": 200,
      "Ķ": 201,
      "ķ": 202,
      "ĸ": 203,
      "Ĺ": 204,
      "ĺ": 205,
      "Ļ": 206,
      "ļ": 207,
      "Ľ": 208,
      "ľ": 209,
      "Ŀ": 210,
      "ŀ": 211,
      "Ł": 212,
      "ł": 213,
      "Ń": 214,
      "Ã¤": 215,
      "er": 216,
      "en": 217,
      "Ġs": 218,
      "Ã¥": 219,
      "ar": 220,
      "Ã¶": 221,
      "an": 222,
      "in": 223,
      "et": 224,
      "Ġd": 225,
      "Ġf": 226,
      "at": 227,
      "Ġm": 228,
      "ll": 229,
      "Ġo": 230,
      "Ġh": 231,
      "Ġv": 232,
      "Ã¶r": 233,
      "Ã¤r": 234,
      "Ġt": 235,
      "st": 236,
      "Ġb": 237,
      "Ġk": 238,
      "ch": 239,
      "om": 240,
      "Ġp": 241,
      "ig": 242,
      "Ġoch": 243,
      "att": 244,
      "or": 245,
      "ing": 246,
      "de": 247,
      "on": 248,
      "ag": 249,
      "Ġi": 250,
      "Ġatt": 251,
      "Ġa": 252,
      "ed": 253,
      "ĠfÃ¶r": 254,
      "Ġl": 255,
      "ka": 256,
      "Ġg": 257,
      "Ġn": 258,
      "tt": 259,
      "ill": 260,
      "Ã¤n": 261,
      "Ġen": 262,
      "ra": 263,
      "Ġin": 264,
      "na": 265,
      "Ġu": 266,
      "el": 267,
      "kt": 268,
      "ĠÃ¤r": 269,
      "is": 270,
      "ĠpÃ¥": 271,
      "Ġsom": 272,
      "ck": 273,
      "Ġdet": 274,
      "re": 275,
      "ĠS": 276,
      "te": 277,
      "Ġmed": 278,
      "Ġav": 279,
      "al": 280,
      "Ġtill": 281,
      "Ġj": 282,
      "pp": 283,
      "ning": 284,
      "ĠD": 285,
      "Ã¥r": 286,
      "am": 287,
      "id": 288,
      "Ã¥n": 289,
      "ss": 290,
      "ter": 291,
      "il": 292,
      "Ġe": 293,
      "Ġst": 294,
      "un": 295,
      "lig": 296,
      "it": 297,
      "and": 298,
      "ro": 299,
      "der": 300,
      "Ġvar": 301,
      "Ġde": 302,
      "ver": 303,
      "Ġhar": 304,
      "Ġr": 305,
      "Ġom": 306,
      "ĠM": 307,
      "as": 308,
      "ett": 309,
      "ol": 310,
      "sk": 311,
      "ion": 312,
      "iv": 313,
      "Ġjag": 314,
      "Ã¤l": 315,
      "ad": 316,
      "ade": 317,
      "Ġden": 318,
      "ĠH": 319,
      "Ġinte": 320,
      "Ġut": 321,
      "ĠV": 322,
      "Ġsk": 323,
      "ĠA": 324,
      "em": 325,
      "Ã¤tt": 326,
      "ur": 327,
      "ĠF": 328,
      "ĠsÃ¥": 329,
      "Ġfr": 330,
      "are": 331,
      "Ġan": 332,
      "ik": 333,
      "ot": 334,
      "Ġ1": 335,
      "ĠB": 336,
      "Ġett": 337,
      "Ġkan": 338,
      "ller": 339,
      "li": 340,
      "ut": 341,
      "Ġvi": 342,
      "Ġdu": 343,
      "ĠT": 344,
      "Ġ2": 345,
      "Ã¤g": 346,
      "ande": 347,
      "omm": 348,
      "ĠE": 349,
      "Ã¥g": 350,
      "ens": 351,
      "ta": 352,
      "ĠL": 353,
      "Ġbe": 354,
      "het": 355,
      "ĠI": 356,
      "..": 357,
      "ĠK": 358,
      "ĠN": 359,
      "ĠP": 360,
      "ĠJ": 361,
      "fÃ¶r": 362,
      "Ġall": 363,
      "itt": 364,
      "Ġupp": 365,
      "Ã¥ng": 366,
      "ĠÃ¶": 367,
      "sta": 368,
      "âĢ": 369,
      "ent": 370,
      "ort": 371,
      "da": 372,
      "Ġre": 373,
      "ans": 374,
      "us": 375,
      "Ġska": 376,
      "Ġkomm": 377,
      "ĠDet": 378,
      "Ã¤ll": 379,
      "um": 380,
      "Ġman": 381,
      "es": 382,
      "Ġ(": 383,
      "ĠfrÃ¥n": 384,
      "ns": 385,
      "ri": 386,
      "ĠG": 387,
      "Ġun": 388,
      "la": 389,
      "Ġsp": 390,
      "Ã¤m": 391,
      "ation": 392,
      "og": 393,
      "ĠR": 394,
      "fter": 395,
      "yck": 396,
      "Ġmen": 397,
      "art": 398,
      "ĠO": 399,
      "le": 400,
      "Ġsam": 401,
      "Ġeller": 402,
      "ell": 403,
      "ligt": 404,
      "ĠâĢ": 405,
      "ul": 406,
      "igt": 407,
      "ak": 408,
      "den": 409,
      "00": 410,
      "Ġfin": 411,
      "ĠnÃ¤r": 412,
      "ĠC": 413,
      "yg": 414,
      "Ġmin": 415,
      "ĠnÃ¥g": 416,
      "Ġtr": 417,
      "sl": 418,
      "bb": 419,
      "ram": 420,
      "ster": 421,
      "var": 422,
      "isk": 423,
      "sp": 424,
      "Ã¤ng": 425,
      "Ġpro": 426,
      "ats": 427,
      "Ġsig": 428,
      "all": 429,
      "Ġbar": 430,
      "Ã¤nd": 431,
      "bet": 432,
      "ff": 433,
      "ull": 434,
      "ud": 435,
      "Ġc": 436,
      "ast": 437,
      "ĠdÃ¤r": 438,
      "Ġhel": 439,
      "arna": 440,
      "era": 441,
      "ven": 442,
      "ĠhÃ¤r": 443,
      "ĠÃ¶ver": 444,
      "ers": 445,
      "jÃ¤l": 446,
      "dag": 447,
      "sa": 448,
      "ft": 449,
      "ĠÃ¥r": 450,
      "ok": 451,
      "Ġ-": 452,
      "Ġunder": 453,
      "ma": 454,
      "erna": 455,
      "ĠÃ¥": 456,
      "und": 457,
      "ĠU": 458,
      "ĠJag": 459,
      "Ġgr": 460,
      "Ġkon": 461,
      "els": 462,
      "Ġny": 463,
      "Ġli": 464,
      "os": 465,
      "Ġ20": 466,
      "ĠgÃ¶r": 467,
      "Ġbli": 468,
      "Ġefter": 469,
      "ĠÃ": 470,
      "ne": 471,
      "del": 472,
      "sÃ¥": 473,
      "Ġbl": 474,
      "Ġfl": 475,
      "arbet": 476,
      "Ġkommer": 477,
      "ger": 478,
      "ekt": 479,
      "Ġvara": 480,
      "od": 481,
      "ic": 482,
      "Ġha": 483,
      "ĠâĢĵ": 484,
      "orm": 485,
      "ju": 486,
      "Ġhan": 487,
      "ist": 488,
      "Ġkr": 489,
      "ĠVi": 490,
      "Ġtid": 491,
      "Ã¶k": 492,
      "ĠmÃ¥": 493,
      "ningen": 494,
      "Ġfinns": 495,
      "ick": 496,
      "ĠÃ¤": 497,
      "ĠfÃ¥": 498,
      "Ã¤k": 499,
      "ock": 500,
      "liga": 501,
      "Ġmer": 502,
      "ĠSt": 503,
      "pa": 504,
      "ling": 505,
      "Ġse": 506,
      "edan": 507,
      "im": 508,
      "ska": 509,
      "iska": 510,
      "Ġ3": 511,
      "sam": 512,
      "Ġsin": 513,
      "Ġalla": 514,
      "Ã¤nn": 515,
      "ru": 516,
      "Ġvill": 517,
      "opp": 518,
      "ycket": 519,
      "Ġand": 520,
      "ĠvÃ¤l": 521,
      "ĠFÃ¶r": 522,
      "Ġsl": 523,
      "Ġnu": 524,
      "...": 525,
      "Ġallt": 526,
      "lar": 527,
      "Ġ\"": 528,
      "Ġdag": 529,
      "ark": 530,
      "Ã¶j": 531,
      "Ġju": 532,
      "Ġ201": 533,
      "ilj": 534,
      "yr": 535,
      "Ġdel": 536,
      "Ġvid": 537,
      "eck": 538,
      "Ġock": 539,
      "ikt": 540,
      "akt": 541,
      "ost": 542,
      "Ġkun": 543,
      "ĠdÃ¥": 544,
      "Ġpl": 545,
      "ber": 546,
      "Ġfram": 547,
      "Ġmot": 548,
      "ningar": 549,
      "ĠocksÃ¥": 550,
      "bl": 551,
      "ĠfÃ¥r": 552,
      "Ġbeh": 553,
      "est": 554,
      "Ġpr": 555,
      "enom": 556,
      "Ġmycket": 557,
      "Ġmig": 558,
      "ĠEn": 559,
      "Ġbra": 560,
      "eg": 561,
      "Ã¶n": 562,
      "Ã¶m": 563,
      "iga": 564,
      "ĠIn": 565,
      "ant": 566,
      "Ġta": 567,
      "Ġver": 568,
      "cka": 569,
      "Ã¤s": 570,
      "Ġtv": 571,
      "Ã¥ll": 572,
      "dr": 573,
      "Ġor": 574,
      "ov": 575,
      "Ġex": 576,
      "ygg": 577,
      "Ġsv": 578,
      "Ġdig": 579,
      "ir": 580,
      "org": 581,
      "Ġdin": 582,
      "ord": 583,
      "Ġvis": 584,
      "ek": 585,
      "Ġandra": 586,
      "Ã¶d": 587,
      "Ġarbet": 588,
      "Ã¤st": 589,
      "per": 590,
      "Ġbara": 591,
      "Ġlite": 592,
      "ligen": 593,
      "ĠÃ¤ven": 594,
      "Ã¥nga": 595,
      "erson": 596,
      "Ġhur": 597,
      "Ã¤gg": 598,
      "ingen": 599,
      "tal": 600,
      "Ġkv": 601,
      "Ġhon": 602,
      "ĠhÃ¶": 603,
      "rÃ¥": 604,
      "ĠDe": 605,
      "Ġann": 606,
      "ĠÃ¤n": 607,
      "Ġanv": 608,
      "ĠbÃ¶r": 609,
      "bil": 610,
      "stÃ¤ll": 611,
      "yn": 612,
      "op": 613,
      "av": 614,
      "ulle": 615,
      "itet": 616,
      "kar": 617,
      "ĠMen": 618,
      "Ġbil": 619,
      "Ġer": 620,
      "gen": 621,
      "Ġkl": 622,
      "Ġvil": 623,
      "Ġ5": 624,
      "ket": 625,
      "ass": 626,
      "ce": 627,
      "Ġstor": 628,
      "ĠAn": 629,
      "ĠvÃ¥r": 630,
      "Ġvad": 631,
      "je": 632,
      "Ġhem": 633,
      "Ġ4": 634,
      "Ġhade": 635,
      "ĠDen": 636,
      "ĠvÃ¤r": 637,
      "ott": 638,
      "ack": 639,
      "ĠsÃ¤g": 640,
      "Ġsm": 641,
      "pl": 642,
      "ser": 643,
      "vis": 644,
      "Ġskulle": 645,
      "ote": 646,
      "du": 647,
      "ci": 648,
      "aren": 649,
      "Ġbet": 650,
      "ste": 651,
      "ress": 652,
      "Ġgenom": 653,
      "Ġblir": 654,
      "ja": 655,
      "Ġspel": 656,
      "oll": 657,
      "Ġkom": 658,
      "jt": 659,
      "jÃ¤lv": 660,
      "Ġutan": 661,
      "Ġbr": 662,
      "ier": 663,
      "nad": 664,
      "lev": 665,
      "Ġperson": 666,
      "ĠW": 667,
      "se": 668,
      "yd": 669,
      "riv": 670,
      "Ġser": 671,
      "sm": 672,
      "Ġsamt": 673,
      "inn": 674,
      "Ã¶l": 675,
      "kl": 676,
      "Ġsen": 677,
      "Ã¤d": 678,
      "ĠmÃ¥nga": 679,
      "iskt": 680,
      "ĠfÃ¶rs": 681,
      "ĠsjÃ¤lv": 682,
      "sÃ¤tt": 683,
      "fr": 684,
      "gi": 685,
      "sb": 686,
      "form": 687,
      "ende": 688,
      "som": 689,
      "ĠnÃ¥gon": 690,
      "Ġdess": 691,
      "vÃ¤r": 692,
      "ĠgÃ¶ra": 693,
      "Ġdetta": 694,
      "verig": 695,
      "Ġber": 696,
      "ef": 697,
      "ia": 698,
      "Ã¶p": 699,
      "ets": 700,
      "Ġverk": 701,
      "ighet": 702,
      "Ġoss": 703,
      "Ġmat": 704,
      "ken": 705,
      "ring": 706,
      "ĠnÃ¥got": 707,
      "Ġsedan": 708,
      "ĠkÃ¤n": 709,
      "Ã¤t": 710,
      "Ã¥t": 711,
      "man": 712,
      "Ġw": 713,
      "lika": 714,
      "Ġbarn": 715,
      "ult": 716,
      "Ã¶ver": 717,
      "enska": 718,
      "Ã¤sta": 719,
      "Ġhand": 720,
      "ug": 721,
      "ĠgÃ¥r": 722,
      "sen": 723,
      "alt": 724,
      "obb": 725,
      "ym": 726,
      "ering": 727,
      "ĠsÃ¤tt": 728,
      "ĠhÃ¶g": 729,
      "etag": 730,
      "otell": 731,
      "Ġolika": 732,
      "ĠtvÃ¥": 733,
      "Ġhitt": 734,
      "ytt": 735,
      "land": 736,
      "str": 737,
      "Ġig": 738,
      "gr": 739,
      "lighet": 740,
      "Ġ19": 741,
      "sson": 742,
      "ala": 743,
      "ĠrÃ¤tt": 744,
      "ĠSk": 745,
      "ie": 746,
      "mar": 747,
      "ĠSverig": 748,
      "Ġal": 749,
      "ĠgÃ¥ng": 750,
      "mer": 751,
      "nar": 752,
      "Ġdem": 753,
      "aste": 754,
      "Ã¤v": 755,
      "Ġhelt": 756,
      "ĠhjÃ¤l": 757,
      "erade": 758,
      "Ã¤ck": 759,
      "ĠsÃ¤ger": 760,
      "Ã¥l": 761,
      "nings": 762,
      "Ġinne": 763,
      "Ġra": 764,
      "ĠOm": 765,
      "âĢĿ": 766,
      "Ġing": 767,
      "Ġro": 768,
      "upp": 769,
      "des": 770,
      "ellan": 771,
      "jting": 772,
      "Ġvet": 773,
      "ang": 774,
      "Ġinom": 775,
      "eras": 776,
      "Ġ6": 777,
      "Ã¤nder": 778,
      "Ġgj": 779,
      "ĠgÃ¥": 780,
      "Ġfick": 781,
      "ts": 782,
      "Ġlag": 783,
      "Ġnya": 784,
      "Ġint": 785,
      "hÃ¥ll": 786,
      "Ġfun": 787,
      "Ġfort": 788,
      "ĠlÃ¤ng": 789,
      "veck": 790,
      "Ġhela": 791,
      "ĠbÃ¥": 792,
      "Ġty": 793,
      "ĠmÃ¶j": 794,
      "ĠÃĦ": 795,
      "Ã©": 796,
      "jer": 797,
      "lin": 798,
      "Ġsitt": 799,
      "ida": 800,
      "det": 801,
      "ga": 802,
      "hol": 803,
      "ĠbÃ¶rj": 804,
      "tern": 805,
      "Ġpre": 806,
      "ske": 807,
      "Ġjobb": 808,
      "ien": 809,
      "Ġvarit": 810,
      "Ġblev": 811,
      "ys": 812,
      "pt": 813,
      "ĠmÃ¥ste": 814,
      "ĠfÃ¶rst": 815,
      "Ġliv": 816,
      "ĠfÃ¶rsta": 817,
      "ĠfrÃ¥g": 818,
      ").": 819,
      "ĠnÃ¥gra": 820,
      "va": 821,
      "Ġper": 822,
      "ativ": 823,
      "nan": 824,
      "kon": 825,
      "Ġmellan": 826,
      "Ġof": 827,
      "ĠDu": 828,
      "nas": 829,
      "Ġsn": 830,
      "Ġled": 831,
      "Ġdenna": 832,
      "ex": 833,
      "Ġni": 834,
      "Ġreg": 835,
      "ktion": 836,
      "Ã¥ra": 837,
      "pel": 838,
      "ella": 839,
      "bar": 840,
      "jÃ¤n": 841,
      "ĠNÃ¤r": 842,
      "Ġel": 843,
      "Ġle": 844,
      "br": 845,
      "verk": 846,
      "Ġ7": 847,
      "Ġgl": 848,
      "slut": 849,
      "ps": 850,
      "ann": 851,
      "Ġvikt": 852,
      "jÃ¤r": 853,
      "he": 854,
      "Ġslut": 855,
      "Ġrikt": 856,
      "ĠSverige": 857,
      "Ġdat": 858,
      "Ġkommun": 859,
      "kel": 860,
      "Ġtre": 861,
      "ĠFr": 862,
      "Ġmo": 863,
      "juk": 864,
      "ĠOch": 865,
      "erar": 866,
      "holm": 867,
      "ĠÃĸ": 868,
      "else": 869,
      "if": 870,
      "ika": 871,
      "ĠâĢĿ": 872,
      "Ġsak": 873,
      "ĠfÃ¶retag": 874,
      "orna": 875,
      "Ġpris": 876,
      "Ġdi": 877,
      "atur": 878,
      "Ã¤nt": 879,
      "Ġannat": 880,
      "utom": 881,
      "ĠÃ¥t": 882,
      "rum": 883,
      "sten": 884,
      "rat": 885,
      "ĠstÃ¶r": 886,
      "Ġ0": 887,
      "ĠÂ": 888,
      "Ã¤ker": 889,
      "slag": 890,
      "Ġch": 891,
      "Ġakt": 892,
      "dre": 893,
      "erad": 894,
      "Ã¤x": 895,
      "ĠtÃ¤n": 896,
      "ĠÃ¤nd": 897,
      "Ã¥rd": 898,
      "ap": 899,
      "Ġkunna": 900,
      "atten": 901,
      "lÃ¤gg": 902,
      "Ġeg": 903,
      "Ġsina": 904,
      "Ġ8": 905,
      "gÃ¥ng": 906,
      "Ġans": 907,
      "Ġ200": 908,
      "io": 909,
      "sh": 910,
      "Ġvilket": 911,
      "Ġner": 912,
      "gar": 913,
      "Ã¤ller": 914,
      "men": 915,
      "samhet": 916,
      "ĠSÃ¥": 917,
      "igare": 918,
      "sv": 919,
      "Ġvin": 920,
      "ĠbÃ¥de": 921,
      "Ġ9": 922,
      "Ġhos": 923,
      "ĠAll": 924,
      "Ġdejting": 925,
      "tro": 926,
      "ank": 927,
      "Ġmilj": 928,
      "orde": 929,
      "tid": 930,
      "Ġres": 931,
      "ej": 932,
      "yst": 933,
      "ĠlÃ¥ng": 934,
      "formation": 935,
      "oka": 936,
      "kte": 937,
      "Ġon": 938,
      "Ġbland": 939,
      "eter": 940,
      "unt": 941,
      "Ġlig": 942,
      "Ã¤nda": 943,
      "bild": 944,
      "ĠanvÃ¤nd": 945,
      "Ã¶s": 946,
      "ĠÃħ": 947,
      "Ġhotell": 948,
      "ĠÃ¥ter": 949,
      "Ġ10": 950,
      "eb": 951,
      "skap": 952,
      "ĠUn": 953,
      "Ã¤der": 954,
      "pro": 955,
      "ades": 956,
      "iken": 957,
      "edel": 958,
      "ĠNu": 959,
      "ycker": 960,
      "Ġma": 961,
      "anska": 962,
      "ĠbehÃ¶ver": 963,
      "Ġutveck": 964,
      "digt": 965,
      "Ã¶v": 966,
      "Ã¶tt": 967,
      "komm": 968,
      "Ġprodu": 969,
      "ĠvÃ¥ra": 970,
      "Ġkanske": 971,
      "ĠPÃ¥": 972,
      "Ġly": 973,
      "Ġdessa": 974,
      "Ġplats": 975,
      "tr": 976,
      "led": 977,
      "ĠbÃ¤sta": 978,
      "min": 979,
      "Ġtro": 980,
      "ĠfÃ¤r": 981,
      "ust": 982,
      "lag": 983,
      "ĠmÃ¤nn": 984,
      "tra": 985,
      "ĠhÃ¥ll": 986,
      "Ġpol": 987,
      "ĠfÃ¶l": 988,
      "Ġinnan": 989,
      "Ġtar": 990,
      "dom": 991,
      "Ġerb": 992,
      "Ġ&": 993,
      "20": 994,
      "Ġord": 995,
      "ĠHan": 996,
      "olk": 997,
      "fatt": 998,
      "olag": 999,
      "ars": 1000,
      "ĠlÃ¤g": 1001,
      "Ġflera": 1002,
      "Ġvan": 1003,
      "ĠvÃ¤g": 1004,
      "uv": 1005,
      "ĠlÃ¤r": 1006,
      "ld": 1007,
      "Ġger": 1008,
      "andet": 1009,
      "Ġidag": 1010,
      "ĠHÃ¤r": 1011,
      "ker": 1012,
      "cent": 1013,
      "ba": 1014,
      "kter": 1015,
      "Ġsna": 1016,
      "etta": 1017,
      "ĠMed": 1018,
      "ĠmÃ¥l": 1019,
      "Ġsamma": 1020,
      "par": 1021,
      "ina": 1022,
      "Ġpass": 1023,
      "rekt": 1024,
      "ow": 1025,
      "Ġdr": 1026,
      "Ġfall": 1027,
      "jud": 1028,
      "amn": 1029,
      "Ã¤nner": 1030,
      "ockholm": 1031,
      "Ġur": 1032,
      "Ġdom": 1033,
      "Ġbygg": 1034,
      "Ġfil": 1035,
      "Ġmitt": 1036,
      "ub": 1037,
      "Ġalltid": 1038,
      "Ġbort": 1039,
      "Ã¤mn": 1040,
      "Ġditt": 1041,
      "lass": 1042,
      "ask": 1043,
      "jekt": 1044,
      "ung": 1045,
      "ors": 1046,
      "Ã¥ller": 1047,
      "sÃ¶k": 1048,
      "erat": 1049,
      "eri": 1050,
      "Ġstora": 1051,
      "atis": 1052,
      "rik": 1053,
      "met": 1054,
      "Ġbest": 1055,
      "ĠAr": 1056,
      "kade": 1057,
      "ystem": 1058,
      "ab": 1059,
      "skar": 1060,
      "tag": 1061,
      "Ã¤ttre": 1062,
      "Ġfakt": 1063,
      "pr": 1064,
      "ppen": 1065,
      "ard": 1066,
      "Ġfor": 1067,
      "ĠAtt": 1068,
      "Ġnog": 1069,
      "berg": 1070,
      "dÃ¶m": 1071,
      "Ġvarje": 1072,
      "hand": 1073,
      "red": 1074,
      "blem": 1075,
      "sfÃ¶r": 1076,
      "takt": 1077,
      "empel": 1078,
      "ĠstÃ¤ll": 1079,
      "me": 1080,
      "mans": 1081,
      "gram": 1082,
      "eci": 1083,
      "nader": 1084,
      "ĠsÃ¤ker": 1085,
      "ĠLÃ¤s": 1086,
      "Ġ.": 1087,
      "Ġbok": 1088,
      "Ġpar": 1089,
      "ĠvÃ¤ldigt": 1090,
      "Ġso": 1091,
      "enn": 1092,
      "Ġigen": 1093,
      "Ġsnabb": 1094,
      "Ġplan": 1095,
      "ĠmÃ¤nnisk": 1096,
      "hus": 1097,
      "borg": 1098,
      "ĠbÃ¤ttre": 1099,
      "plats": 1100,
      "ĠDetta": 1101,
      "ellt": 1102,
      "ĠlÃ¤tt": 1103,
      "Ã¶t": 1104,
      "Ġtycker": 1105,
      "fl": 1106,
      "Ġinformation": 1107,
      "yt": 1108,
      "Ã¥rt": 1109,
      "Ġmark": 1110,
      "Ġligger": 1111,
      "bo": 1112,
      "kr": 1113,
      "Ġfy": 1114,
      "Ġfast": 1115,
      "ationer": 1116,
      "ionen": 1117,
      "Ġ:": 1118,
      "Ġsvar": 1119,
      "rÃ¤tt": 1120,
      "med": 1121,
      "Ġtag": 1122,
      "ĠÃ¤l": 1123,
      "ĠRe": 1124,
      "Ġval": 1125,
      "ĠgÃ¤ller": 1126,
      "idan": 1127,
      "rav": 1128,
      "raf": 1129,
      "iss": 1130,
      "skil": 1131,
      "ĠHar": 1132,
      "ektiv": 1133,
      "rev": 1134,
      "Ġgrund": 1135,
      "ari": 1136,
      "Ġgod": 1137,
      "Ġjust": 1138,
      "Ã¶te": 1139,
      "ĠnÃ¤t": 1140,
      "Ġstr": 1141,
      "Ġskriv": 1142,
      "Ġskol": 1143,
      "Ġ18": 1144,
      "Ġingen": 1145,
      "ha": 1146,
      "Ġform": 1147,
      "Ġofta": 1148,
      "ob": 1149,
      "mÃ¤r": 1150,
      "Ġtidigare": 1151,
      "ĠkÃ¶": 1152,
      "000": 1153,
      "tera": 1154,
      "Ġbak": 1155,
      "ĠfÃ¥tt": 1156,
      "Ã¥d": 1157,
      "Ġfler": 1158,
      "ĠTill": 1159,
      "ĠfÃ¶rb": 1160,
      "anden": 1161,
      "ĠStockholm": 1162,
      "Ã¤ns": 1163,
      "uvud": 1164,
      "kom": 1165,
      "sn": 1166,
      "Ġkall": 1167,
      "Ġfan": 1168,
      "Ġintress": 1169,
      "Ġkomma": 1170,
      "Ġsjuk": 1171,
      "Ġexempel": 1172,
      "Ã¥s": 1173,
      "orr": 1174,
      "ester": 1175,
      "ĠCh": 1176,
      "Ġpen": 1177,
      "Ġar": 1178,
      "ĠMa": 1179,
      "Ġ15": 1180,
      "orn": 1181,
      "Ġenda": 1182,
      "dat": 1183,
      "Ġge": 1184,
      "ĠJo": 1185,
      "sf": 1186,
      "Ġriktigt": 1187,
      "Ġveck": 1188,
      "ĠhjÃ¤lp": 1189,
      "ind": 1190,
      "Ġtror": 1191,
      "ĠVad": 1192,
      "rott": 1193,
      "nade": 1194,
      "ĠtrÃ¤n": 1195,
      "app": 1196,
      "ingar": 1197,
      "!!": 1198,
      "Ġsvenska": 1199,
      "Ġmest": 1200,
      "ĠlÃ¤": 1201,
      "Ġdock": 1202,
      "ĠEfter": 1203,
      "ioner": 1204,
      "line": 1205,
      "sammans": 1206,
      "ĠkÃ¶r": 1207,
      "gifter": 1208,
      "Ã¤lj": 1209,
      "Ġgick": 1210,
      "Ġkonst": 1211,
      "Ġskall": 1212,
      "heten": 1213,
      "Ġhitta": 1214,
      "kv": 1215,
      "ebb": 1216,
      "ĠVar": 1217,
      "Ã¥ende": 1218,
      "Ġkvinn": 1219,
      "amilj": 1220,
      "Ġenkel": 1221,
      "Ġ|": 1222,
      "Ġenligt": 1223,
      "frÃ¥n": 1224,
      "Ã¤ff": 1225,
      "Ġeftersom": 1226,
      "las": 1227,
      "iker": 1228,
      "rar": 1229,
      "Ġkost": 1230,
      "Ġfot": 1231,
      "Ã¶ka": 1232,
      "gÃ¶r": 1233,
      "Ã¶ker": 1234,
      "Ġredan": 1235,
      "Ġrunt": 1236,
      "amp": 1237,
      "ĠhÃ¶r": 1238,
      "ĠEtt": 1239,
      "ĠomdÃ¶m": 1240,
      "Ġtim": 1241,
      "ĠHur": 1242,
      "ultat": 1243,
      "uss": 1244,
      "Ġlik": 1245,
      "satt": 1246,
      "Ġgratis": 1247,
      "Ġdina": 1248,
      "vÃ¤g": 1249,
      "res": 1250,
      "ĠMan": 1251,
      "Ġannan": 1252,
      "yl": 1253,
      "Ġhopp": 1254,
      "dagen": 1255,
      "Ġkoll": 1256,
      "dan": 1257,
      "Ġland": 1258,
      "talet": 1259,
      "Ġ/": 1260,
      "ĠPro": 1261,
      "ner": 1262,
      "Ġpersoner": 1263,
      "lem": 1264,
      "ĠUt": 1265,
      "rakt": 1266,
      "ĠVis": 1267,
      "rist": 1268,
      "uro": 1269,
      "Ġlever": 1270,
      "far": 1271,
      "baka": 1272,
      "ubb": 1273,
      "Ġspeci": 1274,
      "Ġhus": 1275,
      "Ã¶st": 1276,
      "uter": 1277,
      "giv": 1278,
      "hÃ¶r": 1279,
      "drig": 1280,
      "ĠSp": 1281,
      "Ġproblem": 1282,
      "Ġkunde": 1283,
      "skol": 1284,
      "Ġrum": 1285,
      "Ġsy": 1286,
      "ĠDÃ¤r": 1287,
      "Ġgjort": 1288,
      "Ġ,": 1289,
      "ĠberÃ¤tt": 1290,
      "vet": 1291,
      "stad": 1292,
      "iver": 1293,
      "ĠmÃ¶jlighet": 1294,
      "Ġgam": 1295,
      "Ġverksamhet": 1296,
      "Ġstad": 1297,
      "raft": 1298,
      "elsen": 1299,
      "Ġderas": 1300,
      "van": 1301,
      "naden": 1302,
      "Ġsex": 1303,
      "Ġred": 1304,
      "be": 1305,
      "olog": 1306,
      "ĠlÃ¤m": 1307,
      "Ġfull": 1308,
      "Ġdirekt": 1309,
      "ings": 1310,
      "rad": 1311,
      "alen": 1312,
      "ler": 1313,
      "Ġkli": 1314,
      "Ġsi": 1315,
      "river": 1316,
      "nen": 1317,
      "Ġlika": 1318,
      "ĠY": 1319,
      "ĠtjÃ¤n": 1320,
      "Ġaldrig": 1321,
      "bÃ¤r": 1322,
      "Ġtillbaka": 1323,
      "ĠSam": 1324,
      "ĠmÃ¤nniskor": 1325,
      "gÃ¥r": 1326,
      "Ġtillsammans": 1327,
      "Ġnytt": 1328,
      "iten": 1329,
      "Ġ...": 1330,
      "illa": 1331,
      "Ġsenaste": 1332,
      "Ġung": 1333,
      "Ġverkligen": 1334,
      "Ġhal": 1335,
      "heter": 1336,
      "ationen": 1337,
      "ydd": 1338,
      "Ġnatur": 1339,
      "Ã¥nd": 1340,
      "yk": 1341,
      "Ġtiden": 1342,
      "Ġtog": 1343,
      "Ġbo": 1344,
      "Ġkontakt": 1345,
      "Ġwebb": 1346,
      "Ġmatch": 1347,
      "Ġhuvud": 1348,
      "mat": 1349,
      "Ġid": 1350,
      "asin": 1351,
      "ong": 1352,
      "ike": 1353,
      "lek": 1354,
      "ekn": 1355,
      "),": 1356,
      "Ġmina": 1357,
      "ister": 1358,
      "Ġ12": 1359,
      "Ġkort": 1360,
      "pen": 1361,
      "anis": 1362,
      "ĠUpp": 1363,
      "Ġkro": 1364,
      "spel": 1365,
      "ips": 1366,
      "arl": 1367,
      "Ġkomp": 1368,
      "ĠÂ·": 1369,
      "ĠvÃ¤n": 1370,
      "enter": 1371,
      "Ġegen": 1372,
      "vent": 1373,
      "age": 1374,
      "Ã¤ster": 1375,
      "eller": 1376,
      "Ġgen": 1377,
      "Ġmindre": 1378,
      "sikt": 1379,
      "ĠlÃ¥": 1380,
      "ĠsmÃ¥": 1381,
      "Ġerbju": 1382,
      "yrk": 1383,
      "ĠÃ¶pp": 1384,
      "ĠSv": 1385,
      "jur": 1386,
      "ĠfÃ¶rv": 1387,
      "ÂŃ": 1388,
      "ĠjÃ¤m": 1389,
      "ĠhÃ¤l": 1390,
      "Ġgjorde": 1391,
      "Ġmass": 1392,
      "alm": 1393,
      "ĠUnder": 1394,
      "Ġkvar": 1395,
      "net": 1396,
      "bland": 1397,
      "int": 1398,
      "Ġbeslut": 1399,
      "Ġhans": 1400,
      "ice": 1401,
      "ons": 1402,
      "ĠomrÃ¥": 1403,
      "ĠkÃ¶p": 1404,
      "ĠDÃ¥": 1405,
      "Ġpo": 1406,
      "skriv": 1407,
      "ĠanvÃ¤nda": 1408,
      "Ġrel": 1409,
      "ĠdÃ¤rfÃ¶r": 1410,
      "istor": 1411,
      "han": 1412,
      "Ġtitt": 1413,
      "orter": 1414,
      "com": 1415,
      "Ġhonom": 1416,
      "alitet": 1417,
      "drag": 1418,
      "orgon": 1419,
      "Ã¤kt": 1420,
      "cis": 1421,
      "by": 1422,
      "ras": 1423,
      "Ã¶g": 1424,
      "Ġinv": 1425,
      "Ġfamilj": 1426,
      "askin": 1427,
      "Ġih": 1428,
      "Ġklar": 1429,
      "ĠvÃ¤x": 1430,
      "Ġsa": 1431,
      "ition": 1432,
      "ĠMar": 1433,
      "ĠstÃ¥r": 1434,
      "iva": 1435,
      "Ġenkelt": 1436,
      "Ġvatten": 1437,
      "ĠkÃ¶pa": 1438,
      "ĠlÃ¤sa": 1439,
      "Ġte": 1440,
      "ara": 1441,
      "Ġ11": 1442,
      "ĠSom": 1443,
      "Ġbilder": 1444,
      "hÃ¤ll": 1445,
      "ĠinfÃ¶r": 1446,
      "ont": 1447,
      "Ã¤ra": 1448,
      "Ġvia": 1449,
      "spl": 1450,
      "Ġpart": 1451,
      "ib": 1452,
      "ynd": 1453,
      "fil": 1454,
      "ivit": 1455,
      "ĠstÃ¶rre": 1456,
      "Ġute": 1457,
      "eln": 1458,
      "ĠrÃ¶r": 1459,
      "Ġmus": 1460,
      "lingen": 1461,
      "kommen": 1462,
      "ess": 1463,
      "oner": 1464,
      "konom": 1465,
      "ĠÃ¤ndÃ¥": 1466,
      "Ã¤nk": 1467,
      "Ġfle": 1468,
      "Ġonline": 1469,
      "fekt": 1470,
      "ĠTr": 1471,
      "Ġtur": 1472,
      "Ġblog": 1473,
      "bart": 1474,
      "ĠKan": 1475,
      "iet": 1476,
      "Ġbild": 1477,
      "Ġfolk": 1478,
      "Ġhemma": 1479,
      "Ġeff": 1480,
      "ĠHon": 1481,
      "kor": 1482,
      "jus": 1483,
      "Ġ16": 1484,
      "Ġdagar": 1485,
      "kÃ¶p": 1486,
      "Ġem": 1487,
      "Ġ17": 1488,
      "ĠsÃ¤ga": 1489,
      "istr": 1490,
      "Ã¤rna": 1491,
      "ct": 1492,
      "Ġbor": 1493,
      "Ġbehand": 1494,
      "Ġytt": 1495,
      "Ġprocent": 1496,
      "Ġstort": 1497,
      "Ġhy": 1498,
      "Ġkron": 1499,
      "ĠinnebÃ¤r": 1500,
      "fall": 1501,
      "Ġbill": 1502,
      "ite": 1503,
      "Ġsol": 1504,
      "10": 1505,
      "ligare": 1506,
      "ĠDess": 1507,
      "sÃ¤ttning": 1508,
      "ĠBr": 1509,
      "cept": 1510,
      "Ġtal": 1511,
      "edag": 1512,
      "Ġhaft": 1513,
      "klar": 1514,
      "vr": 1515,
      "vÃ¤nd": 1516,
      "Ġsu": 1517,
      "idigt": 1518,
      "Ġned": 1519,
      "Ġsaker": 1520,
      "ĠlÃ¤ngre": 1521,
      "Ġ30": 1522,
      "ĠnÃ¤st": 1523,
      "Ġfel": 1524,
      "ĠÃ¤g": 1525,
      "ĠkÃ¤nner": 1526,
      "ĠAl": 1527,
      "\".": 1528,
      "Ġpengar": 1529,
      "Ġart": 1530,
      "vensk": 1531,
      "Ġbru": 1532,
      "stÃ¥nd": 1533,
      "Ġutbild": 1534,
      "ĠfÃ¶lj": 1535,
      "ĠJa": 1536,
      "....": 1537,
      "lden": 1538,
      "Ġkn": 1539,
      "ĠkvÃ¤ll": 1540,
      "Ġfem": 1541,
      "Ġblivit": 1542,
      "Ġstart": 1543,
      "ĠfÃ¶rl": 1544,
      "of": 1545,
      "drar": 1546,
      "Ġim": 1547,
      "ata": 1548,
      "Ġkont": 1549,
      "Ġintern": 1550,
      "Ġflyg": 1551,
      "ĠlÃ¥g": 1552,
      "ĠsÃ¤r": 1553,
      "Ġ14": 1554,
      "Ġca": 1555,
      "lla": 1556,
      "ĠAv": 1557,
      "Ã¤mt": 1558,
      "Ġvisar": 1559,
      "Ã¤pp": 1560,
      "stÃ¤llet": 1561,
      "ux": 1562,
      "Ġstyr": 1563,
      "Ġsoci": 1564,
      "our": 1565,
      "sak": 1566,
      "ix": 1567,
      "ĠNy": 1568,
      "ena": 1569,
      "Ġfa": 1570,
      "ian": 1571,
      "Ġorg": 1572,
      "ĠGr": 1573,
      "Ġresultat": 1574,
      "Ġhittar": 1575,
      "ĠstÃ¶d": 1576,
      "Ġfaktiskt": 1577,
      "port": 1578,
      "idor": 1579,
      "farande": 1580,
      "lic": 1581,
      "under": 1582,
      "Ġmedlem": 1583,
      "Ġliten": 1584,
      "ĠvÃ¤rld": 1585,
      "ĠfortsÃ¤tt": 1586,
      "Ġstud": 1587,
      "ĠmÃ¶jligt": 1588,
      "Ġekonom": 1589,
      "ider": 1590,
      "Ġmis": 1591,
      "ER": 1592,
      "ĠÃĦr": 1593,
      "sida": 1594,
      "Ġ13": 1595,
      "ĠUS": 1596,
      "ĠnÃ¤ra": 1597,
      "Ġansvar": 1598,
      "12": 1599,
      "Ġloka": 1600,
      "lad": 1601,
      "ĠvÃ¥rt": 1602,
      "nat": 1603,
      "ĠlÃ¤nge": 1604,
      "ip": 1605,
      "igheter": 1606,
      "gift": 1607,
      "Ġpolit": 1608,
      "Ġad": 1609,
      "Ã¥tt": 1610,
      "Ġinget": 1611,
      "elef": 1612,
      "mÃ¤l": 1613,
      "Ġnamn": 1614,
      "Ġdisk": 1615,
      "Ġy": 1616,
      "Ġsyn": 1617,
      "Ã¤nnu": 1618,
      "andel": 1619,
      "inna": 1620,
      "Ġganska": 1621,
      "ĠsvÃ¥rt": 1622,
      "ert": 1623,
      "ĠÃ¤nnu": 1624,
      "ris": 1625,
      "Ġkvinnor": 1626,
      "ĠmÃ¤n": 1627,
      "ral": 1628,
      "ke": 1629,
      "ument": 1630,
      "jÃ¶": 1631,
      "Ġka": 1632,
      "ĠlÃ¤gg": 1633,
      "cess": 1634,
      "ater": 1635,
      "ĠfrÃ¥gor": 1636,
      "Ġlu": 1637,
      "Ġextra": 1638,
      "ĠSe": 1639,
      "ĠgÃ¤rna": 1640,
      "ĠbÃ¶rjar": 1641,
      "ternativ": 1642,
      "Ġby": 1643,
      "tast": 1644,
      "ĠkÃ¤nns": 1645,
      "fÃ¤ll": 1646,
      "ĠtrÃ¤ff": 1647,
      "sin": 1648,
      "Ġoff": 1649,
      "Ġrisk": 1650,
      "ron": 1651,
      "elser": 1652,
      "ostad": 1653,
      "Ġklass": 1654,
      "Ġbed": 1655,
      "illar": 1656,
      "Ġgrupp": 1657,
      "ever": 1658,
      "Ġhen": 1659,
      "amma": 1660,
      "ÃĦ": 1661,
      "ĠomdÃ¶men": 1662,
      "Ġant": 1663,
      "erial": 1664,
      "Ġdagen": 1665,
      "ĠbesÃ¶k": 1666,
      "Ġprojekt": 1667,
      "Ġvidare": 1668,
      "inner": 1669,
      "ĠfÃ¶rm": 1670,
      "fÃ¤r": 1671,
      "Ã¶teborg": 1672,
      "spro": 1673,
      "eta": 1674,
      "ĠhÃ¥ller": 1675,
      "Ġprecis": 1676,
      "ĠAlla": 1677,
      "ecka": 1678,
      "Ġfru": 1679,
      "Ġdra": 1680,
      "Ġthe": 1681,
      "band": 1682,
      "Ġprogram": 1683,
      "ffÃ¤r": 1684,
      "Ġhund": 1685,
      "ĠsamhÃ¤ll": 1686,
      "ĠnÃ¤stan": 1687,
      "frÃ¥g": 1688,
      "ennes": 1689,
      "Ġeng": 1690,
      "ore": 1691,
      "ĠAB": 1692,
      "Ġfortfarande": 1693,
      "ivÃ¥": 1694,
      "ori": 1695,
      "ultur": 1696,
      "oder": 1697,
      "Ġvissa": 1698,
      "unkt": 1699,
      "sats": 1700,
      "ĠgÃ¥nger": 1701,
      "ĠHot": 1702,
      "Ġbel": 1703,
      "ĠsÃ¥dan": 1704,
      "Ġ25": 1705,
      "Ġbetal": 1706,
      "Ã¤dd": 1707,
      "Ġstat": 1708,
      "etter": 1709,
      "Ġkronor": 1710,
      "ĠMin": 1711,
      "ĠlÃ¤s": 1712,
      "Ġtekn": 1713,
      "Ġsidan": 1714,
      "gÃ¤r": 1715,
      "Ġvilka": 1716,
      "Ġhandlar": 1717,
      "ĠsÃ¤rskil": 1718,
      "Ġvilken": 1719,
      "19": 1720,
      "Ġcent": 1721,
      "fÃ¶rs": 1722,
      "ĠEx": 1723,
      "ivt": 1724,
      "ĠsÃ¶ker": 1725,
      "ĠlÃ¤n": 1726,
      "jut": 1727,
      "Ġsamtidigt": 1728,
      "err": 1729,
      "kas": 1730,
      "Ġerbjuder": 1731,
      "Ġsenare": 1732,
      "ĠZ": 1733,
      "ĠanvÃ¤nder": 1734,
      "ift": 1735,
      "ĠFin": 1736,
      "ĠfÃ¶re": 1737,
      "Ġspela": 1738,
      "gÃ¤ng": 1739,
      "ĠlÃ¶": 1740,
      "elefon": 1741,
      "dera": 1742,
      "Ġ100": 1743,
      "ppar": 1744,
      "ĠhÃ¥lla": 1745,
      "Ã¤ss": 1746,
      "rÃ¥k": 1747,
      "ĠmÃ¤r": 1748,
      "ten": 1749,
      "Ġsamman": 1750,
      "ember": 1751,
      "30": 1752,
      "sst": 1753,
      "val": 1754,
      "Ġminuter": 1755,
      "ĠÃ¥ret": 1756,
      "one": 1757,
      "Ġhoppas": 1758,
      "ĠalltsÃ¥": 1759,
      "Ġhenne": 1760,
      "Ġbad": 1761,
      "Ġgott": 1762,
      "Ġpla": 1763,
      "Ġkons": 1764,
      "ĠhjÃ¤r": 1765,
      "Ġ000": 1766,
      "ine": 1767,
      "cens": 1768,
      "ita": 1769,
      "ĠstÃ¶rsta": 1770,
      "Ġbef": 1771,
      "staur": 1772,
      "ĠistÃ¤llet": 1773,
      "lder": 1774,
      "ou": 1775,
      "ĠBe": 1776,
      "unn": 1777,
      "Ġflytt": 1778,
      "reg": 1779,
      "Ġytter": 1780,
      "Ġviktigt": 1781,
      "Ġflesta": 1782,
      "Ġste": 1783,
      "Ġarbete": 1784,
      "ĠBer": 1785,
      "Ġkar": 1786,
      "ĠBar": 1787,
      "Ġskriver": 1788,
      "vice": 1789,
      "fin": 1790,
      "its": 1791,
      "pass": 1792,
      "Ġ[": 1793,
      "Ġtyd": 1794,
      "Ġbety": 1795,
      "ĠBl": 1796,
      "Ġendast": 1797,
      "agen": 1798,
      "ĠKon": 1799,
      "Ġtyp": 1800,
      "Ġfunger": 1801,
      "Ġihop": 1802,
      "Ġtex": 1803,
      "ĠnÃ¤sta": 1804,
      "Ġvack": 1805,
      "Ġsista": 1806,
      "arbete": 1807,
      "ĠSen": 1808,
      "Ġgo": 1809,
      "ĠVid": 1810,
      "nande": 1811,
      "ĠbÃ¶rjade": 1812,
      "Ãĸ": 1813,
      "ge": 1814,
      "Ġutt": 1815,
      "Ġtips": 1816,
      "Ġ2017": 1817,
      "Ġfyra": 1818,
      "ay": 1819,
      "Ġ50": 1820,
      "ĠfÃ¶rÃ¤nd": 1821,
      "Ġkm": 1822,
      "ummer": 1823,
      "ĠKomm": 1824,
      "ond": 1825,
      "rade": 1826,
      "ĠjÃ¤mfÃ¶r": 1827,
      "qu": 1828,
      "ivet": 1829,
      "Ġhistor": 1830,
      "Ġjul": 1831,
      "Ã¶jd": 1832,
      "Ġspr": 1833,
      "Ġmaj": 1834,
      "Ġsnabbt": 1835,
      "ĠlÃ¤k": 1836,
      "osit": 1837,
      "gru": 1838,
      "ĠfÃ¶rut": 1839,
      "Ġsett": 1840,
      "ĠframfÃ¶r": 1841,
      "get": 1842,
      "varande": 1843,
      "Ġstar": 1844,
      "pe": 1845,
      "ĠEuro": 1846,
      "15": 1847,
      "ren": 1848,
      "ĠjÃ¤tt": 1849,
      "ĠLe": 1850,
      "tem": 1851,
      "okus": 1852,
      "Ġol": 1853,
      "Ġ2016": 1854,
      "bara": 1855,
      "ĠsÃ¥g": 1856,
      "ins": 1857,
      "Ġbid": 1858,
      "Ġind": 1859,
      "vÃ¥rd": 1860,
      "strÃ¶m": 1861,
      "hÃ¥ller": 1862,
      "Ġhennes": 1863,
      "Ġbehov": 1864,
      "ningarna": 1865,
      "ĠsjÃ¤lva": 1866,
      "Ã¶lj": 1867,
      "ĠkÃ¤r": 1868,
      "Ġfunktion": 1869,
      "Ġkring": 1870,
      "asino": 1871,
      "ĠFl": 1872,
      "Ġminst": 1873,
      "ĠfrÃ¤m": 1874,
      "Ġkul": 1875,
      "itu": 1876,
      "bud": 1877,
      "ĠhÃ¥r": 1878,
      "faren": 1879,
      "gon": 1880,
      "ĠBo": 1881,
      "mark": 1882,
      "Ġegna": 1883,
      "up": 1884,
      "EN": 1885,
      "andra": 1886,
      "ĠvÃ¤rlden": 1887,
      "Ġorganis": 1888,
      "orer": 1889,
      "ww": 1890,
      "alis": 1891,
      "Ġfantast": 1892,
      "ĠinlÃ¤gg": 1893,
      "Ã¶rer": 1894,
      "yss": 1895,
      "ĠbehÃ¶v": 1896,
      "Ġto": 1897,
      "Ġforsk": 1898,
      "ĠbestÃ¤m": 1899,
      "Ġvecka": 1900,
      "ifrÃ¥n": 1901,
      "Ġren": 1902,
      "Ġdejtingsa": 1903,
      "XX": 1904,
      "Ġutveckling": 1905,
      "Ġskapa": 1906,
      "Ġener": 1907,
      "ĠfÃ¶rslag": 1908,
      "gÃ¥rd": 1909,
      "Ġalternativ": 1910,
      "Ġskic": 1911,
      "mÃ¤n": 1912,
      "ĠmÃ¶": 1913,
      "Ġbolag": 1914,
      "vÃ¤x": 1915,
      "Ġbes": 1916,
      "Ġklart": 1917,
      "ssk": 1918,
      "Ġmobil": 1919,
      "Ġgamla": 1920,
      "kad": 1921,
      "IN": 1922,
      "ĠvÃ¤lja": 1923,
      "ĠGÃ¶teborg": 1924,
      "ĠIdag": 1925,
      "Ġdessutom": 1926,
      "Ġpa": 1927,
      "bolag": 1928,
      "lade": 1929,
      "agn": 1930,
      "ĠAir": 1931,
      "anc": 1932,
      "Ġkur": 1933,
      "ivers": 1934,
      "rag": 1935,
      "ruk": 1936,
      "ivitet": 1937,
      "ĠfÃ¤rg": 1938,
      "Ġemot": 1939,
      "Ġhalv": 1940,
      "Ġpat": 1941,
      "Ġob": 1942,
      "fri": 1943,
      "oc": 1944,
      "Ġsatt": 1945,
      "Ġmet": 1946,
      "ork": 1947,
      "kta": 1948,
      "terna": 1949,
      "ity": 1950,
      "ĠfÃ¶ren": 1951,
      "ĠVil": 1952,
      "Ġdelar": 1953,
      "sol": 1954,
      "ĠrÃ¤k": 1955,
      "Ġkontro": 1956,
      "sch": 1957,
      "Ġsystem": 1958,
      "bygg": 1959,
      "Ġab": 1960,
      "Ġhelst": 1961,
      "Ġ2015": 1962,
      "Ġviktig": 1963,
      "entar": 1964,
      "ĠMax": 1965,
      "Ġljus": 1966,
      "ĠOr": 1967,
      "Ġerbjud": 1968,
      "entligen": 1969,
      "Ġperfekt": 1970,
      "ĠlÃ¥ngt": 1971,
      "11": 1972,
      "ĠhjÃ¤lper": 1973,
      "Ã¶der": 1974,
      "ĠSveriges": 1975,
      "enskap": 1976,
      "Ġmaskin": 1977,
      "Ġverkar": 1978,
      "Ġsj": 1979,
      "Ġpriser": 1980,
      "ĠtÃ¤v": 1981,
      "Ġtimmar": 1982,
      "ies": 1983,
      "ĠÃ¶vr": 1984,
      "LA": 1985,
      "Ġtje": 1986,
      "ĠhÃ¤n": 1987,
      "ĠgÃ¥tt": 1988,
      "lingar": 1989,
      "stÃ¤llning": 1990,
      "Ġmode": 1991,
      "ĠfÃ¶rÃ¤l": 1992,
      "Ġkor": 1993,
      "ĠfrÃ¥ga": 1994,
      "iner": 1995,
      "ĠskÃ¶n": 1996,
      "rikt": 1997,
      "Ġupplev": 1998,
      "Ġville": 1999,
      "Ġgar": 2000,
      "Ġkraft": 2001,
      "ĠThe": 2002,
      "sig": 2003,
      "Ġbut": 2004,
      "ĠvarfÃ¶r": 2005,
      "ĠnÃ¤rm": 2006,
      "ĠRo": 2007,
      "Ãħ": 2008,
      "tering": 2009,
      "unden": 2010,
      "uella": 2011,
      "Ġja": 2012,
      "Ġskr": 2013,
      "Ġpapp": 2014,
      "Ġlycka": 2015,
      "full": 2016,
      "ĠÃĦven": 2017,
      "ĠhjÃ¤lpa": 2018,
      "ĠPer": 2019,
      "ĠPl": 2020,
      "Ġsag": 2021,
      "ĠÃ¶n": 2022,
      "cker": 2023,
      "\",": 2024,
      "klart": 2025,
      "fer": 2026,
      "Ġstan": 2027,
      "Ġtrots": 2028,
      "Ġovan": 2029,
      "amm": 2030,
      "Ġborde": 2031,
      "ckte": 2032,
      "ĠHel": 2033,
      "ĠvÃ¥rd": 2034,
      "ograf": 2035,
      "boll": 2036,
      "ĠvÃ¤nt": 2037,
      "als": 2038,
      "ateg": 2039,
      "Ġkna": 2040,
      "ĠEU": 2041,
      "Ġâ": 2042,
      "derar": 2043,
      "Ġfina": 2044,
      "Ġinga": 2045,
      "rukt": 2046,
      "Ġbas": 2047,
      "Ġtack": 2048,
      "ĠDenna": 2049,
      "ĠbÃ¶rja": 2050,
      "ĠbÃ¶rjan": 2051,
      "Hotell": 2052,
      "ĠTy": 2053,
      "onus": 2054,
      "ret": 2055,
      "Ġund": 2056,
      "ĠRes": 2057,
      "Ġkvalitet": 2058,
      "Ġskrev": 2059,
      "Ġrapp": 2060,
      "ĠlÃ¶s": 2061,
      "co": 2062,
      "Ġveckan": 2063,
      "Ã¤kring": 2064,
      "Ġpolis": 2065,
      "Ġerfaren": 2066,
      "skatt": 2067,
      "Ġibland": 2068,
      "Ġsov": 2069,
      "ĠNike": 2070,
      "jÃ¤rn": 2071,
      "Ġrad": 2072,
      "unda": 2073,
      "ew": 2074,
      "Ġsnart": 2075,
      "Ġgener": 2076,
      "Ġfilm": 2077,
      "ĠtillgÃ¤ng": 2078,
      "Ġwebbplats": 2079,
      "Ġfar": 2080,
      "iden": 2081,
      "uld": 2082,
      "ĠTh": 2083,
      "kur": 2084,
      "Ã©n": 2085,
      "Ġprodukt": 2086,
      "Ġartik": 2087,
      "gre": 2088,
      "ĠBil": 2089,
      "bok": 2090,
      "mÃ¤rk": 2091,
      "Ġtot": 2092,
      "jÃ¶r": 2093,
      "Ġmoder": 2094,
      "plan": 2095,
      "Ġkap": 2096,
      "Ġpop": 2097,
      "ium": 2098,
      "ĠpÃ¥ver": 2099,
      "ĠÃ¤ldre": 2100,
      "bin": 2101,
      "ive": 2102,
      "Ġbrukar": 2103,
      "sett": 2104,
      "Ġblogg": 2105,
      "Ġtem": 2106,
      "Ġvanligt": 2107,
      "ĠTack": 2108,
      "50": 2109,
      "Ġmax": 2110,
      "Ġkopp": 2111,
      "ĠhÃ¤nder": 2112,
      "ĠkrÃ¤v": 2113,
      "Ġmorgon": 2114,
      "ĠbÃ¤st": 2115,
      "ĠgÃ¥ngen": 2116,
      "Ġfokus": 2117,
      "ĠVill": 2118,
      "Ġ2014": 2119,
      "rift": 2120,
      "ĠJohan": 2121,
      "oende": 2122,
      "Ġprodukter": 2123,
      "okrat": 2124,
      "Ġarbetar": 2125,
      "ĠmÃ¥nader": 2126,
      "ublic": 2127,
      "lat": 2128,
      "ĠtillfÃ¤ll": 2129,
      "ĠnÃ¤tet": 2130,
      "ĠlÃ¤gga": 2131,
      "ev": 2132,
      "Ġ199": 2133,
      "Ġpriv": 2134,
      "batt": 2135,
      "Ġ24": 2136,
      "Ã¤nnande": 2137,
      "ora": 2138,
      "Ġheller": 2139,
      "Ġ:)": 2140,
      "Ġens": 2141,
      "Ġskriva": 2142,
      "uff": 2143,
      "yll": 2144,
      "ĠAnder": 2145,
      "AR": 2146,
      "iz": 2147,
      "ðŁ": 2148,
      "ĠgenomfÃ¶r": 2149,
      "ĠUSA": 2150,
      "Ġfanns": 2151,
      "ĠVisa": 2152,
      "Ġarbets": 2153,
      "Ġpassar": 2154,
      "ĠSka": 2155,
      "Ġbred": 2156,
      "Ġmiljoner": 2157,
      "Ġantal": 2158,
      "Ġet": 2159,
      "ĠSedan": 2160,
      "ide": 2161,
      "una": 2162,
      "ansk": 2163,
      "ĠutanfÃ¶r": 2164,
      "Ġegentligen": 2165,
      "ĠtrÃ¤d": 2166,
      "Ġmedan": 2167,
      "Ã¤rer": 2168,
      "Ġsitter": 2169,
      "emang": 2170,
      "Ġco": 2171,
      "Ġskatt": 2172,
      "igh": 2173,
      "Ġrecept": 2174,
      "Ġ%": 2175,
      "Ġreger": 2176,
      "17": 2177,
      "ĠLin": 2178,
      "vara": 2179,
      "ĠMo": 2180,
      "spektiv": 2181,
      "Ġkunder": 2182,
      "Ġtrans": 2183,
      "Ġtopp": 2184,
      "Ġtest": 2185,
      "hopp": 2186,
      "Ġ#": 2187,
      "ĠsÃ¤s": 2188,
      "16": 2189,
      "olv": 2190,
      "uni": 2191,
      "ac": 2192,
      "Ġsem": 2193,
      "iks": 2194,
      "Ġsvensk": 2195,
      "Ġtrev": 2196,
      "Ã¤lla": 2197,
      "Ġgem": 2198,
      "bund": 2199,
      "ĠÃ¶gon": 2200,
      "tar": 2201,
      "Ġlivet": 2202,
      "Ã¤mp": 2203,
      "Ġresa": 2204,
      "so": 2205,
      "ĠMalm": 2206,
      "lut": 2207,
      "ĠmiljÃ¶": 2208,
      "Ġtills": 2209,
      "ĠsÃ¶n": 2210,
      "Ã¶nster": 2211,
      "ĠtÃ¤nka": 2212,
      "Ã¥ga": 2213,
      "tre": 2214,
      "verket": 2215,
      "Ġveta": 2216,
      "ator": 2217,
      "dags": 2218,
      "snitt": 2219,
      "Ġrekommen": 2220,
      "end": 2221,
      "Ġtelefon": 2222,
      "Ġsommar": 2223,
      "Ġnatt": 2224,
      "Ġglad": 2225,
      "lick": 2226,
      "Ġbostad": 2227,
      "Ġfungerar": 2228,
      "18": 2229,
      "ĠlÃ¥n": 2230,
      "Ġframtid": 2231,
      "ES": 2232,
      "Ġ2013": 2233,
      "ĠrÃ¥d": 2234,
      "styr": 2235,
      "ĠaffÃ¤r": 2236,
      "Ġfinans": 2237,
      "ĠInte": 2238,
      "Ġgillar": 2239,
      "Ġytterligare": 2240,
      "Ġtagit": 2241,
      "ran": 2242,
      "ersÃ¤tt": 2243,
      "kost": 2244,
      "Ġ22": 2245,
      "spir": 2246,
      "Ġuppdat": 2247,
      "Ġsju": 2248,
      "ledning": 2249,
      "Ġring": 2250,
      "omen": 2251,
      "atan": 2252,
      "hl": 2253,
      "ĠFa": 2254,
      "aket": 2255,
      "ĠSo": 2256,
      "for": 2257,
      "Ġmarknad": 2258,
      "ilja": 2259,
      "Ġlug": 2260,
      "ĠsÃ¤rskilt": 2261,
      "mt": 2262,
      "Ġposit": 2263,
      "14": 2264,
      "Ġinkl": 2265,
      "Ġkommit": 2266,
      "Ġjan": 2267,
      "ĠNÃ¥g": 2268,
      "Ġapp": 2269,
      "ĠanvÃ¤nds": 2270,
      "Ġskolan": 2271,
      "ĠAllt": 2272,
      "itta": 2273,
      "Ġdating": 2274,
      "dejting": 2275,
      "Ġrestaur": 2276,
      "âĢĵ": 2277,
      "ĠbÃ¥da": 2278,
      "AN": 2279,
      "kort": 2280,
      "Ġinter": 2281,
      "ĠlÃ¥t": 2282,
      "ĠlÃ¤gen": 2283,
      "ocka": 2284,
      "Ġslag": 2285,
      "splats": 2286,
      "igheten": 2287,
      "ĠmÃ¥n": 2288,
      "ry": 2289,
      "Ġsida": 2290,
      "Ã¤ngd": 2291,
      "ital": 2292,
      "Ġgre": 2293,
      "ny": 2294,
      "ĠdÃ¶d": 2295,
      "rip": 2296,
      "ĠutfÃ¶r": 2297,
      "ĠfÃ¶rra": 2298,
      "usk": 2299,
      "Ġsagt": 2300,
      "jta": 2301,
      "ansen": 2302,
      "Ġalls": 2303,
      "Ġbetyg": 2304,
      "Ġfav": 2305,
      "kan": 2306,
      "chen": 2307,
      "ugust": 2308,
      "ĠEl": 2309,
      "terar": 2310,
      "Ġomfatt": 2311,
      "Ġvisa": 2312,
      "Ġvux": 2313,
      "Ã¤cker": 2314,
      "Ġvarandra": 2315,
      "Ġkultur": 2316,
      "Ġdesig": 2317,
      "Ġskill": 2318,
      "oss": 2319,
      "Ġ40": 2320,
      "Ġdec": 2321,
      "till": 2322,
      "spr": 2323,
      "ĠkÃ¤nna": 2324,
      "ĠmÃ¥nad": 2325,
      "Ġbakom": 2326,
      "kÃ¶ping": 2327,
      "ban": 2328,
      "delar": 2329,
      "Ġcir": 2330,
      "Ġavslut": 2331,
      "ĠsÃ¤kerhet": 2332,
      "ĠmÃ¶r": 2333,
      "ĠtrÃ¤ning": 2334,
      "Ġuppgifter": 2335,
      "Ġam": 2336,
      "Ġroll": 2337,
      "ĠslÃ¤pp": 2338,
      "Ġlin": 2339,
      "ĠfÃ¶rbÃ¤tt": 2340,
      "Ã¤lt": 2341,
      "dar": 2342,
      "rÃ¥det": 2343,
      "Ġbi": 2344,
      "Ġkund": 2345,
      "Ġpopul": 2346,
      "Ġ2012": 2347,
      "Ã¶sa": 2348,
      "Ġmil": 2349,
      "Ġeffektiv": 2350,
      "Ġigenom": 2351,
      "stol": 2352,
      "ĠAd": 2353,
      "ĠallmÃ¤n": 2354,
      "ovis": 2355,
      "vs": 2356,
      "arnas": 2357,
      "ĠVÃ¤l": 2358,
      "Ġx": 2359,
      "nt": 2360,
      "ĠDan": 2361,
      "ĠsÃ¤kert": 2362,
      "och": 2363,
      "Ġspelar": 2364,
      "ĠSE": 2365,
      "Ġkrav": 2366,
      "part": 2367,
      "ifier": 2368,
      "olit": 2369,
      "Ġungdom": 2370,
      "Ġenergi": 2371,
      "Ġskap": 2372,
      "lands": 2373,
      "sla": 2374,
      "ĠKarl": 2375,
      "Ġelever": 2376,
      "skott": 2377,
      "kla": 2378,
      "Ġskog": 2379,
      "lex": 2380,
      "ĠhÃ¤st": 2381,
      "Ġdags": 2382,
      "Ã¤rt": 2383,
      "book": 2384,
      "ĠtÃ¤nker": 2385,
      "kn": 2386,
      "vid": 2387,
      "Ġveckor": 2388,
      "ĠSvenska": 2389,
      "samma": 2390,
      "ĠvÃ¤gen": 2391,
      "uden": 2392,
      "ĠlÃ¤nder": 2393,
      "ĠfÃ¶d": 2394,
      "Ġmaterial": 2395,
      "vÃ¤rr": 2396,
      "Ġlad": 2397,
      "Ġkommentar": 2398,
      "ĠfÃ¶rklar": 2399,
      "Ġregistr": 2400,
      "Ġutbildning": 2401,
      "mal": 2402,
      "Ġz": 2403,
      "ton": 2404,
      "Ġprakt": 2405,
      "ĠSh": 2406,
      "ĠsÃ¤tta": 2407,
      "po": 2408,
      "len": 2409,
      "Ġskydd": 2410,
      "ĠÃ¥ka": 2411,
      "sc": 2412,
      "ringar": 2413,
      "stÃ¤lla": 2414,
      "pper": 2415,
      "atta": 2416,
      "Ġlilla": 2417,
      "Ġ21": 2418,
      "ĠinnehÃ¥ller": 2419,
      "delse": 2420,
      "ĠsÃ¶k": 2421,
      "Ġnorm": 2422,
      "ĠtillgÃ¥ng": 2423,
      "arm": 2424,
      "produ": 2425,
      "ĠGu": 2426,
      "Ġmid": 2427,
      "Ġtred": 2428,
      "ĠâĢľ": 2429,
      "af": 2430,
      "ĠingÃ¥r": 2431,
      "Ġanal": 2432,
      "syk": 2433,
      "ĠDessutom": 2434,
      "ĠhÃ¶gre": 2435,
      "Ġpres": 2436,
      "Ġbonus": 2437,
      "ĠTro": 2438,
      "Ġvit": 2439,
      "Ġpersonal": 2440,
      "uari": 2441,
      "ĠHotel": 2442,
      "Ġluft": 2443,
      "ension": 2444,
      "ĠTa": 2445,
      "ckt": 2446,
      "Ã¤gen": 2447,
      "ĠðŁ": 2448,
      "sidan": 2449,
      "inal": 2450,
      "stan": 2451,
      "ph": 2452,
      "ach": 2453,
      "vÃ¤l": 2454,
      "Ġdjur": 2455,
      "Ġ90": 2456,
      "ĠÃ¥rs": 2457,
      "Ġsnygg": 2458,
      "ĠfÃ¶rstÃ¥": 2459,
      "iversitet": 2460,
      "ativa": 2461,
      "Ġmusik": 2462,
      "Ġ2018": 2463,
      "ĠnÃ¤m": 2464,
      "rafik": 2465,
      "ĠHa": 2466,
      "ĠEnligt": 2467,
      "Ġbal": 2468,
      "Ġrecens": 2469,
      "Ġben": 2470,
      "elska": 2471,
      "sÃ¤ttningar": 2472,
      "Ġdriv": 2473,
      "rust": 2474,
      "ille": 2475,
      "Ġutom": 2476,
      "Ġprat": 2477,
      "Ġuppdrag": 2478,
      "ey": 2479,
      "ĠGenom": 2480,
      "fÃ¶rande": 2481,
      "emot": 2482,
      "Ġrep": 2483,
      "Ġsitu": 2484,
      "ĠSte": 2485,
      "__": 2486,
      "ko": 2487,
      "Ã¶cker": 2488,
      "handling": 2489,
      "ĠX": 2490,
      "ĠrÃ¥": 2491,
      "ĠÃ¥ren": 2492,
      "Ã¤cka": 2493,
      "ationella": 2494,
      "Ġeffekt": 2495,
      "ĠifrÃ¥n": 2496,
      "ET": 2497,
      "ĠlÃ¶r": 2498,
      "Ġ23": 2499,
      "ernas": 2500,
      "ure": 2501,
      "Ġlandet": 2502,
      "âĢĿ.": 2503,
      "Ã¶rj": 2504,
      "ugusti": 2505,
      "ĠSm": 2506,
      "Ġag": 2507,
      "ĠÃ¤ta": 2508,
      "ĠvÃ¤rde": 2509,
      "ern": 2510,
      "ĠMat": 2511,
      "ĠkÃ¶k": 2512,
      "Ġmenar": 2513,
      "Ġpresen": 2514,
      ".\"": 2515,
      "bel": 2516,
      "Ġskor": 2517,
      "ĠersÃ¤tt": 2518,
      "Ġotro": 2519,
      "Ġroligt": 2520,
      "ĠÃ¥tgÃ¤r": 2521,
      "Ã¶ter": 2522,
      "Ġgoda": 2523,
      "use": 2524,
      "Ġbud": 2525,
      "ober": 2526,
      "ash": 2527,
      "Ġpark": 2528,
      "Ġinspir": 2529,
      "ĠinnehÃ¥ll": 2530,
      "Ġarbeta": 2531,
      "ĠMalmÃ¶": 2532,
      "Ġunga": 2533,
      "spekt": 2534,
      "yra": 2535,
      "ich": 2536,
      "ue": 2537,
      "13": 2538,
      "Ã¶ll": 2539,
      "Ġspelare": 2540,
      "Ġsats": 2541,
      "Ġjuni": 2542,
      "ĠhÃ¤ng": 2543,
      "Ġtredje": 2544,
      "Ġkred": 2545,
      "Ġfri": 2546,
      "Ġtrygg": 2547,
      "Ġinst": 2548,
      "ĠMer": 2549,
      "dra": 2550,
      "Ġej": 2551,
      "ĠberÃ¤ttar": 2552,
      "avsett": 2553,
      "ĠfÃ¶rsÃ¶ka": 2554,
      "Ã¶va": 2555,
      "Ġmars": 2556,
      "ĠlÃ¤ra": 2557,
      "Ã¶da": 2558,
      "Ġsteg": 2559,
      "lÃ¶s": 2560,
      "ĠvÃ¤ljer": 2561,
      "efter": 2562,
      "ppa": 2563,
      "utveck": 2564,
      "Ġgym": 2565,
      "Ġnov": 2566,
      "Ġmm": 2567,
      "stÃ¤nd": 2568,
      "Ġmamma": 2569,
      "Ġfint": 2570,
      "ĠFot": 2571,
      "rÃ¥d": 2572,
      "vÃ¤rd": 2573,
      "ktyg": 2574,
      "Ġjanuari": 2575,
      "Ġpri": 2576,
      "Ġkunskap": 2577,
      "Ġuppf": 2578,
      "ĠpoÃ¤ng": 2579,
      "sidor": 2580,
      "back": 2581,
      "Ġindiv": 2582,
      "ĠMÃ¥nga": 2583,
      "Ġtan": 2584,
      "Ġban": 2585,
      "skolan": 2586,
      "Ã¤ver": 2587,
      "vin": 2588,
      "Ġmedel": 2589,
      "Ġvide": 2590,
      "Ġbetala": 2591,
      "ĠvÃ¤nner": 2592,
      "Ġfisk": 2593,
      "ykel": 2594,
      "ĠfÃ¶ljande": 2595,
      "jen": 2596,
      "dem": 2597,
      "ĠBra": 2598,
      "ĠfrÃ¥gan": 2599,
      "Ġevent": 2600,
      "ĠArbet": 2601,
      "ĠomrÃ¥det": 2602,
      "Ġsym": 2603,
      "ĠanstÃ¤ll": 2604,
      "ĠsÃ¤l": 2605,
      "Ġsjukdom": 2606,
      "mi": 2607,
      "vÃ¤xt": 2608,
      "tjÃ¤n": 2609,
      "itter": 2610,
      "Ġbarnen": 2611,
      "Ġtank": 2612,
      "Ġokt": 2613,
      "grund": 2614,
      "itut": 2615,
      "orit": 2616,
      "Ġaugusti": 2617,
      "efÃ¤r": 2618,
      "Ġdetal": 2619,
      "Ġgemens": 2620,
      "rÃ¤ck": 2621,
      "ikation": 2622,
      "uppgifter": 2623,
      "ĠTV": 2624,
      "utt": 2625,
      "Ġsker": 2626,
      "otten": 2627,
      "Ġkropp": 2628,
      "ate": 2629,
      "ĠigÃ¥ng": 2630,
      "Ġbesk": 2631,
      "ferens": 2632,
      "ĠspÃ¤nnande": 2633,
      "stid": 2634,
      "Ġsmak": 2635,
      "In": 2636,
      "Ġblod": 2637,
      "jÃ¶l": 2638,
      "Ġsc": 2639,
      "Ã¶ts": 2640,
      "ĠskÃ¤r": 2641,
      "ĠSw": 2642,
      "ĠanmÃ¤l": 2643,
      "ĠSer": 2644,
      "ĠKl": 2645,
      "ĠVÃ¤r": 2646,
      "jter": 2647,
      "nam": 2648,
      "Ġla": 2649,
      "ĠFrÃ¥n": 2650,
      "Ġliknande": 2651,
      "fÃ¶retag": 2652,
      "Ġaktivitet": 2653,
      "Ġapr": 2654,
      "icin": 2655,
      "aler": 2656,
      "Ġfredag": 2657,
      "Ġdit": 2658,
      "Ġac": 2659,
      "ĠReg": 2660,
      "Ġklubb": 2661,
      "Ġjobba": 2662,
      "Ġkroppen": 2663,
      "Ġbehandling": 2664,
      "Ġsamband": 2665,
      "Ġdejta": 2666,
      "Ġplac": 2667,
      "ĠKÃ¶p": 2668,
      "ongen": 2669,
      "Ġang": 2670,
      "san": 2671,
      "ĠNord": 2672,
      "Ġsep": 2673,
      "Ġfeb": 2674,
      "Ġjord": 2675,
      "cebook": 2676,
      "eder": 2677,
      "Ġlyck": 2678,
      "sav": 2679,
      "Ġkvinna": 2680,
      "Ġknapp": 2681,
      "ĠStor": 2682,
      "pan": 2683,
      "ĠCo": 2684,
      "Ġstra": 2685,
      "ST": 2686,
      "Ġvem": 2687,
      "Ġutl": 2688,
      "ĠfÃ¶rhÃ¥ll": 2689,
      "bord": 2690,
      "olf": 2691,
      "Ġteck": 2692,
      "Ġcasino": 2693,
      "--": 2694,
      "Ġeget": 2695,
      "Ã¤ft": 2696,
      "Ġ2011": 2697,
      "Ġutman": 2698,
      "//": 2699,
      "aga": 2700,
      "grÃ¤ns": 2701,
      "ĠOl": 2702,
      "Ġtra": 2703,
      "Ġmon": 2704,
      "alog": 2705,
      "ish": 2706,
      "ĠÃ¥lder": 2707,
      "tember": 2708,
      "ĠbedÃ¶m": 2709,
      "Ġminska": 2710,
      "ĠsÃ¤ll": 2711,
      "Ġcm": 2712,
      "Ġ*": 2713,
      "endet": 2714,
      "Ġstil": 2715,
      "Ġbeskriv": 2716,
      "Ġlyss": 2717,
      "komst": 2718,
      "Ġuppt": 2719,
      "ĠDel": 2720,
      "ĠDessa": 2721,
      "Ġbeg": 2722,
      "Ġjobbet": 2723,
      "Ġok": 2724,
      "Ġham": 2725,
      "utbild": 2726,
      "sel": 2727,
      "ĠSu": 2728,
      "Ġerfarenhet": 2729,
      "Ġlog": 2730,
      "ĠsvÃ¥r": 2731,
      "Ġmassa": 2732,
      "Ġkombin": 2733,
      "Ġskad": 2734,
      "Ġkam": 2735,
      "ĠNej": 2736,
      "Ġinvester": 2737,
      "ĠDag": 2738,
      "Ġ60": 2739,
      "St": 2740,
      "ukt": 2741,
      "Ġjobbar": 2742,
      "ĠÃ¤lskar": 2743,
      "fess": 2744,
      "Ġgra": 2745,
      "Ġbygga": 2746,
      "Ġme": 2747,
      "Ġklock": 2748,
      "Ġnedan": 2749,
      "Ġliksom": 2750,
      "skor": 2751,
      "enden": 2752,
      "ĠfÃ¶lja": 2753,
      "Ġmisst": 2754,
      "ĠKv": 2755,
      "splan": 2756,
      "ĠLa": 2757,
      "Ġbrott": 2758,
      "stÃ¥r": 2759,
      "ruktur": 2760,
      "ĠanvÃ¤ndas": 2761,
      "but": 2762,
      "ism": 2763,
      "iella": 2764,
      "Ġth": 2765,
      "ligtvis": 2766,
      "ĠnÃ¤tdejting": 2767,
      "uellt": 2768,
      "ubl": 2769,
      "mm": 2770,
      "ĠigÃ¥r": 2771,
      "ĠÃħr": 2772,
      "Ġhotellet": 2773,
      "mÃ¤rkt": 2774,
      "ĠTv": 2775,
      "Ġ+": 2776,
      "Ġmynd": 2777,
      "Ġpsyk": 2778,
      "ĠfÃ¶rsÃ¶ker": 2779,
      "Ġlokal": 2780,
      "ĠfortsÃ¤tta": 2781,
      "Det": 2782,
      "pÃ¥": 2783,
      "ĠQ": 2784,
      "ĠnÃ¶d": 2785,
      "solut": 2786,
      "okument": 2787,
      "ĠFor": 2788,
      "ĠsÃ¥d": 2789,
      "iel": 2790,
      "Ġheter": 2791,
      "Ġgav": 2792,
      "ativt": 2793,
      "Ġprov": 2794,
      "rog": 2795,
      "Ġfatt": 2796,
      "Ġinf": 2797,
      "Ġ2010": 2798,
      "Ġslutet": 2799,
      "Ġskick": 2800,
      "ink": 2801,
      "ĠstÃ¤m": 2802,
      "ffe": 2803,
      "Ġfre": 2804,
      "Ġsvart": 2805,
      "ĠfortsÃ¤tter": 2806,
      "ĠbÃ¤r": 2807,
      "Ġkredit": 2808,
      "ĠbehÃ¶vs": 2809,
      "Ġfyll": 2810,
      "Ġpress": 2811,
      "ykt": 2812,
      "Ġbetyder": 2813,
      "Ġpost": 2814,
      "ĠkrÃ¤vs": 2815,
      "Ġmor": 2816,
      "ĠnÃ¤rheten": 2817,
      "uell": 2818,
      "Ġutred": 2819,
      "Ġtom": 2820,
      "Ġdju": 2821,
      "ĠnivÃ¥": 2822,
      "merik": 2823,
      "ĠlÃ¤st": 2824,
      "Ã¶na": 2825,
      "licka": 2826,
      "://": 2827,
      "ĠÃ¶k": 2828,
      "press": 2829,
      "Ġservice": 2830,
      "pet": 2831,
      "Ġgodk": 2832,
      "ĠtjÃ¤nster": 2833,
      "OR": 2834,
      "Ġstol": 2835,
      "Ġvanlig": 2836,
      "ĠfÃ¶rsv": 2837,
      "Ġdo": 2838,
      "ĠvÃ¤": 2839,
      "Ġpublic": 2840,
      "ĠstÃ¥": 2841,
      "pris": 2842,
      "lare": 2843,
      "ĠEller": 2844,
      "Ã¥k": 2845,
      "Ġfi": 2846,
      "skr": 2847,
      "ON": 2848,
      "ĠtrÃ¶tt": 2849,
      "ĠlÃ¤mna": 2850,
      "person": 2851,
      "ycka": 2852,
      "ĠGo": 2853,
      "ĠFast": 2854,
      "22": 2855,
      "Ã¶kt": 2856,
      "Ġarbetet": 2857,
      "ĠlÃ¥ter": 2858,
      "Ġkrit": 2859,
      "AT": 2860,
      "Ġsuper": 2861,
      "erande": 2862,
      "Ġallvar": 2863,
      "Ġmiss": 2864,
      "ĠfÃ¤rd": 2865,
      "ĠkÃ¤nsl": 2866,
      "ING": 2867,
      "oms": 2868,
      "Ġmeter": 2869,
      "llen": 2870,
      "ĠblÃ¥": 2871,
      "Ġvilja": 2872,
      "natt": 2873,
      "ĠdÃ¶r": 2874,
      "Ġapril": 2875,
      "Ġengelska": 2876,
      "anter": 2877,
      "ĠVÃ¥r": 2878,
      "ĠLund": 2879,
      "unch": 2880,
      "blad": 2881,
      "Ġfortsatt": 2882,
      "Ġanpass": 2883,
      "Ġske": 2884,
      "Ġ=": 2885,
      "ruari": 2886,
      "ĠmaskinÃ¶ver": 2887,
      "CK": 2888,
      "LL": 2889,
      "Ġdejtingsajt": 2890,
      "Ġoktober": 2891,
      "ĠidÃ©": 2892,
      "huset": 2893,
      "ĠFil": 2894,
      "Ġ28": 2895,
      "Ġis": 2896,
      "Ġhot": 2897,
      "ĠtillhÃ¶r": 2898,
      "Ġva": 2899,
      "Ġstark": 2900,
      "Ġprivat": 2901,
      "otter": 2902,
      "Ġ26": 2903,
      "ĠDÃ¤rfÃ¶r": 2904,
      "ca": 2905,
      "ĠLu": 2906,
      "Ġdubb": 2907,
      "Ġkol": 2908,
      "ĠKar": 2909,
      "01": 2910,
      "ugg": 2911,
      "Ġseptember": 2912,
      "otek": 2913,
      "ĠEuropa": 2914,
      "ĠSa": 2915,
      "Ġfinnas": 2916,
      "bro": 2917,
      "ĠPol": 2918,
      "Ġdam": 2919,
      "Ġtio": 2920,
      "ĠungefÃ¤r": 2921,
      "ions": 2922,
      "ĠHem": 2923,
      "Ġglas": 2924,
      "Ġprocess": 2925,
      "Ġat": 2926,
      "Ġlek": 2927,
      "Ġkonkur": 2928,
      "Ġdeltag": 2929,
      "Ã¥ld": 2930,
      "ald": 2931,
      "hem": 2932,
      "Ġ27": 2933,
      "ho": 2934,
      "Ġresen": 2935,
      "ĠâĢ¢": 2936,
      "ĠdÃ¤rmed": 2937,
      "delning": 2938,
      "dde": 2939,
      "Ġbit": 2940,
      "allt": 2941,
      "verkan": 2942,
      "Ġmar": 2943,
      "Ġvatt": 2944,
      "Ġtrad": 2945,
      "ige": 2946,
      "ĠPar": 2947,
      "vik": 2948,
      "ĠFort": 2949,
      "Ġstund": 2950,
      "umÃ¤r": 2951,
      "inci": 2952,
      "ategor": 2953,
      "rym": 2954,
      "enten": 2955,
      "ĠdrÃ¶m": 2956,
      "Ġensam": 2957,
      "ĠfÃ¶rvÃ¤nt": 2958,
      "Ġoro": 2959,
      "ĠÃ¤mn": 2960,
      "Ġsemester": 2961,
      "Ġkyrk": 2962,
      "Ã¶ja": 2963,
      "ĠEm": 2964,
      "Ġcirka": 2965,
      "Ġsomm": 2966,
      "ĠJan": 2967,
      "45": 2968,
      "ĠsÃ¤ng": 2969,
      "anta": 2970,
      "Ġ;": 2971,
      "ĠklÃ¤der": 2972,
      "Ã¤get": 2973,
      "ĠÃĸster": 2974,
      "Ġsli": 2975,
      "Ġsamarbet": 2976,
      "Ġkompl": 2977,
      "fte": 2978,
      "ĠNorr": 2979,
      "Ġexempelvis": 2980,
      "eringen": 2981,
      "ĠvÃ¤gg": 2982,
      "Ġstod": 2983,
      "ĠBill": 2984,
      "yp": 2985,
      "ĠKom": 2986,
      "ĠÂ§": 2987,
      "Ġfys": 2988,
      "program": 2989,
      "ĠtvÃ¤tt": 2990,
      "40": 2991,
      "Ġhemsida": 2992,
      "Ġinternet": 2993,
      "ĠstÃ¤ng": 2994,
      "Ġmag": 2995,
      "gÃ¥rden": 2996,
      "ĠfÃ¶retaget": 2997,
      "ĠNew": 2998,
      "Ġabsolut": 2999,
      "IS": 3000,
      "Ġbank": 3001,
      "Ġfavorit": 3002,
      "ĠJon": 3003,
      "ations": 3004,
      "ĠkÃ¶ra": 3005,
      "Ġboken": 3006,
      "Ġbilden": 3007,
      "ly": 3008,
      "rÃ¶r": 3009,
      "deles": 3010,
      "ĠKanske": 3011,
      "Ġdelen": 3012,
      "ake": 3013,
      "skydd": 3014,
      "Ġoffent": 3015,
      "ĠbestÃ¥r": 3016,
      "erades": 3017,
      "ĠÃĸver": 3018,
      "stri": 3019,
      "Ãĥ": 3020,
      "Ġsocial": 3021,
      "bjud": 3022,
      "iljÃ¶": 3023,
      "Ġtext": 3024,
      "bur": 3025,
      "Ġbilen": 3026,
      "Ġmots": 3027,
      "Ġuniversitet": 3028,
      "Ġfebruari": 3029,
      "ĠÃ¶ka": 3030,
      "verige": 3031,
      "uk": 3032,
      "ĠhjÃ¤rt": 3033,
      "ĠfÃ¶rsÃ¤lj": 3034,
      "onen": 3035,
      "Ġoftast": 3036,
      "ĠMot": 3037,
      "Ġfix": 3038,
      "Jag": 3039,
      "ĠIntern": 3040,
      "Ġviss": 3041,
      "25": 3042,
      "jor": 3043,
      "ĠHej": 3044,
      "ĠtÃ¤nkte": 3045,
      "ĠsÃ¥som": 3046,
      "ona": 3047,
      "Ġhud": 3048,
      "Ġsenast": 3049,
      "Ġberoende": 3050,
      "Ġtyckte": 3051,
      "ĠÃ¶vriga": 3052,
      "Ġspeciellt": 3053,
      "ĠgÃ¤ster": 3054,
      "Ġdrabb": 3055,
      "stÃ¥ende": 3056,
      "ryck": 3057,
      "teck": 3058,
      "Ġkommunen": 3059,
      "ĠGud": 3060,
      "fritt": 3061,
      "Ġair": 3062,
      "ĠSch": 3063,
      "isa": 3064,
      "Ġbetyd": 3065,
      "ĠnÃ¥": 3066,
      "mo": 3067,
      "Ġfotboll": 3068,
      "Ã¶ren": 3069,
      "ĠfÃ¶rstÃ¥r": 3070,
      "gÃ¥": 3071,
      "estÃ¤ll": 3072,
      "Ġvackra": 3073,
      "Ġ2019": 3074,
      "Ġsamarbete": 3075,
      "Ġsport": 3076,
      "21": 3077,
      "Ġter": 3078,
      "Ġljud": 3079,
      "ump": 3080,
      "ĠVer": 3081,
      "ĠsÃ¥dana": 3082,
      "Ġvanliga": 3083,
      "ĠEng": 3084,
      "skola": 3085,
      "emedel": 3086,
      "eckning": 3087,
      "Ġdecember": 3088,
      "Ġhim": 3089,
      "Ġlev": 3090,
      "Ġspar": 3091,
      "smedel": 3092,
      "Ġkostnad": 3093,
      "ĠVarfÃ¶r": 3094,
      "ĠlÃ¶p": 3095,
      "alla": 3096,
      "Ġavl": 3097,
      "ward": 3098,
      "ĠPre": 3099,
      "ĠhÃ¤ls": 3100,
      "her": 3101,
      "Ġboende": 3102,
      "iera": 3103,
      "ĠfÃ¶ljer": 3104,
      "Ġinsta": 3105,
      "Ġgrav": 3106,
      "ĠÃ¶ppna": 3107,
      "ĠstÃ¤llet": 3108,
      "ĠPris": 3109,
      "ĠEr": 3110,
      "Ġenskil": 3111,
      "Ġjuli": 3112,
      "ekomm": 3113,
      "Ġintressant": 3114,
      "Ġ29": 3115,
      "Ġgran": 3116,
      "Ġtitta": 3117,
      "Ġrygg": 3118,
      "Ġkolla": 3119,
      "ktioner": 3120,
      "ĠskÃ¶nt": 3121,
      "let": 3122,
      "ĠErik": 3123,
      "Ġorsak": 3124,
      "ĠTid": 3125,
      "ager": 3126,
      "lack": 3127,
      "ĠgÃ¤ll": 3128,
      "ligheten": 3129,
      "Ġanser": 3130,
      "kring": 3131,
      "60": 3132,
      "terade": 3133,
      "Ġdagens": 3134,
      "ĠAkt": 3135,
      "Ġregel": 3136,
      "Ġyrk": 3137,
      "vist": 3138,
      "Ã¶kte": 3139,
      "isen": 3140,
      "ĠNi": 3141,
      "bruk": 3142,
      "Ġstopp": 3143,
      "Ġgu": 3144,
      "ĠhÃ¶st": 3145,
      "Ġnovember": 3146,
      "ĠavgÃ¶r": 3147,
      "ĠtillrÃ¤ck": 3148,
      "lever": 3149,
      "serv": 3150,
      "ĠnÃ¤mn": 3151,
      "betal": 3152,
      "ĠsprÃ¥k": 3153,
      "oo": 3154,
      "ĠAnna": 3155,
      "Ġotroligt": 3156,
      "klag": 3157,
      "Ġhelgen": 3158,
      "Ġamerik": 3159,
      "sg": 3160,
      "Ġsta": 3161,
      "kvÃ¤ll": 3162,
      "Ġdefin": 3163,
      "ĠÃ¥kte": 3164,
      "ĠnÃ¤mligen": 3165,
      "ĠCar": 3166,
      "Ġdist": 3167,
      "Ġskicka": 3168,
      "ĠNor": 3169,
      "gren": 3170,
      "ĠHotell": 3171,
      "ĠfÃ¶res": 3172,
      "Ġtor": 3173,
      "Ġvisade": 3174,
      "ander": 3175,
      "utomat": 3176,
      "Ġnike": 3177,
      "ĠlÃ¶n": 3178,
      "teras": 3179,
      "??": 3180,
      "over": 3181,
      "ĠEftersom": 3182,
      "Ġchef": 3183,
      "Om": 3184,
      "ogg": 3185,
      "Ġalldeles": 3186,
      "ĠomrÃ¥den": 3187,
      "cke": 3188,
      "ĠJust": 3189,
      "ĠSol": 3190,
      "Ġintresse": 3191,
      "ĠÃĦn": 3192,
      "ĠkrÃ¤ver": 3193,
      "ĠlÃ¤gger": 3194,
      "ĠundersÃ¶k": 3195,
      "Ġutveckla": 3196,
      "ĠframgÃ¥ng": 3197,
      "rateg": 3198,
      "seende": 3199,
      "lÃ¤ggning": 3200,
      "ĠTe": 3201,
      "ĠbehÃ¶va": 3202,
      "Ġdesign": 3203,
      "ĠtjÃ¤nst": 3204,
      "Ġkal": 3205,
      "Ġforskning": 3206,
      "ĠvarumÃ¤r": 3207,
      "ĠrÃ¤dd": 3208,
      "Ġsommaren": 3209,
      "ygger": 3210,
      "Ġannars": 3211,
      "ĠJu": 3212,
      "Ġeuro": 3213,
      "ox": 3214,
      "ĠvÃ¤rldens": 3215,
      "Ġsing": 3216,
      "Ġskapar": 3217,
      "ĠStr": 3218,
      "dagar": 3219,
      "Ġsociala": 3220,
      "Ġ198": 3221,
      "Ġmeddel": 3222,
      "Ġgammal": 3223,
      "ĠstjÃ¤rn": 3224,
      "ĠmÃ¶te": 3225,
      "ĠSn": 3226,
      "70": 3227,
      "demokrat": 3228,
      "grupp": 3229,
      "ĠfrÃ¤mst": 3230,
      "ĠJoh": 3231,
      "mÃ¥l": 3232,
      "Ġberor": 3233,
      "ias": 3234,
      "Ġek": 3235,
      "skan": 3236,
      "ĠÂ»": 3237,
      "Ġavtal": 3238,
      "ĠmÃ¶jligheter": 3239,
      "ila": 3240,
      "Ġkamp": 3241,
      "jan": 3242,
      "ĠnÃ¶dvÃ¤nd": 3243,
      "Ġton": 3244,
      "Ġkompet": 3245,
      "Ġboka": 3246,
      "ĠHÃ¶g": 3247,
      "ĠÃ¶kar": 3248,
      "Ġvak": 3249,
      "sala": 3250,
      "ĠKrist": 3251,
      "Ġkval": 3252,
      "fa": 3253,
      "Ġkontakta": 3254,
      "Ġsch": 3255,
      "200": 3256,
      "ric": 3257,
      "ĠsÃ¤lj": 3258,
      "ĠSjÃ¤lv": 3259,
      "ĠkÃ¤rlek": 3260,
      "tor": 3261,
      "Ġhtt": 3262,
      "samt": 3263,
      "etar": 3264,
      "ligheter": 3265,
      "Ġengag": 3266,
      "Ġram": 3267,
      "chef": 3268,
      "post": 3269,
      "verksamhet": 3270,
      "jÃ¶n": 3271,
      "Ġsamtal": 3272,
      "Ġinsats": 3273,
      "ĠMark": 3274,
      "ottag": 3275,
      "ĠansÃ¶k": 3276,
      "Ġ)": 3277,
      "Ġmys": 3278,
      "ĠÃ¶r": 3279,
      "DR": 3280,
      "ĠkvÃ¤llen": 3281,
      "out": 3282,
      "ĠfÃ¶rdel": 3283,
      "ĠsÃ¥n": 3284,
      "nytt": 3285,
      "Ġhuset": 3286,
      "juta": 3287,
      "Ġfamiljen": 3288,
      "Ġlan": 3289,
      "ham": 3290,
      "ekv": 3291,
      "ften": 3292,
      "ĠbegrÃ¤ns": 3293,
      "Ġleder": 3294,
      "Ġklimat": 3295,
      "ĠGÃ¶r": 3296,
      "Ġoper": 3297,
      "ĠlÃ¥ta": 3298,
      "oj": 3299,
      "ĠuppmÃ¤rk": 3300,
      "ĠKommun": 3301,
      "ĠsÃ¥vÃ¤l": 3302,
      "ĠDi": 3303,
      "Ġklockan": 3304,
      "ĠfÃ¶rfatt": 3305,
      "ĠmÃ¶t": 3306,
      "za": 3307,
      "Ġbekv": 3308,
      "orl": 3309,
      "unnit": 3310,
      "Ġfest": 3311,
      "ĠSEK": 3312,
      "TM": 3313,
      "Ġinterv": 3314,
      "ologi": 3315,
      "Ġkart": 3316,
      "Ġoavsett": 3317,
      "ĠPa": 3318,
      "ĠVÃ¤st": 3319,
      "pon": 3320,
      "Hot": 3321,
      "Ġviktiga": 3322,
      "ood": 3323,
      "Ġblomm": 3324,
      "still": 3325,
      "Ġvare": 3326,
      "Ġstaden": 3327,
      "ĠSy": 3328,
      "ningss": 3329,
      "punkt": 3330,
      "ĠAnders": 3331,
      "ĠfÃ¶rÃ¤ldrar": 3332,
      "Ġbuss": 3333,
      "allen": 3334,
      "ĠHitta": 3335,
      "Ġklara": 3336,
      "ĠFacebook": 3337,
      "Ġstand": 3338,
      "iens": 3339,
      "Ġhistoria": 3340,
      "Ġverksamheten": 3341,
      "Ġsort": 3342,
      "ierna": 3343,
      "Ġprata": 3344,
      "Ġfrukost": 3345,
      "ĠLind": 3346,
      "Ġfullt": 3347,
      "skon": 3348,
      "Ġsh": 3349,
      "ĠvÃ¥ld": 3350,
      "ec": 3351,
      "rÃ¥de": 3352,
      "ĠhÃ¶gt": 3353,
      "Ġtas": 3354,
      "ĠAnn": 3355,
      "yld": 3356,
      "ĠglÃ¶m": 3357,
      "ĠfÃ¶rr": 3358,
      "Ġ80": 3359,
      "checkning": 3360,
      "peratur": 3361,
      "Ġsten": 3362,
      "bundet": 3363,
      "Ġinfl": 3364,
      "ibli": 3365,
      "ĠhÃ¤lsa": 3366,
      "ight": 3367,
      "ĠspÃ¥r": 3368,
      "'s": 3369,
      "ĠâĢĶ": 3370,
      "Ġanslut": 3371,
      "ĠhÃ¶ga": 3372,
      "Ġ2009": 3373,
      "givare": 3374,
      "Ġchans": 3375,
      "mid": 3376,
      "Ġrapporter": 3377,
      "Ġhelg": 3378,
      "Ġmedlemmar": 3379,
      "ĠutifrÃ¥n": 3380,
      "Ġtittade": 3381,
      "ĠBarn": 3382,
      "Ġopt": 3383,
      "ĠSÃ¶der": 3384,
      "Ġpot": 3385,
      "Ġtjejer": 3386,
      "likt": 3387,
      "fta": 3388,
      "ĠvÃ¥g": 3389,
      "ement": 3390,
      "ve": 3391,
      "ĠVÃ¤ster": 3392,
      "ffa": 3393,
      "Ġskillnad": 3394,
      "24": 3395,
      "ĠivÃ¤g": 3396,
      "urs": 3397,
      "Ġvart": 3398,
      "usive": 3399,
      "Ġod": 3400,
      "stans": 3401,
      "ĠhÃ¶ra": 3402,
      "ĠvÃ¤nster": 3403,
      "anda": 3404,
      "ica": 3405,
      "Ġverktyg": 3406,
      "Ġkri": 3407,
      "Ġfastighet": 3408,
      "Ġlov": 3409,
      "gÃ¥ende": 3410,
      "Ġkallas": 3411,
      "umm": 3412,
      "cial": 3413,
      "ĠBerg": 3414,
      "itid": 3415,
      "Ġsitta": 3416,
      "Ġdator": 3417,
      "Ġteknik": 3418,
      "iti": 3419,
      "orge": 3420,
      "ĠtÃ¤nkt": 3421,
      "alet": 3422,
      "Ġins": 3423,
      ".)": 3424,
      "ĠbÃ¶cker": 3425,
      "Ġuppskatt": 3426,
      "anger": 3427,
      "ĠlÃ¥nga": 3428,
      "nummer": 3429,
      "Ġtotalt": 3430,
      "Ġleva": 3431,
      "ĠÃ¥rets": 3432,
      "ĠsÃ¥dant": 3433,
      "Ġprofess": 3434,
      "ĠstÃ¤lla": 3435,
      "ĠfjÃ¤r": 3436,
      "Ġkontroller": 3437,
      "ĠordfÃ¶rande": 3438,
      "ED": 3439,
      "iat": 3440,
      "Ġarbetsm": 3441,
      "Ġframtiden": 3442,
      "ĠAnvÃ¤nd": 3443,
      "Ġtradition": 3444,
      "Ã¥de": 3445,
      "Ġdy": 3446,
      "ĠBjÃ¶r": 3447,
      "ĠStockholms": 3448,
      "Ġansikt": 3449,
      "ĠAm": 3450,
      "dustri": 3451,
      "rÃ¥den": 3452,
      "tes": 3453,
      "Ġ70": 3454,
      "Ġomkring": 3455,
      "Ġtillver": 3456,
      "Ġmatchen": 3457,
      "ĠÃ¥ker": 3458,
      "ocker": 3459,
      "ĠtrÃ¤ffa": 3460,
      "orten": 3461,
      "Ġdejtingsajter": 3462,
      "lor": 3463,
      "edd": 3464,
      "Ã¤rn": 3465,
      "ith": 3466,
      "ĠbÃ¶rjat": 3467,
      "Ġtit": 3468,
      "ĠhÃ¥rt": 3469,
      "Ġvisst": 3470,
      "Ġsur": 3471,
      "Ġ'": 3472,
      "yta": 3473,
      "ĠOn": 3474,
      "ĠkÃ¤nde": 3475,
      "aget": 3476,
      "Ġinled": 3477,
      "ĠÃ¥tgÃ¤rder": 3478,
      "eringar": 3479,
      "ÃĸR": 3480,
      "Ġident": 3481,
      "ĠtyvÃ¤rr": 3482,
      "eden": 3483,
      "Ã¤nning": 3484,
      "IK": 3485,
      "arbetare": 3486,
      "rummet": 3487,
      "Ġlitet": 3488,
      "bes": 3489,
      "ds": 3490,
      "Ġicke": 3491,
      "Ġserver": 3492,
      "stÃ¥": 3493,
      "eng": 3494,
      "ĠHe": 3495,
      "Ġkil": 3496,
      "Ġena": 3497,
      "Ġos": 3498,
      "satts": 3499,
      "ĠVikt": 3500,
      "Ġtjej": 3501,
      "ĠbÃ¥t": 3502,
      "Ġexper": 3503,
      "Ġerbjuda": 3504,
      "ĠhÃ¶ll": 3505,
      "Ġlokala": 3506,
      "Ġnum": 3507,
      "ĠSl": 3508,
      "ĠsÃ¶ka": 3509,
      "Ġvinter": 3510,
      "fÃ¶lj": 3511,
      "âĢĿ,": 3512,
      "vÃ¤rt": 3513,
      "ola": 3514,
      "iginal": 3515,
      "Ġdryg": 3516,
      "Ġbilliga": 3517,
      "emÃ¥l": 3518,
      "Ġregeringen": 3519,
      "Ġide": 3520,
      "Ġfart": 3521,
      "ĠSpel": 3522,
      "igen": 3523,
      "omenad": 3524,
      "Ã¶ta": 3525,
      "oppet": 3526,
      "brott": 3527,
      "Ġfas": 3528,
      "uten": 3529,
      "Ġap": 3530,
      "lay": 3531,
      "Ġelekt": 3532,
      "Ġrabatt": 3533,
      "ycken": 3534,
      "Ġproduktion": 3535,
      "visning": 3536,
      "Ġstress": 3537,
      "Ġproduc": 3538,
      "Ġantalet": 3539,
      "Ġtidigt": 3540,
      "Ġtanke": 3541,
      "Ġredovis": 3542,
      "Ġplatser": 3543,
      "Ġkostnader": 3544,
      "ipp": 3545,
      "Ġuppe": 3546,
      "visor": 3547,
      "Ġindivid": 3548,
      "Ġpe": 3549,
      "Ġrespektiv": 3550,
      "Ġtj": 3551,
      "Ġtillverk": 3552,
      "ĠBet": 3553,
      "Ġanledning": 3554,
      "ĠlÃ¤ttare": 3555,
      "Ġno": 3556,
      "Ġrespektive": 3557,
      "ĠFÃ¶rs": 3558,
      "Ġstorlek": 3559,
      "Ġmarknaden": 3560,
      "ener": 3561,
      "Ġvillkor": 3562,
      "Ġspring": 3563,
      "sÃ¤ttningen": 3564,
      "Ġrecensioner": 3565,
      "Ġvinna": 3566,
      "handel": 3567,
      "Ġartikel": 3568,
      "Ġ>": 3569,
      "Ġdri": 3570,
      "ĠhÃ¶ger": 3571,
      "amin": 3572,
      "ĠHopp": 3573,
      "resent": 3574,
      "Ã¤kra": 3575,
      "Ġtyper": 3576,
      "lande": 3577,
      "we": 3578,
      "ĠberÃ¤k": 3579,
      "Ġbju": 3580,
      "Ġvers": 3581,
      "Ġcentrum": 3582,
      "Ġlagen": 3583,
      "ĠanvÃ¤ndning": 3584,
      "ĠdÃ¥ligt": 3585,
      "ĠGre": 3586,
      "Ġdigit": 3587,
      "Ġko": 3588,
      "Ġstrateg": 3589,
      "Ġgro": 3590,
      "Ġfrukt": 3591,
      "Ġrut": 3592,
      "iter": 3593,
      "Ġexakt": 3594,
      "Ġprinci": 3595,
      "iod": 3596,
      "Ġsamtliga": 3597,
      "Ġleverant": 3598,
      "Ġallra": 3599,
      "ĠsamhÃ¤llet": 3600,
      "ĠresenÃ¤rer": 3601,
      "ĠHans": 3602,
      "ening": 3603,
      "ĠBes": 3604,
      "ĠnÃ¶jd": 3605,
      "iteten": 3606,
      "Ġleg": 3607,
      "Ġcykel": 3608,
      "Ã¤ren": 3609,
      "ana": 3610,
      "Ġ500": 3611,
      "Ã¤gare": 3612,
      "ĠGl": 3613,
      "Ġpresent": 3614,
      "Ġbidrag": 3615,
      "Ġbilligt": 3616,
      "ĠNil": 3617,
      "Ġdans": 3618,
      "inder": 3619,
      "nes": 3620,
      "Ġsade": 3621,
      "ĠfÃ¶rvalt": 3622,
      "Ġmedicin": 3623,
      "ĠmÃ¤rk": 3624,
      "ienter": 3625,
      ":-": 3626,
      "ĠlÃ¤mp": 3627,
      "Ġvuxna": 3628,
      "Ġintegr": 3629,
      "Ġdokument": 3630,
      "system": 3631,
      "Ġbutik": 3632,
      "Ġregler": 3633,
      "Ġkontroll": 3634,
      "Ã¤nde": 3635,
      "ational": 3636,
      "Ġdrag": 3637,
      "ĠÃ¶v": 3638,
      "ĠunderhÃ¥ll": 3639,
      "Ġvann": 3640,
      "ĠBland": 3641,
      "ĠomrÃ¥de": 3642,
      "Ġvitt": 3643,
      "Ġvarm": 3644,
      "ĠlÃ¤gre": 3645,
      "Ġstu": 3646,
      "Ġregion": 3647,
      "stag": 3648,
      "ĠvÃ¤ntar": 3649,
      "Ġbek": 3650,
      "ĠhÃ¤nda": 3651,
      "ills": 3652,
      "Ġdate": 3653,
      "ĠFred": 3654,
      "ĠlÃ¤rare": 3655,
      "Ã¤mta": 3656,
      "stor": 3657,
      "Ġkrig": 3658,
      "ĠUppsala": 3659,
      "vika": 3660,
      "ĠfÃ¶rstÃ¥s": 3661,
      "ment": 3662,
      "ĠutgÃ¶r": 3663,
      "Ġfj": 3664,
      "ĠsÃ¤tter": 3665,
      "isar": 3666,
      "ĠCarl": 3667,
      "Ġlunch": 3668,
      "Ã¥rden": 3669,
      "medel": 3670,
      "ĠIngen": 3671,
      "Ġkostar": 3672,
      "sprung": 3673,
      "iment": 3674,
      "ial": 3675,
      "En": 3676,
      "Ġkatt": 3677,
      "wards": 3678,
      "ordon": 3679,
      "Ġkompetens": 3680,
      "ĠglÃ¤d": 3681,
      "XXXX": 3682,
      "Ġport": 3683,
      "Ġrull": 3684,
      "stjÃ¤n": 3685,
      "Ġuppgift": 3686,
      "grepp": 3687,
      "rustning": 3688,
      "ĠfÃ¶rel": 3689,
      "Ġenbart": 3690,
      "ĠKal": 3691,
      "Ġmera": 3692,
      "usen": 3693,
      "Ġdejtingsidor": 3694,
      "Ġmassor": 3695,
      "Ġadress": 3696,
      "rÃ¤": 3697,
      "Ġkunnat": 3698,
      "dering": 3699,
      "cep": 3700,
      "osition": 3701,
      "Ġsek": 3702,
      "Ġuppfatt": 3703,
      "bas": 3704,
      "ĠPerson": 3705,
      "Ġtors": 3706,
      "ĠlÃ¤ge": 3707,
      "ĠtÃ¤vling": 3708,
      "ĠkÃ¤nsla": 3709,
      "sd": 3710,
      "tidigt": 3711,
      "ĠnÃ¥n": 3712,
      "Ġdela": 3713,
      "Ġsal": 3714,
      "ep": 3715,
      "ĠtrÃ¤": 3716,
      "Ġmakt": 3717,
      "ĠberÃ¤tta": 3718,
      "istik": 3719,
      "Ġutbud": 3720,
      "An": 3721,
      "Ġnor": 3722,
      "utveckling": 3723,
      "larna": 3724,
      "ĠtÃ¥g": 3725,
      "tta": 3726,
      "son": 3727,
      "!!!": 3728,
      "ĠsÃ¤songen": 3729,
      "Ġrik": 3730,
      "Ġdejt": 3731,
      "jul": 3732,
      "ĠtillrÃ¤ckligt": 3733,
      "ioden": 3734,
      "Ġbygger": 3735,
      "ĠKina": 3736,
      "Ġak": 3737,
      "TT": 3738,
      "Ġark": 3739,
      "23": 3740,
      "tv": 3741,
      "ĠlÃ¤ser": 3742,
      "ĠfÃ¶dd": 3743,
      "Ġskola": 3744,
      "ĠSc": 3745,
      "sled": 3746,
      "Ġskrivit": 3747,
      "Ġsidor": 3748,
      "Ġriks": 3749,
      "srÃ¤tt": 3750,
      "Ġlyckas": 3751,
      "ĠsÃ¤song": 3752,
      "ĠHall": 3753,
      "Ġret": 3754,
      "Ġvalt": 3755,
      "ĠhÃ¤mt": 3756,
      "Ġrom": 3757,
      "garna": 3758,
      "Ġont": 3759,
      "Ġ31": 3760,
      "Ġhandel": 3761,
      "Ġmedvet": 3762,
      "ĠBok": 3763,
      "ĠlÃ¤kemedel": 3764,
      "ĠhÃ¶gsta": 3765,
      "okies": 3766,
      "lan": 3767,
      "ĠPeter": 3768,
      "Ã¤dda": 3769,
      "styrelsen": 3770,
      "Ġ35": 3771,
      "Ġborta": 3772,
      "inge": 3773,
      "Ġgemensam": 3774,
      "ĠfÃ¶rber": 3775,
      "Ġnr": 3776,
      "hov": 3777,
      "ĠfÃ¶rekomm": 3778,
      "valt": 3779,
      "Ġons": 3780,
      "server": 3781,
      "ĠHotels": 3782,
      "Ġhit": 3783,
      "ĠHand": 3784,
      "Ġbyta": 3785,
      "ĠSV": 3786,
      "Ġ2008": 3787,
      "Ġsil": 3788,
      "ĠtrÃ¤dgÃ¥rd": 3789,
      "Ġekonomiska": 3790,
      "rapp": 3791,
      "05": 3792,
      "edagog": 3793,
      "ette": 3794,
      "Ġhum": 3795,
      "ĠgrÃ¤n": 3796,
      "delen": 3797,
      "Ġdata": 3798,
      "ĠSkÃ¥n": 3799,
      "bol": 3800,
      "Ġpolisen": 3801,
      "sting": 3802,
      "ĠrÃ¶st": 3803,
      "ancer": 3804,
      "Ġreda": 3805,
      "ĠTur": 3806,
      "Ġkonstat": 3807,
      "kraft": 3808,
      "ĠgÃ¤llande": 3809,
      "Ã¤tta": 3810,
      "ĠSamtidigt": 3811,
      "ĠvÃ¤der": 3812,
      "ringen": 3813,
      "ĠÃ¶ppen": 3814,
      "ordning": 3815,
      "rika": 3816,
      "hets": 3817,
      "ĠfÃ¶rlor": 3818,
      "Se": 3819,
      "ĠGe": 3820,
      "ĠProdu": 3821,
      "Ġplatt": 3822,
      "Ġpappa": 3823,
      "ĠframÃ¥t": 3824,
      "df": 3825,
      "Ġsan": 3826,
      "ĠUl": 3827,
      "Ġbord": 3828,
      "ĠnÃ¶j": 3829,
      "oklad": 3830,
      "Ġsnar": 3831,
      "Ġbrans": 3832,
      "ĠMon": 3833,
      "Ġsann": 3834,
      "bit": 3835,
      "igg": 3836,
      "VO": 3837,
      "nov": 3838,
      "kopp": 3839,
      "Ġtrafik": 3840,
      "fors": 3841,
      "rala": 3842,
      "Ã¥ret": 3843,
      "ild": 3844,
      "Ã¤nta": 3845,
      "ningsvis": 3846,
      "klass": 3847,
      "ĠHam": 3848,
      "ĠHels": 3849,
      "Ġprote": 3850,
      "ĠtillgÃ¤ngliga": 3851,
      "aker": 3852,
      "Ġkommande": 3853,
      "Ġviktigaste": 3854,
      "hamn": 3855,
      "ningsm": 3856,
      "ĠfÃ¶rsvar": 3857,
      "Ġbetydelse": 3858,
      "nal": 3859,
      "Ġpension": 3860,
      "slÃ¶s": 3861,
      "AM": 3862,
      "Ġenkla": 3863,
      "Ġpriset": 3864,
      "Ã¶nt": 3865,
      "Ġlager": 3866,
      "iot": 3867,
      "Ġneg": 3868,
      "Ġtving": 3869,
      "Ġnag": 3870,
      "stÃ¤lld": 3871,
      "ĠkÃ¶pte": 3872,
      "urser": 3873,
      "Ġ2020": 3874,
      "ĠÃ¶nskar": 3875,
      "ĠMycket": 3876,
      "istiska": 3877,
      "gel": 3878,
      "Ġback": 3879,
      "ĠTor": 3880,
      "Ġhittade": 3881,
      "ĠmjÃ¶l": 3882,
      "Ġguld": 3883,
      "ningsb": 3884,
      "uck": 3885,
      "mor": 3886,
      "ĠfÃ¶rsÃ¤kring": 3887,
      "stav": 3888,
      "gn": 3889,
      "ĠSM": 3890,
      "stitut": 3891,
      "ĠÃ¤ndra": 3892,
      "ĠEd": 3893,
      "Ġtesta": 3894,
      "Ġspecial": 3895,
      "Ġsjun": 3896,
      "ometer": 3897,
      "ĠrÃ¶d": 3898,
      "onom": 3899,
      "hav": 3900,
      "ĠFÃ¶retag": 3901,
      "ĠVarje": 3902,
      "organis": 3903,
      "Ġdels": 3904,
      "cin": 3905,
      "ĠÃ¶vrigt": 3906,
      "ĠanstÃ¤llda": 3907,
      "ĠlÃ¶rdag": 3908,
      "ĠhÃ¶sten": 3909,
      "Ġsverige": 3910,
      "ĠCon": 3911,
      "stra": 3912,
      "ratis": 3913,
      "ĠVÃ¤lkommen": 3914,
      "ĠvÃ¤rme": 3915,
      "ĠmaskinÃ¶versatts": 3916,
      "platsen": 3917,
      "ign": 3918,
      "ĠTre": 3919,
      "Ġass": 3920,
      "Ġidrott": 3921,
      "ĠHen": 3922,
      "Ã¶ns": 3923,
      "Ġtriv": 3924,
      "Ã¥da": 3925,
      "Ġextre": 3926,
      "orlunda": 3927,
      "arder": 3928,
      "ĠTvÃ¥": 3929,
      "Ġkaffe": 3930,
      "Ġfir": 3931,
      "Ã¤ls": 3932,
      "Ġas": 3933,
      "Ġbrev": 3934,
      "Ġerbjudanden": 3935,
      "Ġtydligt": 3936,
      "Ġdrar": 3937,
      "Ġvardag": 3938,
      "th": 3939,
      "agg": 3940,
      "ĠÃ¤gg": 3941,
      "Ġorganisation": 3942,
      "kast": 3943,
      "ĠIN": 3944,
      "ĠjÃ¤mfÃ¶rt": 3945,
      "99": 3946,
      "handa": 3947,
      "entligt": 3948,
      "OM": 3949,
      "ula": 3950,
      "Ġoriginal": 3951,
      "unkter": 3952,
      "ESS": 3953,
      "lund": 3954,
      "Ġfilmen": 3955,
      "ĠAnmÃ¤l": 3956,
      "ĠHelsing": 3957,
      "80": 3958,
      "enting": 3959,
      "ĠHol": 3960,
      "skrivning": 3961,
      "uren": 3962,
      "ĠbesÃ¶kare": 3963,
      "Ġspecif": 3964,
      "ting": 3965,
      "ĠhÃ¥llbar": 3966,
      "Hotels": 3967,
      "lam": 3968,
      "EJ": 3969,
      "CH": 3970,
      "ĠKa": 3971,
      "Ġne": 3972,
      "Ġev": 3973,
      "Ġtryck": 3974,
      "Ġpunkt": 3975,
      "ĠrÃ¶": 3976,
      "rang": 3977,
      "Ġleda": 3978,
      "lo": 3979,
      "ĠStad": 3980,
      "Ġtankar": 3981,
      "ĠlÃ¤genhet": 3982,
      "ĠnÃ¤rmare": 3983,
      "Ġkontor": 3984,
      "Ã¤ndska": 3985,
      "ĠAndersson": 3986,
      "sr": 3987,
      "ire": 3988,
      "ĠFoto": 3989,
      "Ġpoj": 3990,
      "SS": 3991,
      "Ġses": 3992,
      "klam": 3993,
      "Ġba": 3994,
      "Ã¶dra": 3995,
      "Ġtrodde": 3996,
      "ĠPark": 3997,
      "elat": 3998,
      "Ġpersonliga": 3999,
      "icy": 4000,
      "ĠHoppas": 4001,
      "Ġyn": 4002,
      "ĠfÃ¶nster": 4003,
      "Ġtak": 4004,
      "âĢĻ": 4005,
      "ĠpÃ¥verkar": 4006,
      "Ġtis": 4007,
      "ura": 4008,
      "ĠMart": 4009,
      "ĠDat": 4010,
      "Ġlistan": 4011,
      "ĠFinns": 4012,
      "Ġmotor": 4013,
      "ĠPh": 4014,
      "Ġvir": 4015,
      "Ġbillig": 4016,
      "ĠfÃ¶rsÃ¶k": 4017,
      "Ġpartner": 4018,
      "ĠÃ¤ter": 4019,
      "ĠTrots": 4020,
      "Ġkvart": 4021,
      "Ã¶rd": 4022,
      "Ġlaget": 4023,
      "Ġnord": 4024,
      "pack": 4025,
      "derna": 4026,
      "Ġavs": 4027,
      "Ġtrevlig": 4028,
      "ĠLand": 4029,
      "Ġbev": 4030,
      "ĠÃĦl": 4031,
      "Ã¥p": 4032,
      "Ġrym": 4033,
      "icka": 4034,
      "skapet": 4035,
      "Ġfotograf": 4036,
      "Ġbudget": 4037,
      "ĠFortsÃ¤tt": 4038,
      "ĠdÃ¤remot": 4039,
      "Ġbetydligt": 4040,
      "trakt": 4041,
      "ĠMitt": 4042,
      "ĠRewards": 4043,
      "fÃ¤rg": 4044,
      "vÃ¤gen": 4045,
      "AL": 4046,
      "ĠMaria": 4047,
      "ĠkÃ¶tt": 4048,
      "stift": 4049,
      "ĠskÃ¤l": 4050,
      "Ġsist": 4051,
      "ĠstÃ¤ller": 4052,
      "ĠutmÃ¤rkt": 4053,
      "Ġinklu": 4054,
      "uc": 4055,
      "ogle": 4056,
      "Ġintervju": 4057,
      "ĠST": 4058,
      "elt": 4059,
      "Ġkommuna": 4060,
      "skning": 4061,
      "pren": 4062,
      "Ġgymnas": 4063,
      "ĠfÃ¤rger": 4064,
      "EL": 4065,
      "Ġ<": 4066,
      "Ġkommentarer": 4067,
      "uth": 4068,
      "Ġyt": 4069,
      "kohol": 4070,
      "ĠÃ¥ng": 4071,
      "Ã¶tter": 4072,
      "ĠnÃ¥gonsin": 4073,
      "aten": 4074,
      "Ġutrym": 4075,
      "maskin": 4076,
      "Ã¤mm": 4077,
      "Vi": 4078,
      "ĠsÃ¶ndag": 4079,
      "Ã¤ckt": 4080,
      "Ġarm": 4081,
      "ĠBygg": 4082,
      "Ġ08": 4083,
      "Ġnatten": 4084,
      "ogen": 4085,
      "Ġinred": 4086,
      "Ã¶tsligt": 4087,
      "IG": 4088,
      "Ġfantastiskt": 4089,
      "Ġdrog": 4090,
      "ele": 4091,
      "Ġursprung": 4092,
      "Ġhandla": 4093,
      "Ġetc": 4094,
      ".âĢĿ": 4095,
      "ĠFrank": 4096,
      "Ġkonto": 4097,
      "arens": 4098,
      "ĠhÃ¶j": 4099,
      "uta": 4100,
      "ĠKontakt": 4101,
      "Ġregl": 4102,
      "ftet": 4103,
      "03": 4104,
      "Ġsim": 4105,
      "Ġwww": 4106,
      "ckar": 4107,
      "fÃ¤rd": 4108,
      "ĠTÃ¤nk": 4109,
      "jÃ¤lp": 4110,
      "Ġvore": 4111,
      "ĠVal": 4112,
      "Ġrestaurang": 4113,
      "ĠmÃ¤ngd": 4114,
      "ome": 4115,
      "Ġstarkt": 4116,
      "vakt": 4117,
      "rike": 4118,
      "tter": 4119,
      "Ġdiskuss": 4120,
      "Ġscen": 4121,
      "ĠhÃ¥rd": 4122,
      "ID": 4123,
      "ĠAns": 4124,
      "frÃ¥gan": 4125,
      "02": 4126,
      "Ġmiddag": 4127,
      "ĠslÃ¥": 4128,
      "samling": 4129,
      "hy": 4130,
      "ots": 4131,
      "Ġkat": 4132,
      "Ġrent": 4133,
      "ĠLars": 4134,
      "ĠÃ¶nsk": 4135,
      "ingsl": 4136,
      "ĠbekvÃ¤m": 4137,
      "Ġinklusive": 4138,
      "Ġgravid": 4139,
      "Ġspelade": 4140,
      "slagen": 4141,
      "09": 4142,
      "Ġflytta": 4143,
      "ĠBara": 4144,
      "Ġplanera": 4145,
      "Ġaktiviteter": 4146,
      "ologiska": 4147,
      "Ġmej": 4148,
      "pat": 4149,
      "dels": 4150,
      "Ġpubl": 4151,
      "Ġpati": 4152,
      "ĠstÃ¤nd": 4153,
      "inar": 4154,
      "67": 4155,
      "ĠVet": 4156,
      "ĠtrÃ¤na": 4157,
      "ydda": 4158,
      "shus": 4159,
      "etabl": 4160,
      "ĠtillstÃ¥nd": 4161,
      "ĠbestÃ¤ll": 4162,
      "ĠkÃ¶per": 4163,
      "Ġsid": 4164,
      "ĠChrist": 4165,
      "ĠlÃ¤kare": 4166,
      "Ġboll": 4167,
      "ĠFÃ¤r": 4168,
      "ĠFram": 4169,
      "ĠomdÃ¶met": 4170,
      "Ã¥ter": 4171,
      "ĠsÃ¤m": 4172,
      "ĠPr": 4173,
      "skÃ¤r": 4174,
      "Ġbakgrund": 4175,
      "Ġnej": 4176,
      "nu": 4177,
      "stone": 4178,
      "ĠmÃ¤ng": 4179,
      "ĠNya": 4180,
      "rÃ¤ff": 4181,
      "Ġpolitik": 4182,
      "Ġordning": 4183,
      "Ġligga": 4184,
      "Ġtand": 4185,
      "Ġdrygt": 4186,
      "ĠsjÃ¤lvklart": 4187,
      "Ġkarakt": 4188,
      "eningen": 4189,
      "ĠMal": 4190,
      "uts": 4191,
      "ĠdÃ¤refter": 4192,
      "ĠSan": 4193,
      "fton": 4194,
      "ĠRed": 4195,
      "ĠSocial": 4196,
      "Ġsaknar": 4197,
      "Ġkonkurr": 4198,
      "ĠÃ¤ndring": 4199,
      "ĠSven": 4200,
      "Ġekonomi": 4201,
      "ĠgÃ¶rs": 4202,
      "omas": 4203,
      "tryck": 4204,
      "ĠgÃ¤st": 4205,
      "ĠkÃ¤ll": 4206,
      "ansvar": 4207,
      "ĠsnÃ¶": 4208,
      "ĠstÃ¤r": 4209,
      "Ġlugn": 4210,
      "fun": 4211,
      "Ġhe": 4212,
      "06": 4213,
      "ĠSund": 4214,
      "FÃ¶r": 4215,
      "slaget": 4216,
      "ilt": 4217,
      "ĠMatt": 4218,
      "Ġkategor": 4219,
      "Ġautomat": 4220,
      "27": 4221,
      "ĠtillÃ¤mp": 4222,
      "Ġvarmt": 4223,
      "Ġbro": 4224,
      "Ġcookies": 4225,
      "Ġ45": 4226,
      "ĠgÃ¶ras": 4227,
      "tligen": 4228,
      "Ġfantastisk": 4229,
      "ĠfÃ¶resl": 4230,
      "26": 4231,
      "Ġyrkes": 4232,
      "Ġgenomsnitt": 4233,
      "Ã¤ning": 4234,
      "ĠMÃ¥l": 4235,
      "Ġdetalj": 4236,
      "Ġmesta": 4237,
      "Ġutvecklas": 4238,
      "...]": 4239,
      "ĠfÃ¶rbÃ¤ttra": 4240,
      "Ġstudie": 4241,
      "Ġnorr": 4242,
      "ific": 4243,
      "Ġkommunikation": 4244,
      "ĠFrÃ¥g": 4245,
      "ĠmÃ¥ng": 4246,
      "deras": 4247,
      "Ġpolitiska": 4248,
      "rande": 4249,
      "Ġdyg": 4250,
      "tim": 4251,
      "29": 4252,
      "ĠEk": 4253,
      "ĠvÃ¥ren": 4254,
      "ĠfÃ¶rutsÃ¤ttningar": 4255,
      "kommer": 4256,
      "Ġlju": 4257,
      "ĠvÃ¤nta": 4258,
      "ĠihÃ¥g": 4259,
      "ĠAndra": 4260,
      "hang": 4261,
      "Ġtalar": 4262,
      "ĠPost": 4263,
      "ĠIbland": 4264,
      "Ġsiff": 4265,
      "Ġsikt": 4266,
      "ssystem": 4267,
      "Ġunderl": 4268,
      "behÃ¶r": 4269,
      "gruppen": 4270,
      "gÃ¥ngen": 4271,
      "Ġmg": 4272,
      "ube": 4273,
      "nÃ¤r": 4274,
      "lÃ¤s": 4275,
      "Ġjour": 4276,
      "ĠPat": 4277,
      "Ġvind": 4278,
      "Ġutnytt": 4279,
      "Ġgrader": 4280,
      "ĠApp": 4281,
      "Mer": 4282,
      "onn": 4283,
      "04": 4284,
      "www": 4285,
      "Ġtuff": 4286,
      "Ġfe": 4287,
      "Ġhantera": 4288,
      "fan": 4289,
      "Ġkyl": 4290,
      "ĠstjÃ¤rnor": 4291,
      "Ġstabil": 4292,
      "Ġosv": 4293,
      "ĠlÃ¤mnar": 4294,
      "sut": 4295,
      "comTM": 4296,
      "ĠFolk": 4297,
      "Ġmjuk": 4298,
      "SK": 4299,
      "Ġpromenad": 4300,
      "08": 4301,
      "ĠCent": 4302,
      "emat": 4303,
      "Ġrummet": 4304,
      "Ġmatcher": 4305,
      "ĠIT": 4306,
      "ĠKung": 4307,
      "oga": 4308,
      "ĠBor": 4309,
      "Ġvita": 4310,
      "igur": 4311,
      "Ġnyhet": 4312,
      "mot": 4313,
      "ĠfÃ¶rh": 4314,
      "ĠkÃ¤ndes": 4315,
      "amen": 4316,
      "yter": 4317,
      "ĠFinland": 4318,
      "ĠfÃ¶rsÃ¤ljning": 4319,
      "Ġuppn": 4320,
      "Ġkunska": 4321,
      "Ġglob": 4322,
      "Ġanalys": 4323,
      "ista": 4324,
      "ĠÃ¤ntligen": 4325,
      "28": 4326,
      "ĠsÃ¤lja": 4327,
      "Ġbolaget": 4328,
      "Ġimorgon": 4329,
      "bum": 4330,
      "Ġvideo": 4331,
      "Ġklicka": 4332,
      "Ġgivet": 4333,
      "sprogram": 4334,
      "Ġjur": 4335,
      "ungen": 4336,
      "ĠtrÃ¥d": 4337,
      "Ġdagarna": 4338,
      "ĠÃ¶kad": 4339,
      "Ġfritid": 4340,
      "Ġinternationella": 4341,
      "Ġavsnitt": 4342,
      "Ġstandard": 4343,
      "add": 4344,
      "ĠKr": 4345,
      "ĠFÃ¶rst": 4346,
      "ssa": 4347,
      "ĠvÃ¤lkom": 4348,
      "Ġcentral": 4349,
      "ĠFVO": 4350,
      "Ġprest": 4351,
      "ĠDa": 4352,
      "ĠNr": 4353,
      "Ġnjuta": 4354,
      "Ġ197": 4355,
      "ĠGratis": 4356,
      "ĠDom": 4357,
      "klubb": 4358,
      "Ġkre": 4359,
      "Ġmun": 4360,
      "Ġvinst": 4361,
      "Ġfantastiska": 4362,
      "dustr": 4363,
      "ĠSand": 4364,
      "Ġvattnet": 4365,
      "Ġvars": 4366,
      "ĠmarknadsfÃ¶r": 4367,
      "bÃ¶rj": 4368,
      "DRESS": 4369,
      "arn": 4370,
      "Ġmatt": 4371,
      "Ġingenting": 4372,
      "ionde": 4373,
      "bert": 4374,
      "ident": 4375,
      "Ġnyck": 4376,
      "Ġvarier": 4377,
      "Ġ?": 4378,
      "Ã¤tter": 4379,
      "ĠVin": 4380,
      "Ġenhet": 4381,
      "bi": 4382,
      "ĠHus": 4383,
      "skland": 4384,
      "Ġbilar": 4385,
      "dell": 4386,
      "Ġry": 4387,
      "ise": 4388,
      "Ġband": 4389,
      "Ġdemokrat": 4390,
      "Ġflick": 4391,
      "Ġresten": 4392,
      "ĠomdÃ¶me": 4393,
      "gera": 4394,
      "Ġaccep": 4395,
      "ĠpopulÃ¤ra": 4396,
      "iebolag": 4397,
      "skv": 4398,
      "Ġplatsen": 4399,
      "ĠInd": 4400,
      "Ġmusk": 4401,
      "Ġfree": 4402,
      "dex": 4403,
      "Ġpratar": 4404,
      "65": 4405,
      "Ġmodell": 4406,
      "Ġplus": 4407,
      "Ġges": 4408,
      "Ġspelet": 4409,
      "Ġpatienter": 4410,
      "gj": 4411,
      "ingens": 4412,
      "ĠâĨ": 4413,
      "leken": 4414,
      "off": 4415,
      "nali": 4416,
      "ĠðŁĺ": 4417,
      "utbildning": 4418,
      "ĠÃ¥sikt": 4419,
      "Ġungdomar": 4420,
      "ĠArt": 4421,
      "Ġpaket": 4422,
      "ĠInne": 4423,
      "ostÃ¤der": 4424,
      "ikro": 4425,
      "Ġvisas": 4426,
      "EJLA": 4427,
      "EJLADRESS": 4428,
      "ows": 4429,
      "Ġnaturligtvis": 4430,
      "ĠLite": 4431,
      "Ġbem": 4432,
      "Ġutvecklingen": 4433,
      "Ġmod": 4434,
      "arv": 4435,
      "Ġsova": 4436,
      "skomm": 4437,
      "Ġspara": 4438,
      "ekvens": 4439,
      "ĠFredrik": 4440,
      "Ġarg": 4441,
      "Ġperiod": 4442,
      "Ġdest": 4443,
      "ĠansÃ¶kan": 4444,
      "ĠIm": 4445,
      "nÃ¤mn": 4446,
      "tekn": 4447,
      "Ġ2007": 4448,
      "rim": 4449,
      "ĠVÃ¤lj": 4450,
      "Ġdejtingsida": 4451,
      "Ġuppg": 4452,
      "star": 4453,
      "ĠJohansson": 4454,
      "Ġantingen": 4455,
      "Ġknappt": 4456,
      "ĠLÃ¥t": 4457,
      "Ġlista": 4458,
      "rÃ¤d": 4459,
      "Ġdukt": 4460,
      "rister": 4461,
      "Ġprova": 4462,
      "ĠNÃ¥gra": 4463,
      "ĠJes": 4464,
      "Ġskrevs": 4465,
      "Ġundrar": 4466,
      "kam": 4467,
      "minstone": 4468,
      "Ġperfekta": 4469,
      "Ġlo": 4470,
      "enskaper": 4471,
      "ĠsÃ¥l": 4472,
      "-)": 4473,
      "Ad": 4474,
      "ĠpÃ¥verka": 4475,
      "ationell": 4476,
      "ĠðŁĻ": 4477,
      "Ġalkohol": 4478,
      "ĠhÃ¤rlig": 4479,
      "ĠOb": 4480,
      "own": 4481,
      "35": 4482,
      "ĠrejÃ¤l": 4483,
      "Ġdusch": 4484,
      "ĠVÃ¥ra": 4485,
      "klÃ¤der": 4486,
      "ĠDin": 4487,
      "Ġbevis": 4488,
      "Ġkurs": 4489,
      "Ġmedarbetare": 4490,
      "Ġsluta": 4491,
      "stÃ¥n": 4492,
      "Ġledande": 4493,
      "ĠStud": 4494,
      "Ġnummer": 4495,
      "ĠmÃ¤nsk": 4496,
      "TE": 4497,
      "Ġomedel": 4498,
      "Ġbalans": 4499,
      "Ġstarka": 4500,
      "Ġannorlunda": 4501,
      "Ġtittar": 4502,
      "Ġregn": 4503,
      "Ġundvika": 4504,
      "rebro": 4505,
      "Ġbrand": 4506,
      "ada": 4507,
      "Ġ[...]": 4508,
      "ĠOK": 4509,
      "ĠNamn": 4510,
      "vers": 4511,
      "AS": 4512,
      "Ġhuvudet": 4513,
      "skri": 4514,
      "ĠtÃ¤nk": 4515,
      "ĠBli": 4516,
      "ĠVilken": 4517,
      "qvist": 4518,
      "Ġfungera": 4519,
      "ĠNatur": 4520,
      "anten": 4521,
      "hel": 4522,
      "ĠIF": 4523,
      "ĠbestÃ¤mm": 4524,
      "Ġprofil": 4525,
      "Ġbloggen": 4526,
      "ĠKlicka": 4527,
      "Ġtimmen": 4528,
      "ministr": 4529,
      "cher": 4530,
      "Ġdyr": 4531,
      "ledare": 4532,
      "ror": 4533,
      "Ġnamnet": 4534,
      "ĠfÃ¶rbi": 4535,
      "Ġpan": 4536,
      "Ġsolen": 4537,
      "polit": 4538,
      "Ġprojektet": 4539,
      "ĠÃ¥tta": 4540,
      "irekt": 4541,
      "Ġhittat": 4542,
      "fot": 4543,
      "____": 4544,
      "zz": 4545,
      "onser": 4546,
      "Ã¼": 4547,
      "Ã¤nkt": 4548,
      "ĠHer": 4549,
      "Ġchoklad": 4550,
      "Ġsvara": 4551,
      "ĠtrÃ¥k": 4552,
      "Ġkonf": 4553,
      "park": 4554,
      "Ġkolleg": 4555,
      "ĠBÃ¤sta": 4556,
      "ĠvÃ¤xer": 4557,
      "ifierade": 4558,
      "delningen": 4559,
      "Ġdatum": 4560,
      "Ġfunn": 4561,
      "Ġprincip": 4562,
      "Ġkass": 4563,
      "ĠÃ¶verl": 4564,
      "ĠfÃ¶": 4565,
      "ĠkÃ¤nd": 4566,
      "ĠdÃ¥lig": 4567,
      "Ġutform": 4568,
      "Ġtransport": 4569,
      "oden": 4570,
      "ĠFal": 4571,
      "Ġparkering": 4572,
      "ose": 4573,
      "por": 4574,
      "ĠSport": 4575,
      "ĠvÃ¤rd": 4576,
      "brik": 4577,
      "ĠFri": 4578,
      "Ġsyfte": 4579,
      "Ġetabl": 4580,
      "Ġterr": 4581,
      "hai": 4582,
      "Ã¤mfÃ¶r": 4583,
      "Ġinl": 4584,
      "ower": 4585,
      "Ġvalde": 4586,
      "Ġreklam": 4587,
      "ĠrÃ¤cker": 4588,
      "Ġstockholm": 4589,
      "delser": 4590,
      "Ġstraff": 4591,
      "Ġdetaljer": 4592,
      "orden": 4593,
      "ĠfÃ¶rutom": 4594,
      "sbolag": 4595,
      "ondon": 4596,
      "ĠBro": 4597,
      "Ġobjekt": 4598,
      "ĠvÃ¤xt": 4599,
      "ĠÃ¶ppet": 4600,
      "ĠsÃ¶m": 4601,
      "itar": 4602,
      "Ġkommuner": 4603,
      "aller": 4604,
      "ĠmÃ¥r": 4605,
      "07": 4606,
      "erier": 4607,
      "Ġanses": 4608,
      "tida": 4609,
      "Ġpassa": 4610,
      "gatan": 4611,
      "Ġstarta": 4612,
      "Ġbekr": 4613,
      "anen": 4614,
      "Ġleverans": 4615,
      "Ġill": 4616,
      "Ġ$": 4617,
      "ĠhÃ¶gst": 4618,
      "ĠfÃ¶rmÃ¥ga": 4619,
      "ĠRa": 4620,
      "ĠrÃ¤ttigheter": 4621,
      "Ġdatorn": 4622,
      "NING": 4623,
      "Ġhaha": 4624,
      "Ġplast": 4625,
      "Ġdotter": 4626,
      "AD": 4627,
      "Ġslog": 4628,
      "yser": 4629,
      "givning": 4630,
      "Ġkallade": 4631,
      "Ġklarar": 4632,
      "Ã¤kerhet": 4633,
      "Ġlyssna": 4634,
      "Ġlans": 4635,
      "stÃ¤llningar": 4636,
      "Ġresultatet": 4637,
      "sbe": 4638,
      "ĠlÃ¶sa": 4639,
      "Ġ;)": 4640,
      "ĠMEJLADRESS": 4641,
      "ĠplÃ¶tsligt": 4642,
      "ĠberÃ¶r": 4643,
      "Ġstudier": 4644,
      "Ġvol": 4645,
      "Ġlagt": 4646,
      "sorg": 4647,
      "ĠJÃ¶n": 4648,
      "tiden": 4649,
      "Ġmannen": 4650,
      "Ġcyk": 4651,
      "ulla": 4652,
      "porter": 4653,
      "Ġmail": 4654,
      "ĠÃĸrebro": 4655,
      "ĠIgÃ¥r": 4656,
      "ĠÃ¶kat": 4657,
      "FÃ¥": 4658,
      "ĠmÃ¶jligheten": 4659,
      "ĠbrÃ¶st": 4660,
      "ĠfÃ¶rÃ¤ndring": 4661,
      "ction": 4662,
      "Ġseg": 4663,
      "ĠSvensk": 4664,
      "oteket": 4665,
      "ĠnÃ¥t": 4666,
      "Ġherr": 4667,
      "Ġvist": 4668,
      "Ġamb": 4669,
      "entera": 4670,
      "ruktion": 4671,
      "bergs": 4672,
      "Ġvisste": 4673,
      "Ġtrevligt": 4674,
      "ĠnÃ¥gonting": 4675,
      "ya": 4676,
      "Ġnuvarande": 4677,
      "ĠsÃ¤ljer": 4678,
      "Ġlyckades": 4679,
      "Ġson": 4680,
      "Ġamerikanska": 4681,
      "ĠlÃ¶sningar": 4682,
      "Ġmodern": 4683,
      "dret": 4684,
      "Ġstruktur": 4685,
      "ĠðŁĻĤ": 4686,
      "Ġmitten": 4687,
      "Ġmiljarder": 4688,
      "mÃ¤ss": 4689,
      "Ġdjup": 4690,
      "Ġmedier": 4691,
      "ĠLÃ¤gg": 4692,
      "Ġmedborg": 4693,
      "Ġbidra": 4694,
      "tjÃ¤nst": 4695,
      "satta": 4696,
      "ĠstÃ¤d": 4697,
      "Ġantag": 4698,
      "stat": 4699,
      "Ġintresserad": 4700,
      "Ġtakt": 4701,
      "Ġfordon": 4702,
      "liggÃ¶r": 4703,
      "fred": 4704,
      "ines": 4705,
      "ĠdÃ¶": 4706,
      "ĠMagn": 4707,
      "bor": 4708,
      "Ġskickade": 4709,
      "Ġnyligen": 4710,
      "osen": 4711,
      "iven": 4712,
      "ysning": 4713,
      "ĠBild": 4714,
      "ĠvÃ¤lj": 4715,
      "Ġvacker": 4716,
      "entet": 4717,
      "blick": 4718,
      "omrÃ¥det": 4719,
      "Ġdis": 4720,
      "Ġlock": 4721,
      "frÃ¥gor": 4722,
      "Ġhttp": 4723,
      "ĠDam": 4724,
      "rick": 4725,
      "elsens": 4726,
      "ĠSta": 4727,
      "ĠGam": 4728,
      "ĠslÃ¤kt": 4729,
      "Ġtimme": 4730,
      "ĠBa": 4731,
      "lats": 4732,
      "ĠlÃ¶sning": 4733,
      "Ġit": 4734,
      "ĠTim": 4735,
      "mg": 4736,
      "Ġsatte": 4737,
      "Ġcasin": 4738,
      "Ġkra": 4739,
      "Ġeftermid": 4740,
      "Ġsituation": 4741,
      "ĠÃ¤lska": 4742,
      "Ġbarnet": 4743,
      "Ġvand": 4744,
      "Ġseri": 4745,
      "ĠmÃ¶jliga": 4746,
      "Ġrelig": 4747,
      "Ġkonsum": 4748,
      "lik": 4749,
      "Ġsannol": 4750,
      "ream": 4751,
      "Ġsub": 4752,
      "ĠFre": 4753,
      "ĠvÃ¤st": 4754,
      "Ġhavet": 4755,
      "sjÃ¶": 4756,
      "klare": 4757,
      "peiska": 4758,
      "Ġprogrammet": 4759,
      "ĠmÃ¥ndag": 4760,
      "RO": 4761,
      "ĠsÃ¥klart": 4762,
      "Ut": 4763,
      "Ġmyndighet": 4764,
      "Ġkast": 4765,
      "Ġir": 4766,
      "ĠSkÃ¥ne": 4767,
      "Ġbadrum": 4768,
      "ĠhÃ¤nt": 4769,
      "Ġmottag": 4770,
      "ĠCom": 4771,
      "nivÃ¥": 4772,
      "Ġdelta": 4773,
      "ĠLar": 4774,
      "Ġsla": 4775,
      "ĠsÃ¥ng": 4776,
      "ĠSÃ¤tt": 4777,
      "Ġras": 4778,
      "ffan": 4779,
      "cel": 4780,
      "Ġher": 4781,
      "ĠTrip": 4782,
      "odligen": 4783,
      "ĠIns": 4784,
      "ĠInternet": 4785,
      "Ã¥Ã¥": 4786,
      "bell": 4787,
      "akta": 4788,
      "ĠtillÃ¥t": 4789,
      "ĠhÃ¤v": 4790,
      "ĠmÃ¥let": 4791,
      "resen": 4792,
      "Ġpengarna": 4793,
      "troende": 4794,
      "ĠDav": 4795,
      "to": 4796,
      "Ġfinner": 4797,
      "Ġrev": 4798,
      "Ġfett": 4799,
      "derade": 4800,
      "Ġfallet": 4801,
      "Ġ300": 4802,
      "ĠkÃ¤nda": 4803,
      "Ġutsikt": 4804,
      "Ġinstaller": 4805,
      "Ġladda": 4806,
      "33": 4807,
      "Ġinform": 4808,
      "arbetet": 4809,
      "ĠfÃ¶red": 4810,
      "rÃ¤tten": 4811,
      "old": 4812,
      "Ġlast": 4813,
      "ĠlÃ¥na": 4814,
      "Ġtemperatur": 4815,
      "ĠsÃ¤llan": 4816,
      "Ġhimla": 4817,
      "ĠjÃ¤rn": 4818,
      "Ġtung": 4819,
      "Ġnormalt": 4820,
      "Ġriktig": 4821,
      "ICK": 4822,
      "Ġrelativt": 4823,
      "Ġmening": 4824,
      "Ġsmart": 4825,
      "stÃ¶d": 4826,
      "Ġgett": 4827,
      "aken": 4828,
      "Ġfunkar": 4829,
      "ledningen": 4830,
      "ĠsÃ¤ttet": 4831,
      "annen": 4832,
      "75": 4833,
      "minister": 4834,
      "Ġdvs": 4835,
      "ĠbestÃ¤lla": 4836,
      "agra": 4837,
      "ĠnÃ¤tverk": 4838,
      "Ġplocka": 4839,
      "ĠTyskland": 4840,
      "Ġkorrekt": 4841,
      "Ã¶llop": 4842,
      "meÃ¥": 4843,
      "Ġnyf": 4844,
      "Ġtionde": 4845,
      "ĠnÃ¤rmaste": 4846,
      "ids": 4847,
      "lÃ¤ggande": 4848,
      "ĠNorge": 4849,
      "smÃ¥l": 4850,
      "inne": 4851,
      "ĠSex": 4852,
      "oth": 4853,
      "vikt": 4854,
      "anti": 4855,
      "ĠmÃ¤nniska": 4856,
      "iger": 4857,
      "ĠSK": 4858,
      "Ġvisat": 4859,
      "talien": 4860,
      "skraft": 4861,
      "Ġavsl": 4862,
      "Ã¤nga": 4863,
      "ĠVilka": 4864,
      "Ġbibli": 4865,
      "ĠbesÃ¶ka": 4866,
      "Ġfinansier": 4867,
      "vi": 4868,
      "ĠDock": 4869,
      "trÃ¤d": 4870,
      "Ġhuden": 4871,
      "Ã¤rk": 4872,
      "Ġperspektiv": 4873,
      "ĠfÃ¶rhÃ¥llande": 4874,
      "Ġsyns": 4875,
      "ben": 4876,
      "ĠstrÃ¶m": 4877,
      "31": 4878,
      "ĠÃ¶vert": 4879,
      "hÃ¤r": 4880,
      "ĠlÃ¤ngs": 4881,
      "ĠUr": 4882,
      "Ġnumera": 4883,
      "gande": 4884,
      "ĠResultat": 4885,
      "Ġcentrala": 4886,
      "Ġpapper": 4887,
      "Ġrolig": 4888,
      "antag": 4889,
      "ĠOnline": 4890,
      "skÃ¶ter": 4891,
      "Ġshopp": 4892,
      "namn": 4893,
      "Ġfack": 4894,
      "issa": 4895,
      "barn": 4896,
      "ĠAb": 4897,
      "Ġbetalar": 4898,
      "terat": 4899,
      "Ġrisken": 4900,
      "IF": 4901,
      "ĠÃħlder": 4902,
      "Ġtunn": 4903,
      "ĠupprÃ¤tt": 4904,
      "Ġskilj": 4905,
      "Ġaktuella": 4906,
      "ĠSim": 4907,
      "ĠHos": 4908,
      "Ġsjukhus": 4909,
      "spelare": 4910,
      "fe": 4911,
      "unga": 4912,
      "ĠSvar": 4913,
      "Ġuppen": 4914,
      "olket": 4915,
      "lim": 4916,
      "Ġfrisk": 4917,
      "djur": 4918,
      "Ġoptim": 4919,
      "Ġjakt": 4920,
      "ĠgÃ¤ng": 4921,
      "ĠLi": 4922,
      "gl": 4923,
      "troll": 4924,
      "ĠJohn": 4925,
      "ĠInformation": 4926,
      "Ġvinn": 4927,
      "Ġ2000": 4928,
      "ĠkÃ¶pt": 4929,
      "Ġgjor": 4930,
      "Ġprofession": 4931,
      "ĠhÃ¶jd": 4932,
      "ĠKat": 4933,
      "ĠMet": 4934,
      "Ġvetenskap": 4935,
      "ĠiP": 4936,
      "resa": 4937,
      "ikat": 4938,
      "Ġbete": 4939,
      "syn": 4940,
      "vatten": 4941,
      "ĠVissa": 4942,
      "ebygg": 4943,
      "ĠSal": 4944,
      "Ġkem": 4945,
      "bler": 4946,
      "Ġsorter": 4947,
      "ĠInn": 4948,
      "illkor": 4949,
      "ĠsamhÃ¤lle": 4950,
      "ĠtillvÃ¤xt": 4951,
      "Ġstanna": 4952,
      "ĠFÃ¶rutom": 4953,
      "Ġbonusnatt": 4954,
      "Ġbatt": 4955,
      "Ġenklare": 4956,
      "Ġhyr": 4957,
      "kÃ¶r": 4958,
      "enskt": 4959,
      "dÃ¶met": 4960,
      "kret": 4961,
      "Ġinnov": 4962,
      "Ġstats": 4963,
      "TV": 4964,
      "hi": 4965,
      "ĠmÃ¤t": 4966,
      "vit": 4967,
      "ĠbestÃ¤mt": 4968,
      "Ġladd": 4969,
      "Ġstrax": 4970,
      "ĠMÃ¥": 4971,
      "Ġindustri": 4972,
      "AG": 4973,
      "ationellt": 4974,
      "Ġkapital": 4975,
      "Tack": 4976,
      "Ġdiskuter": 4977,
      "Ġrekommenderar": 4978,
      "ĠfÃ¶rvÃ¤r": 4979,
      "ĠInga": 4980,
      "ĠSil": 4981,
      "sterna": 4982,
      "Ġutomhus": 4983,
      "Ġsnarare": 4984,
      "Ġvalet": 4985,
      "ĠÃ¤gare": 4986,
      "vand": 4987,
      "Ġordentligt": 4988,
      "ĠVisst": 4989,
      "ht": 4990,
      "sor": 4991,
      "astighet": 4992,
      "Ġbrist": 4993,
      "bilder": 4994,
      "erats": 4995,
      "fÃ¶rsÃ¤lj": 4996,
      "ĠTyvÃ¤rr": 4997,
      "ektion": 4998,
      "hÃ¤l": 4999,
      "Ja": 5000,
      "ĠkÃ¶rde": 5001,
      "Ġfunktioner": 5002,
      "ĠLondon": 5003,
      "90": 5004,
      "hÃ¶rt": 5005,
      "ĠsmÃ¶r": 5006,
      "Ġbidrar": 5007,
      "Ġ2006": 5008,
      "Ã¶nstr": 5009,
      "Ġintens": 5010,
      "mon": 5011,
      "ĠÃ¥tminstone": 5012,
      "kat": 5013,
      "Ġklipp": 5014,
      "Ġarbetsplats": 5015,
      "ĠGod": 5016,
      "ĠmÃ¥tt": 5017,
      "platser": 5018,
      "Ġrestauranger": 5019,
      "Ġsammanhang": 5020,
      "Ġfrakt": 5021,
      "riÃ¤r": 5022,
      "ĠYork": 5023,
      "varo": 5024,
      "ommar": 5025,
      "mÃ¤nt": 5026,
      "trepren": 5027,
      "oom": 5028,
      "ulÃ¤r": 5029,
      "ĠbehÃ¥ll": 5030,
      "ĠMartin": 5031,
      "Ġslutade": 5032,
      "ĠTot": 5033,
      "fria": 5034,
      "derat": 5035,
      "ĠGoogle": 5036,
      "ĠhÃ¶rt": 5037,
      "ycke": 5038,
      "Ġinrikt": 5039,
      "ĠHade": 5040,
      "ĠfÃ¶rt": 5041,
      "ĠAc": 5042,
      "indra": 5043,
      "ktor": 5044,
      "ĠvÃ¤rt": 5045,
      "Ġtorr": 5046,
      "ĠstÃ¤lle": 5047,
      "ĠÃ¶verens": 5048,
      "Ã¤ge": 5049,
      "sprÃ¥k": 5050,
      "stÃ¥ndet": 5051,
      "Ġqu": 5052,
      "ĠÃ¶kade": 5053,
      "Ġchansen": 5054,
      "ĠNilsson": 5055,
      "rib": 5056,
      "ĠÃ¤ger": 5057,
      "IT": 5058,
      "ĠmotstÃ¥nd": 5059,
      "Ġuttal": 5060,
      "ĠBolag": 5061,
      "ĠNÃ¤sta": 5062,
      "Ġanl": 5063,
      "Ġmorgonen": 5064,
      "ĠHerr": 5065,
      "fest": 5066,
      "Ġseger": 5067,
      "ĠDaniel": 5068,
      "Ã¤ta": 5069,
      "Ġkalla": 5070,
      "ĠFÃ¶rsta": 5071,
      "Ġtillhanda": 5072,
      "ĠanvÃ¤ndare": 5073,
      "Ġledare": 5074,
      "dern": 5075,
      "etten": 5076,
      "indows": 5077,
      "anken": 5078,
      "Ġkollektiv": 5079,
      "hÃ¥lla": 5080,
      "Ġhuvudsak": 5081,
      "Ġdefinit": 5082,
      "Ġskada": 5083,
      "ĠHo": 5084,
      "ĠhÃ¤rligt": 5085,
      "sfri": 5086,
      "pol": 5087,
      "ĠinlÃ¤gget": 5088,
      "ax": 5089,
      "ĠGro": 5090,
      "Ġundan": 5091,
      "Ġerk": 5092,
      "Ġhamn": 5093,
      "Ġrim": 5094,
      "ĠGun": 5095,
      "Ã¤ttra": 5096,
      "Ã¤nna": 5097,
      "ĠVem": 5098,
      "ĠutgÃ¥ng": 5099,
      "tex": 5100,
      "ĠstÃ¤der": 5101,
      "Ġkille": 5102,
      "Ġbilj": 5103,
      "ĠLad": 5104,
      "lÃ¤k": 5105,
      "hÃ¶g": 5106,
      "ĠSuper": 5107,
      "vÃ¤rde": 5108,
      "Ġbefolk": 5109,
      "Ġslags": 5110,
      "ĠSkulle": 5111,
      "fel": 5112,
      "ĠRum": 5113,
      "Ġov": 5114,
      "Ġtyst": 5115,
      "Ġstuden": 5116,
      "Ġtala": 5117,
      "Ġteam": 5118,
      "ĠhÃ¤ns": 5119,
      "ĠÃ¶ns": 5120,
      "laget": 5121,
      "ool": 5122,
      "ĠDal": 5123,
      "Â¤": 5124,
      "Ġenerg": 5125,
      "Ã¤ckning": 5126,
      "ĠfÃ¥g": 5127,
      "schef": 5128,
      "ĠMus": 5129,
      "rÃ¤k": 5130,
      "Ġmy": 5131,
      "Ġsent": 5132,
      "Ġ55": 5133,
      "RA": 5134,
      "ustr": 5135,
      "marna": 5136,
      "Ġlyx": 5137,
      "ffekt": 5138,
      "nÃ¤t": 5139,
      "har": 5140,
      "Ġref": 5141,
      "Ġoer": 5142,
      "Ġsnabba": 5143,
      "Ġwebbplatser": 5144,
      "lipp": 5145,
      "Ġproblemet": 5146,
      "Ġlyckats": 5147,
      "ĠvarumÃ¤rken": 5148,
      "sland": 5149,
      "Ġskyld": 5150,
      "mÃ¤kt": 5151,
      "Ġrenover": 5152,
      "sÃ¤g": 5153,
      "ytande": 5154,
      "istan": 5155,
      "ĠrÃ¶da": 5156,
      "Ã¤nderna": 5157,
      "nads": 5158,
      "ĠersÃ¤ttning": 5159,
      "Ġgrupper": 5160,
      "ssan": 5161,
      "Ġflykt": 5162,
      "Ġbotten": 5163,
      "start": 5164,
      "kap": 5165,
      "Ġdebatt": 5166,
      "ĠQu": 5167,
      "linjer": 5168,
      "jÃ¶d": 5169,
      "Ġupplevelse": 5170,
      "Ġbjuder": 5171,
      "Ġtecken": 5172,
      "ĠAlex": 5173,
      "ĠallmÃ¤nna": 5174,
      "Ġvardags": 5175,
      "vÃ¥rden": 5176,
      "ĠhÃ¤mta": 5177,
      "Ġfilmer": 5178,
      "ĠKram": 5179,
      "Ġdrift": 5180,
      "ius": 5181,
      "ĠGÃ¥": 5182,
      "Ã¤p": 5183,
      "ĠCity": 5184,
      "Ġomfattande": 5185,
      "Ġvari": 5186,
      "Ã¸": 5187,
      "yrÃ¥": 5188,
      "Ġmodeller": 5189,
      "Ġinfo": 5190,
      "Ġkampan": 5191,
      "ĠtillfÃ¤lle": 5192,
      "Ġomsorg": 5193,
      "ĠfÃ¶rÃ¤ndringar": 5194,
      "ĠSkriv": 5195,
      "ĠjÃ¤tte": 5196,
      "ĠhÃ¤lso": 5197,
      "Ġbod": 5198,
      "ensen": 5199,
      "Ġpolitiker": 5200,
      "ĠhÃ¥l": 5201,
      "Ġbutiker": 5202,
      "Ġ!": 5203,
      "Ġpositivt": 5204,
      "usin": 5205,
      "Ġgemensamma": 5206,
      "ĠstrÃ¥": 5207,
      "ĠslÃ¥r": 5208,
      "ĠTel": 5209,
      "les": 5210,
      "Ġmotsvarande": 5211,
      "fyll": 5212,
      "Ġcit": 5213,
      "Ġ09": 5214,
      "bilar": 5215,
      "Ġgill": 5216,
      "ĠmÃ¶ta": 5217,
      "Ġvackert": 5218,
      "Ġkonsekvens": 5219,
      "projekt": 5220,
      "Ġfyller": 5221,
      "ĠFÃ¥": 5222,
      "ĠAnd": 5223,
      "visa": 5224,
      "Ġinformationen": 5225,
      "ĠsÃ¤mre": 5226,
      "ekonom": 5227,
      "ea": 5228,
      "lov": 5229,
      "ĠinvÃ¥n": 5230,
      "Ġsocker": 5231,
      "ĠfÃ¶rhand": 5232,
      "aktion": 5233,
      "Ġlugnt": 5234,
      "ĠberÃ¤ttade": 5235,
      "Ġlivsmedel": 5236,
      "Ġera": 5237,
      "ira": 5238,
      "Ġout": 5239,
      "Ġmagen": 5240,
      "Ġparti": 5241,
      "ĠsÃ¤kra": 5242,
      "pac": 5243,
      "Ġinkomst": 5244,
      "UN": 5245,
      "ĠsjÃ¶": 5246,
      "lÃ¶st": 5247,
      "Ġsnabbare": 5248,
      "ĠIs": 5249,
      "ĠâĨĴ": 5250,
      "Ġunders": 5251,
      "ĠDanmark": 5252,
      "Ġfing": 5253,
      "Ġoffic": 5254,
      "ĠCasino": 5255,
      "Ġgruppen": 5256,
      "Ġyou": 5257,
      "Ġavgift": 5258,
      "Ġpersonlig": 5259,
      "god": 5260,
      "bladet": 5261,
      "ĠbekrÃ¤ft": 5262,
      "Ġgivetvis": 5263,
      "Ġilla": 5264,
      "itekt": 5265,
      "Ġroliga": 5266,
      "ĠFÃĸR": 5267,
      "ĠomÃ¶j": 5268,
      "slÃ¤pp": 5269,
      "angen": 5270,
      "ĠbegÃ¤r": 5271,
      "Ġyngre": 5272,
      "ĠfÃ¤rdig": 5273,
      "ĠKvinn": 5274,
      "ĠKn": 5275,
      "ĠLag": 5276,
      "Ġlopp": 5277,
      "Ġskratt": 5278,
      "central": 5279,
      "upport": 5280,
      "iff": 5281,
      "Ġfris": 5282,
      "Ġru": 5283,
      "aden": 5284,
      "Ġstycken": 5285,
      "Ġbeskriver": 5286,
      "Ġkram": 5287,
      "OS": 5288,
      "ĠstÃ¤ndigt": 5289,
      "ĠLed": 5290,
      "demokraterna": 5291,
      "gas": 5292,
      "Ġtider": 5293,
      "ĠVÃ¤n": 5294,
      "traf": 5295,
      "nabb": 5296,
      "oster": 5297,
      "Ġpotent": 5298,
      "ĠSVT": 5299,
      "fÃ¶ring": 5300,
      "ema": 5301,
      "Ġuttryck": 5302,
      "Ġmoderna": 5303,
      "Ã¶ld": 5304,
      "ĠPublic": 5305,
      "ĠfÃ¶relÃ¤s": 5306,
      "Ġringa": 5307,
      "Ġjuster": 5308,
      "ĠÌ": 5309,
      "film": 5310,
      "ĠStefan": 5311,
      "dela": 5312,
      "Ġkilometer": 5313,
      "ĠRom": 5314,
      "yrka": 5315,
      "atet": 5316,
      "ĠutvÃ¤r": 5317,
      "Ġrespekt": 5318,
      "Ġmassage": 5319,
      "Ġsepar": 5320,
      "ĠLÃ¤r": 5321,
      "anna": 5322,
      "ĠfÃ¶rhopp": 5323,
      "ĠTripAd": 5324,
      "ĠÃ¤mnen": 5325,
      "tur": 5326,
      "Ġax": 5327,
      "ĠLiv": 5328,
      "ĠÃħter": 5329,
      "ĠIP": 5330,
      "ĠÃ¶verra": 5331,
      "fÃ¤lt": 5332,
      "sjuk": 5333,
      "jobb": 5334,
      "ĠgrÃ¥": 5335,
      "Ġdigitala": 5336,
      "ĠDes": 5337,
      "ĠMich": 5338,
      "vak": 5339,
      "uga": 5340,
      "Ġenskilda": 5341,
      "ĠtillÃ¤gg": 5342,
      "Ġnack": 5343,
      "beroende": 5344,
      "ĠsvÃ¥ra": 5345,
      "ĠÃ¤t": 5346,
      "centr": 5347,
      "Ġspen": 5348,
      "go": 5349,
      "ĠNo": 5350,
      "orgen": 5351,
      "Ġveg": 5352,
      "jag": 5353,
      "sprocess": 5354,
      "wa": 5355,
      "Ġminns": 5356,
      "ama": 5357,
      "Ġflex": 5358,
      "sid": 5359,
      "Ġcom": 5360,
      "sked": 5361,
      "ĠRewardsFÃ¥": 5362,
      "Ġnytta": 5363,
      "edda": 5364,
      "Ġ36": 5365,
      "stolen": 5366,
      "service": 5367,
      "burg": 5368,
      "ĠLÃ¶": 5369,
      "Ġstick": 5370,
      "Ġresurser": 5371,
      "ĠAndre": 5372,
      "ĠJÃ¤mfÃ¶r": 5373,
      "Ġkonstigt": 5374,
      "vÃ¤rlden": 5375,
      "ĠpÃ¥gÃ¥r": 5376,
      "95": 5377,
      "fi": 5378,
      "44": 5379,
      "ĠVÃ¤x": 5380,
      "Ġinspiration": 5381,
      "brit": 5382,
      "Ġletar": 5383,
      "stÃ¤llningen": 5384,
      "ĠgrÃ¶n": 5385,
      "jung": 5386,
      "struktur": 5387,
      "ologisk": 5388,
      "anien": 5389,
      "ĠglÃ¤dje": 5390,
      "Ġbom": 5391,
      "olut": 5392,
      "isten": 5393,
      "ĠnÃ¶dvÃ¤ndigt": 5394,
      "dens": 5395,
      "ĠidÃ©er": 5396,
      "ĠÃ¶versÃ¤ttning": 5397,
      "ĠVan": 5398,
      "Ġskogen": 5399,
      "mel": 5400,
      "unk": 5401,
      "Ġsystemet": 5402,
      "Ġhav": 5403,
      "ĠRad": 5404,
      "ĠRyss": 5405,
      "rare": 5406,
      "Ġstartade": 5407,
      "Ġskul": 5408,
      "ĠsÃ¥nt": 5409,
      "ĠofÃ¶r": 5410,
      "Ġvuxen": 5411,
      "ventyr": 5412,
      "Ġrelation": 5413,
      "iam": 5414,
      "ĠStat": 5415,
      "fÃ¶ra": 5416,
      "ĠmÃ¶ter": 5417,
      "Ġrapport": 5418,
      "Ġmedia": 5419,
      "Ġkyrkan": 5420,
      "ĠVerk": 5421,
      "ĠsÃ¶der": 5422,
      "Ã¤vle": 5423,
      "kyl": 5424,
      "ĠGar": 5425,
      "ĠSyd": 5426,
      "ĠfÃ¶ljd": 5427,
      "ĠhÃ¤nsyn": 5428,
      "ĠmjÃ¶lk": 5429,
      "OL": 5430,
      "ockey": 5431,
      "Ġhundar": 5432,
      "ene": 5433,
      "rass": 5434,
      "staden": 5435,
      "Ġsvag": 5436,
      "eda": 5437,
      "ĠDÃ¤remot": 5438,
      "fulla": 5439,
      "Ġbefinner": 5440,
      "Ġavgifter": 5441,
      "Ġ33": 5442,
      "ĠDejting": 5443,
      "ĠsjÃ¶n": 5444,
      "anvÃ¤nd": 5445,
      "cer": 5446,
      "Ġmetoder": 5447,
      "PP": 5448,
      "ics": 5449,
      "ĠInt": 5450,
      "ĠdÃ¶m": 5451,
      "Ã¤nker": 5452,
      "ekan": 5453,
      "Ġhittills": 5454,
      "Ġtiteln": 5455,
      "ĠkÃ¤nslor": 5456,
      "OmdÃ¶met": 5457,
      "Ġpriserna": 5458,
      "Ġprivata": 5459,
      "ĠfjÃ¤rde": 5460,
      "icro": 5461,
      "britann": 5462,
      "ĠPass": 5463,
      "Ġperioden": 5464,
      "Ġdubbel": 5465,
      "ĠBest": 5466,
      "ĠBak": 5467,
      "Ġvarken": 5468,
      "Ġtum": 5469,
      "Ġminskar": 5470,
      "Ġkombination": 5471,
      "Ã¤sch": 5472,
      "Ġkarta": 5473,
      "Ġiniti": 5474,
      "ĠSkol": 5475,
      "Ġserien": 5476,
      "Ġhamnar": 5477,
      "iell": 5478,
      "46": 5479,
      "EK": 5480,
      "Ġ75": 5481,
      "Ġpool": 5482,
      "Ġskit": 5483,
      "skt": 5484,
      "ollar": 5485,
      "Ġblommor": 5486,
      "ĠFÃ¶rb": 5487,
      "ĠgrundlÃ¤ggande": 5488,
      "ĠfÃ¶rmodligen": 5489,
      "Ġsvarar": 5490,
      "Ġdriver": 5491,
      "egÃ¥ende": 5492,
      "Ġkunskaper": 5493,
      "ĠvÃ¥": 5494,
      "ĠÃ¤nda": 5495,
      "bon": 5496,
      "ĠfÃ¶rsÃ¶kte": 5497,
      "Ġpedagog": 5498,
      "Ġminim": 5499,
      "Ġsyss": 5500,
      "oritet": 5501,
      "----": 5502,
      "ĠÃ¶ppnar": 5503,
      "Ã¤kter": 5504,
      "Ġfylla": 5505,
      "Ġtyg": 5506,
      "Ġsvarta": 5507,
      "Ġsortiment": 5508,
      "saker": 5509,
      "ĠsjukvÃ¥rd": 5510,
      "Ġskiv": 5511,
      "ence": 5512,
      "ĠPla": 5513,
      "Ġgrad": 5514,
      "Ġgolv": 5515,
      "Ġkg": 5516,
      "ĠfÃ¶rsikt": 5517,
      "ĠFrankrike": 5518,
      "ningens": 5519,
      "Ġmaten": 5520,
      "Sk": 5521,
      "Ġtoppen": 5522,
      "Ġeleverna": 5523,
      "Ġomedelbart": 5524,
      "AB": 5525,
      "ĠId": 5526,
      "Ġerfarenheter": 5527,
      "ĠEner": 5528,
      "ase": 5529,
      "Ġnyheter": 5530,
      "ĠikvÃ¤ll": 5531,
      "Ġolyck": 5532,
      "gress": 5533,
      "ior": 5534,
      "Ġ07": 5535,
      "Ġbruk": 5536,
      "Ġmilit": 5537,
      "Ġbur": 5538,
      "ĠNÃ¥gon": 5539,
      "dagens": 5540,
      "ners": 5541,
      "rid": 5542,
      "Ġuts": 5543,
      "Ġenorm": 5544,
      "ĠfÃ¶rvar": 5545,
      "ĠmÃ¶nster": 5546,
      "ĠgenomfÃ¶ra": 5547,
      "Ġmuse": 5548,
      "ĠAt": 5549,
      "Ġfunnits": 5550,
      "ĠInnan": 5551,
      "ands": 5552,
      "yper": 5553,
      "Ġfukt": 5554,
      "Ġpriori": 5555,
      "Ġframtida": 5556,
      "Ġexkl": 5557,
      "ĠModer": 5558,
      "Ġserie": 5559,
      "ĠlÃ¥ngsikt": 5560,
      "Ġaktie": 5561,
      "Ġtapp": 5562,
      "Ġstartar": 5563,
      "Ġhyres": 5564,
      "resultat": 5565,
      "yndigheten": 5566,
      "Ġbegrepp": 5567,
      "Ġalbum": 5568,
      "deringar": 5569,
      "Ã¤mpa": 5570,
      "undersÃ¶k": 5571,
      "ĠPort": 5572,
      "Ġberg": 5573,
      "Ġkonferens": 5574,
      "Ġ32": 5575,
      "udd": 5576,
      "andid": 5577,
      "atch": 5578,
      "Ġvap": 5579,
      "ekar": 5580,
      "skl": 5581,
      "ĠParis": 5582,
      "ckade": 5583,
      "juka": 5584,
      "Ġtekniska": 5585,
      "Ġexp": 5586,
      "Ġjournali": 5587,
      "Ã¤llen": 5588,
      "ĠHelsingborg": 5589,
      "Ġadministr": 5590,
      "Ġrekr": 5591,
      "Ġorganisationer": 5592,
      "ĠMina": 5593,
      "Ġunderbara": 5594,
      "ĠDagens": 5595,
      "ĠframfÃ¶rallt": 5596,
      "trÃ¤": 5597,
      "Ġpersonen": 5598,
      "ĠUmeÃ¥": 5599,
      "Ġaktiv": 5600,
      "ĠNa": 5601,
      "intress": 5602,
      "Ġbilderna": 5603,
      "Ġ195": 5604,
      "ingarna": 5605,
      "Ġhyll": 5606,
      "ĠKultur": 5607,
      "Ġkorta": 5608,
      "Ġforum": 5609,
      "kod": 5610,
      "fart": 5611,
      "ĠPe": 5612,
      "Ġklin": 5613,
      "nars": 5614,
      "ĠFÃ¥r": 5615,
      "ĠPart": 5616,
      "uer": 5617,
      "usten": 5618,
      "arknaden": 5619,
      "oker": 5620,
      "Ġhyra": 5621,
      "Ġwebbplatsen": 5622,
      "ĠkÃ¤nt": 5623,
      "svall": 5624,
      "Ġutfor": 5625,
      "-,": 5626,
      "Ġ00": 5627,
      "ĠII": 5628,
      "48": 5629,
      "steg": 5630,
      "ÃĦR": 5631,
      "Ġkontin": 5632,
      "dustrin": 5633,
      "Ġnationella": 5634,
      "ĠSÃ¶k": 5635,
      "ĠNÃ¥got": 5636,
      "Ġmetod": 5637,
      "ĠÃ¶vertyg": 5638,
      "Ġog": 5639,
      "jar": 5640,
      "fort": 5641,
      "ĠSlut": 5642,
      "okal": 5643,
      "Ġbefint": 5644,
      "Ġresan": 5645,
      "Ġpositiv": 5646,
      "punkter": 5647,
      "Ġ..": 5648,
      "ĠnÃ¤rvarande": 5649,
      "Ġinstitut": 5650,
      "Ã¤ngen": 5651,
      "ĠMil": 5652,
      "Ġredo": 5653,
      "Ã¤cken": 5654,
      "Ġpositiva": 5655,
      "ĠjÃ¤v": 5656,
      "Ġaf": 5657,
      "Ġjobbat": 5658,
      "Ġverksamheter": 5659,
      "aner": 5660,
      "Ġspringa": 5661,
      "vic": 5662,
      "ĠfÃ¤ng": 5663,
      "Ġavseende": 5664,
      "ĠanlÃ¤gg": 5665,
      "ĠVilket": 5666,
      "Ġkak": 5667,
      "Ġsalt": 5668,
      "ĠkaraktÃ¤r": 5669,
      "Ġeffektivt": 5670,
      "ĠhÃ¥ret": 5671,
      "ĠFÃ¶lj": 5672,
      "Ġaktivt": 5673,
      "Ġdro": 5674,
      "Ġinsatser": 5675,
      ".,": 5676,
      "Ġwith": 5677,
      "Ġmikro": 5678,
      "Ġappar": 5679,
      "ĠbrÃ¶llop": 5680,
      "Ġarrang": 5681,
      "ance": 5682,
      "briken": 5683,
      "delsen": 5684,
      "Ġunika": 5685,
      "ĠoerhÃ¶rt": 5686,
      "ĠÃĸvr": 5687,
      "ĠrÃ¤kna": 5688,
      "olja": 5689,
      "Ġglada": 5690,
      "Ġ38": 5691,
      "ĠProjekt": 5692,
      "ategori": 5693,
      "Ġhandling": 5694,
      "Ġerbjuds": 5695,
      "IL": 5696,
      "ĠDr": 5697,
      "sund": 5698,
      "Ġgal": 5699,
      "Ġmotiver": 5700,
      "Ġkop": 5701,
      "Ġfixa": 5702,
      "onym": 5703,
      "ĠEle": 5704,
      "Ġtydlig": 5705,
      "fÃ¶rl": 5706,
      "Ġsymbol": 5707,
      "ĠlÃ¤mn": 5708,
      "Ġcon": 5709,
      "Ġsvarade": 5710,
      "ĠvÃ¤xa": 5711,
      "isering": 5712,
      "ĠBel": 5713,
      "Ġnaturen": 5714,
      "valda": 5715,
      "anschen": 5716,
      "Ġskrift": 5717,
      "ĠfÃ¶ret": 5718,
      "Ġrepresent": 5719,
      "ĠTw": 5720,
      "fisk": 5721,
      "Ġtycka": 5722,
      "ĠbrÃ¶d": 5723,
      "38": 5724,
      "ĠfÃ¶rutsÃ¤ttning": 5725,
      "ĠKost": 5726,
      "Ġkallar": 5727,
      "Ġdiagn": 5728,
      "gÃ¥ngar": 5729,
      "49": 5730,
      "smÃ¤ss": 5731,
      "otta": 5732,
      "Ġrid": 5733,
      "inen": 5734,
      "Ġorsa": 5735,
      "ĠMag": 5736,
      "ĠkÃ¶n": 5737,
      "aterna": 5738,
      "ĠTekn": 5739,
      "Ġtol": 5740,
      "ĠWe": 5741,
      "ĠDavid": 5742,
      "ĠsÃ¤ngen": 5743,
      "US": 5744,
      "stall": 5745,
      "Ġ150": 5746,
      "Ġunderbar": 5747,
      "Ġvaror": 5748,
      "varor": 5749,
      "Ġavanc": 5750,
      "betalning": 5751,
      "edia": 5752,
      "Ġkompis": 5753,
      "ĠbehÃ¶vde": 5754,
      "ĠVM": 5755,
      "ĠmÃ¥naden": 5756,
      "Ã¤ckte": 5757,
      "Ġtillb": 5758,
      "meddel": 5759,
      "Ġsand": 5760,
      "ĠOrd": 5761,
      "ĠavgÃ¶rande": 5762,
      "Ġmotsvar": 5763,
      "rarna": 5764,
      "skort": 5765,
      "skost": 5766,
      "ĠframgÃ¥ngs": 5767,
      "Ġtotal": 5768,
      "ked": 5769,
      "ĠÃ¤m": 5770,
      "naderna": 5771,
      "Ġ400": 5772,
      "ĠÌģ": 5773,
      "ĠUng": 5774,
      "ĠtillfÃ¤llen": 5775,
      "ĠhÃ¤rliga": 5776,
      "ĠmÃ¤ngder": 5777,
      "entals": 5778,
      "omrÃ¥de": 5779,
      "ĠkÃ¶ket": 5780,
      "Ġrakt": 5781,
      "grupper": 5782,
      "vÃ¤rm": 5783,
      "ĠNyheter": 5784,
      "britannien": 5785,
      "partiet": 5786,
      "ĠWindows": 5787,
      "ĠUtan": 5788,
      "Ġpdf": 5789,
      "Ã¥rs": 5790,
      "ĠlÃ¤nk": 5791,
      "Ġgud": 5792,
      "miÃ¤r": 5793,
      "ĠBlack": 5794,
      "kommande": 5795,
      "ĠtillgÃ¤nglig": 5796,
      "Ġeventuella": 5797,
      "ĠmÃ¶tt": 5798,
      "tion": 5799,
      "lista": 5800,
      "ĠlÃ¥gt": 5801,
      "ĠDjur": 5802,
      "mant": 5803,
      "Ġvd": 5804,
      "ĠlÃ¤mnade": 5805,
      "Ġledam": 5806,
      "ĠbostÃ¤der": 5807,
      "ĠEg": 5808,
      "olvet": 5809,
      "umma": 5810,
      "byggnad": 5811,
      "Ġtri": 5812,
      "fÃ¶rsÃ¤kring": 5813,
      "ĠTrans": 5814,
      "ĠsvÃ¤ng": 5815,
      "Ġundantag": 5816,
      "ĠbesvÃ¤r": 5817,
      "Â¥": 5818,
      "Ġextremt": 5819,
      "ness": 5820,
      "36": 5821,
      "ĠÃ¥terv": 5822,
      "arta": 5823,
      "Ġformer": 5824,
      "Ġegenskaper": 5825,
      "ĠStora": 5826,
      "ffektiv": 5827,
      "ĠHela": 5828,
      "risk": 5829,
      "imul": 5830,
      "ĠFVOF": 5831,
      "ĠDN": 5832,
      "ĠJonas": 5833,
      "elserna": 5834,
      "Ġkok": 5835,
      "ission": 5836,
      "tom": 5837,
      "ledes": 5838,
      "lÃ¶sa": 5839,
      "ĠTripAdvisor": 5840,
      "istisk": 5841,
      "Ġwh": 5842,
      "bank": 5843,
      "Ġsituationen": 5844,
      "Ġ196": 5845,
      "ĠgrÃ¤s": 5846,
      "Ġskador": 5847,
      "Ġsnygga": 5848,
      "ĠfÃ¶rbund": 5849,
      "ĠRegion": 5850,
      "box": 5851,
      "ĠfullstÃ¤nd": 5852,
      "ĠlÃ¥ga": 5853,
      "rodu": 5854,
      "Ġskickar": 5855,
      "venemang": 5856,
      "Ġna": 5857,
      "amÃ¥l": 5858,
      "Ġunderbart": 5859,
      "Ġgift": 5860,
      "Ġ2005": 5861,
      "Ã¶pa": 5862,
      "hund": 5863,
      "strument": 5864,
      "registr": 5865,
      "oris": 5866,
      "itel": 5867,
      "Ġverifierade": 5868,
      "ktionen": 5869,
      "ĠfÃ¶reningen": 5870,
      "ĠFlera": 5871,
      "Ġstads": 5872,
      "taget": 5873,
      "ĠStyr": 5874,
      "vÃ¤n": 5875,
      "any": 5876,
      "Ġsmitt": 5877,
      "ĠpopulÃ¤r": 5878,
      "shop": 5879,
      "Ġskjut": 5880,
      "ĠPet": 5881,
      "Ġsyd": 5882,
      "ĠBir": 5883,
      "ĠrÃ¶k": 5884,
      "ĠstÃ¶tt": 5885,
      "ĠAnt": 5886,
      "liv": 5887,
      "yrkan": 5888,
      "Ġsekt": 5889,
      "bildning": 5890,
      "ftar": 5891,
      "Ġentrepren": 5892,
      "utera": 5893,
      "ĠstÃ¤llen": 5894,
      "Ġvarav": 5895,
      "Ġupplever": 5896,
      "skat": 5897,
      "botten": 5898,
      "inter": 5899,
      "Ġrund": 5900,
      "Ġintressanta": 5901,
      "Ġnere": 5902,
      "Ġdriva": 5903,
      "ĠÃ¶gonen": 5904,
      "bÃ¶r": 5905,
      "ĠRik": 5906,
      "Ġmol": 5907,
      "kall": 5908,
      "ĠRestaur": 5909,
      "ĠBeng": 5910,
      "Ġskull": 5911,
      "Ġprodukten": 5912,
      "Ġtidningen": 5913,
      "ĠÃ¤ventyr": 5914,
      "Ã¤rta": 5915,
      "hal": 5916,
      "ugga": 5917,
      "Ġledar": 5918,
      "Ġordet": 5919,
      "Ã¤ngning": 5920,
      "spolit": 5921,
      "ĠHenrik": 5922,
      "Ġartikeln": 5923,
      "ĠÃĸpp": 5924,
      "dal": 5925,
      "nsam": 5926,
      "ĠGÃ¤vle": 5927,
      "Ġskydda": 5928,
      "slan": 5929,
      "fÃ¶rbundet": 5930,
      "ĠinkÃ¶p": 5931,
      "ĠTillvÃ¤xt": 5932,
      "ĠBjÃ¶rn": 5933,
      "Ġurval": 5934,
      "iller": 5935,
      "CA": 5936,
      "dÃ¥": 5937,
      "Ġbetrakt": 5938,
      "Ġstrand": 5939,
      "Re": 5940,
      "ikationer": 5941,
      "Ġfika": 5942,
      "spris": 5943,
      "Ġgrym": 5944,
      "ee": 5945,
      "Ġklassiska": 5946,
      "stiden": 5947,
      "kadem": 5948,
      "Ġarbetat": 5949,
      "ange": 5950,
      "Ġuppfy": 5951,
      "Ġoriginalet": 5952,
      "upplev": 5953,
      "Ġgranskar": 5954,
      "skrifter": 5955,
      "Ġot": 5956,
      "Ġkamer": 5957,
      "ĠfÃ¶rmÃ¥n": 5958,
      "cc": 5959,
      "ĠCol": 5960,
      "Ġmom": 5961,
      "Ġjorden": 5962,
      "sport": 5963,
      "Ġoffentliga": 5964,
      "Ġlitter": 5965,
      "sliga": 5966,
      "Ġtorsdag": 5967,
      "ĠKoll": 5968,
      "inarie": 5969,
      "ĠInom": 5970,
      "Ġgrunden": 5971,
      "Ã¤vling": 5972,
      "39": 5973,
      "ĠUppdat": 5974,
      "ĠWh": 5975,
      "Ġutrymme": 5976,
      "ĠBank": 5977,
      "alj": 5978,
      "Ã¤ngt": 5979,
      "Ã¶gon": 5980,
      "ĠTra": 5981,
      "tok": 5982,
      "ĠSten": 5983,
      "Ġslutar": 5984,
      "Ġlive": 5985,
      "ĠItalien": 5986,
      "ĠSof": 5987,
      "ĠsÃ¶t": 5988,
      "rep": 5989,
      "ĠvÃ¤nda": 5990,
      "ĠMika": 5991,
      "ĠHelt": 5992,
      "Ġvila": 5993,
      "ĠhÃ¤lften": 5994,
      "ssons": 5995,
      "produkter": 5996,
      "ĠAg": 5997,
      "bra": 5998,
      "Ġskil": 5999,
      "Ġstaten": 6000,
      "ĠstÃ¤llning": 6001,
      "kass": 6002,
      "Ġpatient": 6003,
      "EM": 6004,
      "Ġbedriv": 6005,
      "Ġhall": 6006,
      "!)": 6007,
      "byte": 6008,
      "somrÃ¥de": 6009,
      "Ġskolor": 6010,
      "Ġskid": 6011,
      "ĠBÃ¥de": 6012,
      "idrag": 6013,
      "Ġsinglar": 6014,
      "Ġuppleva": 6015,
      "Ġinre": 6016,
      "ĠKommer": 6017,
      "Ġaktier": 6018,
      "ĠVÃ¥rt": 6019,
      "ĠhushÃ¥ll": 6020,
      "Ġ37": 6021,
      "Ġriktiga": 6022,
      "ĠmÃ¶rk": 6023,
      "fullt": 6024,
      "Ġnyckel": 6025,
      "ĠÃ¥l": 6026,
      "Ġ65": 6027,
      "ĠundersÃ¶kning": 6028,
      "ĠRÃ¤tt": 6029,
      "Ġhundra": 6030,
      "Ġporr": 6031,
      "ĠgrÃ¶na": 6032,
      "Ġnio": 6033,
      "Ġox": 6034,
      "Ġtanken": 6035,
      "ĠMagnus": 6036,
      "xor": 6037,
      "Ġversion": 6038,
      "Ġkrist": 6039,
      "ĠKalmar": 6040,
      "Ġfaktum": 6041,
      "eten": 6042,
      "beh": 6043,
      "pool": 6044,
      "ĠDo": 6045,
      "Ġdricka": 6046,
      "Ġtydligen": 6047,
      "ĠAktiebolag": 6048,
      "ĠSpeci": 6049,
      "Ġsjukt": 6050,
      "Ġartiklar": 6051,
      "ĠlÃ¤ste": 6052,
      "cy": 6053,
      "Ġkvalit": 6054,
      "amer": 6055,
      "Ġstyrelsen": 6056,
      "ĠÃ¶l": 6057,
      "ros": 6058,
      "Ġbu": 6059,
      "Ġstranden": 6060,
      "Ġhunnit": 6061,
      "ĠVÃ¤stra": 6062,
      "kul": 6063,
      "oret": 6064,
      "isera": 6065,
      "Ġvintern": 6066,
      "Ġklubben": 6067,
      "skrift": 6068,
      "Ġresor": 6069,
      "ĠhÃ¤nde": 6070,
      "Ġgif": 6071,
      "Ġsamla": 6072,
      "37": 6073,
      "ares": 6074,
      "ual": 6075,
      "Ġsven": 6076,
      "Ġmyndigheter": 6077,
      "lÃ¥n": 6078,
      "satser": 6079,
      "ladd": 6080,
      "Ġaut": 6081,
      "ĠjÃ¤mfÃ¶ra": 6082,
      "ordet": 6083,
      "utik": 6084,
      "ikal": 6085,
      "Ġnaturligt": 6086,
      "ĠKron": 6087,
      "Ġrek": 6088,
      "Ġuppl": 6089,
      "Ġskickas": 6090,
      "EG": 6091,
      "ĠOff": 6092,
      "Ġ34": 6093,
      "Ġanges": 6094,
      "ĠNe": 6095,
      "ĠtÃ¥r": 6096,
      "ĠnÃ¥r": 6097,
      "ĠMel": 6098,
      "ivÃ¥n": 6099,
      "Ġpga": 6100,
      "prov": 6101,
      "ĠSD": 6102,
      "ĠGÃ¶teborgs": 6103,
      "Ġdesto": 6104,
      "ĠanvÃ¤nt": 6105,
      "Ġdefinitivt": 6106,
      "ĠstÃ¥l": 6107,
      "Ġspelat": 6108,
      "rikes": 6109,
      "Ġorkar": 6110,
      "stud": 6111,
      "sper": 6112,
      "Ġvinner": 6113,
      "Ġtaget": 6114,
      "Ġaktiva": 6115,
      "Ġelektron": 6116,
      "ĠuppmÃ¤rksam": 6117,
      "ĠbedÃ¶mning": 6118,
      "aser": 6119,
      "Ġutrustning": 6120,
      "Ġforskare": 6121,
      "stÃ¤llda": 6122,
      "Ã¥riga": 6123,
      "usentals": 6124,
      "ĠVÃ¤rm": 6125,
      "kten": 6126,
      "Ã¤nnen": 6127,
      "ley": 6128,
      "onder": 6129,
      "ĠfÃ¶rtroende": 6130,
      "resor": 6131,
      "ĠBad": 6132,
      "rÃ¥ket": 6133,
      "ĠIng": 6134,
      "Ġhinner": 6135,
      "ĠanvÃ¤n": 6136,
      "ĠkÃ¤nslan": 6137,
      "Ġnoggr": 6138,
      "Ġiaf": 6139,
      "ĠRyssland": 6140,
      "set": 6141,
      "Ġop": 6142,
      "ĠhjÃ¤rtat": 6143,
      ":)": 6144,
      "Ġinvand": 6145,
      "ino": 6146,
      "ĠvÃ¤lkommen": 6147,
      "Ġfinansiella": 6148,
      "information": 6149,
      "Ġuppman": 6150,
      "ĠfÃ¥ng": 6151,
      "ĠNet": 6152,
      "skad": 6153,
      "histor": 6154,
      "Ġgn": 6155,
      "mus": 6156,
      "ogga": 6157,
      "ĠAnnars": 6158,
      "ĠhjÃ¤rta": 6159,
      "anal": 6160,
      "ĠSara": 6161,
      "ĠtjÃ¤nsten": 6162,
      "Ġskiljer": 6163,
      "Ġflash": 6164,
      "ano": 6165,
      "Ġarbetsl": 6166,
      "fattning": 6167,
      "Ġbarns": 6168,
      "ĠCenter": 6169,
      "bal": 6170,
      "ĠTex": 6171,
      "ĠFlyg": 6172,
      "Ġjobbigt": 6173,
      "material": 6174,
      "ranger": 6175,
      "fs": 6176,
      "Ġlevande": 6177,
      "spol": 6178,
      "Ġstig": 6179,
      "HL": 6180,
      "Ã¤nka": 6181,
      "ordningen": 6182,
      "enhet": 6183,
      "Ġsaknas": 6184,
      "ii": 6185,
      "ĠsmÃ¤rt": 6186,
      "ĠHÃ¥ll": 6187,
      "ĠReger": 6188,
      "Ġciv": 6189,
      "ĠrÃ¤tta": 6190,
      "dition": 6191,
      "ĠStorbritannien": 6192,
      "ĠKur": 6193,
      "Ġgemensamt": 6194,
      "jande": 6195,
      "Ġrosa": 6196,
      "do": 6197,
      "nare": 6198,
      "atu": 6199,
      "ĠgrÃ¶ns": 6200,
      "Ġokej": 6201,
      "ĠDÃ¥lig": 6202,
      "Ġkontrollera": 6203,
      "ĠSystem": 6204,
      "Ġsocialt": 6205,
      "Ã¤mna": 6206,
      "Ġpersonuppgifter": 6207,
      "Ġsprid": 6208,
      "huvud": 6209,
      "Ġug": 6210,
      "ĠsÃ¤rskilda": 6211,
      "Ġbalkon": 6212,
      "au": 6213,
      "Ġengagemang": 6214,
      "pot": 6215,
      "Ġlagstift": 6216,
      "takter": 6217,
      "Ġdram": 6218,
      "ĠPrecis": 6219,
      "Ġsyster": 6220,
      "onden": 6221,
      "34": 6222,
      "ĠTo": 6223,
      "ĠJack": 6224,
      "terad": 6225,
      "sbruk": 6226,
      "tokoll": 6227,
      "ĠjÃ¤mn": 6228,
      "Ġfritt": 6229,
      "ningsfÃ¶r": 6230,
      "Ġunik": 6231,
      "Ġinstall": 6232,
      "Ġomgiv": 6233,
      "grÃ¤n": 6234,
      "ĠThomas": 6235,
      "Ġlandsting": 6236,
      "Ġkommunens": 6237,
      "stÃ¤m": 6238,
      "ĠKontakta": 6239,
      "ruv": 6240,
      "uft": 6241,
      "ĠMad": 6242,
      "Ã¶tet": 6243,
      "domar": 6244,
      "Ã¶nstret": 6245,
      "ĠDÃ¤refter": 6246,
      "lagd": 6247,
      "ĠRikt": 6248,
      "Ġgrill": 6249,
      "ĠfÃ¶rening": 6250,
      "orld": 6251,
      "ela": 6252,
      "vil": 6253,
      "Ġgolf": 6254,
      "ssÃ¤tt": 6255,
      "ĠAs": 6256,
      "Ġvanligaste": 6257,
      "ivare": 6258,
      "ĠSpanien": 6259,
      "spunkt": 6260,
      "ĠIS": 6261,
      "Ġstudenter": 6262,
      "Ġskuld": 6263,
      "Ġskade": 6264,
      "ĠMats": 6265,
      "Den": 6266,
      "Ġ39": 6267,
      "Ã¶vning": 6268,
      "ĠmÃ¶ten": 6269,
      "avtal": 6270,
      "ĠhÃ¤nger": 6271,
      "anser": 6272,
      "ls": 6273,
      "Ġsilver": 6274,
      "rimin": 6275,
      "Ġerbjudande": 6276,
      "onger": 6277,
      "ĠtrÃ¤ffar": 6278,
      "ĠkÃ¤rn": 6279,
      "lagt": 6280,
      "Ġdeltagare": 6281,
      "ĠÃ¶versÃ¤ttningen": 6282,
      "55": 6283,
      "ĠGener": 6284,
      "entil": 6285,
      "ĠpÃ¥sk": 6286,
      "rael": 6287,
      "ival": 6288,
      "mÃ¤ktige": 6289,
      "lades": 6290,
      "Ġmotiv": 6291,
      "ugan": 6292,
      "Ġstudent": 6293,
      "Ġbeslutet": 6294,
      "ĠonÃ¶d": 6295,
      "Ġsekunder": 6296,
      "Ġlandets": 6297,
      "egr": 6298,
      "PS": 6299,
      "ĠDig": 6300,
      "32": 6301,
      "Ġbrett": 6302,
      "Ġrepresen": 6303,
      "ĠutfÃ¶ra": 6304,
      "ĠfrÃ¤sch": 6305,
      "sÃ¤tter": 6306,
      "center": 6307,
      "ĠEva": 6308,
      "ĠSS": 6309,
      "Ġonsdag": 6310,
      "ĠfrÃ¥gade": 6311,
      "ĠBÃ¶r": 6312,
      "Ġlokaler": 6313,
      "ĠbÃ¤ra": 6314,
      "Ġep": 6315,
      "stjÃ¤rn": 6316,
      "ini": 6317,
      "ode": 6318,
      "komma": 6319,
      "Ġtyck": 6320,
      "ĠGÃ¶": 6321,
      "ekr": 6322,
      "inister": 6323,
      "Ġblock": 6324,
      "ĠWill": 6325,
      "ĠgrÃ¤ns": 6326,
      "hall": 6327,
      "Ġomfattar": 6328,
      "ĠfÃ¶rrÃ¤n": 6329,
      "ĠPri": 6330,
      "ĠBu": 6331,
      "ibel": 6332,
      "ĠintrÃ¤ff": 6333,
      "Ġtotala": 6334,
      "ĠfÃ¶rekommer": 6335,
      "ripande": 6336,
      "ĠFler": 6337,
      "ĠrengÃ¶r": 6338,
      "ĠJesus": 6339,
      "ĠKonst": 6340,
      "ĠtÃ¤t": 6341,
      "Ã¡": 6342,
      "Ġbytt": 6343,
      "Ġstolt": 6344,
      "verkar": 6345,
      "ĠgÃ¶teborg": 6346,
      "Ġsovrum": 6347,
      "kro": 6348,
      "Ġpul": 6349,
      "Ġbanan": 6350,
      "ĠBen": 6351,
      "Ġsnyggt": 6352,
      "ĠAx": 6353,
      "ĠLÃ¥ng": 6354,
      "ĠinvÃ¥nare": 6355,
      "ĠJenn": 6356,
      "besÃ¶k": 6357,
      "Ġvapen": 6358,
      "Ã¤nns": 6359,
      "sverket": 6360,
      "âĢľ": 6361,
      "ĠÃ¥terger": 6362,
      "mos": 6363,
      "umer": 6364,
      "egel": 6365,
      "ĠsÃ¶dra": 6366,
      "somrÃ¥den": 6367,
      "outube": 6368,
      "ĠfÃ¤lt": 6369,
      "Ġsajt": 6370,
      "Ġmiljon": 6371,
      "pla": 6372,
      "Ġfakta": 6373,
      "Ġsatsa": 6374,
      "De": 6375,
      "Ġmarken": 6376,
      "savgift": 6377,
      "**": 6378,
      "igera": 6379,
      "ĠdÃ¶rren": 6380,
      "ĠfÃ¶rstÃ¶r": 6381,
      "iellt": 6382,
      "ĠMe": 6383,
      "ĠFÃ¶rbÃ¤ttra": 6384,
      "ebra": 6385,
      "artik": 6386,
      "ĠPlats": 6387,
      "Ġautomatiskt": 6388,
      "ĠNik": 6389,
      "ĠSjÃ¶": 6390,
      "liggande": 6391,
      "ĠlÃ¤get": 6392,
      "ĠmiljÃ¶n": 6393,
      "ettider": 6394,
      "ĠGusta": 6395,
      "Ġslipper": 6396,
      "ĠlÃ¤ngst": 6397,
      "ĠsÃ¶nder": 6398,
      "Ġkallad": 6399,
      "Ġdiskutera": 6400,
      "ĠframÃ¶ver": 6401,
      "verka": 6402,
      "rak": 6403,
      "trÃ¤ff": 6404,
      "fo": 6405,
      "ĠnÃ¥gonstans": 6406,
      "Ġelev": 6407,
      "Ġcancer": 6408,
      "ĠmÃ¶tet": 6409,
      "imm": 6410,
      "ĠrÃ¤dda": 6411,
      "Ġsoffan": 6412,
      "Ġbyggnad": 6413,
      "vision": 6414,
      "Ã¶ster": 6415,
      "sjÃ¶n": 6416,
      "rats": 6417,
      "mÃ¥": 6418,
      "Ġlust": 6419,
      "ĠMass": 6420,
      "ĠfÃ¤st": 6421,
      "Ġrese": 6422,
      "Ġsms": 6423,
      "Ġnaturliga": 6424,
      "ĠCl": 6425,
      "47": 6426,
      "link": 6427,
      "ĠleverantÃ¶r": 6428,
      "rop": 6429,
      "ĠLÃ¤n": 6430,
      "Ã¥rig": 6431,
      "kÃ¶pings": 6432,
      "Ġrem": 6433,
      "ij": 6434,
      "ĠBeach": 6435,
      "ĠLarsson": 6436,
      "Ġkors": 6437,
      "ĠVit": 6438,
      "Ġfaller": 6439,
      "vÃ¤rme": 6440,
      "bjudanden": 6441,
      "Ġtju": 6442,
      "ĠrÃ¤knas": 6443,
      "Ġuppm": 6444,
      "Ġtrygghet": 6445,
      "Ġtvungen": 6446,
      "Ġfria": 6447,
      "skole": 6448,
      "Ġhelhet": 6449,
      "Ġinitiativ": 6450,
      "Ġvac": 6451,
      "ĠExpress": 6452,
      "ĠHandel": 6453,
      "ĠavstÃ¥nd": 6454,
      "bana": 6455,
      "somrÃ¥det": 6456,
      "Ġmaxim": 6457,
      "unskap": 6458,
      "hone": 6459,
      "Ġmobilen": 6460,
      "Ġkallt": 6461,
      "ĠPlan": 6462,
      "ĠKro": 6463,
      "Ã¤ger": 6464,
      "sbygg": 6465,
      "ĠTillsammans": 6466,
      "Ġkommunal": 6467,
      "Ġyr": 6468,
      "ĠJe": 6469,
      "troller": 6470,
      "Ã¶jligheter": 6471,
      "Ġsjukdomar": 6472,
      "ĠTom": 6473,
      "Ã©er": 6474,
      "yrning": 6475,
      "Ġmult": 6476,
      "ega": 6477,
      "Ġarranger": 6478,
      "ĠbestÃ¤mma": 6479,
      "gu": 6480,
      "Ġleta": 6481,
      "Ġpresident": 6482,
      "Ġul": 6483,
      "Ġdos": 6484,
      "ĠvÃ¤nder": 6485,
      ".[": 6486,
      "Ġfant": 6487,
      "ĠÃ¥sikter": 6488,
      "Ġminsta": 6489,
      "ĠSvart": 6490,
      "batten": 6491,
      "Ġinner": 6492,
      "sprodu": 6493,
      "Ġment": 6494,
      "ĠSweden": 6495,
      "fir": 6496,
      "ĠÃħrets": 6497,
      "ĠfÃ¶rdelar": 6498,
      "ĠCa": 6499,
      "Ġkritik": 6500,
      "ĠnÃ¶jda": 6501,
      "drarna": 6502,
      "Ġekonomisk": 6503,
      "Ã¤ter": 6504,
      "Ġbesked": 6505,
      "Ġng": 6506,
      "ĠuppmÃ¤rksamhet": 6507,
      "ĠOavsett": 6508,
      "Ġort": 6509,
      "Ġnoga": 6510,
      "spart": 6511,
      "ĠBal": 6512,
      "Ġkontrakt": 6513,
      "ĠBilliga": 6514,
      "ĠfÃ¶rebygg": 6515,
      "ĠTotalt": 6516,
      "slam": 6517,
      "ums": 6518,
      "lagen": 6519,
      "ĠuppstÃ¥r": 6520,
      "Ġtillverkare": 6521,
      "kra": 6522,
      "ĠstÃ¤mmer": 6523,
      ".....": 6524,
      "ony": 6525,
      "ĠifrÃ¥g": 6526,
      "Ġnoll": 6527,
      "pten": 6528,
      "ĠInnehÃ¥ll": 6529,
      "ĠkarriÃ¤r": 6530,
      "Ġblom": 6531,
      "platt": 6532,
      "dju": 6533,
      "Ã¤stare": 6534,
      "orget": 6535,
      "rot": 6536,
      "utan": 6537,
      "Ġkris": 6538,
      "Ġplaner": 6539,
      "ĠbestÃ¤mmer": 6540,
      "hÃ¤mt": 6541,
      "flytt": 6542,
      "ylt": 6543,
      "Ġpratade": 6544,
      "ĠfÃ¶rfattare": 6545,
      "Ã¤mnden": 6546,
      "Ġfyr": 6547,
      "Ġ:-)": 6548,
      "AND": 6549,
      "ĠfÃ¶retags": 6550,
      "ĠFamilj": 6551,
      "Ã¤nnisk": 6552,
      "ĠsjÃ¤l": 6553,
      "Ġverkligheten": 6554,
      "ĠleverantÃ¶rer": 6555,
      "Ġresul": 6556,
      "Ġkonser": 6557,
      "ialis": 6558,
      "pacitet": 6559,
      "?!": 6560,
      "Ġpersonalen": 6561,
      "ĠrÃ¶ra": 6562,
      "100": 6563,
      "Ġansvarar": 6564,
      "UT": 6565,
      "ĠlÃ¤mnat": 6566,
      "ĠkÃ¤nn": 6567,
      "Ã¥ngen": 6568,
      "smat": 6569,
      "Ġkab": 6570,
      "jÃ¤nst": 6571,
      "IV": 6572,
      "Ġsamling": 6573,
      "formen": 6574,
      "ĠJul": 6575,
      "Ġskaffa": 6576,
      "aa": 6577,
      "ĠframgÃ¥r": 6578,
      "Ġsaken": 6579,
      "tog": 6580,
      "Ġenlighet": 6581,
      "ĠfÃ¶rklara": 6582,
      "ĠMilj": 6583,
      "asa": 6584,
      "Ġkraftigt": 6585,
      "Ġ1000": 6586,
      "ĠalltfÃ¶r": 6587,
      "behandling": 6588,
      "Ġavser": 6589,
      "ĠfÃ¶dels": 6590,
      "Ġtyska": 6591,
      "ĠvÃ¤rsta": 6592,
      "ĠNICK": 6593,
      "Ġgrov": 6594,
      "ĠÃ¶verlev": 6595,
      "Ġinfekt": 6596,
      "ĠOS": 6597,
      "ĠMÃ¥n": 6598,
      "ĠFick": 6599,
      "Ġkurser": 6600,
      "ĠSkatt": 6601,
      "ivande": 6602,
      "Ġwid": 6603,
      "Ġreserv": 6604,
      "ĠPlay": 6605,
      "serien": 6606,
      "rediens": 6607,
      "unna": 6608,
      "adrat": 6609,
      "astro": 6610,
      "pre": 6611,
      "Ġtexten": 6612,
      "ĠdÃ¤ck": 6613,
      "ĠfÃ¶rny": 6614,
      "Ġhttps": 6615,
      "ĠhÃ¤nga": 6616,
      "ĠmaskinÃ¶versÃ¤ttningar": 6617,
      "ĠKarlsson": 6618,
      "Ġutmaningar": 6619,
      "ĠhÃ¤star": 6620,
      "ĠmÃ¤ss": 6621,
      "ĠLinkÃ¶ping": 6622,
      "ationerna": 6623,
      "bolaget": 6624,
      "Ġbutiken": 6625,
      "Ġdekor": 6626,
      "ĠOCH": 6627,
      "ĠrÃ¤nta": 6628,
      "Ġisol": 6629,
      "ĠrÃ¶relse": 6630,
      "Ġmysigt": 6631,
      "ĠsÃ¶mn": 6632,
      "Ġ2004": 6633,
      "ĠTror": 6634,
      "enskomm": 6635,
      "Ġinkluderar": 6636,
      "Ġfortsatte": 6637,
      "ustra": 6638,
      "ĠBengt": 6639,
      "ĠvÃ¤rm": 6640,
      "omrÃ¥den": 6641,
      "Ġtoal": 6642,
      "omma": 6643,
      "ĠklÃ¤d": 6644,
      "BS": 6645,
      "Ġlagom": 6646,
      "ĠvÃ¤s": 6647,
      "Ġregistrering": 6648,
      "Ar": 6649,
      "89": 6650,
      "Ġgransk": 6651,
      "ikar": 6652,
      "Ġstatistik": 6653,
      "Ġare": 6654,
      "ocken": 6655,
      "sspel": 6656,
      "ION": 6657,
      "Ġlinje": 6658,
      "Ġbritt": 6659,
      "ĠlÃ¤t": 6660,
      "bef": 6661,
      "iteter": 6662,
      "konst": 6663,
      "pad": 6664,
      "rapport": 6665,
      "ĠfrÃ¥gar": 6666,
      "ullar": 6667,
      "ĠStart": 6668,
      "ĠfÃ¶remÃ¥l": 6669,
      "juter": 6670,
      "glas": 6671,
      "ĠMy": 6672,
      "Ġposition": 6673,
      "boken": 6674,
      "arknad": 6675,
      "ynt": 6676,
      "Ġryggen": 6677,
      "ĠslÃ¤ppa": 6678,
      "rom": 6679,
      "Ġplanerar": 6680,
      "ael": 6681,
      "gra": 6682,
      "Ġfelakt": 6683,
      "Ġder": 6684,
      "ĠtrÃ¤nar": 6685,
      "Ġutav": 6686,
      "Ġstyrka": 6687,
      "ĠdÃ¥liga": 6688,
      "ĠpÃ¥bÃ¶rj": 6689,
      "Ġskatte": 6690,
      "Ã¤nger": 6691,
      "Ġdelvis": 6692,
      "ĠTidigare": 6693,
      "ĠfÃ¶rklarar": 6694,
      "Ġmissl": 6695,
      "eed": 6696,
      "Ġsnitt": 6697,
      "Ġnorra": 6698,
      "Ġporn": 6699,
      "Ġskapat": 6700,
      "Ġhanden": 6701,
      "Ġkoncentr": 6702,
      "ĠInter": 6703,
      "mÃ¥ga": 6704,
      "Ġarbetsgiv": 6705,
      "Ġbredvid": 6706,
      "ĠSP": 6707,
      "Ġtycks": 6708,
      "ĠlÃ¤ngd": 6709,
      "ĠpÃ¤r": 6710,
      "ĠsÃ¤llskap": 6711,
      "ĠÃ¶verallt": 6712,
      "ĠtrÃ¤nare": 6713,
      "Ġutomlands": 6714,
      "Ġdigital": 6715,
      "Ġskott": 6716,
      "igaste": 6717,
      "Ġdollar": 6718,
      "Ġhann": 6719,
      "ĠbestÃ¤mde": 6720,
      "ĠuppnÃ¥": 6721,
      "Ġmotion": 6722,
      "fast": 6723,
      "ĠsevÃ¤rd": 6724,
      "ustrali": 6725,
      "kes": 6726,
      "vag": 6727,
      "Visa": 6728,
      "hail": 6729,
      "Ġsko": 6730,
      "lÃ¶sning": 6731,
      "vok": 6732,
      "Ġkvinnan": 6733,
      "Ġorgan": 6734,
      "way": 6735,
      "ĠbehÃ¥lla": 6736,
      "cell": 6737,
      "ĠRedan": 6738,
      "Ġho": 6739,
      "The": 6740,
      "sfull": 6741,
      "Ġaktiver": 6742,
      "skÃ¥p": 6743,
      "fre": 6744,
      "Ġfolket": 6745,
      "hn": 6746,
      "ĠlÃ¤genheter": 6747,
      "Ġkillar": 6748,
      "ĠfÃ¶rsÃ¶kt": 6749,
      "Ġhemmet": 6750,
      "landet": 6751,
      "ĠlÃ¤ns": 6752,
      "Ġbodde": 6753,
      "ĠmarknadsfÃ¶ring": 6754,
      "lekar": 6755,
      "ĠSpar": 6756,
      "ĠvÃ¤rre": 6757,
      "Ġcy": 6758,
      "Ġfundera": 6759,
      "ĠvÃ¤lkomna": 6760,
      "Ġbehandlas": 6761,
      "Ġintresserade": 6762,
      "ĠsvÃ¥rare": 6763,
      "Ã¥ren": 6764,
      "Ġmoms": 6765,
      "Ġtisdag": 6766,
      "ath": 6767,
      "vel": 6768,
      "ĠProgram": 6769,
      "que": 6770,
      "ĠrejÃ¤lt": 6771,
      "Ġflyttade": 6772,
      "OT": 6773,
      "ĠFN": 6774,
      "Ġhell": 6775,
      "ĠhÃ¤ndelser": 6776,
      "ĠaktÃ¶rer": 6777,
      "Ġfred": 6778,
      "ĠvÃ¤ster": 6779,
      "Ġreag": 6780,
      "ĠtjÃ¤na": 6781,
      "Ġregering": 6782,
      "leÃ¥": 6783,
      "ĠvÃ¥gar": 6784,
      "ĠlÃ¤rt": 6785,
      "ĠÃ¤mnet": 6786,
      "ĠWest": 6787,
      "Ġsw": 6788,
      "issionen": 6789,
      "ale": 6790,
      "Ġstyrelse": 6791,
      "pas": 6792,
      "rafiken": 6793,
      "Ġanslutning": 6794,
      "ĠStar": 6795,
      "Ġweb": 6796,
      "Ġinomhus": 6797,
      "skottet": 6798,
      "Ġfamiljer": 6799,
      "Ġskar": 6800,
      "ile": 6801,
      "ĠLÃ¤k": 6802,
      "ng": 6803,
      "cm": 6804,
      "ĠvÃ¤dret": 6805,
      "ĠPaul": 6806,
      "ingsliv": 6807,
      "sfÃ¶rs": 6808,
      "Ġslit": 6809,
      "Ġkvadrat": 6810,
      "allad": 6811,
      "ĠCam": 6812,
      "ĠLo": 6813,
      "ĠMikael": 6814,
      "Ġnormal": 6815,
      "ĠnÃ¥tt": 6816,
      "Ġflashback": 6817,
      "ĠHuvud": 6818,
      "Ġeventuellt": 6819,
      "Ġmobilt": 6820,
      "kontor": 6821,
      "ĠmÃ¤nskliga": 6822,
      "Ġbesv": 6823,
      "mas": 6824,
      "erings": 6825,
      "ssam": 6826,
      "ĠPersson": 6827,
      "Ã¤nsla": 6828,
      "ĠVatten": 6829,
      "Ġvolym": 6830,
      "Ġledning": 6831,
      "Ġdialog": 6832,
      "Ġbakt": 6833,
      "Ġkung": 6834,
      "Ġhjul": 6835,
      "ĠKarin": 6836,
      "Ġ=)": 6837,
      "Ġhat": 6838,
      "Ġstimul": 6839,
      "ĠSmÃ¥": 6840,
      "alle": 6841,
      "ĠSamman": 6842,
      "Ã¤rare": 6843,
      "ĠfrÃ¤msta": 6844,
      "banan": 6845,
      "Ġaning": 6846,
      "Ġknappast": 6847,
      "rÃ¤de": 6848,
      "Ġregi": 6849,
      "ĠMS": 6850,
      "Ġhej": 6851,
      "Ġbilligare": 6852,
      "ĠomstÃ¤nd": 6853,
      "Ġminuters": 6854,
      "Ġlyfta": 6855,
      "hop": 6856,
      "sbyg": 6857,
      "ĠuppfÃ¶lj": 6858,
      "Ġloss": 6859,
      "Ġingrediens": 6860,
      "ND": 6861,
      "ĠtrÃ¥kigt": 6862,
      "roid": 6863,
      "ĠMicro": 6864,
      "Ġjack": 6865,
      "Ġvanligtvis": 6866,
      "rin": 6867,
      "ĠtillbehÃ¶r": 6868,
      "ĠsÃ¤rskild": 6869,
      "skron": 6870,
      "Ġgolvet": 6871,
      "Ġwe": 6872,
      "Ġdog": 6873,
      "Ġluften": 6874,
      "serligen": 6875,
      "ĠfÃ¶rmed": 6876,
      "ifiera": 6877,
      "nÃ¤s": 6878,
      "Ġtax": 6879,
      "ĠbÃ¶n": 6880,
      "problem": 6881,
      "Ġsituationer": 6882,
      "ivis": 6883,
      "Ġgas": 6884,
      "ĠnÃ¤rings": 6885,
      "ĠMarie": 6886,
      "ĠomÃ¶jligt": 6887,
      "mass": 6888,
      "ĠMari": 6889,
      "Ġtusen": 6890,
      "Ġ48": 6891,
      "Ġmask": 6892,
      "oriter": 6893,
      "Ġassist": 6894,
      "Ġmetall": 6895,
      "ĠTopp": 6896,
      "ĠGot": 6897,
      "Ġlitteratur": 6898,
      "iabet": 6899,
      "Ġjurid": 6900,
      "ĠKort": 6901,
      "andin": 6902,
      "ĠSyftet": 6903,
      "ĠSenaste": 6904,
      "Ġdygnet": 6905,
      "bered": 6906,
      "FF": 6907,
      "Ã¤mpar": 6908,
      "ĠBas": 6909,
      "pi": 6910,
      "ĠvÃ¤gar": 6911,
      "vÃ¤st": 6912,
      "vÃ¤": 6913,
      "ze": 6914,
      "ĠHÃ¥": 6915,
      "stin": 6916,
      "Ã¤nkte": 6917,
      "ĠNed": 6918,
      "Ġintill": 6919,
      "Ã¥ta": 6920,
      "ĠLadda": 6921,
      "Ġsign": 6922,
      "Ã¶rerna": 6923,
      "ĠVÃ¤sterÃ¥s": 6924,
      "gat": 6925,
      "Ġretur": 6926,
      "ĠEt": 6927,
      "Ra": 6928,
      "eman": 6929,
      "ĠIK": 6930,
      "sbrev": 6931,
      "vetenskap": 6932,
      "ĠSnabb": 6933,
      "Ġvarv": 6934,
      "Ġfunderar": 6935,
      "Ġutrust": 6936,
      "ray": 6937,
      "Ġrekry": 6938,
      "nr": 6939,
      "Ġpotatis": 6940,
      "ĠavslÃ¶j": 6941,
      "ĠtillfÃ¤llet": 6942,
      "ĠfÃ¶rhÃ¥llanden": 6943,
      "ĠfÃ¶rstÃ¥else": 6944,
      "ĠBre": 6945,
      "Ã¥ring": 6946,
      "ĠRiks": 6947,
      "Ġbelopp": 6948,
      "Ġgyn": 6949,
      "ĠsmÃ¤rta": 6950,
      "Ġoffentlig": 6951,
      "Ġlekt": 6952,
      "Ġlaga": 6953,
      "Ġtt": 6954,
      "dena": 6955,
      "Ġbransch": 6956,
      "Ġdiskussion": 6957,
      "Ġbetalning": 6958,
      "ĠsjÃ¤lvstÃ¤nd": 6959,
      "ĠMac": 6960,
      "Ġintrodu": 6961,
      "Ġuttry": 6962,
      "ĠBeslut": 6963,
      "ĠmedfÃ¶r": 6964,
      "ĠExempel": 6965,
      "ĠBy": 6966,
      "ĠVidare": 6967,
      "ĠSkor": 6968,
      "ove": 6969,
      "Ġovanligt": 6970,
      "ĠVic": 6971,
      "omin": 6972,
      "Ġfaktorer": 6973,
      "Ã¤da": 6974,
      "asy": 6975,
      "ross": 6976,
      "Ġdikt": 6977,
      "Ġimp": 6978,
      "Ġkunden": 6979,
      "anmÃ¤l": 6980,
      "ĠDating": 6981,
      "sÃ¤tta": 6982,
      "matt": 6983,
      "Ġrefle": 6984,
      "ĠSwed": 6985,
      "sprojekt": 6986,
      "Ġattack": 6987,
      "Ġnyfiken": 6988,
      "Ġbeb": 6989,
      "ĠEriksson": 6990,
      "iget": 6991,
      "Ġkortare": 6992,
      "dast": 6993,
      "rit": 6994,
      "anne": 6995,
      "Ġlagar": 6996,
      "Ġstannar": 6997,
      "ĠfÃ¶restÃ¤ll": 6998,
      "IC": 6999,
      "ĠJÃ¶nkÃ¶ping": 7000,
      "ĠTycker": 7001,
      "ĠHD": 7002,
      "allafall": 7003,
      "ĠsÃ¥ledes": 7004,
      "Ġtrivs": 7005,
      "Ġkartan": 7006,
      "Ĥ¬": 7007,
      "ĠÃ¶nskemÃ¥l": 7008,
      "ĠHÃ¶r": 7009,
      "yrÃ¥n": 7010,
      "ĠVD": 7011,
      "ape": 7012,
      "ĠsÃ¤kerstÃ¤lla": 7013,
      "Ġgrann": 7014,
      "zon": 7015,
      "Ġhunden": 7016,
      "redovis": 7017,
      "Ġutredning": 7018,
      "umin": 7019,
      "ĠlÃ¤mnas": 7020,
      "Ġdim": 7021,
      "personer": 7022,
      "ĠfÃ¶rsvinner": 7023,
      "beskrivning": 7024,
      "familj": 7025,
      "enta": 7026,
      "Ġbag": 7027,
      "atin": 7028,
      "blÃ¥": 7029,
      "ĠJuli": 7030,
      "Ġvarma": 7031,
      "ĠÃ¤pp": 7032,
      "ĠHal": 7033,
      "ĠÃ¶verg": 7034,
      "Ġnerv": 7035,
      "ĠnÃ¤rmast": 7036,
      "42": 7037,
      "ĠupptÃ¤cka": 7038,
      "iox": 7039,
      "Ġtermin": 7040,
      "centrum": 7041,
      "osof": 7042,
      "Ġutstr": 7043,
      "Ġolja": 7044,
      "attis": 7045,
      "Ġnot": 7046,
      "Ġkursen": 7047,
      "ĠfÃ¤rre": 7048,
      "ĠKons": 7049,
      "ĠpÃ¥m": 7050,
      "ĠbehÃ¶r": 7051,
      "):": 7052,
      "Ġbevilj": 7053,
      "sex": 7054,
      "oper": 7055,
      "ĠbostadsrÃ¤tt": 7056,
      "ĠOlof": 7057,
      "ĠkonstnÃ¤r": 7058,
      "Ã¤ttning": 7059,
      "stekn": 7060,
      "Ġjulkla": 7061,
      "ĠÃ¤lskade": 7062,
      "Ġprocessen": 7063,
      "Ġarbetsgivare": 7064,
      "Ġrelationer": 7065,
      "Ġ{": 7066,
      "ĠHy": 7067,
      "ĠÃ¤ndamÃ¥l": 7068,
      "Ġsynd": 7069,
      "bryt": 7070,
      "strand": 7071,
      "splatsen": 7072,
      "skolor": 7073,
      "ĠsÃ¤gs": 7074,
      "Ġandel": 7075,
      "Ġsannolikt": 7076,
      "ĠCor": 7077,
      "ĠEmma": 7078,
      "bad": 7079,
      "Ġkompletter": 7080,
      "ulture": 7081,
      "ĠNov": 7082,
      "Ġriskerar": 7083,
      "Ġda": 7084,
      "ĠLid": 7085,
      "ĠWik": 7086,
      "zny": 7087,
      "Ġsvenskar": 7088,
      "ivalen": 7089,
      "ĠallmÃ¤nt": 7090,
      "ĠTrum": 7091,
      "ĠstÃ¤rka": 7092,
      "Ġutvalda": 7093,
      "Ġapotek": 7094,
      "ĠMellan": 7095,
      "sbr": 7096,
      "Ã¤nningar": 7097,
      "Ġdrabbas": 7098,
      "usiness": 7099,
      "Ġfira": 7100,
      "repp": 7101,
      "Ġekonomiskt": 7102,
      "ĠlÃ¶ne": 7103,
      "Ġsty": 7104,
      "Ġdamm": 7105,
      "Ġdla": 7106,
      "andinav": 7107,
      "Ġfysiska": 7108,
      "ĠÃĸr": 7109,
      "ĠrÃ¤knar": 7110,
      "ĠSkog": 7111,
      "Ġyta": 7112,
      "urt": 7113,
      "Ġthis": 7114,
      "ĠutÃ¶ver": 7115,
      "UR": 7116,
      "Ġhant": 7117,
      "Ã¶tterna": 7118,
      "useum": 7119,
      "Ġ250": 7120,
      "ĠFun": 7121,
      "Ġannonser": 7122,
      "anych": 7123,
      "Ġlicens": 7124,
      "EA": 7125,
      "owanych": 7126,
      "Ġzalog": 7127,
      "oczny": 7128,
      "Ġwidoczny": 7129,
      "Ġzalogowanych": 7130,
      "vÃ¤rda": 7131,
      "paket": 7132,
      "Ġsorg": 7133,
      "ĠvÃ¤t": 7134,
      "Ġfinna": 7135,
      "Ġtraditionella": 7136,
      "ĠtÃ¥l": 7137,
      "ush": 7138,
      "ĠundersÃ¶ka": 7139,
      "ty": 7140,
      "ĠberÃ¶m": 7141,
      "Ġvaccin": 7142,
      "eriet": 7143,
      "Ġattrakt": 7144,
      "frika": 7145,
      "Ġthai": 7146,
      "Ã¤lje": 7147,
      "Â°": 7148,
      "ĠlÃ¤genheten": 7149,
      "scort": 7150,
      "ĠAlltsÃ¥": 7151,
      "Ġutseende": 7152,
      "ĠÃ¤mne": 7153,
      "slig": 7154,
      "Ġcert": 7155,
      "ĠPo": 7156,
      "Ġarkitekt": 7157,
      "Ġexklus": 7158,
      "ĠinnebÃ¤ra": 7159,
      "Ġanalyser": 7160,
      "kval": 7161,
      "ĠRÃ¶r": 7162,
      "skaps": 7163,
      "istiskt": 7164,
      "soft": 7165,
      "ĠFastighet": 7166,
      "Ġtypen": 7167,
      "Ġindivider": 7168,
      "ĠtrÃ¤dgÃ¥rden": 7169,
      "Ġminne": 7170,
      "ĠdÃ¶da": 7171,
      "Ġenheter": 7172,
      "Ġbetalnings": 7173,
      "ĠskÃ¥de": 7174,
      "ĠrÃ¤tten": 7175,
      "Ġaller": 7176,
      "Ġanord": 7177,
      "Ġfac": 7178,
      "Ġshopping": 7179,
      "Ã¤va": 7180,
      "ĠallmÃ¤nhet": 7181,
      "disk": 7182,
      "jÃ¤rt": 7183,
      "ĠlÃ¤sare": 7184,
      "ĠAndreas": 7185,
      "ĠBolaget": 7186,
      "hÃ¤ng": 7187,
      "Ġtolk": 7188,
      "Ã¶ck": 7189,
      "Ġtjock": 7190,
      "........": 7191,
      "ĠIstÃ¤llet": 7192,
      "ĠfÃ¶delsedag": 7193,
      "ned": 7194,
      "Ġledde": 7195,
      "sar": 7196,
      "Ġringde": 7197,
      "Ġcor": 7198,
      "stjÃ¤nst": 7199,
      "funktion": 7200,
      "Ġfranska": 7201,
      "Ġstorm": 7202,
      "Ġ2003": 7203,
      "Ġ600": 7204,
      "ĠfÃ¶ra": 7205,
      "ĠRob": 7206,
      "draget": 7207,
      "Ġglass": 7208,
      "Ġansvarig": 7209,
      "isterna": 7210,
      "elle": 7211,
      "branschen": 7212,
      "emp": 7213,
      "ĠWebb": 7214,
      "phone": 7215,
      "ĠDis": 7216,
      "alk": 7217,
      "Ġtry": 7218,
      "Ġsvenskt": 7219,
      "ĠHolm": 7220,
      "Ġgjorts": 7221,
      "ĠMc": 7222,
      "ĠGustaf": 7223,
      "oppa": 7224,
      "Ġeleg": 7225,
      "ortera": 7226,
      "ĠrÃ¤d": 7227,
      "programmet": 7228,
      "Ġsant": 7229,
      "ĠbjÃ¶d": 7230,
      "vention": 7231,
      "hot": 7232,
      "ĠGÃ¶ran": 7233,
      "hr": 7234,
      "ensa": 7235,
      "Ġoberoende": 7236,
      "Ġprop": 7237,
      "ĠEngland": 7238,
      "Ġbefintliga": 7239,
      "grunden": 7240,
      "ĠNÃ¤t": 7241,
      "Ġkrimin": 7242,
      "ĠJord": 7243,
      "Ġsmid": 7244,
      "tÃ¤lje": 7245,
      "ctor": 7246,
      "Ġfrihet": 7247,
      "limat": 7248,
      "ĠWi": 7249,
      "Ġgodis": 7250,
      "Ġhistorien": 7251,
      "Ġansiktet": 7252,
      "ĠosÃ¤ker": 7253,
      "llertid": 7254,
      "Ġbetalas": 7255,
      "Ġhemsidan": 7256,
      "olan": 7257,
      "ites": 7258,
      "vall": 7259,
      "Ġskett": 7260,
      "43": 7261,
      "Ã¤ckar": 7262,
      "olin": 7263,
      "ĠÃ¶vervÃ¤g": 7264,
      "ĠBur": 7265,
      "Ġpil": 7266,
      "sal": 7267,
      "teknik": 7268,
      "Ġrekommend": 7269,
      "Ġflyttar": 7270,
      "ĠprÃ¤g": 7271,
      "Ġinb": 7272,
      "Ġverklighet": 7273,
      "ĠAp": 7274,
      "Ġkoppla": 7275,
      "ĠÃ¤kta": 7276,
      "inte": 7277,
      "ĠTer": 7278,
      "efte": 7279,
      "Ġifall": 7280,
      "bÃ¶cker": 7281,
      "ĠStrÃ¶m": 7282,
      "fattare": 7283,
      "Ġpresentation": 7284,
      "ĠfÃ¶rvÃ¥": 7285,
      "mellertid": 7286,
      "Ġkill": 7287,
      "vÃ¤rk": 7288,
      "Ġkandid": 7289,
      "Ġrepar": 7290,
      "Ġuppfattning": 7291,
      "Ġbeteende": 7292,
      "ĠLena": 7293,
      "ĠSamt": 7294,
      "orth": 7295,
      "Ġkoncept": 7296,
      "Ġhoppa": 7297,
      "Ġkollegor": 7298,
      "aktioner": 7299,
      "ĠSpa": 7300,
      "ssp": 7301,
      "ĠÃ¥terigen": 7302,
      "meter": 7303,
      "ĠFrÃ¥gan": 7304,
      "ney": 7305,
      "Ġkonsument": 7306,
      "aby": 7307,
      "ĠAss": 7308,
      "ĠtÃ¤vlingen": 7309,
      "arch": 7310,
      "Ġkontakter": 7311,
      "ĠlÃ¤nken": 7312,
      "Ġskatter": 7313,
      "ĠkÃ¶rt": 7314,
      "mun": 7315,
      "jo": 7316,
      "ĠGustav": 7317,
      "Ġsupport": 7318,
      "Ġgjordes": 7319,
      "ockar": 7320,
      "skrona": 7321,
      "trafik": 7322,
      "fallet": 7323,
      "Ġexpl": 7324,
      "Ġkomplex": 7325,
      "Ġsurf": 7326,
      "Ġfoto": 7327,
      "mak": 7328,
      "kÃ¤r": 7329,
      "Ġstoppa": 7330,
      "Ġevenemang": 7331,
      "Ġtrapp": 7332,
      "Ġhandlade": 7333,
      "sfÃ¶retag": 7334,
      "satsen": 7335,
      "Ġmotsvarar": 7336,
      "ĠHÃ¶": 7337,
      "ĠRobert": 7338,
      "Ġsugen": 7339,
      "lle": 7340,
      "ĠBlir": 7341,
      "ĠInget": 7342,
      "Ġsamlat": 7343,
      "ĠpÃ¥verkas": 7344,
      "verktyg": 7345,
      "Ġtrend": 7346,
      "ĠfÃ¶reslÃ¥r": 7347,
      "rupp": 7348,
      "Ġslott": 7349,
      "ĠRen": 7350,
      "Ġdyker": 7351,
      "Ġtyn": 7352,
      "Ġgaranter": 7353,
      "Ġgrej": 7354,
      "ĠanmÃ¤lan": 7355,
      "Ġpublik": 7356,
      "skill": 7357,
      "ava": 7358,
      "cia": 7359,
      "Â¶": 7360,
      "Ġavst": 7361,
      "Ġstarkare": 7362,
      "ĠinnehÃ¥llet": 7363,
      "adress": 7364,
      "Ġsynner": 7365,
      "Ġfabrik": 7366,
      "vor": 7367,
      "Ġeffekter": 7368,
      "jas": 7369,
      "former": 7370,
      "ĠHÃ¤l": 7371,
      "ĠSundsvall": 7372,
      "Ġduktig": 7373,
      "Ġrea": 7374,
      "Ġdomstol": 7375,
      "ĠVolv": 7376,
      "gnos": 7377,
      "Ġbos": 7378,
      "blogg": 7379,
      "Ġspeciella": 7380,
      "emed": 7381,
      "ĠhÃ¶rde": 7382,
      "ender": 7383,
      "svÃ¤gen": 7384,
      "Ġbenen": 7385,
      "ĠBorÃ¥s": 7386,
      "Ġrob": 7387,
      "Ġsover": 7388,
      "Ġvardagen": 7389,
      "Ġutbildningen": 7390,
      "vÃ¥": 7391,
      "ĠTrafik": 7392,
      "Ġiallafall": 7393,
      "Ġdum": 7394,
      "77": 7395,
      "Ġskillnaden": 7396,
      "ĠDon": 7397,
      "fÃ¶rbund": 7398,
      "aska": 7399,
      "varna": 7400,
      "Ġuppmunt": 7401,
      "litter": 7402,
      "ĠbestÃ¤mmelser": 7403,
      "Ġreser": 7404,
      "Ġbeskrivning": 7405,
      "produktion": 7406,
      "ĠiPhone": 7407,
      "Ġinslag": 7408,
      "ekul": 7409,
      "ĠRam": 7410,
      "Ġeld": 7411,
      "ĠfÃ¶rstÃ¤r": 7412,
      "Ġdemon": 7413,
      "Ġraka": 7414,
      "che": 7415,
      "ĠHitt": 7416,
      "Ġstadens": 7417,
      "Ġveter": 7418,
      "ĠArk": 7419,
      "Ġinredning": 7420,
      "FS": 7421,
      "Ġtidig": 7422,
      "Ġorganisationen": 7423,
      "yns": 7424,
      "rastruktur": 7425,
      "Ġmake": 7426,
      "ĠOlsson": 7427,
      "Ġlediga": 7428,
      "ĠNorrkÃ¶ping": 7429,
      "41": 7430,
      "ĠEric": 7431,
      "Bra": 7432,
      "Ġtel": 7433,
      "ĠGer": 7434,
      "arken": 7435,
      "ĠFÃ¶rra": 7436,
      "ĠJap": 7437,
      "ĠRapp": 7438,
      "Ġyour": 7439,
      "Ġappen": 7440,
      "skrav": 7441,
      "Ġvistelse": 7442,
      "Ġchat": 7443,
      "Ġbox": 7444,
      "Ġlant": 7445,
      "ĠtrÃ¤ffade": 7446,
      "Ġboendet": 7447,
      "Ġkines": 7448,
      "ĠÃ¥ngest": 7449,
      "institut": 7450,
      "Ġventil": 7451,
      "uset": 7452,
      "ĠupptÃ¤ckt": 7453,
      "Ã¥dan": 7454,
      "slÃ¤get": 7455,
      "ĠBostad": 7456,
      "ĠFÃ¶rsÃ¤kring": 7457,
      "yckling": 7458,
      "ĠOk": 7459,
      "Ġsyftar": 7460,
      "Ġkontra": 7461,
      "ĠgÃ¥rd": 7462,
      "Ġstyra": 7463,
      "Ġbibliotek": 7464,
      "Ġdagligen": 7465,
      "Du": 7466,
      "alisering": 7467,
      "skare": 7468,
      "UtmÃ¤rkt": 7469,
      "ĠEM": 7470,
      "Ġryska": 7471,
      "ĠSjuk": 7472,
      "cus": 7473,
      "ĠangÃ¥ende": 7474,
      "Ġvag": 7475,
      "sted": 7476,
      "ĠEkonom": 7477,
      "ĠlÃ¶pande": 7478,
      "Ġplanen": 7479,
      "Ã¤genhet": 7480,
      "Ġsamverkan": 7481,
      "spelet": 7482,
      "ĠfÃ¶rslaget": 7483,
      "itim": 7484,
      "ĠHell": 7485,
      "ologiskt": 7486,
      "Ġeuropeiska": 7487,
      "Ã¤song": 7488,
      "ĠApple": 7489,
      "Ġutforska": 7490,
      "Ã¶de": 7491,
      "ĠfÃ¶rhoppningsvis": 7492,
      "ĠGrund": 7493,
      "ĠBoka": 7494,
      "ĠlÃ¤nkar": 7495,
      "Ġrena": 7496,
      "ĠutgÃ¥r": 7497,
      "Ġplanering": 7498,
      "Ġstrategi": 7499,
      "Ġspets": 7500,
      "verse": 7501,
      "lÃ¥t": 7502,
      "Ã¥ringen": 7503,
      "Ġspeciell": 7504,
      "ĠanvÃ¤nde": 7505,
      "pend": 7506,
      "Nr": 7507,
      "Ġspelas": 7508,
      "Ã¦": 7509,
      "onde": 7510,
      "Ġflertal": 7511,
      "Ã¤nkande": 7512,
      "Ġoj": 7513,
      "visar": 7514,
      "Ġsyr": 7515,
      "Ġprotein": 7516,
      "Ġbio": 7517,
      "ua": 7518,
      "gin": 7519,
      "eningar": 7520,
      "ĠbelÃ¤get": 7521,
      "ĠEmil": 7522,
      "ited": 7523,
      "venskan": 7524,
      "ĠmÃ¤rkt": 7525,
      "meddelande": 7526,
      "ĠKul": 7527,
      "KT": 7528,
      "ĠWall": 7529,
      "Ġleverera": 7530,
      "ese": 7531,
      "ansvarig": 7532,
      "ĠFinans": 7533,
      "Ġlocka": 7534,
      "Ġresp": 7535,
      "Ã¤nkta": 7536,
      "Ġsiffror": 7537,
      "Ġfokusera": 7538,
      "edÃ¶m": 7539,
      "innan": 7540,
      "ĠSamma": 7541,
      "ĠMobil": 7542,
      "ĠpremiÃ¤r": 7543,
      "Ġinkom": 7544,
      "igheterna": 7545,
      "ĠinsÃ¤ttning": 7546,
      "Ġ120": 7547,
      "ĠEli": 7548,
      "ĠutstrÃ¤ckning": 7549,
      "uel": 7550,
      "ĠGa": 7551,
      "Ġtroligen": 7552,
      "sug": 7553,
      "Ġtvingas": 7554,
      "ĠVerksamhet": 7555,
      "ĠlÃ¤der": 7556,
      "ismen": 7557,
      "ĠVÃ¤xjÃ¶": 7558,
      "ĠjÃ¤ttebra": 7559,
      "ĠPriv": 7560,
      "ĠGÃ¶tal": 7561,
      "ĠÃ¤tit": 7562,
      "ĠfÃ¶rÃ¤ndra": 7563,
      "sken": 7564,
      "Ġost": 7565,
      "Ġanstr": 7566,
      "Ġpaus": 7567,
      "Ġlyft": 7568,
      "Ġturn": 7569,
      "Ġtydliga": 7570,
      "ribut": 7571,
      "Till": 7572,
      "lerna": 7573,
      "sgatan": 7574,
      "oci": 7575,
      "ĠLik": 7576,
      "Ġtolv": 7577,
      "Ġkontinuer": 7578,
      "Ġvarierar": 7579,
      "Â®": 7580,
      "Ġakut": 7581,
      "ĠLuleÃ¥": 7582,
      "Ġinternationell": 7583,
      "Ġsingel": 7584,
      "ĠProblem": 7585,
      "ĠRos": 7586,
      "ĠJos": 7587,
      "Ġlades": 7588,
      "ĠlÃ¤rande": 7589,
      "olution": 7590,
      "ĠCat": 7591,
      "tagen": 7592,
      "ĠKarlstad": 7593,
      "Ġgul": 7594,
      "ĠYtter": 7595,
      "Ġku": 7596,
      "?\"": 7597,
      "66": 7598,
      "ĠCan": 7599,
      "Ġalli": 7600,
      "Ġriktning": 7601,
      "ĠHammar": 7602,
      "mÃ¥n": 7603,
      "ĠMÃ¥ste": 7604,
      "ĠlÃ¥tar": 7605,
      "ĠÃħh": 7606,
      "oter": 7607,
      "Ġtabell": 7608,
      "koppling": 7609,
      "Ġkompon": 7610,
      "ĠVeg": 7611,
      "jÃ¶rn": 7612,
      "Ġinser": 7613,
      "Ġumg": 7614,
      "berÃ¤tt": 7615,
      "bÃ¥t": 7616,
      "sfall": 7617,
      "Ã¤ckande": 7618,
      "gg": 7619,
      "Ġpassade": 7620,
      "ĠUtÃ¶ver": 7621,
      "ĠwebblÃ¤s": 7622,
      "fÃ¶rening": 7623,
      "Fr": 7624,
      "ĠOrg": 7625,
      "Ġteater": 7626,
      "Ġfal": 7627,
      "ĠfÃ¶rsamling": 7628,
      "ĠfÃ¶retagen": 7629,
      "landa": 7630,
      "ĠAntal": 7631,
      "ml": 7632,
      "ĠVI": 7633,
      "jÃ¤ll": 7634,
      "servera": 7635,
      "Ġtryggt": 7636,
      "ĠRing": 7637,
      "Ġhellre": 7638,
      "ĠvÃ¥rden": 7639,
      "Ġpraktiken": 7640,
      "Ġup": 7641,
      "ĠrÃ¤nt": 7642,
      "123": 7643,
      "ĠgÃ¤lla": 7644,
      "Ã¥gan": 7645,
      "ĠAli": 7646,
      "OK": 7647,
      "hantering": 7648,
      "Ġslippa": 7649,
      "ĠKÃ¶pa": 7650,
      "ĠfÃ¶ll": 7651,
      "inari": 7652,
      "ĠgrÃ¤nsen": 7653,
      "ĠhÃ¤ft": 7654,
      "ĠComm": 7655,
      "Ġutvecklar": 7656,
      "ĠanstÃ¤llning": 7657,
      "Ġunderlag": 7658,
      "Ġtomt": 7659,
      "ĠIsland": 7660,
      "Ġkristna": 7661,
      "hotell": 7662,
      "Ġhinder": 7663,
      "sstil": 7664,
      "regler": 7665,
      "Ġbist": 7666,
      "Ġtabl": 7667,
      "ĠfÃ¶retagets": 7668,
      "atiska": 7669,
      "Ġpraktiska": 7670,
      "Ġdeltar": 7671,
      "Ġgaran": 7672,
      "ks": 7673,
      "Ġargument": 7674,
      "Ġledningen": 7675,
      "ostadress": 7676,
      "Ġtav": 7677,
      "Ġhinna": 7678,
      "ĠVÃ¥rd": 7679,
      "ĠsnÃ¤ll": 7680,
      "skog": 7681,
      "Ġ42": 7682,
      "skop": 7683,
      "Ġkommunala": 7684,
      "eterare": 7685,
      "Ġll": 7686,
      "ĠvÃ¤xter": 7687,
      "ĠjÃ¤mfÃ¶relse": 7688,
      "Ġforsknings": 7689,
      "Ġutbildnings": 7690,
      "egrÃ¤ns": 7691,
      "rax": 7692,
      "85": 7693,
      "Men": 7694,
      "Ġanpassa": 7695,
      "ĠÃ¥tgÃ¤rd": 7696,
      "ĠJobb": 7697,
      "Ġsked": 7698,
      "Ġvunnit": 7699,
      "flyg": 7700,
      "Ġstre": 7701,
      "jÃ¤nsten": 7702,
      "Ġemellan": 7703,
      "ĠLinda": 7704,
      "ĠfÃ¶rpack": 7705,
      "Ġbloggar": 7706,
      "Ġallting": 7707,
      "ĠBeh": 7708,
      "fakt": 7709,
      "jÃ¤nster": 7710,
      "Ġrekommendera": 7711,
      "teckning": 7712,
      "ĠAmer": 7713,
      "Ġcell": 7714,
      "listan": 7715,
      "ĠfÃ¶regÃ¥ende": 7716,
      "Ġtunga": 7717,
      "ĠbesÃ¶ker": 7718,
      "ĠmÃ¤nniskan": 7719,
      "Ã¤mma": 7720,
      "tals": 7721,
      "Ġfrom": 7722,
      "Ġknulla": 7723,
      "Ġkamera": 7724,
      "olly": 7725,
      "edom": 7726,
      "strateg": 7727,
      "sskydd": 7728,
      "Ġnett": 7729,
      "Ġbott": 7730,
      "tgÃ¤r": 7731,
      "ĠarbetslÃ¶s": 7732,
      "shand": 7733,
      "Ġrost": 7734,
      "Ġkonsult": 7735,
      "ĠUnivers": 7736,
      "ĠifrÃ¥gas": 7737,
      "fÃ¶rvalt": 7738,
      "Ġreferens": 7739,
      "ĠWil": 7740,
      "Ġdelas": 7741,
      "Ġsvaret": 7742,
      "ĠArtik": 7743,
      "ĠmÃ¤tt": 7744,
      "ĠbestÃ¤llning": 7745,
      "Ġnegativa": 7746,
      "Ã¶ljer": 7747,
      "Ġprem": 7748,
      "Ġsmidigt": 7749,
      "ĠSkÃ¤r": 7750,
      "iserade": 7751,
      "ĠfÃ¶ljt": 7752,
      "Ġbekant": 7753,
      "Ġuppdateras": 7754,
      "ĠmÃ¶jliggÃ¶r": 7755,
      "anke": 7756,
      "Ġbryta": 7757,
      "Ġregelbundet": 7758,
      "sre": 7759,
      "Ġinstrument": 7760,
      "ĠDem": 7761,
      "Ġorder": 7762,
      "Ġrekommenderas": 7763,
      "iabetes": 7764,
      "ĠPetter": 7765,
      "Ġlevererar": 7766,
      "Ġriksdagen": 7767,
      "omb": 7768,
      "ĠForm": 7769,
      "Ġintell": 7770,
      "AP": 7771,
      "Ġflygplats": 7772,
      "Ġspa": 7773,
      "ĠanlÃ¤ggning": 7774,
      "ĠefterÃ¥t": 7775,
      "ĠÃ¶verenskomm": 7776,
      "Ġbaserat": 7777,
      "Ġnjut": 7778,
      "entlig": 7779,
      "ĠvÃ¤ggen": 7780,
      "ĠjÃ¤mstÃ¤lld": 7781,
      "Ġutmaning": 7782,
      "Ġentr": 7783,
      "Ġkreativ": 7784,
      "priset": 7785,
      "Ġintressen": 7786,
      "mode": 7787,
      "Ġegendom": 7788,
      "ĠUtveck": 7789,
      "ĠSvensson": 7790,
      "Ġkommunic": 7791,
      "Ġradio": 7792,
      "Ġtrevliga": 7793,
      "Ġkyrka": 7794,
      "vagn": 7795,
      "Ġemellertid": 7796,
      "ĠlÃ¤mplig": 7797,
      "Ġvaran": 7798,
      "Ġverkliga": 7799,
      "efteÃ¥": 7800,
      "ĠfÃ¶rÃ¤ndras": 7801,
      "ampor": 7802,
      "best": 7803,
      "!\"": 7804,
      "Ġfran": 7805,
      "Ġ49": 7806,
      "ekom": 7807,
      "Ġtusentals": 7808,
      "ĠMichael": 7809,
      "Ġaspekt": 7810,
      "ĠrÃ¥der": 7811,
      "Ġbehovet": 7812,
      "ĠSun": 7813,
      "kontakt": 7814,
      "Ġsprang": 7815,
      "ĠHÃ¥kan": 7816,
      "Radera": 7817,
      "Ġmeddelande": 7818,
      "atiskt": 7819,
      "idande": 7820,
      "ĠanhÃ¶r": 7821,
      "ĠgÃ¶m": 7822,
      "Ġbollen": 7823,
      "Ã¶den": 7824,
      "Ġtexter": 7825,
      "ĠmÃ¥ngf": 7826,
      "ĠLek": 7827,
      "ĠsÃ¤nd": 7828,
      "ystemet": 7829,
      "atÃ¶r": 7830,
      "ĠtvÃ¤rt": 7831,
      "Ã¶kan": 7832,
      "Ġgymnasie": 7833,
      "Â»": 7834,
      "ĠCharl": 7835,
      "jol": 7836,
      "ĠsÃ¥r": 7837,
      "ĠNat": 7838,
      "bordet": 7839,
      "ĠprimÃ¤r": 7840,
      "anskt": 7841,
      "Ġhalva": 7842,
      "skurs": 7843,
      "sfÃ¶rmed": 7844,
      "ĠVÃ¤rld": 7845,
      "Ġspins": 7846,
      "Ġpresenteras": 7847,
      "aks": 7848,
      "rÃ¤tter": 7849,
      "wood": 7850,
      "Ġstill": 7851,
      "tvÃ¤tt": 7852,
      "Ġsens": 7853,
      "Svara": 7854,
      "cern": 7855,
      "Ġ46": 7856,
      "ĠMor": 7857,
      "Ġinriktning": 7858,
      "onnemang": 7859,
      "Ġalt": 7860,
      "ms": 7861,
      "ĠtrÃ¤ffas": 7862,
      "Ġklag": 7863,
      "ivna": 7864,
      "bror": 7865,
      "vÃ¤gg": 7866,
      "ĠðŁĺī": 7867,
      "Ġkameran": 7868,
      "innande": 7869,
      "Ġgjord": 7870,
      "ament": 7871,
      "ĠhÃ¥llbarhet": 7872,
      "sem": 7873,
      "Ã¤sk": 7874,
      "Ġhin": 7875,
      "Ġsmarta": 7876,
      "iviteter": 7877,
      "Ġdistans": 7878,
      "gÃ¥tt": 7879,
      "Ġmord": 7880,
      "Ġstall": 7881,
      "ĠlÃ¤tta": 7882,
      "Ġmamm": 7883,
      "ĠslÃ¤pper": 7884,
      "Ġbehandla": 7885,
      "jet": 7886,
      "ĠÃ¤ndras": 7887,
      "Hur": 7888,
      "Ã¤rskil": 7889,
      "Ġfinansiering": 7890,
      "handlingar": 7891,
      "hjul": 7892,
      "Ġfavoriter": 7893,
      "Ã¶det": 7894,
      "ĠomdÃ¶menNr": 7895,
      "ĠTelefon": 7896,
      "Ġdan": 7897,
      "rans": 7898,
      "ĠFel": 7899,
      "uti": 7900,
      "lÃ¤kare": 7901,
      "agram": 7902,
      "ĠlÃ¤gsta": 7903,
      "Ġinvestering": 7904,
      "irur": 7905,
      "byggd": 7906,
      "Ġsymtom": 7907,
      "Ġsyssels": 7908,
      "Ġuppdaterad": 7909,
      "ĠsÃ¶ta": 7910,
      "datum": 7911,
      "Ġutnyttja": 7912,
      "Ġfasta": 7913,
      "Ġcivil": 7914,
      "Ġexpert": 7915,
      "sarbete": 7916,
      "ĠtillgÃ¤nglighet": 7917,
      "Ġpraktiskt": 7918,
      "Ġmix": 7919,
      "sna": 7920,
      "Ġgram": 7921,
      "iro": 7922,
      "ĠSjÃ¤lvklart": 7923,
      "vig": 7924,
      "fÃ¶rsÃ¤ljare": 7925,
      "Ġliter": 7926,
      "Ġagera": 7927,
      "Ã¶ken": 7928,
      "Ġglobala": 7929,
      "ontin": 7930,
      "Ġdomin": 7931,
      "Ġavses": 7932,
      "ĠKristian": 7933,
      "ĠBerlin": 7934,
      "ĠTurk": 7935,
      "yssel": 7936,
      "smed": 7937,
      "ĠFrÃ¥ga": 7938,
      "ervice": 7939,
      "ĠMedlem": 7940,
      "Ġinbland": 7941,
      "xx": 7942,
      "Ġ2002": 7943,
      "lir": 7944,
      "orier": 7945,
      "Ġkvitt": 7946,
      "ĠEN": 7947,
      "Ġupphov": 7948,
      "ical": 7949,
      "Ġjud": 7950,
      "umenter": 7951,
      "Ġupplevelser": 7952,
      "ĠVictor": 7953,
      "ĠHaha": 7954,
      "ĠBorg": 7955,
      "miljÃ¶": 7956,
      "Ġcasinon": 7957,
      "Ġfriv": 7958,
      "byt": 7959,
      "Ġirri": 7960,
      "ĠKÃ¶pen": 7961,
      "Ġformul": 7962,
      "Ġpuss": 7963,
      "Ġregionen": 7964,
      "Ġ800": 7965,
      "ĠuppÃ¥t": 7966,
      "Ġbyggnader": 7967,
      "Ġkomplett": 7968,
      "ĠstÃ¶dja": 7969,
      "ĠhÃ¤ndelse": 7970,
      "Ġ95": 7971,
      "Ġinternationellt": 7972,
      "Ġplattform": 7973,
      "ders": 7974,
      "!!!!": 7975,
      "Ġ47": 7976,
      "ĠkÃ¤ra": 7977,
      "Ġbyggt": 7978,
      "Ġtaket": 7979,
      "ĠAIK": 7980,
      "rukost": 7981,
      "ĠLED": 7982,
      "ĠFar": 7983,
      "igger": 7984,
      "ĠsjukskÃ¶ter": 7985,
      "ĠAngel": 7986,
      "ĠFem": 7987,
      "Ġkonsekvenser": 7988,
      "ĠPlus": 7989,
      "ĠskÃ¶nhet": 7990,
      "Ġpiz": 7991,
      "Ġfastigheten": 7992,
      "vÃ¤rden": 7993,
      "2017": 7994,
      "ĠÃĸvriga": 7995,
      "Ġundervisning": 7996,
      "sajt": 7997,
      "Ġcamp": 7998,
      "oni": 7999,
      "ymnas": 8000,
      "ĠkÃ¤nnas": 8001,
      "ĠfÃ¶rlust": 8002,
      "sman": 8003,
      "ĠLy": 8004,
      "Ġpartiet": 8005,
      "flykt": 8006,
      "ĠutgÃ¥ngspunkt": 8007,
      "smÃ¶te": 8008,
      "Ġrelat": 8009,
      "Ġsky": 8010,
      "ĠfÃ¶ddes": 8011,
      "ĠBi": 8012,
      "sy": 8013,
      "vatt": 8014,
      "Ġalternativt": 8015,
      "ĠHistor": 8016,
      "kons": 8017,
      "stil": 8018,
      "Ġnaturlig": 8019,
      "ĠIsrael": 8020,
      "Ġbranschen": 8021,
      "Ġvaknade": 8022,
      "Ġdoft": 8023,
      "Fi": 8024,
      "Ġguide": 8025,
      "Ġuppenbar": 8026,
      "Ġbjuda": 8027,
      "Ġlandsbyg": 8028,
      "komp": 8029,
      "SP": 8030,
      "imin": 8031,
      "ssjuk": 8032,
      "lÃ¤ndska": 8033,
      "pade": 8034,
      "Ġverka": 8035,
      "ĠPal": 8036,
      "ĠTips": 8037,
      "ĠjÃ¤vla": 8038,
      "ĠsevÃ¤rdheter": 8039,
      "Ġmedveten": 8040,
      "Barn": 8041,
      "ague": 8042,
      "ĠHennes": 8043,
      "Ġordinarie": 8044,
      "Ġfarligt": 8045,
      "Ġfacebook": 8046,
      "Ġillustr": 8047,
      "Ã¤nsle": 8048,
      "arr": 8049,
      "fÃ©": 8050,
      "ĠdÃ¤rifrÃ¥n": 8051,
      "Ġkommers": 8052,
      "Ġje": 8053,
      "vad": 8054,
      "olt": 8055,
      "ĠGolf": 8056,
      "Ġservic": 8057,
      "konto": 8058,
      "issar": 8059,
      "Ġwork": 8060,
      "Ġbeskriva": 8061,
      "ĠnÃ¤tter": 8062,
      "98": 8063,
      "vitt": 8064,
      "ĠBesÃ¶k": 8065,
      "ĠAustrali": 8066,
      "jejer": 8067,
      "ota": 8068,
      "Ġkvartalet": 8069,
      "ĠVÃ¤g": 8070,
      "ĠansÃ¥g": 8071,
      "Ġsamlar": 8072,
      "ografi": 8073,
      "itz": 8074,
      "oten": 8075,
      "Ġcan": 8076,
      "Ġgarder": 8077,
      "Ġmorm": 8078,
      "Ġdrivs": 8079,
      "ubben": 8080,
      "ĠberÃ¤knas": 8081,
      "ĠSi": 8082,
      "Ġlyssnar": 8083,
      "Ġnational": 8084,
      "Ġhamnade": 8085,
      "Ġleka": 8086,
      "Ġhundrat": 8087,
      "ĠGÃ¥r": 8088,
      "Ġtema": 8089,
      "ĠLjus": 8090,
      "Ġ2021": 8091,
      "Ġbehandlar": 8092,
      "vÃ¤rld": 8093,
      "celler": 8094,
      "ĠCamp": 8095,
      "ĠfÃ¶ljde": 8096,
      "usch": 8097,
      "ĠstÃ¤llde": 8098,
      "Ġrecension": 8099,
      "ĠKor": 8100,
      "Ġhastighet": 8101,
      "skande": 8102,
      "Ġlist": 8103,
      "visningen": 8104,
      "cancer": 8105,
      "ĠLever": 8106,
      "atell": 8107,
      "ĠAL": 8108,
      "Ġkonstaterar": 8109,
      "uster": 8110,
      "Ġvikten": 8111,
      "51": 8112,
      "Ġuppst": 8113,
      "ĠFran": 8114,
      "kommit": 8115,
      "Ġoblig": 8116,
      "Ġinc": 8117,
      "ĠstrÃ¤ck": 8118,
      "ullen": 8119,
      "Ġgifta": 8120,
      "Ġnav": 8121,
      "play": 8122,
      "slapp": 8123,
      "ribent": 8124,
      "4567": 8125,
      "trÃ¤n": 8126,
      "ĠtrÃ¤nings": 8127,
      "hÃ¤lsa": 8128,
      "inspekt": 8129,
      "Ġbrister": 8130,
      "Ġreduc": 8131,
      "ĠCla": 8132,
      "ĠsÃ¤k": 8133,
      "ĠfÃ¶rdju": 8134,
      "Ġbokningar": 8135,
      "Ġhyp": 8136,
      "ĠtrÃ¤ningen": 8137,
      "ĠmÃ¥ltid": 8138,
      "Ġstrid": 8139,
      "Ġdagliga": 8140,
      "Ġledig": 8141,
      "Ġbehandlingen": 8142,
      "lÃ¶": 8143,
      "ckta": 8144,
      "ttag": 8145,
      "ĠFull": 8146,
      "ĠmÃ¶rka": 8147,
      "Ġky": 8148,
      "UM": 8149,
      "ĠUtcheckning": 8150,
      "Ġdjupt": 8151,
      "osam": 8152,
      "enomen": 8153,
      "ĠNytt": 8154,
      "ico": 8155,
      "Ġkategorin": 8156,
      "ĠfÃ¶rskola": 8157,
      "ĠFÃ¶retaget": 8158,
      "koll": 8159,
      "Ġmedborgare": 8160,
      "hÃ¶j": 8161,
      "Ġrit": 8162,
      "Ã¤var": 8163,
      "Ġrika": 8164,
      "ĠTwitter": 8165,
      "Ġsprida": 8166,
      "Ġvinster": 8167,
      "spar": 8168,
      "Ġert": 8169,
      "ĠBod": 8170,
      "ript": 8171,
      "ĠFR": 8172,
      "igr": 8173,
      "Ġlarm": 8174,
      "ĠfÃ¤rgen": 8175,
      "slÃ¥n": 8176,
      "Ġannons": 8177,
      "iets": 8178,
      "ĠHed": 8179,
      "Ġsjuka": 8180,
      "ĠaffÃ¤rer": 8181,
      "stagram": 8182,
      "________": 8183,
      "dt": 8184,
      "risten": 8185,
      "ĠÃ¶kning": 8186,
      "skam": 8187,
      "asen": 8188,
      "iske": 8189,
      "Ġobeh": 8190,
      "ĠlÃ¤ngtar": 8191,
      "Ġarv": 8192,
      "ĠVall": 8193,
      "Ġturist": 8194,
      "Ġurs": 8195,
      "Ġlet": 8196,
      "Ġmatemat": 8197,
      "punkten": 8198,
      "iering": 8199,
      "?)": 8200,
      "Ġspecifika": 8201,
      "Ġlukt": 8202,
      "ĠMicrosoft": 8203,
      "ones": 8204,
      "Ġkompisar": 8205,
      "undersÃ¶kning": 8206,
      "ĠfÃ¶rf": 8207,
      "styrelsens": 8208,
      "stÃ¤llt": 8209,
      "partem": 8210,
      "ĠFan": 8211,
      "Ġminer": 8212,
      "Ġbered": 8213,
      "Ġbegrav": 8214,
      "stÃ¤llande": 8215,
      "ruktioner": 8216,
      "poÃ¤ng": 8217,
      "ĠPolisen": 8218,
      "Ġsnur": 8219,
      "almstad": 8220,
      "ĠfÃ¶rskolan": 8221,
      "ptom": 8222,
      "Ġkant": 8223,
      "Ġriksdag": 8224,
      "ĠfÃ¶rhindra": 8225,
      "ĠfÃ¶rvÃ¤ntas": 8226,
      "Ġtogs": 8227,
      "2016": 8228,
      "Ġreson": 8229,
      "ero": 8230,
      "ĠstÃ¤nga": 8231,
      "Ġeftermiddagen": 8232,
      "Ġgrepp": 8233,
      "Ġfaktur": 8234,
      "ĠFakt": 8235,
      "ĠanmÃ¤la": 8236,
      "ĠsjÃ¤lvklar": 8237,
      "Ã¶ckerna": 8238,
      "Ġblad": 8239,
      "dig": 8240,
      "ĠPrem": 8241,
      "ĠBarcel": 8242,
      "ĠIncheckning": 8243,
      "cken": 8244,
      "sbes": 8245,
      "Ġpack": 8246,
      "ĠskÃ¤rm": 8247,
      "Ġfysisk": 8248,
      "ĠRadio": 8249,
      "xt": 8250,
      "ole": 8251,
      "Ġ06": 8252,
      "fÃ¶rÃ¤nd": 8253,
      "Ġminut": 8254,
      "butik": 8255,
      "Ġstation": 8256,
      "Ġrelev": 8257,
      "88": 8258,
      "ĠSem": 8259,
      "Ġkonsumenter": 8260,
      "Ġhantverk": 8261,
      "ĠmÃ¶bler": 8262,
      "egÃ¥ng": 8263,
      "Ġ44": 8264,
      "ere": 8265,
      "annes": 8266,
      "ĠGra": 8267,
      "mÃ¤ssigt": 8268,
      "andard": 8269,
      "ĠmÃ¤nniskors": 8270,
      "Ã¤nte": 8271,
      "Ġ76": 8272,
      "ĠKam": 8273,
      "SB": 8274,
      "Ġprom": 8275,
      "ĠGuds": 8276,
      "Ġhistoriska": 8277,
      "rÃ¶st": 8278,
      "kÃ¤t": 8279,
      "byg": 8280,
      "gÃ¶t": 8281,
      "ĠColl": 8282,
      "ikon": 8283,
      "ĠLou": 8284,
      "Ġverket": 8285,
      "cykel": 8286,
      "fit": 8287,
      "Ġfrivill": 8288,
      "ĠBestÃ¤ll": 8289,
      "Ġrekord": 8290,
      "ivision": 8291,
      "bjudande": 8292,
      "ago": 8293,
      "Ġaff": 8294,
      "Ġuteslut": 8295,
      "Rum": 8296,
      "ĠfÃ¶rmid": 8297,
      "ĠUtr": 8298,
      "Ġandas": 8299,
      "Ġkonkurrens": 8300,
      "ĠlÃ¶rdagen": 8301,
      "Ġhandlingar": 8302,
      "Ġduktiga": 8303,
      "Ġterror": 8304,
      "Ġenskild": 8305,
      "fattar": 8306,
      "Ġpatienten": 8307,
      "Ġmats": 8308,
      "ĠGen": 8309,
      "Ġbussen": 8310,
      "eriod": 8311,
      "Ġbrun": 8312,
      "EC": 8313,
      "Ġbus": 8314,
      "ĠAV": 8315,
      "Ġaktuell": 8316,
      "Ã¤sten": 8317,
      "Ġ2001": 8318,
      "redit": 8319,
      "log": 8320,
      "Ġkategorier": 8321,
      "Ġbetydande": 8322,
      "stÃ¤ller": 8323,
      "Ġtestat": 8324,
      "Ġjo": 8325,
      "sÃ¥lder": 8326,
      "process": 8327,
      "ĠnyÃ¥r": 8328,
      "Ġsalu": 8329,
      "ĠVolvo": 8330,
      "Ġjobbade": 8331,
      "ĠhÃ¶ja": 8332,
      "Ã¤nsl": 8333,
      "Ġetik": 8334,
      "Ġvelat": 8335,
      "Ġpresenter": 8336,
      "ĠGran": 8337,
      "ĠResort": 8338,
      "Ġenormt": 8339,
      "iftet": 8340,
      "mail": 8341,
      "slin": 8342,
      "Ġriktlinjer": 8343,
      "ĠVide": 8344,
      "Ġinsikt": 8345,
      "ĠAfton": 8346,
      "ĠHag": 8347,
      "Ġprofessor": 8348,
      "Ġytan": 8349,
      "ĠstÃ¤lls": 8350,
      "ĠMalin": 8351,
      "Ġavfall": 8352,
      "Ġspecialis": 8353,
      "Alla": 8354,
      "ĠBÃ¥da": 8355,
      "Ġ85": 8356,
      "derande": 8357,
      "Ġstudera": 8358,
      "ĠskÃ¶na": 8359,
      "eteck": 8360,
      "ampan": 8361,
      "Ġgrejer": 8362,
      "ĠnivÃ¥er": 8363,
      "ygga": 8364,
      "Ġpubliken": 8365,
      "Ġstatus": 8366,
      "Ġmak": 8367,
      "Ġvariera": 8368,
      "ĠRy": 8369,
      "Ġsammans": 8370,
      "ble": 8371,
      "Ġjordbruk": 8372,
      "hjÃ¤lp": 8373,
      "ĠlÃ¤ggs": 8374,
      "Ġinvesteringar": 8375,
      "ĠfÃ¤ngelse": 8376,
      "ĠHanna": 8377,
      "IM": 8378,
      "ĠÃ¤renden": 8379,
      "ĠÃ¶ster": 8380,
      "ĠnÃ¤ring": 8381,
      "list": 8382,
      "Ġseparat": 8383,
      "Ġbast": 8384,
      "Ġrunda": 8385,
      "Ġtransporter": 8386,
      "Ġmisstag": 8387,
      "ĠUlf": 8388,
      "SM": 8389,
      "Ġstam": 8390,
      "ĠDeras": 8391,
      "resten": 8392,
      "Ġpresentera": 8393,
      "Ġeffektiva": 8394,
      "ĠOfta": 8395,
      "Ã¶ten": 8396,
      "Ġâľ": 8397,
      "Ġreal": 8398,
      "ĠSnart": 8399,
      "cir": 8400,
      "ĠSÃ¶dra": 8401,
      "ĠEskil": 8402,
      "ĠOut": 8403,
      "ĠKolla": 8404,
      "Ġgenerellt": 8405,
      "Ġexister": 8406,
      "Ã¤nken": 8407,
      "ĠPR": 8408,
      "ĠdÃ¶rr": 8409,
      "ĠLÃ¶r": 8410,
      "Ġga": 8411,
      "utomater": 8412,
      "jukt": 8413,
      "ĠsprÃ¥ket": 8414,
      "ĠResultatet": 8415,
      "Ġspelarna": 8416,
      "Ġsma": 8417,
      "ĠPhil": 8418,
      "ĠLjung": 8419,
      "Ġrele": 8420,
      "ĠOM": 8421,
      "ĠÃ¤ld": 8422,
      "Ġringer": 8423,
      "ĠanstÃ¤lld": 8424,
      "Ġjap": 8425,
      "Ġrapporterar": 8426,
      "Ġaren": 8427,
      "ulÃ¤ra": 8428,
      "fullmÃ¤ktige": 8429,
      "nitt": 8430,
      "inlÃ¤gg": 8431,
      "ioder": 8432,
      "ĠHouse": 8433,
      "iew": 8434,
      "ily": 8435,
      "ĠKÃ¶r": 8436,
      "Ġeftermiddag": 8437,
      "Ġtelefonnummer": 8438,
      "Ġutbildningar": 8439,
      "Ġbjud": 8440,
      "ĠSig": 8441,
      "ifest": 8442,
      "sledare": 8443,
      "ĠÃ¤ng": 8444,
      "ĠGreen": 8445,
      "ĠKo": 8446,
      "sprocessen": 8447,
      "Ġallvarligt": 8448,
      "dÃ¶r": 8449,
      "tet": 8450,
      "Ġskapade": 8451,
      "ocket": 8452,
      "ĠfÃ¶tter": 8453,
      "Ġdeltog": 8454,
      "entliga": 8455,
      "ĠfrÃ¥gorna": 8456,
      "Ġmalm": 8457,
      "Ġstolta": 8458,
      "ĠGunnar": 8459,
      "Ġspeg": 8460,
      "Ġreglerna": 8461,
      "ova": 8462,
      "Ġasyl": 8463,
      "Ġtrycka": 8464,
      "ĠImorgon": 8465,
      "Ġfartyg": 8466,
      "ĠvÃ¤rmen": 8467,
      "Ġmog": 8468,
      "ĠYou": 8469,
      "Ġavtalet": 8470,
      "TER": 8471,
      "Ġmel": 8472,
      "rem": 8473,
      "hydr": 8474,
      "Ġflygplatsen": 8475,
      "ĠAN": 8476,
      "ĠMiljÃ¶": 8477,
      "ĠgÃ¥rden": 8478,
      "Ġpersonligt": 8479,
      "ĠFÃ¤rg": 8480,
      "stÃ¶r": 8481,
      "Ġneder": 8482,
      "Ġfamilje": 8483,
      "ĠÃ¥k": 8484,
      "gjort": 8485,
      "Ġpresenterar": 8486,
      "ĠIFK": 8487,
      "Ġklassisk": 8488,
      "Ġopp": 8489,
      "ĠOne": 8490,
      "kant": 8491,
      "ugh": 8492,
      "Ġkonflikt": 8493,
      "ĠKap": 8494,
      "ĠInstagram": 8495,
      "ĠSing": 8496,
      "ĠhjÃ¤rnan": 8497,
      "ĠSus": 8498,
      "ĠÃĸst": 8499,
      "ĠFree": 8500,
      "Ã¤nningen": 8501,
      "Ġthat": 8502,
      "Ġ99": 8503,
      "inst": 8504,
      "ĠLÃ¤ns": 8505,
      "ĠhjÃ¤lpsamhet": 8506,
      "uminium": 8507,
      "vakning": 8508,
      "Ġrestaurangen": 8509,
      "estad": 8510,
      "ĠJam": 8511,
      "Ġstorlekar": 8512,
      "Ġtids": 8513,
      "hÃ¶ll": 8514,
      "ĠgÃ¤r": 8515,
      "ĠJac": 8516,
      "Ġoffer": 8517,
      "mÃ¤t": 8518,
      "Ã¤ndsk": 8519,
      "Ġavse": 8520,
      "Ġideal": 8521,
      "plet": 8522,
      "ĠMid": 8523,
      "ĠEnergi": 8524,
      "ĠfÃ¶rlorade": 8525,
      "Ġkorr": 8526,
      "Ġsignal": 8527,
      "ĠoxÃ¥": 8528,
      "ĠunderlÃ¤tta": 8529,
      "ĠOsc": 8530,
      "ĠLeague": 8531,
      "ĠpÃ¥gÃ¥ende": 8532,
      "ĠBred": 8533,
      "86": 8534,
      "Ġimpon": 8535,
      "Ġbiljetter": 8536,
      "ĠkÃ¶ns": 8537,
      "bunden": 8538,
      "Ġkomfort": 8539,
      "ĠprÃ¶v": 8540,
      "Ġdryck": 8541,
      "ĠDesign": 8542,
      "ĠÃ¤kt": 8543,
      "ĠPC": 8544,
      "ĠLO": 8545,
      "ĠÃ¶vre": 8546,
      "Ã¶ma": 8547,
      "organisation": 8548,
      "Ġhun": 8549,
      "ĠNedan": 8550,
      "mande": 8551,
      "ĠKommentar": 8552,
      "Ġkaff": 8553,
      "Ġstatliga": 8554,
      "ĠTyp": 8555,
      "Ġ56": 8556,
      "ĠHalmstad": 8557,
      "svenska": 8558,
      "ĠIntress": 8559,
      "Ġpeppar": 8560,
      "Ġformen": 8561,
      "Ġpartier": 8562,
      "ios": 8563,
      "riska": 8564,
      "ĠuppvÃ¤rm": 8565,
      "systemet": 8566,
      "ĠKÃ¶penhamn": 8567,
      "ĠÃ¶ppettider": 8568,
      "hÃ¥llanden": 8569,
      "Ġfiber": 8570,
      "Ġblandning": 8571,
      "Ġfinal": 8572,
      "ĠCit": 8573,
      "Var": 8574,
      "ĠInstitut": 8575,
      "Ġtillverkar": 8576,
      "CC": 8577,
      "ĠtillÃ¥ter": 8578,
      "Ġfjol": 8579,
      "ĠKvinnor": 8580,
      "Ġutsatt": 8581,
      "arin": 8582,
      "Ġpraktik": 8583,
      "ĠhÃ¥lls": 8584,
      "Ġviagra": 8585,
      "Ġbubb": 8586,
      "ljus": 8587,
      "hÃ¥l": 8588,
      "elen": 8589,
      "alternativ": 8590,
      "redning": 8591,
      "ĠRegeringen": 8592,
      "ioxid": 8593,
      "Ġhet": 8594,
      "byggda": 8595,
      "Ġsop": 8596,
      "ĠgrÃ¤nser": 8597,
      "Ġverkade": 8598,
      "jack": 8599,
      "ili": 8600,
      "ĠjÃ¤rnvÃ¤g": 8601,
      "snÃ¤mnden": 8602,
      "nast": 8603,
      "ents": 8604,
      "baserade": 8605,
      "ĠElin": 8606,
      "ĠallmÃ¤nheten": 8607,
      "kvalit": 8608,
      "jord": 8609,
      "Ġflickor": 8610,
      "slo": 8611,
      "ĠhjÃ¤lpsamhetsr": 8612,
      "Ġdatorer": 8613,
      "bÃ¥g": 8614,
      "Ġfiler": 8615,
      "ordin": 8616,
      "ĠmaskinÃ¶versÃ¤ttningarJa": 8617,
      "Ġkonstruktion": 8618,
      "Ġggr": 8619,
      "ĠvÃ¤rdet": 8620,
      "71": 8621,
      "ĠTrÃ¤d": 8622,
      "yer": 8623,
      "napp": 8624,
      "dd": 8625,
      "ĠfÃ¥gel": 8626,
      "Ġhotellen": 8627,
      "Ġdyra": 8628,
      "ningom": 8629,
      "ĠtjÃ¤nar": 8630,
      "Ġtings": 8631,
      "Ġofficiella": 8632,
      "jun": 8633,
      "Ġsite": 8634,
      "Ġsamlas": 8635,
      "sned": 8636,
      "ĠÃ¶ppnade": 8637,
      "Ġpolitisk": 8638,
      "Ġinspel": 8639,
      "uppgift": 8640,
      "ÃĦN": 8641,
      "ĠsÃ¥dÃ¤r": 8642,
      "DF": 8643,
      "mosfÃ¤r": 8644,
      "Ġmunnen": 8645,
      "ubbar": 8646,
      "Ġkalen": 8647,
      "Ġfemte": 8648,
      "Ġdal": 8649,
      "sprodukter": 8650,
      "Sp": 8651,
      "Ġmysig": 8652,
      "enda": 8653,
      "ĠfÃ¶rvand": 8654,
      "Ã¶pp": 8655,
      "ĠhÃ¤nderna": 8656,
      "ĠLÃ¶f": 8657,
      "Ġkampanj": 8658,
      "Ġminskat": 8659,
      "Ġmodellen": 8660,
      "Ġdygn": 8661,
      "jort": 8662,
      "weiz": 8663,
      "Ġster": 8664,
      "Ġlott": 8665,
      "boende": 8666,
      "Ġfirma": 8667,
      "kvens": 8668,
      "vÃ¤rdet": 8669,
      "tain": 8670,
      "ĠJohanna": 8671,
      "ĠpÃ¥stÃ¥": 8672,
      "Ġdiverse": 8673,
      "Ġsatsar": 8674,
      "Ã¤nge": 8675,
      "Ġsvamp": 8676,
      "Ġtok": 8677,
      "Ġhom": 8678,
      "ĠSL": 8679,
      "ymp": 8680,
      "Ġmids": 8681,
      "Ġkommunerna": 8682,
      "ĠuppfÃ¶r": 8683,
      "Ġpal": 8684,
      "ĠMedel": 8685,
      "ĠKÃ¤nns": 8686,
      "Ġkristen": 8687,
      "Ġbordet": 8688,
      "appar": 8689,
      "Ġramen": 8690,
      "ĠbegrÃ¤nsad": 8691,
      "Ġekonomin": 8692,
      "Ġrapporten": 8693,
      "Ġtrupp": 8694,
      "ĠlÃ¶sen": 8695,
      "Ġlade": 8696,
      "duk": 8697,
      "stillstÃ¥nd": 8698,
      "ningsk": 8699,
      "Ġangiv": 8700,
      "irt": 8701,
      "Ġantar": 8702,
      "Ġdamer": 8703,
      "Ġpren": 8704,
      "ĠAnton": 8705,
      "ĠKund": 8706,
      "Ġpolitiskt": 8707,
      "ife": 8708,
      "jour": 8709,
      "Ġtacka": 8710,
      "Ġkvinnliga": 8711,
      "ĠvÃ¤rden": 8712,
      "ĠrÃ¶tt": 8713,
      "Ġbror": 8714,
      "dring": 8715,
      "ĠfrÃ¤mja": 8716,
      "ĠarbetsmiljÃ¶": 8717,
      "ĠpÃ¥verkan": 8718,
      "Ġattra": 8719,
      "Ġorolig": 8720,
      "ĠUtbild": 8721,
      "Ch": 8722,
      "ĠLilla": 8723,
      "Ġyttre": 8724,
      "oto": 8725,
      "UL": 8726,
      "Ġintegritet": 8727,
      "Ġsekund": 8728,
      "Ġarbetsuppgifter": 8729,
      "Ġvisserligen": 8730,
      "Ġnorska": 8731,
      "htt": 8732,
      "Ġakadem": 8733,
      "Ġuppfyller": 8734,
      "strÃ¥": 8735,
      "ĠgrÃ¶nsaker": 8736,
      "iliteter": 8737,
      "ĠhÃ¤sten": 8738,
      "stam": 8739,
      "Ġdemonstr": 8740,
      "kok": 8741,
      "Ġminnen": 8742,
      "verksamheten": 8743,
      "Ġ>>": 8744,
      "Ġstycket": 8745,
      "Ġbefolkningen": 8746,
      "sÃ¥s": 8747,
      "aljer": 8748,
      "Ġljuset": 8749,
      "ĠovÃ¤nt": 8750,
      "ĠOf": 8751,
      "ĠMaj": 8752,
      "beth": 8753,
      "ennis": 8754,
      "Ġpigg": 8755,
      "Ġgamm": 8756,
      "ĠInfÃ¶r": 8757,
      "1234567": 8758,
      "Ġdenne": 8759,
      "Ã¤mnen": 8760,
      "ĠIr": 8761,
      "hÃ¥llet": 8762,
      "Ġledarskap": 8763,
      "Ġmand": 8764,
      "Ġrest": 8765,
      "Ġtera": 8766,
      "infl": 8767,
      "lapp": 8768,
      "ĠFilm": 8769,
      "Ġskapas": 8770,
      "Ġ43": 8771,
      "stuna": 8772,
      "Mar": 8773,
      "andes": 8774,
      "Ġkategori": 8775,
      "Ġrisker": 8776,
      "xa": 8777,
      "Ã¤kringen": 8778,
      "ĠBlev": 8779,
      "ĠFrÃ¥gor": 8780,
      "ĠtillgÃ¤ngligt": 8781,
      "Ġskaff": 8782,
      "Ġbeskrivs": 8783,
      "ĠhÃ¥rda": 8784,
      "ils": 8785,
      "Ġintryck": 8786,
      "ĠinnehÃ¥lla": 8787,
      "imeter": 8788,
      "Ļ¥": 8789,
      "ĠumgÃ¥s": 8790,
      "ĠLes": 8791,
      "ĠBoken": 8792,
      "Ġgenast": 8793,
      "Ġkraven": 8794,
      "ĠLenn": 8795,
      "Ġbens": 8796,
      "skÃ¥d": 8797,
      "ĠBarcelona": 8798,
      "atisk": 8799,
      "ĠBlÃ¥": 8800,
      "ĠINTE": 8801,
      "ĠÃĸstersund": 8802,
      "ammation": 8803,
      "Ġrollen": 8804,
      "Ġskoj": 8805,
      "ĠsmÃ¥ningom": 8806,
      "ĠrÃ¶ster": 8807,
      "spÃ¥r": 8808,
      "Ġsorts": 8809,
      "ĠGotland": 8810,
      "Ġsvett": 8811,
      "Ġtip": 8812,
      "ĠutlÃ¤ndska": 8813,
      "day": 8814,
      "Ġfattar": 8815,
      "pul": 8816,
      "sakt": 8817,
      "ĠInv": 8818,
      "nÃ¤mnden": 8819,
      "otte": 8820,
      "Ġlivsstil": 8821,
      "Ġ1990": 8822,
      "Ġlung": 8823,
      "Ġavslapp": 8824,
      "ĠfÃ¶rÃ¤ldra": 8825,
      "ĠhÃ¥llet": 8826,
      "urar": 8827,
      "skjut": 8828,
      "ski": 8829,
      "ington": 8830,
      "ansvÃ¤rt": 8831,
      "ĠMÃ¤nnisk": 8832,
      "59": 8833,
      "jÃ¤rna": 8834,
      "ĠfÃ¶redrar": 8835,
      "ĠHotellet": 8836,
      "ĠfÃ¶rvÃ¤ntningar": 8837,
      "Ġkommenter": 8838,
      "Ġuppger": 8839,
      "istens": 8840,
      "urer": 8841,
      "Ġkapacitet": 8842,
      "ĠutslÃ¤pp": 8843,
      "blog": 8844,
      "Ġdanska": 8845,
      "domen": 8846,
      "Ġugnen": 8847,
      "ĠgrÃ¶nt": 8848,
      "ĠfÃ¶rsvann": 8849,
      "Ġantagligen": 8850,
      "Ġansikte": 8851,
      "ILL": 8852,
      "ĠMest": 8853,
      "ĠinsÃ¥g": 8854,
      "wn": 8855,
      "ĠvÃ¥ga": 8856,
      "Ex": 8857,
      "ĠSofia": 8858,
      "umman": 8859,
      "ford": 8860,
      "Ġsynpunkter": 8861,
      "ektor": 8862,
      "Ġdon": 8863,
      "LÃ¤s": 8864,
      "Ġsammant": 8865,
      "Ã¤klare": 8866,
      "Ġplanerat": 8867,
      "everket": 8868,
      "ĠFotboll": 8869,
      "Ġkyckling": 8870,
      "Ġbilligaste": 8871,
      "asse": 8872,
      "ĠPS": 8873,
      "sko": 8874,
      "Ġcharm": 8875,
      "ĠmÃ¤rker": 8876,
      "Ġregeringens": 8877,
      "gjor": 8878,
      "jakt": 8879,
      "Ġkryss": 8880,
      "Ġdelakt": 8881,
      "ĠMattias": 8882,
      "ame": 8883,
      "sklass": 8884,
      "Ġtunnel": 8885,
      "Ġstift": 8886,
      "Ġanger": 8887,
      "Ġbredband": 8888,
      "ĠvÃ¤xande": 8889,
      "Ġkollade": 8890,
      "erry": 8891,
      "Ġadvok": 8892,
      "Ġfyllt": 8893,
      "ĠutÃ¶ka": 8894,
      "Ġuppdraget": 8895,
      "ĠPen": 8896,
      "Ã³": 8897,
      "station": 8898,
      "ĠutgÃ¥": 8899,
      "Ġfastigheter": 8900,
      "Ġanfall": 8901,
      "ĠFo": 8902,
      "ĠefterfrÃ¥gan": 8903,
      "Ġlevereras": 8904,
      "spass": 8905,
      "amet": 8906,
      "ĠPerfekt": 8907,
      "Ġprenumer": 8908,
      "Ġbomull": 8909,
      "lÃ¶k": 8910,
      "index": 8911,
      "Ġplacering": 8912,
      "dam": 8913,
      "ĠresenÃ¤r": 8914,
      "ĠSÃ¤rskil": 8915,
      "Ġ05": 8916,
      "Ġsparar": 8917,
      "Ġack": 8918,
      "ĠWorld": 8919,
      "Ġ1800": 8920,
      "yddet": 8921,
      "ĠProdukt": 8922,
      "Ã¤sa": 8923,
      "astrof": 8924,
      "Ġstack": 8925,
      "ĠGlob": 8926,
      "skaff": 8927,
      "ĠMÃ¥let": 8928,
      "Ġidentitet": 8929,
      "Ġone": 8930,
      "bu": 8931,
      "Ġhyre": 8932,
      "Ġflicka": 8933,
      "Ġbrut": 8934,
      "Ġloppet": 8935,
      "arter": 8936,
      "massage": 8937,
      "di": 8938,
      "Ġfet": 8939,
      "Ġbett": 8940,
      "Ġlikt": 8941,
      "ĠSida": 8942,
      "ĠPublicerad": 8943,
      "ĠJapan": 8944,
      "ĠÃ¥tal": 8945,
      "idas": 8946,
      "ĠÃħsa": 8947,
      "hailand": 8948,
      "Ġspringer": 8949,
      "Ġfemin": 8950,
      "ĠSkar": 8951,
      "ĠÃ¶gonblick": 8952,
      "ĠStort": 8953,
      "Ġtidning": 8954,
      "Ġnomin": 8955,
      "bilitet": 8956,
      "ĠWa": 8957,
      "Ġbetalt": 8958,
      "ĠTrav": 8959,
      "ĠfÃ¶reningar": 8960,
      "abor": 8961,
      "Ġkniv": 8962,
      "Ġuttag": 8963,
      "filer": 8964,
      "Ġdras": 8965,
      "Ġslapp": 8966,
      "uppl": 8967,
      "ĠBox": 8968,
      "Ġbetong": 8969,
      "motor": 8970,
      "jÃ¤rnan": 8971,
      "pir": 8972,
      "hjÃ¤l": 8973,
      "holmen": 8974,
      "pri": 8975,
      "ĠinstÃ¤llning": 8976,
      "ĠRon": 8977,
      "Ġbif": 8978,
      "arbeten": 8979,
      "ĠAffÃ¤r": 8980,
      "ĠTest": 8981,
      "bru": 8982,
      "Ġmjuka": 8983,
      "Ġuppfyll": 8984,
      "TA": 8985,
      "Ġgat": 8986,
      "Ġmorse": 8987,
      "con": 8988,
      "Ġting": 8989,
      "ĠÃ¤ndringar": 8990,
      "Ġbyn": 8991,
      "Ġbekym": 8992,
      "ĠvarumÃ¤rke": 8993,
      "tav": 8994,
      "2015": 8995,
      "ĠArbets": 8996,
      "Ġunikt": 8997,
      "Ã¶vlar": 8998,
      "Ġvett": 8999,
      "ĠRich": 9000,
      "Ġperman": 9001,
      "ockan": 9002,
      "Ġdl": 9003,
      "Ġtrav": 9004,
      "ĠsÃ¶ndagen": 9005,
      "Ġavlopp": 9006,
      "ĠtÃ¤vlingar": 9007,
      "Ġml": 9008,
      "TS": 9009,
      "ield": 9010,
      "Ġest": 9011,
      "Ġallvarliga": 9012,
      "ĠMaterial": 9013,
      "kurs": 9014,
      "ĠTrump": 9015,
      "obby": 9016,
      "ĠhÃ¶rn": 9017,
      "NA": 9018,
      "ĠmÃ¥la": 9019,
      "Ġlegat": 9020,
      "Ġreligion": 9021,
      "ĠavgÃ¶ra": 9022,
      "Ġfiltr": 9023,
      "ĠvÃ¤lk": 9024,
      "ĠRock": 9025,
      "ally": 9026,
      "ading": 9027,
      "roll": 9028,
      "ĠICA": 9029,
      "Ġnark": 9030,
      "Ġanled": 9031,
      "ĠfjÃ¤rr": 9032,
      "Ġvr": 9033,
      "Ġhamna": 9034,
      "Ġ41": 9035,
      "ĠService": 9036,
      "ĠLisa": 9037,
      "oppar": 9038,
      "ware": 9039,
      "Ã¤stan": 9040,
      "ĠsÃ¤ljs": 9041,
      "Ġbryr": 9042,
      "Ġteknisk": 9043,
      "ĠInternational": 9044,
      "habil": 9045,
      "ffs": 9046,
      "ĠLÃ¤tt": 9047,
      "hÃ¥llning": 9048,
      "Ġframme": 9049,
      "Ġris": 9050,
      "Ġskyddar": 9051,
      "Ġorter": 9052,
      "mannen": 9053,
      "Ġinfrastruktur": 9054,
      "ĠomsÃ¤ttning": 9055,
      "papper": 9056,
      "Ġjournalist": 9057,
      "Ġsval": 9058,
      "Ġviktigare": 9059,
      "Ġfond": 9060,
      "ĠÃ¶verst": 9061,
      "ĠvÃ¤ggar": 9062,
      "Ġtillgod": 9063,
      "ĠHÃ¤ll": 9064,
      "sli": 9065,
      "orma": 9066,
      "ienska": 9067,
      "ĠLill": 9068,
      "Ġkunderna": 9069,
      "ĠCarol": 9070,
      "shem": 9071,
      "Ġfril": 9072,
      "ave": 9073,
      "Ġnegativt": 9074,
      "ĠKÃ¤r": 9075,
      "Ġidentifier": 9076,
      "Ġkrydd": 9077,
      "ĠbekvÃ¤mt": 9078,
      "Ġskal": 9079,
      "Ġobehag": 9080,
      "itch": 9081,
      "Ġdeltagarna": 9082,
      "ĠÃ¶verklag": 9083,
      "Ġansvaret": 9084,
      "onto": 9085,
      "ĠglÃ¶mma": 9086,
      "anmÃ¤rk": 9087,
      "Ġkanaler": 9088,
      "Ġomfattas": 9089,
      "Ġange": 9090,
      "Ġfredagen": 9091,
      "skvÃ¤llen": 9092,
      "isch": 9093,
      "ĠnÃ¤s": 9094,
      "97": 9095,
      "ĠPan": 9096,
      "ĠPop": 9097,
      "Ġlett": 9098,
      "ĠSÃ¶n": 9099,
      "ĠNorden": 9100,
      "Ġlider": 9101,
      "kland": 9102,
      "laren": 9103,
      "Ġpor": 9104,
      "ĠPress": 9105,
      "Ġbyter": 9106,
      "Ġlyfter": 9107,
      "Ġutsatta": 9108,
      "Ġfilosof": 9109,
      "Ġau": 9110,
      "ĠplÃ¥t": 9111,
      "ĠÐ": 9112,
      "Un": 9113,
      "Ġhantering": 9114,
      "ĠTj": 9115,
      "handlingen": 9116,
      "ĠVilla": 9117,
      "makt": 9118,
      "politik": 9119,
      "ĠGrand": 9120,
      "Ġandras": 9121,
      "kÃ¤nsla": 9122,
      "Ġstannade": 9123,
      "OD": 9124,
      "Ġislam": 9125,
      "Ġarbetade": 9126,
      "lit": 9127,
      "jell": 9128,
      "ĠhjÃ¤lpte": 9129,
      "ĠGrÃ¶n": 9130,
      "Ġdiskrimin": 9131,
      "Ġroligare": 9132,
      "ĠKÃ¤nner": 9133,
      "Ġ57": 9134,
      "ĠMusik": 9135,
      "Ġbelast": 9136,
      "ĠaffÃ¤rs": 9137,
      "speci": 9138,
      "ĠLÃ¤st": 9139,
      "ary": 9140,
      "une": 9141,
      "format": 9142,
      "Ġbearbet": 9143,
      "Ġtrakt": 9144,
      "Ã¤ttar": 9145,
      "enskaps": 9146,
      "Ġresultaten": 9147,
      "Ġsamlade": 9148,
      "Ġyoutube": 9149,
      "ĠfÃ¶rsÃ¤m": 9150,
      "Ġproducerar": 9151,
      "Ġhed": 9152,
      "Ġmkt": 9153,
      "ĠDela": 9154,
      "ĠtvÃ¤rtom": 9155,
      "lÃ¤ggningar": 9156,
      "Ġlogga": 9157,
      "ĠBud": 9158,
      "Ġcoach": 9159,
      "okt": 9160,
      "ĠVir": 9161,
      "Ġgatan": 9162,
      "ĠhÃ¶rs": 9163,
      "ĠfÃ¶rtjÃ¤n": 9164,
      "fÃ¶reningen": 9165,
      "Ġtittat": 9166,
      "Ġreligi": 9167,
      "Ã¤mmande": 9168,
      "Ġbyt": 9169,
      "bott": 9170,
      "Ġbitar": 9171,
      "Ġfra": 9172,
      "Ġlovar": 9173,
      "ĠlÃ¶nsam": 9174,
      "Ġformat": 9175,
      "ĠNorm": 9176,
      "2014": 9177,
      "Ġvice": 9178,
      "sÃ¤tts": 9179,
      "Ġapplic": 9180,
      "ĠtÃ¥get": 9181,
      "ĠtrÃ¤ffat": 9182,
      "56": 9183,
      "ĠmÃ¥lvakt": 9184,
      "test": 9185,
      "ĠklÃ¤nning": 9186,
      "Ã¶rjning": 9187,
      "Ġvisats": 9188,
      "Ã¤dde": 9189,
      "sby": 9190,
      "ĠfÃ¶rloss": 9191,
      "kondition": 9192,
      "ĠavstÃ¥ndet": 9193,
      "Ġromant": 9194,
      "ĠâĤ¬": 9195,
      "ĠBru": 9196,
      "ĠskÃ¶ter": 9197,
      "ianter": 9198,
      "erska": 9199,
      "ĠnÃ¤rhet": 9200,
      "ĠfÃ¶rest": 9201,
      "ĠHelsingfors": 9202,
      "Ġpekar": 9203,
      "96": 9204,
      "alism": 9205,
      "ĠhÃ¤vdar": 9206,
      "fym": 9207,
      "ĠWilliam": 9208,
      "Ġdyrt": 9209,
      "Ġkomplic": 9210,
      "Ġbalkong": 9211,
      "ĠInlÃ¤gg": 9212,
      "ĠJak": 9213,
      "ĠCentral": 9214,
      "ĠStre": 9215,
      "kontroll": 9216,
      "talienska": 9217,
      "ĠAndroid": 9218,
      "ĠStÃ¤ll": 9219,
      "Ġset": 9220,
[...]
