{
  "version": "1.0",
  "truncation": null,
  "padding": null,
  "added_tokens": [
    {
      "id": 0,
      "content": "[PAD]",
      "single_word": false,
      "lstrip": false,
      "rstrip": false,
      "normalized": false,
      "special": true
    },
    {
      "id": 1,
      "content": "[UNK]",
      "single_word": false,
      "lstrip": false,
      "rstrip": false,
      "normalized": false,
      "special": true
    },
    {
      "id": 2,
      "content": "[MASK]",
      "single_word": false,
      "lstrip": false,
      "rstrip": false,
      "normalized": false,
      "special": true
    },
    {
      "id": 3,
      "content": "[CLS]",
      "single_word": false,
      "lstrip": false,
      "rstrip": false,
      "normalized": false,
      "special": true
    },
    {
      "id": 4,
      "content": "[SEP]",
      "single_word": false,
      "lstrip": false,
      "rstrip": false,
      "normalized": false,
      "special": true
    }
  ],
  "normalizer": {
    "type": "Sequence",
    "normalizers": [
      {
        "type": "Nmt"
      },
      {
        "type": "NFKC"
      },
      {
        "type": "Replace",
        "pattern": {
          "Regex": " {2,}"
        },
        "content": " "
      }
    ]
  },
  "pre_tokenizer": {
    "type": "Sequence",
    "pretokenizers": [
      {
        "type": "Metaspace",
        "replacement": "▁",
        "add_prefix_space": true
      },
      {
        "type": "Split",
        "pattern": {
          "Regex": "\\d"
        },
        "behavior": "MergedWithPrevious",
        "invert": false
      },
      {
        "type": "Punctuation",
        "behavior": "Isolated"
      }
    ]
  },
  "post_processor": {
    "type": "TemplateProcessing",
    "single": [
      {
        "SpecialToken": {
          "id": "[CLS]",
          "type_id": 0
        }
      },
      {
        "Sequence": {
          "id": "A",
          "type_id": 0
        }
      },
      {
        "SpecialToken": {
          "id": "[SEP]",
          "type_id": 0
        }
      }
    ],
    "pair": [
      {
        "SpecialToken": {
          "id": "[CLS]",
          "type_id": 0
        }
      },
      {
        "Sequence": {
          "id": "A",
          "type_id": 0
        }
      },
      {
        "SpecialToken": {
          "id": "[SEP]",
          "type_id": 0
        }
      },
      {
        "Sequence": {
          "id": "B",
          "type_id": 1
        }
      },
      {
        "SpecialToken": {
          "id": "[SEP]",
          "type_id": 1
        }
      }
    ],
    "special_tokens": {
      "[CLS]": {
        "id": "[CLS]",
        "ids": [
          3
        ],
        "tokens": [
          "[CLS]"
        ]
      },
      "[SEP]": {
        "id": "[SEP]",
        "ids": [
          4
        ],
        "tokens": [
          "[SEP]"
        ]
      }
    }
  },
  "decoder": {
    "type": "Metaspace",
    "replacement": "▁",
    "add_prefix_space": true
  },
  "model": {
    "type": "Unigram",
    "unk_id": 1,
    "vocab": [
      [
        "[PAD]",
        0.0
      ],
      [
        "[UNK]",
        0.0
      ],
      [
        "[MASK]",
        0.0
      ],
      [
        "[CLS]",
        0.0
      ],
      [
        "[SEP]",
        0.0
      ],
      [
        "▁",
        -2.168071673327187
      ],
      [
        ".",
        -3.163571455684231
      ],
      [
        ",",
        -3.8478748537520495
      ],
      [
        "▁och",
        -3.8786861710752873
      ],
      [
        "i",
        -4.081339869178908
      ],
      [
        "▁att",
        -4.112296954119774
      ],
      [
        "s",
        -4.3814027224790735
      ],
      [
        "▁är",
        -4.467685817543625
      ],
      [
        "▁som",
        -4.521513472607026
      ],
      [
        "▁på",
        -4.5384198854969355
      ],
      [
        "▁för",
        -4.611851035024241
      ],
      [
        "▁en",
        -4.6262474592203375
      ],
      [
        "▁det",
        -4.6429419767681175
      ],
      [
        "t",
        -4.740261199833451
      ],
      [
        "a",
        -4.792437041613237
      ],
      [
        "▁med",
        -4.808506686957394
      ],
      [
        "0",
        -4.81595571231334
      ],
      [
        "▁av",
        -4.833841001066869
      ],
      [
        "1",
        -4.942449746727512
      ],
      [
        "▁till",
        -4.966603384250451
      ],
      [
        "-",
        -5.041463078402643
      ],
      [
        "▁har",
        -5.07958887890209
      ],
      [
        "en",
        -5.161759602020329
      ],
      [
        "2",
        -5.205792127014213
      ],
      [
        "▁jag",
        -5.218990393475323
      ],
      [
        "▁inte",
        -5.288129845163855
      ],
      [
        "▁om",
        -5.336938706275813
      ],
      [
        "▁den",
        -5.409010125176476
      ],
      [
        "▁ett",
        -5.4451055177450165
      ],
      [
        "▁så",
        -5.498494255185253
      ],
      [
        "▁kan",
        -5.6153386301570976
      ],
      [
        "▁du",
        -5.6220563155787495
      ],
      [
        "▁de",
        -5.62379073173863
      ],
      [
        "n",
        -5.684848090940417
      ],
      [
        ":",
        -5.685755845346094
      ],
      [
        "▁vi",
        -5.694124305737358
      ],
      [
        "e",
        -5.701153042013772
      ],
      [
        "▁var",
        -5.820983663069985
      ],
      [
        "▁Det",
        -5.850600563333479
      ],
      [
        "!",
        -5.864024205200192
      ],
      [
        "er",
        -5.876724844953614
      ],
      [
        ")",
        -5.907466438206644
      ],
      [
        "5",
        -5.916019156000676
      ],
      [
        "3",
        -5.930424357182655
      ],
      [
        "▁man",
        -5.932588641364259
      ],
      [
        "▁från",
        -5.9349442886536465
      ],
      [
        "\"",
        -5.980679970260788
      ],
      [
        "r",
        -5.9830992871699955
      ],
      [
        "(",
        -6.054420965996989
      ],
      [
        "▁men",
        -6.064199609282138
      ],
      [
        "▁eller",
        -6.069353439103793
      ],
      [
        "4",
        -6.111568790654001
      ],
      [
        "9",
        -6.117248745851139
      ],
      [
        "?",
        -6.174236090184776
      ],
      [
        "▁ska",
        -6.222260495799185
      ],
      [
        "▁sig",
        -6.267993537002987
      ],
      [
        "6",
        -6.299495744221927
      ],
      [
        "8",
        -6.340979871083704
      ],
      [
        "7",
        -6.35357000248603
      ],
      [
        "▁Jag",
        -6.377385780401255
      ],
      [
        "▁när",
        -6.390309786947785
      ],
      [
        "▁ut",
        -6.415071993241918
      ],
      [
        "▁här",
        -6.4290609190874015
      ],
      [
        "▁in",
        -6.4339977294167845
      ],
      [
        "▁upp",
        -6.438042473429231
      ],
      [
        "–",
        -6.442612389134808
      ],
      [
        "▁kommer",
        -6.451401848229111
      ],
      [
        "o",
        -6.453757125611766
      ],
      [
        "/",
        -6.490523643439182
      ],
      [
        "▁vara",
        -6.515140410780134
      ],
      [
        "ar",
        -6.520834287078294
      ],
      [
        "de",
        -6.521578843113609
      ],
      [
        "▁där",
        -6.563365792778134
      ],
      [
        "▁finns",
        -6.5643969208890045
      ],
      [
        "▁I",
        -6.586580053423553
      ],
      [
        "▁Vi",
        -6.602869622831543
      ],
      [
        "▁han",
        -6.611456894442398
      ],
      [
        "▁mer",
        -6.611491574989513
      ],
      [
        "▁alla",
        -6.639242102910753
      ],
      [
        "d",
        -6.652175748832599
      ],
      [
        "▁nu",
        -6.676485853673267
      ],
      [
        "▁under",
        -6.702987766195646
      ],
      [
        "▁också",
        -6.704114341649927
      ],
      [
        "▁får",
        -6.720701780379569
      ],
      [
        "▁mycket",
        -6.731006538826582
      ],
      [
        "▁mig",
        -6.74140643866345
      ],
      [
        "▁över",
        -6.745947640018027
      ],
      [
        "▁lite",
        -6.766607478296802
      ],
      [
        "▁bra",
        -6.767231887299403
      ],
      [
        "▁år",
        -6.773701397093644
      ],
      [
        "▁efter",
        -6.792345355777433
      ],
      [
        "”",
        -6.79265394968896
      ],
      [
        "m",
        -6.802675670771471
      ],
      [
        "▁då",
        -6.812324156316505
      ],
      [
        "▁ha",
        -6.812902085107959
      ],
      [
        "▁vill",
        -6.839275430463411
      ],
      [
        "▁även",
        -6.840725222728656
      ],
      [
        "▁andra",
        -6.841708278109575
      ],
      [
        "▁få",
        -6.844588766839152
      ],
      [
        "▁bara",
        -6.84916190130599
      ],
      [
        "▁hur",
        -6.859180173378894
      ],
      [
        "et",
        -6.89528239164294
      ],
      [
        "▁vid",
        -6.903031433434206
      ],
      [
        "▁Men",
        -6.919998318603602
      ],
      [
        "▁dig",
        -6.9429970976347075
      ],
      [
        "▁hade",
        -6.958859126796124
      ],
      [
        "▁vad",
        -6.961337382680332
      ],
      [
        "▁skulle",
        -6.980971999203815
      ],
      [
        "▁än",
        -6.998476631719322
      ],
      [
        "▁blir",
        -7.004416967613963
      ],
      [
        "▁sin",
        -7.068763323334043
      ],
      [
        "▁En",
        -7.0762223387549295
      ],
      [
        "▁mot",
        -7.079511958228061
      ],
      [
        "▁många",
        -7.089633316097814
      ],
      [
        "▁göra",
        -7.09623209289086
      ],
      [
        "▁min",
        -7.139960324606909
      ],
      [
        "▁ju",
        -7.141396986019927
      ],
      [
        "▁gör",
        -7.1469082943061615
      ],
      [
        "å",
        -7.161231159781597
      ],
      [
        "▁detta",
        -7.163922569639116
      ],
      [
        "▁hon",
        -7.170491518430897
      ],
      [
        "▁Den",
        -7.177260236120366
      ],
      [
        "▁något",
        -7.1775172173388295
      ],
      [
        "▁din",
        -7.189083229910626
      ],
      [
        "▁För",
        -7.203692992577249
      ],
      [
        "▁sedan",
        -7.210003972863404
      ],
      [
        "▁oss",
        -7.217649661835493
      ],
      [
        "▁utan",
        -7.229379862256197
      ],
      [
        "▁De",
        -7.240514961975537
      ],
      [
        "▁olika",
        -7.260795790398497
      ],
      [
        "▁två",
        -7.267051822566488
      ],
      [
        "▁allt",
        -7.275462254011858
      ],
      [
        "▁säger",
        -7.28520503551246
      ],
      [
        "▁se",
        -7.2952454935389515
      ],
      [
        "▁bli",
        -7.309180442514412
      ],
      [
        "▁någon",
        -7.309815826794795
      ],
      [
        "▁del",
        -7.329341704950904
      ],
      [
        "▁genom",
        -7.334545566500523
      ],
      [
        "▁går",
        -7.334615001023829
      ],
      [
        "are",
        -7.347340245348091
      ],
      [
        "▁helt",
        -7.364242379060064
      ],
      [
        "▁fick",
        -7.3885414109379255
      ],
      [
        "▁nya",
        -7.409789001817316
      ],
      [
        "▁fram",
        -7.417590777948416
      ],
      [
        "▁hela",
        -7.417677578683941
      ],
      [
        "▁varit",
        -7.433258103391038
      ],
      [
        "▁måste",
        -7.435865443495569
      ],
      [
        "▁blev",
        -7.4440688331619125
      ],
      [
        "▁Om",
        -7.4477058881395255
      ],
      [
        "▁första",
        -7.451439665299922
      ],
      [
        "▁några",
        -7.452390856764589
      ],
      [
        "k",
        -7.455752389018185
      ],
      [
        "▁inom",
        -7.456187759932716
      ],
      [
        "▁dem",
        -7.468393144225658
      ],
      [
        "g",
        -7.475261929712097
      ],
      [
        "v",
        -7.481821158921662
      ],
      [
        "▁kunna",
        -7.500801257647915
      ],
      [
        "▁samt",
        -7.5046574402100195
      ],
      [
        "▁denna",
        -7.519961040020087
      ],
      [
        "▁mellan",
        -7.520745721080768
      ],
      [
        "▁sätt",
        -7.543491257333738
      ],
      [
        "▁När",
        -7.55854116386357
      ],
      [
        "▁Du",
        -7.564169584684624
      ],
      [
        "▁själv",
        -7.578993287565735
      ],
      [
        "▁Och",
        -7.579160988123091
      ],
      [
        "erna",
        -7.584632524598339
      ],
      [
        "▁S",
        -7.589844492752913
      ],
      [
        "▁rätt",
        -7.603252666011224
      ],
      [
        "▁annat",
        -7.606163337372495
      ],
      [
        "▁Sverige",
        -7.6123232538168715
      ],
      [
        "▁tid",
        -7.6132633549102255
      ],
      [
        "▁ser",
        -7.618160457914362
      ],
      [
        "ade",
        -7.621454143402644
      ],
      [
        "▁vår",
        -7.621565850272745
      ],
      [
        "▁väl",
        -7.6300101617864975
      ],
      [
        "▁vilket",
        -7.65229278771978
      ],
      [
        "▁barn",
        -7.6527049267162415
      ],
      [
        "▁Så",
        -7.653280285747249
      ],
      [
        "▁både",
        -7.657662972727833
      ],
      [
        "▁sina",
        -7.660887587816331
      ],
      [
        "▁dag",
        -7.6822460016263
      ],
      [
        "l",
        -7.701140807004247
      ],
      [
        "h",
        -7.70226458161547
      ],
      [
        "▁gå",
        -7.709780033377658
      ],
      [
        "▁Nu",
        -7.718834918081555
      ],
      [
        "▁hos",
        -7.720098832009267
      ],
      [
        "▁behöver",
        -7.729049935720104
      ],
      [
        "▁våra",
        -7.733062346325578
      ],
      [
        "ande",
        -7.735020641515316
      ],
      [
        "▁stor",
        -7.738843409472091
      ],
      [
        "▁kanske",
        -7.746622963387226
      ],
      [
        "▁dessa",
        -7.756269880228137
      ],
      [
        "p",
        -7.773081623632352
      ],
      [
        "▁innan",
        -7.775236229407071
      ],
      [
        "▁vet",
        -7.776594767852515
      ],
      [
        "▁ny",
        -7.789213665005011
      ],
      [
        "▁flera",
        -7.792382240917638
      ],
      [
        "▁På",
        -7.801274435275456
      ],
      [
        "▁idag",
        -7.813953708784913
      ],
      [
        "ingen",
        -7.8229758091413775
      ],
      [
        "▁samma",
        -7.82440524223267
      ],
      [
        "▁tar",
        -7.835243445249176
      ],
      [
        "▁Han",
        -7.842845584252199
      ],
      [
        "▁alltid",
        -7.851597988848672
      ],
      [
        ";",
        -7.851802701942539
      ],
      [
        "▁sitt",
        -7.853335962815898
      ],
      [
        "▁bästa",
        -7.85939749289315
      ],
      [
        "▁kom",
        -7.859784333785923
      ],
      [
        "▁hem",
        -7.860295071419717
      ],
      [
        "▁ger",
        -7.86941530289638
      ],
      [
        "▁väldigt",
        -7.8873472260952635
      ],
      [
        "▁stora",
        -7.892516148702834
      ],
      [
        "&",
        -7.89463157573093
      ],
      [
        "▁tre",
        -7.898086595178585
      ],
      [
        "▁ditt",
        -7.899202846499428
      ],
      [
        "▁bort",
        -7.9005339430616335
      ],
      [
        "▁ner",
        -7.902113055601539
      ],
      [
        "▁Här",
        -7.90420586808095
      ],
      [
        "▁varje",
        -7.9086935362771715
      ],
      [
        "▁Att",
        -7.908857641603857
      ],
      [
        "▁bättre",
        -7.91445137501934
      ],
      [
        "▁bland",
        -7.916989582135235
      ],
      [
        "ens",
        -7.920099979975117
      ],
      [
        "▁tycker",
        -7.925206102645594
      ],
      [
        "f",
        -7.925207551696566
      ],
      [
        "▁Detta",
        -7.938811611331005
      ],
      [
        "▁igen",
        -7.940363626211356
      ],
      [
        "▁A",
        -7.942492840848459
      ],
      [
        "▁gäller",
        -7.958968801279374
      ],
      [
        "▁fall",
        -7.963335241753505
      ],
      [
        "y",
        -7.964365556981965
      ],
      [
        "▁nog",
        -7.969939865399269
      ],
      [
        "▁ligger",
        -7.972483601930085
      ],
      [
        "▁tidigare",
        -7.980991997242748
      ],
      [
        "c",
        -7.9852631258056395
      ],
      [
        "▁fått",
        -7.987708563552443
      ],
      [
        "▁be",
        -7.9900912864984175
      ],
      [
        "▁gång",
        -7.9946982030239795
      ],
      [
        "▁just",
        -7.995324589815024
      ],
      [
        "▁mitt",
        -8.006478595503497
      ],
      [
        "▁komma",
        -8.01130327615637
      ],
      [
        "%",
        -8.01394871562819
      ],
      [
        "arna",
        -8.016685477246611
      ],
      [
        "▁Läs",
        -8.029877918917016
      ],
      [
        "▁tror",
        -8.037214887348897
      ],
      [
        "des",
        -8.044239330331065
      ],
      [
        "▁riktigt",
        -8.046072395945998
      ],
      [
        "▁dock",
        -8.06237067244237
      ],
      [
        "▁skall",
        -8.062396131128022
      ],
      [
        "▁hitta",
        -8.066289781395202
      ],
      [
        "▁eftersom",
        -8.071083316610917
      ],
      [
        "▁Vad",
        -8.072582938354374
      ],
      [
        "▁enligt",
        -8.075137953240947
      ],
      [
        "▁annan",
        -8.077473877213944
      ],
      [
        "▁gick",
        -8.080351319984914
      ],
      [
        "▁Har",
        -8.080416963048961
      ],
      [
        "▁plats",
        -8.083522531767452
      ],
      [
        "▁ge",
        -8.087933046329463
      ],
      [
        "▁mest",
        -8.088284302522109
      ],
      [
        "▁redan",
        -8.091780610195432
      ],
      [
        "u",
        -8.096173901674247
      ],
      [
        "▁Ett",
        -8.110415943175099
      ],
      [
        "▁B",
        -8.114599039209601
      ],
      [
        "▁svenska",
        -8.115860072190792
      ],
      [
        "▁Hur",
        -8.117440347545461
      ],
      [
        "▁Med",
        -8.12227822670186
      ],
      [
        "▁runt",
        -8.124787548830655
      ],
      [
        "▁kunde",
        -8.13043654001098
      ],
      [
        "S",
        -8.136923097190914
      ],
      [
        "▁fler",
        -8.137665556606251
      ],
      [
        "▁företag",
        -8.143428386701402
      ],
      [
        "▁deras",
        -8.162603656125452
      ],
      [
        "▁gjort",
        -8.163462995613648
      ],
      [
        "▁dina",
        -8.166252392866049
      ],
      [
        "▁hjälp",
        -8.17215866463162
      ],
      [
        "▁människor",
        -8.176897727439563
      ],
      [
        "▁aldrig",
        -8.18150358470405
      ],
      [
        "▁dom",
        -8.190078467244039
      ],
      [
        "▁verkligen",
        -8.191435437918875
      ],
      [
        "▁tillsammans",
        -8.200349890742938
      ],
      [
        "▁tillbaka",
        -8.201975749144655
      ],
      [
        "▁gjorde",
        -8.216721234171864
      ],
      [
        "▁tiden",
        -8.226254559963728
      ],
      [
        "▁information",
        -8.238326974971674
      ],
      [
        "▁ofta",
        -8.245225012269481
      ],
      [
        "▁lika",
        -8.251074421120602
      ],
      [
        "▁mina",
        -8.251141940972502
      ],
      [
        "▁Man",
        -8.253973936803105
      ],
      [
        "▁tog",
        -8.262335989510754
      ],
      [
        "▁personer",
        -8.26373341496157
      ],
      [
        "▁därför",
        -8.264779262466252
      ],
      [
        "b",
        -8.264988246569146
      ],
      [
        "▁lätt",
        -8.267923247896428
      ],
      [
        "▁använda",
        -8.273650313536407
      ],
      [
        "▁C",
        -8.273738337933256
      ],
      [
        "▁mindre",
        -8.275163713534473
      ],
      [
        "▁M",
        -8.285710679879486
      ],
      [
        "▁läsa",
        -8.286472003817364
      ],
      [
        "▁sen",
        -8.286529184336194
      ],
      [
        "▁honom",
        -8.297069359879341
      ],
      [
        "'",
        -8.30445291209502
      ],
      [
        "▁säga",
        -8.305036496434862
      ],
      [
        "▁hemma",
        -8.317168456285746
      ],
      [
        "▁P",
        -8.317947673145191
      ],
      [
        "▁direkt",
        -8.32050739065897
      ],
      [
        "▁ändå",
        -8.322547700479275
      ],
      [
        "▁större",
        -8.323853918321282
      ],
      [
        "▁bör",
        -8.329996877181003
      ],
      [
        "▁ur",
        -8.337140491957307
      ],
      [
        "▁F",
        -8.348418105797313
      ],
      [
        "▁mat",
        -8.352293138924102
      ],
      [
        "▁innebär",
        -8.353755061976214
      ],
      [
        "▁Som",
        -8.354247711659937
      ],
      [
        "▁står",
        -8.355865337833832
      ],
      [
        "▁hans",
        -8.356501047649745
      ],
      [
        "▁enkelt",
        -8.356574439155823
      ],
      [
        "▁små",
        -8.35669881759727
      ],
      [
        "▁egen",
        -8.357054108955861
      ],
      [
        "ing",
        -8.358103565971028
      ],
      [
        "▁exempel",
        -8.359131513139697
      ],
      [
        "▁kvar",
        -8.361773225333707
      ],
      [
        "▁Efter",
        -8.363292140040713
      ],
      [
        "▁grund",
        -8.372311019924146
      ],
      [
        "▁mål",
        -8.373308016446883
      ],
      [
        "▁E",
        -8.380764925408428
      ],
      [
        "or",
        -8.388619340826706
      ],
      [
        "▁slut",
        -8.389276661279602
      ],
      [
        "▁senaste",
        -8.390678857593912
      ],
      [
        "▁procent",
        -8.391746808371519
      ],
      [
        "▁liv",
        -8.392502170423889
      ],
      [
        "▁Hon",
        -8.39360446163321
      ],
      [
        "▁längre",
        -8.394803754413205
      ],
      [
        "▁haft",
        -8.396321464970816
      ],
      [
        "▁känner",
        -8.401108492563887
      ],
      [
        "man",
        -8.402285865153715
      ],
      [
        "▁hög",
        -8.405195643886943
      ],
      [
        "▁dagar",
        -8.406336947477255
      ],
      [
        "▁Då",
        -8.407813071958044
      ],
      [
        "▁stort",
        -8.409024810696444
      ],
      [
        "▁spel",
        -8.418028968634607
      ],
      [
        "▁problem",
        -8.420310476112682
      ],
      [
        "▁saker",
        -8.425026203133555
      ],
      [
        "▁god",
        -8.429589512290361
      ],
      [
        "▁kr",
        -8.43186319616603
      ],
      [
        "▁blivit",
        -8.440086611073605
      ],
      [
        "▁länge",
        -8.443635364581253
      ],
      [
        "▁vatten",
        -8.45124802713203
      ],
      [
        "▁Stockholm",
        -8.451463832551175
      ],
      [
        "▁G",
        -8.45185771858367
      ],
      [
        "▁möjligt",
        -8.451923834275059
      ],
      [
        "▁faktiskt",
        -8.45661556771329
      ],
      [
        "▁Under",
        -8.460424470463398
      ],
      [
        "▁par",
        -8.460750976876815
      ],
      [
        "]",
        -8.463091226300286
      ],
      [
        "[",
        -8.463397224798591
      ],
      [
        "▁H",
        -8.465579045519076
      ],
      [
        "▁lång",
        -8.466965192169967
      ],
      [
        "▁T",
        -8.470215683492224
      ],
      [
        "▁pengar",
        -8.473429916991646
      ],
      [
        "▁skapa",
        -8.475578878601521
      ],
      [
        "▁visar",
        -8.475597228078858
      ],
      [
        "in",
        -8.47793467990195
      ],
      [
        "▁köpa",
        -8.478915273240016
      ],
      [
        "|",
        -8.485169229538938
      ],
      [
        "▁svårt",
        -8.491314985371456
      ],
      [
        "▁kort",
        -8.492103774966427
      ],
      [
        "▁ganska",
        -8.495009811821658
      ],
      [
        "▁känns",
        -8.495392624831135
      ],
      [
        "ännu",
        -8.496424853599752
      ],
      [
        "▁Där",
        -8.496629324341248
      ],
      [
        "▁hand",
        -8.506014064895103
      ],
      [
        "▁börjar",
        -8.50620952620771
      ],
      [
        "▁liten",
        -8.506364226517155
      ],
      [
        "▁per",
        -8.5078076049949
      ],
      [
        "▁K",
        -8.514952144303443
      ],
      [
        "▁gärna",
        -8.516819372823173
      ],
      [
        "▁hålla",
        -8.5207880180868
      ],
      [
        "▁inget",
        -8.523400477000736
      ],
      [
        "▁nytt",
        -8.529217110114562
      ],
      [
        "▁Är",
        -8.535049732580493
      ],
      [
        "▁inför",
        -8.542479671459498
      ],
      [
        "▁håller",
        -8.543174589701213
      ],
      [
        "▁nästan",
        -8.548433298501992
      ],
      [
        "▁ute",
        -8.548993743570339
      ],
      [
        "▁hotell",
        -8.550108888822281
      ],
      [
        "gått",
        -8.556638777119764
      ],
      [
        "▁fortfarande",
        -8.557092431665545
      ],
      [
        "x",
        -8.557769094115585
      ],
      [
        "▁hittar",
        -8.561128487330421
      ],
      [
        "▁vårt",
        -8.56128436405366
      ],
      [
        "▁extra",
        -8.565421682575098
      ],
      [
        "▁handlar",
        -8.566008148537465
      ],
      [
        "▁dagen",
        -8.56891677972641
      ],
      [
        "▁frågor",
        -8.571705886312618
      ],
      [
        "▁vissa",
        -8.571943422206713
      ],
      [
        "▁fast",
        -8.57293244916867
      ],
      [
        "liga",
        -8.576711791363328
      ],
      [
        "▁kronor",
        -8.579613267460282
      ],
      [
        "▁dess",
        -8.579697707381424
      ],
      [
        "▁folk",
        -8.581685709842537
      ],
      [
        "▁väg",
        -8.582913537494127
      ],
      [
        "▁först",
        -8.583995557912496
      ],
      [
        "▁L",
        -8.584434763374919
      ],
      [
        "▁gånger",
        -8.584775158366439
      ],
      [
        "▁ca",
        -8.588394599320253
      ],
      [
        "▁precis",
        -8.588952398225159
      ],
      [
        "▁vilka",
        -8.590686198020366
      ],
      [
        "▁samtidigt",
        -8.593212636262171
      ],
      [
        "▁alltså",
        -8.597383601921727
      ],
      [
        "▁spela",
        -8.602473448337072
      ],
      [
        "▁vidare",
        -8.604312031899122
      ],
      [
        "▁hoppas",
        -8.604710234039247
      ],
      [
        "▁istället",
        -8.605528860700218
      ],
      [
        "▁henne",
        -8.605578679320853
      ],
      [
        "▁senare",
        -8.609874244026669
      ],
      [
        "▁Ja",
        -8.611261960884788
      ],
      [
        "▁använder",
        -8.613267798263548
      ],
      [
        "▁viktigt",
        -8.616942812514674
      ],
      [
        "*",
        -8.618819273607484
      ],
      [
        "▁bilder",
        -8.61902947289669
      ],
      [
        "▁året",
        -8.61905958131075
      ],
      [
        "▁kommun",
        -8.61972797889824
      ],
      [
        "▁bil",
        -8.620503410817095
      ],
      [
        "ligt",
        -8.620705194353643
      ],
      [
        "▁Alla",
        -8.623257802241206
      ],
      [
        "▁vilken",
        -8.62383371237935
      ],
      [
        "▁fel",
        -8.628127884702566
      ],
      [
        "▁minst",
        -8.6307937840937
      ],
      [
        "▁började",
        -8.636536076046648
      ],
      [
        "▁arbete",
        -8.637936319695271
      ],
      [
        "▁form",
        -8.639183267415458
      ],
      [
        "vägen",
        -8.639547282109366
      ],
      [
        "▁gott",
        -8.642721686811637
      ],
      [
        "▁nästa",
        -8.643088732562205
      ],
      [
        "▁fyra",
        -8.650175033783803
      ],
      [
        "▁skriver",
        -8.65308545660549
      ],
      [
        "talet",
        -8.654102564716037
      ],
      [
        "▁sidan",
        -8.656968849279306
      ],
      [
        "▁stöd",
        -8.658917922159144
      ],
      [
        "▁sista",
        -8.663624830923384
      ],
      [
        "▁ihop",
        -8.663929116947429
      ],
      [
        "el",
        -8.665350223792402
      ],
      [
        "▁gratis",
        -8.665714610548527
      ],
      [
        "▁största",
        -8.66593180573053
      ],
      [
        "▁person",
        -8.667563095895224
      ],
      [
        "▁endast",
        -8.670955551543702
      ],
      [
        "▁åter",
        -8.67117012492713
      ],
      [
        "verkar",
        -8.672695672961442
      ],
      [
        "▁nära",
        -8.676583060466845
      ],
      [
        "▁N",
        -8.683142035936553
      ],
      [
        "▁fråga",
        -8.683428582270608
      ],
      [
        "▁jobb",
        -8.68356585011133
      ],
      [
        "▁erbjuder",
        -8.684463639925651
      ],
      [
        "området",
        -8.684671363250663
      ],
      [
        "▁pris",
        -8.685604877155633
      ],
      [
        "▁flesta",
        -8.687943823965483
      ],
      [
        "▁lag",
        -8.689828565794658
      ],
      [
        "▁kvinnor",
        -8.69167066900909
      ],
      [
        "▁själva",
        -8.698790371080051
      ],
      [
        "för",
        -8.703089136932983
      ],
      [
        "▁kring",
        -8.706234157075572
      ],
      [
        "▁sett",
        -8.708617357196072
      ],
      [
        "▁snabbt",
        -8.710049185495873
      ],
      [
        "▁hennes",
        -8.715461322218403
      ],
      [
        "aste",
        -8.716319655671677
      ],
      [
        "om",
        -8.716353461409215
      ],
      [
        "▁egna",
        -8.722351569675833
      ],
      [
        "D",
        -8.726549105845836
      ],
      [
        "▁välja",
        -8.72830764855865
      ],
      [
        "▁bild",
        -8.735663937130271
      ],
      [
        "▁Till",
        -8.738618331494312
      ],
      [
        "▁möjlighet",
        -8.738879567414623
      ],
      [
        "vis",
        -8.740978592059722
      ],
      [
        "▁dessutom",
        -8.742783411337196
      ],
      [
        "▁världen",
        -8.74351396717575
      ],
      [
        "▁klart",
        -8.747347136481835
      ],
      [
        "▁såg",
        -8.747493553599748
      ],
      [
        "▁hel",
        -8.748251951137007
      ],
      [
        "tagit",
        -8.7483569909442
      ],
      [
        "▁börja",
        -8.750552503384167
      ],
      [
        "▁veckan",
        -8.753281068523089
      ],
      [
        "▁Idag",
        -8.759535084297516
      ],
      [
        "▁gamla",
        -8.76186579189384
      ],
      [
        "▁D",
        -8.763059631356763
      ],
      [
        "▁borde",
        -8.764598391234236
      ],
      [
        "▁O",
        -8.76695615054894
      ],
      [
        "▁vecka",
        -8.767526571495527
      ],
      [
        "son",
        -8.768170091694724
      ],
      [
        "▁all",
        -8.769092352108999
      ],
      [
        "ö",
        -8.769881401356736
      ],
      [
        "▁beslut",
        -8.771023582731683
      ],
      [
        "j",
        -8.776651263729859
      ],
      [
        "ning",
        -8.777853099620426
      ],
      [
        "▁fin",
        -8.783731616887772
      ],
      [
        "▁rum",
        -8.784654223513682
      ],
      [
        "berg",
        -8.787132337511945
      ],
      [
        "▁helst",
        -8.78791960166803
      ],
      [
        "▁Även",
        -8.794202670410266
      ],
      [
        "▁varför",
        -8.79588311474591
      ],
      [
        "▁långt",
        -8.796343490641375
      ],
      [
        "▁kul",
        -8.804444427283748
      ],
      [
        "▁tips",
        -8.805211686041524
      ],
      [
        "▁lägga",
        -8.805257443699945
      ],
      [
        "▁trots",
        -8.805667325517895
      ],
      [
        "▁delar",
        -8.805958916788489
      ],
      [
        "inga",
        -8.806952999022363
      ],
      [
        "▁AB",
        -8.807279793092286
      ],
      [
        "on",
        -8.808727290719037
      ],
      [
        "_",
        -8.81399926890832
      ],
      [
        "▁behov",
        -8.81419679973898
      ],
      [
        "▁sex",
        -8.81947136779466
      ],
      [
        "▁början",
        -8.822350902351038
      ],
      [
        "A",
        -8.823348911404763
      ],
      [
        "hjälper",
        -8.827177640831735
      ],
      [
        "▁ville",
        -8.827430406805924
      ],
      [
        "▁hjälpa",
        -8.829994284548201
      ],
      [
        "▁typ",
        -8.831901133697977
      ],
      [
        "▁minuter",
        -8.832168891342837
      ],
      [
        "ex",
        -8.833350045923916
      ],
      [
        "▁Nike",
        -8.834785767341389
      ],
      [
        "▁fem",
        -8.835735507576878
      ],
      [
        "▁Air",
        -8.836992521627591
      ],
      [
        "▁visa",
        -8.838713795953588
      ],
      [
        "▁medan",
        -8.841889089555853
      ],
      [
        "▁brukar",
        -8.844595428350521
      ],
      [
        "▁R",
        -8.846018941008639
      ],
      [
        "▁tänka",
        -8.847757567986452
      ],
      [
        "▁skriva",
        -8.848468159171363
      ],
      [
        "▁svar",
        -8.848527419078707
      ],
      [
        "▁emot",
        -8.848696879835469
      ],
      [
        "▁ibland",
        -8.850740326737501
      ],
      [
        "▁enda",
        -8.851463437139493
      ],
      [
        "▁snart",
        -8.85274886781689
      ],
      [
        "▁namn",
        -8.854599781361108
      ],
      [
        "▁Vid",
        -8.861431558507476
      ],
      [
        "▁of",
        -8.864079583316892
      ],
      [
        "▁arbetar",
        -8.864812530840815
      ],
      [
        "ska",
        -8.865390086817
      ],
      [
        "▁Max",
        -8.866801814086962
      ],
      [
        "▁fina",
        -8.866913757361734
      ],
      [
        "▁heller",
        -8.867320882369452
      ],
      [
        "▁gången",
        -8.875888663283032
      ],
      [
        "fanns",
        -8.880566429759039
      ],
      [
        "▁V",
        -8.880582322090678
      ],
      [
        "▁kl",
        -8.883096423763384
      ],
      [
        "▁Denna",
        -8.885560354290458
      ],
      [
        "▁egentligen",
        -8.886707211437463
      ],
      [
        "stod",
        -8.888243244738893
      ],
      [
        "▁resultat",
        -8.889036444259458
      ],
      [
        "▁vanligt",
        -8.8904452840824
      ],
      [
        "▁miljö",
        -8.890992013608136
      ],
      [
        "iska",
        -8.89268161247159
      ],
      [
        "▁känna",
        -8.8928295633861
      ],
      [
        "▁Sedan",
        -8.89285913241367
      ],
      [
        "igt",
        -8.89298326582596
      ],
      [
        "▁livet",
        -8.896230607575314
      ],
      [
        "▁miljoner",
        -8.902704184710968
      ],
      [
        "▁förslag",
        -8.905684123837512
      ],
      [
        "+",
        -8.90958117356996
      ],
      [
        "▁timmar",
        -8.912283210179046
      ],
      [
        "▁online",
        -8.914298768648154
      ],
      [
        "▁dags",
        -8.920975489447011
      ],
      [
        "com",
        -8.921389741356814
      ],
      [
        "·",
        -8.925350662363401
      ],
      [
        "▁tag",
        -8.9272414986593
      ],
      [
        "sitter",
        -8.927285407635665
      ],
      [
        "ej",
        -8.927878554447735
      ],
      [
        "▁antal",
        -8.928832300675875
      ],
      [
        "▁Sveriges",
        -8.930497794971672
      ],
      [
        "ig",
        -8.930973145453342
      ],
      [
        "=",
        -8.93173663732606
      ],
      [
        "▁EU",
        -8.931774372161351
      ],
      [
        "▁utanför",
        -8.932485737583908
      ],
      [
        "▁inne",
        -8.932804222973846
      ],
      [
        "iga",
        -8.93434073512778
      ],
      [
        "▁veta",
        -8.934640336623467
      ],
      [
        "▁Tack",
        -8.93696217235992
      ],
      [
        "▁km",
        -8.938028432638651
      ],
      [
        "sagt",
        -8.940545094174864
      ],
      [
        "▁varandra",
        -8.941381407758284
      ],
      [
        "▁jätte",
        -8.942206049644653
      ],
      [
        "▁ord",
        -8.942668950270264
      ],
      [
        "▁hus",
        -8.944619562324853
      ],
      [
        "▁passar",
        -8.94729685836584
      ],
      [
        "▁bäst",
        -8.948764630610885
      ],
      [
        "▁särskilt",
        -8.94935953624142
      ],
      [
        "▁ytterligare",
        -8.949805759792586
      ],
      [
        "▁sådan",
        -8.950600812737873
      ],
      [
        "▁verksamhet",
        -8.950644604863987
      ],
      [
        "▁färg",
        -8.950823435338311
      ],
      [
        "▁framför",
        -8.951716537735184
      ],
      [
        "▁låg",
        -8.9592699835211
      ],
      [
        "▁båda",
        -8.961752905761012
      ],
      [
        "▁fungerar",
        -8.962584824083057
      ],
      [
        "▁val",
        -8.965303612063572
      ],
      [
        "▁energi",
        -8.968164899594395
      ],
      [
        "“",
        -8.971737265201517
      ],
      [
        "▁förra",
        -8.974829693392458
      ],
      [
        "▁används",
        -8.977218950479674
      ],
      [
        "▁resa",
        -8.977580592639223
      ],
      [
        "▁produkter",
        -8.980578439775494
      ],
      [
        "B",
        -8.98263694228755
      ],
      [
        "▁kommit",
        -8.989775789048224
      ],
      [
        "▁gillar",
        -8.990412001043653
      ],
      [
        "▁Sen",
        -8.993903423007685
      ],
      [
        "▁kontakt",
        -8.994486027713554
      ],
      [
        "▁USA",
        -9.000384734004236
      ],
      [
        "▁Min",
        -9.002045686841559
      ],
      [
        "▁ned",
        -9.003371720690831
      ],
      [
        "tänker",
        -9.004926455061955
      ],
      [
        "▁skolan",
        -9.005638902211206
      ],
      [
        "▁händer",
        -9.014206687080215
      ],
      [
        "▁Av",
        -9.020563145954242
      ],
      [
        "sson",
        -9.02274070086014
      ],
      [
        "▁arbeta",
        -9.023086920005179
      ],
      [
        "▁Se",
        -9.023737120169345
      ],
      [
        "▁bakom",
        -9.025500683141928
      ],
      [
        "lagen",
        -9.027847812682227
      ],
      [
        "▁söker",
        -9.03014485515736
      ],
      [
        "▁utveckling",
        -9.030576909387893
      ],
      [
        "▁omdömen",
        -9.030896540167932
      ],
      [
        "▁Inte",
        -9.033466768497867
      ],
      [
        "▁betala",
        -9.038898442926339
      ],
      [
        "▁tur",
        -9.040754053944205
      ],
      [
        "▁spelar",
        -9.041008993229383
      ],
      [
        "het",
        -9.041978895525196
      ],
      [
        "▁landet",
        -9.046056564804191
      ],
      [
        "▁igenom",
        -9.046635193020412
      ],
      [
        "▁åka",
        -9.048799918743674
      ],
      [
        "och",
        -9.049820875119938
      ],
      [
        "la",
        -9.051812178024337
      ],
      [
        "▁bok",
        -9.052944148039705
      ],
      [
        "▁visst",
        -9.057710762799639
      ],
      [
        "▁säkert",
        -9.058450037744482
      ],
      [
        "▁svensk",
        -9.059237041627286
      ],
      [
        "▁barnen",
        -9.059440451521295
      ],
      [
        "▁bor",
        -9.061108376319249
      ],
      [
        "▁ovan",
        -9.065992605409516
      ],
      [
        "▁veckor",
        -9.067728473147987
      ],
      [
        "▁inlägg",
        -9.06804108724672
      ],
      [
        "Dessutom",
        -9.072262526982168
      ],
      [
        "▁besök",
        -9.072496271362981
      ],
      [
        "▁lilla",
        -9.07349555939141
      ],
      [
        "▁Kan",
        -9.075377449104971
      ],
      [
        "▁innehåller",
        -9.083109207951145
      ],
      [
        "▁maj",
        -9.08316118986081
      ],
      [
        "samma",
        -9.083238605599014
      ],
      [
        "▁äta",
        -9.084277541736368
      ],
      [
        "väl",
        -9.086785645713086
      ],
      [
        "▁Enligt",
        -9.087337878782233
      ],
      [
        "▁högre",
        -9.089048245101965
      ],
      [
        "▁månader",
        -9.093348984362574
      ],
      [
        "▁sak",
        -9.0951151036013
      ],
      [
        "­",
        -9.09655533574714
      ],
      [
        "▁jobba",
        -9.097229050466492
      ],
      [
        "▁sida",
        -9.099132444576757
      ],
      [
        "▁ja",
        -9.099415884200658
      ],
      [
        "▁huvud",
        -9.100301174836753
      ],
      [
        "C",
        -9.1027783333099
      ],
      [
        "▁kroppen",
        -9.103014502682331
      ],
      [
        "▁män",
        -9.103944094471544
      ],
      [
        "▁krav",
        -9.104129439687751
      ],
      [
        "▁ljus",
        -9.104191701878545
      ],
      [
        "▁berättar",
        -9.10477604903063
      ],
      [
        "▁lämna",
        -9.10552484641136
      ],
      [
        "▁alls",
        -9.106974504985773
      ],
      [
        "▁ingår",
        -9.11313382600628
      ],
      [
        "▁musik",
        -9.115936235604119
      ],
      [
        "▁öppna",
        -9.115991454703927
      ],
      [
        "▁lära",
        -9.119110434912182
      ],
      [
        "▁steg",
        -9.119690216658334
      ],
      [
        ">",
        -9.120387409897035
      ],
      [
        "▁försöka",
        -9.120537645275723
      ],
      [
        "▁kunder",
        -9.121167501400837
      ],
      [
        "▁max",
        -9.122285774852545
      ],
      [
        "▁Vill",
        -9.123081806682814
      ],
      [
        "▁The",
        -9.124865978265987
      ],
      [
        "▁åren",
        -9.126134331708677
      ],
      [
        "▁projekt",
        -9.126219887928837
      ],
      [
        "Många",
        -9.127010116294917
      ],
      [
        "▁kör",
        -9.129428887719007
      ],
      [
        "väljer",
        -9.129545622192445
      ],
      [
        "sätta",
        -9.133322986431397
      ],
      [
        "år",
        -9.137125995796
      ],
      [
        "▁film",
        -9.137463032835438
      ],
      [
        "▁Var",
        -9.137927017213665
      ],
      [
        "I",
        -9.13876515420551
      ],
      [
        "▁roligt",
        -9.139561794288458
      ],
      [
        "▁the",
        -9.142504250043968
      ],
      [
        "▁främst",
        -9.14378654590829
      ],
      [
        "▁bygga",
        -9.14453633460622
      ],
      [
        "▁personal",
        -9.145105025964984
      ],
      [
        "▁betyg",
        -9.146859625404414
      ],
      [
        "▁äldre",
        -9.14939974156133
      ],
      [
        "▁följa",
        -9.150472185234825
      ],
      [
        "M",
        -9.150860567787191
      ],
      [
        "▁Göteborg",
        -9.155693823715024
      ],
      [
        "▁frågan",
        -9.157570788329032
      ],
      [
        "▁mamma",
        -9.158796402554962
      ],
      [
        "▁vanlig",
        -9.167867443359093
      ],
      [
        "går",
        -9.170601810972267
      ],
      [
        "P",
        -9.170875885797578
      ],
      [
        "▁viktig",
        -9.173823218015778
      ],
      [
        "att",
        -9.174441927837794
      ],
      [
        "▁skrev",
        -9.179398650484803
      ],
      [
        "ligen",
        -9.179684265765065
      ],
      [
        "▁perfekt",
        -9.180814899469771
      ],
      [
        "▁full",
        -9.181527666958381
      ],
      [
        "▁spelare",
        -9.182632359261094
      ],
      [
        "▁tack",
        -9.18448994983537
      ],
      [
        "T",
        -9.18563313196627
      ],
      [
        "▁igång",
        -9.189148579372098
      ],
      [
        "▁alternativ",
        -9.190084288311073
      ],
      [
        "▁spännande",
        -9.191793932459332
      ],
      [
        "▁sker",
        -9.192653135298704
      ],
      [
        "ja",
        -9.195451154310591
      ],
      [
        "▁tydlig",
        -9.196319247069743
      ],
      [
        "▁ifrån",
        -9.196503113949396
      ],
      [
        "▁fint",
        -9.19739031962548
      ],
      [
        "läget",
        -9.199251160083563
      ],
      [
        "▁vänner",
        -9.199515051866898
      ],
      [
        "ström",
        -9.200194839858742
      ],
      [
        "▁ansvar",
        -9.204033794135073
      ],
      [
        "Det",
        -9.206682580674263
      ],
      [
        "▁J",
        -9.20728643790129
      ],
      [
        "▁nätet",
        -9.207470990425383
      ],
      [
        "▁dra",
        -9.207525542663635
      ],
      [
        "▁samband",
        -9.20821162687251
      ],
      [
        "lig",
        -9.210118046209029
      ],
      [
        "▁U",
        -9.211574856206578
      ],
      [
        "▁följande",
        -9.215711725926578
      ],
      [
        "▁uppgifter",
        -9.216455306896648
      ],
      [
        "▁sommar",
        -9.216501656918295
      ],
      [
        "▁goda",
        -9.217425046002875
      ],
      [
        "▁dit",
        -9.217945991991645
      ],
      [
        "▁poäng",
        -9.218444138628932
      ],
      [
        "slutet",
        -9.220669907043694
      ],
      [
        "▁satt",
        -9.22300207739749
      ],
      [
        "är",
        -9.224726636063345
      ],
      [
        "▁Svenska",
        -9.225191854492879
      ],
      [
        "▁arbets",
        -9.225839320966093
      ],
      [
        "▁roll",
        -9.226114965320846
      ],
      [
        "▁massa",
        -9.226730778304969
      ],
      [
        "▁Malmö",
        -9.227063800730868
      ],
      [
        "▁minska",
        -9.227065928111136
      ],
      [
        "▁blogg",
        -9.227136479429848
      ],
      [
        "▁januari",
        -9.228730794045994
      ],
      [
        "▁jobbar",
        -9.229549166647429
      ],
      [
        "▁fort",
        -9.23063936447954
      ],
      [
        "laget",
        -9.230789336902046
      ],
      [
        "tid",
        -9.230818401880763
      ],
      [
        "▁erfarenhet",
        -9.234325645391634
      ],
      [
        "▁lär",
        -9.234595228475145
      ],
      [
        "▁månad",
        -9.236574234249018
      ],
      [
        "▁Allt",
        -9.23733189465263
      ],
      [
        "▁jobbet",
        -9.23824923766216
      ],
      [
        "▁eget",
        -9.240017723732807
      ],
      [
        "▁titta",
        -9.241918178713716
      ],
      [
        "▁utbildning",
        -9.246007252449495
      ],
      [
        "▁augusti",
        -9.246097915571827
      ],
      [
        "▁län",
        -9.246768437431477
      ],
      [
        "som",
        -9.24874548153168
      ],
      [
        "▁liknande",
        -9.24954470679172
      ],
      [
        "▁öka",
        -9.249599221587356
      ],
      [
        "▁fortsätta",
        -9.249640398811213
      ],
      [
        "▁älskar",
        -9.251952933090147
      ],
      [
        "era",
        -9.2521787152505
      ],
      [
        "▁Dessa",
        -9.254920518607248
      ],
      [
        "▁unga",
        -9.254974347692254
      ],
      [
        "▁liksom",
        -9.255560998608361
      ],
      [
        "försöker",
        -9.256693657935983
      ],
      [
        "▁Genom",
        -9.260492671394942
      ],
      [
        "står",
        -9.260653724514528
      ],
      [
        "låter",
        -9.262562903756118
      ],
      [
        "▁tio",
        -9.262974473750683
      ],
      [
        "▁igår",
        -9.264727715030471
      ],
      [
        "▁kommunen",
        -9.265434275020157
      ],
      [
        "▁Nej",
        -9.266300316072604
      ],
      [
        "▁fortsätter",
        -9.267683008828387
      ],
      [
        "▁tro",
        -9.268529753990535
      ],
      [
        "▁företaget",
        -9.269405940997828
      ],
      [
        "▁stå",
        -9.269515592894468
      ],
      [
        "▁glad",
        -9.26989696268041
      ],
      [
        "ger",
        -9.27143122467141
      ],
      [
        "▁behövs",
        -9.271704454758943
      ],
      [
        "§",
        -9.272004720655431
      ],
      [
        "delen",
        -9.273083241239439
      ],
      [
        "▁priser",
        -9.273949335722016
      ],
      [
        "▁vem",
        -9.274520200186206
      ],
      [
        "▁Bra",
        -9.275035356483347
      ],
      [
        "▁års",
        -9.275279264949397
      ],
      [
        "▁skicka",
        -9.281638646188597
      ],
      [
        "▁krävs",
        -9.282599052841979
      ],
      [
        "#",
        -9.28499218776845
      ],
      [
        "▁användas",
        -9.285259187856473
      ],
      [
        "▁utveckla",
        -9.285865887315092
      ],
      [
        "▁material",
        -9.286775596524885
      ],
      [
        "▁vilja",
        -9.288859240256269
      ],
      [
        "Därför",
        -9.289681744958036
      ],
      [
        "Jag",
        -9.29063780706859
      ],
      [
        "▁tredje",
        -9.292471339277984
      ],
      [
        "▁hälsa",
        -9.29410904546381
      ],
      [
        "▁Från",
        -9.295276243039053
      ],
      [
        "▁kolla",
        -9.295884220561971
      ],
      [
        "▁rör",
        -9.296078935612908
      ],
      [
        "▁maskinöver",
        -9.296707309264423
      ],
      [
        "▁mars",
        -9.298711271599233
      ],
      [
        "▁arbetet",
        -9.299532858118601
      ],
      [
        "betyder",
        -9.301127434292045
      ],
      [
        "▁Eller",
        -9.304072212045247
      ],
      [
        "▁program",
        -9.309364992122367
      ],
      [
        "▁Visa",
        -9.30957136639782
      ],
      [
        "▁vanliga",
        -9.312817803522371
      ],
      [
        "▁länder",
        -9.31291506957944
      ],
      [
        "▁kvalitet",
        -9.313777819835865
      ],
      [
        "▁bidra",
        -9.316015015067519
      ],
      [
        "▁köra",
        -9.316110411828463
      ],
      [
        "▁fortsatt",
        -9.317661629635147
      ],
      [
        "▁kväll",
        -9.318457001447433
      ],
      [
        "K",
        -9.320501916966283
      ],
      [
        "stället",
        -9.323121393060024
      ],
      [
        "▁ungefär",
        -9.325778982699225
      ],
      [
        "▁nedan",
        -9.32651180542033
      ],
      [
        "nde",
        -9.327085909816072
      ],
      [
        "därmed",
        -9.32831135465228
      ],
      [
        "▁hör",
        -9.329951289924962
      ],
      [
        "▁meter",
        -9.331692434803841
      ],
      [
        "▁kontakta",
        -9.331920394820303
      ],
      [
        "▁bilen",
        -9.33246105789397
      ],
      [
        "»",
        -9.333319614936022
      ],
      [
        "▁påverka",
        -9.333780089417566
      ],
      [
        "▁start",
        -9.33411202904007
      ],
      [
        "▁jul",
        -9.338166831638999
      ],
      [
        "▁and",
        -9.34180053717358
      ],
      [
        "▁råd",
        -9.341905529484
      ],
      [
        "▁stund",
        -9.342311598450628
      ],
      [
        "▁grupp",
        -9.342515630630716
      ],
      [
        "eller",
        -9.342577713281685
      ],
      [
        "tal",
        -9.3431345644294
      ],
      [
        "▁service",
        -9.347795527232215
      ],
      [
        "▁vård",
        -9.349823547075475
      ],
      [
        "Kanske",
        -9.350111824249293
      ],
      [
        "tyckte",
        -9.350221673205018
      ],
      [
        "finnas",
        -9.351097774308274
      ],
      [
        "▁engelska",
        -9.35165697412878
      ],
      [
        "▁kultur",
        -9.353088165625444
      ],
      [
        "▁prata",
        -9.353415017979419
      ],
      [
        "▁kunskap",
        -9.353619906527241
      ],
      [
        "▁exempelvis",
        -9.35460961486698
      ],
      [
        "▁tillgång",
        -9.354999059337235
      ],
      [
        "Varför",
        -9.356591564505077
      ],
      [
        "▁Ska",
        -9.357528612213152
      ],
      [
        "▁samarbete",
        -9.359121272390128
      ],
      [
        "▁cirka",
        -9.35979100912096
      ],
      [
        "ras",
        -9.35980460596669
      ],
      [
        "ut",
        -9.360702333210957
      ],
      [
        "▁Ta",
        -9.361445000466086
      ],
      [
        "▁In",
        -9.361894539847432
      ],
      [
        "▁morgon",
        -9.362151085484546
      ],
      [
        "▁viss",
        -9.364346799711425
      ],
      [
        "▁Ni",
        -9.36487900293024
      ],
      [
        "▁heter",
        -9.3648966574782
      ],
      [
        "av",
        -9.365401418261188
      ],
      [
        "▁skor",
        -9.367119408039818
      ],
      [
        "orna",
        -9.368973373666979
      ],
      [
        "men",
        -9.370663872787684
      ],
      [
        "▁boken",
        -9.3709251968643
      ],
      [
        "behöva",
        -9.372182500131348
      ],
      [
        "oftast",
        -9.37291434637345
      ],
      [
        "▁sommaren",
        -9.373351795809942
      ],
      [
        "▁air",
        -9.375167394612685
      ],
      [
        "▁absolut",
        -9.375330540591609
      ],
      [
        "▁juni",
        -9.37638356025599
      ],
      [
        "▁Vår",
        -9.376774407983817
      ],
      [
        "▁uppdrag",
        -9.377357632652078
      ],
      [
        "tänkte",
        -9.377890346794599
      ],
      [
        "lägger",
        -9.38316586990313
      ],
      [
        "bolaget",
        -9.384638022063152
      ],
      [
        "▁risk",
        -9.385253290139921
      ],
      [
        "▁helgen",
        -9.387349702798431
      ],
      [
        "▁halv",
        -9.388273041543433
      ],
      [
        "anser",
        -9.389912035570848
      ],
      [
        "L",
        -9.391403956343108
      ],
      [
        "visade",
        -9.39149660892111
      ],
      [
        "▁favorit",
        -9.393869515215018
      ],
      [
        "▁kvällen",
        -9.394617540226943
      ],
      [
        "består",
        -9.394996321178915
      ],
      [
        "▁Europa",
        -9.396364846574256
      ],
      [
        "▁Anna",
        -9.398077032103783
      ],
      [
        "▁berätta",
        -9.39940156601852
      ],
      [
        "▁övriga",
        -9.399509036167707
      ],
      [
        "▁förstår",
        -9.399643288499817
      ],
      [
        "▁gav",
        -9.399678011152753
      ],
      [
        "▁framtiden",
        -9.3999198133129
      ],
      [
        "ä",
        -9.40087506939785
      ],
      [
        "▁TV",
        -9.400938791198111
      ],
      [
        "▁nike",
        -9.402104838464005
      ],
      [
        "▁följer",
        -9.40232970388161
      ],
      [
        "▁speciellt",
        -9.402839048670689
      ],
      [
        "▁klar",
        -9.40380466426648
      ],
      [
        "▁intressant",
        -9.405925739120152
      ],
      [
        "▁behandling",
        -9.406027705153697
      ],
      [
        "▁W",
        -9.40726934016045
      ],
      [
        "▁klara",
        -9.408844790063949
      ],
      [
        "▁beroende",
        -9.409975121268005
      ],
      [
        "G",
        -9.410551216058108
      ],
      [
        "▁land",
        -9.410725510054142
      ],
      [
        "▁senast",
        -9.410773469119253
      ],
      [
        "▁hår",
        -9.411281008103375
      ],
      [
        "▁fokus",
        -9.41140170965401
      ],
      [
        "▁svår",
        -9.412083293157767
      ],
      [
        "▁tanke",
        -9.412947496883534
      ],
      [
        "▁april",
        -9.415268802868798
      ],
      [
        "▁familj",
        -9.416251382063457
      ],
      [
        "▁system",
        -9.416611305822624
      ],
      [
        "▁skönt",
        -9.417361826151863
      ],
      [
        "▁oktober",
        -9.418091625607868
      ],
      [
        "åkte",
        -9.418532534038466
      ],
      [
        "▁nämligen",
        -9.420219639416269
      ],
      [
        "ny",
        -9.42115129680156
      ],
      [
        "menar",
        -9.42120654527275
      ],
      [
        "▁ex",
        -9.421996284587378
      ],
      [
        "ifrån",
        -9.422309483221685
      ],
      [
        "▁september",
        -9.423669103010992
      ],
      [
        "▁bilden",
        -9.425066149247884
      ],
      [
        "▁lan",
        -9.427553550674693
      ],
      [
        "Eftersom",
        -9.42899063025824
      ],
      [
        "▁match",
        -9.429319019137226
      ],
      [
        "▁intresse",
        -9.429585970006324
      ],
      [
        "▁djur",
        -9.431012157380358
      ],
      [
        "▁pa",
        -9.432692790732602
      ],
      [
        "▁telefon",
        -9.434473736556452
      ],
      [
        "emot",
        -9.43557898664554
      ],
      [
        "▁förstå",
        -9.435802366326783
      ],
      [
        "▁familjen",
        -9.43593901646907
      ],
      [
        "såsom",
        -9.436936638921491
      ],
      [
        "•",
        -9.439122521465828
      ],
      [
        "programmet",
        -9.44099900075806
      ],
      [
        "otroligt",
        -9.443287250517347
      ],
      [
        "sätter",
        -9.443432766726968
      ],
      [
        "bara",
        -9.44438778895189
      ],
      [
        "▁snabb",
        -9.445061290767525
      ],
      [
        "alldeles",
        -9.446558544991134
      ],
      [
        "—",
        -9.447169703768829
      ],
      [
        "väntar",
        -9.447728344545746
      ],
      [
        "kräver",
        -9.448342604143933
      ],
      [
        "▁verksamheten",
        -9.450451004005696
      ],
      [
        "annars",
        -9.451066344211046
      ],
      [
        "▁vackra",
        -9.451170137667557
      ],
      [
        "rum",
        -9.45192934094631
      ],
      [
        "▁lever",
        -9.452129162897858
      ],
      [
        "▁va",
        -9.453875246248908
      ],
      [
        "▁säker",
        -9.455292961432184
      ],
      [
        "▁skapar",
        -9.455666468549413
      ],
      [
        "E",
        -9.457290562361804
      ],
      [
        "▁bl",
        -9.461428656706572
      ],
      [
        "kände",
        -9.463067880771378
      ],
      [
        "▁ställa",
        -9.463514600834973
      ],
      [
        "F",
        -9.4639226043713
      ],
      [
        "▁februari",
        -9.465029052170916
      ],
      [
        "▁låta",
        -9.466464860345065
      ],
      [
        "höll",
        -9.466546451605693
      ],
      [
        "gående",
        -9.46849036788391
      ],
      [
        "▁tänkt",
        -9.470894384219811
      ],
      [
        "▁cm",
        -9.470951672568615
      ],
      [
        "▁anledning",
        -9.472064312108692
      ],
      [
        "gruppen",
        -9.472110687184498
      ],
      [
        "▁Stockholms",
        -9.472192173616811
      ],
      [
        "ast",
        -9.47351667586914
      ],
      [
        "▁tjänster",
        -9.473721363856622
      ],
      [
        "beror",
        -9.47526504624798
      ],
      [
        "▁staden",
        -9.475885966279257
      ],
      [
        "▁skillnad",
        -9.476385075898614
      ],
      [
        "▁boende",
        -9.476686713271
      ],
      [
        "▁hemsida",
        -9.477225983211442
      ],
      [
        "▁regeringen",
        -9.477411805567488
      ],
      [
        "▁fri",
        -9.477872562983901
      ],
      [
        "▁ökar",
        -9.477927857354276
      ],
      [
        "▁Hej",
        -9.480545942852533
      ],
      [
        "▁träning",
        -9.480558254818991
      ],
      [
        "ats",
        -9.481439402601074
      ],
      [
        "▁köp",
        -9.482124432245433
      ],
      [
        "ste",
        -9.483121311004929
      ],
      [
        "▁sociala",
        -9.485602654985223
      ],
      [
        "▁närheten",
        -9.488132975387161
      ],
      [
        "▁dagens",
        -9.489163747271588
      ],
      [
        "▁höra",
        -9.490055176408474
      ],
      [
        "▁träffa",
        -9.490167831073265
      ],
      [
        "gatan",
        -9.492953694472687
      ],
      [
        "typer",
        -9.493092838205724
      ],
      [
        "oavsett",
        -9.493634718731796
      ],
      [
        "▁erbjuda",
        -9.496164587281088
      ],
      [
        "▁möjligheter",
        -9.497733614193988
      ],
      [
        "▁fungera",
        -9.498659799489259
      ],
      [
        "systemet",
        -9.500081743434718
      ],
      [
        "▁bo",
        -9.500123981431605
      ],
      [
        "▁språk",
        -9.50031679416137
      ],
      [
        "sådana",
        -9.500985159837446
      ],
      [
        "▁december",
        -9.501175093102157
      ],
      [
        "▁kund",
        -9.502044397946948
      ],
      [
        "bar",
        -9.502319508372091
      ],
      [
        "▁leder",
        -9.502948844297237
      ],
      [
        "▁utifrån",
        -9.504714035670348
      ],
      [
        "▁planera",
        -9.504724105619811
      ],
      [
        "stående",
        -9.50534036519763
      ],
      [
        "▁produkt",
        -9.508150224869883
      ],
      [
        "satts",
        -9.50869301316132
      ],
      [
        "▁föräldrar",
        -9.512543079525388
      ],
      [
        "tiden",
        -9.512918371799204
      ],
      [
        "▁förbättra",
        -9.514089738757121
      ],
      [
        "▁viktiga",
        -9.516274277021656
      ],
      [
        "▁samla",
        -9.517552702867542
      ],
      [
        "ont",
        -9.518300996299379
      ],
      [
        "▁världens",
        -9.51903205718336
      ],
      [
        "▁samhället",
        -9.52265465329302
      ],
      [
        "mannen",
        -9.522854233310884
      ],
      [
        "▁november",
        -9.524378600263624
      ],
      [
        "▁leva",
        -9.52591275847229
      ],
      [
        "▁iväg",
        -9.52785239624317
      ],
      [
        "sk",
        -9.529229684133652
      ],
      [
        "på",
        -9.529242497248733
      ],
      [
        "▁lugn",
        -9.530126635714163
      ],
      [
        "▁gammal",
        -9.530939487724778
      ],
      [
        "▁juli",
        -9.530970525226639
      ],
      [
        "▁kvinna",
        -9.531101809615128
      ],
      [
        "▁värde",
        -9.532651326600895
      ],
      [
        "▁klockan",
        -9.532689394986544
      ],
      [
        "sökte",
        -9.534399103469692
      ],
      [
        "▁matchen",
        -9.534401519223962
      ],
      [
        "▁huset",
        -9.534657419253417
      ],
      [
        "▁elever",
        -9.535018576077919
      ],
      [
        "▁nöjd",
        -9.535021820137356
      ],
      [
        "z",
        -9.53519088035593
      ],
      [
        "▁hantera",
        -9.537243037453846
      ],
      [
        "▁data",
        -9.540704339002005
      ],
      [
        "▁högt",
        -9.541019306218734
      ],
      [
        "▁tas",
        -9.542796824484924
      ],
      [
        "R",
        -9.544650015409236
      ],
      [
        "▁höga",
        -9.545338921602829
      ],
      [
        "▁marknaden",
        -9.546517764537361
      ],
      [
        "spelet",
        -9.54741103784188
      ],
      [
        "värt",
        -9.547787914360217
      ],
      [
        "▁design",
        -9.548693820562416
      ],
      [
        "tyvärr",
        -9.548951173468199
      ],
      [
        "▁svart",
        -9.54957201157385
      ],
      [
        "▁plan",
        -9.550420845668144
      ],
      [
        "▁hund",
        -9.55154316890694
      ],
      [
        "▁skol",
        -9.551844586179607
      ],
      [
        "med",
        -9.55250738583344
      ],
      [
        "hända",
        -9.552620345922602
      ],
      [
        "resten",
        -9.552991535860254
      ],
      [
        "platsen",
        -9.555092786308032
      ],
      [
        "isk",
        -9.556290944188099
      ],
      [
        "dag",
        -9.557044898889915
      ],
      [
        "antalet",
        -9.557404295172269
      ],
      [
        "▁ändra",
        -9.562149599579106
      ],
      [
        "▁historia",
        -9.562605922159529
      ],
      [
        "▁super",
        -9.563678606093902
      ],
      [
        "▁flytta",
        -9.565659253520367
      ],
      [
        "▁testa",
        -9.566570246480536
      ],
      [
        "▁fullt",
        -9.568011442618749
      ],
      [
        "▁internet",
        -9.5700493248868
      ],
      [
        "▁kallas",
        -9.570805509584947
      ],
      [
        "mer",
        -9.572127568574048
      ],
      [
        "▁vikt",
        -9.573226744275354
      ],
      [
        "▁byta",
        -9.573616752143044
      ],
      [
        "by",
        -9.573730887754904
      ],
      [
        "▁Mer",
        -9.5743768405641
      ],
      [
        "▁säsongen",
        -9.575171797564446
      ],
      [
        "▁omkring",
        -9.575389777207933
      ],
      [
        "▁stark",
        -9.576056656224372
      ],
      [
        "▁rad",
        -9.57670478181447
      ],
      [
        "▁sol",
        -9.57779907678149
      ],
      [
        "▁dryg",
        -9.579930717454818
      ],
      [
        "▁långa",
        -9.579985017727973
      ],
      [
        "▁ordförande",
        -9.583006662902083
      ],
      [
        "nas",
        -9.583415270292868
      ],
      [
        "▁totalt",
        -9.58594302386819
      ],
      [
        "▁sitta",
        -9.587110325664572
      ],
      [
        "▁stanna",
        -9.588977696114249
      ],
      [
        "▁åker",
        -9.589974194600153
      ],
      [
        "▁Anders",
        -9.59046389468902
      ],
      [
        "▁natur",
        -9.590898860555189
      ],
      [
        "▁Ny",
        -9.591344973882338
      ],
      [
        "▁natt",
        -9.591400958237323
      ],
      [
        "▁ögon",
        -9.59202002884444
      ],
      [
        "▁icke",
        -9.592060976169938
      ],
      [
        "N",
        -9.592258355805166
      ],
      [
        "ledande",
        -9.593373325376078
      ],
      [
        "▁kläder",
        -9.59383113845948
      ],
      [
        "▁Hotel",
        -9.594751231521208
      ],
      [
        "system",
        -9.594806317416833
      ],
      [
        "spel",
        -9.595580322023782
      ],
      [
        "drar",
        -9.596010096652984
      ],
      [
        "▁lägre",
        -9.598592308841827
      ],
      [
        "ge",
        -9.59865528796779
      ],
      [
        "börjat",
        -9.599953716535921
      ],
      [
        "tidigt",
        -9.599979765395503
      ],
      [
        "lättare",
        -9.60015626950629
      ],
      [
        "▁medlemmar",
        -9.600598996601489
      ],
      [
        "▁trött",
        -9.60128943263731
      ],
      [
        "▁uttryck",
        -9.60181511522117
      ],
      [
        "▁Facebook",
        -9.602020292533735
      ],
      [
        "▁diskutera",
        -9.603249472244661
      ],
      [
        "sidan",
        -9.604209011965867
      ],
      [
        "▁Be",
        -9.605001077581292
      ],
      [
        "▁polisen",
        -9.607206789510009
      ],
      [
        "▁stad",
        -9.608308886985292
      ],
      [
        "▁söka",
        -9.608834041561318
      ],
      [
        "▁årets",
        -9.6093267936581
      ],
      [
        "▁hittade",
        -9.60985731712841
      ],
      [
        "H",
        -9.610536245391348
      ],
      [
        "▁förstås",
        -9.611142125506108
      ],
      [
        "Vi",
        -9.612360367275441
      ],
      [
        "▁hösten",
        -9.613402478946291
      ],
      [
        "resenärer",
        -9.614119934776905
      ],
      [
        "▁vinna",
        -9.61498475587832
      ],
      [
        "▁for",
        -9.615208605123819
      ],
      [
        "ställer",
        -9.615546944985134
      ],
      [
        "skrivit",
        -9.618225806774886
      ],
      [
        "▁böcker",
        -9.61831437762367
      ],
      [
        "▁allra",
        -9.619421079140217
      ],
      [
        "▁stil",
        -9.623042135731703
      ],
      [
        "▁recept",
        -9.623679717239382
      ],
      [
        "land",
        -9.624046610983191
      ],
      [
        "▁artikel",
        -9.625147358425554
      ],
      [
        "▁Ut",
        -9.625206520584104
      ],
      [
        "▁hämta",
        -9.626235421308886
      ],
      [
        "▁dåligt",
        -9.62710732798967
      ],
      [
        "▁exakt",
        -9.628428209197677
      ],
      [
        "▁åtgärder",
        -9.62881937805868
      ],
      [
        "w",
        -9.62925579328389
      ],
      [
        "enbart",
        -9.63069490486114
      ],
      [
        "▁Just",
        -9.632382201142395
      ],
      [
        "▁lokala",
        -9.633029318677375
      ],
      [
        "▁områden",
        -9.633310225397736
      ],
      [
        "köpte",
        -9.63334865930525
      ],
      [
        "▁konstatera",
        -9.634766644535317
      ],
      [
        "▁teknik",
        -9.63487576227559
      ],
      [
        "▁dator",
        -9.635601878567165
      ],
      [
        "▁spara",
        -9.63619391429995
      ],
      [
        "▁håll",
        -9.638734265338423
      ],
      [
        "samtliga",
        -9.639169622826886
      ],
      [
        "V",
        -9.640370538285858
      ],
      [
        "tillräckligt",
        -9.641187231827248
      ],
      [
        "▁nivå",
        -9.641729466300971
      ],
      [
        "▁född",
        -9.642511879455345
      ],
      [
        "▁Tänk",
        -9.644051904101714
      ],
      [
        "▁Ha",
        -9.644943172803828
      ],
      [
        "▁semester",
        -9.645128925182801
      ],
      [
        "▁vän",
        -9.645224253523617
      ],
      [
        "▁delta",
        -9.645541824860413
      ],
      [
        "▁område",
        -9.647321832712018
      ],
      [
        "▁lunch",
        -9.64770832618319
      ],
      [
        "▁enkel",
        -9.649870973514158
      ],
      [
        "▁lån",
        -9.650573424464806
      ],
      [
        "▁träna",
        -9.650663052158265
      ],
      [
        "▁dejting",
        -9.651270252320982
      ],
      [
        "ell",
        -9.653093220888264
      ],
      [
        "▁borta",
        -9.654885381104243
      ],
      [
        "läser",
        -9.65507629744609
      ],
      [
        "▁lärare",
        -9.657304175248019
      ],
      [
        "▁vann",
        -9.657847260158114
      ],
      [
        "▁forskning",
        -9.657907715845374
      ],
      [
        "sådant",
        -9.659278349495613
      ],
      [
        "▁respektive",
        -9.66051021654671
      ],
      [
        "▁vänta",
        -9.661381196244134
      ],
      [
        "▁flyg",
        -9.662586537001092
      ],
      [
        "▁dela",
        -9.663729303999308
      ],
      [
        "▁Johan",
        -9.663850842897132
      ],
      [
        "Samtidigt",
        -9.66429101209224
      ],
      [
        "▁pappa",
        -9.664990289012332
      ],
      [
        "kända",
        -9.665926636291115
      ],
      [
        "▁känsla",
        -9.666415292781757
      ],
      [
        "▁kaffe",
        -9.666589478298041
      ],
      [
        "till",
        -9.668328371780039
      ],
      [
        "▁casino",
        -9.669468726834642
      ],
      [
        "hört",
        -9.669769745504638
      ],
      [
        "bygger",
        -9.670422285470273
      ],
      [
        "utmärkt",
        -9.670882513403852
      ],
      [
        "▁bolag",
        -9.671437377020244
      ],
      [
        "▁Per",
        -9.67234746664827
      ],
      [
        "▁bär",
        -9.67382949669908
      ],
      [
        "dagarna",
        -9.673870576719576
      ],
      [
        "▁användning",
        -9.677181106508643
      ],
      [
        "maste",
        -9.67776459187256
      ],
      [
        "▁tillhör",
        -9.67793853185746
      ],
      [
        "▁lyckas",
        -9.681294387617871
      ],
      [
        "Mycket",
        -9.683004920541432
      ],
      [
        "▁bygg",
        -9.683118338366484
      ],
      [
        "fallet",
        -9.683600955383746
      ],
      [
        "▁behöv",
        -9.68362788841362
      ],
      [
        "▁glas",
        -9.684395633100312
      ],
      [
        "▁billiga",
        -9.685383346897478
      ],
      [
        "▁sju",
        -9.686720372693658
      ],
      [
        "▁högsta",
        -9.68702851224141
      ],
      [
        "▁massor",
        -9.687223514699129
      ],
      [
        "ets",
        -9.688744472123709
      ],
      [
        "▁skola",
        -9.692909478132934
      ],
      [
        "▁Bo",
        -9.693655037115757
      ],
      [
        "▁gällande",
        -9.693668214460523
      ],
      [
        "▁hit",
        -9.693822924372398
      ],
      [
        "▁anställda",
        -9.695392441075038
      ],
      [
        "▁kompetens",
        -9.695777223784084
      ],
      [
        "▁reda",
        -9.696894797020063
      ],
      [
        "▁topp",
        -9.696983754569104
      ],
      [
        "’",
        -9.697883148397903
      ],
      [
        "▁framåt",
        -9.698196999146385
      ],
      [
        "▁ekonomiska",
        -9.698944773241653
      ],
      [
        "▁trevlig",
        -9.699616438943005
      ],
      [
        "<",
        -9.699886889100025
      ],
      [
        "▁kraft",
        -9.701385551977044
      ],
      [
        "▁snö",
        -9.701578019671738
      ],
      [
        "▁vänster",
        -9.704321722963547
      ],
      [
        "▁handla",
        -9.70445415326456
      ],
      [
        "▁sälja",
        -9.705240291841934
      ],
      [
        "▁samman",
        -9.707155414732638
      ],
      [
        "efter",
        -9.707217844901583
      ],
      [
        "▁gäster",
        -9.708751217450947
      ],
      [
        "▁skada",
        -9.709775319224692
      ],
      [
        "▁hårt",
        -9.709837509471352
      ],
      [
        "▁pass",
        -9.710425386842822
      ],
      [
        "▁X",
        -9.71060512682558
      ],
      [
        "▁Hitta",
        -9.711264317660639
      ],
      [
        "▁mobil",
        -9.712125801763467
      ],
      [
        "▁smak",
        -9.712800446256054
      ],
      [
        "▁platser",
        -9.713997024180898
      ],
      [
        "▁säkerhet",
        -9.716003538331922
      ],
      [
        "▁Uppsala",
        -9.717321078600941
      ],
      [
        "▁höger",
        -9.71758845505509
      ],
      [
        "▁Peter",
        -9.718611510467015
      ],
      [
        "▁sade",
        -9.71971893113224
      ],
      [
        "▁Jo",
        -9.720089560877556
      ],
      [
        "viktigaste",
        -9.720635088241703
      ],
      [
        "▁kontroll",
        -9.720765619775111
      ],
      [
        "▁nån",
        -9.720806082743962
      ],
      [
        "▁vuxna",
        -9.721034650634484
      ],
      [
        "målet",
        -9.721625393288429
      ],
      [
        "kostar",
        -9.722750616953013
      ],
      [
        "spelade",
        -9.72436908220469
      ],
      [
        "▁text",
        -9.724813293749929
      ],
      [
        "Varje",
        -9.724989354679991
      ],
      [
        "▁regler",
        -9.725654291332495
      ],
      [
        "▁övrigt",
        -9.726983233673225
      ],
      [
        "▁Hans",
        -9.727212053966618
      ],
      [
        "▁Låt",
        -9.727282103766784
      ],
      [
        "Hoppas",
        -9.727843189753179
      ],
      [
        "▁önskar",
        -9.728144108956396
      ],
      [
        "▁låt",
        -9.728354418714893
      ],
      [
        "▁centrum",
        -9.729467940038296
      ],
      [
        "▁Å",
        -9.729978777138696
      ],
      [
        "lund",
        -9.730090696360241
      ],
      [
        "▁ekonomi",
        -9.730344381299682
      ],
      [
        "▁leda",
        -9.731030831659321
      ],
      [
        "program",
        -9.731761738726442
      ],
      [
        "▁Foto",
        -9.732361516906222
      ],
      [
        "▁valt",
        -9.733144907664666
      ],
      [
        "▁läst",
        -9.733629043885054
      ],
      [
        "▁rolig",
        -9.734296991800417
      ],
      [
        "▁samtal",
        -9.734692719996719
      ],
      [
        "▁storlek",
        -9.735314566286364
      ],
      [
        "▁ljud",
        -9.735511326105003
      ],
      [
        "trodde",
        -9.735817306233386
      ],
      [
        "hus",
        -9.736687563295968
      ],
      [
        "den",
        -9.73672902792792
      ],
      [
        "gick",
        -9.73712642975756
      ],
      [
        "▁Barn",
        -9.738795015312183
      ],
      [
        "▁ålder",
        -9.739454936105309
      ],
      [
        "O",
        -9.74173953285983
      ],
      [
        "gren",
        -9.741907631331785
      ],
      [
        "närmare",
        -9.743301567183417
      ],
      [
        "plan",
        -9.743463230262265
      ],
      [
        "▁effekt",
        -9.743847026421328
      ],
      [
        "▁mängd",
        -9.746075489503175
      ],
      [
        "▁filmen",
        -9.746594974223356
      ],
      [
        "valet",
        -9.74661937491862
      ],
      [
        "$",
        -9.746983481086687
      ],
      [
        "ch",
        -9.747727285988185
      ],
      [
        "▁besökare",
        -9.749206361232922
      ],
      [
        "namnet",
        -9.750881616147797
      ],
      [
        "▁Trots",
        -9.751082183129832
      ],
      [
        "▁hälso",
        -9.753051138261547
      ],
      [
        "▁luft",
        -9.753102437393398
      ],
      [
        "▁Ingen",
        -9.754194386500018
      ],
      [
        "▁värme",
        -9.754771614064792
      ],
      [
        "▁hud",
        -9.755260225797059
      ],
      [
        "utgör",
        -9.75548798327866
      ],
      [
        "verket",
        -9.75550396941886
      ],
      [
        "betydligt",
        -9.755790544909024
      ],
      [
        "▁kommande",
        -9.756385282932488
      ],
      [
        "▁chans",
        -9.756415556366495
      ],
      [
        "▁stan",
        -9.756741387920373
      ],
      [
        "▁lokal",
        -9.756825322924621
      ],
      [
        "▁död",
        -9.757406867125688
      ],
      [
        "▁äter",
        -9.75878603843713
      ],
      [
        "▁ske",
        -9.760008312296963
      ],
      [
        "▁rent",
        -9.760810992336193
      ],
      [
        "däremot",
        -9.761946922063187
      ],
      [
        "▁försök",
        -9.762766398246214
      ],
      [
        "▁läge",
        -9.763437426959076
      ],
      [
        "▁frukost",
        -9.765738771643793
      ],
      [
        "▁trä",
        -9.76651783343065
      ],
      [
        "ton",
        -9.767888974960274
      ],
      [
        "▁personliga",
        -9.771006590833368
      ],
      [
        "branschen",
        -9.771981062625947
      ],
      [
        "ökad",
        -9.772267018272162
      ],
      [
        "▁starta",
        -9.772718697322077
      ],
      [
        "iskt",
        -9.773498753619583
      ],
      [
        "▁Två",
        -9.773802326465912
      ],
      [
        "vore",
        -9.774643726662731
      ],
      [
        "lan",
        -9.776292737926555
      ],
      [
        "▁fantastisk",
        -9.776454714634845
      ],
      [
        "jämfört",
        -9.777718318992738
      ],
      [
        "▁någonsin",
        -9.778790747542113
      ],
      [
        "▁natten",
        -9.779029456121167
      ],
      [
        "så",
        -9.779216138445342
      ],
      [
        "▁tankar",
        -9.78006950380149
      ],
      [
        "▁påverkar",
        -9.782060348122922
      ],
      [
        "huset",
        -9.782836144060179
      ],
      [
        "▁verktyg",
        -9.782951844008327
      ],
      [
        "▁kropp",
        -9.783795005285866
      ],
      [
        "▁bak",
        -9.783886309479026
      ],
      [
        "▁betydelse",
        -9.784856758977032
      ],
      [
        "▁Fortsätt",
        -9.786352955726139
      ],
      [
        "val",
        -9.789123881076813
      ],
      [
        "▁höst",
        -9.791890085141544
      ],
      [
        "▁New",
        -9.794249673861453
      ],
      [
        "▁Gud",
        -9.7943489981382
      ],
      [
        "▁härlig",
        -9.794499505940463
      ],
      [
        "▁variera",
        -9.795420159692524
      ],
      [
        "kändes",
        -9.795498265790554
      ],
      [
        "▁boka",
        -9.795578777128194
      ],
      [
        "▁syn",
        -9.795856179111848
      ],
      [
        "tydligt",
        -9.796381196310795
      ],
      [
        "▁lista",
        -9.799290150709735
      ],
      [
        "▁vakna",
        -9.799401456342034
      ],
      [
        "plats",
        -9.799784992958624
      ],
      [
        "▁klimat",
        -9.800106594983141
      ],
      [
        "starkt",
        -9.801155442235778
      ],
      [
        "▁skäl",
        -9.802061411163232
      ],
      [
        "▁därefter",
        -9.803488700340154
      ],
      [
        "▁priset",
        -9.804180860263045
      ],
      [
        "▁ordning",
        -9.80485391364036
      ],
      [
        "post",
        -9.807404622188024
      ],
      [
        "▁förbi",
        -9.80816223508114
      ],
      [
        "▁valde",
        -9.808224841818603
      ],
      [
        "▁våren",
        -9.80988908851161
      ],
      [
        "▁prova",
        -9.810639485479118
      ],
      [
        "▁bidrag",
        -9.812224691788202
      ],
      [
        "inklusive",
        -9.813894862601575
      ],
      [
        "▁Maria",
        -9.814881257130015
      ],
      [
        "▁förutsättningar",
        -9.815242251522076
      ],
      [
        "▁medel",
        -9.815436310036251
      ],
      [
        "Ibland",
        -9.815816301787306
      ],
      [
        "självklart",
        -9.81595885768119
      ],
      [
        "säkra",
        -9.817198413970875
      ],
      [
        "▁bad",
        -9.819295799878155
      ],
      [
        "▁Kina",
        -9.819461245333573
      ],
      [
        "▁innehåll",
        -9.819715814594725
      ],
      [
        "▁Bara",
        -9.820357182226266
      ],
      [
        "saknar",
        -9.821622913991865
      ],
      [
        "▁drog",
        -9.822569854476233
      ],
      [
        "▁billigt",
        -9.823693844346948
      ],
      [
        "perioden",
        -9.824367545398962
      ],
      [
        "um",
        -9.82454592261187
      ],
      [
        "▁hotellet",
        -9.82487351992131
      ],
      [
        "▁personlig",
        -9.825985513841161
      ],
      [
        "▁villkor",
        -9.82646892489691
      ],
      [
        "▁helg",
        -9.826732837948473
      ],
      [
        "▁risker",
        -9.82980159845757
      ],
      [
        "▁ligga",
        -9.829944862828622
      ],
      [
        "lämnar",
        -9.829988359430631
      ],
      [
        "▁kredit",
        -9.830429313844204
      ],
      [
        "▁trygg",
        -9.8306915908853
      ],
      [
        "▁syfte",
        -9.830953241807546
      ],
      [
        "▁uppskatta",
        -9.831230174783922
      ],
      [
        "ihåg",
        -9.831286712554572
      ],
      [
        "▁Andersson",
        -9.832415352163672
      ],
      [
        "▁konst",
        -9.833517287363883
      ],
      [
        "▁brott",
        -9.833624980575873
      ],
      [
        "äntligen",
        -9.834986465331
      ],
      [
        "arbete",
        -9.835067190504356
      ],
      [
        "▁talar",
        -9.835713996221935
      ],
      [
        "▁universitet",
        -9.835855606433457
      ],
      [
        "▁Lars",
        -9.83642067929328
      ],
      [
        "▁avtal",
        -9.836523721214274
      ],
      [
        "▁etc",
        -9.836591136615592
      ],
      [
        "trax",
        -9.836802500263438
      ],
      [
        "erade",
        -9.837098897328522
      ],
      [
        "▁kärlek",
        -9.837491878169898
      ],
      [
        "▁ungdomar",
        -9.838325420507555
      ],
      [
        "funnit",
        -9.838887479358148
      ],
      [
        "▁utvecklas",
        -9.839415249991186
      ],
      [
        "▁Finns",
        -9.84031854748368
      ],
      [
        "▁ändring",
        -9.841620714115468
      ],
      [
        "▁kap",
        -9.84380973849981
      ],
      [
        "rätt",
        -9.84482657119137
      ],
      [
        "▁Mitt",
        -9.845269466267267
      ],
      [
        "▁lyssna",
        -9.845704233285268
      ],
      [
        "▁fönster",
        -9.846064799363397
      ],
      [
        "▁dålig",
        -9.846739062304144
      ],
      [
        "▁ben",
        -9.84729042813101
      ],
      [
        "▁kommentar",
        -9.84796939179709
      ],
      [
        "▁privat",
        -9.84869033706795
      ],
      [
        "▁läkare",
        -9.850165039220855
      ],
      [
        "▁nej",
        -9.850490767543722
      ],
      [
        "▁Lite",
        -9.851058040568448
      ],
      [
        "▁vinter",
        -9.852529849369738
      ],
      [
        "▁sist",
        -9.85296854896702
      ],
      [
        "▁varmt",
        -9.853637105937308
      ],
      [
        "▁projektet",
        -9.854992839990759
      ],
      [
        "förutom",
        -9.855397179645504
      ],
      [
        "▁genomföra",
        -9.855467603749261
      ],
      [
        "ades",
        -9.85764615115487
      ],
      [
        "▁slå",
        -9.858621024055957
      ],
      [
        "▁vattnet",
        -9.858963641589911
      ],
      [
        "▁leverera",
        -9.859010396657558
      ],
      [
        "▁kurs",
        -9.85921308459303
      ],
      [
        "▁tittar",
        -9.859999033840321
      ],
      [
        "▁uppgift",
        -9.860651635778623
      ],
      [
        "▁ladda",
        -9.86084130691934
      ],
      [
        "skickade",
        -9.861685839942963
      ],
      [
        "▁färger",
        -9.863603224330024
      ],
      [
        "▁sluta",
        -9.864459857745512
      ],
      [
        "▁imorgon",
        -9.865112284801802
      ],
      [
        "▁medarbetare",
        -9.865409843170402
      ],
      [
        "företag",
        -9.865920339279862
      ],
      [
        "▁polis",
        -9.867345394827982
      ],
      [
        "▁lager",
        -9.867730594667725
      ],
      [
        "▁standard",
        -9.868327557861013
      ],
      [
        "▁mesta",
        -9.870652160984125
      ],
      [
        "▁politiska",
        -9.871174409823265
      ],
      [
        "fantastiskt",
        -9.872781160583484
      ],
      [
        "fritt",
        -9.872859610194062
      ],
      [
        "köper",
        -9.873244541075932
      ],
      [
        "naturligtvis",
        -9.87343065472622
      ],
      [
        "▁hamna",
        -9.873975471370969
      ],
      [
        "▁Fast",
        -9.874622561164786
      ],
      [
        "Några",
        -9.874780743689797
      ],
      [
        "▁solen",
        -9.874794122515322
      ],
      [
        "▁åtta",
        -9.876434968637312
      ],
      [
        "använt",
        -9.87677208601731
      ],
      [
        "undrar",
        -9.877720295745952
      ],
      [
        "▁listan",
        -9.877802603680998
      ],
      [
        "ring",
        -9.877962939241185
      ],
      [
        "▁studie",
        -9.878083791165269
      ],
      [
        "▁lön",
        -9.878104499918306
      ],
      [
        "▁fundera",
        -9.878858018080107
      ],
      [
        "▁barnet",
        -9.879577530759416
      ],
      [
        "▁tak",
        -9.880045334056936
      ],
      [
        "▁ensam",
        -9.880507277374214
      ],
      [
        "▁kommentarer",
        -9.881600761074536
      ],
      [
        "▁sidor",
        -9.88235951701383
      ],
      [
        "▁klass",
        -9.882771327195261
      ],
      [
        "▁tillstånd",
        -9.883101518051912
      ],
      [
        "▁osv",
        -9.883760512461514
      ],
      [
        "rejäl",
        -9.8842946769914
      ],
      [
        "▁gilla",
        -9.884378202334675
      ],
      [
        "▁aktiviteter",
        -9.886586439647225
      ],
      [
        "▁nåt",
        -9.888780217196572
      ],
      [
        "▁bonus",
        -9.888803841236578
      ],
      [
        "▁glöm",
        -9.891493577633792
      ],
      [
        "kort",
        -9.892578916996717
      ],
      [
        "pratar",
        -9.893724908056969
      ],
      [
        "▁Välkommen",
        -9.894699512207854
      ],
      [
        "▁populära",
        -9.894937638252937
      ],
      [
        "▁sova",
        -9.895478982258872
      ],
      [
        "▁bit",
        -9.895946450899194
      ],
      [
        "Vilken",
        -9.897147038874655
      ],
      [
        "▁ingenting",
        -9.897521351690525
      ],
      [
        "▁social",
        -9.89758653083816
      ],
      [
        "▁vinst",
        -9.89787604127049
      ],
      [
        "▁timme",
        -9.89968894820531
      ],
      [
        "dvs",
        -9.899739772208374
      ],
      [
        "▁njuta",
        -9.899763176792916
      ],
      [
        "▁knappt",
        -9.90017957680519
      ],
      [
        "▁passa",
        -9.90070394191004
      ],
      [
        "▁trafik",
        -9.9009246757569
      ],
      [
        "▁öppen",
        -9.902004850689456
      ],
      [
        "▁utför",
        -9.902420966585117
      ],
      [
        "▁undvika",
        -9.90280253616843
      ],
      [
        "▁sjuk",
        -9.902815952277097
      ],
      [
        "▁dels",
        -9.90441730372552
      ],
      [
        "▁funktion",
        -9.904592960039444
      ],
      [
        "▁matcher",
        -9.90633342990412
      ],
      [
        "klarar",
        -9.907051360661686
      ],
      [
        "Klicka",
        -9.90710652142053
      ],
      [
        "▁huvudet",
        -9.90747142600512
      ],
      [
        "växer",
        -9.907753276071622
      ],
      [
        "antingen",
        -9.907900299207746
      ],
      [
        "▁bank",
        -9.908259222312557
      ],
      [
        "▁internationella",
        -9.90831684434886
      ],
      [
        "▁svara",
        -9.908374349055894
      ],
      [
        "ansvarig",
        -9.908383174663163
      ],
      [
        "▁längs",
        -9.909554944285095
      ],
      [
        "▁vita",
        -9.910443944460189
      ],
      [
        "▁middag",
        -9.912965379398525
      ],
      [
        "det",
        -9.9135166283961
      ],
      [
        "▁mark",
        -9.913599700023294
      ],
      [
        "▁period",
        -9.913753224698326
      ],
      [
        "▁omdöme",
        -9.915471921276897
      ],
      [
        "▁eventuell",
        -9.91548212937287
      ],
      [
        "skolan",
        -9.915511646619091
      ],
      [
        "▁djup",
        -9.916071154465268
      ],
      [
        "räcker",
        -9.9176951994171
      ],
      [
        "bo",
        -9.918161610673533
      ],
      [
        "▁annorlunda",
        -9.918808965205551
      ],
      [
        "▁fantastiska",
        -9.918898571138886
      ],
      [
        "▁koll",
        -9.919647393871056
      ],
      [
        "▁lördag",
        -9.920091345649292
      ],
      [
        "▁utvecklingen",
        -9.920496226921262
      ],
      [
        "▁Visst",
        -9.920976785062255
      ],
      [
        "▁fredag",
        -9.92149547959067
      ],
      [
        "▁Skåne",
        -9.922317335844406
      ],
      [
        "plötsligt",
        -9.922811918415787
      ],
      [
        "▁Sätt",
        -9.92356953577061
      ],
      [
        "ämre",
        -9.923749682809767
      ],
      [
        "▁ansökan",
        -9.924817798940802
      ],
      [
        "▁partner",
        -9.924831008474058
      ],
      [
        "Ja",
        -9.92485277890737
      ],
      [
        "▁drabba",
        -9.924878456149308
      ],
      [
        "▁mår",
        -9.925539839325742
      ],
      [
        "hänt",
        -9.925674875824422
      ],
      [
        "▁kommuner",
        -9.925749682820284
      ],
      [
        "▁bi",
        -9.926980618530989
      ],
      [
        "ka",
        -9.927129947985838
      ],
      [
        "▁webbplats",
        -9.927163284972384
      ],
      [
        "▁idé",
        -9.927407996726163
      ],
      [
        "▁väder",
        -9.927933604756058
      ],
      [
        "äger",
        -9.92828593125055
      ],
      [
        "▁bloggen",
        -9.928796572381621
      ],
      [
        "ha",
        -9.92889040026917
      ],
      [
        "▁förmåga",
        -9.929220937196732
      ],
      [
        "▁läs",
        -9.930378331315257
      ],
      [
        "▁sjukdom",
        -9.930857259851736
      ],
      [
        "kallade",
        -9.931554804519688
      ],
      [
        "▁värld",
        -9.93184078283963
      ],
      [
        "ökat",
        -9.93191602161142
      ],
      [
        "lyckades",
        -9.932801871800454
      ],
      [
        "ett",
        -9.93300157230336
      ],
      [
        "▁kostnader",
        -9.93391441243779
      ],
      [
        "▁Nya",
        -9.93454891060373
      ],
      [
        "🙂",
        -9.93457194891613
      ],
      [
        "gården",
        -9.935374456468145
      ],
      [
        "lag",
        -9.9371627942814
      ],
      [
        "anses",
        -9.93775923863597
      ],
      [
        "▁samhälls",
        -9.938395661956095
      ],
      [
        "▁Välj",
        -9.938853939285506
      ],
      [
        "produkter",
        -9.939517604123651
      ],
      [
        "någonting",
        -9.939544250275661
      ],
      [
        "▁försäljning",
        -9.9395977528703
      ],
      [
        "▁uppdatera",
        -9.940278174400795
      ],
      [
        "▁klicka",
        -9.94067672848016
      ],
      [
        "▁kalla",
        -9.940736096460169
      ],
      [
        "erar",
        -9.94090704428734
      ],
      [
        "▁parti",
        -9.94287843086741
      ],
      [
        "chef",
        -9.943704824194358
      ],
      [
        "U",
        -9.94443479142151
      ],
      [
        "▁huden",
        -9.945096389895236
      ],
      [
        "▁oro",
        -9.946139709380695
      ],
      [
        "▁lösa",
        -9.94626071626536
      ],
      [
        "▁samhälle",
        -9.946414269167105
      ],
      [
        "▁bilar",
        -9.947548898315393
      ],
      [
        "▁promenad",
        -9.94801043377098
      ],
      [
        "▁lösning",
        -9.948039755782204
      ],
      [
        "lyckat",
        -9.948053045433266
      ],
      [
        "▁högst",
        -9.94814038369356
      ],
      [
        "▁princip",
        -9.948624004311583
      ],
      [
        "▁tala",
        -9.950969872516998
      ],
      [
        "form",
        -9.953176202647342
      ],
      [
        "▁grader",
        -9.9534015345291
      ],
      [
        "▁riktig",
        -9.954424008366408
      ],
      [
        "▁tvinga",
        -9.954973554645031
      ],
      [
        "nuvarande",
        -9.957709933459077
      ],
      [
        "▁häst",
        -9.958562389904996
      ],
      [
        "▁ME",
        -9.95917290868546
      ],
      [
        "be",
        -9.95957450314241
      ],
      [
        "▁datorn",
        -9.960189914190472
      ],
      [
        "▁tillgängliga",
        -9.96056787226425
      ],
      [
        "▁skit",
        -9.960799850322712
      ],
      [
        "fri",
        -9.960887379049456
      ],
      [
        "finner",
        -9.961035388311933
      ],
      [
        "▁Bland",
        -9.961141665120207
      ],
      [
        "▁plus",
        -9.961341932042656
      ],
      [
        "▁budget",
        -9.961360834465157
      ],
      [
        "▁slag",
        -9.963039936038548
      ],
      [
        "▁guld",
        -9.96388618275706
      ],
      [
        "▁Finland",
        -9.964202383790724
      ],
      [
        "kan",
        -9.964670817214852
      ],
      [
        "möta",
        -9.964898337657258
      ],
      [
        "▁himla",
        -9.96609246355196
      ],
      [
        "▁Erik",
        -9.96648728261419
      ],
      [
        "▁Andra",
        -9.967125809992519
      ],
      [
        "ökade",
        -9.96778518685715
      ],
      [
        "▁rättigheter",
        -9.96800901109228
      ],
      [
        "startade",
        -9.968055479563617
      ],
      [
        "▁serie",
        -9.970155983171884
      ],
      [
        "ella",
        -9.970969145669313
      ],
      [
        "▁Först",
        -9.971086983749002
      ],
      [
        "▁situation",
        -9.971368729783144
      ],
      [
        "▁våld",
        -9.971530082282545
      ],
      [
        "Igår",
        -9.971539370583937
      ],
      [
        "känt",
        -9.971623811408573
      ],
      [
        "▁Johansson",
        -9.97216691686875
      ],
      [
        "▁söndag",
        -9.973547987047928
      ],
      [
        "▁Martin",
        -9.975116603628827
      ],
      [
        "▁lägenhet",
        -9.975357474754599
      ],
      [
        "▁öppet",
        -9.975515193277657
      ],
      [
        "Tack",
        -9.976719097338664
      ],
      [
        "▁Köp",
        -9.977014060667432
      ],
      [
        "Mer",
        -9.977966445509857
      ],
      [
        "sättet",
        -9.978563406851048
      ],
      [
        "▁såklart",
        -9.97886214022299
      ],
      [
        "▁köpt",
        -9.978937964342622
      ],
      [
        "▁medlem",
        -9.979495537071625
      ],
      [
        "▁far",
        -9.97983806860896
      ],
      [
        "▁sällan",
        -9.980575443875688
      ],
      [
        "▁miljarder",
        -9.98169930076769
      ],
      [
        "▁satte",
        -9.98318601721208
      ],
      [
        "log",
        -9.983510673722286
      ],
      [
        "▁stolt",
        -9.983604046870044
      ],
      [
        "del",
        -9.983616937088346
      ],
      [
        "▁lagt",
        -9.984500672657157
      ],
      [
        "utveckling",
        -9.985041625195107
      ],
      [
        "nivå",
        -9.985886598181777
      ],
      [
        "▁OK",
        -9.986189013871126
      ],
      [
        "▁restaurang",
        -9.9864124531506
      ],
      [
        "▁Jan",
        -9.987258000957771
      ],
      [
        "▁förhållande",
        -9.987730723357968
      ],
      [
        "▁alkohol",
        -9.987971702566297
      ],
      [
        "▁modell",
        -9.988535756888826
      ],
      [
        "▁dam",
        -9.9887444591876
      ],
      [
        "bjuder",
        -9.989347066140681
      ],
      [
        "▁spår",
        -9.989351528297309
      ],
      [
        "dagen",
        -9.991429922881178
      ],
      [
        "▁intresserad",
        -9.99233874739771
      ],
      [
        "JL",
        -9.992447837123411
      ],
      [
        "Vilka",
        -9.993136747652692
      ],
      [
        "▁låna",
        -9.994130218295084
      ],
      [
        "▁havet",
        -9.994754772197167
      ],
      [
        "▁resultatet",
        -9.99507779953316
      ],
      [
        "http",
        -9.99526122055446
      ],
      [
        "▁utnyttja",
        -9.99582683130677
      ],
      [
        "▁omdömet",
        -9.996168371939019
      ],
      [
        "▁säljer",
        -9.996820296790716
      ],
      [
        "numera",
        -9.996845307166875
      ],
      [
        "▁ställe",
        -9.997456997129742
      ],
      [
        "ur",
        -9.998872525148466
      ],
      [
        "risken",
        -9.99907238667473
      ],
      [
        "▁tillväxt",
        -9.999164909398047
      ],
      [
        "Våra",
        -9.999605168084011
      ],
      [
        "▁special",
        -9.999814273030667
      ],
      [
        "▁sport",
        -9.999939249887229
      ],
      [
        "modligen",
        -10.000182565645323
      ],
      [
        "▁enkla",
        -10.000675622021365
      ],
      [
        "▁skydda",
        -10.00108418112755
      ],
      [
        "▁IT",
        -10.001306160489186
      ],
      [
        "▁regn",
        -10.00161432472707
      ],
      [
        "processen",
        -10.00189789429536
      ],
      [
        "▁föreslå",
        -10.002131523903122
      ],
      [
        "▁mil",
        -10.002210498259142
      ],
      [
        "samt",
        -10.00248940660558
      ],
      [
        "nummer",
        -10.00349843048351
      ],
      [
        "▁lösningar",
        -10.00454444305729
      ],
      [
        "fylla",
        -10.004657084776538
      ],
      [
        "▁test",
        -10.00480843289429
      ],
      [
        "▁patienter",
        -10.005285933772038
      ],
      [
        "▁avsluta",
        -10.005633529420782
      ],
      [
        "ADRESS",
        -10.005878768624084
      ],
      [
        "▁gett",
        -10.0062202557707
      ],
      [
        "▁utbud",
        -10.008095598605644
      ],
      [
        "åtminstone",
        -10.008157070149524
      ],
      [
        "▁mitten",
        -10.01048301272663
      ],
      [
        "▁skön",
        -10.01142341052097
      ],
      [
        "▁missa",
        -10.011504337816639
      ],
      [
        "via",
        -10.011870389345264
      ],
      [
        "▁medier",
        -10.012369713269162
      ],
      [
        "Förutom",
        -10.012589143089187
      ],
      [
        "▁människa",
        -10.014051507574043
      ],
      [
        "▁vacker",
        -10.015569856814604
      ],
      [
        "▁cykel",
        -10.016301821888693
      ],
      [
        "▁tal",
        -10.01682389805299
      ],
      [
        "träffade",
        -10.016835841301633
      ],
      [
        "▁slog",
        -10.017055419889372
      ],
      [
        "Vissa",
        -10.018191464362893
      ],
      [
        "slutade",
        -10.018483077402834
      ],
      [
        "▁undan",
        -10.019867775806237
      ],
      [
        "▁Dock",
        -10.020058414797827
      ],
      [
        "▁säsong",
        -10.020833897550625
      ],
      [
        "▁trevligt",
        -10.021288895417003
      ],
      [
        "▁möte",
        -10.02151338981577
      ],
      [
        "▁tjej",
        -10.022786302195872
      ],
      [
        "ivetvis",
        -10.024516861227317
      ],
      [
        "relativt",
        -10.024970360737946
      ],
      [
        "bok",
        -10.025485597766535
      ],
      [
        "▁görs",
        -10.025620128420472
      ],
      [
        "▁blå",
        -10.026311139886081
      ],
      [
        "omfattande",
        -10.026464784011765
      ],
      [
        "▁tryck",
        -10.026511457372374
      ],
      [
        "▁må",
        -10.026696072421332
      ],
      [
        "▁uppnå",
        -10.027145961416867
      ],
      [
        "▁pengarna",
        -10.029137860533126
      ],
      [
        "▁plast",
        -10.029365186643068
      ],
      [
        "Tyvärr",
        -10.029539266393327
      ],
      [
        "tar",
        -10.030139403278914
      ],
      [
        "▁ges",
        -10.030463539221499
      ],
      [
        "aktuella",
        -10.030893171637182
      ],
      [
        "▁amerikanska",
        -10.03243001079013
      ],
      [
        "▁acceptera",
        -10.033706117960664
      ],
      [
        "▁inkludera",
        -10.034440955362514
      ],
      [
        "▁Över",
        -10.035170841732198
      ],
      [
        "▁fixa",
        -10.035896193391663
      ],
      [
        "bedriv",
        -10.036465188609426
      ],
      [
        "▁betalar",
        -10.037522437140757
      ],
      [
        "körde",
        -10.03829932409772
      ],
      [
        "▁Lund",
        -10.03878733770219
      ],
      [
        "fattar",
        -10.038846473700332
      ],
      [
        "▁förut",
        -10.038934519377287
      ],
      [
        "slår",
        -10.04002301288633
      ],
      [
        "ständigt",
        -10.040060127157975
      ],
      [
        "▁välkomna",
        -10.04026483782886
      ],
      [
        "▁Din",
        -10.040309328922383
      ],
      [
        "▁normalt",
        -10.0405607644771
      ],
      [
        "enklare",
        -10.041332768670072
      ],
      [
        "garantera",
        -10.042564860009884
      ],
      [
        "▁La",
        -10.043629403902036
      ],
      [
        "▁yrkes",
        -10.044270385652696
      ],
      [
        "ler",
        -10.044761416962608
      ],
      [
        "▁besöka",
        -10.045065548704171
      ],
      [
        "▁positiv",
        -10.045173876892601
      ],
      [
        "skrevs",
        -10.046856161553244
      ],
      [
        "▁makt",
        -10.04765817266913
      ],
      [
        "resa",
        -10.047744768713725
      ],
      [
        "lämnade",
        -10.047795601456393
      ],
      [
        "▁brist",
        -10.04844674781717
      ],
      [
        "▁leta",
        -10.048578724772199
      ],
      [
        "▁modern",
        -10.048777944100719
      ],
      [
        "▁ordentligt",
        -10.050283477157087
      ],
      [
        "möjliga",
        -10.050644610959013
      ],
      [
        "▁Örebro",
        -10.05102089894378
      ],
      [
        "▁ses",
        -10.05132459265263
      ],
      [
        "▁utföra",
        -10.051392436365953
      ],
      [
        "Skulle",
        -10.052326996719707
      ],
      [
        "▁nämn",
        -10.052889123010067
      ],
      [
        "▁Fredrik",
        -10.052932038377225
      ],
      [
        "▁www",
        -10.053548131489228
      ],
      [
        "▁El",
        -10.054407566353321
      ],
      [
        "igen",
        -10.055597489371458
      ],
      [
        "▁räkna",
        -10.055881980996066
      ],
      [
        "www",
        -10.05786815135474
      ],
      [
        "▁morgonen",
        -10.058122057243057
      ],
      [
        "▁Anmäl",
        -10.05815540566012
      ],
      [
        "funkar",
        -10.059173148249938
      ],
      [
        "ner",
        -10.059807584309397
      ],
      [
        "jag",
        -10.05989337049242
      ],
      [
        "▁Kom",
        -10.060039564872982
      ],
      [
        "▁frukt",
        -10.06007498814288
      ],
      [
        "▁följd",
        -10.060648755813352
      ],
      [
        "▁kontrollera",
        -10.061478741095408
      ],
      [
        "▁stress",
        -10.063064322067863
      ],
      [
        "▁rummet",
        -10.063623234124348
      ],
      [
        "▁haha",
        -10.064051411744353
      ],
      [
        "▁tillfälle",
        -10.064348229567534
      ],
      [
        "▁hänsyn",
        -10.064484070986374
      ],
      [
        "▁nyligen",
        -10.064668806574119
      ],
      [
        "▁prov",
        -10.06474835856735
      ],
      [
        "▁bred",
        -10.064834905737637
      ],
      [
        "▁Y",
        -10.065203333528776
      ],
      [
        "▁bakgrund",
        -10.066041303663805
      ],
      [
        "gemensamma",
        -10.066725073596158
      ],
      [
        "▁tjejer",
        -10.06701431537514
      ],
      [
        "▁blod",
        -10.067712032479388
      ],
      [
        "▁brev",
        -10.06784256755711
      ],
      [
        "▁sten",
        -10.068133947496309
      ],
      [
        "visas",
        -10.068902182382061
      ],
      [
        "▁säkerhets",
        -10.06906306890941
      ],
      [
        "▁Nästa",
        -10.069650677964574
      ],
      [
        "▁Hade",
        -10.070387025517402
      ],
      [
        "▁Tyskland",
        -10.070556206281642
      ],
      [
        "ställen",
        -10.07066837352661
      ],
      [
        "▁bekväm",
        -10.07191502551631
      ],
      [
        "▁Ö",
        -10.07250901052199
      ],
      [
        "möten",
        -10.073319185041534
      ],
      [
        "kombinera",
        -10.073832743623692
      ],
      [
        "▁varm",
        -10.073956745166896
      ],
      [
        "satsa",
        -10.074333033718101
      ],
      [
        "▁läkemedel",
        -10.076003209792209
      ],
      [
        "tvung",
        -10.076147589929192
      ],
      [
        "▁Lägg",
        -10.077167968202453
      ],
      [
        "▁slags",
        -10.077852233120831
      ],
      [
        "bestämt",
        -10.077967049209027
      ],
      [
        "mötet",
        -10.078106507084023
      ],
      [
        "▁Google",
        -10.078421883144458
      ],
      [
        "fall",
        -10.081572800551099
      ],
      [
        "▁Tre",
        -10.081679669161174
      ],
      [
        "titeln",
        -10.081889548582083
      ],
      [
        "▁ersättning",
        -10.08466304156025
      ],
      [
        "▁centrala",
        -10.086454856289137
      ],
      [
        "▁norr",
        -10.086915431943293
      ],
      [
        "allmänna",
        -10.088150657425304
      ],
      [
        "▁Gör",
        -10.08866795339764
      ],
      [
        "▁inlägget",
        -10.088959027233747
      ],
      [
        "möjligheten",
        -10.089323059041345
      ],
      [
        "▁glädje",
        -10.090850899294807
      ],
      [
        "▁snygg",
        -10.091088716636644
      ],
      [
        "▁problemet",
        -10.091277409944375
      ],
      [
        "▁erbjud",
        -10.091791552253527
      ],
      [
        "▁sjukhus",
        -10.092697991277019
      ],
      [
        "▁rekommenderar",
        -10.093029570480084
      ],
      [
        "▁Upp",
        -10.093121885937267
      ],
      [
        "▁hot",
        -10.093602498254063
      ],
      [
        "liggande",
        -10.094686908134099
      ],
      [
        "▁organisation",
        -10.094805310643945
      ],
      [
        "▁kök",
        -10.095802229277512
      ],
      [
        "planen",
        -10.095874971965795
      ],
      [
        "visat",
        -10.096520553401051
      ],
      [
        "▁Själv",
        -10.09823082562965
      ],
      [
        "▁miss",
        -10.09830313781114
      ],
      [
        "▁studier",
        -10.098445847176682
      ],
      [
        "eleverna",
        -10.099541569958747
      ],
      [
        "▁måndag",
        -10.100426525335829
      ],
      [
        "▁Inga",
        -10.100929154507337
      ],
      [
        "▁översättning",
        -10.101877432791177
      ],
      [
        "▁Vet",
        -10.102078796800543
      ],
      [
        "▁video",
        -10.103901412112434
      ],
      [
        "tog",
        -10.104652844382203
      ],
      [
        "▁Hos",
        -10.105273806487059
      ],
      [
        "lade",
        -10.106325901521679
      ],
      [
        "ningen",
        -10.10641838075713
      ],
      [
        "▁illa",
        -10.10659909186314
      ],
      [
        "vi",
        -10.107174800475121
      ],
      [
        "▁nummer",
        -10.107369722610208
      ],
      [
        "befinner",
        -10.108211113467219
      ],
      [
        "skydd",
        -10.108729713007218
      ],
      [
        "situationen",
        -10.110083601611509
      ],
      [
        "▁ringa",
        -10.110187262920252
      ],
      [
        "ans",
        -10.1104810020892
      ],
      [
        "é",
        -10.110589924246957
      ],
      [
        "var",
        -10.11206914142877
      ],
      [
        "skor",
        -10.113002606670236
      ],
      [
        "▁starka",
        -10.113378699774037
      ],
      [
        "stad",
        -10.113877327228574
      ],
      [
        "▁önska",
        -10.114291663268522
      ],
      [
        "berättade",
        -10.115134425591847
      ],
      [
        "▁Använd",
        -10.116540527620225
      ],
      [
        "▁Hem",
        -10.117009110298957
      ],
      [
        "▁användare",
        -10.117318974241012
      ],
      [
        "▁livs",
        -10.117758744973571
      ],
      [
        "▁stycken",
        -10.118027169707364
      ],
      [
        "▁by",
        -10.118595805791589
      ],
      [
        "▁magen",
        -10.119119168056548
      ],
      [
        "avseende",
        -10.1200386109456
      ],
      [
        "▁ung",
        -10.120405796742304
      ],
      [
        "▁använde",
        -10.12160380449291
      ],
      [
        "▁röd",
        -10.121864637423771
      ],
      [
        "chansen",
        -10.122973067175831
      ],
      [
        "▁genomför",
        -10.1247184229634
      ],
      [
        "▁Första",
        -10.125104660757207
      ],
      [
        "▁Norge",
        -10.126179582889806
      ],
      [
        "snabbare",
        -10.126307720201385
      ],
      [
        "▁motsvarande",
        -10.126607055052103
      ],
      [
        "svarade",
        -10.126768370097592
      ],
      [
        "W",
        -10.126870988360771
      ],
      [
        "▁politiker",
        -10.12759309777601
      ],
      [
        "▁nödvändigt",
        -10.127811256075757
      ],
      [
        "▁Vem",
        -10.127907088410097
      ],
      [
        "▁kyrkan",
        -10.128241490741297
      ],
      [
        "sättningar",
        -10.128681248158063
      ],
      [
        "konstigt",
        -10.130044451265082
      ],
      [
        "aren",
        -10.13017036330405
      ],
      [
        "känslan",
        -10.131039703114485
      ],
      [
        "▁roliga",
        -10.131103811025808
      ],
      [
        "▁snabba",
        -10.131909387873803
      ],
      [
        "▁skogen",
        -10.133039467614967
      ],
      [
        "▁ända",
        -10.133168819669496
      ],
      [
        "▁Få",
        -10.13348610294262
      ],
      [
        "väg",
        -10.133525073450167
      ],
      [
        "värre",
        -10.133820017522869
      ],
      [
        "▁post",
        -10.13445753050039
      ],
      [
        "▁konto",
        -10.134712558700254
      ],
      [
        "ernas",
        -10.135060801609189
      ],
      [
        "▁tjänst",
        -10.135250276661543
      ],
      [
        "En",
        -10.13597346772398
      ],
      [
        "lös",
        -10.13602038738991
      ],
      [
        "▁förändringar",
        -10.136880049182425
      ],
      [
        "▁redo",
        -10.137443446459944
      ],
      [
        "▁kombination",
        -10.138084587084018
      ],
      [
        "▁minns",
        -10.138152077667513
      ],
      [
        "▁dyr",
        -10.138510425756778
      ],
      [
        "▁fyller",
        -10.138924582406933
      ],
      [
        "▁resurser",
        -10.139750987469323
      ],
      [
        "▁media",
        -10.14037695779838
      ],
      [
        "▁grupper",
        -10.141604451641117
      ],
      [
        "▁avgörande",
        -10.142196368869653
      ],
      [
        "▁jämföra",
        -10.142512675045356
      ],
      [
        "▁ägg",
        -10.143170926117136
      ],
      [
        "▁vackert",
        -10.144182040277682
      ],
      [
        "▁Stefan",
        -10.144323907468124
      ],
      [
        "▁Carl",
        -10.144535928084924
      ],
      [
        "▁bas",
        -10.145203057022465
      ],
      [
        "▁Re",
        -10.145214170034656
      ],
      [
        "▁affärs",
        -10.14560788666594
      ],
      [
        "Omdöme",
        -10.145820084377345
      ],
      [
        "▁röst",
        -10.14623151098908
      ],
      [
        "▁hundra",
        -10.146366836770268
      ],
      [
        "▁upplevelse",
        -10.14654978074245
      ],
      [
        "beskriver",
        -10.14662618978771
      ],
      [
        "priserna",
        -10.147810580347366
      ],
      [
        "▁funktioner",
        -10.147916554230187
      ],
      [
        "▁ämnen",
        -10.14882244343578
      ],
      [
        "▁digitala",
        -10.148843279462794
      ],
      [
        "mål",
        -10.149114345187046
      ],
      [
        "förbundet",
        -10.149709814189626
      ],
      [
        "▁naturen",
        -10.150041172647716
      ],
      [
        "▁förklara",
        -10.150160866878648
      ],
      [
        "mark",
        -10.150386078228566
      ],
      [
        "▁botten",
        -10.150588485048495
      ],
      [
        "▁SVT",
        -10.150760993314638
      ],
      [
        "verksamhet",
        -10.151050480470076
      ],
      [
        "nar",
        -10.151986145975737
      ],
      [
        "material",
        -10.152210999722588
      ],
      [
        "▁orsak",
        -10.152696214026824
      ],
      [
        "▁förändring",
        -10.153680066569116
      ],
      [
        "▁All",
        -10.154430392994769
      ],
      [
        "varken",
        -10.155457944526692
      ],
      [
        "▁Nilsson",
        -10.155475329691855
      ],
      [
        "ly",
        -10.155860679578577
      ],
      [
        "▁röda",
        -10.156804367561671
      ],
      [
        "▁beställa",
        -10.157942119298443
      ],
      [
        "tjänster",
        -10.15825524844715
      ],
      [
        "enheter",
        -10.15899208072147
      ],
      [
        "bolag",
        -10.159104386719264
      ],
      [
        "▁choklad",
        -10.159151898432452
      ],
      [
        "▁ägare",
        -10.159484341188822
      ],
      [
        "▁informationen",
        -10.160156815069351
      ],
      [
        "▁bar",
        -10.160286285088914
      ],
      [
        "▁hittills",
        -10.162518926903928
      ],
      [
        "Dålig",
        -10.162682058001005
      ],
      [
        "▁sån",
        -10.163414862092187
      ],
      [
        "▁Internet",
        -10.163449514626329
      ],
      [
        "sam",
        -10.164393846483126
      ],
      [
        "▁grundläggande",
        -10.164414462494351
      ],
      [
        "möter",
        -10.164436238129605
      ],
      [
        "▁grad",
        -10.164736303601428
      ],
      [
        "▁mörk",
        -10.164774852353988
      ],
      [
        "▁ledare",
        -10.165879664856908
      ],
      [
        "▁fart",
        -10.165997036541679
      ],
      [
        "▁ovanlig",
        -10.166072701914166
      ],
      [
        "▁socker",
        -10.16620729624482
      ],
      [
        "▁dröm",
        -10.16660456205915
      ],
      [
        "▁tecken",
        -10.16668794329999
      ],
      [
        "sida",
        -10.16748699560574
      ],
      [
        "nade",
        -10.167507455101193
      ],
      [
        "perfekta",
        -10.167538112798493
      ],
      [
        "▁idéer",
        -10.168979809859838
      ],
      [
        "▁chef",
        -10.169164749776622
      ],
      [
        "framförallt",
        -10.169775236145124
      ],
      [
        "▁utomhus",
        -10.170241548703691
      ],
      [
        "▁fördel",
        -10.170722573548899
      ],
      [
        "▁hamnar",
        -10.172313160533255
      ],
      [
        "positivt",
        -10.172522388001859
      ],
      [
        "▁butik",
        -10.173183467920294
      ],
      [
        "▁företags",
        -10.174101940996293
      ],
      [
        "grupp",
        -10.17420767888624
      ],
      [
        "Något",
        -10.174547241868378
      ],
      [
        "▁båt",
        -10.175348640773601
      ],
      [
        "▁fisk",
        -10.175909420157945
      ],
      [
        "Någon",
        -10.176843725055555
      ],
      [
        "faller",
        -10.177553781442933
      ],
      [
        "▁rädda",
        -10.178148583416206
      ],
      [
        "▁perspektiv",
        -10.1787473453021
      ],
      [
        "▁regel",
        -10.180436715123502
      ],
      [
        "▁bedöm",
        -10.180661483862965
      ],
      [
        "▁jord",
        -10.180721261264102
      ],
      [
        "me",
        -10.180914707897063
      ],
      [
        "▁fest",
        -10.180963073458292
      ],
      [
        "▁känslor",
        -10.181175896756175
      ],
      [
        "Vilket",
        -10.182136697679018
      ],
      [
        "▁korrekt",
        -10.18319699386022
      ],
      [
        "nationella",
        -10.183469027534697
      ],
      [
        "ling",
        -10.183611943601184
      ],
      [
        "▁kött",
        -10.18404057807293
      ],
      [
        "▁År",
        -10.18404755712369
      ],
      [
        "▁Stor",
        -10.184070081244936
      ],
      [
        "▁driva",
        -10.18439734808021
      ],
      [
        "▁fot",
        -10.18476381637738
      ],
      [
        "▁skydd",
        -10.185071454561996
      ],
      [
        "▁hundar",
        -10.185772311877136
      ],
      [
        "▁hopp",
        -10.186193705085861
      ],
      [
        "▁plocka",
        -10.18619492673063
      ],
      [
        "▁detaljer",
        -10.187360437347182
      ],
      [
        "▁känd",
        -10.188116482523006
      ],
      [
        "▁håret",
        -10.188611322687834
      ],
      [
        "bart",
        -10.188628205037196
      ],
      [
        "nu",
        -10.188836266124111
      ],
      [
        "rakt",
        -10.189396499922271
      ],
      [
        "▁framtid",
        -10.190651803786464
      ],
      [
        "▁mån",
        -10.192060760855616
      ],
      [
        "dejta",
        -10.19213920322144
      ],
      [
        "▁driver",
        -10.192482785660232
      ],
      [
        "letar",
        -10.193349572170225
      ],
      [
        "▁politik",
        -10.193659540640343
      ],
      [
        "▁springa",
        -10.193736915653476
      ],
      [
        "link",
        -10.194082814686066
      ],
      [
        "▁cookies",
        -10.194231061451692
      ],
      [
        "▁privata",
        -10.194840754696699
      ],
      [
        "Innan",
        -10.195101396662599
      ],
      [
        "ering",
        -10.195216160589501
      ],
      [
        "minskar",
        -10.195531742218572
      ],
      [
        "pris",
        -10.195542152545098
      ],
      [
        "▁inled",
        -10.19623078751041
      ],
      [
        "lösa",
        -10.19690992988626
      ],
      [
        "▁betyd",
        -10.197039117380017
      ],
      [
        "▁månaden",
        -10.19796442653006
      ],
      [
        "▁tänk",
        -10.198254835675176
      ],
      [
        "tanken",
        -10.198479057421347
      ],
      [
        "▁Svensk",
        -10.198920325292995
      ],
      [
        "kallar",
        -10.199642795255475
      ],
      [
        "▁träd",
        -10.200085964795681
      ],
      [
        "delas",
        -10.20025166464251
      ],
      [
        "▁resan",
        -10.200459898995284
      ],
      [
        "▁dotter",
        -10.200667580609599
      ],
      [
        "▁verksamheter",
        -10.200750546896773
      ],
      [
        "▁kunskaper",
        -10.200795459252173
      ],
      [
        "▁tillämpa",
        -10.201259908758246
      ],
      [
        "▁mail",
        -10.203086943150621
      ],
      [
        "▁dating",
        -10.203638550968984
      ],
      [
        "enskilda",
        -10.203968894861877
      ],
      [
        "▁fett",
        -10.203970500968992
      ],
      [
        "▁Daniel",
        -10.204177591788474
      ],
      [
        "erat",
        -10.205260730377672
      ],
      [
        "▁sikt",
        -10.205288577728144
      ],
      [
        "▁svarar",
        -10.205751257837617
      ],
      [
        "▁växa",
        -10.206571730007393
      ],
      [
        "uppleva",
        -10.207052351846965
      ],
      [
        "rummet",
        -10.20715507586239
      ],
      [
        "▁jorden",
        -10.207953624781704
      ],
      [
        "▁sent",
        -10.208644771712947
      ],
      [
        "▁förlora",
        -10.20883296916108
      ],
      [
        "▁maten",
        -10.2089219731415
      ],
      [
        "rätten",
        -10.20907716603011
      ],
      [
        "▁erfarenheter",
        -10.209334741678292
      ],
      [
        "erad",
        -10.20979605197251
      ],
      [
        "bjöd",
        -10.210222873910848
      ],
      [
        "▁staten",
        -10.210336008293478
      ],
      [
        "▁besluta",
        -10.210340935597083
      ],
      [
        "granskar",
        -10.212876457473742
      ],
      [
        "▁leverans",
        -10.214092573288543
      ],
      [
        "▁ikväll",
        -10.214247934271818
      ],
      [
        "härligt",
        -10.214672577698158
      ],
      [
        "▁kommunikation",
        -10.214852761171901
      ],
      [
        "dörren",
        -10.214903685340106
      ],
      [
        "▁frisk",
        -10.215051046097052
      ],
      [
        "▁rapport",
        -10.215099066517533
      ],
      [
        "▁erbjudanden",
        -10.215225555973323
      ],
      [
        "▁nätdejting",
        -10.215801040684548
      ],
      [
        "▁toppen",
        -10.21635061191659
      ],
      [
        "▁tycka",
        -10.216719111242
      ],
      [
        "▁säng",
        -10.216865088892781
      ],
      [
        "frågor",
        -10.216899894684616
      ],
      [
        "→",
        -10.217139907669814
      ],
      [
        "lin",
        -10.217178940429338
      ],
      [
        "▁Pris",
        -10.21786762828849
      ],
      [
        "▁jämför",
        -10.218204978523207
      ],
      [
        "▁led",
        -10.218307968731402
      ],
      [
        "▁restauranger",
        -10.218619234309784
      ],
      [
        "stämmer",
        -10.219435237421315
      ],
      [
        "▁aktivt",
        -10.22036897190998
      ],
      [
        "frågade",
        -10.220450521092774
      ],
      [
        "▁skatte",
        -10.222804352071716
      ],
      [
        "▁organisationer",
        -10.22312931950945
      ],
      [
        "sängen",
        -10.224197050563856
      ],
      [
        "mässigt",
        -10.224208885036632
      ],
      [
        "▁bilderna",
        -10.225042028751275
      ],
      [
        "▁effektivt",
        -10.225514199127893
      ],
      [
        "▁vila",
        -10.225838372519041
      ],
      [
        "▁inspiration",
        -10.226606022315265
      ],
      [
        "▁inkomst",
        -10.226924808101503
      ],
      [
        "▁Spel",
        -10.227222205544724
      ],
      [
        "partiet",
        -10.227307256110857
      ],
      [
        "gen",
        -10.2274878551202
      ],
      [
        "närvarande",
        -10.22820179527972
      ],
      [
        "▁tider",
        -10.228384483783396
      ],
      [
        "▁rädd",
        -10.228423822131496
      ],
      [
        "▁moderna",
        -10.229471302663429
      ],
      [
        "▁press",
        -10.230564206548484
      ],
      [
        "▁säg",
        -10.230741179540269
      ],
      [
        "sånt",
        -10.230790491028028
      ],
      [
        "▁London",
        -10.230897414802365
      ],
      [
        "mängder",
        -10.230928261646767
      ],
      [
        "rådet",
        -10.232174348695564
      ],
      [
        "stått",
        -10.23263501074558
      ],
      [
        "▁rimlig",
        -10.233556359830612
      ],
      [
        "▁kost",
        -10.233834402620083
      ],
      [
        "▁hyra",
        -10.23441742094624
      ],
      [
        "▁insatser",
        -10.235216639751862
      ],
      [
        "▁överens",
        -10.236057128145143
      ],
      [
        "rna",
        -10.237618810986392
      ],
      [
        "läste",
        -10.237872566682933
      ],
      [
        "▁förvänta",
        -10.238095457105533
      ],
      [
        "▁stoppa",
        -10.239054086158404
      ],
      [
        "▁York",
        -10.239203820725654
      ],
      [
        "▁fa",
        -10.239466476351234
      ],
      [
        "▁transport",
        -10.239700775730416
      ],
      [
        "▁mening",
        -10.240280385742905
      ],
      [
        "▁butiker",
        -10.240547416682826
      ],
      [
        "▁avsnitt",
        -10.241155607371693
      ],
      [
        "öppnar",
        -10.24166979529817
      ],
      [
        "▁bedömning",
        -10.24357423202697
      ],
      [
        "▁köket",
        -10.244968755879286
      ],
      [
        "▁Får",
        -10.245537954245611
      ],
      [
        "min",
        -10.246300437191197
      ],
      [
        "▁unik",
        -10.246808290865616
      ],
      [
        "narare",
        -10.246827478597579
      ],
      [
        "▁Björn",
        -10.247533004677067
      ],
      [
        "▁Dom",
        -10.247635186168848
      ],
      [
        "▁föreningen",
        -10.247980262328687
      ],
      [
        "▁möjlig",
        -10.248920785716104
      ],
      [
        "▁tekniska",
        -10.24894504338815
      ],
      [
        "▁döda",
        -10.2492097378083
      ],
      [
        "▁inre",
        -10.249348744301475
      ],
      [
        "▁syns",
        -10.250395941251812
      ],
      [
        "▁John",
        -10.250445805935868
      ],
      [
        "beslutet",
        -10.251482526468973
      ],
      [
        "▁styr",
        -10.251734724878663
      ],
      [
        "▁uppmärksamma",
        -10.251848615777293
      ],
      [
        "▁nätverk",
        -10.25242542071801
      ],
      [
        "ort",
        -10.252447833567711
      ],
      [
        "▁vitt",
        -10.252872708468638
      ],
      [
        "▁vända",
        -10.253814394913515
      ],
      [
        "▁tids",
        -10.254554208492687
      ],
      [
        "▁vintern",
        -10.254929673154058
      ],
      [
        "vinner",
        -10.25514356532002
      ],
      [
        "teknik",
        -10.255872765460701
      ],
      [
        "▁Dam",
        -10.255974253277678
      ],
      [
        "▁blommor",
        -10.256087018037105
      ],
      [
        "▁söder",
        -10.256319963449037
      ],
      [
        "ledes",
        -10.256356624115085
      ],
      [
        "én",
        -10.256480293866911
      ],
      [
        "▁serien",
        -10.256722572711784
      ],
      [
        "sjö",
        -10.256826729054639
      ],
      [
        "▁extremt",
        -10.25711618989739
      ],
      [
        "▁tåg",
        -10.257569872563831
      ],
      [
        "▁buss",
        -10.25782332950632
      ],
      [
        "▁An",
        -10.257856665869037
      ],
      [
        "läge",
        -10.258112450178004
      ],
      [
        "▁tillåt",
        -10.259408486575355
      ],
      [
        "▁tidningen",
        -10.259644312525502
      ],
      [
        "▁underbara",
        -10.259645974586258
      ],
      [
        "framtida",
        -10.260083339787949
      ],
      [
        "orkar",
        -10.260108706242884
      ],
      [
        "▁myndigheter",
        -10.260618876902752
      ],
      [
        "▁fira",
        -10.260715715365619
      ],
      [
        "kursen",
        -10.260854064358341
      ],
      [
        "personen",
        -10.261621008642905
      ],
      [
        "positiva",
        -10.262127488114114
      ],
      [
        "▁glada",
        -10.262390805292965
      ],
      [
        "▁reklam",
        -10.262689969493662
      ],
      [
        "▁färdig",
        -10.263115032598199
      ],
      [
        "▁tillfällen",
        -10.263379444208669
      ],
      [
        "originalet",
        -10.26536185097594
      ],
      [
        "världen",
        -10.265369909000865
      ],
      [
        "▁definitiv",
        -10.26539248426575
      ],
      [
        "liv",
        -10.265751438680667
      ],
      [
        "unika",
        -10.265937660458093
      ],
      [
        "vädret",
        -10.266356784513155
      ],
      [
        "längst",
        -10.266483607127029
      ],
      [
        "▁framgångsrik",
        -10.267407623472266
      ],
      [
        "▁nio",
        -10.267727502002492
      ],
      [
        "▁värd",
        -10.268070755213794
      ],
      [
        "▁världs",
        -10.268221552119824
      ],
      [
        "område",
        -10.268414031765104
      ],
      [
        "lugnt",
        -10.26899146709404
      ],
      [
        "▁Z",
        -10.269908557437672
      ],
      [
        "▁utrymme",
        -10.269918301464372
      ],
      [
        "▁utbildnings",
        -10.269967780202014
      ],
      [
        "▁underbar",
        -10.270076161528552
      ],
      [
        "upplever",
        -10.270295036163555
      ],
      [
        "▁datum",
        -10.270633065268267
      ],
      [
        "▁katt",
        -10.271069206172998
      ],
      [
        "▁herr",
        -10.27187982788337
      ],
      [
        "nämnden",
        -10.272396964229618
      ],
      [
        "startar",
        -10.273149919711441
      ],
      [
        "▁fakta",
        -10.273523430569936
      ],
      [
        "Både",
        -10.273806273339586
      ],
      [
        "▁slutar",
        -10.275341645751034
      ],
      [
        "pass",
        -10.2753859266404
      ],
      [
        "▁skull",
        -10.275727335306403
      ],
      [
        "slagen",
        -10.275996065357752
      ],
      [
        "▁info",
        -10.27724490173079
      ],
      [
        "▁foto",
        -10.277262594259279
      ],
      [
        "områden",
        -10.277443021745563
      ],
      [
        "▁Frankrike",
        -10.277930220516222
      ],
      [
        "▁Jonas",
        -10.278233432261928
      ],
      [
        "▁ordet",
        -10.278253982401338
      ],
      [
        "hörde",
        -10.278611393386868
      ],
      [
        "▁analys",
        -10.278646654742499
      ],
      [
        "▁våga",
        -10.278705519624479
      ],
      [
        "▁punkt",
        -10.28027280886854
      ],
      [
        "▁tillgänglig",
        -10.280819675749179
      ],
      [
        "▁hälften",
        -10.281042097395513
      ],
      [
        "▁Bil",
        -10.281149305105368
      ],
      [
        "loppet",
        -10.282425887948742
      ],
      [
        "▁medför",
        -10.28383745541141
      ],
      [
        "▁Svar",
        -10.283916734530349
      ],
      [
        "▁mönster",
        -10.285049260932098
      ],
      [
        "▁mjuk",
        -10.285162370750678
      ],
      [
        "▁gäng",
        -10.285252573498404
      ],
      [
        "▁Hela",
        -10.286251555104897
      ],
      [
        "▁Dagens",
        -10.286437043765764
      ],
      [
        "▁svarta",
        -10.286635146800744
      ],
      [
        "▁allmän",
        -10.286839721484565
      ],
      [
        "▁Umeå",
        -10.28730416196747
      ],
      [
        "▁bevis",
        -10.287319370002153
      ],
      [
        "sta",
        -10.2878000189576
      ],
      [
        "flyttade",
        -10.288137687405099
      ],
      [
        "fria",
        -10.288144545304435
      ],
      [
        "▁bekräfta",
        -10.288714883136816
      ],
      [
        "▁hård",
        -10.288936209528478
      ],
      [
        "mat",
        -10.289395297377146
      ],
      [
        "▁filmer",
        -10.290879341680887
      ],
      [
        "orsaka",
        -10.291253662772089
      ],
      [
        "▁bära",
        -10.292666205722188
      ],
      [
        "bilder",
        -10.292778058912507
      ],
      [
        "bild",
        -10.293525251349793
      ],
      [
        "▁hände",
        -10.293781254835862
      ],
      [
        "faktum",
        -10.295054930638715
      ],
      [
        "▁underbart",
        -10.295163142682853
      ],
      [
        "▁offentliga",
        -10.295933769415905
      ],
      [
        "▁ton",
        -10.296051225147986
      ],
      [
        "skaffa",
        -10.296239740442255
      ],
      [
        "▁klubben",
        -10.296603116688459
      ],
      [
        "vid",
        -10.29819193329452
      ],
      [
        "▁fordon",
        -10.298817751383753
      ],
      [
        "▁metoder",
        -10.299168844636476
      ],
      [
        "▁fullständig",
        -10.299570272323326
      ],
      [
        "jobbigt",
        -10.299826090979764
      ],
      [
        "▁allvar",
        -10.29987149020464
      ],
      [
        "intresserade",
        -10.300137232982447
      ],
      [
        "baserade",
        -10.300165288768712
      ],
      [
        "▁nät",
        -10.301852593606451
      ],
      [
        "▁kapital",
        -10.302283366881209
      ],
      [
        "vin",
        -10.302525533154718
      ],
      [
        "hem",
        -10.302815729431977
      ],
      [
        "hinner",
        -10.30335084751171
      ],
      [
        "▁sväng",
        -10.303585946133238
      ],
      [
        "▁Pro",
        -10.30377378557959
      ],
      [
        "▁rörelse",
        -10.304366990131607
      ],
      [
        "ledde",
        -10.30438033542318
      ],
      [
        "utöver",
        -10.30463093176018
      ],
      [
        "▁fotboll",
        -10.304711806048617
      ],
      [
        "▁paket",
        -10.304873078553912
      ],
      [
        "▁utsikt",
        -10.30512618654684
      ],
      [
        "▁dans",
        -10.30609690472635
      ],
      [
        "▁metod",
        -10.306110028228971
      ],
      [
        "▁gäst",
        -10.306688223617043
      ],
      [
        "riktiga",
        -10.306829276008461
      ],
      [
        "▁egenskaper",
        -10.307739057131469
      ],
      [
        "▁SM",
        -10.307893303452486
      ],
      [
        "finansiella",
        -10.308202958945785
      ],
      [
        "spelare",
        -10.309227296888716
      ],
      [
        "▁fjärde",
        -10.309314736897441
      ],
      [
        "soffan",
        -10.309518722978053
      ],
      [
        "▁lek",
        -10.30981325119015
      ],
      [
        "löst",
        -10.309856369760839
      ],
      [
        "varande",
        -10.310374232103394
      ],
      [
        "▁låga",
        -10.310522679242986
      ],
      [
        "serien",
        -10.310601743278212
      ],
      [
        "okej",
        -10.310616010860485
      ],
      [
        "▁öl",
        -10.310850850107988
      ],
      [
        "generell",
        -10.310881355311171
      ],
      [
        "▁straff",
        -10.31089953475657
      ],
      [
        "▁Information",
        -10.311317412410475
      ],
      [
        "▁David",
        -10.311332598891596
      ],
      [
        "▁mode",
        -10.311605503963673
      ],
      [
        "▁sverige",
        -10.31182770005258
      ],
      [
        "▁dubbel",
        -10.311944030999138
      ],
      [
        "qvist",
        -10.312265123378605
      ],
      [
        "▁badrum",
        -10.312561345032298
      ],
      [
        "industrin",
        -10.313051906991744
      ],
      [
        "myndigheten",
        -10.313272407333983
      ],
      [
        "▁Kommer",
        -10.313734944740723
      ],
      [
        "▁total",
        -10.313754811386067
      ],
      [
        "politiken",
        -10.31475111144017
      ],
      [
        "▁psykisk",
        -10.314962833104689
      ],
      [
        "▁bestämma",
        -10.315191229297778
      ],
      [
        "▁dricka",
        -10.31578174554551
      ],
      [
        "▁Göteborgs",
        -10.3158357420665
      ],
      [
        "▁hunn",
        -10.316047669656262
      ],
      [
        "▁yngre",
        -10.31640623505215
      ],
      [
        "▁hjärtat",
        -10.316445248241552
      ],
      [
        "▁svåra",
        -10.316773649162416
      ],
      [
        "▁Danmark",
        -10.317436982458924
      ],
      [
        "desto",
        -10.3188199580392
      ],
      [
        "▁styrelsen",
        -10.319222770992038
      ],
      [
        "▁Mina",
        -10.319285618727498
      ],
      [
        "modellen",
        -10.320127348045084
      ],
      [
        "▁hållbar",
        -10.320374751901799
      ],
      [
        "▁mjölk",
        -10.320659626519571
      ],
      [
        "▁City",
        -10.32082347287122
      ],
      [
        "▁sammanhang",
        -10.321033851634725
      ],
      [
        "▁utom",
        -10.321328094661155
      ],
      [
        "släppa",
        -10.321538336639584
      ],
      [
        "▁relation",
        -10.32167480401623
      ],
      [
        "vänder",
        -10.321711650674391
      ],
      [
        "▁snygga",
        -10.322578530120408
      ],
      [
        "Hotell",
        -10.323030319033677
      ],
      [
        "pga",
        -10.323740285303485
      ],
      [
        "▁Wi",
        -10.324784653951735
      ],
      [
        "Förbättra",
        -10.324906878761805
      ],
      [
        "arbetat",
        -10.325942418368482
      ],
      [
        "▁grunden",
        -10.32615248392927
      ],
      [
        "Bolaget",
        -10.326606455863468
      ],
      [
        "rika",
        -10.32709875647494
      ],
      [
        "skiljer",
        -10.327276611081011
      ],
      [
        "tittade",
        -10.32740388003218
      ],
      [
        "texten",
        -10.327855415618046
      ],
      [
        "▁Casino",
        -10.328121728985023
      ],
      [
        "▁Skriv",
        -10.328256794214113
      ],
      [
        "aktörer",
        -10.328869649609594
      ],
      [
        "utbildning",
        -10.328912656910223
      ],
      [
        "såg",
        -10.3289200862846
      ],
      [
        "▁enhet",
        -10.329082296763362
      ],
      [
        "▁iaf",
        -10.32941970874724
      ],
      [
        "EN",
        -10.330040578956048
      ],
      [
        "Flera",
        -10.330139908129855
      ],
      [
        "För",
        -10.330150720871496
      ],
      [
        "▁tränings",
        -10.330175753753556
      ],
      [
        "▁process",
        -10.330231257655646
      ],
      [
        "▁förrän",
        -10.33055393187107
      ],
      [
        "golvet",
        -10.330758826032872
      ],
      [
        "▁former",
        -10.330843048188218
      ],
      [
        "▁Gå",
        -10.330857693799716
      ],
      [
        "▁Nord",
        -10.331473749994453
      ],
      [
        "ytan",
        -10.332257669069604
      ],
      [
        "hänger",
        -10.333299210502824
      ],
      [
        "▁adress",
        -10.333605000666848
      ],
      [
        "▁skador",
        -10.333693230530645
      ],
      [
        "▁Park",
        -10.333954324143527
      ],
      [
        "▁VM",
        -10.334135937289382
      ],
      [
        "tals",
        -10.334177433348302
      ],
      [
        "▁undantag",
        -10.334264090841915
      ],
      [
        "▁intressanta",
        -10.334975565023687
      ],
      [
        "▁euro",
        -10.335020973717253
      ],
      [
        "▁uppenbar",
        -10.335892433569125
      ],
      [
        "han",
        -10.337433212220075
      ],
      [
        "▁Mat",
        -10.337993404078608
      ],
      [
        "▁Al",
        -10.3383498846856
      ],
      [
        "har",
        -10.338523864418171
      ],
      [
        "▁naturligt",
        -10.338525396314505
      ],
      [
        "▁kille",
        -10.338565733843541
      ],
      [
        "▁jakt",
        -10.338760790946322
      ],
      [
        "▁ungdoms",
        -10.338770496269538
      ],
      [
        "▁Del",
        -10.339022062804263
      ],
      [
        "▁sjukt",
        -10.339870764964768
      ],
      [
        "nått",
        -10.340891244775305
      ],
      [
        "▁ekonomisk",
        -10.340945814808606
      ],
      [
        "▁hjärta",
        -10.341480984790516
      ],
      [
        "▁free",
        -10.341799617511633
      ],
      [
        "▁Ge",
        -10.3420377041741
      ],
      [
        "mera",
        -10.342896641556399
      ],
      [
        "▁taget",
        -10.343374255096457
      ],
      [
        "service",
        -10.343422002573215
      ],
      [
        "ningar",
        -10.344213642189851
      ],
      [
        "sett",
        -10.344525258630979
      ],
      [
        "▁upplev",
        -10.344805559159049
      ],
      [
        "grupper",
        -10.345660836063159
      ],
      [
        "▁korta",
        -10.346583942346774
      ],
      [
        "▁släpp",
        -10.346876296728656
      ],
      [
        "▁hål",
        -10.347106574279978
      ],
      [
        "▁app",
        -10.347416757111676
      ],
      [
        "intill",
        -10.34749865019178
      ],
      [
        "▁välkommen",
        -10.34823674444815
      ],
      [
        "▁gröna",
        -10.348601510619764
      ],
      [
        "brett",
        -10.348689157124381
      ],
      [
        "▁aktier",
        -10.348697164031101
      ],
      [
        "▁undersökning",
        -10.349065530543104
      ],
      [
        "▁Bygg",
        -10.349565252798966
      ],
      [
        "▁offentlig",
        -10.349671337661789
      ],
      [
        "bra",
        -10.349951664258954
      ],
      [
        "▁Bild",
        -10.350496473400606
      ],
      [
        "▁tjäna",
        -10.351244817030734
      ],
      [
        "▁utrustning",
        -10.351969017079469
      ],
      [
        "▁Sök",
        -10.352625289838103
      ],
      [
        "▁bostads",
        -10.3532531395875
      ],
      [
        "▁sömn",
        -10.35431653400169
      ],
      [
        "▁kompis",
        -10.354340857791684
      ],
      [
        "▁effektiv",
        -10.35513056751373
      ],
      [
        "▁bostäder",
        -10.35557282832006
      ],
      [
        "▁Magnus",
        -10.3565416129961
      ],
      [
        "▁nere",
        -10.356701199783808
      ],
      [
        "baserad",
        -10.357272077862051
      ],
      [
        "▁tjänsten",
        -10.357357172603422
      ],
      [
        "framöver",
        -10.357535966821219
      ],
      [
        "▁kostnad",
        -10.357669049385542
      ],
      [
        "▁band",
        -10.357740501193389
      ],
      [
        "band",
        -10.357830131473548
      ],
      [
        "▁vardag",
        -10.358517470138755
      ],
      [
        "▁forskare",
        -10.359919743452506
      ],
      [
        "▁anti",
        -10.35997282343171
      ],
      [
        "▁sov",
        -10.361415401556496
      ],
      [
        "▁skolor",
        -10.361646465410974
      ],
      [
        "▁levande",
        -10.362572258274971
      ],
      [
        "▁TripAdvisor",
        -10.36276348399727
      ],
      [
        "vunnit",
        -10.363044952147051
      ],
      [
        "närmast",
        -10.36410022959306
      ],
      [
        "bjuda",
        -10.364557542681178
      ],
      [
        "▁betalnings",
        -10.364626910431225
      ],
      [
        "▁Berg",
        -10.36542453478568
      ],
      [
        "ögonen",
        -10.366289244007548
      ],
      [
        "dal",
        -10.366924971183321
      ],
      [
        "tillfället",
        -10.367233223729569
      ],
      [
        "åriga",
        -10.367283462465089
      ],
      [
        "skickar",
        -10.367358278435722
      ],
      [
        "▁kön",
        -10.367462879486853
      ],
      [
        "▁Namn",
        -10.367467543614268
      ],
      [
        "dla",
        -10.367788732523717
      ],
      [
        "Årets",
        -10.367838031379682
      ],
      [
        "▁Bästa",
        -10.368153722275974
      ],
      [
        "Annar",
        -10.369534033936219
      ],
      [
        "någonstans",
        -10.370063496238982
      ],
      [
        "▁fika",
        -10.370243894037058
      ],
      [
        "gjorda",
        -10.370538393205475
      ],
      [
        "▁marken",
        -10.37074756618892
      ],
      [
        "▁varor",
        -10.370751489634602
      ],
      [
        "▁live",
        -10.371071048775228
      ],
      [
        "▁jämn",
        -10.371305197948098
      ],
      [
        "▁dokument",
        -10.37188690656981
      ],
      [
        "▁bio",
        -10.372001661149206
      ],
      [
        "▁deltagare",
        -10.372977070160871
      ],
      [
        "▁Paris",
        -10.373558545437435
      ],
      [
        "▁aktiv",
        -10.373724445174098
      ],
      [
        "förekommer",
        -10.37430609518301
      ],
      [
        "▁Ryssland",
        -10.37431885239081
      ],
      [
        "▁sko",
        -10.374423541176187
      ],
      [
        "▁hänga",
        -10.374488808314048
      ],
      [
        "▁vapen",
        -10.374859895769548
      ],
      [
        "▁Eva",
        -10.375066160421023
      ],
      [
        "eventuella",
        -10.375597669254518
      ],
      [
        "klassiska",
        -10.375739050716833
      ],
      [
        "center",
        -10.375755178053451
      ],
      [
        "▁Film",
        -10.375790549681266
      ],
      [
        "väntat",
        -10.376010707746309
      ],
      [
        "gränsen",
        -10.376436360518424
      ],
      [
        "▁karriär",
        -10.377330597607239
      ],
      [
        "▁tränar",
        -10.378213497563744
      ],
      [
        "bestämde",
        -10.37858922796331
      ],
      [
        "lämnat",
        -10.379668219643934
      ],
      [
        "▁papper",
        -10.380050066475523
      ],
      [
        "▁nyheter",
        -10.380518231774815
      ],
      [
        "▁marknads",
        -10.380619669051477
      ],
      [
        "▁personuppgifter",
        -10.38096845025631
      ],
      [
        "översättningen",
        -10.381561698437721
      ],
      [
        "▁Jesus",
        -10.381932605076837
      ],
      [
        "▁Storbritannien",
        -10.382522388330148
      ],
      [
        "▁lyfta",
        -10.382538350920756
      ],
      [
        "▁familje",
        -10.38290457801891
      ],
      [
        "▁invånare",
        -10.38357302329465
      ],
      [
        "▁team",
        -10.384029373044987
      ],
      [
        "▁höjd",
        -10.384056524987374
      ],
      [
        "▁aktiva",
        -10.384401868463705
      ],
      [
        "▁artikeln",
        -10.384471282742465
      ],
      [
        "▁daglig",
        -10.384601596101234
      ],
      [
        "▁saknas",
        -10.384962992689168
      ],
      [
        "problem",
        -10.385120633836998
      ],
      [
        "slipper",
        -10.385836077610783
      ],
      [
        "stärka",
        -10.38635995243639
      ],
      [
        "▁kallad",
        -10.386974202964147
      ],
      [
        "▁Helt",
        -10.387018480891106
      ],
      [
        "▁lågt",
        -10.387212641238602
      ],
      [
        "▁mått",
        -10.387534821546309
      ],
      [
        "▁dollar",
        -10.387546601011305
      ],
      [
        "▁koppla",
        -10.388581557885905
      ],
      [
        "▁kilometer",
        -10.388727533505174
      ],
      [
        "naturliga",
        -10.389033652140578
      ],
      [
        "▁grön",
        -10.389042446043995
      ],
      [
        "▁Le",
        -10.389086941317478
      ],
      [
        "▁totala",
        -10.389883165351222
      ],
      [
        "▁Vårt",
        -10.389889889396335
      ],
      [
        "anges",
        -10.390451374049627
      ],
      [
        "▁forsknings",
        -10.3904624344512
      ],
      [
        "▁Precis",
        -10.390519593852487
      ],
      [
        "▁södra",
        -10.390791271108265
      ],
      [
        "▁verkligheten",
        -10.391612166538962
      ],
      [
        "▁tillfällig",
        -10.391825819450302
      ],
      [
        "owa",
        -10.393689089232073
      ],
      [
        "▁knapp",
        -10.393775640248617
      ],
      [
        "▁lät",
        -10.393831838291135
      ],
      [
        "tips",
        -10.39428570305501
      ],
      [
        "▁personalen",
        -10.394477883255854
      ],
      [
        "tjänst",
        -10.394532982203547
      ],
      [
        "▁dejtingsajt",
        -10.39506522079905
      ],
      [
        "full",
        -10.395279087132735
      ],
      [
        "▁dusch",
        -10.395701457935434
      ],
      [
        "▁gemensam",
        -10.395766983624807
      ],
      [
        "kontoret",
        -10.396081200331652
      ],
      [
        "▁torr",
        -10.39631290041609
      ],
      [
        "▁särskild",
        -10.396714680874727
      ],
      [
        "bestämmer",
        -10.397406502944381
      ],
      [
        "▁uppmärksamhet",
        -10.397427626897542
      ],
      [
        "▁bostad",
        -10.397596370118414
      ],
      [
        "hittat",
        -10.397606695238068
      ],
      [
        "▁avgifter",
        -10.399032155719118
      ],
      [
        "särskilda",
        -10.399960741540472
      ],
      [
        "▁banan",
        -10.400213308432047
      ],
      [
        "gemensamt",
        -10.40063981494399
      ],
      [
        "▁Inom",
        -10.400701846352987
      ],
      [
        "▁torsdag",
        -10.40073748768858
      ],
      [
        "▁industri",
        -10.40084992913766
      ],
      [
        "linjen",
        -10.400967847159418
      ],
      [
        "▁växt",
        -10.401703220256161
      ],
      [
        "Börja",
        -10.401878514507333
      ],
      [
        "handlade",
        -10.402346198360718
      ],
      [
        "tråkigt",
        -10.402512687862316
      ],
      [
        "Tror",
        -10.402576916032556
      ],
      [
        "▁Larsson",
        -10.402838195587393
      ],
      [
        "▁klubb",
        -10.403543323276347
      ],
      [
        "▁röra",
        -10.40402275921
      ],
      [
        "mysigt",
        -10.404292910584084
      ],
      [
        "▁Super",
        -10.404296648328517
      ],
      [
        "▁rygg",
        -10.404333300468712
      ],
      [
        "▁duktig",
        -10.404589290779763
      ],
      [
        "▁sönder",
        -10.404946186955206
      ],
      [
        "▁behålla",
        -10.405067823408292
      ],
      [
        "▁alltför",
        -10.406006880766352
      ],
      [
        "väntade",
        -10.406467140801425
      ],
      [
        "Oavsett",
        -10.406614418294788
      ],
      [
        "▁Fri",
        -10.40715676431412
      ],
      [
        "▁motsvara",
        -10.407549534911858
      ],
      [
        "▁Co",
        -10.408057741997364
      ],
      [
        "▁laga",
        -10.408777380877211
      ],
      [
        "▁Thomas",
        -10.409083020968689
      ],
      [
        "projekt",
        -10.40963122095717
      ],
      [
        "▁Mikael",
        -10.410926991405713
      ],
      [
        "▁rese",
        -10.411641093662858
      ],
      [
        "nöjda",
        -10.412250562760592
      ],
      [
        "ämnet",
        -10.412573743043023
      ],
      [
        "nämnda",
        -10.413063798309247
      ],
      [
        "pratade",
        -10.41377358321661
      ],
      [
        "▁lokaler",
        -10.414486803052112
      ],
      [
        "kraftigt",
        -10.414531707588512
      ],
      [
        "▁Kalmar",
        -10.414641008066418
      ],
      [
        "▁linje",
        -10.414706017033001
      ],
      [
        "sätt",
        -10.415201932993023
      ],
      [
        "▁golv",
        -10.41545096370643
      ],
      [
        "nytta",
        -10.416549460452242
      ],
      [
        "stöd",
        -10.416837826662547
      ],
      [
        "▁balans",
        -10.416900435286925
      ],
      [
        "▁stranden",
        -10.417208278388324
      ],
      [
        "▁fördelar",
        -10.417779855869172
      ],
      [
        "tur",
        -10.417786387390002
      ],
      [
        "▁Tillsammans",
        -10.41786739462419
      ],
      [
        "°",
        -10.418384185026843
      ],
      [
        "▁seger",
        -10.418400739120504
      ],
      [
        "▁Nyheter",
        -10.41849678799069
      ],
      [
        "▁kontor",
        -10.418993506108661
      ],
      [
        "▁webb",
        -10.419315489538267
      ],
      [
        "▁kallt",
        -10.419541405391165
      ],
      [
        "pågår",
        -10.419890612124789
      ],
      [
        "▁avse",
        -10.419905765631459
      ],
      [
        "▁snar",
        -10.420706064890856
      ],
      [
        "▁sannolik",
        -10.4207622373764
      ],
      [
        "▁hoppa",
        -10.420787497592684
      ],
      [
        "▁snyggt",
        -10.421214731690727
      ],
      [
        "▁tävling",
        -10.42197559888632
      ],
      [
        "platser",
        -10.42241685488301
      ],
      [
        "▁syster",
        -10.422684258453199
      ],
      [
        "holm",
        -10.422808617861886
      ],
      [
        "värsta",
        -10.42301168205913
      ],
      [
        "▁lov",
        -10.423078912331144
      ],
      [
        "▁tyst",
        -10.424292646525
      ],
      [
        "ökning",
        -10.425512768552991
      ],
      [
        "▁engagemang",
        -10.425598581409194
      ],
      [
        "▁SD",
        -10.425605902799367
      ],
      [
        "kväll",
        -10.425818283941606
      ],
      [
        "ina",
        -10.426482494387626
      ],
      [
        "▁kritik",
        -10.426517413416853
      ],
      [
        "du",
        -10.426553583479302
      ],
      [
        "ord",
        -10.427594720890474
      ],
      [
        "▁insats",
        -10.42796008001422
      ],
      [
        "▁återg",
        -10.42816384732117
      ],
      [
        "hallen",
        -10.428780912238002
      ],
      [
        "förslaget",
        -10.429363454256013
      ],
      [
        "pekar",
        -10.429731953933066
      ],
      [
        "▁wid",
        -10.42975744961976
      ],
      [
        "▁bry",
        -10.430181150050046
      ],
      [
        "Redan",
        -10.430307557889746
      ],
      [
        "nivån",
        -10.430384248166813
      ],
      [
        "baserat",
        -10.430414692912022
      ],
      [
        "uppgifter",
        -10.430896777420049
      ],
      [
        "banan",
        -10.431149973785466
      ],
      [
        "▁Västra",
        -10.43135244207533
      ],
      [
        "▁St",
        -10.431793052943748
      ],
      [
        "▁utmaningar",
        -10.432288937491458
      ],
      [
        "▁Kram",
        -10.432846737225107
      ],
      [
        "livet",
        -10.433054059167985
      ],
      [
        "▁version",
        -10.433319354674218
      ],
      [
        "enlighet",
        -10.433350274592865
      ],
      [
        "lar",
        -10.433780117970763
      ],
      [
        "kommit",
        -10.434022375271338
      ],
      [
        "avtalet",
        -10.434170214024526
      ],
      [
        "reagera",
        -10.434423612244677
      ],
      [
        "mänskliga",
        -10.434439441783098
      ],
      [
        "▁författare",
        -10.434818083711166
      ],
      [
        "tycks",
        -10.434862701938023
      ],
      [
        "▁miljön",
        -10.435080690606123
      ],
      [
        "▁arrangera",
        -10.435729549234814
      ],
      [
        "▁Sjö",
        -10.435842559228073
      ],
      [
        "▁trolig",
        -10.436538628534525
      ],
      [
        "▁tyska",
        -10.436897763712146
      ],
      [
        "dan",
        -10.43744217336515
      ],
      [
        "▁bröd",
        -10.43808228463841
      ],
      [
        "▁skatt",
        -10.438577005285048
      ],
      [
        "▁anpassa",
        -10.438591666291298
      ],
      [
        "▁Sport",
        -10.43866868536343
      ],
      [
        "▁utvecklings",
        -10.439380235921675
      ],
      [
        "Om",
        -10.439747259000958
      ],
      [
        "▁aktivitet",
        -10.440951268130057
      ],
      [
        "▁avstånd",
        -10.44110994824591
      ],
      [
        "▁produktion",
        -10.441348978379171
      ],
      [
        "automatiskt",
        -10.441359825744927
      ],
      [
        "arter",
        -10.44213711021583
      ],
      [
        "rad",
        -10.442240863889442
      ],
      [
        "▁tuff",
        -10.442465007031553
      ],
      [
        "▁berör",
        -10.442787261005574
      ],
      [
        "▁Region",
        -10.442791080355244
      ],
      [
        "▁överallt",
        -10.443052026318044
      ],
      [
        "▁sekunder",
        -10.443633918955447
      ],
      [
        "▁finna",
        -10.443764371682892
      ],
      [
        "▁hästar",
        -10.443907341336647
      ],
      [
        "▁modeller",
        -10.44414301672093
      ],
      [
        "up",
        -10.444150112961383
      ],
      [
        "resultera",
        -10.445126057934086
      ],
      [
        "männen",
        -10.445926689583514
      ],
      [
        "jobbat",
        -10.446005043909265
      ],
      [
        "▁respekt",
        -10.446302825971838
      ],
      [
        "▁takt",
        -10.446380962171935
      ],
      [
        "▁presentera",
        -10.44650926911223
      ],
      [
        "▁Windows",
        -10.447406675167551
      ],
      [
        "▁Stora",
        -10.447451128907089
      ],
      [
        "frågan",
        -10.447573218283821
      ],
      [
        "▁trädgård",
        -10.44801507165701
      ],
      [
        "▁planerar",
        -10.448489796461894
      ],
      [
        "verkade",
        -10.448954005148517
      ],
      [
        "utvecklat",
        -10.449361675541232
      ],
      [
        "▁motor",
        -10.449499850851112
      ],
      [
        "▁styrka",
        -10.449569741786565
      ],
      [
        "aning",
        -10.449843573625921
      ],
      [
        "TV",
        -10.449897099556257
      ],
      [
        "▁Spanien",
        -10.450633455279958
      ],
      [
        "▁fastighets",
        -10.450759254149265
      ],
      [
        "▁förståelse",
        -10.451088677902177
      ],
      [
        "▁smart",
        -10.451507615769684
      ],
      [
        "▁uppfyll",
        -10.451629996887878
      ],
      [
        "givande",
        -10.451642612997437
      ],
      [
        "co",
        -10.451748756293462
      ],
      [
        "frågorna",
        -10.452089921879354
      ],
      [
        "▁planer",
        -10.452305483584917
      ],
      [
        "stans",
        -10.452334488176893
      ],
      [
        "årig",
        -10.452451283835313
      ],
      [
        "▁kunden",
        -10.452579056948329
      ],
      [
        "▁bevilja",
        -10.453038543362371
      ],
      [
        "kollegor",
        -10.453156202470828
      ],
      [
        "delvis",
        -10.453157402850822
      ],
      [
        "åsikter",
        -10.453187291451327
      ],
      [
        "information",
        -10.453261972012331
      ],
      [
        "▁za",
        -10.453577304943437
      ],
      [
        "andet",
        -10.453706179427169
      ],
      [
        "▁tränare",
        -10.454150292683382
      ],
      [
        "▁populär",
        -10.45429779029477
      ],
      [
        "reglerna",
        -10.454400717901141
      ],
      [
        "▁skuld",
        -10.454535533925176
      ],
      [
        "medel",
        -10.45463918430926
      ],
      [
        "▁Fick",
        -10.454785048130692
      ],
      [
        "slag",
        -10.45479007992839
      ],
      [
        "räknas",
        -10.454896960173182
      ],
      [
        "▁salt",
        -10.45524588648854
      ],
      [
        "▁flertal",
        -10.456582749351623
      ],
      [
        "rik",
        -10.456773572110542
      ],
      [
        "▁felaktig",
        -10.457028441282583
      ],
      [
        "▁vuxen",
        -10.457055187266207
      ],
      [
        "▁servera",
        -10.457313270943928
      ],
      [
        "▁näst",
        -10.457469532770345
      ],
      [
        "▁produkten",
        -10.458289612683103
      ],
      [
        "föll",
        -10.458701162237459
      ],
      [
        "skatt",
        -10.458708711525517
      ],
      [
        "omfattar",
        -10.458832368497763
      ],
      [
        "▁rekommendera",
        -10.459562081167283
      ],
      [
        "▁spendera",
        -10.459733973758649
      ],
      [
        "▁SEK",
        -10.459800533192393
      ],
      [
        "▁normal",
        -10.460662910789848
      ],
      [
        "luften",
        -10.46087353008753
      ],
      [
        "▁Karlsson",
        -10.460896664406167
      ],
      [
        "härliga",
        -10.461069000814962
      ],
      [
        "frågar",
        -10.461336860262772
      ],
      [
        "▁bredvid",
        -10.462444527570753
      ],
      [
        "övningar",
        -10.462499530210946
      ],
      [
        "▁mej",
        -10.462753176312571
      ],
      [
        "kläder",
        -10.46315552055142
      ],
      [
        "▁vind",
        -10.463443939108892
      ],
      [
        "▁söt",
        -10.463611280450573
      ],
      [
        "▁skriv",
        -10.463940059063978
      ],
      [
        "tagna",
        -10.464464209998907
      ],
      [
        "förvaltningen",
        -10.464472691160818
      ],
      [
        "▁rosa",
        -10.464955561737726
      ],
      [
        "▁Kultur",
        -10.464999091081538
      ],
      [
        "▁drift",
        -10.465018136056042
      ],
      [
        "▁moms",
        -10.46522094337149
      ],
      [
        "▁synd",
        -10.465315364558228
      ],
      [
        "▁lämplig",
        -10.465422055918093
      ],
      [
        "▁San",
        -10.46547302095127
      ],
      [
        "sten",
        -10.465660214117072
      ],
      [
        "▁tillägg",
        -10.46607922881676
      ],
      [
        "▁bod",
        -10.466123727628574
      ],
      [
        "▁enskild",
        -10.466262683674234
      ],
      [
        "▁återkomm",
        -10.466428628932457
      ],
      [
        "▁Hotels",
        -10.466956641905094
      ],
      [
        "sugen",
        -10.466975681053341
      ],
      [
        "▁lagom",
        -10.467136955533963
      ],
      [
        "▁sjukdomar",
        -10.467454089225535
      ],
      [
        "Syftet",
        -10.467499377200703
      ],
      [
        "▁studenter",
        -10.467589263553739
      ],
      [
        "▁smärta",
        -10.467635731569098
      ],
      [
        "▁Aktiebolag",
        -10.468267002760728
      ],
      [
        "▁Jämför",
        -10.469033740406786
      ],
      [
        "äkta",
        -10.469086659970179
      ],
      [
        "▁brand",
        -10.469313081560262
      ],
      [
        "nych",
        -10.469859153174575
      ],
      [
        "▁butiken",
        -10.471757254877572
      ],
      [
        "▁van",
        -10.472380558495615
      ],
      [
        "ocz",
        -10.472728451408528
      ],
      [
        "vågar",
        -10.47357000736036
      ],
      [
        "▁förtroende",
        -10.473773719632826
      ],
      [
        "Tycker",
        -10.474036403058175
      ],
      [
        "▁Samma",
        -10.474097932106792
      ],
      [
        "▁utredning",
        -10.475863591858207
      ],
      [
        "▁Ju",
        -10.476214794456483
      ],
      [
        "▁Tidigare",
        -10.476535956090885
      ],
      [
        "ansvarar",
        -10.476689010713757
      ],
      [
        "▁webbplatsen",
        -10.477199783806663
      ],
      [
        "▁hemmet",
        -10.477442821043773
      ],
      [
        "▁ryggen",
        -10.477616427065142
      ],
      [
        "dagar",
        -10.477711149147401
      ],
      [
        "älskade",
        -10.478142266036077
      ],
      [
        "företagen",
        -10.479154156994824
      ],
      [
        "▁styrelse",
        -10.47936175864755
      ],
      [
        "▁Sten",
        -10.480411516452794
      ],
      [
        "▁Billiga",
        -10.480628827169157
      ],
      [
        "lades",
        -10.481357195067902
      ],
      [
        "▁Persson",
        -10.481478195970881
      ],
      [
        "▁tappa",
        -10.481957430552985
      ],
      [
        "▁tex",
        -10.48250290185621
      ],
      [
        "kvinnan",
        -10.4837225864184
      ],
      [
        "män",
        -10.483960812323911
      ],
      [
        "▁leverantörer",
        -10.484072094282405
      ],
      [
        "domstolen",
        -10.48439002443852
      ],
      [
        "talade",
        -10.484654751105756
      ],
      [
        "saken",
        -10.484735479854248
      ],
      [
        "▁resor",
        -10.484834912362265
      ],
      [
        "▁karaktär",
        -10.48500725840364
      ],
      [
        "innehållet",
        -10.485027870970892
      ],
      [
        "orolig",
        -10.485477568985857
      ],
      [
        "ER",
        -10.486213289931605
      ],
      [
        "▁byggde",
        -10.48711384764046
      ],
      [
        "filer",
        -10.487224248480262
      ],
      [
        "▁förändra",
        -10.487334830718064
      ],
      [
        "▁informera",
        -10.487432944444702
      ],
      [
        "sserligen",
        -10.488432665665151
      ],
      [
        "▁Miljö",
        -10.489175787375727
      ],
      [
        "▁Utan",
        -10.489227628774142
      ],
      [
        "line",
        -10.48970772726441
      ],
      [
        "▁artiklar",
        -10.48999111338672
      ],
      [
        "▁onsdag",
        -10.490157621389335
      ],
      [
        "vatten",
        -10.4902026652011
      ],
      [
        "▁arbetsmiljö",
        -10.490717234987054
      ],
      [
        "önskemål",
        -10.492001807406913
      ],
      [
        "▁Karl",
        -10.492484865469475
      ],
      [
        "säkerställa",
        -10.492798383292541
      ],
      [
        "omöjligt",
        -10.493128510419442
      ],
      [
        "▁Totalt",
        -10.493208070956868
      ],
      [
        "utav",
        -10.493843379272477
      ],
      [
        "▁Mats",
        -10.494115984860851
      ],
      [
        "▁träffar",
        -10.49483512148312
      ],
      [
        "taket",
        -10.494847373729163
      ],
      [
        "▁städer",
        -10.495093882615565
      ],
      [
        "satta",
        -10.495470944629233
      ],
      [
        "▁handen",
        -10.496476302935353
      ],
      [
        "▁statistik",
        -10.496576489432359
      ],
      [
        "▁lägenheter",
        -10.497166877817039
      ],
      [
        "försvinner",
        -10.49764405854156
      ],
      [
        "individer",
        -10.498352675054663
      ],
      [
        "funderar",
        -10.4983834139906
      ],
      [
        "▁frakt",
        -10.498696171192421
      ],
      [
        "▁Lind",
        -10.498729259306488
      ],
      [
        "▁upptäcka",
        -10.49889589791784
      ],
      [
        "föreningen",
        -10.499377112084895
      ],
      [
        "emellan",
        -10.49967643508819
      ],
      [
        "▁trygghet",
        -10.499791029796224
      ],
      [
        "kostnader",
        -10.500046753034054
      ],
      [
        "svaret",
        -10.500201967270785
      ],
      [
        "▁utseende",
        -10.500417366841912
      ],
      [
        "▁fria",
        -10.500575926374959
      ],
      [
        "böcker",
        -10.500941186307038
      ],
      [
        "▁sortiment",
        -10.50115887653265
      ],
      [
        "▁identifiera",
        -10.501425495154239
      ],
      [
        "▁lägenheten",
        -10.501694217895755
      ],
      [
        "väggen",
        -10.502038144508377
      ],
      [
        "▁kämpa",
        -10.50209218476802
      ],
      [
        "▁Vidare",
        -10.502492736808824
      ],
      [
        "ver",
        -10.503458282325154
      ],
      [
        "▁ränta",
        -10.50369978432537
      ],
      [
        "släppte",
        -10.503809194213854
      ],
      [
        "▁sovrum",
        -10.5039089185107
      ],
      [
        "▁radio",
        -10.504208600615481
      ],
      [
        "▁påminn",
        -10.504696994679096
      ],
      [
        "▁FN",
        -10.505982510036661
      ],
      [
        "▁fan",
        -10.50606016838256
      ],
      [
        "▁situationer",
        -10.50685026299305
      ],
      [
        "marknaden",
        -10.506952682313687
      ],
      [
        "▁uppfattning",
        -10.506994675292178
      ],
      [
        "resor",
        -10.507441854383684
      ],
      [
        "▁rena",
        -10.508172722903478
      ],
      [
        "▁styra",
        -10.508195464355973
      ],
      [
        "namn",
        -10.508338611726094
      ],
      [
        "▁Karin",
        -10.508988511294742
      ],
      [
        "▁tävla",
        -10.50951165402668
      ],
      [
        "J",
        -10.509546880154407
      ],
      [
        "bordet",
        -10.509609517435296
      ],
      [
        "Alltså",
        -10.509975115789556
      ],
      [
        "ekonomiskt",
        -10.510535140977826
      ],
      [
        "▁Fler",
        -10.511281479188309
      ],
      [
        "ägna",
        -10.51195799475787
      ],
      [
        "▁mor",
        -10.512020720821345
      ],
      [
        "▁räknar",
        -10.512425117154315
      ],
      [
        "▁omsorg",
        -10.51245429761244
      ],
      [
        "slaget",
        -10.512715403996644
      ],
      [
        "byn",
        -10.512892363138116
      ],
      [
        "▁kall",
        -10.51344235475877
      ],
      [
        "blad",
        -10.51359363416129
      ],
      [
        "behovet",
        -10.515573400198463
      ],
      [
        "▁föremål",
        -10.51586720341582
      ],
      [
        "▁region",
        -10.517883424247893
      ],
      [
        "▁intervju",
        -10.518364017832027
      ],
      [
        "▁maskin",
        -10.518591424598952
      ],
      [
        "gång",
        -10.519575612850472
      ],
      [
        "fel",
        -10.51963845213644
      ],
      [
        "▁president",
        -10.519764470437055
      ],
      [
        "▁kurser",
        -10.519918775596068
      ],
      [
        "backen",
        -10.519941549365736
      ],
      [
        "▁vägg",
        -10.519994554013563
      ],
      [
        "▁digital",
        -10.520041183167429
      ],
      [
        "▁tusen",
        -10.520239446342197
      ],
      [
        "hunden",
        -10.520971004539904
      ],
      [
        "billigare",
        -10.521002624086455
      ],
      [
        "▁Herr",
        -10.521165949661885
      ],
      [
        "fyllt",
        -10.521516150052774
      ],
      [
        "▁fru",
        -10.521906952282736
      ],
      [
        "▁silver",
        -10.52201175867928
      ],
      [
        "arbetet",
        -10.522339915351088
      ],
      [
        "ley",
        -10.522827559199815
      ],
      [
        "▁Hotell",
        -10.523060627573413
      ],
      [
        "▁skogs",
        -10.523210827793806
      ],
      [
        "▁byggt",
        -10.523376333741641
      ],
      [
        "▁komplett",
        -10.523441732160721
      ],
      [
        "▁miljon",
        -10.52386120935795
      ],
      [
        "▁sprid",
        -10.523871446228243
      ],
      [
        "▁framgång",
        -10.523972068087668
      ],
      [
        "HL",
        -10.524018753625631
      ],
      [
        "▁arbetsgivare",
        -10.524232304843009
      ],
      [
        "▁Henrik",
        -10.524362372296434
      ],
      [
        "De",
        -10.524730040342497
      ],
      [
        "▁samverkan",
        -10.524965072621162
      ],
      [
        "▁undersöka",
        -10.52551101972722
      ],
      [
        "märklig",
        -10.525528955989888
      ],
      [
        "▁löne",
        -10.525826341503798
      ],
      [
        "▁lärande",
        -10.52600684567525
      ],
      [
        "▁omedelbart",
        -10.526050863755525
      ],
      [
        "▁stål",
        -10.526682868584297
      ],
      [
        "▁behandla",
        -10.526838129888219
      ],
      [
        "uppgifterna",
        -10.527087208224835
      ],
      [
        "▁ledning",
        -10.52726918239152
      ],
      [
        "▁grå",
        -10.527318215525822
      ],
      [
        "▁länk",
        -10.52753035945697
      ],
      [
        "▁trivs",
        -10.52757814553617
      ],
      [
        "▁ställning",
        -10.527834104102771
      ],
      [
        "ist",
        -10.527946238214563
      ],
      [
        "▁faktorer",
        -10.527983343382262
      ],
      [
        "▁konkret",
        -10.528177412689947
      ],
      [
        "befintliga",
        -10.529551494641177
      ],
      [
        "X",
        -10.530414715330693
      ],
      [
        "Den",
        -10.530651845634685
      ],
      [
        "▁student",
        -10.530733983685629
      ],
      [
        "vård",
        -10.530888517819008
      ],
      [
        "▁anslutning",
        -10.530965373176818
      ],
      [
        "färr",
        -10.531993300001748
      ],
      [
        "▁separat",
        -10.532880123105683
      ],
      [
        "▁organisationen",
        -10.533467922227938
      ],
      [
        "▁ämne",
        -10.533927199741207
      ],
      [
        "eftermiddagen",
        -10.534078025725023
      ],
      [
        "avser",
        -10.534232095547877
      ],
      [
        "bil",
        -10.53440298142085
      ],
      [
        "▁global",
        -10.535385468136093
      ],
      [
        "▁lagar",
        -10.535511516460875
      ],
      [
        "▁Er",
        -10.536115116135823
      ],
      [
        "▁rea",
        -10.53634365687108
      ],
      [
        "▁svag",
        -10.539194055028942
      ],
      [
        "▁Ser",
        -10.539614684410653
      ],
      [
        "▁initiativ",
        -10.539952904493049
      ],
      [
        "▁Italien",
        -10.541598445759506
      ],
      [
        "▁beteende",
        -10.541706591151065
      ],
      [
        "▁besvär",
        -10.541774149685196
      ],
      [
        "Frågan",
        -10.541913462928973
      ],
      [
        "behandlas",
        -10.542341966141041
      ],
      [
        "träffat",
        -10.542419538360614
      ],
      [
        "▁händelse",
        -10.54245813322527
      ],
      [
        "▁cancer",
        -10.542513334513101
      ],
      [
        "valda",
        -10.543146561867259
      ],
      [
        "ifall",
        -10.54326635670911
      ],
      [
        "▁lycka",
        -10.543345761892903
      ],
      [
        "stänga",
        -10.543479984577807
      ],
      [
        "▁Eriksson",
        -10.543682296785246
      ],
      [
        "olja",
        -10.54406775542848
      ],
      [
        "▁historien",
        -10.544554020829555
      ],
      [
        "kanten",
        -10.544599511846034
      ],
      [
        "▁onödig",
        -10.545086338183577
      ],
      [
        "ursprunglig",
        -10.546125141882847
      ],
      [
        "▁Kort",
        -10.54632435009702
      ],
      [
        "▁studera",
        -10.546708495080985
      ],
      [
        "ringde",
        -10.54709317034777
      ],
      [
        "lån",
        -10.54713733743083
      ],
      [
        "ytor",
        -10.54723908122335
      ],
      [
        "mött",
        -10.547367941941102
      ],
      [
        "europeiska",
        -10.548494593185357
      ],
      [
        "spelat",
        -10.548554242378774
      ],
      [
        "▁marknadsföring",
        -10.54930384932279
      ],
      [
        "▁sällskap",
        -10.550144230351398
      ],
      [
        "▁däck",
        -10.550270752346465
      ],
      [
        "hållit",
        -10.550278270946936
      ],
      [
        "rapporten",
        -10.550542254133484
      ],
      [
        "▁speciell",
        -10.550842709123112
      ],
      [
        "▁Bank",
        -10.551405286838616
      ],
      [
        "skett",
        -10.551616905366462
      ],
      [
        "kostnaden",
        -10.551662864780727
      ],
      [
        "skillnaden",
        -10.55186680374915
      ],
      [
        "▁människan",
        -10.552032453122287
      ],
      [
        "▁vägar",
        -10.552146663389246
      ],
      [
        "▁elev",
        -10.553253207078185
      ],
      [
        "▁Apple",
        -10.553547972254533
      ],
      [
        "fokusera",
        -10.55356195142482
      ],
      [
        "▁fr",
        -10.554132921683928
      ],
      [
        "▁Exempel",
        -10.554207444381314
      ],
      [
        "▁publik",
        -10.55432390293053
      ],
      [
        "▁Online",
        -10.554475759333142
      ],
      [
        "▁läsare",
        -10.554574744450717
      ],
      [
        "▁fotbolls",
        -10.554975717120731
      ],
      [
        "priset",
        -10.555113995981245
      ],
      [
        "▁Folk",
        -10.555409226611316
      ],
      [
        "tävlingar",
        -10.555712461895686
      ],
      [
        "▁påbörja",
        -10.55580005190176
      ],
      [
        "▁sms",
        -10.556026726778969
      ],
      [
        "▁sambo",
        -10.556404091711876
      ],
      [
        "fors",
        -10.557626125288301
      ],
      [
        "▁bryta",
        -10.557642061259685
      ],
      [
        "avdelningen",
        -10.557678922255185
      ],
      [
        "historiska",
        -10.557910602088892
      ],
      [
        "▁varma",
        -10.558345104371574
      ],
      [
        "▁blanda",
        -10.558689061433515
      ],
      [
        "▁sprida",
        -10.559158557784123
      ],
      [
        "▁billig",
        -10.559533344743604
      ],
      [
        "ljuset",
        -10.560185781448512
      ],
      [
        "▁betrakta",
        -10.560262692632758
      ],
      [
        "▁trädgården",
        -10.56035610803453
      ],
      [
        "året",
        -10.56044006880196
      ],
      [
        "▁komplettera",
        -10.560509485078985
      ],
      [
        "kortare",
        -10.561116275746217
      ],
      [
        "▁jämförelse",
        -10.561218371911888
      ],
      [
        "▁Andreas",
        -10.561539349934593
      ],
      [
        "chefen",
        -10.562424351232705
      ],
      [
        "▁Kontakta",
        -10.562438347866577
      ],
      [
        "Istället",
        -10.562504203964522
      ],
      [
        "▁verksamhets",
        -10.562766867421436
      ],
      [
        "▁kvalitets",
        -10.562780076467476
      ],
      [
        "▁höj",
        -10.562832003644887
      ],
      [
        "▁dygnet",
        -10.563379588047844
      ],
      [
        "OCH",
        -10.564187418102671
      ],
      [
        "▁verk",
        -10.564572423519106
      ],
      [
        "▁belopp",
        -10.564687409720793
      ],
      [
        "▁vardagen",
        -10.565474113802148
      ],
      [
        "▁sant",
        -10.565532259083856
      ],
      [
        "▁tema",
        -10.5656391229191
      ],
      [
        "▁utomlands",
        -10.565728231378179
      ],
      [
        "varav",
        -10.565728661702954
      ],
      [
        "benen",
        -10.56587411338353
      ],
      [
        "rar",
        -10.56675954324319
      ],
      [
        "▁fritt",
        -10.567518811695807
      ],
      [
        "flyttar",
        -10.567851217550297
      ],
      [
        "▁tävlings",
        -10.56848537271273
      ],
      [
        "▁beskriv",
        -10.569842854914892
      ],
      [
        "göra",
        -10.569868597523064
      ],
      [
        "länderna",
        -10.569905999776045
      ],
      [
        "eras",
        -10.570128310341032
      ],
      [
        "▁andel",
        -10.570672257847596
      ],
      [
        "▁riksdagen",
        -10.571055412933248
      ],
      [
        "▁dog",
        -10.571185540972959
      ],
      [
        "▁sök",
        -10.571413518004157
      ],
      [
        "▁agera",
        -10.571426014138806
      ],
      [
        "llertid",
        -10.571755709679397
      ],
      [
        "▁utländsk",
        -10.571757484863697
      ],
      [
        "▁VD",
        -10.57177282861855
      ],
      [
        "fullt",
        -10.572021415105459
      ],
      [
        "formen",
        -10.57213547535251
      ],
      [
        "▁eme",
        -10.572416188728656
      ],
      [
        "försökt",
        -10.573368134355439
      ],
      [
        "▁Innehåll",
        -10.574269455194969
      ],
      [
        "hinna",
        -10.574662305586564
      ],
      [
        "beskriva",
        -10.576137966399871
      ],
      [
        "▁föredra",
        -10.576313298769078
      ],
      [
        "▁gravid",
        -10.576512558363527
      ],
      [
        "förhoppningsvis",
        -10.57691221310545
      ],
      [
        "▁tävlingen",
        -10.577389084902595
      ],
      [
        "följde",
        -10.5778471952753
      ],
      [
        "▁strategi",
        -10.577869740734927
      ],
      [
        "näs",
        -10.579048699272095
      ],
      [
        "▁Sol",
        -10.579201645950446
      ],
      [
        "förening",
        -10.57921742773576
      ],
      [
        "färg",
        -10.579272028114424
      ],
      [
        "orter",
        -10.579364797040887
      ],
      [
        "ledare",
        -10.5795971732773
      ],
      [
        "Men",
        -10.579686650958749
      ],
      [
        "Förra",
        -10.579805687820249
      ],
      [
        "kul",
        -10.579911504091434
      ],
      [
        "fysiska",
        -10.58051243179959
      ],
      [
        "märkt",
        -10.5807787193896
      ],
      [
        "▁Göran",
        -10.581005855359253
      ],
      [
        "▁relationer",
        -10.581649686364447
      ],
      [
        "heten",
        -10.581656983267491
      ],
      [
        "▁händelser",
        -10.581757787365985
      ],
      [
        "norra",
        -10.58197070968383
      ],
      [
        "▁OS",
        -10.582179262183809
      ],
      [
        "miljö",
        -10.582318890804725
      ],
      [
        "▁fängelse",
        -10.582701504676894
      ],
      [
        "▁sjön",
        -10.582832815560657
      ],
      [
        "bandet",
        -10.583257738323969
      ],
      [
        "vik",
        -10.583605098923089
      ],
      [
        "bergs",
        -10.583953599431535
      ],
      [
        "täcker",
        -10.58408423419483
      ],
      [
        "höja",
        -10.584145032396718
      ],
      [
        "▁Känn",
        -10.584322106109907
      ],
      [
        "Blir",
        -10.584508944406165
      ],
      [
        "▁svenskar",
        -10.584538279810953
      ],
      [
        "▁medicin",
        -10.5847539001252
      ],
      [
        "mar",
        -10.5849021093476
      ],
      [
        "stannar",
        -10.585250596377584
      ],
      [
        "▁Mo",
        -10.585865622648594
      ],
      [
        "borg",
        -10.58656745109577
      ],
      [
        "erande",
        -10.587414579246543
      ],
      [
        "ges",
        -10.587785371176839
      ],
      [
        "▁Sara",
        -10.588017142172006
      ],
      [
        "▁hemsidan",
        -10.588050465222771
      ],
      [
        "▁God",
        -10.588164162393214
      ],
      [
        "▁Bar",
        -10.588224611058338
      ],
      [
        "▁krig",
        -10.588267560658648
      ],
      [
        "spelarna",
        -10.588365736396664
      ],
      [
        "▁album",
        -10.58839599477098
      ],
      [
        "▁mysig",
        -10.588638020565146
      ],
      [
        "▁tacka",
        -10.588901977619948
      ],
      [
        "kostnaderna",
        -10.5892521732183
      ],
      [
        "▁franska",
        -10.589431898073281
      ],
      [
        "▁Val",
        -10.589480547906426
      ],
      [
        "verk",
        -10.590106667611062
      ],
      [
        "samlade",
        -10.590610748259918
      ],
      [
        "fyllda",
        -10.5908285440913
      ],
      [
        "▁Emma",
        -10.590861010115955
      ],
      [
        "Måste",
        -10.591595492309375
      ],
      [
        "▁installera",
        -10.591645450731118
      ],
      [
        "▁Mark",
        -10.592191397085845
      ],
      [
        "starkare",
        -10.592313537476162
      ],
      [
        "▁ansiktet",
        -10.592333588285307
      ],
      [
        "utsträckning",
        -10.592582369940082
      ],
      [
        "ellre",
        -10.592857478443445
      ],
      [
        "▁hy",
        -10.592860288147385
      ],
      [
        "förklarar",
        -10.593776431412339
      ],
      [
        "▁oberoende",
        -10.594246511004469
      ],
      [
        "▁raka",
        -10.594648545466633
      ],
      [
        "▁hävd",
        -10.594837356899601
      ],
      [
        "ätit",
        -10.59486794670884
      ],
      [
        "▁urval",
        -10.595023897665195
      ],
      [
        "▁central",
        -10.595330737677545
      ],
      [
        "▁Q",
        -10.595419058705655
      ],
      [
        "▁iallafall",
        -10.596333934354059
      ],
      [
        "dåliga",
        -10.596818690166282
      ],
      [
        "Inget",
        -10.597394112598359
      ],
      [
        "▁allmänt",
        -10.597862467456885
      ],
      [
        "än",
        -10.599078542754924
      ],
      [
        "lita",
        -10.59912601126327
      ],
      [
        "träning",
        -10.599473144618242
      ],
      [
        "enheten",
        -10.5998947487744
      ],
      [
        "▁förening",
        -10.600613188656867
      ],
      [
        "▁ledig",
        -10.601049645363918
      ],
      [
        "upp",
        -10.60112939710942
      ],
      [
        "▁sam",
        -10.601210745686485
      ],
      [
        "▁utbildningen",
        -10.601266066870723
      ],
      [
        "▁dyker",
        -10.601499197853007
      ],
      [
        "serie",
        -10.601722428399993
      ],
      [
        "▁varumärken",
        -10.602016257132952
      ],
      [
        "▁lust",
        -10.602138855836833
      ],
      [
        "▁underlätta",
        -10.602896472089617
      ],
      [
        "kommer",
        -10.60350536478498
      ],
      [
        "uppmana",
        -10.603531435826165
      ],
      [
        "traditionella",
        -10.604194046207864
      ],
      [
        "▁medlems",
        -10.604935478926116
      ],
      [
        "farligt",
        -10.605076790856545
      ],
      [
        "▁omfatta",
        -10.605081900785578
      ],
      [
        "▁tisdag",
        -10.605137460848862
      ],
      [
        "▁fiske",
        -10.605634629216363
      ],
      [
        "▁Västerås",
        -10.605900724060305
      ],
      [
        "▁långsiktig",
        -10.606636604282253
      ],
      [
        "▁stopp",
        -10.606982812496584
      ],
      [
        "arbeten",
        -10.60744496291195
      ],
      [
        "▁IP",
        -10.60749952838122
      ],
      [
        "ken",
        -10.608140623747278
      ],
      [
        "▁fysisk",
        -10.608825243124892
      ],
      [
        "▁typen",
        -10.608868453349805
      ],
      [
        "värde",
        -10.6098270600372
      ],
      [
        "▁riktning",
        -10.610184792007868
      ],
      [
        "språket",
        -10.610288024256773
      ],
      [
        "denne",
        -10.610878405962433
      ],
      [
        "▁rabatt",
        -10.610912779643373
      ],
      [
        "q",
        -10.610962158635534
      ],
      [
        "▁original",
        -10.611065586306307
      ],
      [
        "▁utgångspunkt",
        -10.611091774535861
      ],
      [
        "materialet",
        -10.611647555671148
      ],
      [
        "lista",
        -10.611735899521202
      ],
      [
        "▁olja",
        -10.611910028253643
      ],
      [
        "mässan",
        -10.612023462729145
      ],
      [
        "▁Hög",
        -10.61208686901702
      ],
      [
        "▁profil",
        -10.612261272615456
      ],
      [
        "▁välj",
        -10.612353551043006
      ],
      [
        "Utöver",
        -10.612460894941995
      ],
      [
        "fattas",
        -10.612505064147717
      ],
      [
        "ism",
        -10.612846274704307
      ],
      [
        "bollen",
        -10.613040404714372
      ],
      [
        "banken",
        -10.61310565579547
      ],
      [
        "▁skott",
        -10.61348770982087
      ],
      [
        "parken",
        -10.613906531255171
      ],
      [
        "▁stads",
        -10.614259466008157
      ],
      [
        "▁erbjudande",
        -10.614476162998562
      ],
      [
        "▁Väl",
        -10.6144939896473
      ],
      [
        "jättebra",
        -10.6155374334907
      ],
      [
        "▁grej",
        -10.615741060283295
      ],
      [
        "▁inspirera",
        -10.616201950566076
      ],
      [
        "▁folket",
        -10.616554132517303
      ],
      [
        "landet",
        -10.616718141706194
      ],
      [
        "▁Lag",
        -10.617892872982143
      ],
      [
        "▁doft",
        -10.618131379956829
      ],
      [
        "politik",
        -10.618810583070118
      ],
      [
[...]
