{
  "version": "1.0",
  "truncation": null,
  "padding": null,
  "added_tokens": [
    {
      "id": 0,
      "content": "[PAD]",
      "single_word": false,
      "lstrip": false,
      "rstrip": false,
      "normalized": false,
      "special": true
    },
    {
      "id": 1,
      "content": "[UNK]",
      "single_word": false,
      "lstrip": false,
      "rstrip": false,
      "normalized": false,
      "special": true
    },
    {
      "id": 2,
      "content": "[MASK]",
      "single_word": false,
      "lstrip": false,
      "rstrip": false,
      "normalized": false,
      "special": true
    },
    {
      "id": 3,
      "content": "[CLS]",
      "single_word": false,
      "lstrip": false,
      "rstrip": false,
      "normalized": false,
      "special": true
    },
    {
      "id": 4,
      "content": "[SEP]",
      "single_word": false,
      "lstrip": false,
      "rstrip": false,
      "normalized": false,
      "special": true
    }
  ],
  "normalizer": {
    "type": "Sequence",
    "normalizers": [
      {
        "type": "Nmt"
      },
      {
        "type": "NFKC"
      },
      {
        "type": "Replace",
        "pattern": {
          "Regex": " {2,}"
        },
        "content": " "
      }
    ]
  },
  "pre_tokenizer": {
    "type": "Sequence",
    "pretokenizers": [
      {
        "type": "Metaspace",
        "replacement": "▁",
        "add_prefix_space": true
      }
    ]
  },
  "post_processor": {
    "type": "TemplateProcessing",
    "single": [
      {
        "SpecialToken": {
          "id": "[CLS]",
          "type_id": 0
        }
      },
      {
        "Sequence": {
          "id": "A",
          "type_id": 0
        }
      },
      {
        "SpecialToken": {
          "id": "[SEP]",
          "type_id": 0
        }
      }
    ],
    "pair": [
      {
        "SpecialToken": {
          "id": "[CLS]",
          "type_id": 0
        }
      },
      {
        "Sequence": {
          "id": "A",
          "type_id": 0
        }
      },
      {
        "SpecialToken": {
          "id": "[SEP]",
          "type_id": 0
        }
      },
      {
        "Sequence": {
          "id": "B",
          "type_id": 1
        }
      },
      {
        "SpecialToken": {
          "id": "[SEP]",
          "type_id": 1
        }
      }
    ],
    "special_tokens": {
      "[CLS]": {
        "id": "[CLS]",
        "ids": [
          3
        ],
        "tokens": [
          "[CLS]"
        ]
      },
      "[SEP]": {
        "id": "[SEP]",
        "ids": [
          4
        ],
        "tokens": [
          "[SEP]"
        ]
      }
    }
  },
  "decoder": {
    "type": "Metaspace",
    "replacement": "▁",
    "add_prefix_space": true
  },
  "model": {
    "type": "Unigram",
    "unk_id": 1,
    "vocab": [
      [
        "[PAD]",
        0.0
      ],
      [
        "[UNK]",
        0.0
      ],
      [
        "[MASK]",
        0.0
      ],
      [
        "[CLS]",
        0.0
      ],
      [
        "[SEP]",
        0.0
      ],
      [
        "▁",
        -2.698270203702968
      ],
      [
        ".",
        -3.5435642766225754
      ],
      [
        "▁och",
        -3.898925760304934
      ],
      [
        "i",
        -3.9385511021047748
      ],
      [
        ",",
        -3.939494973411353
      ],
      [
        "s",
        -3.941452382650372
      ],
      [
        "▁att",
        -4.151933154920599
      ],
      [
        "▁är",
        -4.51538664750359
      ],
      [
        "▁som",
        -4.54581927530657
      ],
      [
        "▁på",
        -4.546156825681386
      ],
      [
        "▁för",
        -4.624305002140641
      ],
      [
        "▁en",
        -4.627506113324625
      ],
      [
        "a",
        -4.67557263632068
      ],
      [
        "▁det",
        -4.684255292366391
      ],
      [
        "t",
        -4.720572183246794
      ],
      [
        "▁med",
        -4.804644580311884
      ],
      [
        "▁av",
        -4.820224494283895
      ],
      [
        "en",
        -4.9475627453043565
      ],
      [
        "▁till",
        -4.969596976760304
      ],
      [
        "▁har",
        -5.106907044957694
      ],
      [
        "▁jag",
        -5.260681433434055
      ],
      [
        "n",
        -5.319444735274185
      ],
      [
        "▁inte",
        -5.322514776078666
      ],
      [
        "▁om",
        -5.344723218620832
      ],
      [
        "r",
        -5.3473523538073735
      ],
      [
        "e",
        -5.371184240281924
      ],
      [
        "▁den",
        -5.424775004202807
      ],
      [
        "er",
        -5.468908998287468
      ],
      [
        "▁ett",
        -5.472193029311235
      ],
      [
        "▁så",
        -5.536838070395625
      ],
      [
        "▁du",
        -5.601200792755385
      ],
      [
        "▁de",
        -5.607942057464168
      ],
      [
        "▁kan",
        -5.622119939188828
      ],
      [
        "-",
        -5.739832240488344
      ],
      [
        "▁vi",
        -5.763854973390558
      ],
      [
        "d",
        -5.798917679660587
      ],
      [
        "▁var",
        -5.809019579151464
      ],
      [
        ":",
        -5.8766080054872845
      ],
      [
        "▁Det",
        -5.892155899695538
      ],
      [
        "▁från",
        -5.935520078166451
      ],
      [
        "▁man",
        -5.940087371081031
      ],
      [
        "ar",
        -6.024413465229134
      ],
      [
        "▁eller",
        -6.066149928052273
      ],
      [
        "▁men",
        -6.118444805403346
      ],
      [
        "o",
        -6.130341272367289
      ],
      [
        "!",
        -6.176967322267725
      ],
      [
        "▁ska",
        -6.236392657662385
      ],
      [
        "▁in",
        -6.3086179153177735
      ],
      [
        "de",
        -6.32944817544583
      ],
      [
        "▁sig",
        -6.336133301172769
      ],
      [
        "?",
        -6.364677261967062
      ],
      [
        ")",
        -6.412254019554762
      ],
      [
        "▁Jag",
        -6.414983202686644
      ],
      [
        "et",
        -6.421730107464988
      ],
      [
        "▁upp",
        -6.424454632715866
      ],
      [
        "▁ut",
        -6.4322281236072705
      ],
      [
        "▁när",
        -6.456802835275472
      ],
      [
        "▁kommer",
        -6.487004519649187
      ],
      [
        "▁I",
        -6.499234347868793
      ],
      [
        "▁här",
        -6.515931762210663
      ],
      [
        "▁–",
        -6.545046003074496
      ],
      [
        "▁vara",
        -6.545918678936095
      ],
      [
        "▁Vi",
        -6.552672494317195
      ],
      [
        "▁-",
        -6.570890052228563
      ],
      [
        "▁finns",
        -6.590013324596489
      ],
      [
        "▁mer",
        -6.617563253010092
      ],
      [
        "m",
        -6.621802311044542
      ],
      [
        "▁alla",
        -6.6317639575172596
      ],
      [
        "▁där",
        -6.638984349190746
      ],
      [
        "▁han",
        -6.641302980016748
      ],
      [
        "k",
        -6.64577341788231
      ],
      [
        "▁(",
        -6.66472349767823
      ],
      [
        "/",
        -6.692472940753525
      ],
      [
        "▁under",
        -6.695972437963174
      ],
      [
        "p",
        -6.702771480425849
      ],
      [
        "...",
        -6.719762680088369
      ],
      [
        "▁över",
        -6.752896720640047
      ],
      [
        "▁får",
        -6.756437852756104
      ],
      [
        "▁mycket",
        -6.765261466597995
      ],
      [
        "▁ha",
        -6.7799520114937994
      ],
      [
        "▁lite",
        -6.789777414042003
      ],
      [
        "▁nu",
        -6.796234023180515
      ],
      [
        "▁efter",
        -6.801108832783651
      ],
      [
        "▁också",
        -6.8024598888981735
      ],
      [
        "y",
        -6.8080249891164275
      ],
      [
        "▁vill",
        -6.821157911311994
      ],
      [
        "▁andra",
        -6.862659286213724
      ],
      [
        "l",
        -6.863190023251933
      ],
      [
        "▁få",
        -6.865724991669357
      ],
      [
        "▁bra",
        -6.8745687189246105
      ],
      [
        "▁även",
        -6.877577206768141
      ],
      [
        "▁bara",
        -6.878769524151124
      ],
      [
        "▁hur",
        -6.886586354630415
      ],
      [
        "▁då",
        -6.887118155900637
      ],
      [
        "▁mig",
        -6.900898721221848
      ],
      [
        "▁vid",
        -6.911268539634316
      ],
      [
        "an",
        -6.937856987396836
      ],
      [
        "▁Men",
        -6.955082621807211
      ],
      [
        "h",
        -6.955454791036786
      ],
      [
        "▁år",
        -6.980887931357152
      ],
      [
        "▁vad",
        -6.9891811471974385
      ],
      [
        "g",
        -6.990467237526804
      ],
      [
        "▁hade",
        -6.996935937466192
      ],
      [
        "erna",
        -7.006466378298365
      ],
      [
        "\"",
        -7.0114163327983725
      ],
      [
        "▁än",
        -7.021431781404091
      ],
      [
        "▁dig",
        -7.024008174584578
      ],
      [
        "▁skulle",
        -7.024048368371599
      ],
      [
        "v",
        -7.035203860758914
      ],
      [
        "▁En",
        -7.038437151245956
      ],
      [
        "▁blir",
        -7.04084976800533
      ],
      [
        "▁mot",
        -7.076267415809449
      ],
      [
        "▁sin",
        -7.087396835502155
      ],
      [
        "▁1",
        -7.116417571810848
      ],
      [
        "▁ta",
        -7.124892958276904
      ],
      [
        "▁många",
        -7.1348993191935985
      ],
      [
        "▁S",
        -7.150178282743081
      ],
      [
        "▁ju",
        -7.159657908048164
      ],
      [
        "▁din",
        -7.168547256272989
      ],
      [
        "▁För",
        -7.170965066136317
      ],
      [
        "▁Den",
        -7.175429149212974
      ],
      [
        "▁gör",
        -7.178767612696728
      ],
      [
        "▁göra",
        -7.180864089618524
      ],
      [
        "▁min",
        -7.184027343970822
      ],
      [
        "▁De",
        -7.1874054464521
      ],
      [
        "▁hon",
        -7.20553470809714
      ],
      [
        "▁\"",
        -7.216949484474386
      ],
      [
        "▁utan",
        -7.222567440735411
      ],
      [
        "▁sedan",
        -7.23031976121208
      ],
      [
        "▁något",
        -7.231710144858559
      ],
      [
        "f",
        -7.236016185548486
      ],
      [
        "▁se",
        -7.237312282804103
      ],
      [
        "▁detta",
        -7.245404640393129
      ],
      [
        "en.",
        -7.267291306222411
      ],
      [
        "in",
        -7.273509405721832
      ],
      [
        "▁två",
        -7.277954178410205
      ],
      [
        "▁olika",
        -7.286121192894436
      ],
      [
        "▁allt",
        -7.302590940295522
      ],
      [
        "▁bli",
        -7.326577344647612
      ],
      [
        "▁oss",
        -7.340895426126465
      ],
      [
        "▁del",
        -7.344349901379282
      ],
      [
        "▁genom",
        -7.347788332118087
      ],
      [
        "c",
        -7.353407331580312
      ],
      [
        "▁säger",
        -7.356172252648149
      ],
      [
        "▁någon",
        -7.356441083787109
      ],
      [
        "ade",
        -7.370025132642587
      ],
      [
        "▁går",
        -7.370667124431748
      ],
      [
        "▁2",
        -7.372739511112286
      ],
      [
        "▁fick",
        -7.407640892247377
      ],
      [
        "are",
        -7.410650887024699
      ],
      [
        "at",
        -7.413600122793827
      ],
      [
        "▁helt",
        -7.415930343359149
      ],
      [
        "▁nya",
        -7.416939643298228
      ],
      [
        "▁Om",
        -7.427208518456469
      ],
      [
        "▁hela",
        -7.4407883937405135
      ],
      [
        "▁fram",
        -7.445861906178509
      ],
      [
        "▁inom",
        -7.453579860160627
      ],
      [
        "▁varit",
        -7.4749873713407595
      ],
      [
        "▁blev",
        -7.475667002637229
      ],
      [
        "u",
        -7.477637690504917
      ],
      [
        "▁första",
        -7.482333619187724
      ],
      [
        "arna",
        -7.4832234313050865
      ],
      [
        "▁måste",
        -7.483611055705703
      ],
      [
        "▁några",
        -7.497412156875416
      ],
      [
        "▁samt",
        -7.504886136567894
      ],
      [
        "or",
        -7.520491461389964
      ],
      [
        "▁Du",
        -7.522484303515139
      ],
      [
        "▁denna",
        -7.525729040609107
      ],
      [
        "▁3",
        -7.526637988415072
      ],
      [
        "▁mellan",
        -7.526655627363088
      ],
      [
        "▁kunna",
        -7.545931330369923
      ],
      [
        "▁ni",
        -7.554528790954416
      ],
      [
        "ande",
        -7.598481139773622
      ],
      [
        "▁Och",
        -7.611377598312616
      ],
      [
        "▁När",
        -7.616472482492011
      ],
      [
        "▁vår",
        -7.617461757701875
      ],
      [
        "▁ser",
        -7.622936998830962
      ],
      [
        "▁dem",
        -7.627191233875223
      ],
      [
        "▁väl",
        -7.627901327026324
      ],
      [
        "ning",
        -7.633506539911423
      ],
      [
        "el",
        -7.64932565765282
      ],
      [
        "å",
        -7.65973261845121
      ],
      [
        "▁annat",
        -7.683100033319677
      ],
      [
        "▁hos",
        -7.684360696578715
      ],
      [
        "▁vilket",
        -7.6851084623620505
      ],
      [
        "▁stor",
        -7.685228574357007
      ],
      [
        "▁sina",
        -7.693238631835092
      ],
      [
        "▁både",
        -7.700539191226765
      ],
      [
        ").",
        -7.706233811301452
      ],
      [
        "▁A",
        -7.713575498638397
      ],
      [
        "▁gå",
        -7.717281182461813
      ],
      [
        "▁ny",
        -7.718406795555023
      ],
      [
        "▁barn",
        -7.718688472629898
      ],
      [
        "▁Nu",
        -7.729052350021396
      ],
      [
        "▁Så",
        -7.730859833337375
      ],
      [
        "ing",
        -7.731978654169479
      ],
      [
        "▁tid",
        -7.736215058647634
      ],
      [
        "▁våra",
        -7.740518933943658
      ],
      [
        "ens",
        -7.745072855863016
      ],
      [
        "▁rätt",
        -7.748663588989142
      ],
      [
        "x",
        -7.757571464952159
      ],
      [
        "▁själv",
        -7.761934963823538
      ],
      [
        "▁behöver",
        -7.766430234239541
      ],
      [
        "”",
        -7.767312876429335
      ],
      [
        "▁På",
        -7.773433122994264
      ],
      [
        "▁kom",
        -7.77459013004392
      ],
      [
        "▁kanske",
        -7.777049605845706
      ],
      [
        "▁F",
        -7.778443885358332
      ],
      [
        "▁dessa",
        -7.78319584692561
      ],
      [
        "▁4",
        -7.784192512175107
      ],
      [
        "▁bästa",
        -7.787573496865129
      ],
      [
        "b",
        -7.7880801097428165
      ],
      [
        "▁sätt",
        -7.7883415892874055
      ],
      [
        "▁5",
        -7.804073658198989
      ],
      [
        "▁vet",
        -7.805881575694718
      ],
      [
        "▁flera",
        -7.820666923385891
      ],
      [
        "▁innan",
        -7.8215022214568055
      ],
      [
        "▁Han",
        -7.830502129899694
      ],
      [
        "▁&",
        -7.831321400761276
      ],
      [
        "▁P",
        -7.843079819473262
      ],
      [
        "▁samma",
        -7.8472820662943725
      ],
      [
        "▁10",
        -7.851466963308869
      ],
      [
        "▁K",
        -7.857618472759983
      ],
      [
        "▁ger",
        -7.860112095680494
      ],
      [
        "▁f",
        -7.860370331898112
      ],
      [
        "▁be",
        -7.867154574452732
      ],
      [
        "▁tar",
        -7.869646301680406
      ],
      [
        "▁Sverige",
        -7.8741398426068745
      ],
      [
        "▁ner",
        -7.874521550371979
      ],
      [
        "▁B",
        -7.875291365414913
      ],
      [
        "▁alltid",
        -7.882301429123391
      ],
      [
        ";",
        -7.88302721636707
      ],
      [
        "▁Här",
        -7.886476764617795
      ],
      [
        "▁sitt",
        -7.887210118052307
      ],
      [
        "▁tre",
        -7.887657468018819
      ],
      [
        "▁dag",
        -7.888031797264777
      ],
      [
        "▁ditt",
        -7.889991372984218
      ],
      [
        "▁E",
        -7.8901928003431365
      ],
      [
        "▁C",
        -7.892477115894788
      ],
      [
        "on",
        -7.899802575617532
      ],
      [
        "j",
        -7.906052670218198
      ],
      [
        "▁stora",
        -7.909780116687383
      ],
      [
        "▁hem",
        -7.909975692254987
      ],
      [
        "▁bland",
        -7.913147811040314
      ],
      [
        "▁Att",
        -7.917688405336273
      ],
      [
        "al",
        -7.917776745946119
      ],
      [
        "▁Läs",
        -7.919771857229069
      ],
      [
        "▁varje",
        -7.923940607109955
      ],
      [
        "▁M",
        -7.929910393151358
      ],
      [
        "▁väldigt",
        -7.944968137083171
      ],
      [
        "▁Detta",
        -7.963868255850853
      ],
      [
        "▁tycker",
        -7.969350198299521
      ],
      [
        "▁ligger",
        -7.973407215691115
      ],
      [
        "er.",
        -7.97897050104309
      ],
      [
        "▁gäller",
        -7.9948616270239725
      ],
      [
        "▁just",
        -7.998802751356987
      ],
      [
        "S",
        -8.000193597260225
      ],
      [
        "▁G",
        -8.001172460790999
      ],
      [
        "▁bort",
        -8.004118254290223
      ],
      [
        "▁mitt",
        -8.007078733769578
      ],
      [
        "des",
        -8.008512927881261
      ],
      [
        "▁Med",
        -8.015326557093022
      ],
      [
        "▁ge",
        -8.020766370579928
      ],
      [
        "▁fått",
        -8.027676202133934
      ],
      [
        "▁”",
        -8.029153775920479
      ],
      [
        "▁hotell",
        -8.038497250337384
      ],
      [
        "nde",
        -8.039716629858122
      ],
      [
        "▁hitta",
        -8.042209397235842
      ],
      [
        "▁Har",
        -8.04317446835918
      ],
      [
        "▁bättre",
        -8.045060147067044
      ],
      [
        "▁komma",
        -8.052212402371364
      ],
      [
        "▁åt",
        -8.060742698399265
      ],
      [
        "▁T",
        -8.070011107123182
      ],
      [
        "▁ingen",
        -8.074695362139826
      ],
      [
        "▁riktigt",
        -8.079028059284687
      ],
      [
        "▁tror",
        -8.082959276259013
      ],
      [
        "▁mest",
        -8.084643294302115
      ],
      [
        "▁svenska",
        -8.084710804148413
      ],
      [
        "▁dock",
        -8.085846416196564
      ],
      [
        "▁nog",
        -8.089376963565398
      ],
      [
        "en,",
        -8.090366315125834
      ],
      [
        "▁Vad",
        -8.094575616325464
      ],
      [
        "man",
        -8.09463488265959
      ],
      [
        "▁skall",
        -8.095692767374459
      ],
      [
        "▁6",
        -8.104411094276632
      ],
      [
        "▁gick",
        -8.106813021167126
      ],
      [
        "▁enligt",
        -8.112484363149154
      ],
      [
        "▁eftersom",
        -8.113460305612792
      ],
      [
        "▁|",
        -8.115782083534691
      ],
      [
        "▁Ett",
        -8.121183893248187
      ],
      [
        "▁redan",
        -8.121310623924375
      ],
      [
        "▁tidigare",
        -8.121857509209518
      ],
      [
        "▁H",
        -8.123808028331156
      ],
      [
        "er,",
        -8.12792384896142
      ],
      [
        "▁Hur",
        -8.128293928242048
      ],
      [
        "▁annan",
        -8.1348976125181
      ],
      [
        "2",
        -8.138204848161145
      ],
      [
        "▁fall",
        -8.140048408829562
      ],
      [
        "ig",
        -8.141959384336584
      ],
      [
        "ut",
        -8.145448968664434
      ],
      [
        "▁L",
        -8.15087562588456
      ],
      [
        "▁dom",
        -8.151017622866425
      ],
      [
        "▁runt",
        -8.152574979800242
      ],
      [
        "▁dina",
        -8.155548233211872
      ],
      [
        "▁18",
        -8.15757030391269
      ],
      [
        "▁fler",
        -8.157939849489996
      ],
      [
        "lig",
        -8.157972357065768
      ],
      [
        "▁idag",
        -8.161449348220698
      ],
      [
        "▁kunde",
        -8.163426798273003
      ],
      [
        "▁gratis",
        -8.16623543044275
      ],
      [
        "▁Man",
        -8.166267004260378
      ],
      [
        "för",
        -8.181511861635798
      ],
      [
        "om",
        -8.182104067429332
      ],
      [
        "▁kr",
        -8.186994301628134
      ],
      [
        "▁deras",
        -8.193463512164886
      ],
      [
        "▁personer",
        -8.20445367445388
      ],
      [
        "▁hjälp",
        -8.20446244363246
      ],
      [
        "▁grund",
        -8.20484615887935
      ],
      [
        "w",
        -8.20916340496697
      ],
      [
        "0",
        -8.20976250930259
      ],
      [
        "▁aldrig",
        -8.215005534879218
      ],
      [
        "▁gjorde",
        -8.219245446013689
      ],
      [
        "▁20",
        -8.22330441163455
      ],
      [
        "3",
        -8.226334593999564
      ],
      [
        "▁verkligen",
        -8.23038446473277
      ],
      [
        "▁senaste",
        -8.23105079367775
      ],
      [
        "▁gång",
        -8.233276865351712
      ],
      [
        "är",
        -8.24485148436113
      ],
      [
        "▁7",
        -8.247385949961355
      ],
      [
        "▁plats",
        -8.253964848362871
      ],
      [
        "▁sen",
        -8.258158923053717
      ],
      [
        "1",
        -8.266028571022058
      ],
      [
        "▁företag",
        -8.266354581233237
      ],
      [
        "▁information",
        -8.266469222342899
      ],
      [
        "▁människor",
        -8.268034873210652
      ],
      [
        "▁tog",
        -8.269846204874078
      ],
      [
        "▁19",
        -8.270449195482
      ],
      [
        "▁tillsammans",
        -8.273480092952422
      ],
      [
        "le",
        -8.280978876971922
      ],
      [
        "▁använda",
        -8.284800035712925
      ],
      [
        "·",
        -8.28533064869795
      ],
      [
        "iga",
        -8.286860503758101
      ],
      [
        "▁mina",
        -8.287713106979353
      ],
      [
        "▁8",
        -8.288463648276696
      ],
      [
        "▁mindre",
        -8.290544495967595
      ],
      [
        "▁tillbaka",
        -8.290734247498884
      ],
      [
        "▁gjort",
        -8.293738147668416
      ],
      [
        "▁ofta",
        -8.303728786501095
      ],
      [
        "▁D",
        -8.306465446652163
      ],
      [
        "▁15",
        -8.307362683679504
      ],
      [
        "ä",
        -8.312309686650229
      ],
      [
        "ch",
        -8.318451015472368
      ],
      [
        "▁köpa",
        -8.318883401551194
      ],
      [
        "▁läsa",
        -8.321838287979483
      ],
      [
        "▁ur",
        -8.324702530985624
      ],
      [
        "▁lika",
        -8.325469466463991
      ],
      [
        "liga",
        -8.32617657578016
      ],
      [
        "▁därför",
        -8.327843569002823
      ],
      [
        "▁lätt",
        -8.330799818982287
      ],
      [
        "4",
        -8.33284934612142
      ],
      [
        "M",
        -8.333537318093477
      ],
      [
        "▁bör",
        -8.33575038117757
      ],
      [
        "▁per",
        -8.336437909768783
      ],
      [
        "▁direkt",
        -8.340948853442788
      ],
      [
        "▁spel",
        -8.344519519565155
      ],
      [
        "se",
        -8.345408259037601
      ],
      [
        "▁hand",
        -8.348241194516795
      ],
      [
        "▁egen",
        -8.351686502393864
      ],
      [
        "▁exempel",
        -8.361909273132106
      ],
      [
        "▁står",
        -8.362078625917857
      ],
      [
        "▁Som",
        -8.36666469905435
      ],
      [
        "▁hög",
        -8.367010170096881
      ],
      [
        "▁Under",
        -8.367795543303941
      ],
      [
        "▁mat",
        -8.368053233007524
      ],
      [
        "▁större",
        -8.372958501390002
      ],
      [
        "▁Hon",
        -8.38317262952148
      ],
      [
        "B",
        -8.385717955669389
      ],
      [
        "sk",
        -8.386500603827587
      ],
      [
        "▁Efter",
        -8.393960044917371
      ],
      [
        "T",
        -8.393980433261103
      ],
      [
        "▁innebär",
        -8.408102373360833
      ],
      [
        "▁par",
        -8.409537309469332
      ],
      [
        "A",
        -8.414188249985132
      ],
      [
        "▁små",
        -8.416460822388851
      ],
      [
        "▁säga",
        -8.417076505684115
      ],
      [
        "▁enkelt",
        -8.41720165745381
      ],
      [
        "ligt",
        -8.4183424504499
      ],
      [
        "ska",
        -8.419954070129377
      ],
      [
        "▁hans",
        -8.422590689842709
      ],
      [
        "▁N",
        -8.422630073370545
      ],
      [
        "▁ca",
        -8.426151599619107
      ],
      [
        "▁stort",
        -8.431198722456466
      ],
      [
        "▁haft",
        -8.436465876738284
      ],
      [
        "us",
        -8.44404411857977
      ],
      [
        "­",
        -8.445833533113511
      ],
      [
        "▁god",
        -8.446162245037742
      ],
      [
        "▁kort",
        -8.449596595801085
      ],
      [
        "▁känner",
        -8.454418278423034
      ],
      [
        "▁Då",
        -8.455349624419728
      ],
      [
        "▁sex",
        -8.455363277429777
      ],
      [
        "▁folk",
        -8.457658362902947
      ],
      [
        "▁12",
        -8.458731278278886
      ],
      [
        "▁året",
        -8.462801846774294
      ],
      [
        "▁ändå",
        -8.463595091348376
      ],
      [
        "▁online",
        -8.465623224746246
      ],
      [
        "la",
        -8.46736092326048
      ],
      [
        "att",
        -8.467484578605855
      ],
      [
        "▁vatten",
        -8.469602080277468
      ],
      [
        "%",
        -8.472539208417766
      ],
      [
        "▁blivit",
        -8.473336435574947
      ],
      [
        "ur",
        -8.482892094476687
      ],
      [
        "▁O",
        -8.48334353744536
      ],
      [
        "▁tiden",
        -8.484499642068945
      ],
      [
        "▁hemma",
        -8.491054960172816
      ],
      [
        "▁mål",
        -8.491140927052577
      ],
      [
        "▁visar",
        -8.49256676066266
      ],
      [
        "▁slut",
        -8.494420901443185
      ],
      [
        "▁via",
        -8.495303897270045
      ],
      [
        "▁honom",
        -8.498983180342448
      ],
      [
        "▁bil",
        -8.500026849545586
      ],
      [
        "▁faktiskt",
        -8.501871541370846
      ],
      [
        "▁väg",
        -8.504417653948654
      ],
      [
        "▁hittar",
        -8.507241524464481
      ],
      [
        "ja",
        -8.508614316096407
      ],
      [
        "▁sa",
        -8.513645147487093
      ],
      [
        "▁9",
        -8.515977713352402
      ],
      [
        "▁kvar",
        -8.517434172288247
      ],
      [
        "▁inget",
        -8.522198231819303
      ],
      [
        "▁of",
        -8.522781437631327
      ],
      [
        "▁lång",
        -8.528412325733632
      ],
      [
        "▁dagar",
        -8.5304792764039
      ],
      [
        "▁the",
        -8.531685878506508
      ],
      [
        "▁V",
        -8.533339352727939
      ],
      [
        "▁liten",
        -8.534584166548356
      ],
      [
        "▁ganska",
        -8.535416893640509
      ],
      [
        "▁vårt",
        -8.535709315125164
      ],
      [
        "▁form",
        -8.53589364325055
      ],
      [
        "K",
        -8.53654783195613
      ],
      [
        "ö",
        -8.538735797618704
      ],
      [
        "ter",
        -8.53887421514618
      ],
      [
        "▁ännu",
        -8.539697735769419
      ],
      [
        "▁kommun",
        -8.539809380946794
      ],
      [
        "▁inför",
        -8.542333904102557
      ],
      [
        "▁saker",
        -8.543731334554717
      ],
      [
        "▁svårt",
        -8.543781282519745
      ],
      [
        "▁längre",
        -8.543856876467142
      ],
      [
        "▁In",
        -8.543865982322753
      ],
      [
        "),",
        -8.544835250752511
      ],
      [
        "▁R",
        -8.54553566927786
      ],
      [
        "Hotell",
        -8.547082518083595
      ],
      [
        "▁gärna",
        -8.54733817881213
      ],
      [
        "▁Är",
        -8.54787657172886
      ],
      [
        "▁börjar",
        -8.551142804614951
      ],
      [
        "▁omdömen",
        -8.551490549615023
      ],
      [
        "▁30",
        -8.55245664353325
      ],
      [
        "▁känns",
        -8.553769485548846
      ],
      [
        "▁extra",
        -8.555882753428516
      ],
      [
        "et.",
        -8.556101736788648
      ],
      [
        "▁kvinnor",
        -8.558131298607307
      ],
      [
        "▁pris",
        -8.558827501494685
      ],
      [
        "▁Alla",
        -8.561241368391883
      ],
      [
        "D",
        -8.561668505217652
      ],
      [
        "▁igen",
        -8.564412202691623
      ],
      [
        "▁Se",
        -8.567015709093575
      ],
      [
        "▁hålla",
        -8.567254312459033
      ],
      [
        "▁Till",
        -8.568638012070766
      ],
      [
        "▁ute",
        -8.57096414149097
      ],
      [
        "▁länge",
        -8.573163855016805
      ],
      [
        "iska",
        -8.574140315706712
      ],
      [
        "va",
        -8.575733020744808
      ],
      [
        "▁nära",
        -8.576431256935855
      ],
      [
        "▁16",
        -8.58132967267246
      ],
      [
        "▁procent",
        -8.583051478666794
      ],
      [
        "▁håller",
        -8.584914486867028
      ],
      [
        "G",
        -8.585420176092232
      ],
      [
        "▁bild",
        -8.588755077847308
      ],
      [
        "era",
        -8.590332392105536
      ],
      [
        "ma",
        -8.591700635651222
      ],
      [
        "\".",
        -8.592067317760808
      ],
      [
        "▁nästan",
        -8.592328503004461
      ],
      [
        "▁fortfarande",
        -8.594559245935104
      ],
      [
        "sta",
        -8.59834860182511
      ],
      [
        "▁handlar",
        -8.60057032114838
      ],
      [
        "ka",
        -8.60093218249098
      ],
      [
        "▁vissa",
        -8.6037194987657
      ],
      [
        "P",
        -8.604935467214887
      ],
      [
        "▁17",
        -8.607748667766574
      ],
      [
        "ge",
        -8.609249928456974
      ],
      [
        "▁nytt",
        -8.61055946545569
      ],
      [
        "▁vilken",
        -8.612454804618356
      ],
      [
        "▁J",
        -8.6130424086892
      ],
      [
        "▁vilka",
        -8.614102250593554
      ],
      [
        "be",
        -8.61420894921398
      ],
      [
        "▁precis",
        -8.617971359131682
      ],
      [
        "▁söker",
        -8.61816518501858
      ],
      [
        "▁erbjuder",
        -8.619537318417011
      ],
      [
        "▁pengar",
        -8.620311897264244
      ],
      [
        "▁samtidigt",
        -8.62046413006317
      ],
      [
        "▁använder",
        -8.625892263584067
      ],
      [
        "▁liv",
        -8.626413577752087
      ],
      [
        "▁skapa",
        -8.62968061274012
      ],
      [
        "▁fast",
        -8.630075472179291
      ],
      [
        "by",
        -8.637559326845208
      ],
      [
        "▁först",
        -8.642389834288954
      ],
      [
        "men",
        -8.64351218016286
      ],
      [
        "het",
        -8.643691774709058
      ],
      [
        "▁dess",
        -8.643898203469696
      ],
      [
        "▁alltså",
        -8.646463349716699
      ],
      [
        "berg",
        -8.649224048065193
      ],
      [
        "▁hoppas",
        -8.650894283476905
      ],
      [
        "▁problem",
        -8.652746268276928
      ],
      [
        "▁Stockholm",
        -8.653601974888847
      ],
      [
        "▁and",
        -8.654067655256286
      ],
      [
        "▁all",
        -8.654125613351203
      ],
      [
        "▁största",
        -8.66040576028186
      ],
      [
        "▁dejting",
        -8.663739778391557
      ],
      [
        "▁flesta",
        -8.663796937829712
      ],
      [
        "▁11",
        -8.666439894569923
      ],
      [
        "▁frågor",
        -8.667818420258506
      ],
      [
        "▁Be",
        -8.668079869217808
      ],
      [
        "▁viktigt",
        -8.668990097228741
      ],
      [
        "▁endast",
        -8.670541336181676
      ],
      [
        "▁stöd",
        -8.672689252338078
      ],
      [
        "▁fyra",
        -8.673420060707285
      ],
      [
        "▁hel",
        -8.674685791671669
      ],
      [
        "▁b",
        -8.675069238947998
      ],
      [
        "▁14",
        -8.67679746481282
      ],
      [
        "z",
        -8.67860673440414
      ],
      [
        "son",
        -8.681031981277119
      ],
      [
        "▁bilder",
        -8.682768155503496
      ],
      [
        "▁nästa",
        -8.683069756450255
      ],
      [
        "▁sista",
        -8.686471926092814
      ],
      [
        "▁började",
        -8.687053673580966
      ],
      [
        "▁000",
        -8.687343978417578
      ],
      [
        "▁senare",
        -8.691630729369919
      ],
      [
        "▁W",
        -8.699572712922889
      ],
      [
        "▁lag",
        -8.704171749705166
      ],
      [
        "ell",
        -8.704722890199001
      ],
      [
        "▁sidan",
        -8.705200426518855
      ],
      [
        "▁st",
        -8.705887957689372
      ],
      [
        "av",
        -8.706836040764548
      ],
      [
        "I",
        -8.707775348716822
      ],
      [
        "nings",
        -8.712287286063747
      ],
      [
        "▁rum",
        -8.715054736921005
      ],
      [
        "▁13",
        -8.716473537971828
      ],
      [
        "orna",
        -8.71827105399359
      ],
      [
        "▁Av",
        -8.719398094383548
      ],
      [
        "F",
        -8.719555063901005
      ],
      [
        "▁fel",
        -8.721520829566918
      ],
      [
        "▁tips",
        -8.721531061334021
      ],
      [
        "▁minst",
        -8.726515868356772
      ],
      [
        "6",
        -8.727324848263592
      ],
      [
        "▁sett",
        -8.729337460720654
      ],
      [
        "▁spela",
        -8.729846839045084
      ],
      [
        "5",
        -8.731120142849178
      ],
      [
        "▁skriver",
        -8.73498230491977
      ],
      [
        "▁kring",
        -8.735199987425167
      ],
      [
        "ste",
        -8.736971846694141
      ],
      [
        "den",
        -8.737139895396039
      ],
      [
        "▁km",
        -8.738466402604947
      ],
      [
        "▁jobb",
        -8.739274320962096
      ],
      [
        "▁välja",
        -8.741446138778983
      ],
      [
        "▁egna",
        -8.742661923933936
      ],
      [
        "▁ihop",
        -8.744551298478305
      ],
      [
        "▁hennes",
        -8.746425991597413
      ],
      [
        "▁fem",
        -8.750359076721004
      ],
      [
        "ar.",
        -8.753197607359256
      ],
      [
        "▁person",
        -8.753665543601128
      ],
      [
        "L",
        -8.754017620397809
      ],
      [
        "▁såg",
        -8.754054886766886
      ],
      [
        "tt",
        -8.754513135968455
      ],
      [
        ".se",
        -8.757405369714444
      ],
      [
        "▁fin",
        -8.758273155335973
      ],
      [
        "▁ned",
        -8.76001733312865
      ],
      [
        "▁The",
        -8.763505515171557
      ],
      [
        "▁miljö",
        -8.76369199099556
      ],
      [
        "inga",
        -8.768908338069146
      ],
      [
        "▁vidare",
        -8.770706667492238
      ],
      [
        "igt",
        -8.773026651925917
      ],
      [
        "▁gamla",
        -8.775693511579643
      ],
      [
        "min",
        -8.77616483765945
      ],
      [
        "▁män",
        -8.777230468206872
      ],
      [
        "▁dessutom",
        -8.778238140615349
      ],
      [
        "▁snabbt",
        -8.781596503824042
      ],
      [
        "ger",
        -8.781907244863849
      ],
      [
        "▁typ",
        -8.782008373447166
      ],
      [
        "▁Idag",
        -8.783410104233317
      ],
      [
        "▁gott",
        -8.784020878234433
      ],
      [
        "▁AB",
        -8.784272181901699
      ],
      [
        "▁gånger",
        -8.784654887979075
      ],
      [
        "▁istället",
        -8.784671206921598
      ],
      [
        "▁år.",
        -8.786174314312415
      ],
      [
        "H",
        -8.786779348183256
      ],
      [
        "▁henne",
        -8.790465028552054
      ],
      [
        "▁åter",
        -8.794422984852936
      ],
      [
        "ningen",
        -8.797846755914732
      ],
      [
        "▁Var",
        -8.798630444809316
      ],
      [
        "]",
        -8.802201727819034
      ],
      [
        "▁arbete",
        -8.806713868945208
      ],
      [
        "W",
        -8.809212389381116
      ],
      [
        "var",
        -8.811547736400918
      ],
      [
        "▁fråga",
        -8.815266243622968
      ],
      [
        "▁2016",
        -8.817680824078678
      ],
      [
        "▁Ta",
        -8.818018172218931
      ],
      [
        "▁möjlighet",
        -8.820611028591484
      ],
      [
        "▁lägga",
        -8.82066657651522
      ],
      [
        "um",
        -8.821108263149362
      ],
      [
        "spel",
        -8.822045616438965
      ],
      [
        "▁emot",
        -8.822512226784967
      ],
      [
        "▁kul",
        -8.822610203749615
      ],
      [
        "▁hjälper",
        -8.824700076199619
      ],
      [
        "▁borde",
        -8.825416847350692
      ],
      [
        "▁dagen",
        -8.827829710158353
      ],
      [
        "tal",
        -8.830195677180832
      ],
      [
        "▁själva",
        -8.830888667465056
      ],
      [
        "ring",
        -8.830902526924808
      ],
      [
        "N",
        -8.832505150673567
      ],
      [
        "bo",
        -8.833574155149535
      ],
      [
        "▁tur",
        -8.834410028107325
      ],
      [
        "▁långt",
        -8.8352730574207
      ],
      [
        "▁verkar",
        -8.836473923060831
      ],
      [
        "▁Min",
        -8.837699828034184
      ],
      [
        "▁Max",
        -8.839223104509646
      ],
      [
        "▁beslut",
        -8.839477144412864
      ],
      [
        "▁skriva",
        -8.840138544039727
      ],
      [
        "▁trots",
        -8.840589019547993
      ],
      [
        "▁delar",
        -8.841697307931657
      ],
      [
        "▁Även",
        -8.841957293606605
      ],
      [
        "▁hjälpa",
        -8.842818054151252
      ],
      [
        "ation",
        -8.84387919042287
      ],
      [
        "Denna",
        -8.844044729941741
      ],
      [
        "▁varför",
        -8.844239964265185
      ],
      [
        "▁betala",
        -8.844365857089755
      ],
      [
        "▁börja",
        -8.846591058664488
      ],
      [
        "▁to",
        -8.847852719333714
      ],
      [
        "▁klart",
        -8.850026626631038
      ],
      [
        "▁fina",
        -8.852080308289228
      ],
      [
        "▁gått",
        -8.85215309958579
      ],
      [
        "▁visa",
        -8.852321529173686
      ],
      [
        "▁Air",
        -8.852962206624392
      ],
      [
        "▁val",
        -8.856155931768848
      ],
      [
        "än",
        -8.857829043085326
      ],
      [
        "▁arbetar",
        -8.859655629723905
      ],
      [
        "▁50",
        -8.86267169999663
      ],
      [
        "▁lämna",
        -8.86349410054565
      ],
      [
        "V",
        -8.865618646422398
      ],
      [
        "▁namn",
        -8.86564344416665
      ],
      [
        "gen",
        -8.869076956765168
      ],
      [
        "▁brukar",
        -8.869845780165225
      ],
      [
        "▁tagit",
        -8.871812695896724
      ],
      [
        "▁Sveriges",
        -8.872129785534906
      ],
      [
        "▁enda",
        -8.873261204639325
      ],
      [
        "▁Nike",
        -8.873922774100294
      ],
      [
        "▁snart",
        -8.876054032828312
      ],
      [
        "▁Visa",
        -8.877842072419728
      ],
      [
        "▁25",
        -8.87802538895741
      ],
      [
        "▁Re",
        -8.880219915176358
      ],
      [
        "▁känna",
        -8.880434727582053
      ],
      [
        "▁ville",
        -8.880462182043273
      ],
      [
        "▁Vid",
        -8.882010998348052
      ],
      [
        "8",
        -8.882025670916207
      ],
      [
        "ar,",
        -8.882887582614297
      ],
      [
        "▁energi",
        -8.884472326642975
      ],
      [
        "▁:)",
        -8.887133419789153
      ],
      [
        "▁kronor",
        -8.888189720959236
      ],
      [
        "isk",
        -8.890005653365968
      ],
      [
        "▁Ja",
        -8.892684244093937
      ],
      [
        "ör",
        -8.892692086891754
      ],
      [
        "ningar",
        -8.893189928137764
      ],
      [
        "7",
        -8.89405029142729
      ],
      [
        "▁Tack",
        -8.896114287700971
      ],
      [
        "▁skicka",
        -8.896521293852311
      ],
      [
        "▁film",
        -8.897789910216964
      ],
      [
        "▁100",
        -8.898354129916827
      ],
      [
        "▁tänka",
        -8.89847630966106
      ],
      [
        "▁2017",
        -8.902747842426518
      ],
      [
        "▁antal",
        -8.903031780468362
      ],
      [
        "ly",
        -8.904829746701528
      ],
      [
        "▁kontakt",
        -8.90565317315725
      ],
      [
        "▁vecka",
        -8.906680853858344
      ],
      [
        "hus",
        -8.906942762050953
      ],
      [
        "▁bok",
        -8.907689745550332
      ],
      [
        "▁låg",
        -8.91052533232355
      ],
      [
        "me",
        -8.912417730405469
      ],
      [
        "▁möjligt",
        -8.913603163152837
      ],
      [
        "▁2015",
        -8.914061384994827
      ],
      [
        "▁maj",
        -8.914472180183243
      ],
      [
        "lar",
        -8.914983539410299
      ],
      [
        "▁tag",
        -8.915520773545758
      ],
      [
        "del",
        -8.91605009944951
      ],
      [
        "▁kl",
        -8.917131043439328
      ],
      [
        "▁miljoner",
        -8.919294212907056
      ],
      [
        "ol",
        -8.919984865300451
      ],
      [
        "ering",
        -8.92369775517731
      ],
      [
        "▁La",
        -8.924714258008565
      ],
      [
        "▁ansvar",
        -8.92512979865324
      ],
      [
        "▁svar",
        -8.925592135759452
      ],
      [
        "vis",
        -8.926397337934882
      ],
      [
        "▁Sedan",
        -8.92659089785642
      ],
      [
        "▁fanns",
        -8.926747652373365
      ],
      [
        "▁passar",
        -8.928303212428151
      ],
      [
        "C",
        -8.929806029635449
      ],
      [
        "ve",
        -8.930576700541913
      ],
      [
        "▁ord",
        -8.930905430213963
      ],
      [
        "▁medan",
        -8.931561961492575
      ],
      [
        "der",
        -8.93204502593994
      ],
      [
        "▁hus",
        -8.936918859397128
      ],
      [
        "kar",
        -8.937801124590624
      ],
      [
        "ton",
        -8.937848651013768
      ],
      [
        "ha",
        -8.941613951680216
      ],
      [
        "▁arbets",
        -8.942926480295064
      ],
      [
        "▁sitter",
        -8.944617122240833
      ],
      [
        "▁#",
        -8.947422567493286
      ],
      [
        "'",
        -8.948749382691616
      ],
      [
        "▁framför",
        -8.948781006744996
      ],
      [
        "▁dating",
        -8.949988298040418
      ],
      [
        "▁början",
        -8.951903869988998
      ],
      [
        "▁priser",
        -8.955067314172757
      ],
      [
        "▁ibland",
        -8.956606163662984
      ],
      [
        "val",
        -8.956721978094746
      ],
      [
        "land",
        -8.960849092740178
      ],
      [
        "30",
        -8.960974867296295
      ],
      [
        "▁helst",
        -8.963269377656076
      ],
      [
        "▁Bo",
        -8.96498029441829
      ],
      [
        "▁veta",
        -8.964984594879404
      ],
      [
        "▁Ut",
        -8.969799705417458
      ],
      [
        "▁Kan",
        -8.972412015454447
      ],
      [
        "ans",
        -8.973135783056282
      ],
      [
        "▁utanför",
        -8.97319028042358
      ],
      [
        "▁ytterligare",
        -8.97726489030571
      ],
      [
        "▁bor",
        -8.9776194349379
      ],
      [
        "▁gillar",
        -8.980214475836302
      ],
      [
        "▁ja",
        -8.980551414795833
      ],
      [
        "▁huvud",
        -8.980814274443036
      ],
      [
        "ler",
        -8.9836377527365
      ],
      [
        "▁svensk",
        -8.984398624255762
      ],
      [
        "▁bäst",
        -8.984918161868544
      ],
      [
        "▁for",
        -8.987880293251479
      ],
      [
        "▁bo",
        -8.991957349143604
      ],
      [
        "\",",
        -8.992221152769934
      ],
      [
        "▁egentligen",
        -8.99324082543425
      ],
      [
        "▁behov",
        -8.996751420563587
      ],
      [
        "▁båda",
        -8.999605049364728
      ],
      [
        "▁särskilt",
        -9.001995079339952
      ],
      [
        "▁sagt",
        -9.003050332220926
      ],
      [
        "▁projekt",
        -9.003939282219887
      ],
      [
        "▁Ni",
        -9.004380613878912
      ],
      [
        "▁används",
        -9.006812722396432
      ],
      [
        "väl",
        -9.009236349237625
      ],
      [
        "▁arbeta",
        -9.013320395377264
      ],
      [
        "▁kommit",
        -9.014292402975007
      ],
      [
        "▁färg",
        -9.014740742010806
      ],
      [
        "▁pa",
        -9.016168275529898
      ],
      [
        "▁2014",
        -9.016563958128422
      ],
      [
        "▁timmar",
        -9.018811697601713
      ],
      [
        "▁musik",
        -9.01978982529953
      ],
      [
        "▁jul",
        -9.022193658871851
      ],
      [
        "▁dags",
        -9.023255200050304
      ],
      [
        "▁minuter",
        -9.02358608628318
      ],
      [
        "▁världen",
        -9.026768849521051
      ],
      [
        "upp",
        -9.03030668588175
      ],
      [
        "▁full",
        -9.032046442281008
      ],
      [
        "▁förra",
        -9.032529054198477
      ],
      [
        "▁sommar",
        -9.034163445532064
      ],
      [
        "▁Ha",
        -9.034172976094586
      ],
      [
        "▁ex",
        -9.035725217123789
      ],
      [
        "▁U",
        -9.035914955582802
      ],
      [
        "9",
        -9.035999386378611
      ],
      [
        "▁kör",
        -9.036381778352741
      ],
      [
        "▁Bra",
        -9.036847723297106
      ],
      [
        "▁Inte",
        -9.039256791669963
      ],
      [
        "▁gången",
        -9.04087148236296
      ],
      [
        "▁produkter",
        -9.043885743512016
      ],
      [
        "▁äldre",
        -9.044162670503868
      ],
      [
        "▁Vill",
        -9.044610111663992
      ],
      [
        "ster",
        -9.04483399656161
      ],
      [
        "▁heller",
        -9.05021900337086
      ],
      [
        "▁bakom",
        -9.051357848543734
      ],
      [
        "bar",
        -9.05467909854595
      ],
      [
        "▁veckan",
        -9.055221878021667
      ],
      [
        "co",
        -9.05769686160122
      ],
      [
        "▁fungerar",
        -9.059642373915883
      ],
      [
        "▁resultat",
        -9.062944240609115
      ],
      [
        "▁spelar",
        -9.063852493733807
      ],
      [
        "lag",
        -9.067125691681703
      ],
      [
        "▁betyg",
        -9.0676836998107
      ],
      [
        "▁21",
        -9.067708029013238
      ],
      [
        "▁24",
        -9.067927169689813
      ],
      [
        "▁inne",
        -9.069123611257815
      ],
      [
        "▁Svenska",
        -9.070947010339147
      ],
      [
        "▁Där",
        -9.071314390125963
      ],
      [
        "ling",
        -9.07206899460104
      ],
      [
        "▁krav",
        -9.073170918953133
      ],
      [
        "▁igenom",
        -9.07328383876071
      ],
      [
        "▁Sen",
        -9.073943956532176
      ],
      [
        "J",
        -9.076091082603911
      ],
      [
        "▁2013",
        -9.076799632237634
      ],
      [
        "▁åka",
        -9.079300970663528
      ],
      [
        "▁Mo",
        -9.080559204423546
      ],
      [
        "▁lilla",
        -9.082231776072845
      ],
      [
        "▁säkert",
        -9.082779967506966
      ],
      [
        "tid",
        -9.083412523743148
      ],
      [
        "▁Hotel",
        -9.08470863991547
      ],
      [
        "▁tänker",
        -9.088436467820223
      ],
      [
        "▁mamma",
        -9.088507407008002
      ],
      [
        "stad",
        -9.089263856652002
      ],
      [
        "▁ljus",
        -9.089608325214156
      ],
      [
        "▁sätta",
        -9.091583119966089
      ],
      [
        "sson",
        -9.092697701745667
      ],
      [
        "!!",
        -9.093155181169351
      ],
      [
        "▁personal",
        -9.095560187760269
      ],
      [
        "▁An",
        -9.097474713116044
      ],
      [
        "▁igen.",
        -9.097513081557294
      ],
      [
        "▁innehåller",
        -9.099472172725582
      ],
      [
        "▁steg",
        -9.100027751118219
      ],
      [
        "▁unga",
        -9.101188192455409
      ],
      [
        "erade",
        -9.103878232679675
      ],
      [
        "▁livet",
        -9.106272979323832
      ],
      [
        "▁högre",
        -9.109635973916088
      ],
      [
        "▁barnen",
        -9.110469289875983
      ],
      [
        "aren",
        -9.111054952590955
      ],
      [
        "▁fri",
        -9.111321099314154
      ],
      [
        "▁ingår",
        -9.11134385337065
      ],
      [
        "▁Dessutom",
        -9.111720026560036
      ],
      [
        "else",
        -9.116500103452866
      ],
      [
        "tra",
        -9.119699674177841
      ],
      [
        "▁“",
        -9.120095297250428
      ],
      [
        "▁sol",
        -9.122255294770218
      ],
      [
        "▁max",
        -9.123235622029778
      ],
      [
        "ng",
        -9.124758687088619
      ],
      [
        "▁äta",
        -9.12481595015134
      ],
      [
        "lan",
        -9.12505371611314
      ],
      [
        "(",
        -9.12636055235039
      ],
      [
        "Enligt",
        -9.135187034584593
      ],
      [
        "kan",
        -9.135649150471844
      ],
      [
        "ett",
        -9.136138146222008
      ],
      [
        "▁[",
        -9.136172442995173
      ],
      [
        "▁kultur",
        -9.136352008872151
      ],
      [
        "▁landet",
        -9.137030323617639
      ],
      [
        "▁Ska",
        -9.137078091992755
      ],
      [
        "▁service",
        -9.137490992823508
      ],
      [
        "na.",
        -9.138549097898796
      ],
      [
        "ex",
        -9.139795504690879
      ],
      [
        "é",
        -9.14057827355212
      ],
      [
        "▁lär",
        -9.142563869186027
      ],
      [
        "tor",
        -9.143004980114549
      ],
      [
        "▁inlägg",
        -9.143061367691942
      ],
      [
        "▁22",
        -9.144840466958232
      ],
      [
        "▁veckor",
        -9.145547866668505
      ],
      [
        "▁bygga",
        -9.145878323541682
      ],
      [
        "–",
        -9.146532843077322
      ],
      [
        "ion",
        -9.148779684505703
      ],
      [
        "▁händer",
        -9.150678158548148
      ],
      [
        "▁sådan",
        -9.152517666985043
      ],
      [
        "▁verksamhet",
        -9.154780565563465
      ],
      [
        "pa",
        -9.157585742631392
      ],
      [
        "▁berättar",
        -9.158837492606517
      ],
      [
        "bok",
        -9.161595069684553
      ],
      [
        "▁va",
        -9.161977317509033
      ],
      [
        "▁2012",
        -9.163511266366033
      ],
      [
        "rätt",
        -9.163580388733429
      ],
      [
        "▁sp",
        -9.163698801827568
      ],
      [
        "▁El",
        -9.164436583067213
      ],
      [
        "Många",
        -9.167516660620382
      ],
      [
        "▁Ny",
        -9.169392188766242
      ],
      [
        "R",
        -9.169989526785988
      ],
      [
        "▁lära",
        -9.169992119698597
      ],
      [
        "mm",
        -9.17030063294142
      ],
      [
        "▁Genom",
        -9.17100478731149
      ],
      [
        "▁program",
        -9.17102879640778
      ],
      [
        "▁ifrån",
        -9.173856831739643
      ],
      [
        "▁blogg",
        -9.174046105139636
      ],
      [
        "ll",
        -9.174064177478463
      ],
      [
        "ant",
        -9.175176086134051
      ],
      [
        "▁företaget",
        -9.176318991498082
      ],
      [
        "▁bonus",
        -9.178172341163025
      ],
      [
        "▁väljer",
        -9.179812187954772
      ],
      [
        "E",
        -9.1804641040831
      ],
      [
        "▁fr",
        -9.181552278139913
      ],
      [
        "▁skrev",
        -9.18350878178254
      ],
      [
        "▁januari",
        -9.183582429458388
      ],
      [
        "▁försöka",
        -9.183927467525365
      ],
      [
        "▁40",
        -9.184045831746914
      ],
      [
        "▁främst",
        -9.184205790243931
      ],
      [
        "▁följa",
        -9.184703042950414
      ],
      [
        "▁råd",
        -9.185567712032874
      ],
      [
        "▁öka",
        -9.186389358766457
      ],
      [
        "▁dejta",
        -9.186623919660903
      ],
      [
        "▁mars",
        -9.188245644286837
      ],
      [
        "▁nå",
        -9.1892232864296
      ],
      [
        "▁nätet",
        -9.19042287061303
      ],
      [
        "▁kolla",
        -9.190596552841214
      ],
      [
        "▁jobba",
        -9.191323285988057
      ],
      [
        "▁tack",
        -9.193353408485118
      ],
      [
        "▁skolan",
        -9.19484852755987
      ],
      [
        "▁samband",
        -9.195574448136146
      ],
      [
        "▁risk",
        -9.197231648457814
      ],
      [
        "▁augusti",
        -9.197547229926132
      ],
      [
        "▁spelare",
        -9.1979922218045
      ],
      [
        "▁Jo",
        -9.199910010649813
      ],
      [
        "år",
        -9.200398755639231
      ],
      [
        "▁fint",
        -9.200753823122097
      ],
      [
        "00",
        -9.202747519864758
      ],
      [
        "gång",
        -9.203168419666133
      ],
      [
        "log",
        -9.205348267280728
      ],
      [
        "mo",
        -9.205619991891945
      ],
      [
        "mer",
        -9.206889162104268
      ],
      [
        "▁hotellet",
        -9.207477819662534
      ],
      [
        "▁perfekt",
        -9.207517546614742
      ],
      [
        "▁ej",
        -9.208664999654248
      ],
      [
        "▁titta",
        -9.20881747377455
      ],
      [
        "O",
        -9.208849845901337
      ],
      [
        "rum",
        -9.210926830845029
      ],
      [
        "▁roll",
        -9.213449406711296
      ],
      [
        "▁frågan",
        -9.214904663505948
      ],
      [
        "ist",
        -9.215395340754895
      ],
      [
        "▁utbildning",
        -9.215599933878309
      ],
      [
        "▁sak",
        -9.215700379477193
      ],
      [
        "▁goda",
        -9.217187642678201
      ],
      [
        "▁massa",
        -9.217410420306328
      ],
      [
        "▁satt",
        -9.219073151588475
      ],
      [
        "▁sker",
        -9.219376330065534
      ],
      [
        "▁match",
        -9.219525584226906
      ],
      [
        "op",
        -9.22016813712195
      ],
      [
        "dag",
        -9.223802652753744
      ],
      [
        "ner",
        -9.224849654038845
      ],
      [
        "rna",
        -9.22520293939056
      ],
      [
        "▁spännande",
        -9.22618450805836
      ],
      [
        "▁sida",
        -9.226808151111877
      ],
      [
        "▁utveckling",
        -9.227208420901528
      ],
      [
        "▁kvinna",
        -9.227488402044196
      ],
      [
        "▁vanligt",
        -9.227787920866275
      ],
      [
        "▁Vår",
        -9.228966366509786
      ],
      [
        "▁menar",
        -9.228981697957941
      ],
      [
        "▁Mer",
        -9.229028203584484
      ],
      [
        "mar",
        -9.229631060870602
      ],
      [
        "▁Malmö",
        -9.229743429156441
      ],
      [
        "▁alternativ",
        -9.233193721817926
      ],
      [
        "▁dra",
        -9.233700078654334
      ],
      [
        "▁grupp",
        -9.235783813322103
      ],
      [
        "▁skor",
        -9.237251396280005
      ],
      [
        "▁tro",
        -9.237265645779038
      ],
      [
        "▁Från",
        -9.23790907391514
      ],
      [
        "▁erfarenhet",
        -9.2383864828755
      ],
      [
        "ga",
        -9.241223070315383
      ],
      [
        "tar",
        -9.244702042345072
      ],
      [
        "▁uppgifter",
        -9.244815843143236
      ],
      [
        "▁vård",
        -9.246205279511218
      ],
      [
        "▁skol",
        -9.246795865192253
      ],
      [
        "▁besök",
        -9.249369195811408
      ],
      [
        "▁jätte",
        -9.250016782226394
      ],
      [
        "slag",
        -9.251594706368406
      ],
      [
        "lin",
        -9.254192951215465
      ],
      [
        "▁start",
        -9.254368114797144
      ],
      [
        "_",
        -9.25658760756494
      ],
      [
        "▁roligt",
        -9.257348188006592
      ],
      [
        "gel",
        -9.258170217715953
      ],
      [
        "▁casino",
        -9.2590362498073
      ],
      [
        "▁års",
        -9.259953671980774
      ],
      [
        "▁älskar",
        -9.260318715615954
      ],
      [
        "erad",
        -9.260501448317813
      ],
      [
        "▁eget",
        -9.260776032992498
      ],
      [
        "▁månader",
        -9.26241515135406
      ],
      [
        "▁Allt",
        -9.26360228462747
      ],
      [
        "fall",
        -9.264165798195018
      ],
      [
        "▁Le",
        -9.265122560258826
      ],
      [
        "ker",
        -9.266636637777646
      ],
      [
        "Dessa",
        -9.270277251431654
      ],
      [
        "▁tillgång",
        -9.27207325360949
      ],
      [
        "▁23",
        -9.27261825136432
      ],
      [
        "▁fort",
        -9.274422790160843
      ],
      [
        "ven",
        -9.27452868268118
      ],
      [
        "▁vilja",
        -9.27666819467724
      ],
      [
        "▁rör",
        -9.276919063402728
      ],
      [
        "▁90",
        -9.277475701501109
      ],
      [
        "▁öppna",
        -9.278097144528692
      ],
      [
        "▁kommunen",
        -9.278254165684201
      ],
      [
        "▁jobbar",
        -9.279143543449553
      ],
      [
        "▁Nej",
        -9.279673077224915
      ],
      [
        "sam",
        -9.280329804009845
      ],
      [
        "▁djur",
        -9.286009200820521
      ],
      [
        "ho",
        -9.2861565866203
      ],
      [
        "▁meter",
        -9.286469568523076
      ],
      [
        "▁förslag",
        -9.286519234310944
      ],
      [
        "10",
        -9.28749657840793
      ],
      [
        "ord",
        -9.290123945654704
      ],
      [
        "▁kunskap",
        -9.290567208201912
      ],
      [
        "▁prata",
        -9.29105092319691
      ],
      [
        "▁hår",
        -9.291326816273745
      ],
      [
        "▁stå",
        -9.29196169960035
      ],
      [
        "▁vem",
        -9.292053174583804
      ],
      [
        "▁liksom",
        -9.292071005116458
      ],
      [
        "▁fortsätta",
        -9.293939792486642
      ],
      [
        "ort",
        -9.29445846172787
      ],
      [
        "▁tio",
        -9.295032047860664
      ],
      [
        "▁tredje",
        -9.295167912067939
      ],
      [
        "▁data",
        -9.296190951227961
      ],
      [
        "”.",
        -9.29779324029093
      ],
      [
        "▁1.",
        -9.298021877350957
      ],
      [
        "▁kunder",
        -9.29878154885336
      ],
      [
        "▁favorit",
        -9.301011527028749
      ],
      [
        "▁försöker",
        -9.30105617980216
      ],
      [
        "▁kontakta",
        -9.301535920863907
      ],
      [
        "▁samman",
        -9.304021947194123
      ],
      [
        "ul",
        -9.304599948907054
      ],
      [
        "▁mobil",
        -9.304886941578564
      ],
      [
        "▁nätdejting",
        -9.305651756609251
      ],
      [
        "▁utveckla",
        -9.307969057510995
      ],
      [
        "aste",
        -9.308556881927299
      ],
      [
        "▁glad",
        -9.30906006956316
      ],
      [
        "▁juni",
        -9.309275118425775
      ],
      [
        "▁kroppen",
        -9.30943328833333
      ],
      [
        "▁kände",
        -9.309970921824066
      ],
      [
        "▁telefon",
        -9.310899859699049
      ],
      [
        "len",
        -9.311922837089574
      ],
      [
        "▁klara",
        -9.312169067920177
      ],
      [
        "▁vägen",
        -9.312369853077213
      ],
      [
        "▁köp",
        -9.313351724714188
      ],
      [
        "med",
        -9.314078171463285
      ],
      [
        "▁slutet",
        -9.314200640750862
      ],
      [
        "▁fortsätter",
        -9.31429229534578
      ],
      [
        "vi",
        -9.314363029913395
      ],
      [
        "ström",
        -9.314684612719772
      ],
      [
        "▁system",
        -9.31596508066802
      ],
      [
        "▁betyder",
        -9.316191760937087
      ],
      [
        "ros",
        -9.316985374520934
      ],
      [
        "▁krävs",
        -9.317723279494134
      ],
      [
        "ver",
        -9.318183820865078
      ],
      [
        "▁hälsa",
        -9.320509699506493
      ],
      [
        "▁X",
        -9.321145959643045
      ],
      [
        "▁USA",
        -9.32251918647353
      ],
      [
        "▁engelska",
        -9.322889154601445
      ],
      [
        "▁Ar",
        -9.323046006734078
      ],
      [
        "höll",
        -9.32479891175642
      ],
      [
        "▁2018",
        -9.325943431315896
      ],
      [
        "▁Al",
        -9.326505150007437
      ],
      [
        "skap",
        -9.326657936882487
      ],
      [
        "go",
        -9.326994039965927
      ],
      [
        "▁Eller",
        -9.327742133377958
      ],
      [
        "▁igång",
        -9.331348892279108
      ],
      [
        "▁resa",
        -9.331686035859928
      ],
      [
        "ets",
        -9.33565460674772
      ],
      [
        "▁natur",
        -9.335841851676134
      ],
      [
        "mat",
        -9.336399078262835
      ],
      [
        "anser",
        -9.337251117518404
      ],
      [
        "▁alls",
        -9.338465910046617
      ],
      [
        "band",
        -9.338472537981565
      ],
      [
        "▁kund",
        -9.338572931224318
      ],
      [
        "ER",
        -9.339073230773185
      ],
      [
        "▁arbetet",
        -9.340488689949668
      ],
      [
        "▁recept",
        -9.34196045506669
      ],
      [
        "▁låter",
        -9.342132316324946
      ],
      [
        "▁dejtingsajt",
        -9.342494267731777
      ],
      [
        "▁liknande",
        -9.343044816996098
      ],
      [
        "▁användas",
        -9.343240517609653
      ],
      [
        "kr",
        -9.346764925232222
      ],
      [
        "▁morgon",
        -9.34718944075079
      ],
      [
        "Därför",
        -9.34794693422887
      ],
      [
        "ry",
        -9.348091877855856
      ],
      [
        "tes",
        -9.348946225673764
      ],
      [
        "▁klar",
        -9.349178123694665
      ],
      [
        "▁april",
        -9.349680761795076
      ],
      [
        "▁heter",
        -9.350023630506499
      ],
      [
        "gar",
        -9.350253564392103
      ],
      [
        "▁halv",
        -9.350741237981692
      ],
      [
        "▁oktober",
        -9.35079543761135
      ],
      [
        "▁lan",
        -9.354016503250623
      ],
      [
        "▁bidra",
        -9.355229667324377
      ],
      [
        "sten",
        -9.35675124257164
      ],
      [
        "▁köra",
        -9.35715258817128
      ],
      [
        "▁gav",
        -9.358333249458894
      ],
      [
        "▁hör",
        -9.359882410564817
      ],
      [
        "Y",
        -9.360729506225216
      ],
      [
        "▁snabb",
        -9.36080960069526
      ],
      [
        "red",
        -9.361970758490411
      ],
      [
        "▁Per",
        -9.362966663357913
      ],
      [
        "▁2011",
        -9.363138856556114
      ],
      [
        "▁september",
        -9.36500948084994
      ],
      [
        "plan",
        -9.365066544474171
      ],
      [
        "+",
        -9.367657277688394
      ],
      [
        "je",
        -9.367691519114501
      ],
      [
        "▁finnas",
        -9.369583667575865
      ],
      [
        "visade",
        -9.370044215818794
      ],
      [
        "medel",
        -9.370323020744719
      ],
      [
        "▁super",
        -9.37044464724035
      ],
      [
        "▁behöva",
        -9.370894207391398
      ],
      [
        "▁bak",
        -9.371548853655826
      ],
      [
        "sch",
        -9.372331693631976
      ],
      [
        "▁material",
        -9.373171921163848
      ],
      [
        "▁ungefär",
        -9.374624454072096
      ],
      [
        "▁app",
        -9.377083501915015
      ],
      [
        "nas",
        -9.37726329960638
      ],
      [
        "▁maskinövers",
        -9.378182743026588
      ],
      [
        "▁Göteborg",
        -9.378870369982762
      ],
      [
        "▁Sverige.",
        -9.37962892228978
      ],
      [
        "▁regeringen",
        -9.37996933230114
      ],
      [
        "▁mig.",
        -9.380690284386114
      ],
      [
        "▁rad",
        -9.38088340824077
      ],
      [
        "▁viktig",
        -9.380904121297464
      ],
      [
        "▁plan",
        -9.381129156747994
      ],
      [
        "▁svart",
        -9.383790396251252
      ],
      [
        "▁viss",
        -9.38566482793038
      ],
      [
        "▁cirka",
        -9.385863322078267
      ],
      [
        "tyckte",
        -9.387669808936025
      ],
      [
        "▁dit",
        -9.387785583896164
      ],
      [
        "ny",
        -9.390261314285098
      ],
      [
        "▁•",
        -9.390943900127565
      ],
      [
        "form",
        -9.392224068734352
      ],
      [
        "▁land",
        -9.393028612667116
      ],
      [
        "▁lever",
        -9.39340440117576
      ],
      [
        "ken",
        -9.394317354357696
      ],
      [
        "U",
        -9.395205733372913
      ],
      [
        "▁berätta",
        -9.395471287262206
      ],
      [
        "▁poäng",
        -9.397494479527158
      ],
      [
        "▁exempelvis",
        -9.397536108180093
      ],
      [
        "därmed",
        -9.397868522604758
      ],
      [
        "▁Anna",
        -9.397935574018156
      ],
      [
        "15",
        -9.398620977204782
      ],
      [
        "▁absolut",
        -9.398750309245813
      ],
      [
        "iskt",
        -9.39911282964097
      ],
      [
        "▁fokus",
        -9.400881503703147
      ],
      [
        "▁uppdrag",
        -9.402358245018506
      ],
      [
        "▁topp",
        -9.402517373276778
      ],
      [
        "▁språk",
        -9.404535718591019
      ],
      [
        "▁februari",
        -9.405640270292563
      ],
      [
        "▁Co",
        -9.405684059770577
      ],
      [
        "▁varandra",
        -9.407840159800367
      ],
      [
        "▁bygg",
        -9.409847747637638
      ],
      [
        "▁boken",
        -9.409905366942304
      ],
      [
        "▁staden",
        -9.410574261984788
      ],
      [
        "▁Kanske",
        -9.413296937352541
      ],
      [
        "▁behandling",
        -9.413297725064256
      ],
      [
        "▁Bi",
        -9.414362355252628
      ],
      [
        "▁senast",
        -9.415913821824963
      ],
      [
        "plats",
        -9.416307348805013
      ],
      [
        "ju",
        -9.416812204286218
      ],
      [
        "▁design",
        -9.418404753797311
      ],
      [
        "▁Sp",
        -9.418754168041863
      ],
      [
        "består",
        -9.419415426115433
      ],
      [
        "▁följande",
        -9.419978215881194
      ],
      [
        "▁§",
        -9.420000462754336
      ],
      [
        "▁Ro",
        -9.420126384049729
      ],
      [
        "bi",
        -9.420429975604149
      ],
      [
        "▁beroende",
        -9.420502071963622
      ],
      [
        "▁Å",
        -9.420700197352083
      ],
      [
        "og",
        -9.422252831097353
      ],
      [
        "▁oftast",
        -9.423912381706257
      ],
      [
        "▁air",
        -9.424657713494588
      ],
      [
        "▁natt",
        -9.424928776422819
      ],
      [
        "▁åren",
        -9.425587436907527
      ],
      [
        "▁60",
        -9.425773708165025
      ],
      [
        "▁2010",
        -9.426333064010784
      ],
      [
        "▁tänkte",
        -9.426620436951472
      ],
      [
        "▁samarbete",
        -9.426652809425548
      ],
      [
        "▁närheten",
        -9.427046276745632
      ],
      [
        "▁stod",
        -9.427193161439627
      ],
      [
        "▁*",
        -9.427491792083593
      ],
      [
        "erna.",
        -9.428223817148123
      ],
      [
        "▁speciellt",
        -9.429030344062218
      ],
      [
        "*",
        -9.4290432058648
      ],
      [
        "▁intresse",
        -9.42960405752796
      ],
      [
        "▁övriga",
        -9.430078539574252
      ],
      [
        "up",
        -9.430776390275547
      ],
      [
        "tur",
        -9.432122467504984
      ],
      [
        "▁december",
        -9.4321775711834
      ],
      [
        "▁behövs",
        -9.435216764551903
      ],
      [
        "▁Hitta",
        -9.435537410923809
      ],
      [
        "lägger",
        -9.43599824423183
      ],
      [
        "▁vanliga",
        -9.437054916191533
      ],
      [
        "▁boende",
        -9.4375132559083
      ],
      [
        "▁intressant",
        -9.437833553206541
      ],
      [
        "▁bilden",
        -9.43813464976077
      ],
      [
        "nar",
        -9.438474417825967
      ],
      [
        "▁förstår",
        -9.440830455864289
      ],
      [
        "skydd",
        -9.441495018091091
      ],
      [
        "▁styr",
        -9.442302360180905
      ],
      [
        "▁tanke",
        -9.443458993452387
      ],
      [
        "itet",
        -9.443994200266541
      ],
      [
        "▁månad",
        -9.44467308271068
      ],
      [
        "ats",
        -9.444688902138576
      ],
      [
        "såsom",
        -9.444785732569072
      ],
      [
        "lo",
        -9.44500840068651
      ],
      [
        "▁följer",
        -9.445460802074445
      ],
      [
        "▁vänner",
        -9.447676218558337
      ],
      [
        "▁la",
        -9.447718167343925
      ],
      [
        "▁Varför",
        -9.4486381525697
      ],
      [
        "▁sådana",
        -9.449395921793684
      ],
      [
        "ck",
        -9.44956644956021
      ],
      [
        "rit",
        -9.44976060500495
      ],
      [
        "kort",
        -9.449918779003823
      ],
      [
        "▁cm",
        -9.450420876164605
      ],
      [
        "vin",
        -9.450870014252418
      ],
      [
        "tan",
        -9.451666842216378
      ],
      [
        "▁ställa",
        -9.452288906053807
      ],
      [
        "▁+",
        -9.453489180911228
      ],
      [
        "▁området",
        -9.453977270250062
      ],
      [
        "et,",
        -9.455175092669048
      ],
      [
        "▁igår",
        -9.455854231080673
      ],
      [
        "▁by",
        -9.456814721025728
      ],
      [
        "▁skönt",
        -9.457299907205527
      ],
      [
        "▁Just",
        -9.458001941881102
      ],
      [
        "▁stället",
        -9.458504466582975
      ],
      [
        "▁november",
        -9.459084398341082
      ],
      [
        "▁kon",
        -9.462530780740108
      ],
      [
        "▁nike",
        -9.462815908362852
      ],
      [
        "gatan",
        -9.46291127104381
      ],
      [
        "▁flyg",
        -9.463194061580962
      ],
      [
        "▁minska",
        -9.463220551180973
      ],
      [
        "50",
        -9.463401531780358
      ],
      [
        "▁St",
        -9.463881744798526
      ],
      [
        "▁familjen",
        -9.464781896732827
      ],
      [
        "kom",
        -9.465081175834946
      ],
      [
        "▁vän",
        -9.465731777253291
      ],
      [
        "Eftersom",
        -9.46625986133348
      ],
      [
        "▁kvalitet",
        -9.46701496918086
      ],
      [
        "ron",
        -9.468345998893215
      ],
      [
        "tro",
        -9.468711871350258
      ],
      [
        "▁Upp",
        -9.468993085117434
      ],
      [
        "▁län",
        -9.469997014408827
      ],
      [
        "▁pass",
        -9.470701059597756
      ],
      [
        "▁Pro",
        -9.470722836632826
      ],
      [
        "▁skapar",
        -9.471205045742325
      ],
      [
        "ok",
        -9.471858564693713
      ],
      [
        "▁otroligt",
        -9.472859614322816
      ],
      [
        "▁produkt",
        -9.473736236232396
      ],
      [
        "▁juli",
        -9.474126121005586
      ],
      [
        "▁nämligen",
        -9.474421351728326
      ],
      [
        "▁kväll",
        -9.475409348548812
      ],
      [
        "åkte",
        -9.478005162158027
      ],
      [
        "▁stund",
        -9.479449261038509
      ],
      [
        "▁förstå",
        -9.479841178187488
      ],
      [
        "▁jobbet",
        -9.480847813255478
      ],
      [
        "alldeles",
        -9.482607127482323
      ],
      [
        "ism",
        -9.482903306194688
      ],
      [
        "▁Sa",
        -9.483822216852694
      ],
      [
        "erat",
        -9.48557904787973
      ],
      [
        "▁bilen",
        -9.486480119192995
      ],
      [
        "▁hund",
        -9.48667043612479
      ],
      [
        "EN",
        -9.486864461076511
      ],
      [
        "▁gammal",
        -9.487262286941766
      ],
      [
        "ium",
        -9.487654959559936
      ],
      [
        "▁dem.",
        -9.487670136065278
      ],
      [
        "▁kaffe",
        -9.489582312556573
      ],
      [
        "▁syn",
        -9.490485022045684
      ],
      [
        "vård",
        -9.49110986514262
      ],
      [
        "▁28",
        -9.491613250360851
      ],
      [
        "▁Anders",
        -9.492715082358464
      ],
      [
        "▁lån",
        -9.49439235396821
      ],
      [
        "▁kräver",
        -9.495368669228629
      ],
      [
        "▁mark",
        -9.496099947677402
      ],
      [
        "▁stil",
        -9.496761342826542
      ],
      [
        "▁26",
        -9.497504605443366
      ],
      [
        "▁Stockholms",
        -9.49886079550424
      ],
      [
        "mål",
        -9.499479886832757
      ],
      [
        "▁Ja,",
        -9.500374259502879
      ],
      [
        "liv",
        -9.500589715809362
      ],
      [
        "▁annars",
        -9.501145749163811
      ],
      [
        "▁internet",
        -9.502630951741038
      ],
      [
        "▁länder",
        -9.502675238762489
      ],
      [
        "▁säker",
        -9.503139616513552
      ],
      [
        "▁dagens",
        -9.503588706462843
      ],
      [
        "▁glas",
        -9.506533645995425
      ],
      [
        "▁Na",
        -9.50715015847526
      ],
      [
        "huset",
        -9.507516854213664
      ],
      [
        "▁delen",
        -9.509037517739763
      ],
      [
        "lund",
        -9.51081967390807
      ],
      [
        "▁erbjuda",
        -9.51104185649967
      ],
      [
        "▁sociala",
        -9.512464142189044
      ],
      [
        "▁konst",
        -9.513995822763762
      ],
      [
        "age",
        -9.514298296660174
      ],
      [
        "▁föräldrar",
        -9.514969714852587
      ],
      [
        "▁planera",
        -9.51524617259137
      ],
      [
        "20",
        -9.515919672724426
      ],
      [
        "▁27",
        -9.515964067228147
      ],
      [
        "▁snö",
        -9.51642352269936
      ],
      [
        "▁vackra",
        -9.516935460130805
      ],
      [
        "▁bolag",
        -9.517749358817511
      ],
      [
        "▁stad",
        -9.518068972765189
      ],
      [
        "▁regler",
        -9.518690561181858
      ],
      [
        "▁leder",
        -9.520299333276897
      ],
      [
        "▁hantera",
        -9.52222329557408
      ],
      [
        "ull",
        -9.522668304749988
      ],
      [
        "▁värde",
        -9.522890819341573
      ],
      [
        "▁Ka",
        -9.523141006835127
      ],
      [
        "▁ökar",
        -9.524989469063632
      ],
      [
        "bara",
        -9.525057962991616
      ],
      [
        "▁tänkt",
        -9.525792775966362
      ],
      [
        "gren",
        -9.525982257472853
      ],
      [
        "beror",
        -9.525997635390455
      ],
      [
        "▁dator",
        -9.526918150935066
      ],
      [
        "▁Ö",
        -9.527749667032998
      ],
      [
        "▁»",
        -9.527817370396127
      ],
      [
        "ko",
        -9.528306762415879
      ],
      [
        "▁låta",
        -9.528393391333172
      ],
      [
        "▁sjuk",
        -9.529389308603259
      ],
      [
        "▁höra",
        -9.530415479431326
      ],
      [
        "på",
        -9.532256411441624
      ],
      [
        "▁världens",
        -9.532869728932761
      ],
      [
        "äng",
        -9.533177421167721
      ],
      [
        "▁Ga",
        -9.534622290737524
      ],
      [
        "▁klockan",
        -9.535499253222323
      ],
      [
        "▁hämta",
        -9.535700371519312
      ],
      [
        "bb",
        -9.536606959187505
      ],
      [
        "▁boka",
        -9.537423559157197
      ],
      [
        "▁vin",
        -9.537969928449293
      ],
      [
        "▁spara",
        -9.53909856703826
      ],
      [
        "mark",
        -9.539815880526044
      ],
      [
        "program",
        -9.539891969608874
      ],
      [
        "▁träffa",
        -9.53993732035714
      ],
      [
        "▁ljud",
        -9.540021719896036
      ],
      [
        "företag",
        -9.5411736741425
      ],
      [
        "▁möjligheter",
        -9.541180206669248
      ],
      [
        "▁oavsett",
        -9.54221061958564
      ],
      [
        "mor",
        -9.544655208266397
      ],
      [
        "lj",
        -9.545794590301087
      ],
      [
        "▁förbättra",
        -9.546721308658928
      ],
      [
        "▁håll",
        -9.546904308650676
      ],
      [
        "▁Johan",
        -9.546988235662809
      ],
      [
        "▁date",
        -9.547699799894477
      ],
      [
        "▁fa",
        -9.547885523707484
      ],
      [
        "▁ordförande",
        -9.548025366580326
      ],
      [
        "▁Te",
        -9.549301236910887
      ],
      [
        "▁SEK",
        -9.549480488110602
      ],
      [
        "ca",
        -9.549879225625045
      ],
      [
        "▁träna",
        -9.550553965591973
      ],
      [
        "▁viktiga",
        -9.552743424274874
      ],
      [
        "nes",
        -9.55420711812092
      ],
      [
        "X",
        -9.554455130201752
      ],
      [
        "bil",
        -9.554722442742369
      ],
      [
        "▁New",
        -9.554856906160143
      ],
      [
        "▁Europa",
        -9.555320092615961
      ],
      [
        "'s",
        -9.555841989133686
      ],
      [
        "▁skillnad",
        -9.556418591407393
      ],
      [
        "▁uttryck",
        -9.556437348678688
      ],
      [
        "▁familj",
        -9.556837188650842
      ],
      [
        "väg",
        -9.558876946601538
      ],
      [
        "▁anledning",
        -9.55957569027265
      ],
      [
        "▁2009",
        -9.559863766991295
      ],
      [
        "▁Me",
        -9.560099655986544
      ],
      [
        "▁leva",
        -9.560393930427047
      ],
      [
        "▁prov",
        -9.560570571137204
      ],
      [
        "system",
        -9.560758899343726
      ],
      [
        "▁utifrån",
        -9.561996219085518
      ],
      [
        "per",
        -9.563334686316205
      ],
      [
        "▁höga",
        -9.563655509392742
      ],
      [
        "▁Barn",
        -9.564829221152204
      ],
      [
        "▁2.",
        -9.565626027291659
      ],
      [
        "▁sport",
        -9.565778218351628
      ],
      [
        "▁Facebook",
        -9.56597040189448
      ],
      [
        "▁funktion",
        -9.566051550722928
      ],
      [
        "▁bad",
        -9.567077056302034
      ],
      [
        "▁—",
        -9.567498201969036
      ],
      [
        "▁Fri",
        -9.567625032718489
      ],
      [
        "kon",
        -9.567710783606298
      ],
      [
        "borg",
        -9.567906994862623
      ],
      [
        "▁här.",
        -9.569698142742169
      ],
      [
        "▁medlemmar",
        -9.570597571416222
      ],
      [
        "verk",
        -9.571393968579228
      ],
      [
        "▁vikt",
        -9.571580708674384
      ],
      [
        "rik",
        -9.572007107497932
      ],
      [
        "▁iväg",
        -9.572260205287261
      ],
      [
        "ledande",
        -9.572776004498552
      ],
      [
        "▁ögon",
        -9.573104664659576
      ],
      [
        "▁Ma",
        -9.573969172246645
      ],
      [
        "drar",
        -9.574564587819884
      ],
      [
        "▁pro",
        -9.574769285147877
      ],
      [
        "▁högt",
        -9.574968896015227
      ],
      [
        "str",
        -9.575066502267168
      ],
      [
        "▁dela",
        -9.57518786794204
      ],
      [
        "▁billiga",
        -9.576884901549821
      ],
      [
        "▁tjejer",
        -9.577033244698795
      ],
      [
        "ret",
        -9.578025248881197
      ],
      [
        "▁sommaren",
        -9.578679221880737
      ],
      [
        "▁samtal",
        -9.579837891843516
      ],
      [
        "mon",
        -9.580243163430028
      ],
      [
        "▁vänster",
        -9.580295058293174
      ],
      [
        "▁fullt",
        -9.581171751544126
      ],
      [
        "▁kallas",
        -9.581800238913017
      ],
      [
        "▁vinna",
        -9.58211793581597
      ],
      [
        "▁far",
        -9.582468719870207
      ],
      [
        "▁elever",
        -9.582799954510824
      ],
      [
        "ill",
        -9.58285294130687
      ],
      [
        "▁luft",
        -9.583040085106028
      ],
      [
        "▁tjänster",
        -9.583496073497265
      ],
      [
        "▁lunch",
        -9.58353746257427
      ],
      [
        "▁helgen",
        -9.584176753168245
      ],
      [
        "Mycket",
        -9.584240049850257
      ],
      [
        "så",
        -9.58471426675301
      ],
      [
        "kor",
        -9.585815518813547
      ],
      [
        "▁polisen",
        -9.585993880840913
      ],
      [
        "app",
        -9.586961447015218
      ],
      [
        "tion",
        -9.587559750694865
      ],
      [
        "▁vänta",
        -9.587878699041793
      ],
      [
        "▁mm",
        -9.590238585856577
      ],
      [
        "äger",
        -9.590306205979449
      ],
      [
        "▁kvällen",
        -9.59125373076174
      ],
      [
        "▁träning",
        -9.591256664796274
      ],
      [
        "▁totalt",
        -9.591287225741613
      ],
      [
        "▁sådant",
        -9.591672888650601
      ],
      [
        "sätter",
        -9.59235478495136
      ],
      [
        "▁omkring",
        -9.593995071431493
      ],
      [
        "▁flytta",
        -9.594183326129818
      ],
      [
        "▁lokal",
        -9.595975488818224
      ],
      [
        "▁frukost",
        -9.596405225816207
      ],
      [
        "▁tv",
        -9.59706066520955
      ],
      [
        "▁byta",
        -9.597258531270295
      ],
      [
        "▁tillhör",
        -9.597540494560667
      ],
      [
        "▁visst",
        -9.599455037127022
      ],
      [
        "▁medel",
        -9.599714892757184
      ],
      [
        "▁användning",
        -9.599822755668283
      ],
      [
        "▁åker",
        -9.6000438012306
      ],
      [
        "vid",
        -9.600924475797058
      ],
      [
        "▁artikel",
        -9.602213762990653
      ],
      [
        "▁bra.",
        -9.602683862455716
      ],
      [
        "11",
        -9.603154573576415
      ],
      [
        "van",
        -9.604234515663327
      ],
      [
        "40",
        -9.60439179298193
      ],
      [
        "gg",
        -9.604728925352525
      ],
      [
        "▁smak",
        -9.604905952680163
      ],
      [
        "▁testa",
        -9.605213949822446
      ],
      [
        "▁tyvärr",
        -9.60522232405316
      ],
      [
        "▁Pa",
        -9.605555670198466
      ],
      [
        "yl",
        -9.606146602088844
      ],
      [
        "▁dejtingsajter",
        -9.606552030873798
      ],
      [
        "▁vanlig",
        -9.606728623651628
      ],
      [
        "▁hittade",
        -9.60810341941205
      ],
      [
        "▁lägre",
        -9.608245454520224
      ],
      [
        "verket",
        -9.610064068598486
      ],
      [
        "▁sätt.",
        -9.610343704529809
      ],
      [
        "▁söka",
        -9.610449828930925
      ],
      [
        "ax",
        -9.611341248079533
      ],
      [
        "▁böcker",
        -9.611419376904998
      ],
      [
        "▁ren",
        -9.61152714881687
      ],
      [
        "▁långa",
        -9.612662101633527
      ],
      [
        "tittade",
        -9.612668008217423
      ],
      [
        "▁börjat",
        -9.612681950983806
      ],
      [
        "till",
        -9.613148636621158
      ],
      [
        "bild",
        -9.613188519515763
      ],
      [
        "ock",
        -9.614370917229461
      ],
      [
        "▁teknik",
        -9.614857421822915
      ],
      [
        "▁Över",
        -9.615086608003121
      ],
      [
        "sjö",
        -9.615136703469563
      ],
      [
        "ber",
        -9.615526388282088
      ],
      [
        "allra",
        -9.616298836472003
      ],
      [
        "▁kontroll",
        -9.618172586668354
      ],
      [
        "antalet",
        -9.61818311109497
      ],
      [
        "dal",
        -9.61838592846191
      ],
      [
        "▁samla",
        -9.6191873272579
      ],
      [
        "sättning",
        -9.621469871196652
      ],
      [
        "▁bär",
        -9.622602983400107
      ],
      [
        "▁Uppsala",
        -9.623390047223811
      ],
      [
        "▁social",
        -9.624897495726398
      ],
      [
        "▁ovan",
        -9.626555200042967
      ],
      [
        "▁Köp",
        -9.62688012967865
      ],
      [
        "▁2019",
        -9.627978302985799
      ],
      [
        "ella",
        -9.628182023557468
      ],
      [
        "▁född",
        -9.62826989408998
      ],
      [
        "▁nöjd",
        -9.629581443814427
      ],
      [
        "ades",
        -9.629673306777033
      ],
      [
        "▁sitta",
        -9.630257522685856
      ],
      [
        "▁studie",
        -9.630796186094784
      ],
      [
        "▁Peter",
        -9.631102664164509
      ],
      [
        "▁bas",
        -9.631819706751664
      ],
      [
        "▁tidigt",
        -9.63198806446268
      ],
      [
        "akt",
        -9.632366364874485
      ],
      [
        "lös",
        -9.63327067477667
      ],
      [
        "▁vann",
        -9.633291789189036
      ],
      [
        "Ö",
        -9.633328776769337
      ],
      [
        "▁bolaget",
        -9.633644602885001
      ],
      [
        "jä",
        -9.633951355075338
      ],
      [
        "▁idag.",
        -9.633968343729876
      ],
      [
        "▁bit",
        -9.636142946111374
      ],
      [
        "▁vuxna",
        -9.63730702847892
      ],
      [
        "▁lokala",
        -9.637447305135975
      ],
      [
        "▁respektive",
        -9.637493349709331
      ],
      [
        "pass",
        -9.63836630631714
      ],
      [
        "▁hud",
        -9.638939346045175
      ],
      [
        "▁skrivit",
        -9.63910375159367
      ],
      [
        "▁sju",
        -9.639584085919996
      ],
      [
        "går",
        -9.640028300189737
      ],
      [
        "▁utmärkt",
        -9.640693051046261
      ],
      [
        "ow",
        -9.640713684846215
      ],
      [
        "▁pappa",
        -9.640747218976179
      ],
      [
        "▁All",
        -9.641385091016783
      ],
      [
        "▁storlek",
        -9.642768617256598
      ],
      [
        "▁trä",
        -9.64293980791675
      ],
      [
        "▁nu.",
        -9.64310585993677
      ],
      [
        "▁standard",
        -9.643150743810276
      ],
      [
        "▁exakt",
        -9.643394012896968
      ],
      [
        "▁lättare",
        -9.643676351087269
      ],
      [
        "▁enkel",
        -9.645156857050805
      ],
      [
        "lighet",
        -9.645206405821522
      ],
      [
        "met",
        -9.646005001540466
      ],
      [
        "▁ändra",
        -9.647264524284894
      ],
      [
        "näs",
        -9.647691267091973
      ],
      [
        "▁29",
        -9.647816805850136
      ],
      [
        "▁video",
        -9.648899567435553
      ],
      [
        "ast",
        -9.649138816147563
      ],
      [
        "▁Li",
        -9.649840455651674
      ],
      [
        "rad",
        -9.650985163910894
      ],
      [
        "▁högsta",
        -9.651182897779275
      ],
      [
        "▁recensioner",
        -9.652550397312796
      ],
      [
        "▁Di",
        -9.652940478393166
      ],
      [
        "▁billigt",
        -9.653685214518873
      ],
      [
        "▁hösten",
        -9.654643178728694
      ],
      [
        "▁kraft",
        -9.654741832144143
      ],
      [
        "▁kl.",
        -9.654942628783543
      ],
      [
        ".com",
        -9.65557296341894
      ],
      [
        "▁skatte",
        -9.656346469502589
      ],
      [
        ":00",
        -9.656948715220944
      ],
      [
        "▁hit",
        -9.658504340525939
      ],
      [
        "▁resenärer",
        -9.659432126319714
      ],
      [
        "lån",
        -9.659648219308728
      ],
      [
        "▁klass",
        -9.661444038639786
      ],
      [
        "hem",
        -9.66275129387625
      ],
      [
        "▁dåligt",
        -9.662814566500412
      ],
      [
        "▁Kom",
        -9.66410479791133
      ],
      [
        "▁möjligt.",
        -9.664412253298575
      ],
      [
        "ligen",
        -9.66602786548896
      ],
      [
        "pan",
        -9.66609964380755
      ],
      [
        "▁t.ex.",
        -9.666266526314983
      ],
      [
        "▁värme",
        -9.666305366775243
      ],
      [
        "▁handla",
        -9.666792282700058
      ],
      [
        "▁He",
        -9.666854365750314
      ],
      [
        "fri",
        -9.668982516684064
      ],
      [
        "▁Stor",
        -9.669198055086941
      ],
      [
        "▁typer",
        -9.669882784708571
      ],
      [
        "▁dejtingsidor",
        -9.66996440653565
      ],
      [
        "▁död",
        -9.670241980968694
      ],
      [
        "▁stark",
        -9.67097561908315
      ],
      [
        "▁text",
        -9.671509036616742
      ],
      [
        "▁lagen",
        -9.673537897712224
      ],
      [
        "▁gäster",
        -9.673645918489687
      ],
      [
        "est",
        -9.674216268382576
      ],
      [
        "▁semester",
        -9.674612884518869
      ],
      [
        "samtliga",
        -9.674838064894082
      ],
      [
        "▁di",
        -9.674914131434841
      ],
      [
        "▁blå",
        -9.675018691137854
      ],
      [
        "▁hända",
        -9.67507774891873
      ],
      [
        "▁ben",
        -9.67631867033771
      ],
      [
        "▁200",
        -9.676470925696552
      ],
      [
        "▁Lo",
        -9.676680512431059
      ],
      [
        "▁hemsida",
        -9.677291144628473
      ],
      [
        "▁förstås",
        -9.677324336172353
      ],
      [
        "dom",
        -9.677549685007087
      ],
      [
        "▁Hem",
        -9.677571830628574
      ],
      [
        "▁väntar",
        -9.677953233186322
      ],
      [
        "▁läge",
        -9.678199493990014
      ],
      [
        "▁massor",
        -9.679089972548693
      ],
      [
        "▁verksamheten",
        -9.679406717334656
      ],
      [
        "▁köpte",
        -9.679915373401371
      ],
      [
        "▁åtgärder",
        -9.679959149807575
      ],
      [
        "▁kompetens",
        -9.68007516790573
      ],
      [
        "▁fortsatt",
        -9.680402928349652
      ],
      [
        "▁bi",
        -9.681077051792391
      ],
      [
        "dig",
        -9.682166204022199
      ],
      [
        "▁Z",
        -9.682291517221138
      ],
      [
        "▁sverige",
        -9.682708779806628
      ],
      [
        "Se",
        -9.683576462105684
      ],
      [
        "▁lista",
        -9.683863984075577
      ],
      [
        "▁skada",
        -9.686993114606517
      ],
      [
        "▁konstatera",
        -9.688018185256189
      ],
      [
        "▁bar",
        -9.689247179656123
      ],
      [
        "nummer",
        -9.689419980504326
      ],
      [
        "▁ske",
        -9.689589280555683
      ],
      [
        "▁kostar",
        -9.68999455891443
      ],
      [
        "▁nedan",
        -9.690399821249404
      ],
      [
        "utveckling",
        -9.691088370220422
      ],
      [
        "▁verktyg",
        -9.69185807898279
      ],
      [
        "▁forskning",
        -9.69219602356547
      ],
      [
        "▁31",
        -9.692396620905411
      ],
      [
        "ris",
        -9.692432337380733
      ],
      [
        "ung",
        -9.692989445847033
      ],
      [
        "▁huset",
        -9.693557723432088
      ],
      [
        "gående",
        -9.693887616923096
      ],
      [
        "▁kredit",
        -9.694873323613212
      ],
      [
        "▁påverka",
        -9.695187519800943
      ],
      [
        "AR",
        -9.695838484221134
      ],
      [
        "▁ladda",
        -9.696321796490288
      ],
      [
        "▁spelade",
        -9.698160012831092
      ],
      [
        "tryck",
        -9.698787901422332
      ],
      [
        "▁Tor",
        -9.698945001452865
      ],
      [
        "▁Ca",
        -9.698967059594553
      ],
      [
        "▁privat",
        -9.699194457964852
      ],
      [
        "▁platser",
        -9.700276629816731
      ],
      [
        "25",
        -9.700982163659079
      ],
      [
        "▁post",
        -9.701253246519654
      ],
      [
        "▁tillräckligt",
        -9.702546769047395
      ],
      [
        "▁ensam",
        -9.702750303540926
      ],
      [
        "ina",
        -9.704311171422177
      ],
      [
        "19",
        -9.70459989670065
      ],
      [
        "▁populära",
        -9.704955458254656
      ],
      [
        "▁helg",
        -9.70599657265696
      ],
      [
        "▁tas",
        -9.706731034564552
      ],
      [
        "▁No",
        -9.707372595821111
      ],
      [
        ".\"",
        -9.707576998723573
      ],
      [
        "fors",
        -9.707740987417306
      ],
      [
        "▁ekonomi",
        -9.710445603896849
      ],
      [
        "▁höger",
        -9.711640061856373
      ],
      [
        "▁läser",
        -9.71165913290277
      ],
      [
        "▁sig.",
        -9.712572170095353
      ],
      [
        "du",
        -9.712704660272452
      ],
      [
        "▁kläder",
        -9.71313665317562
      ],
      [
        "vägen",
        -9.716225622057236
      ],
      [
        "and",
        -9.716898717734955
      ],
      [
        "fin",
        -9.717172718247262
      ],
      [
        "▁känsla",
        -9.718624079052969
      ],
      [
        "Samtidigt",
        -9.719042346373616
      ],
      [
        "▁lyckas",
        -9.719290017568708
      ],
      [
        "▁guld",
        -9.719948738529046
      ],
      [
        "▁Maria",
        -9.72030437200795
      ],
      [
        "▁Gud",
        -9.721848751087927
      ],
      [
        "▁lärare",
        -9.722135880380987
      ],
      [
        "▁mil",
        -9.722203530432687
      ],
      [
        "▁Ra",
        -9.722279495846646
      ],
      [
        "▁vinter",
        -9.722871406429116
      ],
      [
        "ister",
        -9.723126898057671
      ],
      [
        "▁3.",
        -9.7245972722493
      ],
      [
        "▁skola",
        -9.725925417690176
      ],
      [
        "▁reda",
        -9.725989573123805
      ],
      [
        "teknik",
        -9.726436780890602
      ],
      [
        "▁trafik",
        -9.72749822333514
      ],
      [
        "▁dag.",
        -9.728191893127542
      ],
      [
        "▁Mar",
        -9.728368628438155
      ],
      [
        "▁parti",
        -9.72876437202592
      ],
      [
        "vik",
        -9.729604506806321
      ],
      [
        "▁besökare",
        -9.729689877500645
      ],
      [
        "▁kurs",
        -9.730562028588338
      ],
      [
        "dan",
        -9.730868561410169
      ],
      [
        "▁Två",
        -9.731471053830846
      ],
      [
        "led",
        -9.732907126799363
      ],
      [
        "samma",
        -9.733540955842704
      ],
      [
        "!!!",
        -9.73389402231522
      ],
      [
        "ag",
        -9.734135963343531
      ],
      [
        "▁konto",
        -9.734671582516922
      ],
      [
        "▁dam",
        -9.734707653095898
      ],
      [
        "ff",
        -9.734932490305523
      ],
      [
        "▁EU",
        -9.734944238339828
      ],
      [
        "Hoppas",
        -9.735680114382635
      ],
      [
        "▁Y",
        -9.735937810656853
      ],
      [
        "▁ekonomiska",
        -9.736110126342739
      ],
      [
        "▁sälja",
        -9.736118193248286
      ],
      [
        "Varje",
        -9.73692445325637
      ],
      [
        "▁gällande",
        -9.737412124033028
      ],
      [
        "pp",
        -9.737417646108304
      ],
      [
        "och",
        -9.73750417990533
      ],
      [
        "▁middag",
        -9.737857695897578
      ],
      [
        "▁kommentar",
        -9.737938745501092
      ],
      [
        "▁500",
        -9.73844225704265
      ],
      [
        "▁2008",
        -9.738753927784012
      ],
      [
        "▁Ingen",
        -9.739362055292501
      ],
      [
        "▁test",
        -9.739461169171037
      ],
      [
        "▁samhället",
        -9.740074887367228
      ],
      [
        "▁Hans",
        -9.740275886805664
      ],
      [
        "▁matchen",
        -9.740421375686095
      ],
      [
        "▁ont",
        -9.740765493481083
      ],
      [
        "▁bank",
        -9.741098966871272
      ],
      [
        "▁bidrag",
        -9.741985535265542
      ],
      [
        "ings",
        -9.742763535099279
      ],
      [
        "▁effekt",
        -9.742863692468758
      ],
      [
        "▁valt",
        -9.743091427159108
      ],
      [
        "▁Berg",
        -9.743691952984031
      ],
      [
        "▁anställda",
        -9.743977524578591
      ],
      [
        "▁Tänk",
        -9.744169557951905
      ],
      [
        "▁lön",
        -9.744212867350749
      ],
      [
        "▁sidor",
        -9.744541414748513
      ],
      [
        "one",
        -9.745297215774464
      ],
      [
        "▁hårt",
        -9.746043414926172
      ],
      [
        "he",
        -9.74839669487131
      ],
      [
        "▁Sch",
        -9.74927724355905
      ],
      [
        "▁barnet",
        -9.750182284502433
      ],
      [
        "kända",
        -9.750216169216309
      ],
      [
        "äck",
        -9.750579865220093
      ],
      [
        "▁Lund",
        -9.75084258558192
      ],
      [
        "▁tak",
        -9.752923149619907
      ],
      [
        "▁leda",
        -9.753082303436795
      ],
      [
        "verksamhet",
        -9.753307811285204
      ],
      [
        "tig",
        -9.75348280605197
      ],
      [
        "sidan",
        -9.753934543011004
      ],
      [
        "▁viktigaste",
        -9.754099942470882
      ],
      [
        "▁eventuell",
        -9.75451213808219
      ],
      [
        "▁önskar",
        -9.755524327084364
      ],
      [
        "▁filmen",
        -9.755637371732314
      ],
      [
        "▁år,",
        -9.75629193623073
      ],
      [
        "bygger",
        -9.756820589713563
      ],
      [
        "▁säkerhet",
        -9.757601643192151
      ],
      [
        "ras",
        -9.758144866773547
      ],
      [
        "▁läs",
        -9.758239972561197
      ],
      [
        "▁Jan",
        -9.758274171010683
      ],
      [
        "▁tillgängliga",
        -9.75881124368815
      ],
      [
        "▁sade",
        -9.759708221635641
      ],
      [
        "ess",
        -9.760037413353993
      ],
      [
        "▁läst",
        -9.760215577719986
      ],
      [
        "▁betydelse",
        -9.760448047412464
      ],
      [
        "▁lager",
        -9.760685450821898
      ],
      [
        "12",
        -9.760983920161875
      ],
      [
        "18",
        -9.761312229644028
      ],
      [
        "inklusive",
        -9.761717660361903
      ],
      [
        "arna.",
        -9.761848041836084
      ],
      [
        "▁fungera",
        -9.762864334191969
      ],
      [
        "▁lyssna",
        -9.763768740668828
      ],
      [
        "▁låt",
        -9.7644267672657
      ],
      [
        "chef",
        -9.764603725225422
      ],
      [
        "ställer",
        -9.764938709666605
      ],
      [
        "▁Välkommen",
        -9.765771717616433
      ],
      [
        "▁områden",
        -9.765937962397437
      ],
      [
        "▁mor",
        -9.76599875845942
      ],
      [
        "enbart",
        -9.766316907012794
      ],
      [
        "▁framtiden",
        -9.766861407346354
      ],
      [
        "▁höst",
        -9.767867392318488
      ],
      [
        "its",
        -9.768223911946006
      ],
      [
        "skolan",
        -9.770646016379336
      ],
      [
        "▁spår",
        -9.771707447024566
      ],
      [
        "▁historia",
        -9.772971673547787
      ],
      [
        "▁övrigt",
        -9.773979652710135
      ],
      [
        "▁dig.",
        -9.774109989588837
      ],
      [
        "are.",
        -9.774210870585152
      ],
      [
        "vetenskap",
        -9.77429002496859
      ],
      [
        "▁kommande",
        -9.774388310830258
      ],
      [
        "▁Fast",
        -9.774920665163885
      ],
      [
        "▁Fortsätt",
        -9.775732423212153
      ],
      [
        "▁oss.",
        -9.77583402108188
      ],
      [
        "tre",
        -9.77660210625765
      ],
      [
        "”,",
        -9.77688632810641
      ],
      [
        "vatten",
        -9.777419059187787
      ],
      [
        "▁chans",
        -9.777435533307063
      ],
      [
        "▁TV",
        -9.777955666428102
      ],
      [
        "erar",
        -9.778155855941767
      ],
      [
        "▁tryck",
        -9.77836270955716
      ],
      [
        "ning.",
        -9.778606009475116
      ],
      [
        "▁laget",
        -9.778945671497745
      ],
      [
        "▁Lars",
        -9.779338866235655
      ],
      [
        "▁sam",
        -9.77972309427511
      ],
      [
        "▁slå",
        -9.780591069187013
      ],
      [
        "▁villkor",
        -9.782307050365654
      ],
      [
        "▁Con",
        -9.782987716230917
      ],
      [
        "▁Lite",
        -9.784460332817043
      ],
      [
        "gick",
        -9.784535526834636
      ],
      [
        "ski",
        -9.784702605365785
      ],
      [
        "▁livs",
        -9.785161627316368
      ],
      [
        "▁Erik",
        -9.786270986121007
      ],
      [
        "24",
        -9.78693966346656
      ],
      [
        "res",
        -9.787535354368556
      ],
      [
        "▁trodde",
        -9.787606346772236
      ],
      [
        "Lägg",
        -9.787651519152602
      ],
      [
        "produkter",
        -9.787750099569966
      ],
      [
        "▁tydligt",
        -9.788526564372335
      ],
      [
        "14",
        -9.788742271955925
      ],
      [
        "sida",
        -9.789014346189187
      ],
      [
        "▁drog",
        -9.78926771002051
      ],
      [
        "▁säkerhets",
        -9.789619695751892
      ],
      [
        "▁trevlig",
        -9.789792587722195
      ],
      [
        "▁partner",
        -9.790496927744785
      ],
      [
        "pris",
        -9.790729796626492
      ],
      [
        "▁(S",
        -9.791016286798822
      ],
      [
        "▁special",
        -9.791882077685159
      ],
      [
        "han",
        -9.792098958955005
      ],
      [
        "▁skäl",
        -9.79239422971571
      ],
      [
        "▁Trots",
        -9.792918335514434
      ],
      [
        "▁cykel",
        -9.793044477005168
      ],
      [
        "▁närmare",
        -9.794108471646418
      ],
      [
        "▁Andersson",
        -9.794344191280603
      ],
      [
        "our",
        -9.794729289406789
      ],
      [
        "lade",
        -9.794960097149483
      ],
      [
        "▁serie",
        -9.795366968807327
      ],
      [
        "▁innehåll",
        -9.79605770626444
      ],
      [
        "▁priset",
        -9.796448541200942
      ],
      [
        "▁trött",
        -9.797294996655948
      ],
      [
        "betydligt",
        -9.797590680368556
      ],
      [
        "▁dejtingsida",
        -9.797619329170596
      ],
      [
        "▁Skåne",
        -9.79787155697025
      ],
      [
        "amp",
        -9.797995925944267
      ],
      [
        "▁So",
        -9.79824677306319
      ],
      [
        "▁personliga",
        -9.798458086838462
      ],
      [
        "Klicka",
        -9.79856079152706
      ],
      [
        "▁=",
        -9.798836429999891
      ],
      [
        "▁Bara",
        -9.798971204021123
      ],
      [
        "▁låna",
        -9.79957468344347
      ],
      [
        "▁klicka",
        -9.799614566449089
      ],
      [
        "▁Bar",
        -9.799857383918368
      ],
      [
        "lagen",
        -9.80025367508444
      ],
      [
        "rar",
        -9.800701342671992
      ],
      [
        "grupp",
        -9.80071170075939
      ],
      [
        "▁äter",
        -9.801145742870876
      ],
      [
        "▁rent",
        -9.801278175158073
      ],
      [
        "tik",
        -9.801423944720028
      ],
      [
        "ben",
        -9.802750454333756
      ],
      [
        "▁påverkar",
        -9.802977642730156
      ],
      [
        "▁tankar",
        -9.803056612482083
      ],
      [
        "▁passa",
        -9.80307568418088
      ],
      [
        "▁Val",
        -9.803494570586986
      ],
      [
        "▁fönster",
        -9.803792903836756
      ],
      [
        "én",
        -9.80380419581575
      ],
      [
        "▁budget",
        -9.803966198924188
      ],
      [
        "▁polis",
        -9.804259369964994
      ],
      [
        "▁blod",
        -9.804418470879325
      ],
      [
        "ledare",
        -9.805124904030217
      ],
      [
        "▁Finns",
        -9.80544860774443
      ],
      [
        "klass",
        -9.805709605599706
      ],
      [
        "▁klimat",
        -9.805736914948206
      ],
      [
        "▁1,",
        -9.807082995355048
      ],
      [
        "16",
        -9.807104562304222
      ],
      [
        "▁Kina",
        -9.807542172420794
      ],
      [
        "kläder",
        -9.80758904414406
      ],
      [
        "▁Sk",
        -9.808073123859709
      ],
      [
        "▁utför",
        -9.808172704312433
      ],
      [
        "▁tal",
        -9.808288639605442
      ],
      [
        "por",
        -9.808821652421114
      ],
      [
        "▁däremot",
        -9.80896470762298
      ],
      [
        "▁Ri",
        -9.80999313826249
      ],
      [
        "Z",
        -9.810011358573755
      ],
      [
        "▁ka",
        -9.81012199193431
      ],
      [
        "ba",
        -9.810835063656345
      ],
      [
        "▁marknaden",
        -9.810871038559405
      ],
      [
        "▁kallade",
        -9.811053760738622
      ],
      [
        "▁frukt",
        -9.811097389140574
      ],
      [
        "▁erbjudanden",
        -9.811218800931925
      ],
      [
        "▁Ge",
        -9.812079715864854
      ],
      [
        "▁syfte",
        -9.812310195793728
      ],
      [
        "▁Hi",
        -9.813134458239864
      ],
      [
        "vore",
        -9.813174770444252
      ],
      [
        "tjänst",
        -9.813580808635065
      ],
      [
        "▁kropp",
        -9.815241451833895
      ],
      [
        "▁Mitt",
        -9.815545396486916
      ],
      [
        "▁ersättning",
        -9.817602451018578
      ],
      [
        "▁avtal",
        -9.818303946462931
      ],
      [
        "▁säsongen",
        -9.818624285187283
      ],
      [
        "Reward",
        -9.81915637271831
      ],
      [
        "▁stress",
        -9.819420798358728
      ],
      [
        "▁valde",
        -9.819563347984989
      ],
      [
        "▁någonsin",
        -9.819788733017067
      ],
      [
        "gå",
        -9.820013823272124
      ],
      [
        "gruppen",
        -9.820187145981455
      ],
      [
        "▁Ti",
        -9.820436708056262
      ],
      [
        "ernas",
        -9.821307719030404
      ],
      [
        "▁tala",
        -9.821728894042666
      ],
      [
        "▁Hög",
        -9.821794584304344
      ],
      [
        "typ",
        -9.822140305849366
      ],
      [
        "stående",
        -9.822148348951488
      ],
      [
        "▁talar",
        -9.822169405271797
      ],
      [
        ">",
        -9.822883033439402
      ],
      [
        "skor",
        -9.823130991213155
      ],
      [
        "utgör",
        -9.824402235746795
      ],
      [
        "▁mängd",
        -9.82550957421522
      ],
      [
        "▁norr",
        -9.826214926898666
      ],
      [
        "▁kärlek",
        -9.826696422397296
      ],
      [
        "bu",
        -9.827115338870847
      ],
      [
        "▁regn",
        -9.827178210967082
      ],
      [
        "▁timme",
        -9.827520458085528
      ],
      [
        "▁me",
        -9.827630222477014
      ],
      [
        "▁Nya",
        -9.828678251525897
      ],
      [
        "ku",
        -9.829153012317684
      ],
      [
        "▁Fa",
        -9.829541882169682
      ],
      [
        "▁prova",
        -9.829627777334123
      ],
      [
        "▁Tre",
        -9.829900793316206
      ],
      [
        "17",
        -9.83026499031067
      ],
      [
        "gård",
        -9.830904640800648
      ],
      [
        "▁svara",
        -9.830991747846316
      ],
      [
        "▁dejt",
        -9.831734363719345
      ],
      [
        "▁område",
        -9.832048299261782
      ],
      [
        "▁leverera",
        -9.832140711440319
      ],
      [
        "60",
        -9.834257583458477
      ],
      [
        "▁fantastiskt",
        -9.834311230321369
      ],
      [
        "▁Sol",
        -9.835056566502516
      ],
      [
        "▁delta",
        -9.83555667503274
      ],
      [
        "21",
        -9.835973356809623
      ],
      [
        "br",
        -9.836195959948903
      ],
      [
        "▁tjej",
        -9.8364437781136
      ],
      [
        "rö",
        -9.83670419576355
      ],
      [
        "sätt",
        -9.836733383984699
      ],
      [
        "▁restaurang",
        -9.837476499692647
      ],
      [
        "▁free",
        -9.83750682696064
      ],
      [
        "ong",
        -9.837544684732087
      ],
      [
        "▁samhälls",
        -9.83788162760557
      ],
      [
        "▁Välj",
        -9.838432402381004
      ],
      [
        "ator",
        -9.838513516184385
      ],
      [
        "▁starkt",
        -9.839491477552654
      ],
      [
        "holm",
        -9.840732283678987
      ],
      [
        "▁listan",
        -9.841281209995477
      ],
      [
        "▁fot",
        -9.842827333921901
      ],
      [
        "▁ligga",
        -9.842958540084156
      ],
      [
        "Å",
        -9.84546775108329
      ],
      [
        "cy",
        -9.846013792836773
      ],
      [
        "▁nån",
        -9.846216844816828
      ],
      [
        "▁brott",
        -9.846419479810082
      ],
      [
        "▁stan",
        -9.846942028995025
      ],
      [
        "▁Car",
        -9.847108378547809
      ],
      [
        "▁tillstånd",
        -9.849115724167254
      ],
      [
        "ala",
        -9.849352846818963
      ],
      [
        "▁nivå",
        -9.849404299158444
      ],
      [
        "▁därefter",
        -9.849439872636246
      ],
      [
        "AN",
        -9.849661877926387
      ],
      [
        "▁förbi",
        -9.849679492900211
      ],
      [
        "▁nej",
        -9.850185642259731
      ],
      [
        "andet",
        -9.850309756289805
      ],
      [
        "din",
        -9.850443051333693
      ],
      [
        "▁fantastisk",
        -9.850481123942393
      ],
      [
        "▁borta",
        -9.852378589991794
      ],
      [
        "▁öppen",
        -9.852452075627495
      ],
      [
        "▁lägenhet",
        -9.852519357737586
      ],
      [
        "Ibland",
        -9.852828680168523
      ],
      [
        "▁köper",
        -9.853980809442822
      ],
      [
        "▁saknar",
        -9.854133521117573
      ],
      [
        "▁dans",
        -9.854187528558338
      ],
      [
        "▁År",
        -9.854314837413849
      ],
      [
        "▁tittar",
        -9.85449632910942
      ],
      [
        "▁Hotels.com",
        -9.854597564498478
      ],
      [
        "13",
        -9.854598131595697
      ],
      [
        "▁sjukdom",
        -9.854901170723918
      ],
      [
        "▁Or",
        -9.854929567814944
      ],
      [
        "heten",
        -9.855040517080717
      ],
      [
        "▁Låt",
        -9.855582540279404
      ],
      [
        "▁självklart",
        -9.857373005276566
      ],
      [
        "▁omdömet",
        -9.85744024559788
      ],
      [
        "ub",
        -9.857577599493965
      ],
      [
        "▁Ko",
        -9.857696261495864
      ],
      [
        "▁Th",
        -9.858420101575103
      ],
      [
        "försäkring",
        -9.85874465773025
      ],
      [
        "jämfört",
        -9.859020031873678
      ],
      [
        "ökad",
        -9.859361912568758
      ],
      [
        "▁ungdomar",
        -9.859454953938144
      ],
      [
        "▁hälso",
        -9.860064540267775
      ],
      [
        "▁Mat",
        -9.860476278236106
      ],
      [
        "und",
        -9.860507321186882
      ],
      [
        "tte",
        -9.8605485249542
      ],
      [
        "▁mg",
        -9.861574548510438
      ],
      [
        "▁försök",
        -9.862176975118068
      ],
      [
        "▁(1",
        -9.862202640967368
      ],
      [
        "▁Ju",
        -9.862972188962411
      ],
      [
        "▁förutsättningar",
        -9.863160324198107
      ],
      [
        "▁väder",
        -9.86347851983906
      ],
      [
        "lu",
        -9.864582831501322
      ],
      [
        "kräm",
        -9.866325811321065
      ],
      [
        "▁aktiviteter",
        -9.866328226190866
      ],
      [
        "▁Andra",
        -9.86641379015203
      ],
      [
        "press",
        -9.867418437451855
      ],
      [
        "▁också.",
        -9.868527283061086
      ],
      [
        "▁plus",
        -9.868952094885367
      ],
      [
        "▁risker",
        -9.869122769245504
      ],
      [
        "▁fisk",
        -9.869297571906781
      ],
      [
        "&",
        -9.869301681486366
      ],
      [
        "za",
        -9.869741221100485
      ],
      [
        "▁www.",
        -9.870572231984195
      ],
      [
        "▁Använd",
        -9.871021953592246
      ],
      [
        "▁varmt",
        -9.873629688831338
      ],
      [
        "▁skit",
        -9.874138035581455
      ],
      [
        "material",
        -9.874928120523789
      ],
      [
        "▁0,",
        -9.876335969319998
      ],
      [
        "par",
        -9.87660115961027
      ],
      [
        "▁våld",
        -9.876883902032143
      ],
      [
        "▁läkare",
        -9.877248309512716
      ],
      [
        "▁sk",
        -9.877287471166579
      ],
      [
        "laget",
        -9.877541484983674
      ],
      [
        "let",
        -9.87835740619339
      ],
      [
        "▁ihåg",
        -9.879511175580708
      ],
      [
        "Det",
        -9.879589183914247
      ],
      [
        "drygt",
        -9.8799739220956
      ],
      [
        "▁Själv",
        -9.881195232057287
      ],
      [
        "Vilken",
        -9.88139793249729
      ],
      [
        "▁medlem",
        -9.881863423424008
      ],
      [
        "ingen",
        -9.882296364046773
      ],
      [
        "▁höjd",
        -9.882636917857878
      ],
      [
        "gården",
        -9.883079128076147
      ],
      [
        "fer",
        -9.883438906344791
      ],
      [
        "che",
        -9.883546639313881
      ],
      [
        "▁led",
        -9.883877822509417
      ],
      [
        "▁lördag",
        -9.884115790030553
      ],
      [
        "-10",
        -9.884185919249415
      ],
      [
        "▁fokusera",
        -9.884536072699746
      ],
      [
        "▁Gratis",
        -9.886024928650457
      ],
      [
        "▁bakgrund",
        -9.886153049943776
      ],
      [
        "▁våren",
        -9.886480820825955
      ],
      [
        "▁fredag",
        -9.887469400794298
      ],
      [
        "▁'",
        -9.887752312476232
      ],
      [
        "▁Su",
        -9.887854024547787
      ],
      [
        "35",
        -9.888333513822666
      ],
      [
        "▁Finland",
        -9.888660753713614
      ],
      [
        "▁spelet",
        -9.888699047001783
      ],
      [
        "▁idé",
        -9.888728729177458
      ],
      [
        "▁promenad",
        -9.889142605919377
      ],
      [
        "ram",
        -9.889488468516104
      ],
      [
        "▁vinst",
        -9.889888620721116
      ],
      [
        "ack",
        -9.89037653636263
      ],
      [
        "▁ägg",
        -9.89073299273139
      ],
      [
        "▁lagt",
        -9.891316317745128
      ],
      [
        "▁starta",
        -9.891613878859498
      ],
      [
        "ran",
        -9.892332029316707
      ],
      [
        "▁80",
        -9.893845211573584
      ],
      [
        "▁vita",
        -9.894834838308416
      ],
      [
        "gas",
        -9.895337686743376
      ],
      [
        "▁Fredrik",
        -9.895363857661913
      ],
      [
        "▁oro",
        -9.89537155377563
      ],
      [
        "▁projektet",
        -9.895930935907142
      ],
      [
        "▁äntligen",
        -9.896120737220159
      ],
      [
        "▁koll",
        -9.896183774593224
      ],
      [
        "bolag",
        -9.896325417215765
      ],
      [
        "▁sist",
        -9.896536551229767
      ],
      [
        "▁sova",
        -9.896919538482528
      ],
      [
        "Få",
        -9.8972972254753
      ],
      [
        "▁häst",
        -9.897352365709516
      ],
      [
        "stra",
        -9.897515224469219
      ],
      [
        "▁solen",
        -9.898202627307986
      ],
      [
        "▁medarbetare",
        -9.898471708062285
      ],
      [
        "jo",
        -9.898558111268887
      ],
      [
        "▁världs",
        -9.898973403089647
      ],
      [
        "▁politiska",
        -9.899249759119304
      ],
      [
        "▁bl",
        -9.89935719747595
      ],
      [
        "▁internationella",
        -9.900204872050091
      ],
      [
        "Några",
        -9.901425842381402
      ],
      [
        "▁njuta",
        -9.901637699769077
      ],
      [
        "▁Hej",
        -9.90180743556223
      ],
      [
        "▁ålder",
        -9.901909100853073
      ],
      [
        "▁Bil",
        -9.901980369891257
      ],
      [
        "▁röd",
        -9.90228071279112
      ],
      [
        "sol",
        -9.90309359982219
      ],
      [
        "▁leta",
        -9.903113884576321
      ],
      [
        "na,",
        -9.903137507501032
      ],
      [
        "▁utvecklas",
        -9.903621759410523
      ],
      [
        "▁omdöme",
        -9.903643758585005
      ],
      [
        "▁lösa",
        -9.905359771260509
      ],
      [
        "▁webbplats",
        -9.905965030299088
      ],
      [
        "22",
        -9.906807506440433
      ],
      [
        "▁Wi",
        -9.906901724065246
      ],
      [
        "▁Nord",
        -9.907005648933316
      ],
      [
        "känt",
        -9.90724432897275
      ],
      [
        "▁Kon",
        -9.907521468647268
      ],
      [
        "▁ingenting",
        -9.907622328520102
      ],
      [
        "▁slag",
        -9.908306829450268
      ],
      [
        "▁modern",
        -9.908327814607746
      ],
      [
        "80",
        -9.908383806105423
      ],
      [
        "▁uppgift",
        -9.908397778519728
      ],
      [
        "90",
        -9.908547995300601
      ],
      [
        "▁Bu",
        -9.908759976259056
      ],
      [
        "ske",
        -9.909236981075106
      ],
      [
        "service",
        -9.910674479145873
      ],
      [
        "▁Din",
        -9.911246799474485
      ],
      [
        "▁ut.",
        -9.91129289534681
      ],
      [
        "▁tid.",
        -9.911720506588273
      ],
      [
        "jer",
        -9.911866584400647
      ],
      [
        "Ä",
        -9.912505119775336
      ],
      [
        "▁knappt",
        -9.913229563653509
      ],
      [
        "ight",
        -9.913457248598196
      ],
      [
        "▁mån",
        -9.913866390670309
      ],
      [
        "▁dagarna",
        -9.913940835956515
      ],
      [
        "råd",
        -9.913946854743962
      ],
      [
        "▁utbud",
        -9.914362371599344
      ],
      [
        "▁alkohol",
        -9.914587421657851
      ],
      [
        "▁säkra",
        -9.915559185789698
      ],
      [
        "▁lugn",
        -9.916446599959178
      ],
      [
        "▁sikt",
        -9.916626362768985
      ],
      [
        "▁rummet",
        -9.91675797016463
      ],
      [
        "▁fantastiska",
        -9.917298943437174
      ],
      [
        "▁mesta",
        -9.917622334351615
      ],
      [
        "bet",
        -9.917663826531726
      ],
      [
        "▁resten",
        -9.91783288777114
      ],
      [
        "utbildning",
        -9.91816397226268
      ],
      [
        "▁åtta",
        -9.918325434466812
      ],
      [
        "brott",
        -9.918430593981311
      ],
      [
        "gre",
        -9.918599937730896
      ],
      [
        "▁hamna",
        -9.918876622004772
      ],
      [
        "▁naturligtvis",
        -9.91933301555615
      ],
      [
        "rat",
        -9.920482863689246
      ],
      [
        "we",
        -9.920749454698525
      ],
      [
        "▁söndag",
        -9.92099410656856
      ],
      [
        "▁mannen",
        -9.921505270163943
      ],
      [
        "▁matcher",
        -9.922120164284417
      ],
      [
        "▁Martin",
        -9.922324734997984
      ],
      [
        "▁skydda",
        -9.922376287393705
      ],
      [
        "▁uppnå",
        -9.923387009821948
      ],
      [
        "▁ung",
        -9.92356394177767
      ],
      [
        "▁pratar",
        -9.923950880125837
      ],
      [
        "vet",
        -9.925415014032847
      ],
      [
        "isering",
        -9.925483133824933
      ],
      [
        "förutom",
        -9.925591717649155
      ],
      [
        "▁modell",
        -9.925648210031603
      ],
      [
        "▁härlig",
        -9.926036750319332
      ],
      [
        "▁stanna",
        -9.926723933755232
      ],
      [
        "▁må",
        -9.926892706237673
      ],
      [
        "▁Ba",
        -9.927212372577394
      ],
      [
        "tjänster",
        -9.927493798344875
      ],
      [
        "▁Po",
        -9.927742319214124
      ],
      [
        "▁35",
        -9.928171990645573
      ],
      [
        "ika",
        -9.929100383750667
      ],
      [
        "▁beställa",
        -9.929198173367283
      ],
      [
        "▁hittat",
        -9.929899184551463
      ],
      [
        "▁Am",
        -9.930960367448662
      ],
      [
        "▁Johansson",
        -9.93120766731799
      ],
      [
        "▁antingen",
        -9.931433761977832
      ],
      [
        "▁sluta",
        -9.932392533720089
      ],
      [
        "▁pre",
        -9.932617179794132
      ],
      [
        "q",
        -9.93314458280534
      ],
      [
        "ighet",
        -9.933186781711278
      ],
      [
        "▁undvika",
        -9.9332598353993
      ],
      [
        "▁herr",
        -9.933496289963415
      ],
      [
        "▁lösning",
        -9.93359242829129
      ],
      [
        "▁plast",
        -9.934704266945522
      ],
      [
        "▁undrar",
        -9.93533130911567
      ],
      [
        "▁bostads",
        -9.936117125662514
      ],
      [
        "hand",
        -9.936792662633803
      ],
      [
        "▁mo",
        -9.937237796551031
      ],
      [
        "▁Dam",
        -9.937268987435866
      ],
      [
        "▁kalla",
        -9.938181615456601
      ],
      [
        "▁Sam",
        -9.938894751067869
      ],
      [
        "chi",
        -9.93893530948085
      ],
      [
        "▁Sport",
        -9.939198640981179
      ],
      [
        "information",
        -9.93975711667996
      ],
      [
        "finner",
        -9.940856047534718
      ],
      [
        "▁stads",
        -9.941442218570646
      ],
      [
        "▁ansökan",
        -9.941466217756938
      ],
      [
        "▁Del",
        -9.941638595529225
      ],
      [
        "▁2007",
        -9.94167008767814
      ],
      [
        "pol",
        -9.942238101916839
      ],
      [
        "delar",
        -9.942274402685431
      ],
      [
        "byggnad",
        -9.942551593767764
      ],
      [
        "▁(19",
        -9.944054653143995
      ],
      [
        "▁kombination",
        -9.94435866457178
      ],
      [
        "▁Bland",
        -9.945125470130446
      ],
      [
        "▁;)",
        -9.945214286607
      ],
      [
        "▁försäljning",
        -9.945681381379849
      ],
      [
        "les",
        -9.946122355011253
      ],
      [
        "▁annorlunda",
        -9.947111284444503
      ],
      [
        "▁[...]",
        -9.947512393300942
      ],
      [
        "▁period",
        -9.947861462629712
      ],
      [
        "▁datorn",
        -9.948317904563035
      ],
      [
        "vikt",
        -9.94881556497328
      ],
      [
        "öj",
        -9.949675806445073
      ],
      [
        "▁choklad",
        -9.949764273536667
      ],
      [
        "▁själv.",
        -9.950021848036897
      ],
      [
        "ite",
        -9.950514494008145
      ],
      [
        "▁70",
        -9.950623514233722
      ],
      [
        "line",
        -9.950884576762201
      ],
      [
        "▁använt",
        -9.951248326056314
      ],
      [
        "rus",
        -9.951596209124105
      ],
      [
        "▁förmåga",
        -9.951651338151676
      ],
      [
        "▁bilar",
        -9.951802035008212
      ],
      [
        "▁Först",
        -9.952087994080053
      ],
      [
        "uk",
        -9.952494390640549
      ],
      [
        "▁brev",
        -9.953190904945084
      ],
      [
        "nad",
        -9.953205640536025
      ],
      [
        "▁huvudet",
        -9.953265010317988
      ],
      [
        "▁perfekta",
        -9.953821398661908
      ],
      [
        "all",
        -9.95394626282864
      ],
      [
        "slagen",
        -9.954126054065188
      ],
      [
        "pro",
        -9.95469954737121
      ],
      [
        "bart",
        -9.954977946366379
      ],
      [
        "▁kr.",
        -9.955169307268331
      ],
      [
        "▁Pris",
        -9.955169513937747
      ],
      [
        "▁sten",
        -9.955334227754777
      ],
      [
        "▁satte",
        -9.95783738390548
      ],
      [
        "▁dålig",
        -9.958057050692597
      ],
      [
        "▁buss",
        -9.958177953635106
      ],
      [
        "▁kontrollera",
        -9.958785141927816
      ],
      [
        "▁Nr",
        -9.959537640915702
      ],
      [
        "▁fest",
        -9.959817174276376
      ],
      [
        "▁patienter",
        -9.959963722693217
      ],
      [
        "▁foto",
        -9.960109131705869
      ],
      [
        "ses",
        -9.960152335641014
      ],
      [
        "▁röst",
        -9.96026612845912
      ],
      [
        "▁växer",
        -9.960702753013948
      ],
      [
        "▁svår",
        -9.960954732398521
      ],
      [
        "▁huden",
        -9.961051062849965
      ],
      [
        "’",
        -9.961062167737465
      ],
      [
        "skola",
        -9.961464541135427
      ],
      [
        "▁kommentarer",
        -9.961556901008391
      ],
      [
        "▁utvecklingen",
        -9.962316072539037
      ],
      [
        "▁Er",
        -9.962417893855854
      ],
      [
        "▁kost",
        -9.962773281015105
      ],
      [
        "▁mode",
        -9.963173766993258
      ],
      [
        "▁Foto:",
        -9.96336295959513
      ],
      [
        "▁Park",
        -9.963860403341535
      ],
      [
        "▁centrum",
        -9.963966501770235
      ],
      [
        "▁Tyskland",
        -9.96495517550141
      ],
      [
        "▁mår",
        -9.965205572861066
      ],
      [
        "▁Norge",
        -9.965634472548729
      ],
      [
        "köp",
        -9.96568301344509
      ],
      [
        "▁förklara",
        -9.965685703196318
      ],
      [
        "▁princip",
        -9.965688257492769
      ],
      [
        "eras",
        -9.96588791937532
      ],
      [
        "har",
        -9.966384254339077
      ],
      [
        "▁Sätt",
        -9.966542880524264
      ],
      [
        "▁Bästa",
        -9.966725807832969
      ],
      [
        "▁We",
        -9.966744763342199
      ],
      [
        "▁Gi",
        -9.967573859844558
      ],
      [
        "▁kostnader",
        -9.967589933378816
      ],
      [
        "▁universitet",
        -9.968896893766509
      ],
      [
        "=",
        -9.969201043666692
      ],
      [
        "▁timmen",
        -9.969213816156092
      ],
      [
        "anses",
        -9.969583825224213
      ],
      [
        "start",
        -9.96960369600175
      ],
      [
        "▁press",
        -9.969841980624334
      ],
      [
        "ice",
        -9.969864818113225
      ],
      [
        "▁live",
        -9.970602207152853
      ],
      [
        "▁bloggen",
        -9.970722467165464
      ],
      [
        "▁OK",
        -9.971040749594726
      ],
      [
        "▁San",
        -9.971156966284635
      ],
      [
        "▁To",
        -9.971242933418042
      ],
      [
        "område",
        -9.971295078339333
      ],
      [
        "bro",
        -9.971378484887884
      ],
      [
        "tic",
        -9.971938142853633
      ],
      [
        "ledning",
        -9.97203749396057
      ],
      [
        "arbete",
        -9.97237311668959
      ],
      [
        "wa",
        -9.972827406425102
      ],
      [
        "▁stockholm",
        -9.972973723997333
      ],
      [
        "▁öppet",
        -9.973455233746018
      ],
      [
        "Hotels.comT",
        -9.974649100694322
      ],
      [
        "resa",
        -9.9746571794845
      ],
      [
        "ies",
        -9.97477855046294
      ],
      [
        "▁namnet",
        -9.975006485521444
      ],
      [
        "tel",
        -9.97569310588081
      ],
      [
        "▁ordning",
        -9.97606944297783
      ],
      [
        "▁affärs",
        -9.976367056457828
      ],
      [
        "tiden",
        -9.97661077689977
      ],
      [
        "▁räcker",
        -9.976869671372485
      ],
      [
        "▁Svensk",
        -9.977818539189007
      ],
      [
        "låt",
        -9.977955648755952
      ],
      [
        "lev",
        -9.979330613966695
      ],
      [
        "▁kommuner",
        -9.979430011400344
      ],
      [
        "▁2020",
        -9.980876614689894
      ],
      [
        "▁högst",
        -9.981084865700527
      ],
      [
        "nor",
        -9.981295015290861
      ],
      [
        "▁placera",
        -9.981992425408034
      ],
      [
        "skickade",
        -9.982843840729995
      ],
      [
        "🙂",
        -9.98296109889137
      ],
      [
        "▁Örebro",
        -9.983315701582953
      ],
      [
        "▁plötsligt",
        -9.983428382742952
      ],
      [
        "rig",
        -9.983662406716276
      ],
      [
        "▁motor",
        -9.983828448814165
      ],
      [
        "▁Anmäl",
        -9.983872887680814
      ],
      [
        "70",
        -9.983931087008957
      ],
      [
        "▁Gör",
        -9.984233828497924
      ],
      [
        "▁förvänta",
        -9.984817422456501
      ],
      [
        "kel",
        -9.984847685330116
      ],
      [
        "▁Ed",
        -9.985258157584768
      ],
      [
        "ön",
        -9.986842304192619
      ],
      [
        "språk",
        -9.987059496626848
      ],
      [
        "nuvarande",
        -9.987156985652364
      ],
      [
        "▁mag",
        -9.98757470348799
      ],
      [
        "ate",
        -9.987637903653072
      ],
      [
        "▁ton",
        -9.988058281344479
      ],
      [
        "▁visas",
        -9.988273975120876
      ],
      [
        "bjuder",
        -9.98841044553466
      ],
      [
        "▁rättigheter",
        -9.988636256218442
      ],
      [
        "▁Hos",
        -9.989674769274377
      ],
      [
        "▁slog",
        -9.990345485142093
      ],
      [
        "▁möjliga",
        -9.990930248632507
      ],
      [
        "▁kronor.",
        -9.991680773700331
      ],
      [
        "över",
        -9.991850076510179
      ],
      [
        "▁Inn",
        -9.992086849355847
      ],
      [
        "mb",
        -9.992109586218472
      ],
      [
        "vel",
        -9.992399266221637
      ],
      [
        "▁MEJLADRESS",
        -9.99315208658424
      ],
      [
        "▁kombinera",
        -9.993399985987786
      ],
      [
        "000",
        -9.993539096694185
      ],
      [
        "▁bio",
        -9.993786159633823
      ],
      [
        "▁fl",
        -9.993840669518969
      ],
      [
        "▁samhälle",
        -9.994070533099137
      ],
      [
        ".se/",
        -9.994130425441003
      ],
      [
        "▁företags",
        -9.994220803364806
      ],
      [
        "▁tionde",
        -9.995327438979324
      ],
      [
        "▁Va",
        -9.995780617428219
      ],
      [
        "▁lyckades",
        -9.996707812960151
      ],
      [
        "center",
        -9.997330194809974
      ],
      [
        "▁butik",
        -9.997992396804785
      ],
      [
        "▁profil",
        -9.998966260040925
      ],
      [
        "ökade",
        -9.999105858077021
      ],
      [
        "yck",
        -9.999248552916887
      ],
      [
        "klarar",
        -10.00004177365915
      ],
      [
        "slutade",
        -10.000695001109817
      ],
      [
        "45",
        -10.001165734837079
      ],
      [
        "▁nåt",
        -10.001340993259305
      ],
      [
        "▁himla",
        -10.001552172305708
      ],
      [
        "▁Casino",
        -10.002041504782692
      ],
      [
        "Igår",
        -10.003276379633258
      ],
      [
        "▁Ne",
        -10.003390906163325
      ],
      [
        "lämnar",
        -10.003421382298104
      ],
      [
        "▁säljer",
        -10.00348703090773
      ],
      [
        "▁vacker",
        -10.0045517276391
      ],
      [
        "Vilka",
        -10.004568583470842
      ],
      [
        "▁visste",
        -10.004570614693746
      ],
      [
        "▁amerikanska",
        -10.004739384254924
      ],
      [
        "▁Online",
        -10.00481599399598
      ],
      [
        "▁hot",
        -10.004836769727836
      ],
      [
        "▁tränings",
        -10.007104872548947
      ],
      [
        "▁bedriv",
        -10.007245057726417
      ],
      [
        "▁transport",
        -10.007396235538017
      ],
      [
        "bra",
        -10.007611717824183
      ],
      [
        "▁Stockholm.",
        -10.00765778167673
      ],
      [
        "▁någonting",
        -10.007775784939115
      ],
      [
        "▁framåt",
        -10.007863546625725
      ],
      [
        "▁miljarder",
        -10.008249758919362
      ],
      [
        "▁riktig",
        -10.00990828880754
      ],
      [
        "▁Visst",
        -10.010153377141297
      ],
      [
        "▁resultatet",
        -10.010178374930991
      ],
      [
        "▁nyligen",
        -10.010462224501728
      ],
      [
        "▁jord",
        -10.010687367038944
      ],
      [
        "▁Mi",
        -10.011046140804902
      ],
      [
        "dar",
        -10.011248893786867
      ],
      [
        "▁enkla",
        -10.011485535867633
      ],
      [
        "▁värd",
        -10.012145149923889
      ],
      [
        "▁Internet",
        -10.012312667588711
      ],
      [
        "▁kapital",
        -10.012422430415826
      ],
      [
        "körde",
        -10.012466210336294
      ],
      [
        "▁trevligt",
        -10.012702386643962
      ],
      [
        "ologi",
        -10.013024409266842
      ],
      [
        "▁tjänst",
        -10.013133501488582
      ],
      [
        "▁tids",
        -10.013505437149268
      ],
      [
        "▁go",
        -10.01390412430875
      ],
      [
        "ET",
        -10.01393118061
      ],
      [
        "nder",
        -10.01422139906035
      ],
      [
        "▁leverans",
        -10.014619063828528
      ],
      [
        "way",
        -10.014789395881579
      ],
      [
        "▁intresserad",
        -10.0149201314465
      ],
      [
        "liggande",
        -10.014947530673027
      ],
      [
        "▁gett",
        -10.015023945822001
      ],
      [
        "▁platsen",
        -10.015361909737372
      ],
      [
        "▁diskutera",
        -10.015489234446415
      ],
      [
        "▁Google",
        -10.015763508510007
      ],
      [
        "namn",
        -10.016037348234947
      ],
      [
        "ställ",
        -10.017641397802272
      ],
      [
        "▁längs",
        -10.01785347337201
      ],
      [
        "▁köpt",
        -10.017874708507255
      ],
      [
        "behandling",
        -10.018121284539811
      ],
      [
        "▁möjligheten",
        -10.018568458927382
      ],
      [
        "▁kyrkan",
        -10.019376333874044
      ],
      [
        "▁startade",
        -10.019397554085144
      ],
      [
        "▁såklart",
        -10.020843235853057
      ],
      [
        "▁undan",
        -10.021258259318477
      ],
      [
        "▁satsa",
        -10.021292655727917
      ],
      [
        "▁straff",
        -10.02250562632514
      ],
      [
        "▁Ad",
        -10.022658635906318
      ],
      [
        "▁eleverna",
        -10.023087918729141
      ],
      [
        "erings",
        -10.023498165517754
      ],
      [
        "▁ma",
        -10.02399126311397
      ],
      [
        "▁my",
        -10.024680633328432
      ],
      [
        "▁lösningar",
        -10.025171305447365
      ],
      [
        "▁icke",
        -10.025622282834863
      ],
      [
        "ej",
        -10.025836216837686
      ],
      [
        "▁badrum",
        -10.026019317341033
      ],
      [
        "▁kol",
        -10.026273117807794
      ],
      [
        "▁natten",
        -10.02687610511338
      ],
      [
        "▁skön",
        -10.02713972245633
      ],
      [
        "▁koppla",
        -10.027811001951846
      ],
      [
        "▁programmet",
        -10.028435936317148
      ],
      [
        "▁fördel",
        -10.028598897106283
      ],
      [
        "ze",
        -10.028794429429501
      ],
      [
        "▁sällan",
        -10.029305719127303
      ],
      [
        "▁situation",
        -10.029465375169208
      ],
      [
        "▁nummer",
        -10.029747008037457
      ],
      [
        "▁My",
        -10.029822916355014
      ],
      [
        "▁hänt",
        -10.029950372018961
      ],
      [
        "▁inled",
        -10.030183823883446
      ],
      [
        "▁(som",
        -10.031290721484527
      ],
      [
        "▁Nästa",
        -10.03141146631065
      ],
      [
        "▁pengarna",
        -10.031550319392407
      ],
      [
        "▁massage",
        -10.031615801649036
      ],
      [
        "▁ställe",
        -10.032067043864634
      ],
      [
        "▁tillväxt",
        -10.032116734034197
      ],
      [
        "området",
        -10.032255820822376
      ],
      [
        "▁översättning",
        -10.032347802260102
      ],
      [
        "▁korrekt",
        -10.032643435049906
      ],
      [
        "▁dels",
        -10.032701855069027
      ],
      [
        "ket",
        -10.032809881605054
      ],
      [
        "läggning",
        -10.03307530970177
      ],
      [
        "tog",
        -10.034989769722799
      ],
      [
        "of",
        -10.03560146196762
      ],
      [
        "▁utnyttja",
        -10.03563725502186
      ],
      [
        "▁Dock",
        -10.035866037988159
      ],
      [
        "ore",
        -10.036304336324077
      ],
      [
        "▁Carl",
        -10.03632728728943
      ],
      [
        "▁tvätt",
        -10.036606180252493
      ],
      [
        "▁parkering",
        -10.036633245560413
      ],
      [
        "Vissa",
        -10.03700798098784
      ],
      [
        "För",
        -10.037263368693202
      ],
      [
        "▁utsikt",
        -10.03744114993258
      ],
      [
        "▁Gu",
        -10.03995034735045
      ],
      [
        "▁London",
        -10.040629417524006
      ],
      [
        "barn",
        -10.04110351417333
      ],
      [
        "are,",
        -10.04145211765663
      ],
      [
        "▁söt",
        -10.041590960439743
      ],
      [
        "▁värld",
        -10.041705872676259
      ],
      [
        "klar",
        -10.04180095259531
      ],
      [
        "kraft",
        -10.04191539172658
      ],
      [
        "bord",
        -10.041931909418054
      ],
      [
        "nat",
        -10.042157011194348
      ],
      [
        "▁kommunikation",
        -10.043470914120839
      ],
      [
        "tips",
        -10.044148478954433
      ],
      [
        "▁Dom",
        -10.044241014076187
      ],
      [
        "▁aktivitet",
        -10.044735650713523
      ],
      [
        "Jag",
        -10.045140103992535
      ],
      [
        "▁brand",
        -10.045164039905641
      ],
      [
        "▁yrkes",
        -10.045758058648426
      ],
      [
        "▁ges",
        -10.04603024943114
      ],
      [
        "▁funkar",
        -10.046775758062672
      ],
      [
        "▁Inga",
        -10.047404308467838
      ],
      [
        "▁mail",
        -10.047636230774943
      ],
      [
        "möta",
        -10.048501946162641
      ],
      [
        "▁mjölk",
        -10.048596377620331
      ],
      [
        "▁läkemedel",
        -10.04969929938621
      ],
      [
        "sel",
        -10.050632989986477
      ],
      [
        "05",
        -10.050902295863763
      ],
      [
        "delade",
        -10.050914304558738
      ],
      [
        "oc",
        -10.05129486423638
      ],
      [
        "▁kli",
        -10.051381917324587
      ],
      [
        "▁snabba",
        -10.051918971390293
      ],
      [
        "förbundet",
        -10.052574898983522
      ],
      [
        "▁dvs",
        -10.052822294570614
      ],
      [
        "55",
        -10.05294566962769
      ],
      [
        "dagen",
        -10.053135033920253
      ],
      [
        "vit",
        -10.053418317733586
      ],
      [
        "▁normalt",
        -10.053957928528662
      ],
      [
        "▁människa",
        -10.054153550091767
      ],
      [
        "▁målet",
        -10.054971797720691
      ],
      [
        "▁reklam",
        -10.055635424178483
      ],
      [
        "ning,",
        -10.055662502645124
      ],
      [
        "▁förhållande",
        -10.056123591789609
      ],
      [
        "▁färger",
        -10.056372850997167
      ],
      [
        "▁välkomna",
        -10.056475822122154
      ],
      [
        "▁datum",
        -10.056506644668339
      ],
      [
        "-12",
        -10.057398431496667
      ],
      [
        "▁45",
        -10.057841438904749
      ],
      [
        "Förutom",
        -10.05824960590689
      ],
      [
        "▁relation",
        -10.05843379574268
      ],
      [
        "▁föreslå",
        -10.05904788441503
      ],
      [
        "23",
        -10.059560271056412
      ],
      [
        "erande",
        -10.059727638863642
      ],
      [
        "▁nät",
        -10.059753367766826
      ],
      [
        "▁besöka",
        -10.059785777014897
      ],
      [
        "träning",
        -10.060522619490023
      ],
      [
        "▁mitten",
        -10.060565872361606
      ],
      [
        "lit",
        -10.060578469536463
      ],
      [
        "▁betalar",
        -10.061284883520202
      ],
      [
        "▁info",
        -10.06170250905109
      ],
      [
        "▁bestämt",
        -10.062214521056836
      ],
      [
        "▁numera",
        -10.062585846262863
      ],
      [
        "film",
        -10.062610634131156
      ],
      [
        "värde",
        -10.062967524119946
      ],
      [
        "▁hundra",
        -10.063927328077842
      ],
      [
        "relativt",
        -10.063990601225413
      ],
      [
        "01",
        -10.06423396625555
      ],
      [
        "▁sättet",
        -10.06424369507131
      ],
      [
        "▁tecken",
        -10.064683301996716
      ],
      [
        "tter",
        -10.06473042104977
      ],
      [
        "IS",
        -10.064745364739638
      ],
      [
        "▁glädje",
        -10.064796520600565
      ],
      [
        "▁aktuella",
        -10.064797085732835
      ],
      [
        "▁centrala",
        -10.06487262050268
      ],
      [
        "▁jämför",
        -10.06530622598591
      ],
      [
        "▁Lind",
        -10.067125369606062
      ],
      [
        "▁4.",
        -10.067443294687122
      ],
      [
        "nu",
        -10.06750314837079
      ],
      [
        "▁träd",
        -10.068226404166552
      ],
      [
        "rop",
        -10.069393453153431
      ],
      [
        "▁fundera",
        -10.070016110439406
      ],
      [
        "strax",
        -10.070778819057292
      ],
      [
        "▁jakt",
        -10.071279162443343
      ],
      [
        "▁sjukhus",
        -10.07201103031829
      ],
      [
        "lopp",
        -10.072150343609728
      ],
      [
        "▁webb",
        -10.07231825703574
      ],
      [
        "▁Art",
        -10.07278992024776
      ],
      [
        "▁Super",
        -10.07291318062614
      ],
      [
        "▁York",
        -10.073100961481952
      ],
      [
        "ang",
        -10.073909274651248
      ],
      [
        "▁Skriv",
        -10.074162297972075
      ],
      [
        "dra",
        -10.074219391330134
      ],
      [
        "▁gr",
        -10.074421925428469
      ],
      [
        "▁makt",
        -10.07456856735578
      ],
      [
        "▁cookies",
        -10.074624063369535
      ],
      [
        "Vi",
        -10.074978944778756
      ],
      [
        "▁enklare",
        -10.075132813423377
      ],
      [
        "▁marknads",
        -10.075178862380056
      ],
      [
        "Skulle",
        -10.075533134923695
      ],
      [
        "▁tåg",
        -10.075692915648878
      ],
      [
        "ång",
        -10.075796937039039
      ],
      [
        "▁katt",
        -10.075931887445229
      ],
      [
        "▁Information",
        -10.076200870001621
      ],
      [
        "▁fylla",
        -10.076229668740924
      ],
      [
        "▁Bro",
        -10.07629017455436
      ],
      [
        "stod",
        -10.07639367421849
      ],
      [
        "▁you",
        -10.0770557454632
      ],
      [
        "▁starka",
        -10.077110288573904
      ],
      [
        "▁följd",
        -10.07739071631969
      ],
      [
        "ham",
        -10.07739363898255
      ],
      [
        "▁dröm",
        -10.07744840099534
      ],
      [
        "▁FV",
        -10.077824934223026
      ],
      [
        "snarare",
        -10.078378424903978
      ],
      [
        "▁Nor",
        -10.078422670686072
      ],
      [
        "▁gäst",
        -10.078664608397997
      ],
      [
        "blad",
        -10.079068125837459
      ],
      [
        "▁studier",
        -10.080093537866897
      ],
      [
        "▁möte",
        -10.080518261440378
      ],
      [
        "▁Arbets",
        -10.080794145507571
      ],
      [
        "off",
        -10.080879691388905
      ],
      [
        "▁slags",
        -10.081225659067037
      ],
      [
        "Ja",
        -10.081677477812514
      ],
      [
        "link",
        -10.082930123066216
      ],
      [
        "▁kille",
        -10.082938354987174
      ],
      [
        "▁måndag",
        -10.08380850701486
      ],
      [
        "▁fallet",
        -10.083934300286055
      ],
      [
        "▁Pe",
        -10.083995649118961
      ],
      [
        "män",
        -10.084928416683343
      ],
      [
        "ance",
        -10.085086125641379
      ],
      [
        "▁socker",
        -10.0854402129685
      ],
      [
        "▁hört",
        -10.08572547390704
      ],
      [
        "▁ordentligt",
        -10.085866819218698
      ],
      [
        "▁Do",
        -10.086113860331203
      ],
      [
        "tt*",
        -10.086995697794567
      ],
      [
        "▁behövde",
        -10.087333158550589
      ],
      [
        "▁rekommenderar",
        -10.087482232657916
      ],
      [
        "▁tiden.",
        -10.087482442236954
      ],
      [
        "99",
        -10.087662987849336
      ],
      [
        "▁brist",
        -10.087847016066538
      ],
      [
        "sport",
        -10.08807289171268
      ],
      [
        "▁varm",
        -10.088273846873765
      ],
      [
        "▁>",
        -10.088375499611676
      ],
      [
        "▁Go",
        -10.088565517410606
      ],
      [
        "▁media",
        -10.089080990254594
      ],
      [
        "våning",
        -10.089660971024038
      ],
      [
        "▁Tyvärr",
        -10.089812680423357
      ],
      [
        "▁kök",
        -10.090862176178414
      ],
      [
        "▁restauranger",
        -10.091084830091567
      ],
      [
        "▁säng",
        -10.091425328359401
      ],
      [
        "29",
        -10.091549026287929
      ],
      [
        "▁staten",
        -10.091733366693106
      ],
      [
        "po",
        -10.092006598860689
      ],
      [
        "lösa",
        -10.092510341993565
      ],
      [
        "▁åtminstone",
        -10.092568223229637
      ],
      [
        "▁no",
        -10.092692620071254
      ],
      [
        "▁dusch",
        -10.093105185446912
      ],
      [
        "▁Sex",
        -10.093432385323538
      ],
      [
        "▁chef",
        -10.094519029780578
      ],
      [
        "▁grad",
        -10.096056854184267
      ],
      [
        "▁Första",
        -10.096256905120248
      ],
      [
        "▁fixa",
        -10.096747841925822
      ],
      [
        "▁hy",
        -10.096959613933008
      ],
      [
        "▁City",
        -10.097103053902968
      ],
      [
        "ökat",
        -10.097141628916738
      ],
      [
        "▁fett",
        -10.098586520033404
      ],
      [
        "ley",
        -10.099363959311972
      ],
      [
        "▁frakt",
        -10.099385322862414
      ],
      [
        "rör",
        -10.099618248389232
      ],
      [
        "▁lek",
        -10.099646421393986
      ],
      [
        "▁fotboll",
        -10.09998829450193
      ],
      [
        "▁Gå",
        -10.10030691054431
      ],
      [
        "▁Hade",
        -10.100990138573342
      ],
      [
        "▁ver",
        -10.101144697954501
      ],
      [
        "▁$",
        -10.101429112581245
      ],
      [
        "närmaste",
        -10.101643010410273
      ],
      [
        "gemensamma",
        -10.101683731501092
      ],
      [
        "▁inlägget",
        -10.101775633630016
      ],
      [
        "28",
        -10.101797451529237
      ],
      [
        "▁rörelse",
        -10.102052029263636
      ],
      [
        "som",
        -10.102579491614792
      ],
      [
        "färg",
        -10.102697589410953
      ],
      [
        "OF",
        -10.10292534249829
      ],
      [
        "▁utföra",
        -10.102936022636884
      ],
      [
        "▁process",
        -10.103151707772378
      ],
      [
        "▁ämnen",
        -10.103606781662938
      ],
      [
        "▁con",
        -10.103903782623341
      ],
      [
        "lik",
        -10.105199410056366
      ],
      [
        "▁morgonen",
        -10.105447268563653
      ],
      [
        "tag",
        -10.106151626466271
      ],
      [
        "läge",
        -10.106432387575286
      ],
      [
        "▁spa",
        -10.107283290588022
      ],
      [
        "träd",
        -10.107536355785324
      ],
      [
        "NA",
        -10.107944333791677
      ],
      [
        "▁Bygg",
        -10.1083390025569
      ],
      [
        "tas",
        -10.109022351041036
      ],
      [
        "▁grupper",
        -10.109070684354027
      ],
      [
        "▁Få",
        -10.109134057418244
      ],
      [
        "▁vattnet",
        -10.109160647914027
      ],
      [
        "▁imorgon",
        -10.109196402423855
      ],
      [
        "▁miss",
        -10.109288567689374
      ],
      [
        "▁ringa",
        -10.10951816246737
      ],
      [
        "cc",
        -10.109949284574444
      ],
      [
        "▁God",
        -10.110430100228468
      ],
      [
        "▁Nilsson",
        -10.110505388016604
      ],
      [
        "▁Fin",
        -10.110561272269797
      ],
      [
        "▁anpassa",
        -10.110567700678837
      ],
      [
        "→",
        -10.110723003724608
      ],
      [
        "▁liv.",
        -10.111454250589532
      ],
      [
        "▁2006",
        -10.111593831213625
      ],
      [
        "sin",
        -10.11248925023134
      ],
      [
        "systemet",
        -10.113169756395527
      ],
      [
        "▁Vet",
        -10.11363604184834
      ],
      [
        "▁fil",
        -10.114126883664166
      ],
      [
        "▁chansen",
        -10.114237708497253
      ],
      [
        "▁förändring",
        -10.114507663865584
      ],
      [
        "lad",
        -10.115650108575302
      ],
      [
        "▁allmänna",
        -10.115875139231928
      ],
      [
        "▁drift",
        -10.116493806552956
      ],
      [
        "▁300",
        -10.116525315248923
      ],
      [
        "▁valet",
        -10.116974948203818
      ],
      [
        "hjälp",
        -10.117329725302298
      ],
      [
        "Mer",
        -10.117692546244138
      ],
      [
        "▁funktioner",
        -10.117950812557089
      ],
      [
        "▁sur",
        -10.118295099432572
      ],
      [
        "▁botten",
        -10.118673884453948
      ],
      [
        "▁inspiration",
        -10.11875683957608
      ],
      [
        "▁personlig",
        -10.118784156517837
      ],
      [
        "▁roliga",
        -10.119332779612376
      ],
      [
        "▁Hall",
        -10.120406061642004
      ],
      [
        "▁band",
        -10.12068332715603
      ],
      [
        "▁Kommun",
        -10.121100252929443
      ],
      [
        "▁co",
        -10.121119593416918
      ],
      [
        "▁utomhus",
        -10.121456427560672
      ],
      [
        "▁värt",
        -10.12187573434747
      ],
      [
        "drag",
        -10.122116685518247
      ],
      [
        "▁bry",
        -10.122245442726838
      ],
      [
        "▁Vem",
        -10.122646080502518
      ],
      [
        "▁användare",
        -10.12314201452117
      ],
      [
        "▁ändring",
        -10.123325507005466
      ],
      [
        "▁plocka",
        -10.123763412504964
      ],
      [
        "nivå",
        -10.123973569532035
      ],
      [
        "▁upplevelse",
        -10.12487444590454
      ],
      [
        "▁avseende",
        -10.124968938910216
      ],
      [
        "▁Ab",
        -10.125841515479356
      ],
      [
        "▁Bild",
        -10.126093292007392
      ],
      [
        "▁lyckats",
        -10.12640979709035
      ],
      [
        "▁problemet",
        -10.126506575646568
      ],
      [
        "▁härligt",
        -10.126681154393005
      ],
      [
        "▁Q",
        -10.126783168999859
      ],
      [
        "samt",
        -10.126808517994908
      ],
      [
        "▁varumärken",
        -10.127007117474133
      ],
      [
        "dla",
        -10.12741493889704
      ],
      [
        "▁organisation",
        -10.127960129385343
      ],
      [
        "▁radio",
        -10.128241626772873
      ],
      [
        "löst",
        -10.128261137427243
      ],
      [
        "▁omfattande",
        -10.130589260045538
      ],
      [
        "illa",
        -10.130766285139455
      ],
      [
        "▁familje",
        -10.13113283515983
      ],
      [
        "▁räkna",
        -10.131193479914781
      ],
      [
        "bas",
        -10.131532701355331
      ],
      [
        "län",
        -10.13192966104088
      ],
      [
        "▁ras",
        -10.132222070951057
      ],
      [
        "under",
        -10.132312221658207
      ],
      [
        "▁jorden",
        -10.1323646495624
      ],
      [
        "▁Stefan",
        -10.132673962646624
      ],
      [
        "▁ägare",
        -10.132685059237525
      ],
      [
        "33",
        -10.134068493297718
      ],
      [
        "▁stycken",
        -10.13469931811615
      ],
      [
        "▁fart",
        -10.135485403328193
      ],
      [
        "rid",
        -10.135839539937187
      ],
      [
        "26",
        -10.13619179226733
      ],
      [
        "▁Frankrike",
        -10.136295722738618
      ],
      [
        "▁verifiera",
        -10.136705190201779
      ],
      [
        "▁uppe",
        -10.136747709156648
      ],
      [
        "lid",
        -10.137097005569716
      ],
      [
        "Q",
        -10.137363580624713
      ],
      [
        "leg",
        -10.137379978915975
      ],
      [
        "▁Herr",
        -10.138053432852523
      ],
      [
        "hög",
        -10.138107982230572
      ],
      [
        "slår",
        -10.138144446184508
      ],
      [
        "▁\"S",
        -10.138172552040634
      ],
      [
        "▁Daniel",
        -10.138561246722512
      ],
      [
        "04",
        -10.138572175489127
      ],
      [
        "▁grader",
        -10.138895030554425
      ],
      [
        "▁tillfälle",
        -10.139065990376764
      ],
      [
        "ägare",
        -10.139947511835196
      ],
      [
        "▁fyller",
        -10.14074465021988
      ],
      [
        "▁08",
        -10.140812256236826
      ],
      [
        "lim",
        -10.140950484758369
      ],
      [
        "hör",
        -10.14100228234138
      ],
      [
        "▁styrelse",
        -10.141138223537912
      ],
      [
        "▁Danmark",
        -10.14170231675083
      ],
      [
        "▁politiker",
        -10.141748955690804
      ],
      [
        "-S",
        -10.14206751202395
      ],
      [
        "ations",
        -10.142503625033344
      ],
      [
        "▁Bok",
        -10.142642160768522
      ],
      [
        "▁inkomst",
        -10.14265162804276
      ],
      [
        "or,",
        -10.142673147221474
      ],
      [
        "▁sämre",
        -10.142831787820016
      ],
      [
        "▁studera",
        -10.143520135598475
      ],
      [
        "IN",
        -10.143590653505514
      ],
      [
        "platser",
        -10.14390533365708
      ],
      [
        "▁Folk",
        -10.144052708315057
      ],
      [
        "▁skydd",
        -10.144064360158879
      ],
      [
        "con",
        -10.144707779192288
      ],
      [
        "▁kilometer",
        -10.14482400402829
      ],
      [
        "▁tydlig",
        -10.14501478050674
      ],
      [
        "port",
        -10.145383709114512
      ],
      [
        "▁rapport",
        -10.145752813013985
      ],
      [
        "kurs",
        -10.146046909951142
      ],
      [
        "stat",
        -10.147031339961934
      ],
      [
        "▁motsvarande",
        -10.14783309699482
      ],
      [
        "fel",
        -10.148016228570402
      ],
      [
        "lämnade",
        -10.148144280126408
      ],
      [
        "lista",
        -10.148421226904182
      ],
      [
        "▁positivt",
        -10.148597780773503
      ],
      [
        "▁Gra",
        -10.148699201103057
      ],
      [
        "befinner",
        -10.148924705816082
      ],
      [
        "▁nämn",
        -10.149107560657846
      ],
      [
        "▁EU-",
        -10.149282963120234
      ],
      [
        "▁sväng",
        -10.149663850258392
      ],
      [
        "ob",
        -10.150227000186847
      ],
      [
        "ass",
        -10.150465309696395
      ],
      [
        "sett",
        -10.150602155418982
      ],
      [
        "▁detaljer",
        -10.15120641963434
      ],
      [
        "▁förut",
        -10.151255619661132
      ],
      [
        "▁klubben",
        -10.151478586002918
      ],
      [
        "ons",
        -10.151554078657382
      ],
      [
        "▁Ho",
        -10.152528788265162
      ],
      [
        "En",
        -10.153166267713196
      ],
      [
        "▁SVT",
        -10.154175924824525
      ],
      [
        "▁använde",
        -10.154250331847933
      ],
      [
        "▁vackert",
        -10.154323625340185
      ],
      [
        "▁springa",
        -10.154339715073903
      ],
      [
        "▁fas",
        -10.154484591273865
      ],
      [
        "kal",
        -10.154557761926778
      ],
      [
        "mmer",
        -10.154759410550566
      ],
      [
        "▁kris",
        -10.154822291240546
      ],
      [
        "hy",
        -10.155239289531146
      ],
      [
        "▁sl",
        -10.155367646178274
      ],
      [
        "▁snabbare",
        -10.1554403526878
      ],
      [
        "▁redo",
        -10.156296567700258
      ],
      [
        "US",
        -10.156502625443917
      ],
      [
        "rådet",
        -10.156512904405556
      ],
      [
        "▁Hel",
        -10.156712660659577
      ],
      [
        "vor",
        -10.157201052329421
      ],
      [
        "32",
        -10.15795167868207
      ],
      [
        "que",
        -10.15826835110163
      ],
      [
        "▁möt",
        -10.158410066682668
      ],
      [
        "▁fika",
        -10.158524382008878
      ],
      [
        "▁givetvis",
        -10.158545166031349
      ],
      [
        "bergs",
        -10.15881734352017
      ],
      [
        "tiska",
        -10.159045622883323
      ],
      [
        "▁båt",
        -10.159471313157308
      ],
      [
        "▁lugnt",
        -10.15948452396399
      ],
      [
        "ting",
        -10.15975420853711
      ],
      [
        "▁analys",
        -10.160024175549115
      ],
      [
        "stånd",
        -10.160248377578085
      ],
      [
        "▁(1)",
        -10.160422922108113
      ],
      [
        "▁bl.a.",
        -10.16053709635408
      ],
      [
        "▁yngre",
        -10.160602462361066
      ],
      [
        "49",
        -10.160619919594547
      ],
      [
        "▁rygg",
        -10.160656752602312
      ],
      [
        "▁beskriver",
        -10.160673925190425
      ],
      [
        "▁skogen",
        -10.16071727691141
      ],
      [
        "▁ända",
        -10.161023871112565
      ],
      [
        "visning",
        -10.161603536193057
      ],
      [
        "Våra",
        -10.16176577488926
      ],
      [
        "▁Någon",
        -10.162033213767076
      ],
      [
        "27",
        -10.162463349301532
      ],
      [
        "▁föreningen",
        -10.162861798702155
      ],
      [
        "▁art",
        -10.16333180861044
      ],
      [
        "▁bedöm",
        -10.163474168802454
      ],
      [
        "hall",
        -10.163647261679616
      ],
      [
        "gått",
        -10.163690074429239
      ],
      [
        "▁förändringar",
        -10.163905588880555
      ],
      [
        "▁magen",
        -10.16430822141799
      ],
      [
        "lands",
        -10.164500621322103
      ],
      [
        "▁plats.",
        -10.164592941768223
      ],
      [
        "▁Sök",
        -10.164602504556152
      ],
      [
        "▁ständigt",
        -10.165194761180082
      ],
      [
        "▁skuld",
        -10.165232345824348
      ],
      [
        "▁jämföra",
        -10.165481436853973
      ],
      [
        "ställning",
        -10.165653914449836
      ],
      [
        "▁paket",
        -10.165667785851095
      ],
      [
        "varande",
        -10.16581570150986
      ],
      [
        "öl",
        -10.16611353506594
      ],
      [
        "▁digitala",
        -10.166901958466404
      ],
      [
        "håll",
        -10.16743341461452
      ],
      [
        "hets",
        -10.167667914825408
      ],
      [
        "▁John",
        -10.168007444006413
      ],
      [
        "▁skaffa",
        -10.168021261907578
      ],
      [
        "▁röda",
        -10.168944967649171
      ],
      [
        "risken",
        -10.169146575431355
      ],
      [
        "problem",
        -10.169478431061323
      ],
      [
        "lor",
        -10.169661424111798
      ],
      [
        "▁salt",
        -10.170141831692346
      ],
      [
        "▁hyra",
        -10.170334123763165
      ],
      [
        "▁hänsyn",
        -10.170805326786956
      ],
      [
        "▁Italien",
        -10.171227591769162
      ],
      [
        "oerhör",
        -10.171302063410812
      ],
      [
        "▁minns",
        -10.17151297965789
      ],
      [
        "▁Kram",
        -10.171717726744667
      ],
      [
        "▁butiker",
        -10.172579106985145
      ],
      [
        "▁trend",
        -10.172756825276586
      ],
      [
        "kontroll",
        -10.172934636238027
      ],
      [
        "77",
        -10.17330097460017
      ],
      [
        "▁resurser",
        -10.173611266335426
      ],
      [
        "▁världen.",
        -10.17414568369289
      ],
      [
        "▁industri",
        -10.174421560961386
      ],
      [
        "▁bröd",
        -10.174861676534215
      ],
      [
        "bilder",
        -10.175042595412815
      ],
      [
        "ON",
        -10.17637658182175
      ],
      [
        "▁personen",
        -10.17648732904531
      ],
      [
        "08",
        -10.176593734091865
      ],
      [
        "▁TripAdvisor",
        -10.177807195113187
      ],
      [
        "ox",
        -10.178068357879265
      ],
      [
        "Däremot",
        -10.178271978708455
      ],
      [
        "EL",
        -10.178777805847462
      ],
      [
        "▁dotter",
        -10.179068739278419
      ],
      [
        "äll",
        -10.179224799319197
      ],
      [
        "▁Sten",
        -10.17931115265828
      ],
      [
        "▁kött",
        -10.179458027237152
      ],
      [
        "▁bedömning",
        -10.179572554035914
      ],
      [
        "cker",
        -10.180096124677679
      ],
      [
        "▁vind",
        -10.180755682456155
      ],
      [
        "▁Jämför",
        -10.18091383893583
      ],
      [
        "(och",
        -10.181679838425843
      ],
      [
        "▁Ch",
        -10.182650500638228
      ],
      [
        "▁rädda",
        -10.182893813701568
      ],
      [
        "▁(2",
        -10.183102929965646
      ],
      [
        "▁nödvändigt",
        -10.184071921445156
      ],
      [
        "▁växt",
        -10.184219745898156
      ],
      [
        "▁Tur",
        -10.184402581061878
      ],
      [
        "vil",
        -10.18486644204567
      ],
      [
        "▁djup",
        -10.185157805742811
      ],
      [
        "letar",
        -10.185448185289589
      ],
      [
        "▁konstigt",
        -10.18560926523685
      ],
      [
        "▁moderna",
        -10.185693339475309
      ],
      [
        "▁enhet",
        -10.18569517966096
      ],
      [
        "▁klubb",
        -10.185721198342387
      ],
      [
        "nda",
        -10.185854841245444
      ],
      [
        "▁filmer",
        -10.186202835300472
      ],
      [
        "▁görs",
        -10.186331109362543
      ],
      [
        "▁gruppen",
        -10.18637641575512
      ],
      [
        "▁detta.",
        -10.186681052533036
      ],
      [
        "▁känd",
        -10.186814351369348
      ],
      [
        "as.",
        -10.187433286579463
      ],
      [
        "mes",
        -10.187460457921683
      ],
      [
        "▁gång.",
        -10.187767815041378
      ],
      [
        "duk",
        -10.188004659945067
      ],
      [
        "▁Gar",
        -10.188306884509458
      ],
      [
        "▁stjärnor",
        -10.188450817380756
      ],
      [
        "jan",
        -10.18865645495129
      ],
      [
        "gon",
        -10.189231992276067
      ],
      [
        "▁stoppa",
        -10.189538254527896
      ],
      [
        "▁mörk",
        -10.190191944329285
      ],
      [
        "▁tisdag",
        -10.190290228230145
      ],
      [
        "▁illa",
        -10.190496854463122
      ],
      [
        "▁dokument",
        -10.190634222691376
      ],
      [
        "▁naturen",
        -10.191412129088064
      ],
      [
        "▁vila",
        -10.191625321633127
      ],
      [
        "▁resa.",
        -10.192102541548596
      ],
      [
        "ekt",
        -10.192602089928169
      ],
      [
        "▁idéer",
        -10.192799291139002
      ],
      [
        "▁Hus",
        -10.193302768713762
      ],
      [
        "▁onsdag",
        -10.19350268320569
      ],
      [
        "hu",
        -10.193669212988501
      ],
      [
        "▁sånt",
        -10.193957842353019
      ],
      [
        "▁mig,",
        -10.194146258048024
      ],
      [
        "▁hundar",
        -10.194402109383013
      ],
      [
        "▁nytta",
        -10.194997388454073
      ],
      [
        "industrin",
        -10.195138742680717
      ],
      [
        "▁avgörande",
        -10.195269375906273
      ],
      [
        "▁frisk",
        -10.195270656898838
      ],
      [
        "▁with",
        -10.196082735223769
      ],
      [
        "berättade",
        -10.196110883988547
      ],
      [
        "▁inre",
        -10.196468806340423
      ],
      [
        "▁döda",
        -10.196888711603924
      ],
      [
        "▁anti",
        -10.197161298433645
      ],
      [
        "ure",
        -10.19732073055523
      ],
      [
        "ive",
        -10.197350376506082
      ],
      [
        "▁Umeå",
        -10.197403619872137
      ],
      [
        "ity",
        -10.197994694981098
      ],
      [
        "▁grå",
        -10.198103471608581
      ],
      [
        "gan",
        -10.19825988217536
      ],
      [
        "natt!",
        -10.198290226011187
      ],
      [
        "▁Björn",
        -10.198322744167275
      ],
      [
        "5(",
        -10.198699671513364
      ],
      [
        "▁tand",
        -10.198758868808703
      ],
      [
        "▁Fr",
        -10.199144375116733
      ],
      [
        "ges",
        -10.199448618228095
      ],
      [
        "▁Lag",
        -10.199610999284635
      ],
      [
        "▁hittills",
        -10.200006566162322
      ],
      [
        "▁rädd",
        -10.20003004021841
      ],
      [
        "▁pågår",
        -10.200035449112441
      ],
      [
        "jobb",
        -10.200235242650717
      ],
      [
        "▁resan",
        -10.200355203715711
      ],
      [
        "besök",
        -10.200373580508346
      ],
      [
        "▁aktie",
        -10.200973971379499
      ],
      [
        "ugg",
        -10.201594758675101
      ],
      [
        "▁adress",
        -10.202282755397405
      ],
      [
        "▁serien",
        -10.202559864238049
      ],
      [
        "▁minskar",
        -10.20262349210981
      ],
      [
        "39",
        -10.202688281433039
      ],
      [
        "36",
        -10.203050098809806
      ],
      [
        "38",
        -10.2032439332551
      ],
      [
        "▁informationen",
        -10.20378253996535
      ],
      [
        "▁uppleva",
        -10.204280613681313
      ],
      [
        "▁häng",
        -10.204295953211556
      ],
      [
        "▁skogs",
        -10.204692802702246
      ],
      [
        "▁driva",
        -10.205167676486164
      ],
      [
        "▁löne",
        -10.2054729825411
      ],
      [
        "baserade",
        -10.205706642356247
      ],
      [
        "▁ungdoms",
        -10.205719482844847
      ],
      [
        "uck",
        -10.20583589077211
      ],
      [
        "▁öppnar",
        -10.206002089489006
      ],
      [
        "▁ledare",
        -10.206779471265873
      ],
      [
        "▁genomföra",
        -10.206812597899413
      ],
      [
        "▁hamnar",
        -10.206847288211062
      ],
      [
        "▁skatt",
        -10.207474853043975
      ],
      [
        "▁grundläggande",
        -10.207538267773186
      ],
      [
        "ost",
        -10.207774407038633
      ],
      [
        "▁Paris",
        -10.207934649872088
      ],
      [
        "▁Karl",
        -10.208079063004211
      ],
      [
        "-11",
        -10.208562918524185
      ],
      [
        "AS",
        -10.20862692766747
      ],
      [
        "▁göras",
        -10.20912371077005
      ],
      [
        "▁kallar",
        -10.209651147770012
      ],
      [
        "▁utrustning",
        -10.210164953722458
      ],
      [
        "▁vitt",
        -10.210209187517611
      ],
      [
        "Vilket",
        -10.210374698145612
      ],
      [
        "▁Kr",
        -10.21038567420592
      ],
      [
        "▁positiv",
        -10.2106226572985
      ],
      [
        "▁avsnitt",
        -10.210759127054793
      ],
      [
        "▁honom.",
        -10.210792773675093
      ],
      [
        "▁32",
        -10.211208538010299
      ],
      [
        "▁perioden",
        -10.211223534703688
      ],
      [
        "platsen",
        -10.2112663200901
      ],
      [
        "▁förmodligen",
        -10.21130468890323
      ],
      [
        "06",
        -10.2115266689756
      ],
      [
        "▁utbildnings",
        -10.211533718575216
      ],
      [
        "▁driver",
        -10.211723606343362
      ],
      [
        "▁kap",
        -10.212195545773996
      ],
      [
        "▁webbplatsen",
        -10.21240185170997
      ],
      [
        "▁Kultur",
        -10.212764868963554
      ],
      [
        "bor",
        -10.213378492449168
      ],
      [
        "▁känslor",
        -10.213705454971128
      ],
      [
        "▁Dag",
        -10.214368498750305
      ],
      [
        "ningarna",
        -10.214373837287711
      ],
      [
        "▁rök",
        -10.21488638731687
      ],
      [
        "▁politik",
        -10.215155010110408
      ],
      [
        "▁etc.",
        -10.215207772337973
      ],
      [
        "Något",
        -10.215240311832597
      ],
      [
        "▁sent",
        -10.215477455333282
      ],
      [
        "▁Ly",
        -10.215988142274037
      ],
      [
        "▁privata",
        -10.216198679213532
      ],
      [
        "▁längst",
        -10.216492356452823
      ],
      [
        "▁Ser",
        -10.216797566563923
      ],
      [
        "▁sömn",
        -10.217188406422133
      ],
      [
        "▁hopp",
        -10.218480899387599
      ],
      [
        "▁karta",
        -10.219500019064546
      ],
      [
        "Innan",
        -10.219636126019934
      ],
      [
        "09",
        -10.219696132871299
      ],
      [
        "02",
        -10.219753737800914
      ],
      [
        "▁Spel",
        -10.22019638701306
      ],
      [
        "▁styrelsen",
        -10.22023635713546
      ],
      [
        "▁total",
        -10.220411655665613
      ],
      [
        "▁titeln",
        -10.220889547888232
      ],
      [
        "▁kg",
        -10.221040765553774
      ],
      [
        "▁svarar",
        -10.221058746281884
      ],
      [
        "▁sjö",
        -10.221193200533351
      ],
      [
        "▁priserna",
        -10.221495422416218
      ],
      [
        "▁Kar",
        -10.221531415994681
      ],
      [
        "31",
        -10.221550967610725
      ],
      [
        "▁systemet",
        -10.221725763901526
      ],
      [
        "▁2,",
        -10.221825083360317
      ],
      [
        "▁allmän",
        -10.22220155377983
      ],
      [
        "▁omedelbart",
        -10.222241968044235
      ],
      [
        "▁tycka",
        -10.222256255927716
      ],
      [
        "bolaget",
        -10.222660594802937
      ],
      [
        "▁barn.",
        -10.222736753334393
      ],
      [
        "▁ikväll",
        -10.222816592691649
      ],
      [
        "▁orsaka",
        -10.222829272418716
      ],
      [
        "▁ses",
        -10.222949748632226
      ],
      [
        "▁balans",
        -10.222980778725459
      ],
      [
        "▁Helsingborg",
        -10.223125846721866
      ],
      [
        "▁rese",
        -10.223354799318994
      ],
      [
        "stöd",
        -10.223659309629225
      ],
      [
        "bruk",
        -10.223990075612074
      ],
      [
        "▁grön",
        -10.224017828713759
      ],
      [
        "teckning",
        -10.224231551764484
      ],
      [
        "ail",
        -10.224751705987012
      ],
      [
        "75",
        -10.225165699541128
      ],
      [
        "▁David",
        -10.225791000860013
      ],
      [
        "▁punkt",
        -10.225833704017308
      ],
      [
        "▁håret",
        -10.226183559142562
      ],
      [
        "▁Mark",
        -10.226399322752615
      ],
      [
        "▁toppen",
        -10.22682006016706
      ],
      [
        "▁mjuk",
        -10.226942408047567
      ],
      [
        "vandring",
        -10.227087873142592
      ],
      [
        "fritt",
        -10.227443180539845
      ],
      [
        "▁kompis",
        -10.22770842881066
      ],
      [
        "▁Dr",
        -10.227957976931362
      ],
      [
        "▁fakta",
        -10.22809471397718
      ],
      [
        "▁af",
        -10.228238699004786
      ],
      [
        "▁sko",
        -10.228330265383983
      ],
      [
        "▁tillgänglig",
        -10.228926361613023
      ],
      [
        "tagit",
        -10.230535405202307
      ],
      [
        "politik",
        -10.23081821038552
      ],
      [
        "▁kar",
        -10.231187016160023
      ],
      [
        "skatt",
        -10.231237580086518
      ],
      [
        "▁funnits",
        -10.231736466607217
      ],
      [
        "ts.",
        -10.231873863479281
      ],
      [
        "mas",
        -10.232450584252048
      ],
      [
        "▁säsong",
        -10.232651405749719
      ],
      [
        "▁dubbel",
        -10.233117998407593
      ],
      [
        "▁07",
        -10.234061246537047
      ],
      [
        "projekt",
        -10.234105269307715
      ],
      [
        "▁bilderna",
        -10.23443562165778
      ],
      [
        "bad",
        -10.234496185710048
      ],
      [
        "▁gräns",
        -10.23459393958206
      ],
      [
        "▁blommor",
        -10.234844660527887
      ],
      [
        "▁underbara",
        -10.235094928532469
      ],
      [
        "▁nätverk",
        -10.235408462225386
      ],
      [
        "▁unik",
        -10.235546984781648
      ],
      [
        "▁konferens",
        -10.236336350651827
      ],
      [
        "▁tvinga",
        -10.236682415596754
      ],
      [
        "51",
        -10.236798163751518
      ],
      [
        "▁framförallt",
        -10.237737677893007
      ],
      [
        "ica",
        -10.237858707185861
      ],
      [
        "▁nationella",
        -10.23831540567192
      ],
      [
        "▁undantag",
        -10.238477743688026
      ],
      [
        "▁startar",
        -10.23850123416767
      ],
      [
        "boken",
        -10.23874116976005
      ],
      [
        "▁gilla",
        -10.238808725242745
      ],
      [
        "03",
        -10.238900135284144
      ],
      [
        "göra",
        -10.238930994720407
      ],
      [
        "▁kunskaper",
        -10.238994657562602
      ],
      [
        "▁Får",
        -10.239228973013363
      ],
      [
        "prov",
        -10.239419143009046
      ],
      [
        "vagn",
        -10.239716924135713
      ],
      [
        "▁sand",
        -10.240201303779713
      ],
      [
        "▁Ryssland",
        -10.240348217069105
      ],
      [
        "talet",
        -10.240980213138847
      ],
      [
        "▁månaden",
        -10.241115203697907
      ],
      [
        "▁hävda",
        -10.241195381290723
      ],
      [
        "bjöd",
        -10.241358379081644
      ],
      [
        "lä",
        -10.241429147663151
      ],
      [
        "lampa",
        -10.242382208057828
      ],
      [
        "▁erfarenheter",
        -10.242627087308332
      ],
      [
        "▁organisationer",
        -10.243207422804693
      ],
      [
        "mässigt",
        -10.243221916631898
      ],
      [
        "kat",
        -10.244008608982943
      ],
      [
        "▁svarta",
        -10.244125378097289
      ],
      [
        "▁doft",
        -10.244500302094359
      ],
      [
        "klubb",
        -10.244558692487153
      ],
      [
        "sjön",
        -10.244884502158046
      ],
      [
        "spelare",
        -10.24508700993199
      ],
      [
        "vall",
        -10.245124255685457
      ],
      [
        "▁hål",
        -10.245130410828946
      ],
      [
        "förening",
        -10.245361410233109
      ],
      [
        "▁havet",
        -10.245446997021844
      ],
      [
        "pon",
        -10.245455917406755
      ],
      [
        "▁West",
        -10.245796775310566
      ],
      [
        "äkt",
        -10.245893284712519
      ],
      [
        "▁nyheter",
        -10.24663550981256
      ],
      [
        "▁Jonas",
        -10.247341552218577
      ],
      [
        "▁Dagens",
        -10.24762439861127
      ],
      [
        "stan",
        -10.248039498151586
      ],
      [
        "vad",
        -10.248050295433604
      ],
      [
        "▁Mina",
        -10.248110100966803
      ],
      [
        "▁ko",
        -10.248204345202335
      ],
      [
        "▁motion",
        -10.248879319893666
      ],
      [
        "95",
        -10.248940218635642
      ],
      [
        "▁uppmärksamma",
        -10.249237903735294
      ],
      [
        "▁verksamheter",
        -10.249286649537336
      ],
      [
        "34",
        -10.249382579850606
      ],
      [
        "▁Fo",
        -10.249860866104656
      ],
      [
        "▁säg",
        -10.250393535800056
      ],
      [
        "▁Svart",
        -10.250669953813762
      ],
      [
        "▁grill",
        -10.251006996751405
      ],
      [
        "46",
        -10.25135733664464
      ],
      [
        "fullmäktige",
        -10.251420257241742
      ],
      [
        "▁berör",
        -10.2515360130221
      ],
      [
        "▁mönster",
        -10.251792186840358
      ],
      [
        "▁karaktär",
        -10.251843347656939
      ],
      [
        "▁metod",
        -10.252267332610216
      ],
      [
        "▁fira",
        -10.252345001273433
      ],
      [
        "hamn",
        -10.252495850965774
      ],
      [
        "out",
        -10.252812397022598
      ],
      [
        "lip",
        -10.252832375591149
      ],
      [
        "öm",
        -10.253267429902762
      ],
      [
        "▁trygghet",
        -10.253501339899524
      ],
      [
        "▁effektivt",
        -10.253789376342956
      ],
      [
        "▁glada",
        -10.254135939133686
      ],
      [
        "▁aktivt",
        -10.25452621707759
      ],
      [
        "▁Sä",
        -10.254667629774307
      ],
      [
        "▁tillfällen",
        -10.255211905161357
      ],
      [
        "▁Sjö",
        -10.255477641947907
      ],
      [
        "▁närvarande",
        -10.255723104190611
      ],
      [
        "▁tekniska",
        -10.256815670117817
      ],
      [
        "bin",
        -10.25705165794421
      ],
      [
        "▁gäng",
        -10.257267009044922
      ],
      [
        "-1",
        -10.257316607930685
      ],
      [
        "unt",
        -10.257863145262144
      ],
      [
        "▁Nyheter",
        -10.258105102835776
      ],
      [
        "istiska",
        -10.258126034740231
      ],
      [
        "möte",
        -10.25816386631238
      ],
      [
        "▁euro",
        -10.25819103862515
      ],
      [
        "▁tider",
        -10.258262631476544
      ],
      [
        "sund",
        -10.258450884298648
      ],
      [
        "▁Windows",
        -10.25846834360854
      ],
      [
        "▁erbjuds",
        -10.25869523120449
      ],
      [
        "slut",
        -10.258767970063829
      ],
      [
        "▁positiva",
        -10.259197379161215
      ],
      [
        "▁svåra",
        -10.259628748510153
      ],
      [
        "lam",
        -10.260023605265925
      ],
      [
        "▁Tid",
        -10.260124443379631
      ],
      [
        "▁snygga",
        -10.260448472873577
      ],
      [
        "▁2000",
        -10.260628787385265
      ],
      [
        "▁växa",
        -10.260840095892304
      ],
      [
        "▁medier",
        -10.261052265385299
      ],
      [
        "anska",
        -10.261181837081494
      ],
      [
        "qvist",
        -10.262050427800164
      ],
      [
        "kod",
        -10.262206157243295
      ],
      [
        "▁variera",
        -10.262398783470305
      ],
      [
        "handel",
        -10.262479768509987
      ],
      [
        "▁billig",
        -10.26359461016938
      ],
      [
        "▁svarade",
        -10.263925553722432
      ],
      [
        "▁igen,",
        -10.264159309806058
      ],
      [
        "▁unika",
        -10.264571284097963
      ],
      [
        "▁Sand",
        -10.265135963512446
      ],
      [
        "djur",
        -10.26517890445385
      ],
      [
        "▁vardag",
        -10.265247463429782
      ],
      [
        "rade",
        -10.265331826306815
      ],
      [
        "▁köket",
        -10.265790276602095
      ],
      [
        "▁enskild",
        -10.265927618705947
      ],
      [
        "▁Natur",
        -10.266690768117346
      ],
      [
        "▁fru",
        -10.266697865687263
      ],
      [
        "▁resor",
        -10.267095138273582
      ],
      [
        "die",
        -10.267435185656728
      ],
      [
        "flykt",
        -10.268095152210455
      ],
      [
        "ller",
        -10.269005955604822
      ],
      [
        "▁mera",
        -10.269009057865688
      ],
      [
        "strand",
        -10.26957991177118
      ],
      [
        "▁maten",
        -10.269705563437869
      ],
      [
        "▁garantera",
        -10.269724995793888
      ],
      [
        "▁underbar",
        -10.270632537153686
      ],
      [
        "lek",
        -10.2714486070785
      ],
      [
        "▁äventyr",
        -10.271703248573413
      ],
      [
        "▁Lär",
        -10.271716963385378
      ],
      [
        "▁Stora",
        -10.27182323673038
      ],
      [
        "▁not",
        -10.271907174632862
      ],
      [
        "erna,",
        -10.271944470330268
      ],
      [
        "olja",
        -10.27229927414547
      ],
      [
        "▁Lu",
        -10.272534965825761
      ],
      [
        "▁By",
        -10.272641343230479
      ],
      [
        "98",
        -10.273123529551347
      ],
      [
        "▁Mål",
        -10.273143653995513
      ],
      [
        "▁grej",
        -10.273583862042745
      ],
      [
        "▁utrymme",
        -10.273864595326451
      ],
      [
        "▁bevis",
        -10.27386895019611
      ],
      [
        "▁produkten",
        -10.273999288625774
      ],
      [
        "uff",
        -10.274070332626765
      ],
      [
        "komst",
        -10.274607993383603
      ],
      [
        "▁Eva",
        -10.274840545400123
      ],
      [
        "De",
        -10.275187510920523
      ],
      [
        ".”",
        -10.275444257942427
      ],
      [
        "▁jobbat",
        -10.275645326003207
      ],
      [
        "▁flertal",
        -10.276078895158653
      ],
      [
        "svenska",
        -10.27620615226504
      ],
      [
        "▁snygg",
        -10.276311528482212
      ],
      [
        "▁insatser",
        -10.276565353126799
      ],
      [
        "▁anslutning",
        -10.27697592786962
      ],
      [
        "▁förslag.",
        -10.277208084131258
      ],
      [
        "▁fordon",
        -10.277302735983392
      ],
      [
        "glas",
        -10.277470480934655
      ],
      [
        "möter",
        -10.277668557028507
      ],
      [
        "▁Da",
        -10.278411413388598
      ],
      [
        "▁kritik",
        -10.278919656065549
      ],
      [
        "▁Hela",
        -10.27893109943594
      ],
      [
        "▁kostnad",
        -10.279133940935802
      ],
      [
        "▁ordet",
        -10.279748659686842
      ],
      [
        "miljö",
        -10.280121480160505
      ],
      [
        "ugn",
        -10.280153342684432
      ],
      [
        "ID",
        -10.280644549936433
      ],
      [
        "▁bla",
        -10.28099855467664
      ],
      [
        "lat",
        -10.281704444067259
      ],
      [
        "givande",
        -10.28277329305881
      ],
      [
        "▁betalnings",
        -10.28298497589063
      ],
      [
        "▁undersökning",
        -10.28299293322544
      ],
      [
        "Om",
        -10.283156350709023
      ],
      [
        "▁vintern",
        -10.28325277175984
      ],
      [
        "ban",
        -10.283736727250464
      ],
      [
        "full",
        -10.283851540249874
      ],
      [
        "syn",
        -10.284173928078035
      ],
      [
        "▁Red",
        -10.284258131671066
      ],
      [
        "▁forsknings",
        -10.28487913578295
      ],
      [
        "ätt",
        -10.285495909417794
      ],
      [
        "torp",
        -10.285774691781235
      ],
      [
        "▁sängen",
        -10.285934149138807
      ],
      [
        "▁tidningen",
        -10.285972073017552
      ],
      [
        "sats",
        -10.287176515739725
      ],
      [
        "mot",
        -10.28737461742651
      ],
      [
        "▁gräs",
        -10.287523666652216
      ],
      [
        "elser",
        -10.288150784934897
      ],
      [
        "▁Br",
        -10.288391796547291
      ],
      [
        "▁mus",
        -10.28851512780875
      ],
      [
        "tz",
        -10.28855166322862
      ],
      [
        "▁spelat",
        -10.28862537571437
      ],
      [
        "78",
        -10.288888834138222
      ],
      [
        "▁Storbritannien",
        -10.288921251984823
      ],
      [
        "varken",
        -10.289714152864274
      ],
      [
        "▁härliga",
        -10.289811172686415
      ],
      [
        "▁förtroende",
        -10.289901872298554
      ],
      [
        "ledes",
        -10.289992305922704
      ],
      [
        "▁van",
        -10.290069776072706
      ],
      [
        "▁eld",
        -10.290286440478258
      ],
      [
        "▁mängder",
        -10.290445870231054
      ],
      [
        "▁nu,",
        -10.29059071117304
      ],
      [
        "▁öl",
        -10.290609273428332
      ],
      [
        "▁syns",
        -10.290889566365562
      ],
      [
        "mma",
        -10.290980346940808
      ],
      [
        "▁ställen",
        -10.291447700954963
      ],
      [
        "▁gas",
        -10.292482977709936
      ],
      [
        "▁extremt",
        -10.293134686017865
      ],
      [
        "bel",
        -10.29429134663644
      ],
      [
        "▁Ver",
        -10.295068939491959
      ],
      [
        "marknad",
        -10.295466054258656
      ],
      [
        "▁metoder",
        -10.295658102510073
      ],
      [
        "ick",
        -10.29567435095
      ],
      [
        "▁e-post",
        -10.295738102112113
      ],
      [
        "▁drag",
        -10.295971670696797
      ],
      [
        "act",
        -10.296745171986581
      ],
      [
        "stu",
        -10.297355981377287
      ],
      [
        "or.",
        -10.29758108734416
      ],
      [
[...]
