{
  "version": "1.0",
  "truncation": null,
  "padding": null,
  "added_tokens": [
    {
      "id": 0,
      "special": true,
      "content": "[PAD]",
      "single_word": false,
      "lstrip": false,
      "rstrip": false,
      "normalized": false
    },
    {
      "id": 1,
      "special": true,
      "content": "[UNK]",
      "single_word": false,
      "lstrip": false,
      "rstrip": false,
      "normalized": false
    },
    {
      "id": 2,
      "special": true,
      "content": "[MASK]",
      "single_word": false,
      "lstrip": false,
      "rstrip": false,
      "normalized": false
    },
    {
      "id": 3,
      "special": true,
      "content": "[CLS]",
      "single_word": false,
      "lstrip": false,
      "rstrip": false,
      "normalized": false
    },
    {
      "id": 4,
      "special": true,
      "content": "[SEP]",
      "single_word": false,
      "lstrip": false,
      "rstrip": false,
      "normalized": false
    }
  ],
  "normalizer": {
    "type": "Sequence",
    "normalizers": [
      {
        "type": "Nmt"
      },
      {
        "type": "NFKC"
      },
      {
        "type": "Replace",
        "pattern": {
          "Regex": " {2,}"
        },
        "content": " "
      }
    ]
  },
  "pre_tokenizer": {
    "type": "Sequence",
    "pretokenizers": [
      {
        "type": "Metaspace",
        "replacement": "▁",
        "add_prefix_space": true
      },
      {
        "type": "Split",
        "pattern": {
          "Regex": "\\d"
        },
        "behavior": "MergedWithPrevious",
        "invert": false
      },
      {
        "type": "Punctuation",
        "behavior": "Isolated"
      }
    ]
  },
  "post_processor": {
    "type": "TemplateProcessing",
    "single": [
      {
        "SpecialToken": {
          "id": "[CLS]",
          "type_id": 0
        }
      },
      {
        "Sequence": {
          "id": "A",
          "type_id": 0
        }
      },
      {
        "SpecialToken": {
          "id": "[SEP]",
          "type_id": 0
        }
      }
    ],
    "pair": [
      {
        "SpecialToken": {
          "id": "[CLS]",
          "type_id": 0
        }
      },
      {
        "Sequence": {
          "id": "A",
          "type_id": 0
        }
      },
      {
        "SpecialToken": {
          "id": "[SEP]",
          "type_id": 0
        }
      },
      {
        "Sequence": {
          "id": "B",
          "type_id": 1
        }
      },
      {
        "SpecialToken": {
          "id": "[SEP]",
          "type_id": 1
        }
      }
    ],
    "special_tokens": {
      "[CLS]": {
        "id": "[CLS]",
        "ids": [
          3
        ],
        "tokens": [
          "[CLS]"
        ]
      },
      "[SEP]": {
        "id": "[SEP]",
        "ids": [
          4
        ],
        "tokens": [
          "[SEP]"
        ]
      }
    }
  },
  "decoder": {
    "type": "Metaspace",
    "replacement": "▁",
    "add_prefix_space": true
  },
  "model": {
    "type": "Unigram",
    "unk_id": 1,
    "vocab": [
      [
        "[PAD]",
        0.0
      ],
      [
        "[UNK]",
        0.0
      ],
      [
        "[MASK]",
        0.0
      ],
      [
        "[CLS]",
        0.0
      ],
      [
        "[SEP]",
        0.0
      ],
      [
        "▁",
        -2.1477155868988724
      ],
      [
        ".",
        -3.1839758328197156
      ],
      [
        ",",
        -3.83851303041401
      ],
      [
        "▁och",
        -3.9421989910963333
      ],
      [
        "i",
        -4.073699884874625
      ],
      [
        "▁att",
        -4.195432885719743
      ],
      [
        "s",
        -4.289330197974138
      ],
      [
        "▁är",
        -4.560402796152271
      ],
      [
        "▁som",
        -4.589549311731414
      ],
      [
        "▁på",
        -4.590932183506467
      ],
      [
        "▁för",
        -4.673940581570573
      ],
      [
        "▁en",
        -4.69181085638926
      ],
      [
        "0",
        -4.692651537845162
      ],
      [
        "▁det",
        -4.723873566030477
      ],
      [
        "a",
        -4.769512763922922
      ],
      [
        "1",
        -4.78772312768789
      ],
      [
        "t",
        -4.79268109292201
      ],
      [
        "▁med",
        -4.854609258487589
      ],
      [
        "▁av",
        -4.8780983616160825
      ],
      [
        "-",
        -4.944884974160207
      ],
      [
        "▁till",
        -5.0202819742929385
      ],
      [
        "2",
        -5.064674440470306
      ],
      [
        "▁har",
        -5.152236516190047
      ],
      [
        "en",
        -5.203464781021804
      ],
      [
        "▁jag",
        -5.305409853543608
      ],
      [
        "▁inte",
        -5.368452268679576
      ],
      [
        "▁om",
        -5.397393353035795
      ],
      [
        "▁den",
        -5.4681734743593715
      ],
      [
        "▁ett",
        -5.517745298882257
      ],
      [
        "e",
        -5.5549325557615425
      ],
      [
        "n",
        -5.558255293845896
      ],
      [
        ":",
        -5.569325549635625
      ],
      [
        "▁så",
        -5.604891924109381
      ],
      [
        "▁du",
        -5.652080738757366
      ],
      [
        "▁kan",
        -5.6761946829040895
      ],
      [
        "▁de",
        -5.692344458836317
      ],
      [
        "r",
        -5.699055948288503
      ],
      [
        "5",
        -5.737205294724678
      ],
      [
        "3",
        -5.762501780464266
      ],
      [
        "▁vi",
        -5.768639597148027
      ],
      [
        ")",
        -5.780957469166562
      ],
      [
        "er",
        -5.845979384957392
      ],
      [
        "▁var",
        -5.877062432202319
      ],
      [
        "!",
        -5.87880798597843
      ],
      [
        "(",
        -5.900787753415358
      ],
      [
        "4",
        -5.929072568900828
      ],
      [
        "▁Det",
        -5.938550805596396
      ],
      [
        "9",
        -5.976695198863663
      ],
      [
        "▁från",
        -5.982076789057476
      ],
      [
        "▁man",
        -6.002654576775022
      ],
      [
        "\"",
        -6.00729103673774
      ],
      [
        "6",
        -6.111004053171996
      ],
      [
        "▁eller",
        -6.112675287228377
      ],
      [
        "▁men",
        -6.146307335159147
      ],
      [
        "8",
        -6.162783339292776
      ],
      [
        "7",
        -6.167800606852513
      ],
      [
        "?",
        -6.195968893327628
      ],
      [
        "/",
        -6.256883398711128
      ],
      [
        "▁ska",
        -6.304475391787625
      ],
      [
        "▁sig",
        -6.348285259540358
      ],
      [
        "o",
        -6.387562423970351
      ],
      [
        "d",
        -6.416371440138835
      ],
      [
        "▁in",
        -6.441706010047666
      ],
      [
        "▁Jag",
        -6.4660041462244795
      ],
      [
        "▁ut",
        -6.468581249796621
      ],
      [
        "▁här",
        -6.475690702908095
      ],
      [
        "▁när",
        -6.478846213046534
      ],
      [
        "▁upp",
        -6.488894596506073
      ],
      [
        "–",
        -6.5026321243942515
      ],
      [
        "de",
        -6.519212035398292
      ],
      [
        "m",
        -6.527111148114514
      ],
      [
        "▁kommer",
        -6.531923177779376
      ],
      [
        "ar",
        -6.55069893216854
      ],
      [
        "▁vara",
        -6.596276714121519
      ],
      [
        "▁I",
        -6.605041575519801
      ],
      [
        "▁där",
        -6.618757043852103
      ],
      [
        "▁finns",
        -6.6349469749789165
      ],
      [
        "▁Vi",
        -6.6569539342749025
      ],
      [
        "▁mer",
        -6.6693122401041816
      ],
      [
        "▁alla",
        -6.677146159664202
      ],
      [
        "▁han",
        -6.694672935625658
      ],
      [
        "▁nu",
        -6.733041330967186
      ],
      [
        "▁under",
        -6.751100714458081
      ],
      [
        "▁också",
        -6.792252719825868
      ],
      [
        "▁får",
        -6.800361455589126
      ],
      [
        "▁mycket",
        -6.809337626752768
      ],
      [
        "▁över",
        -6.814041772275141
      ],
      [
        "▁år",
        -6.8215849323287685
      ],
      [
        "▁mig",
        -6.824658546788095
      ],
      [
        "▁bra",
        -6.824659801598459
      ],
      [
        "”",
        -6.841917981422396
      ],
      [
        "▁efter",
        -6.844701980423013
      ],
      [
        "▁lite",
        -6.84694862446306
      ],
      [
        "▁ha",
        -6.877885510506063
      ],
      [
        "▁vill",
        -6.87943125481948
      ],
      [
        "et",
        -6.898174925072976
      ],
      [
        "▁då",
        -6.907782207935343
      ],
      [
        "▁andra",
        -6.9078956928916515
      ],
      [
        "▁få",
        -6.911603825988795
      ],
      [
        "▁även",
        -6.923718573644063
      ],
      [
        "▁bara",
        -6.926809204269675
      ],
      [
        "▁hur",
        -6.933002999875514
      ],
      [
        "▁vid",
        -6.947334046002796
      ],
      [
        "▁dig",
        -6.978132482707689
      ],
      [
        "▁Men",
        -7.008538382159699
      ],
      [
        "▁vad",
        -7.036952440136817
      ],
      [
        "▁hade",
        -7.041463614505711
      ],
      [
        "▁skulle",
        -7.069907166358876
      ],
      [
        "▁än",
        -7.0813462202875765
      ],
      [
        "▁blir",
        -7.084954965267531
      ],
      [
        "g",
        -7.1029023418335555
      ],
      [
        "▁En",
        -7.11977631129025
      ],
      [
        "▁mot",
        -7.138358374650014
      ],
      [
        "▁sin",
        -7.14184591410203
      ],
      [
        "▁många",
        -7.178720941012918
      ],
      [
        "v",
        -7.182187266000469
      ],
      [
        "▁göra",
        -7.18286631337029
      ],
      [
        "▁gör",
        -7.185763759581528
      ],
      [
        "k",
        -7.1867167567095205
      ],
      [
        "l",
        -7.199448886715368
      ],
      [
        "▁min",
        -7.205023996745156
      ],
      [
        "▁din",
        -7.213407222829304
      ],
      [
        "▁ju",
        -7.221860270870881
      ],
      [
        "▁Den",
        -7.22926718725202
      ],
      [
        "▁detta",
        -7.239478759589916
      ],
      [
        "▁För",
        -7.246118634626445
      ],
      [
        "▁hon",
        -7.256972561806808
      ],
      [
        "▁oss",
        -7.262419643296612
      ],
      [
        "▁utan",
        -7.265861206224196
      ],
      [
        "▁sedan",
        -7.277108848957525
      ],
      [
        "▁något",
        -7.277120668416076
      ],
      [
        "p",
        -7.294589623312374
      ],
      [
        "are",
        -7.312615962432076
      ],
      [
        "▁De",
        -7.316234985208398
      ],
      [
        "▁se",
        -7.328900846059977
      ],
      [
        "▁olika",
        -7.329914934288897
      ],
      [
        "f",
        -7.330241715549175
      ],
      [
        "▁allt",
        -7.341543656641775
      ],
      [
        "▁två",
        -7.351084085654419
      ],
      [
        "▁bli",
        -7.378039300712535
      ],
      [
        "▁del",
        -7.390477497116379
      ],
      [
        "h",
        -7.39098423628189
      ],
      [
        "▁genom",
        -7.396467239282911
      ],
      [
        "▁någon",
        -7.398429984246057
      ],
      [
        "▁säger",
        -7.401988047644949
      ],
      [
        "▁går",
        -7.41961658947406
      ],
      [
        "▁helt",
        -7.429447219556973
      ],
      [
        "▁fick",
        -7.467328947177686
      ],
      [
        "▁nya",
        -7.467899876959299
      ],
      [
        "▁hela",
        -7.487917292650396
      ],
      [
        "▁fram",
        -7.494251469599979
      ],
      [
        "▁Om",
        -7.494815765031111
      ],
      [
        "▁inom",
        -7.502056326110532
      ],
      [
        "▁varit",
        -7.518856014659979
      ],
      [
        "▁blev",
        -7.52245026471819
      ],
      [
        "erna",
        -7.522969066726461
      ],
      [
        "▁måste",
        -7.525382660269193
      ],
      [
        "▁första",
        -7.531287447102159
      ],
      [
        "▁några",
        -7.541533448541747
      ],
      [
        "▁dem",
        -7.554191746837162
      ],
      [
        "▁samt",
        -7.558032749457881
      ],
      [
        "▁denna",
        -7.569827997415498
      ],
      [
        "▁mellan",
        -7.581382749559804
      ],
      [
        "▁Du",
        -7.582226932698839
      ],
      [
        "▁kunna",
        -7.592077937756436
      ],
      [
        "ade",
        -7.610356859894871
      ],
      [
        "▁Sverige",
        -7.633617720663148
      ],
      [
        "▁S",
        -7.634107820040272
      ],
      [
        "▁När",
        -7.6341502526843446
      ],
      [
        "▁sätt",
        -7.645688343908343
      ],
      [
        "▁Och",
        -7.658263673660727
      ],
      [
        "&",
        -7.659503127949934
      ],
      [
        "▁själv",
        -7.666310086920742
      ],
      [
        "▁vår",
        -7.673279132948284
      ],
      [
        "▁barn",
        -7.674476654136333
      ],
      [
        "▁tid",
        -7.680277885636114
      ],
      [
        "▁annat",
        -7.684637363291472
      ],
      [
        "c",
        -7.686268811287629
      ],
      [
        "▁ser",
        -7.687973209135006
      ],
      [
        ";",
        -7.688961478338667
      ],
      [
        "▁väl",
        -7.696087937305132
      ],
      [
        "▁rätt",
        -7.7023983655799135
      ],
      [
        "å",
        -7.7062639288916355
      ],
      [
        "y",
        -7.718635823143867
      ],
      [
        "▁Så",
        -7.7317744236746915
      ],
      [
        "▁vilket",
        -7.733286667988857
      ],
      [
        "▁hos",
        -7.734299174987319
      ],
      [
        "▁sina",
        -7.736651126698877
      ],
      [
        "▁både",
        -7.744054717931393
      ],
      [
        "▁dag",
        -7.749420921488307
      ],
      [
        "▁Nu",
        -7.778358289644856
      ],
      [
        "▁våra",
        -7.77935296147581
      ],
      [
        "▁gå",
        -7.787240525943284
      ],
      [
        "▁stor",
        -7.804759921644893
      ],
      [
        "u",
        -7.806740445469211
      ],
      [
        "ande",
        -7.808899521848069
      ],
      [
        "▁behöver",
        -7.8092529037369385
      ],
      [
        "▁kanske",
        -7.8205386476170435
      ],
      [
        "▁ny",
        -7.8224739169051904
      ],
      [
        "▁dessa",
        -7.825875656351988
      ],
      [
        "▁bästa",
        -7.833770146757612
      ],
      [
        "▁På",
        -7.8356796698606885
      ],
      [
        "▁innan",
        -7.849731261418571
      ],
      [
        "▁vet",
        -7.854316428115709
      ],
      [
        "▁flera",
        -7.8647327329902605
      ],
      [
        "ingen",
        -7.876563052273651
      ],
      [
        "▁idag",
        -7.87694524817152
      ],
      [
        "S",
        -7.899653015680956
      ],
      [
        "▁tar",
        -7.9054463025735675
      ],
      [
        "▁Han",
        -7.908043958864885
      ],
      [
        "▁samma",
        -7.909402404427524
      ],
      [
        "▁ger",
        -7.911663734194596
      ],
      [
        "%",
        -7.911927880754913
      ],
      [
        "▁A",
        -7.915051612662875
      ],
      [
        "b",
        -7.915958138623324
      ],
      [
        "▁ner",
        -7.916421339932118
      ],
      [
        "▁hem",
        -7.9224872631128065
      ],
      [
        "▁alltid",
        -7.925196693894289
      ],
      [
        "▁kom",
        -7.927638361937447
      ],
      [
        "▁sitt",
        -7.93063600668472
      ],
      [
        "▁ditt",
        -7.933716467260206
      ],
      [
        "▁bort",
        -7.940699132394753
      ],
      [
        "▁stora",
        -7.9530497741879955
      ],
      [
        "▁tre",
        -7.956246148501625
      ],
      [
        "▁Här",
        -7.962453515877865
      ],
      [
        "▁be",
        -7.964495637527726
      ],
      [
        "▁varje",
        -7.967005095703632
      ],
      [
        "▁bland",
        -7.970526779821952
      ],
      [
        "▁Läs",
        -7.973737625203739
      ],
      [
        "ens",
        -7.976060294315527
      ],
      [
        "▁Att",
        -7.977927017643093
      ],
      [
        "▁väldigt",
        -7.991552629094761
      ],
      [
        "▁hitta",
        -8.00049727843292
      ],
      [
        "▁bättre",
        -8.003355850539776
      ],
      [
        "arna",
        -8.003422041157
      ],
      [
        "▁Detta",
        -8.009272765401143
      ],
      [
        "▁igen",
        -8.011862360992414
      ],
      [
        "▁tycker",
        -8.013296475677649
      ],
      [
        "ur",
        -8.019863530111827
      ],
      [
        "▁ligger",
        -8.022506077188767
      ],
      [
        "▁gäller",
        -8.038459669029788
      ],
      [
        "▁fall",
        -8.044005158100493
      ],
      [
        "▁nog",
        -8.05290939938944
      ],
      [
        "▁tidigare",
        -8.063207879466365
      ],
      [
        "▁just",
        -8.06464392334981
      ],
      [
        "ing",
        -8.070432305072003
      ],
      [
        "▁fått",
        -8.070545849077938
      ],
      [
        "▁mitt",
        -8.077286229187957
      ],
      [
        "▁gång",
        -8.085362307522706
      ],
      [
        "▁komma",
        -8.095622555613446
      ],
      [
        "▁B",
        -8.09857065827417
      ],
      [
        "▁hotell",
        -8.098574687971373
      ],
      [
        "|",
        -8.103375549111899
      ],
      [
        "▁ge",
        -8.120876787705635
      ],
      [
        "des",
        -8.12391025179175
      ],
      [
        "▁riktigt",
        -8.124921982563055
      ],
      [
        "▁svenska",
        -8.128571627343796
      ],
      [
        "▁mest",
        -8.128822193884883
      ],
      [
        "▁Har",
        -8.130338023423572
      ],
      [
        "▁tror",
        -8.13138125800929
      ],
      [
        "▁Med",
        -8.135160069910837
      ],
      [
        "▁åt",
        -8.138626883840768
      ],
      [
        "▁dock",
        -8.140838876627306
      ],
      [
        "▁Vad",
        -8.143740591498645
      ],
      [
        "▁skall",
        -8.144649366670581
      ],
      [
        "▁annan",
        -8.151366658513124
      ],
      [
        "'",
        -8.155094164423122
      ],
      [
        "▁eftersom",
        -8.156472401241263
      ],
      [
        "▁enligt",
        -8.157542756144336
      ],
      [
        "▁gick",
        -8.162860608148753
      ],
      [
        "▁redan",
        -8.164765416155603
      ],
      [
        "▁fler",
        -8.175426866011428
      ],
      [
        "▁Ett",
        -8.176101551457164
      ],
      [
        "▁plats",
        -8.18011530007395
      ],
      [
        "▁gratis",
        -8.18407161397559
      ],
      [
        "▁Hur",
        -8.184158281528388
      ],
      [
        "▁runt",
        -8.189150149579437
      ],
      [
        "▁dina",
        -8.195913387725605
      ],
      [
        "▁personer",
        -8.197025556675053
      ],
      [
        "▁C",
        -8.199515559614728
      ],
      [
        "▁människor",
        -8.20305405644867
      ],
      [
        "▁F",
        -8.204255059835244
      ],
      [
        "x",
        -8.205928372634242
      ],
      [
        "▁kunde",
        -8.208900068884079
      ],
      [
        "▁information",
        -8.224294478338873
      ],
      [
        "▁kr",
        -8.238183038930561
      ],
      [
        "▁deras",
        -8.238350714343174
      ],
      [
        "▁företag",
        -8.239203234248121
      ],
      [
        "▁gjort",
        -8.24599670063991
      ],
      [
        "▁M",
        -8.24882154977509
      ],
      [
        "▁dom",
        -8.25028601676477
      ],
      [
        "▁hjälp",
        -8.253240694953002
      ],
      [
        "▁lika",
        -8.25646440557426
      ],
      [
        "▁aldrig",
        -8.257565322298113
      ],
      [
        "▁tillbaka",
        -8.258239437021725
      ],
      [
        "▁tillsammans",
        -8.265623281893669
      ],
      [
        "▁senaste",
        -8.27150705102202
      ],
      [
        "▁verkligen",
        -8.273259997930595
      ],
      [
        "*",
        -8.291700998985212
      ],
      [
        "▁gjorde",
        -8.294511310358331
      ],
      [
        "▁E",
        -8.299643327509553
      ],
      [
        "▁ofta",
        -8.302970095103035
      ],
      [
        "▁tiden",
        -8.304778002949435
      ],
      [
        "or",
        -8.305438569665753
      ],
      [
        "▁Man",
        -8.310536956249429
      ],
      [
        "·",
        -8.312625408273489
      ],
      [
        "▁T",
        -8.316708243988883
      ],
      [
        "man",
        -8.319399300077409
      ],
      [
        "▁mindre",
        -8.332659265448452
      ],
      [
        "▁lätt",
        -8.333535543998545
      ],
      [
        "▁mina",
        -8.334929458243389
      ],
      [
        "▁P",
        -8.337580794448128
      ],
      [
        "in",
        -8.338488939486957
      ],
      [
        "▁tog",
        -8.339821885305172
      ],
      [
        "▁använda",
        -8.351784928960276
      ],
      [
        "▁sen",
        -8.358104098054481
      ],
      [
        "▁Stockholm",
        -8.358148913104774
      ],
      [
        "▁direkt",
        -8.363245094939979
      ],
      [
        "▁därför",
        -8.370636834487373
      ],
      [
        "▁läsa",
        -8.371676991535832
      ],
      [
        "▁honom",
        -8.373067594815817
      ],
      [
        "▁köpa",
        -8.373816915066811
      ],
      [
        "com",
        -8.377681401614623
      ],
      [
        "▁hemma",
        -8.3897849605504
      ],
      [
        "▁G",
        -8.39162608772794
      ],
      [
        "[",
        -8.392493762244438
      ],
      [
        "]",
        -8.3930566949212
      ],
      [
        "▁H",
        -8.396450054692037
      ],
      [
        "▁enkelt",
        -8.400393586473367
      ],
      [
        "▁säga",
        -8.403132036315261
      ],
      [
        "▁exempel",
        -8.405335941298178
      ],
      [
        "▁spel",
        -8.407983102875562
      ],
      [
        "▁online",
        -8.409173205552985
      ],
      [
        "▁mat",
        -8.414222278346825
      ],
      [
        "▁Som",
        -8.415858490693964
      ],
      [
        "▁R",
        -8.416774774693863
      ],
      [
        "▁större",
        -8.417507998114077
      ],
      [
        "▁ändå",
        -8.421826112471305
      ],
      [
        "▁grund",
        -8.424289915508814
      ],
      [
        "▁små",
        -8.425148292185401
      ],
      [
        "▁bör",
        -8.425849670841838
      ],
      [
        "▁egen",
        -8.427124629207785
      ],
      [
        "▁K",
        -8.427198665063544
      ],
      [
        "▁hans",
        -8.431504564428193
      ],
      [
        "▁Efter",
        -8.433815376035886
      ],
      [
        "▁kvar",
        -8.43568039187078
      ],
      [
        "▁står",
        -8.440523604645854
      ],
      [
        "▁hög",
        -8.445852186727672
      ],
      [
        "▁dagar",
        -8.446360209320137
      ],
      [
        "▁innebär",
        -8.45492570021997
      ],
      [
        "j",
        -8.455140669276235
      ],
      [
        "on",
        -8.457976629220495
      ],
      [
        "▁slut",
        -8.4585948588427
      ],
      [
        "▁mål",
        -8.462303832976149
      ],
      [
        "▁vatten",
        -8.462485609761913
      ],
      [
        "▁procent",
        -8.463508853102926
      ],
      [
        "▁liv",
        -8.464147937848663
      ],
      [
        "▁Hon",
        -8.475255368584575
      ],
      [
        "▁stort",
        -8.479718722404847
      ],
      [
        "ning",
        -8.480504211638774
      ],
      [
        "▁haft",
        -8.481222727861706
      ],
      [
        "▁per",
        -8.486213520111852
      ],
      [
        "▁längre",
        -8.488461435814838
      ],
      [
        "▁saker",
        -8.494988548364766
      ],
      [
        "▁god",
        -8.496979734112278
      ],
      [
        "▁problem",
        -8.497466321473222
      ],
      [
        "▁känner",
        -8.498277364578652
      ],
      [
        "håller",
        -8.504313943268654
      ],
      [
        "▁Då",
        -8.504903330090144
      ],
      [
        "el",
        -8.505523398381811
      ],
      [
        "▁pengar",
        -8.507442517017964
      ],
      [
        "▁blivit",
        -8.517317966578672
      ],
      [
        "▁L",
        -8.51773107820699
      ],
      [
        "▁Under",
        -8.517956396026063
      ],
      [
        "▁par",
        -8.519675410138404
      ],
      [
        "A",
        -8.525636755898738
      ],
      [
        "▁kort",
        -8.53026820334839
      ],
      [
        "▁of",
        -8.532011972982906
      ],
      [
        "▁visar",
        -8.536162039489577
      ],
      [
        "▁länge",
        -8.537085329139792
      ],
      [
        "▁kvinnor",
        -8.53900149806746
      ],
      [
        "▁faktiskt",
        -8.544583463036796
      ],
      [
        "▁lång",
        -8.547129908796801
      ],
      [
        "▁hand",
        -8.54835793559354
      ],
      [
        "▁möjligt",
        -8.552187279284087
      ],
      [
        "▁skapa",
        -8.562248208430479
      ],
      [
        "▁inget",
        -8.568368764903866
      ],
      [
        "▁liten",
        -8.57135237699372
      ],
      [
        "▁ganska",
        -8.576730780417606
      ],
      [
        "▁pris",
        -8.579733929664293
      ],
      [
        "▁ca",
        -8.579814402052982
      ],
      [
        "▁ännu",
        -8.581869441608767
      ],
      [
        "▁vårt",
        -8.583760815513822
      ],
      [
        "▁nytt",
        -8.585327196260339
      ],
      [
        "▁svårt",
        -8.586487176720471
      ],
      [
        "▁Är",
        -8.587693622031773
      ],
      [
        "_",
        -8.589410578621504
      ],
      [
        "hittar",
        -8.59069492723293
      ],
      [
        "▁gärna",
        -8.591905930437091
      ],
      [
        "ligt",
        -8.5922393661506
      ],
      [
        "▁börjar",
        -8.595900179687785
      ],
      [
        "▁känns",
        -8.59713117110316
      ],
      [
        "▁omdömen",
        -8.599049830946047
      ],
      [
        "▁bilder",
        -8.60151932061583
      ],
      [
        "▁extra",
        -8.604490436154121
      ],
      [
        "▁sex",
        -8.604888282875253
      ],
      [
        "▁frågor",
        -8.609085558148559
      ],
      [
        "▁fast",
        -8.610812888512905
      ],
      [
        "▁hålla",
        -8.613647511486365
      ],
      [
        "▁spela",
        -8.618251501297514
      ],
      [
        "▁Alla",
        -8.61882314534372
      ],
      [
        "▁nära",
        -8.619664467430969
      ],
      [
        "▁bil",
        -8.620693237781776
      ],
      [
        "▁ute",
        -8.626145823629372
      ],
      [
        "liga",
        -8.62670458209573
      ],
      [
        "▁inför",
        -8.627914244729277
      ],
      [
        "▁folk",
        -8.62903430614482
      ],
      [
        "▁the",
        -8.631720139852694
      ],
      [
        "▁nästan",
        -8.637862376110496
      ],
      [
        "▁fortfarande",
        -8.638005928553135
      ],
      [
        "▁Ja",
        -8.639253370936745
      ],
      [
        "▁dagen",
        -8.63952141034649
      ],
      [
        "▁kommun",
        -8.639827178548794
      ],
      [
        "gått",
        -8.645426380639918
      ],
      [
        "▁vissa",
        -8.648264306987764
      ],
      [
        "▁gånger",
        -8.64883025375999
      ],
      [
        "▁dess",
        -8.65010070523793
      ],
      [
        "▁kronor",
        -8.652042456755176
      ],
      [
        "D",
        -8.652824489372687
      ],
      [
        "▁handlar",
        -8.653167994296348
      ],
      [
        "+",
        -8.655775917987347
      ],
      [
        "▁vilka",
        -8.658961377584077
      ],
      [
        "▁vilken",
        -8.659232232059532
      ],
      [
        "verkar",
        -8.66021716563912
      ],
      [
        "▁åter",
        -8.660243424737711
      ],
      [
        "▁senare",
        -8.662597303832742
      ],
      [
        "▁precis",
        -8.663890527509164
      ],
      [
        "▁söker",
        -8.6650885613934
      ],
      [
        "▁samtidigt",
        -8.666596386208969
      ],
      [
        "▁erbjuder",
        -8.667442955638556
      ],
      [
        "▁först",
        -8.668471662890967
      ],
      [
        "▁använder",
        -8.670769391359114
      ],
      [
        "för",
        -8.671516707883004
      ],
      [
        "Hotell",
        -8.671747075225698
      ],
      [
        "▁vidare",
        -8.675916674272667
      ],
      [
        "▁henne",
        -8.681290885569654
      ],
      [
        "▁D",
        -8.68536712287548
      ],
      [
        "▁fel",
        -8.686079448677457
      ],
      [
        "ö",
        -8.692100772064231
      ],
      [
        "▁jobb",
        -8.692466026169658
      ],
      [
        "▁sidan",
        -8.69386206808605
      ],
      [
        "▁alltså",
        -8.69609310766993
      ],
      [
        "▁hoppas",
        -8.696812442876992
      ],
      [
        "▁O",
        -8.697596358911325
      ],
      [
        "▁rum",
        -8.698481755161906
      ],
      [
        "▁största",
        -8.702528954470072
      ],
      [
        "▁året",
        -8.702578919386875
      ],
      [
        "▁istället",
        -8.702597583725193
      ],
      [
        "B",
        -8.70323773909026
      ],
      [
        ">",
        -8.704639858713374
      ],
      [
        "▁form",
        -8.705008589308067
      ],
      [
        "▁gott",
        -8.705106518993947
      ],
      [
        "▁flesta",
        -8.707000957881759
      ],
      [
        "▁väg",
        -8.709516006454393
      ],
      [
        "talet",
        -8.710498619830652
      ],
      [
        "om",
        -8.713239484331197
      ],
      [
        "▁endast",
        -8.716939676550437
      ],
      [
        "▁viktigt",
        -8.717011084131807
      ],
      [
        "vägen",
        -8.719299175093946
      ],
      [
        "▁skriver",
        -8.722587619892195
      ],
      [
        "▁fyra",
        -8.72288870251045
      ],
      [
        "=",
        -8.723405873122548
      ],
      [
        "▁arbete",
        -8.724252196554364
      ],
      [
        "▁nästa",
        -8.72601593627406
      ],
      [
        "▁ihop",
        -8.729600097215531
      ],
      [
        "▁sista",
        -8.73166927407362
      ],
      [
        "▁AB",
        -8.734367066511634
      ],
      [
        "▁började",
        -8.739335665251758
      ],
      [
        "▁bild",
        -8.740627500069216
      ],
      [
        "▁km",
        -8.742242176864668
      ],
      [
        "son",
        -8.74369412889421
      ],
      [
        "▁dejting",
        -8.745695434231122
      ],
      [
        "▁lag",
        -8.74667008786817
      ],
      [
        "▁fråga",
        -8.747226650763237
      ],
      [
        "▁person",
        -8.752533170141263
      ],
      [
        "▁Där",
        -8.754082509670235
      ],
      [
        "▁Till",
        -8.754182687167908
      ],
      [
        "▁and",
        -8.755040951422965
      ],
      [
        "▁stöd",
        -8.760167988575914
      ],
      [
        "vis",
        -8.763733079727544
      ],
      [
        "▁snabbt",
        -8.770321820117749
      ],
      [
        "▁minst",
        -8.77597462527141
      ],
      [
        "▁V",
        -8.777313719699347
      ],
      [
        "▁välja",
        -8.781973802621932
      ],
      [
        "▁sett",
        -8.786915779330014
      ],
      [
        "▁kring",
        -8.787750283102882
      ],
      [
        "▁egna",
        -8.789655553394484
      ],
      [
        "▁hennes",
        -8.791028141579012
      ],
      [
        "▁kl",
        -8.794156521425199
      ],
      [
        "▁N",
        -8.797933597710994
      ],
      [
        "▁själva",
        -8.799213650600642
      ],
      [
        "▁hel",
        -8.80138706718088
      ],
      [
        "▁världen",
        -8.805728129830843
      ],
      [
        "▁all",
        -8.808952876644403
      ],
      [
        "▁tips",
        -8.813185245857532
      ],
      [
        "▁vecka",
        -8.814701767376953
      ],
      [
        "berg",
        -8.815926984262456
      ],
      [
        "▁dessutom",
        -8.823178555076149
      ],
      [
        "▁gamla",
        -8.823955199532417
      ],
      [
        "aste",
        -8.826240334611846
      ],
      [
        "tagit",
        -8.826867369760402
      ],
      [
        "▁Idag",
        -8.827259020599337
      ],
      [
        "#",
        -8.827592492281571
      ],
      [
        "▁fin",
        -8.82964484186823
      ],
      [
        "▁klart",
        -8.832986016011832
      ],
      [
        "▁börja",
        -8.83461505499866
      ],
      [
        "▁såg",
        -8.834810753933986
      ],
      [
        "▁möjlighet",
        -8.835039777404882
      ],
      [
        "ig",
        -8.844565302090087
      ],
      [
        "▁borde",
        -8.850094297535152
      ],
      [
        "inga",
        -8.852425728999023
      ],
      [
        "▁kul",
        -8.855456066467339
      ],
      [
        "T",
        -8.855490969874213
      ],
      [
        "ex",
        -8.859732457172766
      ],
      [
        "▁beslut",
        -8.860093658332783
      ],
      [
        "▁helst",
        -8.862051491281198
      ],
      [
        "▁män",
        -8.86667152133671
      ],
      [
        "▁hjälper",
        -8.86856759011723
      ],
      [
        "iga",
        -8.869545593568626
      ],
      [
        "▁minuter",
        -8.871107082401323
      ],
      [
        "ska",
        -8.876897237642098
      ],
      [
        "▁delar",
        -8.877677340090736
      ],
      [
        "▁svar",
        -8.878666280200019
      ],
      [
        "▁långt",
        -8.884813056021823
      ],
      [
        "▁trots",
        -8.88560117887645
      ],
      [
        "▁varför",
        -8.886619706057871
      ],
      [
        "▁typ",
        -8.8874469714757
      ],
      [
        "I",
        -8.887934403089593
      ],
      [
        "▁hjälpa",
        -8.888210475405502
      ],
      [
        "▁Även",
        -8.890631583828538
      ],
      [
        "▁behov",
        -8.892488580794017
      ],
      [
        "▁priser",
        -8.893993972043369
      ],
      [
        "M",
        -8.894485822262705
      ],
      [
        "P",
        -8.895520955330165
      ],
      [
        "igt",
        -8.896193807843586
      ],
      [
        "▁namn",
        -8.896591640001242
      ],
      [
        "▁fem",
        -8.896623154844205
      ],
      [
        "▁lägga",
        -8.896951466769197
      ],
      [
        "▁skriva",
        -8.903704760365688
      ],
      [
        "▁visa",
        -8.904326331220409
      ],
      [
        "▁medan",
        -8.9091084835531
      ],
      [
        "“",
        -8.913202128642613
      ],
      [
        "▁fina",
        -8.913843463337269
      ],
      [
        "▁Denna",
        -8.914002430893754
      ],
      [
        "▁början",
        -8.91445375392889
      ],
      [
        "▁Vid",
        -8.916305700460699
      ],
      [
        "▁Nike",
        -8.91653814496905
      ],
      [
        "iska",
        -8.916817044946425
      ],
      [
        "▁Sveriges",
        -8.91962093984369
      ],
      [
        "▁ville",
        -8.919668262170157
      ],
      [
        "▁Air",
        -8.919955544347037
      ],
      [
        "▁veckan",
        -8.92180099234469
      ],
      [
        "▁brukar",
        -8.92274240295429
      ],
      [
        "▁känna",
        -8.924884789009303
      ],
      [
        "emot",
        -8.9249101624758
      ],
      [
        "▁enda",
        -8.926826595257062
      ],
      [
        "▁snart",
        -8.927266011634952
      ],
      [
        "▁Visa",
        -8.929191913645509
      ],
      [
        "▁The",
        -8.931899379273602
      ],
      [
        "▁Max",
        -8.93219965653658
      ],
      [
        "▁ibland",
        -8.932312287718952
      ],
      [
        "▁Se",
        -8.939041632382414
      ],
      [
        "▁resultat",
        -8.941011829406827
      ],
      [
        "▁arbetar",
        -8.941175809352236
      ],
      [
        "▁tänka",
        -8.94117780042352
      ],
      [
        "la",
        -8.949328743322686
      ],
      [
        "▁miljö",
        -8.951515848532111
      ],
      [
        "▁nätet",
        -8.954788737958076
      ],
      [
        "fanns",
        -8.956477870575057
      ],
      [
        "ä",
        -8.956801012701618
      ],
      [
        "▁heller",
        -8.956876463261484
      ],
      [
        "▁livet",
        -8.961390783593467
      ],
      [
        "▁timmar",
        -8.963248929199413
      ],
      [
        "▁bäst",
        -8.963961525578672
      ],
      [
        "▁kontakt",
        -8.964793389638771
      ],
      [
        "▁antal",
        -8.966493803978942
      ],
      [
        "▁vanligt",
        -8.966659148133022
      ],
      [
        "▁passar",
        -8.968585428304086
      ],
      [
        "▁USA",
        -8.968901671437857
      ],
      [
        "▁miljoner",
        -8.970034254624089
      ],
      [
        "▁gången",
        -8.97096800300102
      ],
      [
        "▁Sedan",
        -8.973187198851834
      ],
      [
        "▁egentligen",
        -8.974685672140271
      ],
      [
        "ej",
        -8.97498336761616
      ],
      [
        "▁to",
        -8.978362113139772
      ],
      [
        "▁Av",
        -8.978990870851295
      ],
      [
        "▁emot",
        -8.979024619911968
      ],
      [
        "­",
        -8.980245805664763
      ],
      [
        "▁färg",
        -8.983610473623111
      ],
      [
        "▁EU",
        -8.989979048565408
      ],
      [
        "▁ord",
        -8.99003409464773
      ],
      [
        "F",
        -8.99045857447287
      ],
      [
        "är",
        -8.991730853456385
      ],
      [
        "▁produkter",
        -8.992305820401029
      ],
      [
        "▁hus",
        -8.992942439014826
      ],
      [
        "▁veta",
        -8.996607358003464
      ],
      [
        "sitter",
        -8.996659767149467
      ],
      [
        "▁Tack",
        -8.997652529543842
      ],
      [
        "▁dags",
        -8.998468140456943
      ],
      [
        "▁förslag",
        -9.002075231075487
      ],
      [
        "▁tag",
        -9.002124268042035
      ],
      [
        "N",
        -9.013046781203895
      ],
      [
        "het",
        -9.013884350700827
      ],
      [
        "▁inne",
        -9.015357449048627
      ],
      [
        "▁val",
        -9.015435838928415
      ],
      [
        "▁dating",
        -9.017261757505906
      ],
      [
        "▁utanför",
        -9.017475451535306
      ],
      [
        "frågan",
        -9.018725323956929
      ],
      [
        "▁energi",
        -9.01970519629759
      ],
      [
        "▁fungerar",
        -9.02027034506576
      ],
      [
        "sagt",
        -9.021582229758128
      ],
      [
        "▁ytterligare",
        -9.022795643253229
      ],
      [
        "▁låg",
        -9.02286984876563
      ],
      [
        "att",
        -9.023532349320686
      ],
      [
        "▁varandra",
        -9.023805162063555
      ],
      [
        "▁maj",
        -9.023950357435314
      ],
      [
        "▁gillar",
        -9.024609612977722
      ],
      [
        "▁ned",
        -9.024949351329216
      ],
      [
        "nde",
        -9.026680602877395
      ],
      [
        "och",
        -9.027307623843805
      ],
      [
        "▁verksamhet",
        -9.031070799642974
      ],
      [
        "▁Min",
        -9.035033487115937
      ],
      [
        "L",
        -9.035538038015302
      ],
      [
        "▁svensk",
        -9.037489268665635
      ],
      [
        "lig",
        -9.039363330611982
      ],
      [
        "C",
        -9.041260357910902
      ],
      [
        "K",
        -9.042036900255775
      ],
      [
        "▁resa",
        -9.042817230445207
      ],
      [
        "▁framför",
        -9.043732139575585
      ],
      [
        "▁båda",
        -9.043915608034883
      ],
      [
        "▁särskilt",
        -9.045753886793346
      ],
      [
        "ja",
        -9.046096448789447
      ],
      [
        "▁J",
        -9.050415055709038
      ],
      [
        "▁används",
        -9.051197008463312
      ],
      [
        "▁Sen",
        -9.059576895803495
      ],
      [
        "▁sådan",
        -9.065129848698849
      ],
      [
        "▁jätte",
        -9.065458445009458
      ],
      [
        "▁betala",
        -9.066048473732309
      ],
      [
        "▁kommit",
        -9.072115100315326
      ],
      [
        "▁förra",
        -9.075363846889573
      ],
      [
        "▁bok",
        -9.076661613736315
      ],
      [
        "▁Göteborg",
        -9.079077478548527
      ],
      [
        "▁Kan",
        -9.088695661594414
      ],
      [
        "▁spelar",
        -9.088928844748724
      ],
      [
        "▁skolan",
        -9.09093637031476
      ],
      [
        "▁tur",
        -9.09100925847726
      ],
      [
        "▁Inte",
        -9.0942917338484
      ],
      [
        "▁äldre",
        -9.095482439185526
      ],
      [
        "▁bakom",
        -9.095513578943896
      ],
      [
        "▁maskin",
        -9.098365939710085
      ],
      [
        "▁skicka",
        -9.09875271510792
      ],
      [
        "lagen",
        -9.100591203153517
      ],
      [
        "▁sida",
        -9.100922378186041
      ],
      [
        "▁händer",
        -9.10214238226079
      ],
      [
        "▁utveckling",
        -9.104921839129252
      ],
      [
        "▁film",
        -9.106080469351154
      ],
      [
        "tänker",
        -9.106536818296396
      ],
      [
        "▁natt",
        -9.109735705746049
      ],
      [
        "år",
        -9.110537731640216
      ],
      [
        "▁inlägg",
        -9.113738459234023
      ],
      [
        "▁landet",
        -9.1168384578887
      ],
      [
        "▁Var",
        -9.117918616434777
      ],
      [
        "▁Svenska",
        -9.123490142143156
      ],
      [
        "▁bor",
        -9.12491828482438
      ],
      [
        "▁ja",
        -9.125129959931705
      ],
      [
        "▁veckor",
        -9.12795957066571
      ],
      [
        "▁arbeta",
        -9.129280608932218
      ],
      [
        "▁igenom",
        -9.130444531333941
      ],
      [
        "▁lilla",
        -9.131518328389197
      ],
      [
        "▁säkert",
        -9.132109725949284
      ],
      [
        "▁ovan",
        -9.133728876755399
      ],
      [
        "▁for",
        -9.135530523479938
      ],
      [
        "▁barnen",
        -9.140587946897673
      ],
      [
        "E",
        -9.141130800234311
      ],
      [
        "▁ljus",
        -9.143392118488972
      ],
      [
        "Dessutom",
        -9.144290730587159
      ],
      [
        "▁besök",
        -9.145826454159598
      ],
      [
        "▁åka",
        -9.14681405748554
      ],
      [
        "▁innehåller",
        -9.147963919100942
      ],
      [
        "▁månader",
        -9.14852829426487
      ],
      [
        "▁musik",
        -9.151787549439383
      ],
      [
        "▁högre",
        -9.15179028934819
      ],
      [
        "▁personal",
        -9.15504570478522
      ],
      [
        "sson",
        -9.155842955934787
      ],
      [
        "▁projekt",
        -9.155885685146584
      ],
      [
        "▁Vill",
        -9.157002693028796
      ],
      [
        "▁In",
        -9.157458056105302
      ],
      [
        "▁ingår",
        -9.158965634851965
      ],
      [
        "ger",
        -9.164249122278205
      ],
      [
        "▁unga",
        -9.165821485998677
      ],
      [
        "▁Hotel",
        -9.166731815497672
      ],
      [
        "G",
        -9.16742366577874
      ],
      [
        "<",
        -9.172470534202485
      ],
      [
        "▁sak",
        -9.174176581230737
      ],
      [
        "ström",
        -9.17447623442518
      ],
      [
        "▁betyg",
        -9.174958287588282
      ],
      [
        "▁kroppen",
        -9.17626154568695
      ],
      [
        "samma",
        -9.1764521393996
      ],
      [
        "▁mamma",
        -9.177338697195223
      ],
      [
        "▁Enligt",
        -9.178062604324388
      ],
      [
        "▁steg",
        -9.178609410223938
      ],
      [
        "▁äta",
        -9.180959978877452
      ],
      [
        "▁huvud",
        -9.18243655696575
      ],
      [
        "▁Malmö",
        -9.182811510707792
      ],
      [
        "ut",
        -9.183850295110318
      ],
      [
        "▁krav",
        -9.189556340589242
      ],
      [
        "w",
        -9.190565409388942
      ],
      [
        "X",
        -9.19154644809936
      ],
      [
        "▁kunder",
        -9.193840970767962
      ],
      [
        "▁alls",
        -9.19419757141101
      ],
      [
        "▁öppna",
        -9.194294887530004
      ],
      [
        "▁jobba",
        -9.195663144853103
      ],
      [
        "▁lämna",
        -9.196078534395399
      ],
      [
        "▁bygga",
        -9.19627288413869
      ],
      [
        "z",
        -9.200651918787319
      ],
      [
        "▁max",
        -9.200819303790075
      ],
      [
        "tid",
        -9.20217073765379
      ],
      [
        "▁full",
        -9.203072888996617
      ],
      [
        "▁berättar",
        -9.204421446323762
      ],
      [
        "Många",
        -9.21123222878576
      ],
      [
        "sätta",
        -9.211895268727174
      ],
      [
        "▁åren",
        -9.212455757345086
      ],
      [
        "▁kör",
        -9.212639337312673
      ],
      [
        "▁alternativ",
        -9.212874262295022
      ],
      [
        "▁perfekt",
        -9.214533792475557
      ],
      [
        "väljer",
        -9.215991524022366
      ],
      [
        "▁lära",
        -9.217407008215325
      ],
      [
        "R",
        -9.22009820745678
      ],
      [
        "▁roligt",
        -9.2225151554556
      ],
      [
        "▁tack",
        -9.223064965693794
      ],
      [
        "▁januari",
        -9.223103806287584
      ],
      [
        "▁vänner",
        -9.231196125826633
      ],
      [
        "▁dejta",
        -9.23219828221
      ],
      [
        "▁främst",
        -9.232349817134502
      ],
      [
        "men",
        -9.23342130139722
      ],
      [
        "▁blogg",
        -9.23721454467676
      ],
      [
        "Det",
        -9.239034709094188
      ],
      [
        "▁viktig",
        -9.24124065079057
      ],
      [
        "▁skrev",
        -9.242615813141738
      ],
      [
        "▁dra",
        -9.242862240967371
      ],
      [
        "era",
        -9.244904100951166
      ],
      [
        "▁spelare",
        -9.246011496842796
      ],
      [
        "▁augusti",
        -9.246637778732751
      ],
      [
        "▁kvinna",
        -9.246657429553085
      ],
      [
        "▁följa",
        -9.247286016654064
      ],
      [
        "▁hotellet",
        -9.247294000126027
      ],
      [
        "ligen",
        -9.248740183111334
      ],
      [
        "▁fint",
        -9.249323791816227
      ],
      [
        "▁sommar",
        -9.253526824052154
      ],
      [
        "$",
        -9.254359198441879
      ],
      [
        "▁län",
        -9.255007258105056
      ],
      [
        "tal",
        -9.259832625013429
      ],
      [
        "▁sker",
        -9.261114341092354
      ],
      [
        "▁arbets",
        -9.263852807460994
      ],
      [
        "läget",
        -9.264732325765412
      ],
      [
        "försöka",
        -9.265581591844366
      ],
      [
        "▁följande",
        -9.265935196967062
      ],
      [
        "▁bonus",
        -9.266120642907325
      ],
      [
        "▁samband",
        -9.266197579542295
      ],
      [
        "som",
        -9.26761324250133
      ],
      [
        "▁ansvar",
        -9.271227330354172
      ],
      [
        "▁spännande",
        -9.271543018507886
      ],
      [
        "▁igång",
        -9.272675233247716
      ],
      [
        "▁titta",
        -9.274851207064534
      ],
      [
        "▁satt",
        -9.280607012344898
      ],
      [
        "av",
        -9.282436202995708
      ],
      [
        "▁mars",
        -9.283161694662756
      ],
      [
        "▁Ta",
        -9.28451018898843
      ],
      [
        "▁Allt",
        -9.28466620776289
      ],
      [
        "▁ifrån",
        -9.285168728311838
      ],
      [
        "▁tydlig",
        -9.287613700749732
      ],
      [
        "▁goda",
        -9.290931659222375
      ],
      [
        "▁Bra",
        -9.2915582426598
      ],
      [
        "▁års",
        -9.292474023666522
      ],
      [
        "▁Från",
        -9.293196548742642
      ],
      [
        "▁liknande",
        -9.293434800994923
      ],
      [
        "»",
        -9.294315063876063
      ],
      [
        "slutet",
        -9.294658620461039
      ],
      [
        "▁fort",
        -9.297997492587664
      ],
      [
        "▁service",
        -9.29847291446758
      ],
      [
        "▁råd",
        -9.298944035431997
      ],
      [
        "▁området",
        -9.298979687026392
      ],
      [
        "▁massa",
        -9.299175619165155
      ],
      [
        "▁pa",
        -9.299188173807535
      ],
      [
        "▁månad",
        -9.300603462281707
      ],
      [
        "▁roll",
        -9.301108244612998
      ],
      [
        "▁dit",
        -9.301726719799552
      ],
      [
        "▁uppgifter",
        -9.302702350989032
      ],
      [
        "▁Genom",
        -9.30373079554038
      ],
      [
        "▁eget",
        -9.30685329281021
      ],
      [
        "▁utbildning",
        -9.3074847572149
      ],
      [
        "▁poäng",
        -9.307863114177993
      ],
      [
        "▁vanlig",
        -9.308772716888244
      ],
      [
        "▁länder",
        -9.310058707985078
      ],
      [
        "H",
        -9.31089630863417
      ],
      [
        "laget",
        -9.311122491793594
      ],
      [
        "▁tillgång",
        -9.312509549565544
      ],
      [
        "▁cm",
        -9.312939634994873
      ],
      [
        "▁lär",
        -9.314024401352727
      ],
      [
        "•",
        -9.315270723856296
      ],
      [
        "▁material",
        -9.317643215928499
      ],
      [
        "▁älskar",
        -9.317758599816678
      ],
      [
        "delen",
        -9.317934376928637
      ],
      [
        "▁Dessa",
        -9.320348647704643
      ],
      [
        "▁jobbet",
        -9.321320783685678
      ],
      [
        "▁erfarenhet",
        -9.322125289649371
      ],
      [
        "▁jobbar",
        -9.323268526263316
      ],
      [
        "▁skor",
        -9.323796331820626
      ],
      [
        "▁casino",
        -9.324043095755327
      ],
      [
        "▁TV",
        -9.327925591023249
      ],
      [
        "▁jul",
        -9.332960108910076
      ],
      [
        "▁vem",
        -9.335537478598045
      ],
      [
        "▁liksom",
        -9.335947711535331
      ],
      [
        "▁nedan",
        -9.33615487596623
      ],
      [
        "▁Nej",
        -9.33737973869353
      ],
      [
        "Jag",
        -9.339530602262968
      ],
      [
        "▁kvalitet",
        -9.340410564210638
      ],
      [
        "▁stå",
        -9.340458209658996
      ],
      [
        "▁tredje",
        -9.340709468694916
      ],
      [
        "▁igår",
        -9.341427599719635
      ],
      [
        "▁fortsätta",
        -9.341616383780124
      ],
      [
        "▁tro",
        -9.34209551399308
      ],
      [
        "eller",
        -9.342353661685438
      ],
      [
        "▁tio",
        -9.345562150609991
      ],
      [
        "▁glad",
        -9.34582192404634
      ],
      [
        "§",
        -9.347407660334978
      ],
      [
        "▁program",
        -9.348568231500236
      ],
      [
        "▁öka",
        -9.34862490973268
      ],
      [
        "▁nätdejting",
        -9.350267630148885
      ],
      [
        "▁juni",
        -9.352431005147942
      ],
      [
        "låter",
        -9.35321717431649
      ],
      [
        "▁fortsätter",
        -9.355450921902195
      ],
      [
        "sjön",
        -9.356609606801374
      ],
      [
        "ste",
        -9.356668756279065
      ],
      [
        "försöker",
        -9.357853146922064
      ],
      [
        "▁betyder",
        -9.35998816883201
      ],
      [
        "▁krävs",
        -9.361933019567621
      ],
      [
        "▁kultur",
        -9.362308202742774
      ],
      [
        "▁hår",
        -9.363875022900851
      ],
      [
        "▁kontakta",
        -9.3642773243818
      ],
      [
        "by",
        -9.365260380251804
      ],
      [
        "▁engelska",
        -9.366250520387787
      ],
      [
        "▁behövs",
        -9.366386961950923
      ],
      [
        "O",
        -9.36816263678469
      ],
      [
        "▁kommunen",
        -9.370281204939616
      ],
      [
        "▁vilja",
        -9.371490625942345
      ],
      [
        "▁rör",
        -9.373471555630713
      ],
      [
        "▁användas",
        -9.373924539815283
      ],
      [
        "▁W",
        -9.375195993385262
      ],
      [
        "V",
        -9.375461413515549
      ],
      [
        "▁Eller",
        -9.375573249920864
      ],
      [
        "▁stund",
        -9.378309369508209
      ],
      [
        "▁ex",
        -9.379004123865132
      ],
      [
        "▁Mer",
        -9.379037390402534
      ],
      [
        "—",
        -9.380198124534909
      ],
      [
        "▁meter",
        -9.381701465799413
      ],
      [
        "▁Vår",
        -9.381922429292684
      ],
      [
        "▁dejtingsajt",
        -9.386128331897106
      ],
      [
        "▁start",
        -9.386259663592215
      ],
      [
        "▁match",
        -9.387080175028121
      ],
      [
        "▁vanliga",
        -9.388433203595676
      ],
      [
        "▁favorit",
        -9.388808111405822
      ],
      [
        "Därför",
        -9.388858347002499
      ],
      [
        "▁utveckla",
        -9.389356184272412
      ],
      [
        "▁närheten",
        -9.39037778787127
      ],
      [
        "▁kväll",
        -9.392734850524151
      ],
      [
        "▁april",
        -9.393261515982058
      ],
      [
        "▁Ni",
        -9.393912481393347
      ],
      [
        "▁bidra",
        -9.396038363085196
      ],
      [
        "står",
        -9.396301036300652
      ],
      [
        "▁fortsatt",
        -9.396932954847898
      ],
      [
        "▁recept",
        -9.398738625557462
      ],
      [
        "orna",
        -9.39886926472343
      ],
      [
        "▁Ska",
        -9.399029762801872
      ],
      [
        "▁oktober",
        -9.399216256804708
      ],
      [
        "▁fr",
        -9.400853336441521
      ],
      [
        "▁arbetet",
        -9.403257036147302
      ],
      [
        "▁hör",
        -9.406541914704782
      ],
      [
        "▁september",
        -9.407651316965994
      ],
      [
        "▁köra",
        -9.408189364785521
      ],
      [
        "▁bilen",
        -9.410864913507787
      ],
      [
        "▁grupp",
        -9.41205599856114
      ],
      [
        "land",
        -9.412112668065204
      ],
      [
        "▁vård",
        -9.413659305610636
      ],
      [
        "lösa",
        -9.414551025493642
      ],
      [
        "▁heter",
        -9.415634014137035
      ],
      [
        "▁ungefär",
        -9.415942940146227
      ],
      [
        "bar",
        -9.42049210814751
      ],
      [
        "▁morgon",
        -9.420640750732584
      ],
      [
        "går",
        -9.421925790387272
      ],
      [
        "▁samarbete",
        -9.423368368468692
      ],
      [
        "▁kolla",
        -9.423649082917708
      ],
      [
        "▁hälsa",
        -9.423769122764243
      ],
      [
        "Kanske",
        -9.42599912388295
      ],
      [
        "nike",
        -9.42619654159028
      ],
      [
        "Varför",
        -9.427434129290354
      ],
      [
        "▁träffa",
        -9.42857010406521
      ],
      [
        "tyckte",
        -9.42893372232955
      ],
      [
        "därmed",
        -9.429814610885954
      ],
      [
        "▁Europa",
        -9.431803124897572
      ],
      [
        "▁prata",
        -9.432285772142496
      ],
      [
        "▁cirka",
        -9.435333267834435
      ],
      [
        "sk",
        -9.436678348093311
      ],
      [
        "▁hemsida",
        -9.438858560333514
      ],
      [
        "▁Anna",
        -9.439320121838318
      ],
      [
        "▁halv",
        -9.439593403945231
      ],
      [
        "finnas",
        -9.439653028748891
      ],
      [
        "▁exempelvis",
        -9.442474014228102
      ],
      [
        "▁behandling",
        -9.443205038152843
      ],
      [
        "oftast",
        -9.443231040853172
      ],
      [
        "▁bl",
        -9.44364260263391
      ],
      [
        "▁absolut",
        -9.44529282773644
      ],
      [
        "▁kunskap",
        -9.44616019815068
      ],
      [
        "▁va",
        -9.446611317388427
      ],
      [
        "▁boken",
        -9.446621227718424
      ],
      [
        "visade",
        -9.448536347769407
      ],
      [
        "▁risk",
        -9.450596938605873
      ],
      [
        "▁februari",
        -9.45198435090715
      ],
      [
        "▁sommaren",
        -9.451997331189995
      ],
      [
        "▁fri",
        -9.453777945583209
      ],
      [
        "▁gav",
        -9.453779276222177
      ],
      [
        "▁viss",
        -9.454095398221611
      ],
      [
        "▁köp",
        -9.454171160541819
      ],
      [
        "▁helgen",
        -9.455120709426987
      ],
      [
        "▁land",
        -9.457065470802556
      ],
      [
        "▁intresse",
        -9.457529219539197
      ],
      [
        "kommande",
        -9.458887043015899
      ],
      [
        "▁klar",
        -9.458915661663475
      ],
      [
        "består",
        -9.460417103133851
      ],
      [
        "bara",
        -9.461149081049175
      ],
      [
        "dag",
        -9.461532686774701
      ],
      [
        "▁telefon",
        -9.46164868645628
      ],
      [
        "▁företaget",
        -9.461810986588748
      ],
      [
        "programmet",
        -9.464198504962047
      ],
      [
        "anser",
        -9.464412752802316
      ],
      [
        "▁uppdrag",
        -9.46454740958866
      ],
      [
        "▁beroende",
        -9.464576987956907
      ],
      [
        "▁senast",
        -9.466307173997127
      ],
      [
        "behöva",
        -9.468092342142452
      ],
      [
        "▁system",
        -9.468241104327896
      ],
      [
        "▁övriga",
        -9.46902627214605
      ],
      [
        "▁djur",
        -9.46985613299074
      ],
      [
        "▁boende",
        -9.471654578178732
      ],
      [
        "▁snabb",
        -9.474353429341269
      ],
      [
        "▁familj",
        -9.47532267818156
      ],
      [
        "▁speciellt",
        -9.475512688347315
      ],
      [
        "▁kvällen",
        -9.47657880469487
      ],
      [
        "spel",
        -9.476792535352407
      ],
      [
        "gatan",
        -9.476809593319736
      ],
      [
        "▁bilden",
        -9.477021855615472
      ],
      [
        "ats",
        -9.477673526432996
      ],
      [
        "lägger",
        -9.479131870849164
      ],
      [
        "ast",
        -9.479544954436754
      ],
      [
        "▁fokus",
        -9.480927336602832
      ],
      [
        "▁framtiden",
        -9.481139026028785
      ],
      [
        "▁Ny",
        -9.481194490507534
      ],
      [
        "tänkte",
        -9.481694659407617
      ],
      [
        "▁december",
        -9.48322856657592
      ],
      [
        "▁internet",
        -9.48395793922728
      ],
      [
        "▁minska",
        -9.48437882502591
      ],
      [
        "▁intressant",
        -9.484884183360247
      ],
      [
        "på",
        -9.485075133481505
      ],
      [
        "med",
        -9.485437633778306
      ],
      [
        "▁tanke",
        -9.486056066395344
      ],
      [
        "▁bo",
        -9.487038314319001
      ],
      [
        "▁U",
        -9.4883733735932
      ],
      [
        "▁förstår",
        -9.489730800095202
      ],
      [
        "▁svart",
        -9.490851136409438
      ],
      [
        "▁berätta",
        -9.491355197313823
      ],
      [
        "såsom",
        -9.492306292374314
      ],
      [
        "▁följer",
        -9.492729625292682
      ],
      [
        "▁air",
        -9.493379665107847
      ],
      [
        "▁skol",
        -9.494717297178504
      ],
      [
        "▁ställa",
        -9.494796110950947
      ],
      [
        "nas",
        -9.4961821344336
      ],
      [
        "um",
        -9.496403466162665
      ],
      [
        "▁lever",
        -9.496813994968711
      ],
      [
        "▁Hitta",
        -9.497111492759005
      ],
      [
        "▁klara",
        -9.497509223895715
      ],
      [
        "▁Be",
        -9.501418075668873
      ],
      [
        "menar",
        -9.501421673296592
      ],
      [
        "▁stället",
        -9.505655058360523
      ],
      [
        "▁vackra",
        -9.505781434504316
      ],
      [
        "▁juli",
        -9.507356280560874
      ],
      [
        "ifrån",
        -9.508772770495952
      ],
      [
        "▁skönt",
        -9.508875367790413
      ],
      [
        "▁november",
        -9.509855204657525
      ],
      [
        "▁svår",
        -9.510496829637418
      ],
      [
        "Eftersom",
        -9.5105608615947
      ],
      [
        "▁familjen",
        -9.511022940973119
      ],
      [
        "gående",
        -9.514127063987752
      ],
      [
        "▁tjänster",
        -9.51464970534422
      ],
      [
        "åkte",
        -9.516013050238934
      ],
      [
        "▁staden",
        -9.519833537497394
      ],
      [
        "▁nämligen",
        -9.520686141922557
      ],
      [
        "▁Hej",
        -9.520890646101375
      ],
      [
        "nat",
        -9.521226988794199
      ],
      [
        "gruppen",
        -9.522296020210197
      ],
      [
        "▁stod",
        -9.52238795890916
      ],
      [
        "▁produkt",
        -9.523253308578557
      ],
      [
        "otroligt",
        -9.524751270327418
      ],
      [
        "alldeles",
        -9.527537776116644
      ],
      [
        "annars",
        -9.529795814750228
      ],
      [
        "Vi",
        -9.529872470297203
      ],
      [
        "typer",
        -9.530014625577238
      ],
      [
        "▁skapar",
        -9.530149787175768
      ],
      [
        "sätter",
        -9.532611203059092
      ],
      [
        "▁förstå",
        -9.532973863736077
      ],
      [
        "▁språk",
        -9.533308164111315
      ],
      [
        "kräver",
        -9.53401164599229
      ],
      [
        "▁data",
        -9.534148146656964
      ],
      [
        "▁design",
        -9.536681580414223
      ],
      [
        "rum",
        -9.537722333015354
      ],
      [
        "höll",
        -9.539597464085775
      ],
      [
        "mer",
        -9.54158200392864
      ],
      [
        "▁säker",
        -9.542628516804449
      ],
      [
        "▁super",
        -9.54295293367085
      ],
      [
        "den",
        -9.544272939805296
      ],
      [
        "▁värde",
        -9.547093207418648
      ],
      [
        "▁kund",
        -9.55010577046428
      ],
      [
        "▁anledning",
        -9.553383326808827
      ],
      [
        "▁sociala",
        -9.554313599829857
      ],
      [
        "▁dagens",
        -9.554853041891658
      ],
      [
        "▁Stockholms",
        -9.555294490549343
      ],
      [
        "▁Ut",
        -9.55606978636285
      ],
      [
        "beror",
        -9.556207053883274
      ],
      [
        "ras",
        -9.556251315244976
      ],
      [
        "▁träning",
        -9.556799835974253
      ],
      [
        "systemet",
        -9.55735785020366
      ],
      [
        "▁verksamheten",
        -9.55979216920837
      ],
      [
        "▁samhället",
        -9.560007974589302
      ],
      [
        "▁erbjuda",
        -9.561567280000295
      ],
      [
        "▁föräldrar",
        -9.561574652476185
      ],
      [
        "▁lån",
        -9.562043436910693
      ],
      [
        "värt",
        -9.563215405201916
      ],
      [
        "▁regeringen",
        -9.563259572515681
      ],
      [
        "▁skillnad",
        -9.56412141506414
      ],
      [
        "▁natur",
        -9.564361379720143
      ],
      [
        "▁ökar",
        -9.566156575863513
      ],
      [
        "▁vän",
        -9.566656007572247
      ],
      [
        "oavsett",
        -9.56707353044549
      ],
      [
        "▁stil",
        -9.56946244719232
      ],
      [
        "▁tänkt",
        -9.569613432386635
      ],
      [
        "▁fungera",
        -9.570991231154819
      ],
      [
        "▁höra",
        -9.574182135977921
      ],
      [
        "ont",
        -9.574390007498733
      ],
      [
        "system",
        -9.575145954518664
      ],
      [
        "▁lan",
        -9.57596297710319
      ],
      [
        "▁gammal",
        -9.577570704169203
      ],
      [
        "stående",
        -9.578585986891932
      ],
      [
        "▁låta",
        -9.578623943339066
      ],
      [
        "ledande",
        -9.581700186334496
      ],
      [
        "▁klockan",
        -9.582647976740766
      ],
      [
        "▁leder",
        -9.582802221273708
      ],
      [
        "såväl",
        -9.582843543651304
      ],
      [
        "▁världens",
        -9.583783822011494
      ],
      [
        "kände",
        -9.58543832380723
      ],
      [
        "rätt",
        -9.586430609705921
      ],
      [
        "ring",
        -9.587635271275186
      ],
      [
        "ch",
        -9.587963476466241
      ],
      [
        "▁tas",
        -9.588274939636525
      ],
      [
        "▁hund",
        -9.588946047062047
      ],
      [
        "▁Facebook",
        -9.591514115733354
      ],
      [
        "▁förbättra",
        -9.593110401594094
      ],
      [
        "▁möjligheter",
        -9.593732529040796
      ],
      [
        "mannen",
        -9.594230630056156
      ],
      [
        "sådana",
        -9.59870725126367
      ],
      [
        "▁trött",
        -9.600714135997075
      ],
      [
        "▁historia",
        -9.601696999386391
      ],
      [
        "TM",
        -9.60289371259077
      ],
      [
        "▁Anders",
        -9.603121403150395
      ],
      [
        "▁viktiga",
        -9.603344937732057
      ],
      [
        "▁ändra",
        -9.605962087227377
      ],
      [
        "▁planera",
        -9.606099804937818
      ],
      [
        "be",
        -9.607816967543677
      ],
      [
        "▁lugn",
        -9.610535675216946
      ],
      [
        "▁utifrån",
        -9.611747403471602
      ],
      [
        "▁matchen",
        -9.612860566096149
      ],
      [
        "▁Köp",
        -9.613199180904049
      ],
      [
        "▁rad",
        -9.613762221142638
      ],
      [
        "▁testa",
        -9.615040483788666
      ],
      [
        "▁höga",
        -9.615581766702022
      ],
      [
        "▁marknaden",
        -9.616382679666321
      ],
      [
        "▁leva",
        -9.616688230771988
      ],
      [
        "▁kläder",
        -9.616940974985207
      ],
      [
        "▁tjejer",
        -9.617084412145655
      ],
      [
        "▁hantera",
        -9.61721352013611
      ],
      [
        "▁icke",
        -9.617984608706742
      ],
      [
        "▁Just",
        -9.619049599732486
      ],
      [
        "▁kallas",
        -9.620601281926168
      ],
      [
        "▁Per",
        -9.620645704299415
      ],
      [
        "isk",
        -9.621110143516162
      ],
      [
        "▁huset",
        -9.621229069506224
      ],
      [
        "▁sol",
        -9.621258618211986
      ],
      [
        "▁iväg",
        -9.622670559924083
      ],
      [
        "hus",
        -9.623006672924209
      ],
      [
        "▁högt",
        -9.624563426354953
      ],
      [
        "▁medlemmar",
        -9.624624369399607
      ],
      [
        "tittade",
        -9.62483761182664
      ],
      [
        "antalet",
        -9.624865610834537
      ],
      [
        "tyvärr",
        -9.62594003932431
      ],
      [
        "resten",
        -9.626562391853602
      ],
      [
        "▁elever",
        -9.626722754271698
      ],
      [
        "▁visst",
        -9.627181196871847
      ],
      [
        "plan",
        -9.627271137327712
      ],
      [
        "post",
        -9.628180135480415
      ],
      [
        "▁nöjd",
        -9.628957283899075
      ],
      [
        "▁stad",
        -9.63060174175644
      ],
      [
        "Mycket",
        -9.63144325528005
      ],
      [
        "▁spara",
        -9.632193315022674
      ],
      [
        "sidan",
        -9.635150162096314
      ],
      [
        "▁Ha",
        -9.635622209017333
      ],
      [
        "▁totalt",
        -9.635680931919689
      ],
      [
        "▁app",
        -9.63634157953629
      ],
      [
        "resenärer",
        -9.63696040261878
      ],
      [
        "▁vikt",
        -9.638071978013405
      ],
      [
        "▁polisen",
        -9.638846336445667
      ],
      [
        "ly",
        -9.639201868620313
      ],
      [
        "▁ordförande",
        -9.640383029105761
      ],
      [
        "▁plan",
        -9.644311705382275
      ],
      [
        "▁byta",
        -9.644789421426449
      ],
      [
        "▁dejtingsajter",
        -9.645860288883869
      ],
      [
        "▁artikel",
        -9.646168416135195
      ],
      [
        "▁omkring",
        -9.646689486843622
      ],
      [
        "▁Tänk",
        -9.64881657433976
      ],
      [
        "▁samman",
        -9.649342676507523
      ],
      [
        "▁dator",
        -9.64982171428752
      ],
      [
        "▁Johan",
        -9.650686927566841
      ],
      [
        "▁fullt",
        -9.650913558935889
      ],
      [
        "▁flytta",
        -9.652755494114835
      ],
      [
        "▁låt",
        -9.65382899172231
      ],
      [
        "börjat",
        -9.658712565209692
      ],
      [
        "▁stark",
        -9.658975485426149
      ],
      [
        "ge",
        -9.659413481697179
      ],
      [
        "ell",
        -9.66026429443534
      ],
      [
        "▁hittade",
        -9.661814833538578
      ],
      [
        "▁stanna",
        -9.66248294611838
      ],
      [
        "▁söka",
        -9.663436082336405
      ],
      [
        "hända",
        -9.663701155605882
      ],
      [
        "▁långa",
        -9.66416882889789
      ],
      [
        "▁New",
        -9.665752031189095
      ],
      [
        "▁säsongen",
        -9.666789080107606
      ],
      [
        "▁sitta",
        -9.667951571195347
      ],
      [
        "▁årets",
        -9.668591220191907
      ],
      [
        "▁billiga",
        -9.669991498434786
      ],
      [
        "program",
        -9.670482060928252
      ],
      [
        "▁SEK",
        -9.671505303714461
      ],
      [
        "▁mobil",
        -9.672169745426938
      ],
      [
        "drar",
        -9.672937549349362
      ],
      [
        "▁böcker",
        -9.67387869630047
      ],
      [
        "bo",
        -9.674082609850588
      ],
      [
        "▁lägre",
        -9.674589341930032
      ],
      [
        "▁topp",
        -9.676090553621748
      ],
      [
        "▁uttryck",
        -9.67699967889729
      ],
      [
        "▁tidigt",
        -9.677023650109636
      ],
      [
        "▁respektive",
        -9.677460778655005
      ],
      [
        "▁borta",
        -9.678679954319165
      ],
      [
        "▁vinna",
        -9.679358547633063
      ],
      [
        "sökte",
        -9.679589698710828
      ],
      [
        "▁Uppsala",
        -9.680211132226393
      ],
      [
        "till",
        -9.680833567430954
      ],
      [
        "▁åker",
        -9.681380112775027
      ],
      [
        "skrivit",
        -9.682148681589434
      ],
      [
        "▁lokala",
        -9.682149209659377
      ],
      [
        "lan",
        -9.682330004113833
      ],
      [
        "▁vann",
        -9.682776016134207
      ],
      [
        "ton",
        -9.682928955343959
      ],
      [
        "▁hämta",
        -9.684046228841074
      ],
      [
        "’",
        -9.684510184067943
      ],
      [
        "översatt",
        -9.684757736869612
      ],
      [
        "▁diskutera",
        -9.685442491262162
      ],
      [
        "val",
        -9.685522840404618
      ],
      [
        "▁vuxna",
        -9.686841525798414
      ],
      [
        "▁utmärkt",
        -9.687124120260602
      ],
      [
        "▁semester",
        -9.687691689804076
      ],
      [
        "og",
        -9.68780703007122
      ],
      [
        "lättare",
        -9.69348986852514
      ],
      [
        "▁exakt",
        -9.694108593178054
      ],
      [
        "▁teknik",
        -9.69412434997719
      ],
      [
        "▁storlek",
        -9.694130618619214
      ],
      [
        "▁områden",
        -9.69417641455406
      ],
      [
        "▁avsluta",
        -9.694416241208948
      ],
      [
        "▁hösten",
        -9.694491908338811
      ],
      [
        "▁född",
        -9.694629854919903
      ],
      [
        "tiden",
        -9.695053133424805
      ],
      [
        "▁date",
        -9.695061141508575
      ],
      [
        "▁allra",
        -9.695422394624758
      ],
      [
        "▁lunch",
        -9.696065069321037
      ],
      [
        "▁recensioner",
        -9.69736056956754
      ],
      [
        "▁text",
        -9.698613652215068
      ],
      [
        "området",
        -9.699048039494835
      ],
      [
        "▁delta",
        -9.699449067223389
      ],
      [
        "kända",
        -9.700649731057924
      ],
      [
        "▁betydelse",
        -9.700750717664002
      ],
      [
        "▁samtal",
        -9.700882478204113
      ],
      [
        "samtliga",
        -9.701315742831467
      ],
      [
        "▁ögon",
        -9.701680911575803
      ],
      [
        "▁kaffe",
        -9.701926565089034
      ],
      [
        "▁boka",
        -9.704205518622851
      ],
      [
        "via",
        -9.704330362631763
      ],
      [
        "▁forskning",
        -9.704588689318307
      ],
      [
        "▁dåligt",
        -9.705119758720835
      ],
      [
        "så",
        -9.706077755023438
      ],
      [
        "maste",
        -9.70692323988158
      ],
      [
        "▁användning",
        -9.7078519185377
      ],
      [
        "▁Å",
        -9.70787756259994
      ],
      [
        "Hotels",
        -9.70858520761971
      ],
      [
        "enbart",
        -9.70876930244816
      ],
      [
        "▁nivå",
        -9.708930614492422
      ],
      [
        "▁billigt",
        -9.710353960690643
      ],
      [
        "▁hit",
        -9.71081412809901
      ],
      [
        "gren",
        -9.711660318652775
      ],
      [
        "▁Jo",
        -9.711691108925448
      ],
      [
        "▁håll",
        -9.712194156728968
      ],
      [
        "ets",
        -9.712241078530083
      ],
      [
        "▁frukost",
        -9.714205785271993
      ],
      [
        "▁tillhör",
        -9.716502317799138
      ],
      [
        "▁trevlig",
        -9.716738055057618
      ],
      [
        "▁förstås",
        -9.717499868233082
      ],
      [
        "kostar",
        -9.720807906510661
      ],
      [
        "▁pappa",
        -9.724421621532573
      ],
      [
        "▁dela",
        -9.72452647872306
      ],
      [
        "▁Kina",
        -9.725428643674713
      ],
      [
        "▁glas",
        -9.726372057951867
      ],
      [
        "erade",
        -9.726588156721062
      ],
      [
        "köpte",
        -9.727605005444014
      ],
      [
        "ställer",
        -9.727857232941426
      ],
      [
        "▁konstatera",
        -9.728769078517525
      ],
      [
        "▁gäster",
        -9.7317321765879
      ],
      [
        "▁väntar",
        -9.732574711869628
      ],
      [
        "▁bär",
        -9.733444544367332
      ],
      [
        "▁påverka",
        -9.734229861961865
      ],
      [
        "ades",
        -9.73437641992379
      ],
      [
        "▁platser",
        -9.734454493005325
      ],
      [
        "▁åtgärder",
        -9.735671625508603
      ],
      [
        "▁flyg",
        -9.740912485528348
      ],
      [
        "▁webbplats",
        -9.74149788793692
      ],
      [
        "▁massor",
        -9.741651250090275
      ],
      [
        "▁dejtingsidor",
        -9.742049147440866
      ],
      [
        "▁ljud",
        -9.74208123254652
      ],
      [
        "ett",
        -9.742411276722247
      ],
      [
        "▁område",
        -9.743756052951953
      ],
      [
        "▁Barn",
        -9.744021631477153
      ],
      [
        "▁vänta",
        -9.744379475904102
      ],
      [
        "läser",
        -9.745267660536864
      ],
      [
        "bygger",
        -9.745860321274115
      ],
      [
        "▁centrum",
        -9.746224406009874
      ],
      [
        "▁höger",
        -9.746775180120418
      ],
      [
        "▁enkel",
        -9.747873621154207
      ],
      [
        "▁lärare",
        -9.74838298481376
      ],
      [
        "▁högsta",
        -9.7488126160483
      ],
      [
        "iskt",
        -9.7495860657954
      ],
      [
        "▁Foto",
        -9.749967710612157
      ],
      [
        "▁träna",
        -9.751053448360917
      ],
      [
        "▁tillräckligt",
        -9.753247374337178
      ],
      [
        "▁sju",
        -9.754835101457557
      ],
      [
        "▁vänster",
        -9.756846894454972
      ],
      [
        "▁snar",
        -9.757524523205774
      ],
      [
        "▁känsla",
        -9.758212046699203
      ],
      [
        "▁regler",
        -9.758770032341737
      ],
      [
        "▁lyckas",
        -9.758880187740901
      ],
      [
        "▁kontroll",
        -9.760415391216531
      ],
      [
        "▁handla",
        -9.761291967779124
      ],
      [
        "▁läge",
        -9.76177313558998
      ],
      [
        "fallet",
        -9.762296058522258
      ],
      [
        "▁ensam",
        -9.76361504799015
      ],
      [
        "spelade",
        -9.76421012275316
      ],
      [
        "▁kraft",
        -9.764620616867129
      ],
      [
        "ering",
        -9.764999003679412
      ],
      [
        "sådant",
        -9.765039107880035
      ],
      [
        "▁Bo",
        -9.766107401887838
      ],
      [
        "Samtidigt",
        -9.766940289288652
      ],
      [
        "▁reda",
        -9.768539843673853
      ],
      [
        "▁skola",
        -9.769201640305775
      ],
      [
        "▁ålder",
        -9.771540642370494
      ],
      [
        "▁bolag",
        -9.772381100662148
      ],
      [
        "▁trä",
        -9.773305431792272
      ],
      [
        "▁Ingen",
        -9.773814475871987
      ],
      [
        "▁pass",
        -9.774044254615953
      ],
      [
        "▁Maria",
        -9.774093138016973
      ],
      [
        "gick",
        -9.774480037980174
      ],
      [
        "▁ekonomi",
        -9.775044593222388
      ],
      [
        "illa",
        -9.77614061889801
      ],
      [
        "Varje",
        -9.778871728771062
      ],
      [
        "▁gällande",
        -9.779277169662883
      ],
      [
        "▁behöv",
        -9.779562324366706
      ],
      [
        "▁snö",
        -9.779874974436332
      ],
      [
        "huset",
        -9.780415709538541
      ],
      [
        "▁värme",
        -9.7814222281984
      ],
      [
        "▁Peter",
        -9.781701188555566
      ],
      [
        "U",
        -9.782644964106925
      ],
      [
        "▁bygg",
        -9.783639193416041
      ],
      [
        "▁säkerhet",
        -9.78514375308704
      ],
      [
        "Hoppas",
        -9.78551989793786
      ],
      [
        "▁hud",
        -9.785522619702032
      ],
      [
        "ka",
        -9.785654459463377
      ],
      [
        "▁framåt",
        -9.786531049838294
      ],
      [
        "▁Låt",
        -9.78687646916148
      ],
      [
        "lund",
        -9.787169021955565
      ],
      [
        "▁sälja",
        -9.787868347888004
      ],
      [
        "▁valt",
        -9.789468800148853
      ],
      [
        "sta",
        -9.789501685962064
      ],
      [
        "▁filmen",
        -9.789502911652946
      ],
      [
        "▁ekonomiska",
        -9.789829399480482
      ],
      [
        "▁effekt",
        -9.789833054083529
      ],
      [
        "del",
        -9.790708441387524
      ],
      [
        "▁död",
        -9.791574610834571
      ],
      [
        "▁stan",
        -9.791825926638136
      ],
      [
        "▁smak",
        -9.792695716437361
      ],
      [
        "▁bak",
        -9.793661548123548
      ],
      [
        "plats",
        -9.793916237261616
      ],
      [
        "▁Två",
        -9.794294511834167
      ],
      [
        "bok",
        -9.794934026324855
      ],
      [
        "▁anställda",
        -9.79567560712937
      ],
      [
        "▁by",
        -9.796609021687884
      ],
      [
        "▁viktigaste",
        -9.797060416115682
      ],
      [
        "▁lokal",
        -9.797462986321152
      ],
      [
        "▁hårt",
        -9.798066269888434
      ],
      [
        "▁sade",
        -9.798355461490317
      ],
      [
        "▁skada",
        -9.798574714949535
      ],
      [
        "▁tillgängliga",
        -9.801173824379465
      ],
      [
        "▁lista",
        -9.801328898264812
      ],
      [
        "www",
        -9.80141327396386
      ],
      [
        "inklusive",
        -9.803417063977712
      ],
      [
        "▁rolig",
        -9.807048337684888
      ],
      [
        "▁nån",
        -9.807152095763355
      ],
      [
        "▁besökare",
        -9.80782481104663
      ],
      [
        "▁universitet",
        -9.809429673306699
      ],
      [
        "▁leda",
        -9.810317139881974
      ],
      [
        "▁La",
        -9.811110477251558
      ],
      [
        "▁sverige",
        -9.81278958619015
      ],
      [
        "▁sidor",
        -9.814026172632
      ],
      [
        "kort",
        -9.81477879334188
      ],
      [
        "http",
        -9.815993896820492
      ],
      [
        "▁lager",
        -9.816182574303541
      ],
      [
        "▁Hans",
        -9.816445452799421
      ],
      [
        "▁konst",
        -9.816837709506583
      ],
      [
        "lag",
        -9.817249440500746
      ],
      [
        "▁kredit",
        -9.817520605280396
      ],
      [
        "▁kompetens",
        -9.817652410234812
      ],
      [
        "▁Välkommen",
        -9.817778298223026
      ],
      [
        "▁funktion",
        -9.817786968308015
      ],
      [
        "önskar",
        -9.81926476047547
      ],
      [
        "▁övrigt",
        -9.819983079063839
      ],
      [
        "▁mängd",
        -9.82083441813729
      ],
      [
        "trodde",
        -9.822185545054243
      ],
      [
        "ha",
        -9.823071272104215
      ],
      [
        "▁rent",
        -9.823784928944331
      ],
      [
        "säkra",
        -9.824619718336768
      ],
      [
        "stod",
        -9.824901545885462
      ],
      [
        "W",
        -9.825481161071579
      ],
      [
        "▁läst",
        -9.826882280278017
      ],
      [
        "målet",
        -9.827352556943454
      ],
      [
        "▁ske",
        -9.830108185762084
      ],
      [
        "▁konto",
        -9.830547066549606
      ],
      [
        "▁chans",
        -9.830741300598534
      ],
      [
        "▁verktyg",
        -9.832149254057114
      ],
      [
        "▁Lars",
        -9.83358869525907
      ],
      [
        "▁bad",
        -9.833747259948098
      ],
      [
        "▁ben",
        -9.834744342166323
      ],
      [
        "närmare",
        -9.836513034479738
      ],
      [
        "▁Bara",
        -9.837796117632708
      ],
      [
        "▁ladda",
        -9.838503985116452
      ],
      [
        "▁härlig",
        -9.838906218730068
      ],
      [
        "▁Andersson",
        -9.839018384230213
      ],
      [
        "▁variera",
        -9.839158452542792
      ],
      [
        "▁Trots",
        -9.841091807541963
      ],
      [
        "betydligt",
        -9.841857655298462
      ],
      [
        "▁luft",
        -9.84238701040382
      ],
      [
        "▁populära",
        -9.842777529214475
      ],
      [
        "ökad",
        -9.842892720613255
      ],
      [
        "Klicka",
        -9.842974968493294
      ],
      [
        "▁dejtingsida",
        -9.843425875937694
      ],
      [
        "▁natten",
        -9.847260403641394
      ],
      [
        "▁tankar",
        -9.84733797488925
      ],
      [
        "▁prova",
        -9.848117812202217
      ],
      [
        "ewards",
        -9.848582307113404
      ],
      [
        "jämfört",
        -9.848604344465967
      ],
      [
        "▁personliga",
        -9.848749130469804
      ],
      [
        "▁privat",
        -9.848796890716043
      ],
      [
        "▁äter",
        -9.85148936152809
      ],
      [
        "▁kropp",
        -9.851977235414306
      ],
      [
        "utgör",
        -9.852099840431796
      ],
      [
        "▁tjej",
        -9.852536692025723
      ],
      [
        "▁kommentar",
        -9.853514519174146
      ],
      [
        "vore",
        -9.854872810872825
      ],
      [
        "▁studie",
        -9.854927165531493
      ],
      [
        "▁Finns",
        -9.856637206426553
      ],
      [
        "▁försök",
        -9.857300145389491
      ],
      [
        "ner",
        -9.857908121343694
      ],
      [
        "▁Fortsätt",
        -9.858876945338478
      ],
      [
        "▁syn",
        -9.860209592434723
      ],
      [
        "▁klass",
        -9.86085298583355
      ],
      [
        "▁innehåll",
        -9.861396291131994
      ],
      [
        "▁hälso",
        -9.86193566819828
      ],
      [
        "▁någonsin",
        -9.862215528597687
      ],
      [
        "▁höst",
        -9.862486252057893
      ],
      [
        "En",
        -9.864118105252217
      ],
      [
        "slutade",
        -9.8646754003766
      ],
      [
        "▁priset",
        -9.865003214287572
      ],
      [
        "▁Gud",
        -9.867261468722267
      ],
      [
        "▁partner",
        -9.868808119158029
      ],
      [
        "▁kärlek",
        -9.868896731717493
      ],
      [
        "▁etc",
        -9.869250145778409
      ],
      [
        "▁uppdatera",
        -9.869794141624299
      ],
      [
        "▁kommentarer",
        -9.870772084471328
      ],
      [
        "▁läs",
        -9.87165458414659
      ],
      [
        "starkt",
        -9.873234356318116
      ],
      [
        "▁fantastiskt",
        -9.8751283144711
      ],
      [
        "tydligt",
        -9.87597090333315
      ],
      [
        "▁vakna",
        -9.876035199872238
      ],
      [
        "▁bidrag",
        -9.877120873268408
      ],
      [
        "▁El",
        -9.877364411066548
      ],
      [
        "▁dam",
        -9.877552623491265
      ],
      [
        "▁personlig",
        -9.877593655305729
      ],
      [
        "▁bi",
        -9.877943704557424
      ],
      [
        "kan",
        -9.87954785486025
      ],
      [
        "▁ordning",
        -9.879569480468346
      ],
      [
        "▁våren",
        -9.881013903327231
      ],
      [
        "▁video",
        -9.881661855043761
      ],
      [
        "företag",
        -9.881705837278563
      ],
      [
        "▁helg",
        -9.88368513460004
      ],
      [
        "▁klimat",
        -9.883692401671066
      ],
      [
        "▁färger",
        -9.8838651423167
      ],
      [
        "tar",
        -9.884134421486065
      ],
      [
        "▁standard",
        -9.885061464287254
      ],
      [
        "▁drog",
        -9.885150565405578
      ],
      [
        "skolan",
        -9.885958626535144
      ],
      [
        "▁Välj",
        -9.886891302389643
      ],
      [
        "▁Fast",
        -9.887881495409127
      ],
      [
        "▁valde",
        -9.888547581164115
      ],
      [
        "perioden",
        -9.888902057948949
      ],
      [
        "Få",
        -9.88958333919685
      ],
      [
        "me",
        -9.889795291499924
      ],
      [
        "▁Mitt",
        -9.891617788176305
      ],
      [
        "▁vinter",
        -9.8922235773687
      ],
      [
        "▁villkor",
        -9.893743515979939
      ],
      [
        "▁ligga",
        -9.89384669759821
      ],
      [
        "kändes",
        -9.89415519239987
      ],
      [
        "▁Lite",
        -9.8942804921446
      ],
      [
        "▁Nya",
        -9.895840092613373
      ],
      [
        "det",
        -9.896694082801423
      ],
      [
        "var",
        -9.896739132501787
      ],
      [
        "▁fantastisk",
        -9.896947015730424
      ],
      [
        "arbete",
        -9.899044619688373
      ],
      [
        "▁listan",
        -9.899094461943093
      ],
      [
        "▁omdömet",
        -9.899719879913016
      ],
      [
        "▁uppskatta",
        -9.899822036402186
      ],
      [
        "▁förbi",
        -9.900118975783196
      ],
      [
        "▁starta",
        -9.901422349003079
      ],
      [
        "därefter",
        -9.901424820412675
      ],
      [
        "fritt",
        -9.901581011685844
      ],
      [
        "ningen",
        -9.901943331005974
      ],
      [
        "saknar",
        -9.902084673117232
      ],
      [
        "Ibland",
        -9.902641056455536
      ],
      [
        "nummer",
        -9.903228445774806
      ],
      [
        "▁läkare",
        -9.903697269641446
      ],
      [
        "▁tak",
        -9.904901319968229
      ],
      [
        "drygt",
        -9.906391017435885
      ],
      [
        "branschen",
        -9.906771849373289
      ],
      [
        "▁avtal",
        -9.907425462922173
      ],
      [
        "▁kap",
        -9.907695040434955
      ],
      [
        "▁fönster",
        -9.907949815542661
      ],
      [
        "▁ME",
        -9.908717528249687
      ],
      [
        "självklart",
        -9.90942291630653
      ],
      [
        "▁talar",
        -9.910242394273585
      ],
      [
        "funnit",
        -9.911598019428768
      ],
      [
        "▁ungdomar",
        -9.912640142949833
      ],
      [
        "vi",
        -9.913139187650025
      ],
      [
        "ling",
        -9.914904420684122
      ],
      [
        "▁Andra",
        -9.914961746652935
      ],
      [
        "ihåg",
        -9.915163696624544
      ],
      [
        "▁låna",
        -9.91531292775734
      ],
      [
        "▁free",
        -9.915802333241258
      ],
      [
        "▁skäl",
        -9.917717696735314
      ],
      [
        "▁kurs",
        -9.91881307219416
      ],
      [
        "▁cookies",
        -9.91887691884183
      ],
      [
        "fri",
        -9.91901269258509
      ],
      [
        "▁bolaget",
        -9.919333855355287
      ],
      [
        "verket",
        -9.919637537546073
      ],
      [
        "▁risker",
        -9.9207625002926
      ],
      [
        "▁sist",
        -9.921107596872034
      ],
      [
        "▁aktiviteter",
        -9.92111841616222
      ],
      [
        "▁erbjudanden",
        -9.92151087188753
      ],
      [
        "köper",
        -9.922017314363279
      ],
      [
        "äntligen",
        -9.923222897684816
      ],
      [
        "▁medlem",
        -9.923304420071355
      ],
      [
        "▁förutsättningar",
        -9.923451858725066
      ],
      [
        "▁Över",
        -9.92346224835457
      ],
      [
        "▁varmt",
        -9.923610227422559
      ],
      [
        "▁syfte",
        -9.923713573508502
      ],
      [
        "Mer",
        -9.92575007798449
      ],
      [
        "lämnar",
        -9.925780096113497
      ],
      [
        "▁test",
        -9.927043251695862
      ],
      [
        "rna",
        -9.928674492003639
      ],
      [
        "▁klicka",
        -9.928989667031235
      ],
      [
        "▁lyssna",
        -9.929058665738525
      ],
      [
        "trax",
        -9.92972406378273
      ],
      [
        "▁nej",
        -9.929854779823811
      ],
      [
        "▁social",
        -9.93117512493947
      ],
      [
        "ella",
        -9.931609919399385
      ],
      [
        "▁Hotels",
        -9.932459272446154
      ],
      [
        "▁Y",
        -9.932537305453671
      ],
      [
        "▁passa",
        -9.932670035337432
      ],
      [
        "▁plus",
        -9.933913201499783
      ],
      [
        "Vilken",
        -9.934153486990521
      ],
      [
        "▁brott",
        -9.934952176366059
      ],
      [
        "▁sluta",
        -9.93571775051937
      ],
      [
        "▁polis",
        -9.936465197707811
      ],
      [
        "▁dålig",
        -9.937199441114172
      ],
      [
        "form",
        -9.937297692896289
      ],
      [
        "▁omdöme",
        -9.937305490271166
      ],
      [
        "▁spelet",
        -9.937695005535105
      ],
      [
        "▁bit",
        -9.937765413707957
      ],
      [
        "▁tittar",
        -9.937830977679749
      ],
      [
        "gen",
        -9.93797026591735
      ],
      [
        "ansvarig",
        -9.938698668331597
      ],
      [
        "JL",
        -9.93914664450452
      ],
      [
        "▁projektet",
        -9.939911577858341
      ],
      [
        "▁utvecklas",
        -9.939912148268732
      ],
      [
        "▁solen",
        -9.940540389084434
      ],
      [
        "Ja",
        -9.94070987792718
      ],
      [
        "▁osv",
        -9.941528034545524
      ],
      [
        "▁imorgon",
        -9.941961450823026
      ],
      [
        "▁vita",
        -9.942343315192375
      ],
      [
        "▁väder",
        -9.943721961989773
      ],
      [
        "▁slå",
        -9.943849129086288
      ],
      [
        "▁svara",
        -9.945102545397624
      ],
      [
        "Några",
        -9.945148874755056
      ],
      [
        "▁Gratis",
        -9.945223137450622
      ],
      [
        "förutom",
        -9.946181784362453
      ],
      [
        "▁mesta",
        -9.94621604047902
      ],
      [
        "▁middag",
        -9.946345256640067
      ],
      [
        "▁ändring",
        -9.94723538679978
      ],
      [
        "▁öppen",
        -9.947375557776345
      ],
      [
        "▁uppgift",
        -9.947822884777649
      ],
      [
        "▁Finland",
        -9.948441376715223
      ],
      [
        "▁internationella",
        -9.948624405834725
      ],
      [
        "taget",
        -9.950097474197642
      ],
      [
        "▁lön",
        -9.950419365199247
      ],
      [
        "▁stjärnor",
        -9.950475737730299
      ],
      [
        "dvs",
        -9.95064884303224
      ],
      [
        "▁djup",
        -9.95072185343466
      ],
      [
        "▁ingenting",
        -9.951221334006156
      ],
      [
        "ADRESS",
        -9.951712406777478
      ],
      [
        "▁Skåne",
        -9.952018176107455
      ],
      [
        "▁sport",
        -9.952091117479501
      ],
      [
        "undrar",
        -9.95245205710614
      ],
      [
        "▁gilla",
        -9.954469199670168
      ],
      [
        "▁hamna",
        -9.955445367451917
      ],
      [
        "▁häst",
        -9.955748444635242
      ],
      [
        "äger",
        -9.9559093303793
      ],
      [
        "▁trafik",
        -9.956508007875456
      ],
      [
        "▁njuta",
        -9.957360043649901
      ],
      [
        "▁glöm",
        -9.957638701775512
      ],
      [
        "▁dagarna",
        -9.95787528612161
      ],
      [
        "▁fantastiska",
        -9.95804777461655
      ],
      [
        "▁Nr",
        -9.958250932994874
      ],
      [
        "▁lördag",
        -9.959582567693433
      ],
      [
        "ler",
        -9.959721838148011
      ],
      [
        "▁Upp",
        -9.959907765936483
      ],
      [
        "naturligtvis",
        -9.960425982334165
      ],
      [
        "▁fundera",
        -9.961245584813938
      ],
      [
        "▁timme",
        -9.961438746063235
      ],
      [
        "▁restaurang",
        -9.961867891698171
      ],
      [
        "använt",
        -9.962565570313448
      ],
      [
        "▁utför",
        -9.96264405224222
      ],
      [
        "skydd",
        -9.962858938061267
      ],
      [
        "▁åtta",
        -9.963223756771582
      ],
      [
        "▁vattnet",
        -9.963422624271253
      ],
      [
        "▁parti",
        -9.963737447976666
      ],
      [
        "▁medarbetare",
        -9.963984611068806
      ],
      [
        "▁politiska",
        -9.964413481306678
      ],
      [
        "resa",
        -9.96455627884078
      ],
      [
        "▁matcher",
        -9.964741380469265
      ],
      [
        "Visst",
        -9.964755356577035
      ],
      [
        "▁vinst",
        -9.965008553187676
      ],
      [
        "skickade",
        -9.965372174765648
      ],
      [
        "antingen",
        -9.9653917102096
      ],
      [
        "erar",
        -9.965552613263748
      ],
      [
        "▁fredag",
        -9.965555174284889
      ],
      [
        "▁barnet",
        -9.96623353547624
      ],
      [
        "▁modell",
        -9.966625741420268
      ],
      [
        "▁Re",
        -9.966647207645622
      ],
      [
        "produkter",
        -9.966835516259062
      ],
      [
        "▁Jan",
        -9.968367339604479
      ],
      [
        "▁serie",
        -9.968662822371062
      ],
      [
        "▁guld",
        -9.968737010905851
      ],
      [
        "▁mera",
        -9.96916675329481
      ],
      [
        "▁sova",
        -9.970112475325243
      ],
      [
        "▁genomföra",
        -9.97145483061337
      ],
      [
        "▁promenad",
        -9.972935904528015
      ],
      [
        "gården",
        -9.974445919833984
      ],
      [
        "erad",
        -9.975366356792177
      ],
      [
        "▁sjuk",
        -9.975604719551086
      ],
      [
        "erat",
        -9.97561194711734
      ],
      [
        "lin",
        -9.975958052773068
      ],
      [
        "hört",
        -9.976674032669017
      ],
      [
        "▁Lund",
        -9.97690648904981
      ],
      [
        "pratar",
        -9.977346571650223
      ],
      [
        "▁Johansson",
        -9.977382891850302
      ],
      [
        "▁bank",
        -9.977431373515696
      ],
      [
        "▁period",
        -9.978211703372878
      ],
      [
        "rejäl",
        -9.978995951268919
      ],
      [
        "▁mark",
        -9.979370202777547
      ],
      [
        "▁Namn",
        -9.979558150365522
      ],
      [
        "▁knappt",
        -9.981288933994408
      ],
      [
        "klarar",
        -9.981739506449424
      ],
      [
        "▁önska",
        -9.98187262103347
      ],
      [
        "▁nåt",
        -9.982445956482616
      ],
      [
        "▁utbud",
        -9.982631183103765
      ],
      [
        "skor",
        -9.982703147104154
      ],
      [
        "▁Din",
        -9.983280355355003
      ],
      [
        "▁alkohol",
        -9.98430944842873
      ],
      [
        "▁ansökan",
        -9.985098248015575
      ],
      [
        "▁tillstånd",
        -9.985656069481898
      ],
      [
        "nivå",
        -9.986884488693677
      ],
      [
        "▁annorlunda",
        -9.987034254616587
      ],
      [
        "sam",
        -9.988318150728887
      ],
      [
        "▁undvika",
        -9.988989779275014
      ],
      [
        "kallade",
        -9.989192539780134
      ],
      [
        "finner",
        -9.989808633587366
      ],
      [
        "aren",
        -9.991042575016186
      ],
      [
        "▁An",
        -9.992409991482807
      ],
      [
        "▁blå",
        -9.992953811678488
      ],
      [
        "▁samhälls",
        -9.993909358157412
      ],
      [
        "▁budget",
        -9.994089615805402
      ],
      [
        "slog",
        -9.994281797310261
      ],
      [
        "▁Erik",
        -9.995255385486761
      ],
      [
        "nar",
        -9.99653285644045
      ],
      [
        "▁rummet",
        -9.996707082832232
      ],
      [
        "▁Hem",
        -9.996822917260644
      ],
      [
        "▁datorn",
        -9.997285674334575
      ],
      [
        "▁special",
        -9.9977259312876
      ],
      [
        "▁längs",
        -9.999083593213042
      ],
      [
        "▁huvudet",
        -9.999218747101773
      ],
      [
        "▁bilar",
        -9.99952058602893
      ],
      [
        "växer",
        -9.999635734824398
      ],
      [
        "▁All",
        -9.999638532923058
      ],
      [
        "▁patienter",
        -9.999796759718302
      ],
      [
        "Tack",
        -10.000043769348974
      ],
      [
        "▁värld",
        -10.000476355083533
      ],
      [
        "lös",
        -10.000740965041372
      ],
      [
        "▁koll",
        -10.00088288151692
      ],
      [
        "▁huden",
        -10.001790019040794
      ],
      [
        "▁beställa",
        -10.001908889585277
      ],
      [
        "utveckling",
        -10.002008692379372
      ],
      [
        "räcker",
        -10.002721264175959
      ],
      [
        "▁Använd",
        -10.004001593553326
      ],
      [
        "▁sjukdom",
        -10.004020785836092
      ],
      [
        "▁grader",
        -10.004610513590556
      ],
      [
        "▁Lägg",
        -10.004970178096043
      ],
      [
        "▁försäljning",
        -10.005665146520775
      ],
      [
        "sjö",
        -10.005667499652514
      ],
      [
        "▁Ö",
        -10.006239290637415
      ],
      [
        "▁www",
        -10.006640003165629
      ],
      [
        "▁dels",
        -10.00751958612955
      ],
      [
        "▁utvecklingen",
        -10.008534388886615
      ],
      [
        "▁far",
        -10.008658070040331
      ],
      [
        "▁Sätt",
        -10.009084522525999
      ],
      [
        "▁riktig",
        -10.009293477648402
      ],
      [
        "▁bloggen",
        -10.009773102830167
      ],
      [
        "▁idé",
        -10.010734328718327
      ],
      [
        "ökat",
        -10.012209576913884
      ],
      [
        "ämre",
        -10.01230405358683
      ],
      [
        "▁samhälle",
        -10.01293501808498
      ],
      [
        "▁öppet",
        -10.013300158265725
      ],
      [
        "▁leta",
        -10.013464164274307
      ],
      [
        "▁söndag",
        -10.013721670114942
      ],
      [
        "min",
        -10.013780502361985
      ],
      [
        "▁Pris",
        -10.01379042515653
      ],
      [
        "Våra",
        -10.014526637891944
      ],
      [
        "▁kalla",
        -10.014755346507506
      ],
      [
        "▁Kom",
        -10.014784124903287
      ],
      [
        "▁medel",
        -10.015184559562941
      ],
      [
        "▁mår",
        -10.016548104522784
      ],
      [
        "▁kommuner",
        -10.01738407694758
      ],
      [
        "▁Bland",
        -10.017443405646993
      ],
      [
        "▁Bästa",
        -10.017816092322954
      ],
      [
        "bjuder",
        -10.01804959753545
      ],
      [
        "▁tala",
        -10.019698894944872
      ],
      [
        "lyckades",
        -10.021783517717452
      ],
      [
        "hänt",
        -10.02198184663252
      ],
      [
        "▁OK",
        -10.025139133774749
      ],
      [
        "nuvarande",
        -10.02527654925268
      ],
      [
        "ökade",
        -10.025444635368931
      ],
      [
        "▁kostnader",
        -10.026095054975208
      ],
      [
        "▁lägenhet",
        -10.026829734074001
      ],
      [
        "▁Örebro",
        -10.027251668088349
      ],
      [
        "▁slag",
        -10.027858535868713
      ],
      [
        "▁drabba",
        -10.027932516264118
      ],
      [
        "▁högst",
        -10.027953326256707
      ],
      [
        "plötsligt",
        -10.028616159924058
      ],
      [
        "▁namnet",
        -10.029391216061141
      ],
      [
        "stad",
        -10.029894925688966
      ],
      [
        "▁förmåga",
        -10.03097904612868
      ],
      [
        "Igår",
        -10.03144305473177
      ],
      [
        "▁princip",
        -10.03188351390528
      ],
      [
        "anses",
        -10.03191857724355
      ],
      [
        "igen",
        -10.032099260156437
      ],
      [
        "lyckat",
        -10.032406599682522
      ],
      [
        "▁rättigheter",
        -10.03308204680389
      ],
      [
        "▁intresserad",
        -10.033788481035343
      ],
      [
        "▁frukt",
        -10.037596007870047
      ],
      [
        "▁havet",
        -10.03785295540592
      ],
      [
        "▁lösning",
        -10.037914708674204
      ],
      [
        "nu",
        -10.038239817817825
      ],
      [
        "🙂",
        -10.038436694203824
      ],
      [
        "▁IT",
        -10.038967319980596
      ],
      [
        "▁Fredrik",
        -10.039631142674967
      ],
      [
        "någonting",
        -10.040216308811264
      ],
      [
        "▁skit",
        -10.040914584150935
      ],
      [
        "skrevs",
        -10.04184912170308
      ],
      [
        "é",
        -10.042112092499218
      ],
      [
        "▁mil",
        -10.042958117160026
      ],
      [
        "▁yrkes",
        -10.04305348906163
      ],
      [
        "▁himla",
        -10.04308862349644
      ],
      [
        "▁köpt",
        -10.04442328564876
      ],
      [
        "▁Först",
        -10.045499927616623
      ],
      [
        "▁bred",
        -10.045570291229314
      ],
      [
        "▁säljer",
        -10.046286092716246
      ],
      [
        "▁tvinga",
        -10.04654796025785
      ],
      [
        "samt",
        -10.047861953973351
      ],
      [
        "▁Stor",
        -10.048979718587049
      ],
      [
        "▁Martin",
        -10.04926974646179
      ],
      [
        "▁oro",
        -10.04936537460955
      ],
      [
        "▁Casino",
        -10.049852996827013
      ],
      [
        "▁platsen",
        -10.050302636192624
      ],
      [
        "chef",
        -10.050518260132497
      ],
      [
        "▁lagt",
        -10.050803111132344
      ],
      [
        "▁vacker",
        -10.050951482724573
      ],
      [
        "▁dejt",
        -10.051851643624797
      ],
      [
        "▁tryck",
        -10.052903768394343
      ],
      [
        "▁amerikanska",
        -10.053329612538864
      ],
      [
        "▁miljarder",
        -10.053839948193472
      ],
      [
        "▁plast",
        -10.054229510859022
      ],
      [
        "Vilka",
        -10.054454571465893
      ],
      [
        "▁enkla",
        -10.054906755328227
      ],
      [
        "▁Hos",
        -10.055173813202344
      ],
      [
        "▁nyligen",
        -10.055693139018937
      ],
      [
        "▁Bild",
        -10.056623357109853
      ],
      [
        "▁Online",
        -10.056834625595563
      ],
      [
        "känt",
        -10.057629303180352
      ],
      [
        "▁livs",
        -10.057677391227045
      ],
      [
        "visas",
        -10.057727601748939
      ],
      [
        "▁må",
        -10.057814321009573
      ],
      [
        "fall",
        -10.057924108807724
      ],
      [
        "▁situation",
        -10.058740151431557
      ],
      [
        "▁bas",
        -10.058858391923588
      ],
      [
        "▁smidig",
        -10.060600153415603
      ],
      [
        "▁hot",
        -10.060763440955688
      ],
      [
        "▁spår",
        -10.060994242885775
      ],
      [
        "▁missa",
        -10.061577787444675
      ],
      [
        "numera",
        -10.061826973042688
      ],
      [
        "▁timmen",
        -10.061849142769058
      ],
      [
        "ivetvis",
        -10.062027303739042
      ],
      [
        "möta",
        -10.062253223593748
      ],
      [
        "▁satte",
        -10.062397365520162
      ],
      [
        "risken",
        -10.0630259510501
      ],
      [
        "fattar",
        -10.063505336452023
      ],
      [
        "▁förvänta",
        -10.06380618989338
      ],
      [
        "▁våld",
        -10.063873235881537
      ],
      [
        "▁medier",
        -10.063966433572224
      ],
      [
        "▁förhållande",
        -10.064709556111506
      ],
      [
        "▁utnyttja",
        -10.064844039575616
      ],
      [
        "mål",
        -10.065165953283694
      ],
      [
        "▁bakgrund",
        -10.066535622483268
      ],
      [
        "▁trevligt",
        -10.066562386617077
      ],
      [
        "sättet",
        -10.066729039951245
      ],
      [
        "priserna",
        -10.067146217207759
      ],
      [
        "▁resultatet",
        -10.067448743901203
      ],
      [
        "▁tionde",
        -10.068010104886246
      ],
      [
        "Vissa",
        -10.068454004055953
      ],
      [
        "▁Carl",
        -10.069309987954007
      ],
      [
        "ll",
        -10.069764886540083
      ],
      [
        "▁butik",
        -10.069770381804748
      ],
      [
        "pris",
        -10.069840054976115
      ],
      [
        "▁såklart",
        -10.070208113325371
      ],
      [
        "▁sällan",
        -10.072381309770192
      ],
      [
        "▁Google",
        -10.072586689122497
      ],
      [
        "▁Svensk",
        -10.073314337726236
      ],
      [
        "▁startade",
        -10.073652275010872
      ],
      [
        "▁cykel",
        -10.073982524769768
      ],
      [
        "▁Internet",
        -10.074328809795686
      ],
      [
        "▁Norge",
        -10.074828999481877
      ],
      [
        "▁mån",
        -10.075144560492967
      ],
      [
        "fylla",
        -10.075205480694574
      ],
      [
        "ans",
        -10.07600370779712
      ],
      [
        "▁skön",
        -10.076136601729788
      ],
      [
        "▁ges",
        -10.07722436374112
      ],
      [
        "▁skydda",
        -10.07769375445635
      ],
      [
        "▁säkerhets",
        -10.078136182514967
      ],
      [
        "▁prov",
        -10.078137991520103
      ],
      [
        "ningar",
        -10.078393159550021
      ],
      [
        "▁modern",
        -10.078762552478022
      ],
      [
        "▁pengarna",
        -10.079060846609417
      ],
      [
        "▁stockholm",
        -10.080514888566928
      ],
      [
        "▁Tyskland",
        -10.08186164988547
      ],
      [
        "▁mitten",
        -10.082269569563808
      ],
      [
        "▁tillväxt",
        -10.082362006140752
      ],
      [
        "ist",
        -10.082415695166217
      ],
      [
        "▁acceptera",
        -10.082622941501148
      ],
      [
        "▁ung",
        -10.083715698721717
      ],
      [
        "▁gett",
        -10.084022286280042
      ],
      [
        "EN",
        -10.084631181693167
      ],
      [
        "▁läkemedel",
        -10.085090566094442
      ],
      [
        "mark",
        -10.085338364278822
      ],
      [
        "aktuella",
        -10.08579872324658
      ],
      [
        "dagen",
        -10.085954214886968
      ],
      [
        "▁Pro",
        -10.085972326015387
      ],
      [
        "bestämt",
        -10.086136962407972
      ],
      [
        "▁Dock",
        -10.086779587461312
      ],
      [
        "▁Anmäl",
        -10.086841364632248
      ],
      [
        "relativt",
        -10.086883292189086
      ],
      [
        "▁massage",
        -10.08726475018165
      ],
      [
        "visste",
        -10.087981179324947
      ],
      [
        "▁Tre",
        -10.088702671735097
      ],
      [
        "co",
        -10.088889207509196
      ],
      [
        "funkar",
        -10.089641060458407
      ],
      [
        "▁föreslå",
        -10.091541318040372
      ],
      [
        "▁post",
        -10.092210366579877
      ],
      [
        "träffade",
        -10.092476408299524
      ],
      [
        "ört",
        -10.093569925031492
      ],
      [
        "▁London",
        -10.093744675449582
      ],
      [
        "▁betalar",
        -10.096015080629227
      ],
      [
        "garantera",
        -10.096019907549227
      ],
      [
        "▁lösningar",
        -10.096898128913177
      ],
      [
        "▁mörk",
        -10.098826738940316
      ],
      [
        "▁undan",
        -10.099045913906302
      ],
      [
        "▁erbjud",
        -10.099250691693653
      ],
      [
        "▁sten",
        -10.099566303503059
      ],
      [
        "Tyvärr",
        -10.101002297550387
      ],
      [
        "▁Gör",
        -10.101640233809539
      ],
      [
        "Förutom",
        -10.101909102530112
      ],
      [
        "Omdöme",
        -10.101957816014462
      ],
      [
        "▁välkomna",
        -10.103796536623125
      ],
      [
        "▁människa",
        -10.104124168868738
      ],
      [
        "▁bar",
        -10.10437415617322
      ],
      [
        "▁Park",
        -10.104536031430627
      ],
      [
        "åtminstone",
        -10.104568110193842
      ],
      [
        "▁säsong",
        -10.10526447324391
      ],
      [
        "processen",
        -10.105342014098074
      ],
      [
        "möjliga",
        -10.105789523384363
      ],
      [
        "▁kombinera",
        -10.106140912106811
      ],
      [
        "vin",
        -10.10647523214808
      ],
      [
        "omfattande",
        -10.108055429187223
      ],
      [
        "▁besöka",
        -10.108686621037595
      ],
      [
        "▁stress",
        -10.10909066605383
      ],
      [
        "sida",
        -10.110116307485221
      ],
      [
        "▁satsa",
        -10.110645571781692
      ],
      [
        "▁centrala",
        -10.110729147175768
      ],
      [
        "▁normalt",
        -10.111693429917265
      ],
      [
        "körde",
        -10.11215024297148
      ],
      [
        "▁kontrollera",
        -10.112501250610986
      ],
      [
        "▁uppnå",
        -10.11277630130596
      ],
      [
        "▁kille",
        -10.113121997051898
      ],
      [
        "TV",
        -10.113360761051633
      ],
      [
        "▁ställe",
        -10.114012023658557
      ],
      [
        "▁samla",
        -10.114083157354635
      ],
      [
        "▁snygg",
        -10.114875837661014
      ],
      [
        "▁fixa",
        -10.11558579628624
      ],
      [
        "▁Inga",
        -10.115708994394033
      ],
      [
        "▁roliga",
        -10.116610719754402
      ],
      [
        "Skulle",
        -10.117682447335827
      ],
      [
        "▁York",
        -10.118630895245152
      ],
      [
        "han",
        -10.118797162460941
      ],
      [
        "▁möte",
        -10.119131669175488
      ],
      [
        "▁makt",
        -10.119158899059796
      ],
      [
        "enklare",
        -10.119921391421025
      ],
      [
        "▁positiv",
        -10.120443825645358
      ],
      [
        "jag",
        -10.121018251521978
      ],
      [
        "slår",
        -10.122575716687212
      ],
      [
        "▁ses",
        -10.123084475874924
      ],
      [
        "lämnade",
        -10.123596208474758
      ],
      [
        "liggande",
        -10.123763572423892
      ],
      [
        "ställen",
        -10.124246436090933
      ],
      [
        "▁kök",
        -10.124776943414648
      ],
      [
        "▁St",
        -10.124781317292028
      ],
      [
        "väg",
        -10.125671737246229
      ],
      [
        "ernas",
        -10.125678998969208
      ],
      [
        "▁live",
        -10.126119486357297
      ],
      [
        "▁brev",
        -10.127011789668066
      ],
      [
        "▁Nästa",
        -10.128368416584427
      ],
      [
        "▁blod",
        -10.128892742167587
      ],
      [
        "▁rekommenderar",
        -10.128969683021952
      ],
      [
        "▁År",
        -10.129123300021853
      ],
      [
        "▁morgonen",
        -10.130533468980241
      ],
      [
        "▁sjukhus",
        -10.131230962280975
      ],
      [
        "▁tillfälle",
        -10.131687493411379
      ],
      [
        "perfekta",
        -10.133178481583617
      ],
      [
        "ny",
        -10.133465831497348
      ],
      [
        "▁röd",
        -10.133634039684678
      ],
      [
        "▁datum",
        -10.133969207985897
      ],
      [
        "▁jord",
        -10.134646222559674
      ],
      [
        "J",
        -10.13466206439842
      ],
      [
        "▁miss",
        -10.135693018014576
      ],
      [
        "▁regn",
        -10.136387692618928
      ],
      [
        "▁nummer",
        -10.136438515257904
      ],
      [
        "▁förut",
        -10.136920648946758
      ],
      [
        "▁räkna",
        -10.13697253569241
      ],
      [
        "▁info",
        -10.137284565503231
      ],
      [
        "▁City",
        -10.138001551431048
      ],
      [
        "én",
        -10.13830677921842
      ],
      [
        "▁Z",
        -10.138373858220683
      ],
      [
        "▁Spel",
        -10.138776274958508
      ],
      [
        "dal",
        -10.138901643310929
      ],
      [
        "▁ordentligt",
        -10.13915289731113
      ],
      [
        "bild",
        -10.139164139015193
      ],
      [
        "▁Första",
        -10.139984733801926
      ],
      [
        "▁snabba",
        -10.140246088739932
      ],
      [
        "teknik",
        -10.140734869783634
      ],
      [
        "mötet",
        -10.140747297135237
      ],
      [
        "▁Vet",
        -10.140867672913634
      ],
      [
        "vända",
        -10.140910114938565
      ],
      [
        "valda",
        -10.141848922834205
      ],
      [
        "▁Hade",
        -10.142103419477406
      ],
      [
        "ständigt",
        -10.142230704161923
      ],
      [
        "▁varm",
        -10.142560363229702
      ],
      [
        "▁Inn",
        -10.142582040924612
      ],
      [
        "▁leverans",
        -10.14269852076718
      ],
      [
        "▁Dam",
        -10.143758054406801
      ],
      [
        "▁brist",
        -10.14503933574063
      ],
      [
        "▁tal",
        -10.145338021891662
      ],
      [
        "▁följd",
        -10.145915969098295
      ],
      [
        "▁restauranger",
        -10.147393021515139
      ],
      [
        "▁användare",
        -10.14790896999611
      ],
      [
        "planen",
        -10.148228795145641
      ],
      [
        "▁nämn",
        -10.148229985978812
      ],
      [
        "▁Nilsson",
        -10.148380213893901
      ],
      [
        "visat",
        -10.148687708771435
      ],
      [
        "▁adress",
        -10.15040818004609
      ],
      [
        "▁glädje",
        -10.15078439035755
      ],
      [
        "hem",
        -10.15143579866832
      ],
      [
        "▁måndag",
        -10.151892658322204
      ],
      [
        "▁inlägget",
        -10.15402159459294
      ],
      [
        "bedriv",
        -10.1554877291953
      ],
      [
        "▁US",
        -10.155837196358824
      ],
      [
        "▁haha",
        -10.157268866519612
      ],
      [
        "▁Själv",
        -10.15850442923066
      ],
      [
        "tvung",
        -10.158984232100686
      ],
      [
        "allmänna",
        -10.159570295826617
      ],
      [
        "▁utföra",
        -10.161506685915013
      ],
      [
        "▁studier",
        -10.161539604061542
      ],
      [
        "ting",
        -10.162971555085159
      ],
      [
        "▁styr",
        -10.16391042369211
      ],
      [
        "tog",
        -10.165858089668614
      ],
      [
        "▁valet",
        -10.165971318567838
      ],
      [
        "material",
        -10.16681071921256
      ],
      [
        "▁hänsyn",
        -10.167353086664816
      ],
      [
        "→",
        -10.167948441278092
      ],
      [
        "▁Ålder",
        -10.168114302838823
      ],
      [
        "titeln",
        -10.16864938980774
      ],
      [
        "▁organisation",
        -10.16912686648732
      ],
      [
        "▁ägare",
        -10.169377739460943
      ],
      [
        "▁skatte",
        -10.17027403247204
      ],
      [
        "▁slags",
        -10.170710426243145
      ],
      [
        "▁ersättning",
        -10.171721627115518
      ],
      [
        "dan",
        -10.17191016225145
      ],
      [
        "▁upplevelse",
        -10.172061545465866
      ],
      [
        "mat",
        -10.172771155799122
      ],
      [
        "▁ringa",
        -10.172883188907733
      ],
      [
        "lade",
        -10.17322191052175
      ],
      [
        "möjligheten",
        -10.173344722366814
      ],
      [
        "▁media",
        -10.173519394010617
      ],
      [
        "▁webbplatser",
        -10.173812085557675
      ],
      [
        "▁funktioner",
        -10.174947145094116
      ],
      [
        "avseende",
        -10.175752978329745
      ],
      [
        "ord",
        -10.177743185515304
      ],
      [
        "▁problemet",
        -10.178084674406414
      ],
      [
        "ort",
        -10.179926504655453
      ],
      [
        "svarade",
        -10.18352180502297
      ],
      [
        "OF",
        -10.183797330635949
      ],
      [
        "▁Vem",
        -10.184852779111488
      ],
      [
        "▁stycken",
        -10.184914158222126
      ],
      [
        "chansen",
        -10.185686571871347
      ],
      [
        "▁you",
        -10.186299000426434
      ],
      [
        "▁kombination",
        -10.18641493393858
      ],
      [
        "lar",
        -10.186447052689575
      ],
      [
        "rakt",
        -10.18669129844962
      ],
      [
        "▁Frankrike",
        -10.187107873428324
      ],
      [
        "▁Daniel",
        -10.187543885715074
      ],
      [
        "▁hundra",
        -10.187664690846983
      ],
      [
        "▁starka",
        -10.188916465554895
      ],
      [
        "band",
        -10.189515246785648
      ],
      [
        "▁fest",
        -10.189988178087718
      ],
      [
        "befinner",
        -10.190097422083797
      ],
      [
        "▁gemensamma",
        -10.190929568418394
      ],
      [
        "▁kyrkan",
        -10.190975662407714
      ],
      [
        "ram",
        -10.191122339479488
      ],
      [
        "▁fyller",
        -10.191186651486621
      ],
      [
        "▁motsvarande",
        -10.191501908782406
      ],
      [
        "▁översättning",
        -10.192040107089634
      ],
      [
        "▁Stefan",
        -10.192128819659116
      ],
      [
        "▁magen",
        -10.19216354753994
      ],
      [
        "letar",
        -10.194399607605199
      ],
      [
        "grupp",
        -10.194747759400352
      ],
      [
        "bart",
        -10.194942058385609
      ],
      [
        "▁kilometer",
        -10.196534635457823
      ],
      [
        "tjänster",
        -10.19676729879538
      ],
      [
        "▁grupper",
        -10.196855047131091
      ],
      [
        "▁använde",
        -10.197157663094382
      ],
      [
        "▁Gå",
        -10.197227953319882
      ],
      [
        "nade",
        -10.198196836815898
      ],
      [
        "▁politiker",
        -10.198694185919093
      ],
      [
        "▁vackert",
        -10.19882033654694
      ],
      [
        "liv",
        -10.199379173333663
      ],
      [
        "▁Mat",
        -10.201100806896289
      ],
      [
        "▁affärs",
        -10.201853217924334
      ],
      [
        "▁ägg",
        -10.20198497493918
      ],
      [
        "▁röst",
        -10.202039971397285
      ],
      [
        "▁choklad",
        -10.202407325438987
      ],
      [
        "har",
        -10.202941088358328
      ],
      [
        "▁fisk",
        -10.203113746376744
      ],
      [
        "information",
        -10.203349287850148
      ],
      [
        "▁ämnen",
        -10.203349484067658
      ],
      [
        "snabbare",
        -10.203446368717575
      ],
      [
        "situationen",
        -10.203566766172296
      ],
      [
        "▁dotter",
        -10.205743396413077
      ],
      [
        "▁tjänst",
        -10.206439145560743
      ],
      [
        "berättade",
        -10.207319636441156
      ],
      [
        "▁röda",
        -10.207481388577984
      ],
      [
        "bolag",
        -10.207496449323207
      ],
      [
        "eleverna",
        -10.207737587398254
      ],
      [
        "▁naturen",
        -10.208228207137816
      ],
      [
        "▁Vikt",
        -10.208607719201023
      ],
      [
        "▁SVT",
        -10.209867418708422
      ],
      [
        "▁norr",
        -10.211214968946898
      ],
      [
        "▁tecken",
        -10.211489631114429
      ],
      [
        "påverkar",
        -10.212280605283084
      ],
      [
        "▁dyr",
        -10.212815020592187
      ],
      [
        "▁press",
        -10.214006730305535
      ],
      [
        "▁detaljer",
        -10.215594973779758
      ],
      [
        "▁redo",
        -10.215837403485294
      ],
      [
        "▁jämföra",
        -10.216200752130812
      ],
      [
        "▁skogen",
        -10.216367591070503
      ],
      [
        "▁Bil",
        -10.217122386310804
      ],
      [
        "▁tids",
        -10.21783743198483
      ],
      [
        "FV",
        -10.218260228370392
      ],
      [
        "▁Skriv",
        -10.218837176557336
      ],
      [
        "sten",
        -10.21894813039635
      ],
      [
        "beskriver",
        -10.219076229415567
      ],
      [
        "▁jämför",
        -10.220681647482419
      ],
      [
        "▁digitala",
        -10.2209933801404
      ],
      [
        "▁minns",
        -10.221045195162962
      ],
      [
        "link",
        -10.221914184977845
      ],
      [
        "▁personen",
        -10.221939975841567
      ],
      [
        "från",
        -10.222251001272417
      ],
      [
        "service",
        -10.223200985027152
      ],
      [
        "▁förändringar",
        -10.223240366009534
      ],
      [
        "▁fart",
        -10.223721855801026
      ],
      [
        "▁TripAdvisor",
        -10.223808188018285
      ],
      [
        "▁båt",
        -10.22409820899299
      ],
      [
        "bilder",
        -10.224159346276542
      ],
      [
        "verksamhet",
        -10.224972274071893
      ],
      [
        "▁dröm",
        -10.225370484023369
      ],
      [
        "up",
        -10.225920255299545
      ],
      [
        "▁John",
        -10.226021328893134
      ],
      [
        "område",
        -10.226345584439464
      ],
      [
        "konstigt",
        -10.22684047311764
      ],
      [
        "▁transport",
        -10.227167026108882
      ],
      [
        "värre",
        -10.227421127425902
      ],
      [
        "känslan",
        -10.228080472519745
      ],
      [
        "▁yngre",
        -10.228106043552966
      ],
      [
        "▁filmer",
        -10.228706369291428
      ],
      [
        "Någon",
        -10.228769031135975
      ],
      [
        "▁mail",
        -10.228919093771893
      ],
      [
        "Om",
        -10.22952811835455
      ],
      [
        "▁genomför",
        -10.22998965953484
      ],
      [
        "▁utomhus",
        -10.230752473363586
      ],
      [
        "▁ledare",
        -10.230775570559594
      ],
      [
        "▁fot",
        -10.231043832345359
      ],
      [
        "▁foto",
        -10.231489207393627
      ],
      [
        "▁ända",
        -10.2322023647025
      ],
      [
        "▁Del",
        -10.232293623994897
      ],
      [
        "▁botten",
        -10.23232926731469
      ],
      [
        "▁Co",
        -10.233681349130633
      ],
      [
        "▁företags",
        -10.23399715435198
      ],
      [
        "▁mode",
        -10.234036170912681
      ],
      [
        "▁socker",
        -10.234413074154023
      ],
      [
        "hittills",
        -10.234903932831436
      ],
      [
        "För",
        -10.234932573556543
      ],
      [
        "▁Le",
        -10.235745235932285
      ],
      [
        "▁nödvändigt",
        -10.236627037691793
      ],
      [
        "▁herr",
        -10.237081935161013
      ],
      [
        "förbundet",
        -10.237470682311399
      ],
      [
        "▁hopp",
        -10.238383012138426
      ],
      [
        "▁butiker",
        -10.238815401560855
      ],
      [
        "▁idéer",
        -10.239527060694595
      ],
      [
        "▁informationen",
        -10.239761587518355
      ],
      [
        "▁Fri",
        -10.239776345378923
      ],
      [
        "▁resurser",
        -10.239804885808153
      ],
      [
        "varken",
        -10.242311151985453
      ],
      [
        "▁mjuk",
        -10.242353756210816
      ],
      [
        "▁hundar",
        -10.242634078610132
      ],
      [
        "▁chef",
        -10.242695392402132
      ],
      [
        "▁avgörande",
        -10.243626850590937
      ],
      [
        "▁leverera",
        -10.243631822038946
      ],
      [
        "▁korrekt",
        -10.243747850760377
      ],
      [
        "▁badrum",
        -10.243758883198254
      ],
      [
        "▁with",
        -10.24401521941838
      ],
      [
        "▁fa",
        -10.244949825108462
      ],
      [
        "möter",
        -10.245065481783575
      ],
      [
        "▁hyra",
        -10.245525698405036
      ],
      [
        "▁Umeå",
        -10.246175317755926
      ],
      [
        "▁Al",
        -10.246414750728018
      ],
      [
        "q",
        -10.24732100177484
      ],
      [
        "▁katt",
        -10.247326670402622
      ],
      [
        "▁di",
        -10.248278816697258
      ],
      [
        "▁moderna",
        -10.248377893457114
      ],
      [
        "▁San",
        -10.248476589618578
      ],
      [
        "bra",
        -10.248674968536992
      ],
      [
        "▁grad",
        -10.248881918333876
      ],
      [
        "baserade",
        -10.24894555350117
      ],
      [
        "▁perspektiv",
        -10.249539192568513
      ],
      [
        "positivt",
        -10.249817525049915
      ],
      [
        "Vilket",
        -10.250477496304876
      ],
      [
        "förmodligen",
        -10.250816028366982
      ],
      [
        "faller",
        -10.251576650308424
      ],
      [
        "▁grundläggande",
        -10.251984641722945
      ],
      [
        "▁känd",
        -10.25227606177641
      ],
      [
        "▁Paris",
        -10.252564380289773
      ],
      [
        "▁hamnar",
        -10.252634172445632
      ],
      [
        "▁besluta",
        -10.252918114270035
      ],
      [
        "▁webbplatsen",
        -10.25394422140591
      ],
      [
        "▁inled",
        -10.254048046431699
      ],
      [
        "ER",
        -10.254471110154997
      ],
      [
        "rika",
        -10.254746098254904
      ],
      [
        "▁svarar",
        -10.25621438825592
      ],
      [
        "▁privata",
        -10.256241773843882
      ],
      [
        "Något",
        -10.259299060550152
      ],
      [
        "▁förändring",
        -10.260060833012616
      ],
      [
        "▁buss",
        -10.26074510347869
      ],
      [
        "▁tider",
        -10.261056959942083
      ],
      [
        "▁kommunikation",
        -10.261068381485336
      ],
      [
        "▁springa",
        -10.261114759116452
      ],
      [
        "▁jorden",
        -10.26154179605037
      ],
      [
        "▁inspiration",
        -10.261995749252385
      ],
      [
        "▁tillgänglig",
        -10.26206053795398
      ],
      [
        "▁plocka",
        -10.262600170189135
      ],
      [
        "▁kött",
        -10.262709301304037
      ],
      [
        "▁uppenbar",
        -10.262822526665417
      ],
      [
        "▁orsak",
        -10.26331085481646
      ],
      [
        "ver",
        -10.26332255381441
      ],
      [
        "▁inkomst",
        -10.263513369682702
      ],
      [
        "full",
        -10.263625072372333
      ],
      [
        "▁träd",
        -10.263721712952583
      ],
      [
        "▁omedelbart",
        -10.264364380784365
      ],
      [
        "namn",
        -10.264462425929294
      ],
      [
        "▁Ge",
        -10.264905331755
      ],
      [
        "▁ikväll",
        -10.265211562412983
      ],
      [
        "▁Björn",
        -10.26557550648897
      ],
      [
        "▁framtid",
        -10.265795114228073
      ],
      [
        "kallar",
        -10.265838103429077
      ],
      [
        "framförallt",
        -10.266442679388444
      ],
      [
        "▁känslor",
        -10.266572207517306
      ],
      [
        "▁håret",
        -10.26670995334507
      ],
      [
        "läge",
        -10.266711377991191
      ],
      [
        "▁fett",
        -10.267493008194528
      ],
      [
        "▁Danmark",
        -10.268468140350278
      ],
      [
        "▁regel",
        -10.268673392129406
      ],
      [
        "▁driver",
        -10.26906177884628
      ],
      [
        "▁sikt",
        -10.269245416167186
      ],
      [
        "▁rädda",
        -10.269469267282872
      ],
      [
        "▁skydd",
        -10.269859089065605
      ],
      [
        "▁Innan",
        -10.270411420621699
      ],
      [
        "myndigheten",
        -10.271299214006284
      ],
      [
        "▁månaden",
        -10.271449388910012
      ],
      [
        "rik",
        -10.27155415852892
      ],
      [
        "▁toppen",
        -10.271582812226212
      ],
      [
        "▁vitt",
        -10.272768504101855
      ],
      [
        "▁erfarenheter",
        -10.27297012806643
      ],
      [
        "gång",
        -10.273734974106667
      ],
      [
        "kar",
        -10.274371123422291
      ],
      [
        "▁resan",
        -10.274504430782171
      ],
      [
        "▁karta",
        -10.276569546111723
      ],
      [
        "delas",
        -10.277557151377298
      ],
      [
        "▁blommor",
        -10.27783461315445
      ],
      [
        "▁driva",
        -10.278012683020707
      ],
      [
        "▁långsiktig",
        -10.27824097313349
      ],
      [
        "▁Få",
        -10.278424291286534
      ],
      [
        "▁varumärken",
        -10.278454447877097
      ],
      [
        "▁fördel",
        -10.27896316559447
      ],
      [
        "▁Super",
        -10.279030960060913
      ],
      [
        "▁sent",
        -10.279033978779927
      ],
      [
        "▁underbara",
        -10.279605516833215
      ],
      [
        "▁David",
        -10.280941427139588
      ],
      [
        "▁startar",
        -10.281348567468129
      ],
      [
        "▁politik",
        -10.281713582548242
      ],
      [
        "uppleva",
        -10.281893281687102
      ],
      [
        "skaffa",
        -10.281942983039928
      ],
      [
        "▁bedöm",
        -10.282366593817317
      ],
      [
        "▁förklara",
        -10.282767766272869
      ],
      [
        "▁SM",
        -10.282919398797432
      ],
      [
        "▁snygga",
        -10.283080284260178
      ],
      [
        "▁svarta",
        -10.283907961165792
      ],
      [
        "▁unik",
        -10.284304702818837
      ],
      [
        "härligt",
        -10.284938487779307
      ],
      [
        "bjöd",
        -10.28528074189003
      ],
      [
        "enskilda",
        -10.28689730606961
      ],
      [
        "▁Dom",
        -10.287002989481318
      ],
      [
        "minskar",
        -10.287367747448142
      ],
      [
        "▁staten",
        -10.287418474718041
      ],
      [
        "ina",
        -10.28743244366543
      ],
      [
        "▁Sex",
        -10.287704076520878
      ],
      [
        "▁utsikt",
        -10.288761390037907
      ],
      [
        "▁maten",
        -10.28889447884136
      ],
      [
        "unika",
        -10.28910233068441
      ],
      [
        "pass",
        -10.289570973462931
      ],
      [
        "▁bilderna",
        -10.290958487390942
      ],
      [
        "https",
        -10.291177260903419
      ],
      [
        "tanken",
        -10.291946603842867
      ],
      [
        "▁avsnitt",
        -10.292263848520735
      ],
      [
        "▁bedömning",
        -10.29267545361507
      ],
      [
        "▁Jonas",
        -10.292747200933006
      ],
      [
        "▁världs",
        -10.2927764840821
      ],
      [
        "▁omöjlig",
        -10.292898968833153
      ],
      [
        "▁tänk",
        -10.293602848639184
      ],
      [
        "närvarande",
        -10.2941238356709
      ],
      [
        "du",
        -10.294261801607082
      ],
      [
        "partiet",
        -10.29436553446985
      ],
      [
        "kursen",
        -10.294381841248809
      ],
      [
        "▁bostads",
        -10.294431238372983
      ],
      [
        "▁betyd",
        -10.29454164281893
      ],
      [
        "▁rapport",
        -10.29455604964259
      ],
      [
        "▁Mina",
        -10.294812681158902
      ],
      [
        "slagen",
        -10.295355898580247
      ],
      [
        "▁tillämpa",
        -10.295543751377908
      ],
      [
        "mässigt",
        -10.296894923191557
      ],
      [
        "▁underlätta",
        -10.297840152336594
      ],
      [
        "▁kunskaper",
        -10.297886982897852
      ],
      [
        "▁nationella",
        -10.298734389492326
      ],
      [
        "▁nyheter",
        -10.29885400220806
      ],
      [
        "▁Dagens",
        -10.298957699751881
      ],
      [
        "mängder",
        -10.300688256607293
      ],
      [
        "▁vila",
        -10.300879381445261
      ],
      [
        "▁fakta",
        -10.301012734043999
      ],
      [
        "vid",
        -10.30103707843781
      ],
      [
        "dörren",
        -10.302071141609776
      ],
      [
        "rummet",
        -10.302472106145009
      ],
      [
        "serien",
        -10.302618010496596
      ],
      [
        "▁analys",
        -10.302628361968718
      ],
      [
        "▁dubbel",
        -10.302724530190583
      ],
      [
        "nsåg",
        -10.302865595600869
      ],
      [
        "▁Nord",
        -10.303161860421131
      ],
      [
        "löst",
        -10.303486224056897
      ],
      [
        "skap",
        -10.304028049582639
      ],
      [
        "▁Svar",
        -10.304085945636135
      ],
      [
        "holm",
        -10.304329273699826
      ],
      [
        "▁växa",
        -10.304330451259181
      ],
      [
        "▁tränings",
        -10.305559295136769
      ],
      [
        "▁Nyheter",
        -10.305612721107435
      ],
      [
        "▁organisationer",
        -10.305632123000736
      ],
      [
        "▁tycka",
        -10.306719437393308
      ],
      [
        "▁förlora",
        -10.30735854020335
      ],
      [
        "▁tekniska",
        -10.307875677609283
      ],
      [
        "frågade",
        -10.30796075346072
      ],
      [
        "▁reklam",
        -10.308079986364836
      ],
      [
        "▁verksamheter",
        -10.308423016534132
      ],
      [
        "▁nätverk",
        -10.308750515281899
      ],
      [
        "slag",
        -10.308758753797978
      ],
      [
        "tips",
        -10.3089760957759
      ],
      [
        "▁sån",
        -10.309092947921151
      ],
      [
        "▁fotboll",
        -10.309768077095045
      ],
      [
        "▁Sport",
        -10.310003267815581
      ],
      [
        "▁underbar",
        -10.31052164376172
      ],
      [
        "▁effektivt",
        -10.310703875986384
      ],
      [
        "▁stoppa",
        -10.311441822948149
      ],
      [
        "rätten",
        -10.311588352048624
      ],
      [
        "▁säng",
        -10.3116714990573
      ],
      [
        "spelare",
        -10.31182955120468
      ],
      [
        "frågor",
        -10.311996990121528
      ],
      [
        "orsaka",
        -10.313651010272912
      ],
      [
        "officiell",
        -10.314129583604993
      ],
      [
        "▁relation",
        -10.315374903353149
      ],
      [
        "▁produkten",
        -10.3161799957672
      ],
      [
        "▁Får",
        -10.316422023304018
      ],
      [
        "▁led",
        -10.316748288406833
      ],
      [
        "▁syns",
        -10.316884737073554
      ],
      [
        "▁tillfällen",
        -10.317198050921165
      ],
      [
        "lugnt",
        -10.317577938374422
      ],
      [
        "stämmer",
        -10.317751898289737
      ],
      [
        "▁mönster",
        -10.317777533669618
      ],
      [
        "▁aktivt",
        -10.318004335901135
      ],
      [
        "▁billig",
        -10.31842864992454
      ],
      [
        "sånt",
        -10.318447665515595
      ],
      [
        "riktiga",
        -10.318522820995508
      ],
      [
        "granskar",
        -10.318845005214301
      ],
      [
        "▁serien",
        -10.319400170105043
      ],
      [
        "line",
        -10.320630009741038
      ],
      [
        "De",
        -10.320859696798674
      ],
      [
        "öppnar",
        -10.320994752247532
      ],
      [
        "▁Windows",
        -10.321019163507211
      ],
      [
        "▁inre",
        -10.321476867353669
      ],
      [
        "▁fika",
        -10.32154170145728
      ],
      [
        "▁köket",
        -10.321684486863075
      ],
      [
        "▁trygg",
        -10.321865194761632
      ],
      [
        "▁paket",
        -10.32221679534359
      ],
      [
        "varande",
        -10.32248182710133
      ],
      [
        "▁gäng",
        -10.32300267174054
      ],
      [
        "▁Hela",
        -10.32404964652575
      ],
      [
        "▁överens",
        -10.32438869114786
      ],
      [
        "▁frakt",
        -10.324431259983928
      ],
      [
        "▁fira",
        -10.324471124639173
      ],
      [
        "Z",
        -10.325005646826506
      ],
      [
        "ledes",
        -10.325032784482776
      ],
      [
        "▁säg",
        -10.325495802436183
      ],
      [
        "▁sängen",
        -10.32561728568641
      ],
      [
        "▁rädd",
        -10.325743147160193
      ],
      [
        "▁söder",
        -10.3259235804213
      ],
      [
        "rådet",
        -10.327577215976039
      ],
      [
        "▁bio",
        -10.327901002840791
      ],
      [
        "industrin",
        -10.32813642476239
      ],
      [
        "one",
        -10.328236878835853
      ],
      [
        "▁tåg",
        -10.328421099664459
      ],
      [
        "upp",
        -10.329637228086835
      ],
      [
        "▁värd",
        -10.329803347669806
      ],
      [
        "▁insatser",
        -10.329946777210482
      ],
      [
        "▁bekräfta",
        -10.330076521927163
      ],
      [
        "▁rimlig",
        -10.330372345210849
      ],
      [
        "▁dokument",
        -10.330479073565023
      ],
      [
        "▁Storbritannien",
        -10.331678921833374
      ],
      [
        "▁dans",
        -10.331992659238058
      ],
      [
        "längst",
        -10.33228881081359
      ],
      [
        "▁ordet",
        -10.332753481565952
      ],
      [
        "▁total",
        -10.33287157886559
      ],
      [
        "vatten",
        -10.333063685310105
      ],
      [
        "orkar",
        -10.333292248889409
      ],
      [
        "▁tidningen",
        -10.333574076068652
      ],
      [
        "▁döda",
        -10.334904734095634
      ],
      [
        "▁vintern",
        -10.334905961318809
      ],
      [
        "tre",
        -10.33521813589447
      ],
      [
        "loppet",
        -10.335998337334683
      ],
      [
        "▁uppmärksamma",
        -10.336606997604317
      ],
      [
        "▁allmän",
        -10.336998013932332
      ],
      [
        "positiva",
        -10.33709423682993
      ],
      [
        "▁Berg",
        -10.337311082735965
      ],
      [
        "stöd",
        -10.337568189407573
      ],
      [
        "▁Stora",
        -10.337590265118807
      ],
      [
        "intresserade",
        -10.337786676057403
      ],
      [
        "▁möjlig",
        -10.338550934024733
      ],
      [
        "▁extremt",
        -10.338881444509727
      ],
      [
        "stått",
        -10.33900305037336
      ],
      [
        "medel",
        -10.339091853700083
      ],
      [
        "framtida",
        -10.339370353577783
      ],
      [
        "▁kapital",
        -10.340795876833958
      ],
      [
        "världen",
        -10.340933806146248
      ],
      [
        "▁tillåt",
        -10.341004092997462
      ],
      [
        "läste",
        -10.341092936914544
      ],
      [
        "▁nio",
        -10.34242049630819
      ],
      [
        "▁punkt",
        -10.342552465715757
      ],
      [
        "▁mening",
        -10.34393775185647
      ],
      [
        "▁slutar",
        -10.344214259337651
      ],
      [
        "▁utrymme",
        -10.344671219412941
      ],
      [
        "▁frisk",
        -10.344671600222142
      ],
      [
        "▁definitiv",
        -10.344976293550468
      ],
      [
        "▁försökt",
        -10.344990271735714
      ],
      [
        "▁process",
        -10.345701514224208
      ],
      [
        "utbildning",
        -10.34620225732726
      ],
      [
        "▁Göteborgs",
        -10.346390944508851
      ],
      [
        "beslutet",
        -10.346915128680136
      ],
      [
        "▁Italien",
        -10.348064992112416
      ],
      [
        "▁metod",
        -10.348980667190425
      ],
      [
        "▁utbildnings",
        -10.349096206460977
      ],
      [
        "än",
        -10.349298365847693
      ],
      [
        "▁Bygg",
        -10.349434105869566
      ],
      [
        "▁glada",
        -10.350062175617394
      ],
      [
        "▁kost",
        -10.350777621929833
      ],
      [
        "fria",
        -10.35092967756017
      ],
      [
        "▁färdig",
        -10.35106949394967
      ],
      [
        "▁mjölk",
        -10.351655059620851
      ],
      [
        "▁myndigheter",
        -10.351732672684793
      ],
      [
        "▁skull",
        -10.352320094255855
      ],
      [
        "▁underbart",
        -10.352478722550359
      ],
      [
        "▁euro",
        -10.352498807312875
      ],
      [
        "▁hård",
        -10.352849419982242
      ],
      [
        "projekt",
        -10.3533296880599
      ],
      [
        "borg",
        -10.355511686268812
      ],
      [
        "mött",
        -10.356479672243136
      ],
      [
        "tals",
        -10.357338599081201
      ],
      [
        "originalet",
        -10.357519076972173
      ],
      [
        "▁ögonen",
        -10.357598373535344
      ],
      [
        "▁avgifter",
        -10.35761544963378
      ],
      [
        "▁hjärtat",
        -10.35776963944564
      ],
      [
        "brett",
        -10.358381657848799
      ],
      [
        "▁våga",
        -10.358401115154772
      ],
      [
        "Både",
        -10.358584899881944
      ],
      [
        "▁rörelse",
        -10.358667063740015
      ],
      [
        "sätt",
        -10.358689989499757
      ],
      [
        "rad",
        -10.35928136620337
      ],
      [
        "The",
        -10.36012202826937
      ],
      [
        "▁egenskaper",
        -10.360371559354485
      ],
      [
        "vädret",
        -10.36039453465519
      ],
      [
        "bil",
        -10.360709459591433
      ],
      [
        "Y",
        -10.361378909309531
      ],
      [
        "flyttade",
        -10.36180340674162
      ],
      [
        "▁låga",
        -10.362050652060873
      ],
      [
        "områden",
        -10.362053331556721
      ],
      [
        "qvist",
        -10.362421946069933
      ],
      [
        "▁bära",
        -10.362776193467772
      ],
      [
        "▁lågt",
        -10.36375569782973
      ],
      [
        "▁föreningen",
        -10.364131349381278
      ],
      [
        "▁band",
        -10.364354968832524
      ],
      [
        "ledde",
        -10.364667016991763
      ],
      [
        "▁Er",
        -10.36467316600015
      ],
      [
        "▁nät",
        -10.364736028777973
      ],
      [
        "▁betalnings",
        -10.365028299850367
      ],
      [
        "▁lek",
        -10.365646536523089
      ],
      [
        "▁kostnad",
        -10.36613201437476
      ],
      [
        "▁vuxen",
        -10.367274809196319
      ],
      [
        "▁pdf",
        -10.367726668204796
      ],
      [
        "▁fordon",
        -10.367937830951258
      ],
      [
        "upplever",
        -10.368344432507342
      ],
      [
        "▁offentliga",
        -10.368687406765094
      ],
      [
        "eventuella",
        -10.368920034968843
      ],
      [
        "hörde",
        -10.36941283130668
      ],
      [
        "modellen",
        -10.37041415056812
      ],
      [
        "politiken",
        -10.370605822471472
      ],
      [
        "▁ton",
        -10.371857493901793
      ],
      [
        "▁singlar",
        -10.372112015903358
      ],
      [
        "▁hälften",
        -10.372983928664661
      ],
      [
        "▁Eva",
        -10.373170038136877
      ],
      [
        "{",
        -10.373205370329535
      ],
      [
        "grupper",
        -10.373455487606465
      ],
      [
        "vunnit",
        -10.373471422242423
      ],
      [
        "▁metoder",
        -10.373561700954216
      ],
      [
        "pga",
        -10.373604106267418
      ],
      [
        "▁vardag",
        -10.373952287183739
      ],
      [
        "▁VM",
        -10.375202920392761
      ],
      [
        "Förbättra",
        -10.375470737818036
      ],
      [
        "Flera",
        -10.375709991292975
      ],
      [
        "▁Kommer",
        -10.376367395695897
      ],
      [
        "faktum",
        -10.377566432519384
      ],
      [
        "jobbigt",
        -10.378575256454193
      ],
      [
        "▁Spanien",
        -10.378916703444999
      ],
      [
        "▁jakt",
        -10.379908303555032
      ],
      [
        "▁former",
        -10.380597553170427
      ],
      [
        "lån",
        -10.380598143857664
      ],
      [
        "▁dricka",
        -10.381121279299302
      ],
      [
        "Årets",
        -10.381573083399612
      ],
      [
        "▁allvar",
        -10.381824224000058
      ],
      [
        "Utmärkt",
        -10.381969957326733
      ],
      [
        "sett",
        -10.382567721682843
      ],
      [
        "▁bevis",
        -10.382715005868866
      ],
      [
        "▁medför",
        -10.38287054748298
      ],
      [
        "baserad",
        -10.382976520779248
      ],
      [
        "▁Magnus",
        -10.383257050098308
      ],
      [
        "översättningar",
        -10.383691891641247
      ],
      [
        "▁psykisk",
        -10.383760146888577
      ],
      [
        "blad",
        -10.383982423467815
      ],
      [
        "▁straff",
        -10.384104124576343
      ],
      [
        "▁hände",
        -10.384158798900453
      ],
      [
        "▁klubben",
        -10.384636515684575
      ],
      [
        "▁fjärde",
        -10.384843767027432
      ],
      [
        "okej",
        -10.385669738457603
      ],
      [
        "mar",
        -10.38593426015739
      ],
      [
        "baserat",
        -10.38616400037824
      ],
      [
        "avtalet",
        -10.386325854787765
      ],
      [
        "▁torr",
        -10.386615999243833
      ],
      [
        "Visa",
        -10.38730944054406
      ],
      [
        "texten",
        -10.387579055442048
      ],
      [
        "▁rese",
        -10.387642224251996
      ],
      [
        "soffan",
        -10.387771733239639
      ],
      [
        "Annars",
        -10.38778848307051
      ],
      [
        "män",
        -10.388230772819984
      ],
      [
        "▁familje",
        -10.388319227521379
      ],
      [
        "▁Tillväxt",
        -10.388935104414616
      ],
      [
        "▁anti",
        -10.389086334905448
      ],
      [
        "▁utom",
        -10.389136548037147
      ],
      [
        "▁tjäna",
        -10.389388885645149
      ],
      [
        "▁Aktiebolag",
        -10.390230560493405
      ],
      [
        "▁Västra",
        -10.390655281977294
      ],
      [
        "ytan",
        -10.39109409250235
      ],
      [
        "verk",
        -10.391111287459617
      ],
      [
        "▁erbjudande",
        -10.391304807603733
      ],
      [
        "▁enhet",
        -10.391383157157989
      ],
      [
        "tävlingen",
        -10.391397533689858
      ],
      [
        "▁intressanta",
        -10.391588359482466
      ],
      [
        "finansiella",
        -10.39184037350608
      ],
      [
        "▁Ca",
        -10.392176055203738
      ],
      [
        "▁Bar",
        -10.392821696242995
      ],
      [
        "▁vind",
        -10.392990031416684
      ],
      [
        "bolaget",
        -10.39304587031578
      ],
      [
        "hinner",
        -10.394277051622039
      ],
      [
        "▁Helt",
        -10.394691971613122
      ],
      [
        "vik",
        -10.39504849621043
      ],
      [
        "arbetat",
        -10.395078768324224
      ],
      [
        "▁svåra",
        -10.395531001061487
      ],
      [
        "▁hål",
        -10.395895059411117
      ],
      [
        "generell",
        -10.395990644399024
      ],
      [
        "▁nere",
        -10.396074469397465
      ],
      [
        "kontoret",
        -10.396936399052302
      ],
      [
        "klassiska",
        -10.397057376988892
      ],
      [
        "Dålig",
        -10.397229151956406
      ],
      [
        "▁bestämma",
        -10.397709708120669
      ],
      [
        "▁hjärta",
        -10.398661630566403
      ],
      [
        "}",
        -10.398717235351953
      ],
      [
        "▁sömn",
        -10.398761941379192
      ],
      [
        "utöver",
        -10.399431224403868
      ],
      [
        "▁ungdoms",
        -10.399944036701257
      ],
      [
        "desto",
        -10.40014172992755
      ],
      [
        "nämnden",
        -10.400498087861944
      ],
      [
        "▁Lind",
        -10.401370635293262
      ],
      [
        "▁undantag",
        -10.402402277966036
      ],
      [
        "▁kompis",
        -10.403144270157972
      ],
      [
        "▁Larsson",
        -10.403561666806498
      ],
      [
        "▁iaf",
        -10.404051456068927
      ],
      [
        "▁modeller",
        -10.404675742612254
      ],
      [
        "▁forskare",
        -10.404843375129262
      ],
      [
        "▁stranden",
        -10.405575279463598
      ],
      [
        "▁Sten",
        -10.405781840855273
      ],
      [
        "ken",
        -10.406083509027383
      ],
      [
        "▁sammanhang",
        -10.407038020388185
      ],
      [
        "närmast",
        -10.407069876201312
      ],
      [
        "kläder",
        -10.40731507916528
      ],
      [
        "▁Ryssland",
        -10.407562544006966
      ],
      [
        "vänder",
        -10.407800657495283
      ],
      [
        "nivåer",
        -10.40789539450756
      ],
      [
        "skiljer",
        -10.408588260880661
      ],
      [
        "▁naturligt",
        -10.408908701203869
      ],
      [
        "▁sms",
        -10.408977192129585
      ],
      [
        "Börja",
        -10.40952567543572
      ],
      [
        "▁aktier",
        -10.410018784420782
      ],
      [
        "intill",
        -10.410674511352314
      ],
      [
        "▁knapp",
        -10.411013299611344
      ],
      [
        "nått",
        -10.411025179153036
      ],
      [
        "▁Ju",
        -10.411124102257986
      ],
      [
        "▁välkommen",
        -10.411202051131566
      ],
      [
        "▁Vårt",
        -10.411203636070725
      ],
      [
        "Bolaget",
        -10.411633345438137
      ],
      [
        "▁utrustning",
        -10.411956534276483
      ],
      [
        "▁Thomas",
        -10.412184324788365
      ],
      [
        "▁korta",
        -10.412200551398993
      ],
      [
        "tur",
        -10.412309973257774
      ],
      [
        "▁vinner",
        -10.412559045808601
      ],
      [
        "▁hållbar",
        -10.412851032877136
      ],
      [
        "▁Information",
        -10.413844114256829
      ],
      [
        "golvet",
        -10.414120074354319
      ],
      [
        "▁artikeln",
        -10.414253494848838
      ],
      [
        "▁Kultur",
        -10.414731125786368
      ],
      [
        "▁öl",
        -10.414757243657386
      ],
      [
        "▁Kalmar",
        -10.414818826689597
      ],
      [
        "▁mått",
        -10.41527959681853
      ],
      [
        "▁Bank",
        -10.415328109409858
      ],
      [
        "▁IP",
        -10.415400452746377
      ],
      [
        "▁gröna",
        -10.415672627129686
      ],
      [
        "näs",
        -10.415696196378404
      ],
      [
        "▁styrelsen",
        -10.415833085484373
      ],
      [
        "tor",
        -10.415994895390176
      ],
      [
        "▁upplev",
        -10.416286502127665
      ],
      [
        "tro",
        -10.416350287472067
      ],
      [
        "▁deltagare",
        -10.416612431298839
      ],
      [
        "▁offentlig",
        -10.416696084505539
      ],
      [
        "serie",
        -10.41670734058918
      ],
      [
        "oerh",
        -10.416826228651363
      ],
      [
        "▁städer",
        -10.417309518696428
      ],
      [
        "▁version",
        -10.417382698183815
      ],
      [
        "▁bostäder",
        -10.4174846305594
      ],
      [
        "ism",
        -10.418052395589301
      ],
      [
        "▁profil",
        -10.418644231933893
      ],
      [
        "▁aktiva",
        -10.41881756279349
      ],
      [
        "▁skador",
        -10.41896212877885
      ],
      [
        "ation",
        -10.419212092115584
      ],
      [
        "släppa",
        -10.419344987227003
      ],
      [
        "aktörer",
        -10.41951358889804
      ],
      [
        "vård",
        -10.419773244349411
      ],
      [
        "▁Miljö",
        -10.419824745506993
      ],
      [
        "gjorda",
        -10.419944292274431
      ],
      [
        "▁höjd",
        -10.420229519813082
      ],
      [
        "▁forsknings",
        -10.42046992964728
      ],
      [
        "▁Val",
        -10.420473210856967
      ],
      [
        "ley",
        -10.420830694212691
      ],
      [
        "Därefter",
        -10.421368259625126
      ],
      [
        "▁Sök",
        -10.421910375816823
      ],
      [
        "▁moms",
        -10.421966988830789
      ],
      [
        "▁sjukt",
        -10.422507543848445
      ],
      [
        "▁effektiv",
        -10.422574265055518
      ],
      [
        "▁ekonomisk",
        -10.42284469439302
      ],
      [
        "▁varor",
        -10.423372023186307
      ],
      [
        "hänger",
        -10.423494072580846
      ],
      [
        "▁saknas",
        -10.423602033454365
      ],
      [
        "▁grunden",
        -10.42362631201566
      ],
      [
        "▁släpp",
        -10.423627718087243
      ],
      [
        "ant",
        -10.423762792708391
      ],
      [
        "▁undersökning",
        -10.425488785185372
      ],
      [
        "▁artiklar",
        -10.426851500874703
      ],
      [
        "kategorin",
        -10.427291883640397
      ],
      [
        "▁levande",
        -10.427736785540244
      ],
      [
        "▁dollar",
        -10.42869455324224
      ],
      [
        "tan",
        -10.429990181570286
      ],
      [
        "livet",
        -10.430887796763294
      ],
      [
        "▁förrän",
        -10.431287620112165
      ],
      [
        "kväll",
        -10.431568616803617
      ],
      [
        "▁rygg",
        -10.431677896335147
      ],
      [
        "problem",
        -10.431797271089296
      ],
      [
        "olja",
        -10.43200498984475
      ],
      [
        "förening",
        -10.432194602068602
      ],
      [
        "▁bostad",
        -10.43302143997265
      ],
      [
        "bjuda",
        -10.433548407153475
      ],
      [
        "▁team",
        -10.434672388816978
      ],
      [
        "▁parkering",
        -10.435471797488063
      ],
      [
        "naturliga",
        -10.435593734411986
      ],
      [
        "▁gäst",
        -10.435998315522856
      ],
      [
        "tjänst",
        -10.43623925426539
      ],
      [
        "▁marknads",
        -10.436477670980395
      ],
      [
        "▁hunn",
        -10.43748497092933
      ],
      [
        "▁aktiv",
        -10.438048459490114
      ],
      [
        "▁sväng",
        -10.438244531280898
      ],
      [
        "ion",
        -10.438329064906723
      ],
      [
        "▁kön",
        -10.438765143492095
      ],
      [
        "▁skriv",
        -10.439559226955403
      ],
      [
        "linjen",
        -10.44002519381761
      ],
      [
        "åriga",
        -10.440860233937144
      ],
      [
        "priset",
        -10.44096915943209
      ],
      [
        "▁grön",
        -10.441635287198428
      ],
      [
        "▁kontor",
        -10.441918987290125
      ],
      [
        "anges",
        -10.44217667157125
      ],
      [
        "▁Jämför",
        -10.442382722898298
      ],
      [
        "▁jämn",
        -10.442818540740994
      ],
      [
        "▁No",
        -10.442859559759873
      ],
      [
        "skatt",
        -10.4431981517307
      ],
      [
        "tillfället",
        -10.443331376139321
      ],
      [
        "förekommer",
        -10.443440016818908
      ],
      [
        "▁linje",
        -10.444298121225339
      ],
      [
        "äkta",
        -10.444843929033288
      ],
      [
        "▁söt",
        -10.445052859378661
      ],
      [
        "pågår",
        -10.445457037554652
      ],
      [
        "▁kallad",
        -10.445493176139541
      ],
      [
        "▁dusch",
        -10.445535238030928
      ],
      [
        "▁industri",
        -10.445574086779187
      ],
      [
        "▁rosa",
        -10.447094539309095
      ],
      [
        "▁skolor",
        -10.447485930091545
      ],
      [
        "▁Mikael",
        -10.44750552230698
      ],
      [
        "▁Region",
        -10.448034678948456
      ],
      [
        "▁möten",
        -10.448247364466335
      ],
      [
        "▁tyska",
        -10.448926735451893
      ],
      [
        "▁klubb",
        -10.44895852896492
      ],
      [
        "▁invånare",
        -10.448976449661703
      ],
      [
        "▁papper",
        -10.449145181240535
      ],
      [
        "skickar",
        -10.449493226869151
      ],
      [
        "▁torsdag",
        -10.449504917920379
      ],
      [
        "▁FÖR",
        -10.450879769629482
      ],
      [
        "▁Kontakta",
        -10.451240145410567
      ],
      [
        "▁vapen",
        -10.451617558443406
      ],
      [
        "▁motsvara",
        -10.45270019836593
      ],
      [
        "slipper",
        -10.45276591237282
      ],
      [
        "▁södra",
        -10.452857424356234
      ],
      [
        "nytta",
        -10.45289218312353
      ],
      [
        "▁tjänsten",
        -10.453032746855753
      ],
      [
        "▁Fler",
        -10.453149428875971
      ],
      [
        "▁Jesus",
        -10.453600612605422
      ],
      [
        "▁hänga",
        -10.454641098626047
      ],
      [
        "▁göteborg",
        -10.454743729383674
      ],
      [
        "▁silver",
        -10.455084658150522
      ],
      [
        "mysigt",
        -10.456324361257554
      ],
      [
        "fors",
        -10.456539835740946
      ],
      [
        "▁totala",
        -10.456662787639898
      ],
      [
        "▁seger",
        -10.456949942373006
      ],
      [
        "▁marken",
        -10.457181948132405
      ],
      [
        "lämnat",
        -10.457237287141513
      ],
      [
        "▁salt",
        -10.457347700490542
      ],
      [
        "eras",
        -10.45748494411802
      ],
      [
        "gränsen",
        -10.458368304068877
      ],
      [
        "▁växt",
        -10.458554327986596
      ],
      [
        "▁Helsingborg",
        -10.458822576979339
      ],
      [
        "andet",
        -10.459376767806967
      ],
      [
        "▁mobilen",
        -10.459402201248762
      ],
      [
        "▁banan",
        -10.460007850915458
      ],
      [
        "▁Karlsson",
        -10.460021768891929
      ],
      [
        "▁webb",
        -10.460071147748192
      ],
      [
        "▁normal",
        -10.460087814641842
      ],
      [
        "▁Kort",
        -10.460112981592042
      ],
      [
        "ör",
        -10.460394143836233
      ],
      [
        "uppgifter",
        -10.461213750920798
      ],
      [
        "▁sovrum",
        -10.462472088428214
      ],
      [
        "▁sortiment",
        -10.462580581974844
      ],
      [
        "▁Sweden",
        -10.462838812988497
      ],
      [
        "någonstans",
        -10.463093764434097
      ],
      [
        "per",
        -10.463335546504732
      ],
      [
        "▁tävling",
        -10.463934519832705
      ],
      [
        "▁personuppgifter",
        -10.464172606819965
      ],
      [
        "▁motor",
        -10.46418529308917
      ],
      [
        "framöver",
        -10.46486955195552
      ],
      [
        "Oavsett",
        -10.465414863692416
      ],
      [
        "ökning",
        -10.465430247045358
      ],
      [
        "gemensamt",
        -10.465654426994627
      ],
      [
        "▁sök",
        -10.465984069466401
      ],
      [
        "▁golv",
        -10.46640798748988
      ],
      [
        "Du",
        -10.467001480058565
      ],
      [
        "▁personalen",
        -10.467359436635975
      ],
      [
        "▁verkligheten",
        -10.468127864109293
      ],
      [
        "▁bröd",
        -10.468354077222145
      ],
      [
        "▁Beach",
        -10.46855035847696
      ],
      [
        "▁Mo",
        -10.47002081016179
      ],
      [
        "klassen",
        -10.470091841489886
      ],
      [
        "▁Innehåll",
        -10.470351619279931
      ],
      [
        "föreningen",
        -10.470478941888238
      ],
      [
        "▁brand",
        -10.470552589510707
      ],
      [
        "▁sekunder",
        -10.470629856301217
      ],
      [
        "▁skatt",
        -10.47085541485426
      ],
      [
        "▁Inom",
        -10.47131529328242
      ],
      [
        "▁snyggt",
        -10.472457114940845
      ],
      [
        "▁Precis",
        -10.47261151141933
      ],
      [
        "▁syster",
        -10.472758241822424
      ],
      [
        "▁lyfta",
        -10.473373784021405
      ],
      [
        "ämnet",
        -10.47341534960253
      ],
      [
        "anläggningar",
        -10.473966898882205
      ],
      [
        "▁arrangera",
        -10.474154458140251
      ],
      [
        "ck",
        -10.47544560531989
      ],
      [
        "▁Ser",
        -10.475560072666234
      ],
      [
        "▁karriär",
        -10.47560693779754
      ],
      [
        "▁duktig",
        -10.475655501553604
      ],
      [
        "hittat",
        -10.475695279597492
      ],
      [
        "reglerna",
        -10.476134537039888
      ],
      [
        "▁Black",
        -10.47680744361345
      ],
      [
        "jobb",
        -10.476939473396868
      ],
      [
        "▁Kram",
        -10.477249308550647
      ],
      [
        "▁servera",
        -10.477453530095016
      ],
      [
        "automatiskt",
        -10.477480937996239
      ],
      [
        "▁aktivitet",
        -10.478028459605484
      ],
      [
        "▁Tillsammans",
        -10.478379956376717
      ],
      [
        "året",
        -10.478561651997229
      ],
      [
        "▁trädgård",
        -10.478817415723501
      ],
      [
        "▁tränar",
        -10.478905178847132
      ],
      [
        "▁grå",
        -10.479309843897974
      ],
      [
        "▁gemensam",
        -10.47932736914987
      ],
      [
        "väntat",
        -10.479523740878783
      ],
      [
        "▁karaktär",
        -10.480014314680597
      ],
      [
        "bestämde",
        -10.480110744367698
      ],
      [
        "hallen",
        -10.480316682504426
      ],
      [
        "▁SD",
        -10.48120719540627
      ],
      [
        "▁van",
        -10.481258683994422
      ],
      [
        "▁resor",
        -10.481786869409746
      ],
      [
        "▁uppfyll",
        -10.483831618042373
      ],
      [
        "handlade",
        -10.483973838156217
      ],
      [
        "böcker",
        -10.484294286109145
      ],
      [
        "▁stål",
        -10.484761090848302
      ],
      [
        "åsikter",
        -10.485600667009663
      ],
      [
        "särskilda",
        -10.485641994478284
      ],
      [
        "rar",
        -10.48595905599664
      ],
      [
        "Tror",
        -10.486099695015952
      ],
      [
        "▁särskild",
        -10.486964427821658
      ],
      [
        "dagar",
        -10.48742943735921
      ],
      [
        "härliga",
        -10.487756180346526
      ],
      [
        "▁statistik",
        -10.488304672156927
      ],
      [
        "▁tyst",
        -10.488305196995892
      ],
      [
        "▁kallt",
        -10.488434246596873
      ],
      [
        "▁Persson",
        -10.488685449075545
      ],
      [
        "nämnda",
        -10.48876652052858
      ],
      [
        "▁laga",
        -10.489063520485995
      ],
      [
        "▁sko",
        -10.489569269231767
      ],
      [
        "▁balans",
        -10.489596314921826
      ],
      [
        "▁aning",
        -10.489823799014852
      ],
      [
        "kraftigt",
        -10.489887758795652
      ],
      [
        "ker",
        -10.49067919863575
      ],
      [
        "bestämmer",
        -10.491005475613651
      ],
      [
        "Den",
        -10.491098173327506
      ],
      [
        "▁finna",
        -10.491437094911573
      ],
      [
        "▁tillverkare",
        -10.491510839469404
      ],
      [
        "▁lokaler",
        -10.492678992849997
      ],
      [
        "OCH",
        -10.492974216069772
      ],
      [
        "pratade",
        -10.493011754058687
      ],
      [
        "dla",
        -10.493391477931008
      ],
      [
        "översättningen",
        -10.493839825454124
      ],
      [
        "▁styrelse",
        -10.494466481204077
      ],
      [
        "▁lät",
        -10.494542686291828
      ],
      [
        "▁behålla",
        -10.494998537812709
      ],
      [
        "▁synd",
        -10.495319660176737
      ],
      [
        "▁drift",
        -10.495624832607078
      ],
      [
        "▁rabatt",
        -10.495874236220898
      ],
      [
        "politik",
        -10.496034251590196
      ],
      [
        "enlighet",
        -10.496557350328231
      ],
      [
        "film",
        -10.496901170316095
      ],
      [
        "talade",
        -10.497067304581936
      ],
      [
        "▁fördelar",
        -10.497586667292461
      ],
      [
        "▁Plats",
        -10.497591579066736
      ],
      [
        "▁sönder",
        -10.49777066130401
      ],
      [
        "stärka",
        -10.499065320506624
      ],
      [
        "▁skuld",
        -10.499118068462437
      ],
      [
        "▁hoppa",
        -10.50008923437085
      ],
      [
        "▁Fick",
        -10.500433277495636
      ],
      [
        "itet",
        -10.501450576151157
      ],
      [
        "▁Billiga",
        -10.501485791440327
      ],
      [
        "▁rea",
        -10.501984001859222
      ],
      [
        "tråkigt",
        -10.502142266857843
      ],
      [
        "▁smart",
        -10.502232865907983
      ],
      [
        "▁författare",
        -10.502742104418576
      ],
      [
        "▁Utan",
        -10.503085084363342
      ],
      [
        "▁trolig",
        -10.503272133765014
      ],
      [
        "▁Karl",
        -10.503660032539436
      ],
      [
        "▁pro",
        -10.503706756783199
      ],
      [
        "nöjda",
        -10.503955814525188
      ],
      [
        "▁Kommun",
        -10.504093692316019
      ],
      [
        "▁studenter",
        -10.50424662651435
      ],
      [
        "▁Me",
        -10.504249536927418
      ],
      [
        "▁Svart",
        -10.504885932879196
      ],
      [
        "▁avse",
        -10.505216295675318
      ],
      [
        "resultera",
        -10.505335666317855
      ],
      [
        "▁spendera",
        -10.505539476015825
      ],
      [
        "▁avstånd",
        -10.505893453050046
      ],
      [
        "▁mor",
        -10.506317787067294
      ],
      [
        "▁urval",
        -10.506558376122088
      ],
      [
        "▁bry",
        -10.506572658548093
      ],
      [
        "▁Totalt",
        -10.50686349939097
      ],
      [
        "▁komplett",
        -10.50699595279313
      ],
      [
        "▁radio",
        -10.507088232305057
      ],
      [
        "▁utvecklings",
        -10.507199664367922
      ],
      [
        "verkade",
        -10.50745024843128
      ],
      [
        "tagna",
        -10.507452613259122
      ],
      [
        "vit",
        -10.507818513172863
      ],
      [
        "givande",
        -10.508352720314628
      ],
      [
        "▁kritik",
        -10.508586761817885
      ],
      [
        "jobbat",
        -10.509297178115746
      ],
      [
        "▁insats",
        -10.5103573933226
      ],
      [
        "▁rekommendera",
        -10.51151134010623
      ],
      [
        "▁röra",
        -10.51167745467418
      ],
      [
        "texter",
        -10.511708770301182
      ],
      [
        "▁Karin",
        -10.511866102456384
      ],
      [
        "art",
        -10.512038972080017
      ],
      [
        "owa",
        -10.512054989176734
      ],
      [
        "backen",
        -10.51207479094803
      ],
      [
        "▁Mats",
        -10.512199624627609
      ],
      [
        "årig",
        -10.512712133501317
      ],
      [
        "delar",
        -10.512738648375402
      ],
      [
        "▁presentera",
        -10.512961822493814
      ],
      [
        "strand",
        -10.513012988195278
      ],
      [
        "marknaden",
        -10.513101404891787
      ],
      [
        "▁mej",
        -10.513305713040467
      ],
      [
        "center",
        -10.514198727927553
      ],
      [
        "▁album",
        -10.516244186128478
      ],
      [
        "▁bod",
        -10.516323434908683
      ],
      [
        "▁anpassa",
        -10.516386409973283
      ],
      [
        "▁butiken",
        -10.516500569710875
      ],
      [
        "▁bevilja",
        -10.516611253147795
      ],
      [
        "väntade",
        -10.516974513048762
      ],
      [
        "▁sov",
        -10.517286345413723
      ],
      [
        "Redan",
        -10.517394610406143
      ],
      [
        "nivån",
        -10.517708736314782
      ],
      [
        "▁Sjö",
        -10.51786541468822
      ],
      [
        "▁Färg",
        -10.51796157090759
      ],
      [
        "mänskliga",
        -10.518226429319773
      ],
      [
        "▁engagemang",
        -10.518266070163122
      ],
      [
        "kommit",
        -10.51857456677365
      ],
      [
        "▁hästar",
        -10.518737505652329
      ],
      [
        "fullt",
        -10.518749821436652
      ],
      [
        "tycks",
        -10.51886817557809
      ],
      [
        "sugen",
        -10.519244914827325
      ],
      [
        "bordet",
        -10.519648941930056
      ],
      [
        "▁flertal",
        -10.519805848296029
      ],
      [
        "fel",
        -10.520285364069581
      ],
      [
        "▁Arbets",
        -10.520436297739879
      ],
      [
        "▁utmaningar",
        -10.520490714584579
      ],
      [
        "värsta",
        -10.520514560187674
      ],
      [
        "▁digital",
        -10.520585631477038
      ],
      [
        "Bra",
        -10.520693787430735
      ],
      [
        "▁leverantörer",
        -10.520837808063055
      ],
      [
        "▁lagom",
        -10.521275029346624
      ],
      [
        "platsen",
        -10.521621482590072
      ],
      [
        "pekar",
        -10.522108002106268
      ],
      [
        "▁takt",
        -10.522113475004431
      ],
      [
        "▁tuff",
        -10.522832287805707
      ],
      [
        "▁styrka",
        -10.522976156230461
      ],
      [
        "▁Ladda",
        -10.524322662017482
      ],
      [
        "▁utomlands",
        -10.524773101327682
      ],
      [
        "▁Sol",
        -10.524801187220062
      ],
      [
        "banan",
        -10.52530176401139
      ],
      [
        "▁sannolik",
        -10.525352327003972
      ],
      [
        "värde",
        -10.52547773531994
      ],
      [
        "▁ränta",
        -10.5258086857619
      ],
      [
        "▁hemmet",
        -10.52593118303031
      ],
      [
        "▁sjukdomar",
        -10.526279377649825
      ],
      [
        "▁onsdag",
        -10.526661456112947
      ],
      [
        "fulla",
        -10.526739956721228
      ],
      [
        "▁Linköping",
        -10.527495581331763
      ],
      [
        "omfattar",
        -10.528131219585683
      ],
      [
        "inkluderar",
        -10.528442505070903
      ],
      [
        "▁planerar",
        -10.528454532142504
      ],
      [
        "▁bredvid",
        -10.528621845542972
      ],
      [
        "▁däck",
        -10.528698846153102
      ],
      [
        "▁felaktig",
        -10.529087157111475
      ],
      [
        "▁Henrik",
        -10.529320192374351
      ],
      [
        "▁My",
        -10.529365153454552
      ],
      [
        "▁överallt",
        -10.529606504263324
      ],
      [
        "▁lov",
        -10.529675621624099
      ],
      [
        "enheten",
        -10.529907219982304
      ],
      [
        "▁fru",
        -10.530129434585948
      ],
      [
        "▁Tidigare",
        -10.530199210515848
      ],
      [
        "▁minsta",
        -10.530372376994855
      ],
      [
        "alltför",
        -10.530635730544175
      ],
      [
        "delvis",
        -10.53066904763285
      ],
      [
        "lista",
        -10.530829075869422
      ],
      [
        "taket",
        -10.53119234386092
      ],
      [
        "▁enskild",
        -10.531567865032443
      ],
      [
        "förvaltningen",
        -10.532233534564888
      ],
      [
        "▁producera",
        -10.532385568438398
      ],
      [
        "▁produktion",
        -10.532683576772083
      ],
      [
        "▁Hög",
        -10.532745877245539
      ],
      [
        "▁planer",
        -10.533136012759103
      ],
      [
        "▁länk",
        -10.533601137339598
      ],
      [
        "▁kunden",
        -10.533779843582966
      ],
      [
        "reagera",
        -10.534120394357338
      ],
      [
        "▁ryggen",
        -10.534697680540956
      ],
      [
        "Utcheckning",
        -10.534896500393875
      ],
      [
        "▁norra",
        -10.535032971166446
      ],
      [
        "▁killar",
        -10.535145464657395
      ],
      [
        "▁träffar",
        -10.53548735551654
      ],
      [
        "▁fastighets",
        -10.536119935946324
      ],
      [
        "lades",
        -10.536173299654463
      ],
      [
        "▁student",
        -10.536318721050401
      ],
      [
        "\\",
        -10.536361177819563
      ],
      [
        "▁Lag",
        -10.536821511678303
      ],
      [
        "▁dygnet",
        -10.536860071767014
      ],
      [
        "▁fan",
        -10.537212689297974
      ],
      [
        "▁näst",
        -10.537286241195691
      ],
      [
        "▁Ed",
        -10.538244108909836
      ],
      [
        "ansvarar",
        -10.538559660299951
      ],
      [
        "▁Wi",
        -10.53860720674854
      ],
      [
        "likt",
        -10.538611163203898
      ],
      [
        "▁Herr",
        -10.538635294513538
      ],
      [
        "▁berör",
        -10.538669954587796
      ],
      [
        "sidor",
        -10.538861000755228
      ],
      [
        "▁wid",
        -10.538921909024642
      ],
      [
        "räknas",
        -10.539184822207545
      ],
      [
        "▁fria",
        -10.539250887757868
      ],
      [
        "alt",
        -10.539321804180261
      ],
      [
        "samlat",
        -10.539419115991773
      ],
      [
        "kollegor",
        -10.539538652355482
      ],
      [
        "▁Apple",
        -10.539873684501293
      ],
      [
        "▁utseende",
        -10.5401680651732
      ],
      [
        "▁Go",
        -10.541222747517855
      ],
      [
        "▁separat",
        -10.541667393884133
      ],
      [
        "föll",
        -10.542857392893362
      ],
      [
        "heten",
        -10.543757657760645
      ],
      [
        "▁riksdagen",
        -10.54444822602163
      ],
      [
        "▁Mark",
        -10.54479456421169
      ],
      [
        "förslaget",
        -10.545876345023023
      ],
      [
        "▁förtroende",
        -10.54657508300267
      ],
      [
        "▁metall",
        -10.546664381722543
      ],
      [
        "▁me",
        -10.546739045211961
      ],
      [
        "kostnader",
        -10.54709507910943
      ],
      [
        "▁respekt",
        -10.547567749633233
      ],
      [
        "▁Eriksson",
        -10.547588827821393
      ],
      [
        "Tycker",
        -10.548563956772009
      ],
      [
        "▁smärta",
        -10.548863577060784
      ],
      [
        "▁lämplig",
        -10.549087438225822
      ],
      [
        "▁förändra",
        -10.549110320517865
      ],
      [
        "▁tränare",
        -10.549603932697966
      ],
      [
        "älskade",
        -10.550173427712389
      ],
      [
        "▁tappa",
        -10.551327251338687
      ],
      [
        "▁miljön",
        -10.551470174931222
      ],
      [
        "företagen",
        -10.55195611407273
      ],
      [
        "vall",
        -10.551987846905348
      ],
      [
        "Q",
        -10.552158394531048
      ],
      [
        "▁tex",
        -10.552179752448358
      ],
      [
        "kvinnan",
        -10.552577057859075
      ],
      [
        "▁NICK",
        -10.55285695079375
      ],
      [
        "ings",
        -10.553598313078457
      ],
      [
        "avdelningen",
        -10.554343488794832
      ],
      [
        "frågorna",
        -10.554574630219674
      ],
      [
        "byn",
        -10.55503524127542
      ],
      [
        "tas",
        -10.555379008234159
      ],
      [
        "klubb",
        -10.555530538020196
      ],
      [
        "▁flashback",
        -10.556042723414233
      ],
      [
        "ges",
        -10.556139646855492
      ],
      [
        "▁president",
        -10.556294045255466
      ],
      [
        "▁sam",
        -10.557099995083938
      ],
      [
        "innehållet",
        -10.558301656934907
      ],
      [
        "▁cancer",
        -10.558373257321547
      ],
      [
        "paket",
        -10.558374111401815
      ],
      [
        "Logga",
        -10.558544205765159
      ],
      [
        "Syftet",
        -10.559202864626663
      ],
      [
        "bord",
        -10.559803960143194
      ],
      [
        "▁Dating",
        -10.559814480194676
      ],
      [
        "▁populär",
        -10.560112715705744
      ],
      [
        "▁omsorg",
        -10.560200144412853
      ],
      [
        "▁informera",
        -10.56092580211469
      ],
      [
        "▁förståelse",
        -10.561032677749015
      ],
      [
        "▁uppmärksamhet",
        -10.561160994208535
      ],
      [
        "▁region",
        -10.561547917981198
      ],
      [
        "▁luften",
        -10.56185165161026
      ],
      [
        "vågar",
        -10.562776284334221
      ],
      [
        "platser",
        -10.562813329776587
      ],
      [
        "billigare",
        -10.563187495740262
      ],
      [
        "koppla",
        -10.563423635887949
      ],
      [
        "▁Q",
        -10.563433789302819
      ],
      [
        "saken",
        -10.563623698432027
      ],
      [
        "▁tillägg",
        -10.563970349033113
      ],
      [
        "▁miljon",
        -10.564395351784459
      ],
      [
        "utav",
        -10.56504803853955
      ],
      [
        "▁FN",
        -10.565347781655284
      ],
      [
        "notera",
        -10.56544611571467
      ],
      [
        "▁utredning",
        -10.566326069227191
      ],
      [
        "▁Västerås",
        -10.566405642023705
      ],
      [
        "▁handen",
        -10.5666499691412
      ],
      [
        "▁rena",
        -10.566861138594462
      ],
      [
        "typ",
        -10.567202446952642
      ],
      [
        "▁lägenheter",
        -10.567339904065216
      ],
      [
        "▁gift",
        -10.567476086576178
      ],
      [
        "▁kurser",
        -10.567928698080205
      ],
      [
        "orolig",
        -10.568641289144088
      ],
      [
        "▁hy",
        -10.568728379073688
      ],
      [
        "männen",
        -10.568984250242025
      ],
      [
        "▁kall",
        -10.5691132475948
      ],
      [
        "br",
        -10.570979662258777
      ],
      [
        "slaget",
        -10.57188312015384
      ],
      [
        "▁skogs",
        -10.571959270457368
      ],
      [
        "▁anslutning",
        -10.573420001521184
      ],
      [
        "erande",
        -10.573747197450665
      ],
      [
        "miljö",
        -10.574274180213122
      ],
      [
        "bandet",
        -10.574368682093914
      ],
      [
        "sserligen",
        -10.574652673935311
      ],
      [
        "▁Dag",
        -10.574871902022766
      ],
      [
        "▁tema",
        -10.575631070982444
      ],
      [
        "svaret",
        -10.576045375711924
      ],
      [
        "▁intervju",
        -10.576125936366253
      ],
      [
        "▁fotbolls",
        -10.5771780682627
      ],
      [
        "spelat",
        -10.577600721694486
      ],
      [
        "banken",
        -10.578330994302549
      ],
      [
        "▁identifiera",
        -10.578625298297107
      ],
      [
        "▁Folk",
        -10.579089514047398
      ],
      [
        "▁original",
        -10.57917228011801
      ],
      [
        "▁Mar",
        -10.579376526290956
      ],
      [
        "tävla",
        -10.579427168868282
      ],
      [
        "kurs",
        -10.579726827028093
      ],
      [
        "bergs",
        -10.5797392126039
      ],
      [
        "▁tillhandahåll",
        -10.57988414976541
      ],
      [
        "▁medicin",
        -10.580652079394138
      ],
      [
        "▁stolt",
        -10.580703154093007
      ],
      [
        "samlade",
        -10.58083265544702
      ],
      [
        "▁påminn",
        -10.580912958080502
      ],
      [
        "▁återg",
        -10.581560277763746
      ],
      [
        "▁behandla",
        -10.58278303987668
      ],
      [
        "▁historien",
        -10.583868462890242
      ],
      [
        "▁upptäcka",
        -10.58422752240957
      ],
      [
        "▁gravid",
        -10.584454975900886
      ],
      [
        "▁publik",
        -10.585867334346371
      ],
      [
        "råd",
        -10.586141071192431
      ],
      [
        "▁global",
        -10.586407827452348
      ],
      [
        "▁vägg",
        -10.586424800450281
      ],
      [
        "släppte",
        -10.58675833069064
      ],
      [
        "▁England",
        -10.587037272278844
      ],
      [
        "▁tusen",
        -10.587387639210021
      ],
      [
        "▁Exempel",
        -10.588234941497548
      ],
      [
        "funderar",
        -10.588374918694191
      ],
      [
        "▁styra",
        -10.588780573229858
      ],
      [
        "▁Vidare",
        -10.58949916500935
      ],
      [
        "säkerställa",
        -10.59088450825199
      ],
      [
        "försvinner",
        -10.590972296853684
      ],
      [
        "▁ämne",
        -10.591270191929183
      ],
      [
        "▁presentation",
        -10.591505307663358
      ],
      [
        "eventuellt",
        -10.592073564496996
      ],
      [
        "sch",
        -10.592115681333219
      ],
      [
        "san",
        -10.592472372971349
      ],
      [
        "individer",
        -10.592657849463876
      ],
      [
        "▁Art",
        -10.594307687843052
      ],
      [
        "▁situationer",
        -10.59466872185765
      ],
      [
        "▁räknar",
        -10.594883528342082
      ],
      [
        "▁jämförelse",
        -10.594922235448392
      ],
      [
        "fyllt",
        -10.595019221969212
      ],
      [
        "färg",
        -10.595027943549065
      ],
      [
        "▁OS",
        -10.595939077382495
      ],
      [
        "▁dog",
        -10.59594949113922
      ],
      [
        "▁kämpa",
        -10.596055155425464
      ],
      [
        "Alltså",
        -10.596699814633904
      ],
      [
        "▁löne",
        -10.596984907420957
      ],
      [
        "▁faktorer",
        -10.59807269315835
      ],
      [
        "▁kvalitets",
        -10.598222426643797
      ],
      [
        "hunden",
        -10.598239338165328
      ],
      [
        "▁önskemål",
        -10.598371950242486
      ],
      [
        "behandling",
        -10.598686346477754
      ],
      [
        "▁lägenheten",
        -10.599319035061395
      ],
      [
        "efter",
        -10.59965499487341
      ],
      [
        "europeiska",
        -10.600066522488973
      ],
      [
        "▁sambo",
        -10.600198359524176
      ],
      [
        "▁Skor",
        -10.60038165110434
      ],
      [
        "▁Sven",
        -10.600486261329282
      ],
      [
        "▁trygghet",
        -10.601566424568999
      ],
      [
        "eftermiddagen",
        -10.602175840939367
      ],
      [
        "▁ber",
        -10.602178131021548
      ],
      [
        "data",
        -10.602193764929138
      ],
      [
        "▁God",
        -10.602682111743045
      ],
      [
        "ekonomiskt",
        -10.602993535005028
      ],
      [
        "skola",
        -10.603250750804449
      ],
      [
        "göra",
        -10.603325536742345
      ],
      [
        "behovet",
        -10.60341716815013
      ],
      [
        "satta",
        -10.603607832000097
      ],
      [
        "ägna",
        -10.603627207175478
      ],
      [
        "kanten",
        -10.603768386787387
      ],
      [
        "▁ledning",
        -10.604689488037344
      ],
      [
        "▁Red",
        -10.605120324616777
      ],
      [
        "▁lycka",
        -10.60557790122072
      ],
      [
        "▁uppfattning",
        -10.606022552271586
      ],
      [
        "▁sprid",
        -10.606582435871939
      ],
      [
        "frågar",
        -10.606596734206239
      ],
      [
        "▁byggt",
        -10.606680646203111
      ],
      [
        "▁elev",
        -10.606688645401682
      ],
      [
        "uppgifterna",
        -10.60689459164924
      ],
      [
        "orter",
        -10.60743102532107
      ],
      [
        "▁arbetsgivare",
        -10.60791360503673
      ],
      [
        "▁studera",
        -10.607932085774078
      ],
      [
        "▁gas",
        -10.609865696265803
      ],
      [
        "▁Emma",
        -10.610133016077487
      ],
      [
        "Men",
        -10.610227102929702
      ],
      [
        "handel",
        -10.610717952440204
      ],
      [
        "formen",
        -10.611226760731432
      ],
      [
        "▁samverkan",
        -10.611347258473332
      ],
      [
        "start",
        -10.611738552799386
      ],
      [
        "skillnaden",
        -10.611769881568545
      ],
      [
        "▁Göran",
        -10.611971197697212
      ],
      [
        "dagliga",
        -10.612133660167514
      ],
      [
        "▁varma",
        -10.612363606191005
      ],
      [
        "barn",
        -10.613160914557675
      ],
      [
        "▁fiske",
        -10.613264425337537
      ],
      [
        "nych",
        -10.613766784014397
      ],
      [
        "▁Ek",
        -10.614994335815252
      ],
      [
        "▁sällskap",
        -10.615996940456972
      ],
      [
        "▁fängelse",
        -10.61639884328155
      ],
      [
        "▁trivs",
        -10.617489619262269
      ],
      [
        "bit",
        -10.617601940044473
      ],
      [
        "▁speciell",
        -10.617804639950942
      ],
      [
        "ovanligt",
        -10.618374220512807
      ],
      [
        "▁föremål",
        -10.618616730568672
      ],
      [
        "resor",
        -10.618733924273881
      ],
      [
        "▁ställning",
        -10.619789701573717
      ],
      [
        "ifall",
        -10.619932066591817
      ],
      [
        "▁Jönköping",
        -10.619975116111153
      ],
      [
        "▁Robert",
        -10.620007205237995
      ],
      [
        "byxor",
        -10.620039303814131
      ],
      [
        "▁vistelse",
        -10.620068669891728
      ],
      [
        "ber",
        -10.62035029156393
      ],
      [
        "ytor",
        -10.620710988157887
      ],
      [
        "czny",
        -10.621400540194367
      ],
      [
        "avser",
        -10.621617624030112
      ],
      [
        "▁doft",
        -10.622058700558794
      ],
      [
        "▁initiativ",
        -10.622061840428195
      ],
      [
        "▁strand",
        -10.622081196650479
      ],
      [
        "▁konkret",
        -10.622542899507607
      ],
      [
        "behandlas",
        -10.622705746099298
      ],
      [
        "▁VD",
        -10.623075744297855
      ],
      [
        "▁Gävle",
        -10.623425739712081
      ],
      [
        "▁singel",
        -10.62344980577024
      ],
      [
        "▁händelse",
        -10.624560061230623
      ],
      [
        "historiska",
        -10.624704957435778
      ],
      [
        "▁this",
        -10.6249713306399
      ],
      [
        "▁lagar",
        -10.625086200386608
      ],
      [
        "▁tillbehör",
        -10.625908574025752
      ],
      [
        "Istället",
        -10.626750068175436
      ],
      [
        "ko",
        -10.626978120344793
      ],
      [
        "torget",
        -10.627474401796851
      ],
      [
        "▁installera",
        -10.628104701799211
      ],
      [
        "▁beskriv",
[...]
