{
  "version": "1.0",
  "truncation": null,
  "padding": null,
  "added_tokens": [
    {
      "id": 0,
      "content": "[PAD]",
      "single_word": false,
      "lstrip": false,
      "rstrip": false,
      "normalized": false,
      "special": true
    },
    {
      "id": 1,
      "content": "[UNK]",
      "single_word": false,
      "lstrip": false,
      "rstrip": false,
      "normalized": false,
      "special": true
    },
    {
      "id": 2,
      "content": "[MASK]",
      "single_word": false,
      "lstrip": false,
      "rstrip": false,
      "normalized": false,
      "special": true
    },
    {
      "id": 3,
      "content": "[CLS]",
      "single_word": false,
      "lstrip": false,
      "rstrip": false,
      "normalized": false,
      "special": true
    },
    {
      "id": 4,
      "content": "[SEP]",
      "single_word": false,
      "lstrip": false,
      "rstrip": false,
      "normalized": false,
      "special": true
    }
  ],
  "normalizer": {
    "type": "Sequence",
    "normalizers": [
      {
        "type": "Nmt"
      },
      {
        "type": "NFKC"
      },
      {
        "type": "Replace",
        "pattern": {
          "Regex": " {2,}"
        },
        "content": " "
      }
    ]
  },
  "pre_tokenizer": {
    "type": "Sequence",
    "pretokenizers": [
      {
        "type": "ByteLevel",
        "add_prefix_space": true,
        "trim_offsets": true,
        "use_regex": true
      },
      {
        "type": "Split",
        "pattern": {
          "Regex": "\\d"
        },
        "behavior": "MergedWithPrevious",
        "invert": false
      },
      {
        "type": "Punctuation",
        "behavior": "Isolated"
      }
    ]
  },
  "post_processor": {
    "type": "TemplateProcessing",
    "single": [
      {
        "SpecialToken": {
          "id": "[CLS]",
          "type_id": 0
        }
      },
      {
        "Sequence": {
          "id": "A",
          "type_id": 0
        }
      },
      {
        "SpecialToken": {
          "id": "[SEP]",
          "type_id": 0
        }
      }
    ],
    "pair": [
      {
        "SpecialToken": {
          "id": "[CLS]",
          "type_id": 0
        }
      },
      {
        "Sequence": {
          "id": "A",
          "type_id": 0
        }
      },
      {
        "SpecialToken": {
          "id": "[SEP]",
          "type_id": 0
        }
      },
      {
        "Sequence": {
          "id": "B",
          "type_id": 1
        }
      },
      {
        "SpecialToken": {
          "id": "[SEP]",
          "type_id": 1
        }
      }
    ],
    "special_tokens": {
      "[CLS]": {
        "id": "[CLS]",
        "ids": [
          3
        ],
        "tokens": [
          "[CLS]"
        ]
      },
      "[SEP]": {
        "id": "[SEP]",
        "ids": [
          4
        ],
        "tokens": [
          "[SEP]"
        ]
      }
    }
  },
  "decoder": {
    "type": "ByteLevel",
    "add_prefix_space": true,
    "trim_offsets": true,
    "use_regex": true
  },
  "model": {
    "type": "BPE",
    "dropout": null,
    "unk_token": null,
    "continuing_subword_prefix": null,
    "end_of_word_suffix": null,
    "fuse_unk": false,
    "vocab": {
      "[PAD]": 0,
      "[UNK]": 1,
      "[MASK]": 2,
      "[CLS]": 3,
      "[SEP]": 4,
      "!": 5,
      "\"": 6,
      "#": 7,
      "$": 8,
      "%": 9,
      "&": 10,
      "'": 11,
      "(": 12,
      ")": 13,
      "*": 14,
      "+": 15,
      ",": 16,
      "-": 17,
      ".": 18,
      "/": 19,
      "0": 20,
      "1": 21,
      "2": 22,
      "3": 23,
      "4": 24,
      "5": 25,
      "6": 26,
      "7": 27,
      "8": 28,
      "9": 29,
      ":": 30,
      ";": 31,
      "<": 32,
      "=": 33,
      ">": 34,
      "?": 35,
      "@": 36,
      "A": 37,
      "B": 38,
      "C": 39,
      "D": 40,
      "E": 41,
      "F": 42,
      "G": 43,
      "H": 44,
      "I": 45,
      "J": 46,
      "K": 47,
      "L": 48,
      "M": 49,
      "N": 50,
      "O": 51,
      "P": 52,
      "Q": 53,
      "R": 54,
      "S": 55,
      "T": 56,
      "U": 57,
      "V": 58,
      "W": 59,
      "X": 60,
      "Y": 61,
      "Z": 62,
      "[": 63,
      "\\": 64,
      "]": 65,
      "^": 66,
      "_": 67,
      "`": 68,
      "a": 69,
      "b": 70,
      "c": 71,
      "d": 72,
      "e": 73,
      "f": 74,
      "g": 75,
      "h": 76,
      "i": 77,
      "j": 78,
      "k": 79,
      "l": 80,
      "m": 81,
      "n": 82,
      "o": 83,
      "p": 84,
      "q": 85,
      "r": 86,
      "s": 87,
      "t": 88,
      "u": 89,
      "v": 90,
      "w": 91,
      "x": 92,
      "y": 93,
      "z": 94,
      "{": 95,
      "|": 96,
      "}": 97,
      "~": 98,
      "¡": 99,
      "¢": 100,
      "£": 101,
      "¤": 102,
      "¥": 103,
      "¦": 104,
      "§": 105,
      "¨": 106,
      "©": 107,
      "ª": 108,
      "«": 109,
      "¬": 110,
      "®": 111,
      "¯": 112,
      "°": 113,
      "±": 114,
      "²": 115,
      "³": 116,
      "´": 117,
      "µ": 118,
      "¶": 119,
      "·": 120,
      "¸": 121,
      "¹": 122,
      "º": 123,
      "»": 124,
      "¼": 125,
      "½": 126,
      "¾": 127,
      "¿": 128,
      "Â": 129,
      "Ã": 130,
      "Ä": 131,
      "Å": 132,
      "Æ": 133,
      "Ç": 134,
      "È": 135,
      "É": 136,
      "Ê": 137,
      "Ë": 138,
      "Ì": 139,
      "Í": 140,
      "Î": 141,
      "Ï": 142,
      "Ð": 143,
      "Ñ": 144,
      "Ò": 145,
      "Ó": 146,
      "Ô": 147,
      "Õ": 148,
      "Ö": 149,
      "×": 150,
      "Ø": 151,
      "Ù": 152,
      "Ú": 153,
      "Û": 154,
      "Ü": 155,
      "Ý": 156,
      "ß": 157,
      "à": 158,
      "á": 159,
      "â": 160,
      "ã": 161,
      "ä": 162,
      "å": 163,
      "æ": 164,
      "ç": 165,
      "è": 166,
      "é": 167,
      "ê": 168,
      "ë": 169,
      "ì": 170,
      "í": 171,
      "î": 172,
      "ï": 173,
      "ð": 174,
      "ó": 175,
      "ô": 176,
      "Ā": 177,
      "Ġ": 178,
      "Ģ": 179,
      "ģ": 180,
      "Ĥ": 181,
      "ĥ": 182,
      "Ħ": 183,
      "ħ": 184,
      "Ĩ": 185,
      "ĩ": 186,
      "Ī": 187,
      "ī": 188,
      "Ĭ": 189,
      "ĭ": 190,
      "Į": 191,
      "į": 192,
      "İ": 193,
      "ı": 194,
      "Ĳ": 195,
      "ĳ": 196,
      "Ĵ": 197,
      "ĵ": 198,
      "Ķ": 199,
      "ķ": 200,
      "ĸ": 201,
      "Ĺ": 202,
      "ĺ": 203,
      "Ļ": 204,
      "ļ": 205,
      "Ľ": 206,
      "ľ": 207,
      "Ŀ": 208,
      "ŀ": 209,
      "Ł": 210,
      "ł": 211,
      "Ń": 212,
      "Ã¤": 213,
      "er": 214,
      "en": 215,
      "Ġs": 216,
      "Ã¥": 217,
      "ar": 218,
      "an": 219,
      "in": 220,
      "et": 221,
      "Ġd": 222,
      "Ġf": 223,
      "at": 224,
      "Ġm": 225,
      "ll": 226,
      "Ġo": 227,
      "Ġh": 228,
      "Ġv": 229,
      "Ã¤r": 230,
      "Ġt": 231,
      "st": 232,
      "Ġb": 233,
      "Ġk": 234,
      "ch": 235,
      "om": 236,
      "Ġp": 237,
      "ig": 238,
      "Ġoch": 239,
      "att": 240,
      "or": 241,
      "ing": 242,
      "de": 243,
      "on": 244,
      "ag": 245,
      "Ġi": 246,
      "ĠfÃ": 247,
      "Ġatt": 248,
      "ed": 249,
      "Ġa": 250,
      "Ġl": 251,
      "ka": 252,
      "ra": 253,
      "Ġg": 254,
      "Ġn": 255,
      "tt": 256,
      "ill": 257,
      "Ã¤n": 258,
      "Ġen": 259,
      "Ġin": 260,
      "na": 261,
      "Ġu": 262,
      "el": 263,
      "kt": 264,
      "ĠÃ¤r": 265,
      "ĠpÃ¥": 266,
      "is": 267,
      "Ġsom": 268,
      "re": 269,
      "ck": 270,
      "Ġdet": 271,
      "ĠS": 272,
      "te": 273,
      "Ġmed": 274,
      "Ġav": 275,
      "al": 276,
      "Ġtill": 277,
      "Ġj": 278,
      "pp": 279,
      "ning": 280,
      "ĠD": 281,
      "Ã¥r": 282,
      "am": 283,
      "id": 284,
      "Ã¥n": 285,
      "ss": 286,
      "il": 287,
      "ter": 288,
      "Ġe": 289,
      "Ġst": 290,
      "un": 291,
      "lig": 292,
      "it": 293,
      "and": 294,
      "ro": 295,
      "der": 296,
      "Ġvar": 297,
      "Ġde": 298,
      "ver": 299,
      "Ġhar": 300,
      "Ġr": 301,
      "ĠM": 302,
      "Ġom": 303,
      "sk": 304,
      "ett": 305,
      "ol": 306,
      "Ġjag": 307,
      "as": 308,
      "ion": 309,
      "iv": 310,
      "Ã¤l": 311,
      "ad": 312,
      "ade": 313,
      "Ġden": 314,
      "ĠH": 315,
      "Ġinte": 316,
      "Ġut": 317,
      "ĠV": 318,
      "Ġsk": 319,
      "ĠÃ": 320,
      "ĠA": 321,
      "em": 322,
      "Ã¤tt": 323,
      "ur": 324,
      "ĠF": 325,
      "ĠsÃ¥": 326,
      "are": 327,
      "Ġfr": 328,
      "Ġan": 329,
      "ik": 330,
      "ot": 331,
      "ĠB": 332,
      "Ġ1": 333,
      "Ġett": 334,
      "Ġkan": 335,
      "ller": 336,
      "li": 337,
      "ut": 338,
      "Ġvi": 339,
      "ĠT": 340,
      "Ġdu": 341,
      "Ġ2": 342,
      "Ã¤g": 343,
      "ande": 344,
      "omm": 345,
      "ĠE": 346,
      "Ã¥g": 347,
      "ens": 348,
      "ta": 349,
      "fÃ": 350,
      "ĠL": 351,
      "Ġbe": 352,
      "ĠI": 353,
      "het": 354,
      "ĠK": 355,
      "ĠN": 356,
      "ĠP": 357,
      "ĠJ": 358,
      "Ġall": 359,
      "itt": 360,
      "Ġupp": 361,
      "Ã¥ng": 362,
      "sta": 363,
      "âĢ": 364,
      "ent": 365,
      "ort": 366,
      "da": 367,
      "Ġre": 368,
      "ans": 369,
      "us": 370,
      "Ġska": 371,
      "Ġkomm": 372,
      "ĠDet": 373,
      "um": 374,
      "Ã¤ll": 375,
      "Ġman": 376,
      "es": 377,
      "ĠfrÃ¥n": 378,
      "ns": 379,
      "ri": 380,
      "la": 381,
      "ĠG": 382,
      "Ġun": 383,
      "Ġsp": 384,
      "Ã¤m": 385,
      "ation": 386,
      "og": 387,
      "ĠR": 388,
      "fter": 389,
      "yck": 390,
      "Ġmen": 391,
      "art": 392,
      "ĠO": 393,
      "le": 394,
      "Ġsam": 395,
      "Ġeller": 396,
      "ell": 397,
      "ligt": 398,
      "ĠâĢ": 399,
      "igt": 400,
      "ul": 401,
      "ak": 402,
      "den": 403,
      "Ġfin": 404,
      "ĠnÃ¤r": 405,
      "ĠC": 406,
      "yg": 407,
      "Ġmin": 408,
      "sl": 409,
      "ĠnÃ¥g": 410,
      "Ġtr": 411,
      "bb": 412,
      "ram": 413,
      "ster": 414,
      "var": 415,
      "isk": 416,
      "sp": 417,
      "Ã¤ng": 418,
      "Ġpro": 419,
      "Ġsig": 420,
      "ats": 421,
      "ma": 422,
      "Ġbar": 423,
      "bet": 424,
      "Ã¤nd": 425,
      "ull": 426,
      "ff": 427,
      "ud": 428,
      "all": 429,
      "Ġc": 430,
      "ĠdÃ¤r": 431,
      "Ġhel": 432,
      "era": 433,
      "ven": 434,
      "arna": 435,
      "ĠhÃ¤r": 436,
      "ers": 437,
      "jÃ¤l": 438,
      "dag": 439,
      "ste": 440,
      "sa": 441,
      "ĠÃ¥r": 442,
      "ft": 443,
      "ok": 444,
      "ĠgÃ": 445,
      "Ġunder": 446,
      "ĠJag": 447,
      "ĠU": 448,
      "und": 449,
      "ĠÃ¥": 450,
      "erna": 451,
      "els": 452,
      "Ġny": 453,
      "rs": 454,
      "Ġgr": 455,
      "Ġkon": 456,
      "Ġli": 457,
      "os": 458,
      "Ġbli": 459,
      "Ġefter": 460,
      "ne": 461,
      "del": 462,
      "arbet": 463,
      "Ġkommer": 464,
      "Ġbl": 465,
      "sÃ¥": 466,
      "ger": 467,
      "Ġfl": 468,
      "ekt": 469,
      "Ġha": 470,
      "ic": 471,
      "Ġvara": 472,
      "od": 473,
      "ĠâĢĵ": 474,
      "liga": 475,
      "ĠVi": 476,
      "orm": 477,
      "ju": 478,
      "Ġhan": 479,
      "Ġkr": 480,
      "ĠhÃ": 481,
      "Ġtid": 482,
      "ist": 483,
      "ĠFÃ": 484,
      "ĠmÃ¥": 485,
      "ker": 486,
      "Ġfinns": 487,
      "ick": 488,
      "ningen": 489,
      "ĠÃ¤": 490,
      "ĠfÃ¥": 491,
      "ock": 492,
      "Ġmer": 493,
      "pa": 494,
      "ĠSt": 495,
      "Ġse": 496,
      "im": 497,
      "ling": 498,
      "edan": 499,
      "iska": 500,
      "Ġ3": 501,
      "Ġalla": 502,
      "Ġsin": 503,
      "Ã¤nn": 504,
      "Ġvill": 505,
      "ycket": 506,
      "ska": 507,
      "opp": 508,
      "ru": 509,
      "Ġand": 510,
      "ĠvÃ¤l": 511,
      "Ġnu": 512,
      "Ġsl": 513,
      "Ġallt": 514,
      "sam": 515,
      "lar": 516,
      "iga": 517,
      "Ġdag": 518,
      "Ġju": 519,
      "ilj": 520,
      "Ġdel": 521,
      "Ġvid": 522,
      "eck": 523,
      "Ġock": 524,
      "yr": 525,
      "ikt": 526,
      "Ġkun": 527,
      "ost": 528,
      "ĠdÃ¥": 529,
      "ber": 530,
      "Ġfram": 531,
      "akt": 532,
      "Ġmot": 533,
      "Ġpl": 534,
      "ĠocksÃ¥": 535,
      "ningar": 536,
      "ĠfÃ¥r": 537,
      "bl": 538,
      "Ġbeh": 539,
      "Ġpr": 540,
      "ret": 541,
      "Ġmig": 542,
      "Ġmycket": 543,
      "enom": 544,
      "ĠEn": 545,
      "Ġbra": 546,
      "ga": 547,
      "ĠIn": 548,
      "ĠbÃ": 549,
      "Ġta": 550,
      "ant": 551,
      "Ã¤s": 552,
      "Ġver": 553,
      "cka": 554,
      "ark": 555,
      "ĠmÃ": 556,
      "gen": 557,
      "Ġtv": 558,
      "Ã¥ll": 559,
      "est": 560,
      "ĠkÃ": 561,
      "ov": 562,
      "Ġex": 563,
      "ord": 564,
      "Ġsv": 565,
      "Ġdig": 566,
      "rÃ": 567,
      "kar": 568,
      "Ġdin": 569,
      "Ġvis": 570,
      "Ġandra": 571,
      "Ġarbet": 572,
      "ir": 573,
      "Ġbara": 574,
      "Ġlite": 575,
      "ĠÃ¤ven": 576,
      "per": 577,
      "ligen": 578,
      "erson": 579,
      "Ġhur": 580,
      "Ã¥nga": 581,
      "ast": 582,
      "org": 583,
      "ingen": 584,
      "tal": 585,
      "Ġhon": 586,
      "stÃ¤ll": 587,
      "rÃ¥": 588,
      "Ġkv": 589,
      "Ġor": 590,
      "ĠDe": 591,
      "ket": 592,
      "dr": 593,
      "Ã¤st": 594,
      "ja": 595,
      "eg": 596,
      "Ġann": 597,
      "ĠÃ¤n": 598,
      "bil": 599,
      "Ġanv": 600,
      "op": 601,
      "ulle": 602,
      "itet": 603,
      "yn": 604,
      "ĠMen": 605,
      "Ġbil": 606,
      "Ġer": 607,
      "je": 608,
      "Ġkl": 609,
      "Ġvil": 610,
      "Ġ5": 611,
      "ce": 612,
      "ĠvÃ¥r": 613,
      "Ġstor": 614,
      "ĠAn": 615,
      "Ġvad": 616,
      "ass": 617,
      "se": 618,
      "av": 619,
      "Ġhade": 620,
      "Ġhem": 621,
      "Ġ4": 622,
      "ĠDen": 623,
      "ĠsÃ¤g": 624,
      "ĠvÃ¤r": 625,
      "ott": 626,
      "ds": 627,
      "pl": 628,
      "vis": 629,
      "ote": 630,
      "Ġsm": 631,
      "Ġskulle": 632,
      "ser": 633,
      "ack": 634,
      "du": 635,
      "ress": 636,
      "ci": 637,
      "Ġbet": 638,
      "jt": 639,
      "Ġgenom": 640,
      "Ġblir": 641,
      "oll": 642,
      "Ġspel": 643,
      "Ġkom": 644,
      "jÃ¤lv": 645,
      "kl": 646,
      "Ġutan": 647,
      "rÃ¤": 648,
      "aren": 649,
      "ier": 650,
      "ring": 651,
      "Ġperson": 652,
      "lev": 653,
      "ygg": 654,
      "riv": 655,
      "ĠW": 656,
      "Ġser": 657,
      "Ġsamt": 658,
      "nings": 659,
      "inn": 660,
      "Ġsen": 661,
      "yd": 662,
      "Ã¤gg": 663,
      "ĠmÃ¥nga": 664,
      "rsta": 665,
      "ĠsjÃ¤lv": 666,
      "iskt": 667,
      "ren": 668,
      "ĠstÃ": 669,
      "ken": 670,
      "gi": 671,
      "form": 672,
      "ĠnÃ¥gon": 673,
      "sÃ¤tt": 674,
      "ende": 675,
      "fr": 676,
      "Ġdess": 677,
      "man": 678,
      "vÃ¤r": 679,
      "Ã¤k": 680,
      "ia": 681,
      "Ġdetta": 682,
      "verig": 683,
      "Ġber": 684,
      "ef": 685,
      "ighet": 686,
      "Ġoss": 687,
      "Ġverk": 688,
      "Ġmat": 689,
      "ek": 690,
      "som": 691,
      "ĠnÃ¥got": 692,
      "Ġsedan": 693,
      "ĠsÃ": 694,
      "ĠkÃ¤n": 695,
      "Ã¤t": 696,
      "Ã¥t": 697,
      "Ġw": 698,
      "lika": 699,
      "Ġbarn": 700,
      "ult": 701,
      "Ã¤sta": 702,
      "enska": 703,
      "rst": 704,
      "Ġhand": 705,
      "mer": 706,
      "men": 707,
      "otell": 708,
      "obb": 709,
      "rj": 710,
      "Ġbr": 711,
      "ĠgÃ¥r": 712,
      "ĠsÃ¤tt": 713,
      "sÃ": 714,
      "alt": 715,
      "aget": 716,
      "ĠbehÃ": 717,
      "Ġolika": 718,
      "ĠtvÃ¥": 719,
      "Ġ0": 720,
      "Ġhitt": 721,
      "Ġig": 722,
      "mar": 723,
      "land": 724,
      "sen": 725,
      "ytt": 726,
      "jÃ": 727,
      "lighet": 728,
      "ie": 729,
      "det": 730,
      "sson": 731,
      "ug": 732,
      "ala": 733,
      "ĠrÃ¤tt": 734,
      "ĠlÃ": 735,
      "ĠSk": 736,
      "nar": 737,
      "ĠSverig": 738,
      "ym": 739,
      "ĠgÃ¥ng": 740,
      "Ġal": 741,
      "sb": 742,
      "Ġdem": 743,
      "ĠhjÃ¤l": 744,
      "ĠsÃ¤ger": 745,
      "Ġinne": 746,
      "Ġhelt": 747,
      "Ġra": 748,
      "Ã¥l": 749,
      "erade": 750,
      "rb": 751,
      "Ġing": 752,
      "Ġro": 753,
      "ĠOm": 754,
      "âĢĿ": 755,
      "pt": 756,
      "upp": 757,
      "des": 758,
      "Ã¤d": 759,
      "Ġma": 760,
      "sm": 761,
      "ellan": 762,
      "rt": 763,
      "Ġvet": 764,
      "nad": 765,
      "Ġinom": 766,
      "Ġfick": 767,
      "Ġnya": 768,
      "jting": 769,
      "Ã¤nder": 770,
      "Ġgj": 771,
      "eras": 772,
      "Ġ6": 773,
      "ang": 774,
      "ĠgÃ¥": 775,
      "Ã¤v": 776,
      "ering": 777,
      "Ġint": 778,
      "jer": 779,
      "Ġfun": 780,
      "hÃ¥ll": 781,
      "Ġfort": 782,
      "ĠlÃ¤ng": 783,
      "veck": 784,
      "Ġhela": 785,
      "ĠbÃ¥": 786,
      "Ġty": 787,
      "ĠÃĦ": 788,
      "lin": 789,
      "ida": 790,
      "Ġsitt": 791,
      "hol": 792,
      "ske": 793,
      "Ġjobb": 794,
      "tern": 795,
      "Ġpre": 796,
      "Ġvarit": 797,
      "kon": 798,
      "ien": 799,
      "ets": 800,
      "Ġblev": 801,
      "va": 802,
      "ĠmÃ¥ste": 803,
      "Ġliv": 804,
      "ys": 805,
      "ĠfrÃ¥g": 806,
      "Ġle": 807,
      "ĠrÃ": 808,
      "rat": 809,
      "ts": 810,
      "nan": 811,
      "ĠnÃ¥gra": 812,
      "Ġper": 813,
      "Ġmellan": 814,
      "Ġof": 815,
      "ĠDu": 816,
      "Ġsn": 817,
      "nas": 818,
      "ĠlÃ¤g": 819,
      "gr": 820,
      "dÃ": 821,
      "Ġdenna": 822,
      "Ġlag": 823,
      "Ġni": 824,
      "Ġled": 825,
      "Ã¥ra": 826,
      "Ġreg": 827,
      "ktion": 828,
      "red": 829,
      "bar": 830,
      "pel": 831,
      "verk": 832,
      "ella": 833,
      "ps": 834,
      "ativ": 835,
      "ĠNÃ¤r": 836,
      "ex": 837,
      "Ġel": 838,
      "jÃ¤n": 839,
      "rum": 840,
      "retag": 841,
      "Ġ7": 842,
      "slut": 843,
      "jÃ¤r": 844,
      "Ġgl": 845,
      "Ġvikt": 846,
      "he": 847,
      "Ġslut": 848,
      "ust": 849,
      "Ġrikt": 850,
      "me": 851,
      "Ġdat": 852,
      "met": 853,
      "ĠSverige": 854,
      "ann": 855,
      "kel": 856,
      "Ġkommun": 857,
      "Ġmo": 858,
      "ĠOch": 859,
      "ĠÃĸ": 860,
      "Ġtre": 861,
      "juk": 862,
      "else": 863,
      "ika": 864,
      "ĠÂ": 865,
      "if": 866,
      "ĠâĢĿ": 867,
      "erar": 868,
      "Ġsak": 869,
      "Ġpris": 870,
      "rik": 871,
      "orna": 872,
      "komm": 873,
      "Ã¤nt": 874,
      "ĠÃ¥t": 875,
      "Ġdi": 876,
      "utom": 877,
      "holm": 878,
      "Ġannat": 879,
      "atur": 880,
      "Ġakt": 881,
      "hÃ": 882,
      "Ã¤ker": 883,
      "Ġch": 884,
      "dre": 885,
      "gÃ¥ng": 886,
      "ĠtÃ¤n": 887,
      "erad": 888,
      "Ã¤x": 889,
      "Ġkunna": 890,
      "Ġeg": 891,
      "io": 892,
      "Ġsina": 893,
      "ĠÃ¤nd": 894,
      "gar": 895,
      "atten": 896,
      "Ġner": 897,
      "yst": 898,
      "Ġ8": 899,
      "Ġvilket": 900,
      "ĠSÃ¥": 901,
      "Ã¤ller": 902,
      "ap": 903,
      "Ġvin": 904,
      "ĠAll": 905,
      "ĠbÃ¥de": 906,
      "Ġhos": 907,
      "igare": 908,
      "samhet": 909,
      "Ġ9": 910,
      "ab": 911,
      "Ġmilj": 912,
      "Ġres": 913,
      "orde": 914,
      "oka": 915,
      "lj": 916,
      "Ã¤ck": 917,
      "Ġhotell": 918,
      "formation": 919,
      "Ġdejting": 920,
      "Ġon": 921,
      "kte": 922,
      "lÃ¤gg": 923,
      "ĠlÃ¥ng": 924,
      "bild": 925,
      "Ġbland": 926,
      "unt": 927,
      "digt": 928,
      "ej": 929,
      "Ã¤nda": 930,
      "sten": 931,
      "ĠÃħ": 932,
      "ĠanvÃ¤nd": 933,
      "pro": 934,
      "Ġlig": 935,
      "ades": 936,
      "ĠUn": 937,
      "ĠÃ¥ter": 938,
      "tid": 939,
      "ycker": 940,
      "gÃ¥r": 941,
      "anska": 942,
      "ĠNu": 943,
      "Ġutveck": 944,
      "Ġpar": 945,
      "ĠvÃ¥ra": 946,
      "min": 947,
      "ank": 948,
      "ars": 949,
      "Ġly": 950,
      "Ġkanske": 951,
      "skap": 952,
      "ub": 953,
      "led": 954,
      "ĠvÃ¤g": 955,
      "ĠPÃ¥": 956,
      "Ġprodu": 957,
      "eb": 958,
      "Ġplats": 959,
      "Ġdessa": 960,
      "par": 961,
      "ĠmÃ¤nn": 962,
      "ĠbÃ¤sta": 963,
      "Ġtro": 964,
      "Ġpol": 965,
      "dom": 966,
      "tra": 967,
      "ĠhÃ¥ll": 968,
      "ĠfÃ¤r": 969,
      "Ġtar": 970,
      "hus": 971,
      "rv": 972,
      "Ã¤der": 973,
      "Ġerb": 974,
      "Ġinnan": 975,
      "olk": 976,
      "slag": 977,
      "rk": 978,
      "ĠHan": 979,
      "Ġflera": 980,
      "rar": 981,
      "Ġord": 982,
      "fatt": 983,
      "sv": 984,
      "nen": 985,
      "lÃ": 986,
      "Ġvan": 987,
      "uv": 988,
      "ĠlÃ¤r": 989,
      "Ġger": 990,
      "Ġidag": 991,
      "ĠHÃ¤r": 992,
      "andet": 993,
      "Ġsna": 994,
      "ina": 995,
      "cent": 996,
      "iken": 997,
      "etta": 998,
      "Ġsamma": 999,
      "kter": 1000,
      "ĠmÃ¥l": 1001,
      "aste": 1002,
      "ĠMed": 1003,
      "tro": 1004,
      "eter": 1005,
      "Ġpass": 1006,
      "ow": 1007,
      "rekt": 1008,
      "rsÃ": 1009,
      "Ġfall": 1010,
      "ockholm": 1011,
      "ĠFr": 1012,
      "Ã¤nner": 1013,
      "ĠdÃ": 1014,
      "Ġdom": 1015,
      "ors": 1016,
      "Ġmitt": 1017,
      "hand": 1018,
      "Ġfil": 1019,
      "jekt": 1020,
      "lass": 1021,
      "Ġalltid": 1022,
      "ung": 1023,
      "Ġbort": 1024,
      "Ġditt": 1025,
      "Ã¥ller": 1026,
      "ld": 1027,
      "ras": 1028,
      "ba": 1029,
      "Ġbest": 1030,
      "Ġstora": 1031,
      "Ã¤ttre": 1032,
      "eri": 1033,
      "erat": 1034,
      "ĠlÃ¤": 1035,
      "kade": 1036,
      "ppen": 1037,
      "jud": 1038,
      "ystem": 1039,
      "Ġfakt": 1040,
      "ĠAtt": 1041,
      "skar": 1042,
      "atis": 1043,
      "Ġnog": 1044,
      "berg": 1045,
      "ĠLÃ¤s": 1046,
      "Ġvarje": 1047,
      "kv": 1048,
      "blem": 1049,
      "rm": 1050,
      "empel": 1051,
      "mans": 1052,
      "takt": 1053,
      "amn": 1054,
      "lag": 1055,
      "gram": 1056,
      "ĠstÃ¤ll": 1057,
      "Ġbok": 1058,
      "iss": 1059,
      "Ġhen": 1060,
      "ĠsÃ¤ker": 1061,
      "eci": 1062,
      "ĠvÃ¤ldigt": 1063,
      "Ġigen": 1064,
      "Ġfor": 1065,
      "ĠmÃ¤nnisk": 1066,
      "plats": 1067,
      "nader": 1068,
      "Ġso": 1069,
      "Ġsnabb": 1070,
      "ĠbÃ¤ttre": 1071,
      "rÃ¤tt": 1072,
      "bo": 1073,
      "Ġans": 1074,
      "ry": 1075,
      "borg": 1076,
      "Ã¥rt": 1077,
      "ellt": 1078,
      "Ġplan": 1079,
      "ĠDetta": 1080,
      "Ġtycker": 1081,
      "ĠRe": 1082,
      "ĠlÃ¤tt": 1083,
      "Ġinformation": 1084,
      "ationer": 1085,
      "Ġfy": 1086,
      "ĠHar": 1087,
      "edel": 1088,
      "Ġsvar": 1089,
      "Ġligger": 1090,
      "raf": 1091,
      "ionen": 1092,
      "Ġfast": 1093,
      "ĠÃ¤l": 1094,
      "rev": 1095,
      "idan": 1096,
      "mÃ¤r": 1097,
      "Ġval": 1098,
      "ha": 1099,
      "ĠgÃ¤ller": 1100,
      "rav": 1101,
      "gÃ": 1102,
      "ner": 1103,
      "ob": 1104,
      "kom": 1105,
      "Ġgrund": 1106,
      "Ġjust": 1107,
      "skil": 1108,
      "ektiv": 1109,
      "Ġskriv": 1110,
      "tag": 1111,
      "ĠnÃ¤t": 1112,
      "Ġgod": 1113,
      "Ġskol": 1114,
      "Ġingen": 1115,
      "ari": 1116,
      "Ġofta": 1117,
      "tera": 1118,
      "jlighet": 1119,
      "Ġform": 1120,
      "Ġtidigare": 1121,
      "Ġfler": 1122,
      "dan": 1123,
      "anden": 1124,
      "ĠStockholm": 1125,
      "vers": 1126,
      "ĠfÃ¥tt": 1127,
      "Ġbak": 1128,
      "Ã¤ns": 1129,
      "ĠMa": 1130,
      "ĠTill": 1131,
      "Ġmark": 1132,
      "Ġintress": 1133,
      "uvud": 1134,
      "dat": 1135,
      "Ġpen": 1136,
      "Ġkall": 1137,
      "pen": 1138,
      "ester": 1139,
      "Ġfan": 1140,
      "Ġkomma": 1141,
      "Ġexempel": 1142,
      "Ġsjuk": 1143,
      "Ã¥s": 1144,
      "rl": 1145,
      "ris": 1146,
      "ings": 1147,
      "ĠCh": 1148,
      "rott": 1149,
      "Ġar": 1150,
      "Ġenda": 1151,
      "Ġveck": 1152,
      "Ġge": 1153,
      "ĠtrÃ¤n": 1154,
      "ĠJo": 1155,
      "Ġtror": 1156,
      "Ġriktigt": 1157,
      "ĠVad": 1158,
      "ĠUt": 1159,
      "nade": 1160,
      "ĠlÃ¤m": 1161,
      "ĠEfter": 1162,
      "Ġtag": 1163,
      "Ã©": 1164,
      "gifter": 1165,
      "ioner": 1166,
      "Ġsvenska": 1167,
      "ebb": 1168,
      "Ã¤lj": 1169,
      "sammans": 1170,
      "app": 1171,
      "Ġmest": 1172,
      "Ġgick": 1173,
      "line": 1174,
      "ĠVar": 1175,
      "frÃ¥n": 1176,
      "Ġkonst": 1177,
      "las": 1178,
      "Ġdock": 1179,
      "Ġskall": 1180,
      "Ã¥ende": 1181,
      "orn": 1182,
      "heten": 1183,
      "Ġur": 1184,
      "Ġenkel": 1185,
      "Ġhitta": 1186,
      "yt": 1187,
      "res": 1188,
      "Ġkvinn": 1189,
      "Ġenligt": 1190,
      "amilj": 1191,
      "ĠhjÃ¤lp": 1192,
      "ingar": 1193,
      "Ġkost": 1194,
      "Ġeftersom": 1195,
      "kÃ": 1196,
      "ind": 1197,
      "Ġfot": 1198,
      "ron": 1199,
      "Ġtim": 1200,
      "Ġrunt": 1201,
      "Ġredan": 1202,
      "ĠHur": 1203,
      "uss": 1204,
      "ĠomdÃ": 1205,
      "ĠSp": 1206,
      "ĠMan": 1207,
      "rande": 1208,
      "ĠEtt": 1209,
      "ultat": 1210,
      "Ġlik": 1211,
      "Ġdina": 1212,
      "Ġannan": 1213,
      "Ġhopp": 1214,
      "Ġgratis": 1215,
      "ĠGÃ": 1216,
      "med": 1217,
      "Ġkoll": 1218,
      "dagen": 1219,
      "rakt": 1220,
      "net": 1221,
      "far": 1222,
      "iker": 1223,
      "fl": 1224,
      "Ġland": 1225,
      "vÃ¤g": 1226,
      "ubb": 1227,
      "lem": 1228,
      "rist": 1229,
      "be": 1230,
      "Ġpersoner": 1231,
      "ĠVis": 1232,
      "ĠPro": 1233,
      "talet": 1234,
      "giv": 1235,
      "skol": 1236,
      "van": 1237,
      "uro": 1238,
      "Ġsy": 1239,
      "ĠskÃ": 1240,
      "baka": 1241,
      "uter": 1242,
      "Ġhus": 1243,
      "Ġspeci": 1244,
      "Ã¥d": 1245,
      "drig": 1246,
      "Ġbygg": 1247,
      "Ġkunde": 1248,
      "stad": 1249,
      "sn": 1250,
      "Ġrum": 1251,
      "Ġlever": 1252,
      "Ġproblem": 1253,
      "ard": 1254,
      "Ġgjort": 1255,
      "nes": 1256,
      "ler": 1257,
      "nt": 1258,
      "ĠberÃ¤tt": 1259,
      "vet": 1260,
      "ĠDÃ¤r": 1261,
      "elsen": 1262,
      "Ġgam": 1263,
      "Ġstad": 1264,
      "naden": 1265,
      "bÃ¤r": 1266,
      "Ġderas": 1267,
      "raft": 1268,
      "ĠjÃ¤m": 1269,
      "Ġverksamhet": 1270,
      "Ġsi": 1271,
      "Ġred": 1272,
      "Ġdirekt": 1273,
      "amp": 1274,
      "Ġfull": 1275,
      "Ġsex": 1276,
      "river": 1277,
      "ĠY": 1278,
      "sh": 1279,
      "alen": 1280,
      "Ġkli": 1281,
      "ĠSam": 1282,
      "ĠmÃ¤nniskor": 1283,
      "Ġlika": 1284,
      "Ġaldrig": 1285,
      "ĠtjÃ¤n": 1286,
      "olog": 1287,
      "Ġnytt": 1288,
      "mat": 1289,
      "Ġtillbaka": 1290,
      "Ġtillsammans": 1291,
      "rad": 1292,
      "Ġung": 1293,
      "Ġsenaste": 1294,
      "rre": 1295,
      "Ġhal": 1296,
      "ten": 1297,
      "illa": 1298,
      "kan": 1299,
      "heter": 1300,
      "ationen": 1301,
      "Ġverkligen": 1302,
      "iten": 1303,
      "yl": 1304,
      "rut": 1305,
      "Ġnatur": 1306,
      "Ġkomp": 1307,
      "kor": 1308,
      "Ġwebb": 1309,
      "Ġtog": 1310,
      "ĠbesÃ": 1311,
      "gre": 1312,
      "Ġtiden": 1313,
      "Ġmina": 1314,
      "Ġkontakt": 1315,
      "ĠtrÃ¤": 1316,
      "asin": 1317,
      "Ġhuvud": 1318,
      "ĠlÃ¥": 1319,
      "Ġbo": 1320,
      "ib": 1321,
      "Ġmatch": 1322,
      "Ġkort": 1323,
      "lek": 1324,
      "ister": 1325,
      "Ġkro": 1326,
      "ĠnÃ": 1327,
      "spel": 1328,
      "anis": 1329,
      "stÃ¥n": 1330,
      "Ã¥rd": 1331,
      "Ġegen": 1332,
      "olag": 1333,
      "ĠvÃ¤n": 1334,
      "ĠUpp": 1335,
      "ĠSv": 1336,
      "skin": 1337,
      "ips": 1338,
      "Ã¤ster": 1339,
      "Ġerbju": 1340,
      "Ġgen": 1341,
      "mÃ": 1342,
      "eller": 1343,
      "Ġmindre": 1344,
      "age": 1345,
      "ong": 1346,
      "ike": 1347,
      "ĠhÃ¤l": 1348,
      "ĠsmÃ¥": 1349,
      "arl": 1350,
      "jur": 1351,
      "sfÃ": 1352,
      "nads": 1353,
      "Ġgjorde": 1354,
      "Ġkvar": 1355,
      "kning": 1356,
      "ice": 1357,
      "com": 1358,
      "iva": 1359,
      "ÂŃ": 1360,
      "vent": 1361,
      "bland": 1362,
      "Ġhans": 1363,
      "ĠUnder": 1364,
      "Ġhonom": 1365,
      "skriv": 1366,
      "Ġmass": 1367,
      "ĠDÃ¥": 1368,
      "Ġrel": 1369,
      "konom": 1370,
      "Ġbeslut": 1371,
      "Ġpo": 1372,
      "ran": 1373,
      "Ġtitt": 1374,
      "ĠomrÃ¥": 1375,
      "fall": 1376,
      "han": 1377,
      "fil": 1378,
      "int": 1379,
      "orgon": 1380,
      "ĠanvÃ¤nda": 1381,
      "alitet": 1382,
      "istor": 1383,
      "ĠdÃ¤rfÃ": 1384,
      "orter": 1385,
      "enter": 1386,
      "Ġbor": 1387,
      "nat": 1388,
      "jligt": 1389,
      "cis": 1390,
      "Ġfamilj": 1391,
      "Ġklar": 1392,
      "ĠinfÃ": 1393,
      "Ġsa": 1394,
      "Ġih": 1395,
      "rid": 1396,
      "Ġenkelt": 1397,
      "ĠMar": 1398,
      "ĠstÃ¥r": 1399,
      "Ġvia": 1400,
      "ĠvÃ¤x": 1401,
      "Ã¤ra": 1402,
      "Ġbilder": 1403,
      "Ġinv": 1404,
      "ition": 1405,
      "Ġvatten": 1406,
      "hÃ¤ll": 1407,
      "ĠlÃ¤sa": 1408,
      "ĠSom": 1409,
      "Ġte": 1410,
      "ara": 1411,
      "Ġmus": 1412,
      "vs": 1413,
      "spl": 1414,
      "Ġpart": 1415,
      "ivit": 1416,
      "kommen": 1417,
      "Ġute": 1418,
      "lingen": 1419,
      "ekn": 1420,
      "yk": 1421,
      "ynd": 1422,
      "Ġonline": 1423,
      "ĠÃ¤ndÃ¥": 1424,
      "ĠHon": 1425,
      "Ġfle": 1426,
      "eln": 1427,
      "Ġtur": 1428,
      "Ġblog": 1429,
      "satt": 1430,
      "Ã¤kt": 1431,
      "fekt": 1432,
      "Ġfolk": 1433,
      "ess": 1434,
      "ĠsÃ¤ga": 1435,
      "mot": 1436,
      "ĠKan": 1437,
      "ĠmiljÃ": 1438,
      "bart": 1439,
      "iet": 1440,
      "Ġdagar": 1441,
      "Ġhemma": 1442,
      "ons": 1443,
      "Ġeff": 1444,
      "ct": 1445,
      "Ã¤rna": 1446,
      "by": 1447,
      "Ġhy": 1448,
      "Ġkron": 1449,
      "Ġbild": 1450,
      "oner": 1451,
      "ĠinnebÃ¤r": 1452,
      "rag": 1453,
      "Ġstort": 1454,
      "Ġbehand": 1455,
      "ĠSÃ": 1456,
      "Ġytt": 1457,
      "Ġsol": 1458,
      "Ġbill": 1459,
      "ont": 1460,
      "Ġprocent": 1461,
      "ligare": 1462,
      "cept": 1463,
      "Ġsu": 1464,
      "ite": 1465,
      "ĠÃ¤g": 1466,
      "rÃ¤nd": 1467,
      "ĠDess": 1468,
      "idigt": 1469,
      "Ġsaker": 1470,
      "Ġhaft": 1471,
      "Ġfel": 1472,
      "vÃ¤nd": 1473,
      "Ã¤nk": 1474,
      "Ġtal": 1475,
      "Ġstyr": 1476,
      "Ġned": 1477,
      "ĠkÃ¤nner": 1478,
      "ĠlÃ¤ngre": 1479,
      "ĠnÃ¤st": 1480,
      "Ġutbild": 1481,
      "Ġpengar": 1482,
      "ĠfortsÃ¤tt": 1483,
      "sf": 1484,
      "Ġart": 1485,
      "vensk": 1486,
      "ke": 1487,
      "ĠNy": 1488,
      "Ġbru": 1489,
      "ĠAl": 1490,
      "vr": 1491,
      "lden": 1492,
      "of": 1493,
      "ĠJa": 1494,
      "Ġfem": 1495,
      "rd": 1496,
      "Ġstart": 1497,
      "Ġblivit": 1498,
      "Ġim": 1499,
      "sikt": 1500,
      "ydd": 1501,
      "ĠkvÃ¤ll": 1502,
      "Ġkont": 1503,
      "ata": 1504,
      "Ġflyg": 1505,
      "ĠlÃ¥g": 1506,
      "our": 1507,
      "ĠsÃ¤r": 1508,
      "lla": 1509,
      "rjar": 1510,
      "Ã¤mt": 1511,
      "Ġintern": 1512,
      "Ġkn": 1513,
      "drar": 1514,
      "Ġca": 1515,
      "ix": 1516,
      "reg": 1517,
      "Ã¤pp": 1518,
      "lic": 1519,
      "Ġvisar": 1520,
      "Ġmedlem": 1521,
      "port": 1522,
      "jus": 1523,
      "Ġorg": 1524,
      "ian": 1525,
      "stÃ¤llet": 1526,
      "under": 1527,
      "Ġhittar": 1528,
      "Ġsoci": 1529,
      "ĠAr": 1530,
      "Ġstud": 1531,
      "Ġfaktiskt": 1532,
      "Ġloka": 1533,
      "ĠUS": 1534,
      "Ġresultat": 1535,
      "ux": 1536,
      "ĠnÃ¤ra": 1537,
      "farande": 1538,
      "ĠvÃ¥rt": 1539,
      "ER": 1540,
      "Ġy": 1541,
      "ĠlÃ¤nge": 1542,
      "ip": 1543,
      "Ġliten": 1544,
      "edag": 1545,
      "elef": 1546,
      "sida": 1547,
      "Ġpolit": 1548,
      "igheter": 1549,
      "Ġansvar": 1550,
      "Ġinget": 1551,
      "rer": 1552,
      "gift": 1553,
      "Ġad": 1554,
      "Ġekonom": 1555,
      "andel": 1556,
      "mÃ¤l": 1557,
      "Ã¥tt": 1558,
      "Ġdisk": 1559,
      "ert": 1560,
      "lad": 1561,
      "Ã¤nnu": 1562,
      "ĠsvÃ¥rt": 1563,
      "Ġganska": 1564,
      "drag": 1565,
      "ĠAv": 1566,
      "inna": 1567,
      "Ġsyn": 1568,
      "gon": 1569,
      "ĠÃ¤nnu": 1570,
      "dra": 1571,
      "idor": 1572,
      "Ġextra": 1573,
      "ĠfrÃ¥gor": 1574,
      "ral": 1575,
      "kas": 1576,
      "ater": 1577,
      "ĠSe": 1578,
      "Ġkvinnor": 1579,
      "Ġka": 1580,
      "stÃ¥nd": 1581,
      "rÃ¤n": 1582,
      "ĠgÃ¤rna": 1583,
      "sÃ¤ttning": 1584,
      "ĠmÃ¤n": 1585,
      "Ġby": 1586,
      "ĠtrÃ¤ff": 1587,
      "Ġbed": 1588,
      "ĠkÃ¤nns": 1589,
      "cess": 1590,
      "Ġnamn": 1591,
      "illar": 1592,
      "ĠÃĦr": 1593,
      "tast": 1594,
      "elser": 1595,
      "Ġgrupp": 1596,
      "Ġrisk": 1597,
      "teborg": 1598,
      "Ġprojekt": 1599,
      "fÃ¤ll": 1600,
      "rÃ¤ck": 1601,
      "Ġklass": 1602,
      "ternativ": 1603,
      "ĠLe": 1604,
      "amma": 1605,
      "Ġoff": 1606,
      "inner": 1607,
      "ostad": 1608,
      "Ġdagen": 1609,
      "erial": 1610,
      "ins": 1611,
      "Ġlu": 1612,
      "ĠAB": 1613,
      "Ġvidare": 1614,
      "fri": 1615,
      "ĠhÃ¥ller": 1616,
      "ĠHot": 1617,
      "ecka": 1618,
      "ygga": 1619,
      "fÃ¤r": 1620,
      "ĠAlla": 1621,
      "Ġdra": 1622,
      "spro": 1623,
      "ffÃ¤r": 1624,
      "Ġprecis": 1625,
      "ivt": 1626,
      "Ġprogram": 1627,
      "ore": 1628,
      "ĠHÃ": 1629,
      "Ġhund": 1630,
      "Ġthe": 1631,
      "ĠnÃ¤stan": 1632,
      "frÃ¥g": 1633,
      "ori": 1634,
      "Ġeng": 1635,
      "ĠsamhÃ¤ll": 1636,
      "Ġant": 1637,
      "ĠnÃ¤m": 1638,
      "ĠMal": 1639,
      "Ġfortfarande": 1640,
      "Ġet": 1641,
      "ĠsÃ¥dan": 1642,
      "ĠgÃ¥nger": 1643,
      "ĠKÃ": 1644,
      "ultur": 1645,
      "rn": 1646,
      "Ġvissa": 1647,
      "ĠMin": 1648,
      "Ġbetal": 1649,
      "Ġkronor": 1650,
      "band": 1651,
      "Ġsidan": 1652,
      "Ġbel": 1653,
      "gÃ¤r": 1654,
      "oder": 1655,
      "Ġvilken": 1656,
      "Ġcent": 1657,
      "ivÃ¥": 1658,
      "Ġstat": 1659,
      "Ġvilka": 1660,
      "ĠlÃ¤s": 1661,
      "unkt": 1662,
      "ĠsÃ¤rskil": 1663,
      "ĠEx": 1664,
      "Ġsamtidigt": 1665,
      "Ġerbjuder": 1666,
      "Ġtekn": 1667,
      "Ġhandlar": 1668,
      "etter": 1669,
      "rjade": 1670,
      "pe": 1671,
      "ĠZ": 1672,
      "gÃ¤ng": 1673,
      "Ġsenare": 1674,
      "jut": 1675,
      "elefon": 1676,
      "Ġren": 1677,
      "pte": 1678,
      "ĠlÃ¤n": 1679,
      "br": 1680,
      "ĠanvÃ¤nder": 1681,
      "rja": 1682,
      "ppar": 1683,
      "istr": 1684,
      "Ġspela": 1685,
      "ember": 1686,
      "rÃ¥k": 1687,
      "cens": 1688,
      "ĠhÃ¥lla": 1689,
      "nande": 1690,
      "dera": 1691,
      "Ġhenne": 1692,
      "ĠFin": 1693,
      "ĠmÃ¤r": 1694,
      "ĠÃ¥ret": 1695,
      "jd": 1696,
      "ĠKon": 1697,
      "ift": 1698,
      "ĠBe": 1699,
      "lder": 1700,
      "Ġminuter": 1701,
      "ĠalltsÃ¥": 1702,
      "Ġhoppas": 1703,
      "Ġmis": 1704,
      "Ġbad": 1705,
      "Ġgott": 1706,
      "ĠhjÃ¤r": 1707,
      "ĠBer": 1708,
      "Ġste": 1709,
      "Ġpla": 1710,
      "staur": 1711,
      "Ġfru": 1712,
      "Ġsamman": 1713,
      "Ġviktigt": 1714,
      "its": 1715,
      "pass": 1716,
      "Ġkar": 1717,
      "Ġflytt": 1718,
      "one": 1719,
      "sst": 1720,
      "ita": 1721,
      "ine": 1722,
      "Ã¤ss": 1723,
      "ryck": 1724,
      "ou": 1725,
      "Ġskriver": 1726,
      "ĠistÃ¤llet": 1727,
      "rsÃ¤k": 1728,
      "Ġflesta": 1729,
      "Ġarbete": 1730,
      "vice": 1731,
      "ge": 1732,
      "Ġkor": 1733,
      "ĠBar": 1734,
      "Ġytter": 1735,
      "ummer": 1736,
      "rÃ¤l": 1737,
      "arbete": 1738,
      "ac": 1739,
      "ĠSen": 1740,
      "Ġbety": 1741,
      "Ġap": 1742,
      "Ġmaj": 1743,
      "Ġtex": 1744,
      "ĠframfÃ": 1745,
      "Ġtyd": 1746,
      "ĠnÃ¤sta": 1747,
      "ĠKomm": 1748,
      "bygg": 1749,
      "ay": 1750,
      "Ġsista": 1751,
      "Ġfunger": 1752,
      "fin": 1753,
      "ĠVid": 1754,
      "Ġtyp": 1755,
      "Ġendast": 1756,
      "ider": 1757,
      "Ġkm": 1758,
      "Ġfyra": 1759,
      "Ġihop": 1760,
      "Ġutt": 1761,
      "unn": 1762,
      "ĠjÃ¤mfÃ": 1763,
      "Ġvack": 1764,
      "Ġgo": 1765,
      "qu": 1766,
      "sin": 1767,
      "slÃ": 1768,
      "Ġtips": 1769,
      "get": 1770,
      "ĠBl": 1771,
      "strÃ": 1772,
      "mt": 1773,
      "gru": 1774,
      "rslag": 1775,
      "Ġhistor": 1776,
      "rÃ¤d": 1777,
      "ivet": 1778,
      "okus": 1779,
      "ever": 1780,
      "ĠEuro": 1781,
      "Ġsett": 1782,
      "Ġstar": 1783,
      "ĠNor": 1784,
      "varande": 1785,
      "Ġsnabbt": 1786,
      "osit": 1787,
      "ĠjÃ¤tt": 1788,
      "bara": 1789,
      "Ġjul": 1790,
      "andra": 1791,
      "ÃĦ": 1792,
      "ĠsjÃ¤lva": 1793,
      "Ġhennes": 1794,
      "ĠsÃ¥g": 1795,
      "Ġbid": 1796,
      "agen": 1797,
      "Ġins": 1798,
      "Ġind": 1799,
      "up": 1800,
      "Ġbehov": 1801,
      "stÃ¤llning": 1802,
      "ĠBo": 1803,
      "hÃ¥ller": 1804,
      "kad": 1805,
      "Ġminst": 1806,
      "faren": 1807,
      "ĠvÃ¤rld": 1808,
      "Ġfunktion": 1809,
      "itu": 1810,
      "Ġegna": 1811,
      "Ġkring": 1812,
      "ĠfrÃ¤m": 1813,
      "dar": 1814,
      "ument": 1815,
      "asino": 1816,
      "orer": 1817,
      "Ġid": 1818,
      "Ġbef": 1819,
      "Ġmet": 1820,
      "ond": 1821,
      "ĠkÃ¤r": 1822,
      "Ġkul": 1823,
      "Ġorganis": 1824,
      "mÃ¤n": 1825,
      "XX": 1826,
      "EN": 1827,
      "Ġener": 1828,
      "ĠhÃ¥r": 1829,
      "ĠvÃ¤rlden": 1830,
      "ifrÃ¥n": 1831,
      "sol": 1832,
      "Ġfantast": 1833,
      "ĠFl": 1834,
      "alis": 1835,
      "Ġmobil": 1836,
      "Ġskapa": 1837,
      "ww": 1838,
      "Ġskic": 1839,
      "Ġutveckling": 1840,
      "Ġvecka": 1841,
      "rde": 1842,
      "ĠIdag": 1843,
      "Ġto": 1844,
      "rbÃ¤tt": 1845,
      "Ġforsk": 1846,
      "full": 1847,
      "Ġklart": 1848,
      "bÃ": 1849,
      "Ġgamla": 1850,
      "mark": 1851,
      "ĠbestÃ¤m": 1852,
      "Ġdessutom": 1853,
      "Ġdejtingsa": 1854,
      "ĠinlÃ¤gg": 1855,
      "ĠBr": 1856,
      "Ġalternativ": 1857,
      "olaget": 1858,
      "lade": 1859,
      "ivers": 1860,
      "Ġpa": 1861,
      "ity": 1862,
      "Ġob": 1863,
      "ĠvÃ¤lja": 1864,
      "IN": 1865,
      "kta": 1866,
      "Ġemot": 1867,
      "Ġsatt": 1868,
      "terna": 1869,
      "vÃ¤x": 1870,
      "ivitet": 1871,
      "anc": 1872,
      "ĠVil": 1873,
      "Ġkur": 1874,
      "oc": 1875,
      "ĠfÃ¤rg": 1876,
      "Ġdelar": 1877,
      "str": 1878,
      "Ġhalv": 1879,
      "ssk": 1880,
      "entar": 1881,
      "retaget": 1882,
      "ĠSveriges": 1883,
      "Ġab": 1884,
      "ĠrÃ¤k": 1885,
      "kost": 1886,
      "Ġpriser": 1887,
      "ĠgenomfÃ": 1888,
      "Ġerbjud": 1889,
      "ies": 1890,
      "Ġpat": 1891,
      "entligen": 1892,
      "Ġhelst": 1893,
      "Ġkontro": 1894,
      "Ġsystem": 1895,
      "ĠThe": 1896,
      "lat": 1897,
      "Ġljus": 1898,
      "ĠAir": 1899,
      "rade": 1900,
      "ĠhjÃ¤lper": 1901,
      "ĠhÃ¤n": 1902,
      "Ġmaskin": 1903,
      "Ġupplev": 1904,
      "ĠbrÃ": 1905,
      "Ġperfekt": 1906,
      "Ġverkar": 1907,
      "Ġville": 1908,
      "Ġtimmar": 1909,
      "Ġbut": 1910,
      "ĠfrÃ¥ga": 1911,
      "gt": 1912,
      "ĠPer": 1913,
      "uella": 1914,
      "ĠlÃ¥ngt": 1915,
      "Hotell": 1916,
      "bud": 1917,
      "rra": 1918,
      "rdel": 1919,
      "rjan": 1920,
      "ĠtÃ¤v": 1921,
      "agn": 1922,
      "ograf": 1923,
      "cker": 1924,
      "Ġlycka": 1925,
      "ĠvarfÃ": 1926,
      "Ġgar": 1927,
      "unden": 1928,
      "Ġtje": 1929,
      "rikt": 1930,
      "Ġmode": 1931,
      "ĠhjÃ¤lpa": 1932,
      "Ġkraft": 1933,
      "ĠgÃ¥tt": 1934,
      "bok": 1935,
      "Ġâ": 1936,
      "fer": 1937,
      "iner": 1938,
      "AN": 1939,
      "ĠMax": 1940,
      "ĠRo": 1941,
      "ĠÃĦven": 1942,
      "agt": 1943,
      "Ġpapp": 1944,
      "Ġborde": 1945,
      "ckte": 1946,
      "ĠHel": 1947,
      "ĠTy": 1948,
      "Ġovan": 1949,
      "ork": 1950,
      "Ġstan": 1951,
      "ĠtrÃ": 1952,
      "lingar": 1953,
      "ĠvÃ¤nt": 1954,
      "AR": 1955,
      "Ġtrots": 1956,
      "onus": 1957,
      "boll": 1958,
      "amm": 1959,
      "klart": 1960,
      "ĠEU": 1961,
      "Ġinga": 1962,
      "jÃ¤rn": 1963,
      "enskap": 1964,
      "sig": 1965,
      "sch": 1966,
      "Ġpolis": 1967,
      "ringar": 1968,
      "rsÃ¤lj": 1969,
      "ningarna": 1970,
      "Ġfina": 1971,
      "Ġkna": 1972,
      "als": 1973,
      "Ġrapp": 1974,
      "ĠDenna": 1975,
      "Ġwebbplats": 1976,
      "Ġja": 1977,
      "derar": 1978,
      "ĠtillgÃ¤ng": 1979,
      "ew": 1980,
      "iden": 1981,
      "Ġkvalitet": 1982,
      "Ġerfaren": 1983,
      "ĠRes": 1984,
      "Ġskrev": 1985,
      "skatt": 1986,
      "Ġveckan": 1987,
      "Ġtack": 1988,
      "Ġsnart": 1989,
      "rukt": 1990,
      "Ġsov": 1991,
      "Ġibland": 1992,
      "Ġgener": 1993,
      "lja": 1994,
      "Ġartik": 1995,
      "omrÃ¥": 1996,
      "Ġfar": 1997,
      "Ġfilm": 1998,
      "Ġfa": 1999,
      "ĠBil": 2000,
      "unda": 2001,
      "tering": 2002,
      "Ġmoder": 2003,
      "Ġmorgon": 2004,
      "Ġpop": 2005,
      "val": 2006,
      "kur": 2007,
      "omen": 2008,
      "ĠpÃ¥ver": 2009,
      "Ġfokus": 2010,
      "ĠvÃ¥rd": 2011,
      "Ġviktiga": 2012,
      "Ġtot": 2013,
      "ĠkrÃ¤v": 2014,
      "ping": 2015,
      "Ġprodukt": 2016,
      "ror": 2017,
      "ĠutfÃ": 2018,
      "ĠTh": 2019,
      "ĠhÃ¤nder": 2020,
      "Ġvanligt": 2021,
      "batt": 2022,
      "Ġbrukar": 2023,
      "Ġkopp": 2024,
      "ĠTack": 2025,
      "ĠÃ¤ldre": 2026,
      "ublic": 2027,
      "plan": 2028,
      "Ġtills": 2029,
      "Ġarbets": 2030,
      "ðŁ": 2031,
      "Ġskriva": 2032,
      "Ġkap": 2033,
      "verket": 2034,
      "Ġtem": 2035,
      "ĠgÃ¥ngen": 2036,
      "Ġrad": 2037,
      "ĠVill": 2038,
      "ĠnÃ¤tet": 2039,
      "yss": 2040,
      "oende": 2041,
      "ĠtillfÃ¤ll": 2042,
      "ĠlÃ¤gga": 2043,
      "Ġarbetar": 2044,
      "ĠgrÃ": 2045,
      "Ġens": 2046,
      "okrat": 2047,
      "Ġblogg": 2048,
      "iljÃ": 2049,
      "ium": 2050,
      "ive": 2051,
      "ĠNike": 2052,
      "Ġheller": 2053,
      "ĠVisa": 2054,
      "ĠJohan": 2055,
      "rift": 2056,
      "Ġbred": 2057,
      "styr": 2058,
      "ĠAnder": 2059,
      "Ã¤nnande": 2060,
      "ĠmÃ¥nader": 2061,
      "Ġpriv": 2062,
      "Ġprodukter": 2063,
      "ev": 2064,
      "rklar": 2065,
      "ĠUSA": 2066,
      "Ġmax": 2067,
      "ide": 2068,
      "ĠLin": 2069,
      "ĠSka": 2070,
      "Ġpassar": 2071,
      "una": 2072,
      "Ġegentligen": 2073,
      "ĠSedan": 2074,
      "Ġmiljoner": 2075,
      "Ġfanns": 2076,
      "ĠbÃ¤st": 2077,
      "Ġskatt": 2078,
      "co": 2079,
      "Ġco": 2080,
      "ĠlÃ¤k": 2081,
      "Ġkunder": 2082,
      "ljande": 2083,
      "Ġtrans": 2084,
      "emang": 2085,
      "ĠutanfÃ": 2086,
      "Ġrecept": 2087,
      "iz": 2088,
      "Ġreger": 2089,
      "Ġantal": 2090,
      "Ġmedan": 2091,
      "Ġsitter": 2092,
      "igh": 2093,
      "mal": 2094,
      "Ã¤rer": 2095,
      "Ġsem": 2096,
      "uni": 2097,
      "yll": 2098,
      "yrk": 2099,
      "Ġtopp": 2100,
      "olv": 2101,
      "lut": 2102,
      "Ġbas": 2103,
      "ĠsÃ¤s": 2104,
      "Ġlivet": 2105,
      "Ġsvensk": 2106,
      "hopp": 2107,
      "dant": 2108,
      "rel": 2109,
      "ĠStor": 2110,
      "iks": 2111,
      "enn": 2112,
      "ks": 2113,
      "ĠMo": 2114,
      "dags": 2115,
      "spektiv": 2116,
      "Ġtest": 2117,
      "Ġsommar": 2118,
      "snitt": 2119,
      "Ġnatt": 2120,
      "gat": 2121,
      "Ġresa": 2122,
      "nster": 2123,
      "Ġtrev": 2124,
      "vara": 2125,
      "Ġtelefon": 2126,
      "ĠtÃ¤nka": 2127,
      "ĠhÃ¤ls": 2128,
      "Ġgem": 2129,
      "Ã¥ga": 2130,
      "tre": 2131,
      "Ġframtid": 2132,
      "bin": 2133,
      "Ġglad": 2134,
      "ĠtrÃ¤d": 2135,
      "iver": 2136,
      "rhÃ¥ll": 2137,
      "Ġveta": 2138,
      "ĠaffÃ¤r": 2139,
      "ĠInte": 2140,
      "sett": 2141,
      "Ã¤mp": 2142,
      "uld": 2143,
      "Ġgillar": 2144,
      "Ġrekommen": 2145,
      "Ġfungerar": 2146,
      "part": 2147,
      "kn": 2148,
      "Ãħ": 2149,
      "lick": 2150,
      "Ġtagit": 2151,
      "rbund": 2152,
      "Ġter": 2153,
      "ES": 2154,
      "tar": 2155,
      "aket": 2156,
      "Ġbostad": 2157,
      "Ġuppdat": 2158,
      "ledning": 2159,
      "Ġring": 2160,
      "Ġkat": 2161,
      "Ġinter": 2162,
      "Ġytterligare": 2163,
      "len": 2164,
      "Ġinst": 2165,
      "ah": 2166,
      "ersÃ¤tt": 2167,
      "Ġsju": 2168,
      "spir": 2169,
      "ĠAllt": 2170,
      "ĠsÃ¤rskilt": 2171,
      "Ġlug": 2172,
      "Ġdating": 2173,
      "ansk": 2174,
      "orr": 2175,
      "ilja": 2176,
      "ĠlÃ¥n": 2177,
      "ĠPl": 2178,
      "mm": 2179,
      "Ġapp": 2180,
      "tet": 2181,
      "Ġjan": 2182,
      "Ġposit": 2183,
      "for": 2184,
      "ĠanvÃ¤nds": 2185,
      "bolag": 2186,
      "Ġkommit": 2187,
      "ĠlÃ¤gen": 2188,
      "ator": 2189,
      "ĠbÃ¥da": 2190,
      "Ġrestaur": 2191,
      "ĠNÃ¥g": 2192,
      "aker": 2193,
      "Ã¤dd": 2194,
      "ĠSo": 2195,
      "vÃ¥rd": 2196,
      "ĠmÃ¥n": 2197,
      "ocka": 2198,
      "âĢĵ": 2199,
      "igheten": 2200,
      "Ġfinans": 2201,
      "Ġskolan": 2202,
      "itta": 2203,
      "Ġinkl": 2204,
      "ĠlÃ¥t": 2205,
      "Ġgre": 2206,
      "splats": 2207,
      "ital": 2208,
      "mÃ¥l": 2209,
      "mÃ¤rk": 2210,
      "dejting": 2211,
      "pet": 2212,
      "tter": 2213,
      "Ġsida": 2214,
      "Ġvarandra": 2215,
      "rstÃ¥": 2216,
      "Ġalls": 2217,
      "stÃ¤lla": 2218,
      "Ġvisa": 2219,
      "chen": 2220,
      "usk": 2221,
      "Ã¤lla": 2222,
      "ansen": 2223,
      "ugust": 2224,
      "Ġsagt": 2225,
      "ĠÃ¤m": 2226,
      "Ġfav": 2227,
      "Ġkons": 2228,
      "terar": 2229,
      "ĠkÃ¤nna": 2230,
      "Ã¤ngd": 2231,
      "Ġskill": 2232,
      "uff": 2233,
      "Ġuppt": 2234,
      "ĠslÃ¤pp": 2235,
      "Ġbetyg": 2236,
      "kr": 2237,
      "rip": 2238,
      "Ġbi": 2239,
      "Ġomfatt": 2240,
      "ĠrÃ¥d": 2241,
      "Ġbakom": 2242,
      "stol": 2243,
      "oss": 2244,
      "Ġdesig": 2245,
      "Ġvux": 2246,
      "jta": 2247,
      "kat": 2248,
      "ĠEl": 2249,
      "Ġdec": 2250,
      "ĠFa": 2251,
      "Ġkund": 2252,
      "Ġkultur": 2253,
      "Ġcir": 2254,
      "rvalt": 2255,
      "dÃ©": 2256,
      "Ġavslut": 2257,
      "Ġban": 2258,
      "Ġvanliga": 2259,
      "ĠSE": 2260,
      "ĠsÃ¤kerhet": 2261,
      "Ġroll": 2262,
      "Ġpopul": 2263,
      "ĠVÃ¤l": 2264,
      "Ġuppgifter": 2265,
      "Ġstu": 2266,
      "och": 2267,
      "ĠtrÃ¤ning": 2268,
      "ifier": 2269,
      "Ġlin": 2270,
      "Ġungdom": 2271,
      "Ġmiss": 2272,
      "ĠallmÃ¤n": 2273,
      "Ġmil": 2274,
      "ĠSvenska": 2275,
      "lex": 2276,
      "ĠsÃ¤kert": 2277,
      "ena": 2278,
      "Ġeffektiv": 2279,
      "Ġigenom": 2280,
      "ĠrÃ¥": 2281,
      "Ġstr": 2282,
      "Ġenergi": 2283,
      "Ġkrav": 2284,
      "Ġskap": 2285,
      "atta": 2286,
      "Ġkommentar": 2287,
      "ĠhÃ¤st": 2288,
      "ĠundersÃ": 2289,
      "Ġspelar": 2290,
      "arnas": 2291,
      "ĠtÃ¤nker": 2292,
      "Ġveckor": 2293,
      "olit": 2294,
      "ovis": 2295,
      "ĠDan": 2296,
      "po": 2297,
      "ĠbedÃ": 2298,
      "LA": 2299,
      "Ġdags": 2300,
      "book": 2301,
      "Ġslag": 2302,
      "Ã¤rt": 2303,
      "ĠHotel": 2304,
      "dd": 2305,
      "Ġmaterial": 2306,
      "egor": 2307,
      "samma": 2308,
      "Ġskog": 2309,
      "skott": 2310,
      "ĠvÃ¤gen": 2311,
      "Ġlilla": 2312,
      "alet": 2313,
      "Ġx": 2314,
      "ĠLÃ": 2315,
      "Ġbonus": 2316,
      "lands": 2317,
      "ĠtillgÃ¥ng": 2318,
      "kla": 2319,
      "ĠsÃ¤tta": 2320,
      "ĠÃ¥ka": 2321,
      "till": 2322,
      "Ġprakt": 2323,
      "ĠlÃ¤nder": 2324,
      "ĠKarl": 2325,
      "vÃ¤rr": 2326,
      "Ġlad": 2327,
      "ĠMalmÃ": 2328,
      "Ġelever": 2329,
      "ĠMÃ": 2330,
      "skor": 2331,
      "pper": 2332,
      "ĠinnehÃ¥ller": 2333,
      "ton": 2334,
      "ĠâĢľ": 2335,
      "ĠðŁ": 2336,
      "stan": 2337,
      "Ġmid": 2338,
      "syk": 2339,
      "ĠGu": 2340,
      "Ġben": 2341,
      "ĠSh": 2342,
      "produ": 2343,
      "Ġrecens": 2344,
      "Ġpersonal": 2345,
      "skÃ": 2346,
      "ĠTro": 2347,
      "delse": 2348,
      "rsÃ¤kring": 2349,
      "ĠHa": 2350,
      "Ġanal": 2351,
      "kare": 2352,
      "Ġdr": 2353,
      "vÃ¤l": 2354,
      "uari": 2355,
      "Ã¤mn": 2356,
      "ĠdrÃ": 2357,
      "ĠingÃ¥r": 2358,
      "ckt": 2359,
      "Ġol": 2360,
      "ĠDessutom": 2361,
      "Ġmusik": 2362,
      "Ġam": 2363,
      "ph": 2364,
      "Ġtred": 2365,
      "ach": 2366,
      "Ġprat": 2367,
      "Ġbek": 2368,
      "Ġnorm": 2369,
      "ĠÃ¥rs": 2370,
      "ĠSte": 2371,
      "Ġvit": 2372,
      "Ġluft": 2373,
      "ban": 2374,
      "rfatt": 2375,
      "ĠEnligt": 2376,
      "Ġz": 2377,
      "ey": 2378,
      "Ġdriv": 2379,
      "Ġbal": 2380,
      "rafik": 2381,
      "ril": 2382,
      "ension": 2383,
      "iversitet": 2384,
      "emot": 2385,
      "Ġutom": 2386,
      "Ġmars": 2387,
      "Ġdjur": 2388,
      "Ġutbildning": 2389,
      "rust": 2390,
      "ĠTa": 2391,
      "ĠGenom": 2392,
      "Ġmar": 2393,
      "Ġsitu": 2394,
      "ET": 2395,
      "vin": 2396,
      "Ġmenar": 2397,
      "handling": 2398,
      "rening": 2399,
      "ĠifrÃ¥n": 2400,
      "ationella": 2401,
      "ĠÃ¥ren": 2402,
      "elska": 2403,
      "ĠAd": 2404,
      "Ġkam": 2405,
      "bel": 2406,
      "sÃ¤ttningar": 2407,
      "Ġpres": 2408,
      "ĠmÃ¥nad": 2409,
      "ĠÃ¥tgÃ¤r": 2410,
      "Ġag": 2411,
      "ĠÃ¤ta": 2412,
      "vriga": 2413,
      "Ġeffekt": 2414,
      "ĠansÃ": 2415,
      "jen": 2416,
      "Ġlandet": 2417,
      "ober": 2418,
      "Ġpresen": 2419,
      "gÃ¥rd": 2420,
      "ugusti": 2421,
      "Ġnov": 2422,
      "Ġotro": 2423,
      "ĠMer": 2424,
      "back": 2425,
      "ĠMat": 2426,
      "Ġroligt": 2427,
      "Ġham": 2428,
      "Ġkred": 2429,
      "use": 2430,
      "ĠX": 2431,
      "ue": 2432,
      "Ġjuni": 2433,
      "Ġkunskap": 2434,
      "Ã¤gen": 2435,
      "Ġskor": 2436,
      "Ġspelare": 2437,
      "Ġarbeta": 2438,
      "ĠinnehÃ¥ll": 2439,
      "skolan": 2440,
      "ko": 2441,
      "ernas": 2442,
      "ĠvÃ¤rde": 2443,
      "Ġsteg": 2444,
      "yra": 2445,
      "Ġgoda": 2446,
      "Ġinspir": 2447,
      "ppna": 2448,
      "Ġfri": 2449,
      "utveck": 2450,
      "ash": 2451,
      "aler": 2452,
      "rÃ¤ff": 2453,
      "Ġunga": 2454,
      "jligheter": 2455,
      "efter": 2456,
      "ure": 2457,
      "ĠberÃ¤ttar": 2458,
      "ĠersÃ¤tt": 2459,
      "mi": 2460,
      "sc": 2461,
      "Ġsats": 2462,
      "ĠvÃ¤ljer": 2463,
      "Ġbud": 2464,
      "Ġgym": 2465,
      "Ġtredje": 2466,
      "Ġej": 2467,
      "ĠArbet": 2468,
      "ĠomrÃ¥det": 2469,
      "Ġmamma": 2470,
      "Ġtan": 2471,
      "ĠFot": 2472,
      "spekt": 2473,
      "avsett": 2474,
      "ljer": 2475,
      "ich": 2476,
      "vid": 2477,
      "ĠBra": 2478,
      "huset": 2479,
      "Ãĸ": 2480,
      "ĠhÃ¤ng": 2481,
      "ppa": 2482,
      "ktyg": 2483,
      "Ġpri": 2484,
      "Ġjanuari": 2485,
      "ĠlÃ¤ra": 2486,
      "Ġregistr": 2487,
      "otter": 2488,
      "Ã¤cker": 2489,
      "Ġevent": 2490,
      "ĠMÃ¥nga": 2491,
      "ykel": 2492,
      "Ġrep": 2493,
      "ĠanstÃ¤ll": 2494,
      "Ġindiv": 2495,
      "St": 2496,
      "af": 2497,
      "stÃ¤nd": 2498,
      "sidor": 2499,
      "Ġfint": 2500,
      "Ġvide": 2501,
      "Ġbetala": 2502,
      "ppet": 2503,
      "ĠpoÃ¤ng": 2504,
      "uppgifter": 2505,
      "Ġfeb": 2506,
      "Ġokt": 2507,
      "ĠsÃ¤l": 2508,
      "ĠfrÃ¥gan": 2509,
      "ĠvÃ¤nner": 2510,
      "Ġsjukdom": 2511,
      "Ġsker": 2512,
      "Ġmedel": 2513,
      "Ġfisk": 2514,
      "grund": 2515,
      "ĠidÃ©": 2516,
      "eta": 2517,
      "Ġkropp": 2518,
      "Ġbarnen": 2519,
      "itter": 2520,
      "ĠGr": 2521,
      "efÃ¤r": 2522,
      "orit": 2523,
      "dem": 2524,
      "ĠVÃ¤r": 2525,
      "In": 2526,
      "Ġdetal": 2527,
      "ĠigÃ¥ng": 2528,
      "Ġaugusti": 2529,
      "Ġtank": 2530,
      "Ġsc": 2531,
      "stid": 2532,
      "dig": 2533,
      "Ġblod": 2534,
      "ille": 2535,
      "ĠTV": 2536,
      "Ġbesk": 2537,
      "komst": 2538,
      "icin": 2539,
      "ĠanmÃ¤l": 2540,
      "Ġme": 2541,
      "aga": 2542,
      "Ġdit": 2543,
      "vÃ¤xt": 2544,
      "ĠspÃ¤nnande": 2545,
      "Ġjobba": 2546,
      "Ġaktivitet": 2547,
      "Ġmm": 2548,
      "ĠSer": 2549,
      "Ġgemens": 2550,
      "Ġklubb": 2551,
      "Ġok": 2552,
      "ĠSw": 2553,
      "jter": 2554,
      "otten": 2555,
      "ferens": 2556,
      "Ã¤ver": 2557,
      "jÃ¤nst": 2558,
      "nam": 2559,
      "olf": 2560,
      "ĠFrÃ¥n": 2561,
      "ikation": 2562,
      "Ġkroppen": 2563,
      "ĠReg": 2564,
      "mber": 2565,
      "rateg": 2566,
      "ĠNord": 2567,
      "ĠskÃ¤r": 2568,
      "Ġla": 2569,
      "rr": 2570,
      "Ġsym": 2571,
      "ĠCo": 2572,
      "gÃ¥ende": 2573,
      "Ġliknande": 2574,
      "Ġlyck": 2575,
      "iÃ": 2576,
      "Ġteck": 2577,
      "Ġeget": 2578,
      "cebook": 2579,
      "vÃ¥r": 2580,
      "itut": 2581,
      "Ġfredag": 2582,
      "bord": 2583,
      "sidan": 2584,
      "rig": 2585,
      "ongen": 2586,
      "pan": 2587,
      "pÃ¥": 2588,
      "ĠPar": 2589,
      "mare": 2590,
      "her": 2591,
      "Ġbehandling": 2592,
      "but": 2593,
      "Ġvem": 2594,
      "ĠkÃ¤ns": 2595,
      "ate": 2596,
      "antÃ": 2597,
      "sav": 2598,
      "ST": 2599,
      "ativa": 2600,
      "Ġknapp": 2601,
      "tta": 2602,
      "Ġplac": 2603,
      "Ġtra": 2604,
      "ptember": 2605,
      "Ġac": 2606,
      "ms": 2607,
      "Ġjord": 2608,
      "mo": 2609,
      "Ġsamband": 2610,
      "lÃ¤g": 2611,
      "Ġbrott": 2612,
      "Ġstra": 2613,
      "Ġutman": 2614,
      "aken": 2615,
      "Ġlyss": 2616,
      "vik": 2617,
      "mÃ¤rkt": 2618,
      "Ġjobbet": 2619,
      "Ġkvinna": 2620,
      "Ġdejta": 2621,
      "dde": 2622,
      "Ġhotellet": 2623,
      "ĠKl": 2624,
      "Ġerfarenhet": 2625,
      "Ġlog": 2626,
      "alog": 2627,
      "Ġbeskriv": 2628,
      "ĠDel": 2629,
      "kort": 2630,
      "grÃ¤ns": 2631,
      "Ġcasino": 2632,
      "ĠsÃ¤ll": 2633,
      "endet": 2634,
      "utbild": 2635,
      "ĠSu": 2636,
      "Ġmassa": 2637,
      "Ġbygga": 2638,
      "Ġmots": 2639,
      "Ġskad": 2640,
      "ĠÃ¤lskar": 2641,
      "ĠNej": 2642,
      "Ġcm": 2643,
      "Ġmor": 2644,
      "Ġmisst": 2645,
      "Ġstil": 2646,
      "ĠÃ¥lder": 2647,
      "ĠDag": 2648,
      "Ġjobbar": 2649,
      "ĠsvÃ¥r": 2650,
      "rutom": 2651,
      "Ġtor": 2652,
      "ĠQ": 2653,
      "rsvar": 2654,
      "spr": 2655,
      "ĠRÃ": 2656,
      "ĠfortsÃ¤tta": 2657,
      "ĠDessa": 2658,
      "Ġminska": 2659,
      "Ġmon": 2660,
      "Ġgra": 2661,
      "Ġinvester": 2662,
      "Ġgav": 2663,
      "ĠigÃ¥r": 2664,
      "Ġliksom": 2665,
      "splan": 2666,
      "Ġkombin": 2667,
      "Ġsj": 2668,
      "Ġklock": 2669,
      "ubl": 2670,
      "fess": 2671,
      "Ġspr": 2672,
      "Ġpsyk": 2673,
      "eder": 2674,
      "ĠTv": 2675,
      "ĠsjÃ": 2676,
      "solut": 2677,
      "uellt": 2678,
      "ukt": 2679,
      "iel": 2680,
      "Ġlokal": 2681,
      "sning": 2682,
      "Ġkredit": 2683,
      "Ġnedan": 2684,
      "ĠanvÃ¤ndas": 2685,
      "Ġheter": 2686,
      "ly": 2687,
      "Det": 2688,
      "jor": 2689,
      "Ġprov": 2690,
      "Ġpost": 2691,
      "ĠnÃ¤tdejting": 2692,
      "ish": 2693,
      "ĠstÃ¤m": 2694,
      "bro": 2695,
      "arm": 2696,
      "ĠsnÃ": 2697,
      "iella": 2698,
      "Ġutred": 2699,
      "Ġsvart": 2700,
      "ĠLa": 2701,
      "ligtvis": 2702,
      "ĠKv": 2703,
      "ruktur": 2704,
      "Ġskick": 2705,
      "OR": 2706,
      "Ġbetyder": 2707,
      "Ġpress": 2708,
      "uell": 2709,
      "ĠkrÃ¤vs": 2710,
      "Ġslutet": 2711,
      "gÃ¥": 2712,
      "Ġfyll": 2713,
      "ĠfortsÃ¤tter": 2714,
      "rvÃ¤nt": 2715,
      "natt": 2716,
      "Ġmynd": 2717,
      "ora": 2718,
      "Ġdro": 2719,
      "rsv": 2720,
      "Ġuppdrag": 2721,
      "licka": 2722,
      "LL": 2723,
      "Ġservice": 2724,
      "Ġher": 2725,
      "Ġtom": 2726,
      "ĠGo": 2727,
      "rstÃ¥r": 2728,
      "ĠEller": 2729,
      "ĠbÃ¤r": 2730,
      "ĠnÃ¤rheten": 2731,
      "Ġstol": 2732,
      "merik": 2733,
      "gel": 2734,
      "ĠSm": 2735,
      "Ġva": 2736,
      "Ġarbetet": 2737,
      "ĠOl": 2738,
      "Ġfre": 2739,
      "Ġinf": 2740,
      "Ġfatt": 2741,
      "Ġdo": 2742,
      "ca": 2743,
      "ĠnivÃ¥": 2744,
      "Ġmeddel": 2745,
      "ON": 2746,
      "Ġpublic": 2747,
      "ĠHer": 2748,
      "okument": 2749,
      "AT": 2750,
      "llen": 2751,
      "vÃ¤rd": 2752,
      "ĠstÃ¥": 2753,
      "Ġtrygg": 2754,
      "Ġdju": 2755,
      "unch": 2756,
      "ism": 2757,
      "press": 2758,
      "ING": 2759,
      "Ġmeter": 2760,
      "ĠkÃ¤nsl": 2761,
      "Ġgodk": 2762,
      "person": 2763,
      "ĠlÃ¥ter": 2764,
      "Ġanpass": 2765,
      "ĠtjÃ¤nster": 2766,
      "hem": 2767,
      "ĠVÃ¥r": 2768,
      "rym": 2769,
      "ativt": 2770,
      "ruari": 2771,
      "ĠLund": 2772,
      "ĠlÃ¤mna": 2773,
      "Ġis": 2774,
      "Ġallvar": 2775,
      "Ġvilja": 2776,
      "ions": 2777,
      "Ã¤cka": 2778,
      "ĠFast": 2779,
      "ĠKar": 2780,
      "Ġskydd": 2781,
      "ĠblÃ¥": 2782,
      "Ġapril": 2783,
      "Ġkrit": 2784,
      "Ġsuper": 2785,
      "Ġoktober": 2786,
      "Ġkol": 2787,
      "Ġfortsatt": 2788,
      "ĠPol": 2789,
      "Ġbilliga": 2790,
      "relse": 2791,
      "Ġseptember": 2792,
      "ruk": 2793,
      "Ġhot": 2794,
      "Ġbolag": 2795,
      "Ġstark": 2796,
      "Ġprivat": 2797,
      "Ġske": 2798,
      "ations": 2799,
      "ĠEuropa": 2800,
      "Ġmag": 2801,
      "ny": 2802,
      "ĠglÃ": 2803,
      "ĠFil": 2804,
      "rÃ¥d": 2805,
      "Ġfinnas": 2806,
      "reningen": 2807,
      "Ġutl": 2808,
      "Ġdeltag": 2809,
      "ĠHem": 2810,
      "Ġtio": 2811,
      "blad": 2812,
      "rans": 2813,
      "Ġengelska": 2814,
      "ĠungefÃ¤r": 2815,
      "ĠtillhÃ": 2816,
      "mma": 2817,
      "enden": 2818,
      "CK": 2819,
      "ĠFor": 2820,
      "ĠLu": 2821,
      "Ġvatt": 2822,
      "Ġat": 2823,
      "Ġdejtingsajt": 2824,
      "Ġdubb": 2825,
      "skan": 2826,
      "ĠDÃ¤rfÃ": 2827,
      "Ġdam": 2828,
      "Ġkonkur": 2829,
      "ffe": 2830,
      "ment": 2831,
      "Ã©n": 2832,
      "stÃ": 2833,
      "verkan": 2834,
      "Ġsemester": 2835,
      "Ġbit": 2836,
      "ĠmaskinÃ": 2837,
      "ĠdÃ¤rmed": 2838,
      "program": 2839,
      "inci": 2840,
      "ĠklÃ¤der": 2841,
      "ycka": 2842,
      "ĠsÃ¤ng": 2843,
      "umÃ¤r": 2844,
      "Ġoro": 2845,
      "ink": 2846,
      "ĠFred": 2847,
      "ykt": 2848,
      "Ġstund": 2849,
      "ho": 2850,
      "Ġsocial": 2851,
      "Ġprocess": 2852,
      "Ġtrad": 2853,
      "Ġsamarbet": 2854,
      "let": 2855,
      "Ġsomm": 2856,
      "ĠJan": 2857,
      "Ġcirka": 2858,
      "ĠâĢ¢": 2859,
      "ager": 2860,
      "ĠNew": 2861,
      "Ġviktig": 2862,
      "ĠFort": 2863,
      "Ġexempelvis": 2864,
      "Ġensam": 2865,
      "Ġresen": 2866,
      "Ġviss": 2867,
      "Ġsli": 2868,
      "anter": 2869,
      "stÃ¥r": 2870,
      "Ġhemsida": 2871,
      "Ġskr": 2872,
      "oms": 2873,
      "tes": 2874,
      "Ġabsolut": 2875,
      "Ġglas": 2876,
      "ĠtvÃ¤tt": 2877,
      "Ġboken": 2878,
      "pris": 2879,
      "rÃ¤ldrar": 2880,
      "Ġkompl": 2881,
      "Ġstod": 2882,
      "ĠÃĸster": 2883,
      "Ġinternet": 2884,
      "Ġsek": 2885,
      "deles": 2886,
      "gÃ¥rden": 2887,
      "ĠstÃ¤ng": 2888,
      "Ġpe": 2889,
      "Ġfebruari": 2890,
      "IS": 2891,
      "anta": 2892,
      "ĠKom": 2893,
      "Ġbilen": 2894,
      "ĠMot": 2895,
      "ĠJon": 2896,
      "rbÃ¤ttra": 2897,
      "enten": 2898,
      "ĠIntern": 2899,
      "eckning": 2900,
      "Ġtext": 2901,
      "Ġfys": 2902,
      "Ġfavorit": 2903,
      "Ġbilden": 2904,
      "kommer": 2905,
      "Jag": 2906,
      "ĠHen": 2907,
      "ĠhjÃ¤rt": 2908,
      "stri": 2909,
      "ĠbestÃ¥r": 2910,
      "Ġnor": 2911,
      "teck": 2912,
      "utt": 2913,
      "ĠAkt": 2914,
      "ige": 2915,
      "ake": 2916,
      "fritt": 2917,
      "ĠKanske": 2918,
      "isa": 2919,
      "Ġspar": 2920,
      "Ġtyckte": 2921,
      "medel": 2922,
      "Ġbes": 2923,
      "bur": 2924,
      "Ġoftast": 2925,
      "Ġberoende": 2926,
      "ĠtÃ¤nkte": 2927,
      "Ġkommunen": 2928,
      "ĠVer": 2929,
      "ĠgÃ¤ster": 2930,
      "ĠnÃ¥": 2931,
      "Ġoffent": 2932,
      "Ġuniversitet": 2933,
      "ards": 2934,
      "ĠBill": 2935,
      "Ġfix": 2936,
      "stÃ¥ende": 2937,
      "Ġfotboll": 2938,
      "ugg": 2939,
      "Ġsenast": 2940,
      "Ġsamarbete": 2941,
      "Ġdelen": 2942,
      "Ġsport": 2943,
      "kande": 2944,
      "Ġfi": 2945,
      "Ġdrabb": 2946,
      "Ġhim": 2947,
      "verige": 2948,
      "erades": 2949,
      "ĠutÃ": 2950,
      "ĠsÃ¥som": 2951,
      "ĠVarfÃ": 2952,
      "ĠHej": 2953,
      "skola": 2954,
      "Ġspeciellt": 2955,
      "chef": 2956,
      "vert": 2957,
      "fte": 2958,
      "Ġbetyd": 2959,
      "Ġhud": 2960,
      "so": 2961,
      "ĠsÃ¥dana": 2962,
      "ĠSch": 2963,
      "Ġboende": 2964,
      "Ġvackra": 2965,
      "Ġdecember": 2966,
      "oo": 2967,
      "Ġors": 2968,
      "Ġkolla": 2969,
      "Ġgrav": 2970,
      "ĠGud": 2971,
      "Ġintressant": 2972,
      "Ġavs": 2973,
      "ĠTid": 2974,
      "Ġnovember": 2975,
      "gsta": 2976,
      "Ġlev": 2977,
      "Ġgu": 2978,
      "ĠgÃ¤ll": 2979,
      "Ã¤lt": 2980,
      "ĠErik": 2981,
      "Ġdagens": 2982,
      "Ġinsta": 2983,
      "Ġtitta": 2984,
      "slaget": 2985,
      "handel": 2986,
      "ktioner": 2987,
      "Ġanser": 2988,
      "ĠstÃ¤llet": 2989,
      "Ġljud": 2990,
      "alla": 2991,
      "ĠsprÃ¥k": 2992,
      "ĠPris": 2993,
      "ĠSy": 2994,
      "lack": 2995,
      "ĠCar": 2996,
      "Ġmarknads": 2997,
      "Ġjuli": 2998,
      "betal": 2999,
      "iera": 3000,
      "kring": 3001,
      "vist": 3002,
      "yp": 3003,
      "ĠvÃ¥l": 3004,
      "Ġton": 3005,
      "ĠPre": 3006,
      "ham": 3007,
      "Ġregel": 3008,
      "lever": 3009,
      "Ġenskil": 3010,
      "Ġund": 3011,
      "Ġth": 3012,
      "klag": 3013,
      "ĠAnna": 3014,
      "Ġbeg": 3015,
      "iter": 3016,
      "rdag": 3017,
      "ĠordfÃ": 3018,
      "Ġotroligt": 3019,
      "Ġstopp": 3020,
      "ĠtillrÃ¤ck": 3021,
      "ĠavgÃ": 3022,
      "ĠstjÃ¤rn": 3023,
      "Ġair": 3024,
      "ĠnÃ¤rma": 3025,
      "ĠTe": 3026,
      "klar": 3027,
      "ĠJu": 3028,
      "Ġskicka": 3029,
      "ĠNi": 3030,
      "utomat": 3031,
      "Ġgran": 3032,
      "Ġintresse": 3033,
      "Ġhelgen": 3034,
      "Ã¤get": 3035,
      "ander": 3036,
      "Ġdist": 3037,
      "ĠnÃ¤mligen": 3038,
      "serv": 3039,
      "ĠJust": 3040,
      "Ġsta": 3041,
      "gren": 3042,
      "ĠberÃ": 3043,
      "Ġutveckla": 3044,
      "Ġvisade": 3045,
      "Ġskapar": 3046,
      "ĠÃ¥kte": 3047,
      "Ġalldeles": 3048,
      "Ġamerik": 3049,
      "vrigt": 3050,
      "ĠEftersom": 3051,
      "kvÃ¤ll": 3052,
      "Ġchef": 3053,
      "otek": 3054,
      "ĠlÃ¤gger": 3055,
      "ĠframgÃ¥ng": 3056,
      "ĠHotell": 3057,
      "dvÃ¤nd": 3058,
      "emedel": 3059,
      "Ġpromen": 3060,
      "cke": 3061,
      "ygger": 3062,
      "grupp": 3063,
      "Ġgammal": 3064,
      "Hot": 3065,
      "ndag": 3066,
      "ĠkrÃ¤ver": 3067,
      "Ġsommaren": 3068,
      "Ġinterv": 3069,
      "ften": 3070,
      "ĠvarumÃ¤r": 3071,
      "ĠÃĦn": 3072,
      "ĠomrÃ¥den": 3073,
      "TM": 3074,
      "bes": 3075,
      "Ġdesign": 3076,
      "ĠSEK": 3077,
      "rare": 3078,
      "ĠvÃ¤rldens": 3079,
      "ĠSol": 3080,
      "Ġsmak": 3081,
      "atser": 3082,
      "ĠsÃ¤lj": 3083,
      "skon": 3084,
      "Om": 3085,
      "ĠtjÃ¤nst": 3086,
      "maskin": 3087,
      "seende": 3088,
      "Ġannars": 3089,
      "nÃ": 3090,
      "Ġdefin": 3091,
      "ĠfrÃ¤mst": 3092,
      "demokrat": 3093,
      "ĠJoh": 3094,
      "ĠEng": 3095,
      "rmÃ¥ga": 3096,
      "Ġberor": 3097,
      "ric": 3098,
      "erande": 3099,
      "hl": 3100,
      "rjat": 3101,
      "Ġboka": 3102,
      "Ġkontakta": 3103,
      "Ġkompet": 3104,
      "Ġsch": 3105,
      "Ġsing": 3106,
      "ĠSjÃ¤lv": 3107,
      "ump": 3108,
      "ĠKrist": 3109,
      "gatan": 3110,
      "ias": 3111,
      "mor": 3112,
      "Ġavtal": 3113,
      "isen": 3114,
      "Ġnike": 3115,
      "ĠKommun": 3116,
      "ĠsÃ¥n": 3117,
      "Ġkal": 3118,
      "ogg": 3119,
      "checkning": 3120,
      "Ġsociala": 3121,
      "lÃ¤ggning": 3122,
      "nytt": 3123,
      "Ġhtt": 3124,
      "Ġfullt": 3125,
      "verksamhet": 3126,
      "sala": 3127,
      "ligheten": 3128,
      "sningar": 3129,
      "still": 3130,
      "Ġsamtal": 3131,
      "Ġkart": 3132,
      "pon": 3133,
      "ĠkÃ¤rlek": 3134,
      "ve": 3135,
      "jan": 3136,
      "ox": 3137,
      "Ġfamiljen": 3138,
      "ierna": 3139,
      "ĠlÃ¥ta": 3140,
      "rsÃ¤ljning": 3141,
      "tor": 3142,
      "ĠMark": 3143,
      "Ġmys": 3144,
      "Ġklimat": 3145,
      "Ġeuro": 3146,
      "unnit": 3147,
      "Ġlan": 3148,
      "samt": 3149,
      "Ġengag": 3150,
      "ĠsÃ¥vÃ¤l": 3151,
      "Ġprata": 3152,
      "juta": 3153,
      "ila": 3154,
      "Ġbuss": 3155,
      "ĠbegrÃ¤ns": 3156,
      "Ġleder": 3157,
      "Ġbekv": 3158,
      "Ġoper": 3159,
      "Ġblomm": 3160,
      "DR": 3161,
      "Ġkyr": 3162,
      "iens": 3163,
      "Ġram": 3164,
      "ĠkvÃ¤llen": 3165,
      "ĠuppmÃ¤rk": 3166,
      "ĠVÃ¤st": 3167,
      "over": 3168,
      "etar": 3169,
      "terade": 3170,
      "Ġoavsett": 3171,
      "Ġklockan": 3172,
      "Ġfrukost": 3173,
      "ern": 3174,
      "Ġfest": 3175,
      "Ġhuset": 3176,
      "orl": 3177,
      "derna": 3178,
      "Ġklara": 3179,
      "Ġstaden": 3180,
      "rber": 3181,
      "end": 3182,
      "yld": 3183,
      "out": 3184,
      "ringen": 3185,
      "ald": 3186,
      "ĠHitta": 3187,
      "Ġsten": 3188,
      "ĠDi": 3189,
      "kvens": 3190,
      "ĠrÃ¤dd": 3191,
      "za": 3192,
      "nsk": 3193,
      "ĠBjÃ": 3194,
      "eringen": 3195,
      "lare": 3196,
      "Ġstand": 3197,
      "ĠFacebook": 3198,
      "ĠPa": 3199,
      "Ġvare": 3200,
      "ningss": 3201,
      "ottag": 3202,
      "Ġhistoria": 3203,
      "ĠutifrÃ¥n": 3204,
      "sjÃ": 3205,
      "ood": 3206,
      "ona": 3207,
      "Ġtittade": 3208,
      "ĠâĢĶ": 3209,
      "ĠhÃ¤lsa": 3210,
      "givare": 3211,
      "orten": 3212,
      "ĠAnn": 3213,
      "punkt": 3214,
      "Ġtas": 3215,
      "Ġvart": 3216,
      "ight": 3217,
      "Ġmedlemmar": 3218,
      "nummer": 3219,
      "Ã¥k": 3220,
      "ĠAnders": 3221,
      "urs": 3222,
      "Ġdator": 3223,
      "oj": 3224,
      "alm": 3225,
      "Ġrapporter": 3226,
      "Ġkri": 3227,
      "Ġverksamheten": 3228,
      "ĠspÃ¥r": 3229,
      "post": 3230,
      "Ġpot": 3231,
      "ĠivÃ¤g": 3232,
      "ĠSa": 3233,
      "ĠVÃ¤ster": 3234,
      "peratur": 3235,
      "fta": 3236,
      "Ġchans": 3237,
      "VO": 3238,
      "Ġanslut": 3239,
      "stans": 3240,
      "Ġskillnad": 3241,
      "rÃ¥det": 3242,
      "ffa": 3243,
      "ĠsÃ¥dant": 3244,
      "Ġsnygg": 3245,
      "ica": 3246,
      "ologi": 3247,
      "teras": 3248,
      "Ġhelg": 3249,
      "ĠvÃ¥g": 3250,
      "Ġverktyg": 3251,
      "nskar": 3252,
      "ee": 3253,
      "Ġframtiden": 3254,
      "Ġparker": 3255,
      "ĠtÃ¤nkt": 3256,
      "uden": 3257,
      "Ġkval": 3258,
      "ec": 3259,
      "ement": 3260,
      "Ġopt": 3261,
      "ĠstÃ¤lla": 3262,
      "uk": 3263,
      "Ġinfl": 3264,
      "Ġsitta": 3265,
      "Ġleva": 3266,
      "bjud": 3267,
      "orge": 3268,
      "Ġkallas": 3269,
      "Ġdy": 3270,
      "ĠlÃ¥nga": 3271,
      "ĠBerg": 3272,
      "allen": 3273,
      "brott": 3274,
      "ĠvÃ¤nster": 3275,
      "Ã¥de": 3276,
      "Ġteknik": 3277,
      "stra": 3278,
      "usive": 3279,
      "Ġuppskatt": 3280,
      "ED": 3281,
      "Ġtotalt": 3282,
      "Ġlov": 3283,
      "likt": 3284,
      "Ġfastighet": 3285,
      "ĠkÃ¤nde": 3286,
      "Ġtjejer": 3287,
      "Ġsur": 3288,
      "anda": 3289,
      "Ġbolaget": 3290,
      "inal": 3291,
      "Ġsh": 3292,
      "ĠAnvÃ¤nd": 3293,
      "ĠÃ¥rets": 3294,
      "ĠLind": 3295,
      "ĠStockholms": 3296,
      "Ġprofess": 3297,
      "Ġomkring": 3298,
      "Ġkontroller": 3299,
      "ocker": 3300,
      "Ġos": 3301,
      "Ġvisst": 3302,
      "ĠfjÃ¤r": 3303,
      "Ġrek": 3304,
      "Ġvinter": 3305,
      "Ġtillver": 3306,
      "mning": 3307,
      "itid": 3308,
      "cial": 3309,
      "dustri": 3310,
      "Ġtradition": 3311,
      "ĠhÃ¥rt": 3312,
      "Ġsort": 3313,
      "ĠÃ¥ker": 3314,
      "arbetare": 3315,
      "Ġlokala": 3316,
      "Ġmatchen": 3317,
      "Ġrabatt": 3318,
      "iat": 3319,
      "anger": 3320,
      "ĠBarn": 3321,
      "ĠtrÃ¤ffa": 3322,
      "Ġident": 3323,
      "Ġdejtingsajter": 3324,
      "Ġansikt": 3325,
      "ibli": 3326,
      "lay": 3327,
      "Ġarbetsm": 3328,
      "atts": 3329,
      "Ġbank": 3330,
      "Ġtit": 3331,
      "Ġinled": 3332,
      "Ġuppf": 3333,
      "IK": 3334,
      "Ġserver": 3335,
      "Ġicke": 3336,
      "Ġerbjuda": 3337,
      "ĠtyvÃ¤rr": 3338,
      "Ġvardag": 3339,
      "ĠÃĸver": 3340,
      "Ã¤rn": 3341,
      "Ġnum": 3342,
      "Ġlitet": 3343,
      "Ġfart": 3344,
      "rummet": 3345,
      "garna": 3346,
      "Ġdryg": 3347,
      "ith": 3348,
      "Ġena": 3349,
      "vÃ¤rt": 3350,
      "Ġregeringen": 3351,
      "Ġide": 3352,
      "Ġrecensioner": 3353,
      "Ġtjej": 3354,
      "Ġba": 3355,
      "Ġforskning": 3356,
      "san": 3357,
      "ĠSpel": 3358,
      "ĠbÃ¥t": 3359,
      "Ġkil": 3360,
      "Ġantalet": 3361,
      "Ġtidigt": 3362,
      "Ġmarknaden": 3363,
      "Ġproduktion": 3364,
      "ĠVikt": 3365,
      "Ġproduc": 3366,
      "Ġak": 3367,
      "Ġelekt": 3368,
      "Ġexper": 3369,
      "Ġskyd": 3370,
      "Ġtanke": 3371,
      "Ġkostnader": 3372,
      "Ġford": 3373,
      "Ġdri": 3374,
      "delar": 3375,
      "ĠOr": 3376,
      "Ġdrag": 3377,
      "ĠGre": 3378,
      "Ġno": 3379,
      "fa": 3380,
      "Ġgro": 3381,
      "ĠBen": 3382,
      "Ġartikel": 3383,
      "Ġuppe": 3384,
      "ipp": 3385,
      "hav": 3386,
      "mid": 3387,
      "Ġem": 3388,
      "delning": 3389,
      "Ġindivid": 3390,
      "Ġfas": 3391,
      "ĠJÃ": 3392,
      "Ġcentrum": 3393,
      "visor": 3394,
      "ĠBÃ": 3395,
      "ĠlÃ¤ttare": 3396,
      "Ġlek": 3397,
      "Ġanledning": 3398,
      "Ġstress": 3399,
      "Ġvillkor": 3400,
      "Ġstorlek": 3401,
      "igen": 3402,
      "Ġprinci": 3403,
      "Ġtillverk": 3404,
      "oppet": 3405,
      "ana": 3406,
      "resent": 3407,
      "Ġcykel": 3408,
      "Ġrespektiv": 3409,
      "sak": 3410,
      "ola": 3411,
      "wards": 3412,
      "Ġvak": 3413,
      "Ġplatser": 3414,
      "lds": 3415,
      "ĠAm": 3416,
      "eden": 3417,
      "Ġtyper": 3418,
      "Ġko": 3419,
      "Ġfrukt": 3420,
      "ĠBet": 3421,
      "Ġdigit": 3422,
      "Ġrespektive": 3423,
      "amin": 3424,
      "Ġallra": 3425,
      "lande": 3426,
      "Ġstrateg": 3427,
      "Ġexakt": 3428,
      "lor": 3429,
      "vÃ¤n": 3430,
      "stag": 3431,
      "Ġredovis": 3432,
      "Ã¤gare": 3433,
      "Ġrut": 3434,
      "Ġvinna": 3435,
      "Ġbutik": 3436,
      "ĠHe": 3437,
      "Ġsamtliga": 3438,
      "gn": 3439,
      "ĠberÃ¤k": 3440,
      "visning": 3441,
      "ĠdÃ¥ligt": 3442,
      "Ġspring": 3443,
      "klare": 3444,
      "Ġek": 3445,
      "Ã¤ren": 3446,
      "Ġbilligt": 3447,
      "ĠBes": 3448,
      "ĠsamhÃ¤llet": 3449,
      "Ġvers": 3450,
      "ĠHopp": 3451,
      "Ġbju": 3452,
      "Ġmedicin": 3453,
      "rord": 3454,
      "Ġregler": 3455,
      "Ġdata": 3456,
      "XXXX": 3457,
      "ĠlÃ¤gre": 3458,
      "ĠOn": 3459,
      "Ġlunch": 3460,
      "ener": 3461,
      "ĠHans": 3462,
      "Ġod": 3463,
      "ial": 3464,
      "ĠvÃ¥ld": 3465,
      "ĠSl": 3466,
      "Ġtj": 3467,
      "iteten": 3468,
      "Ã¤mta": 3469,
      "Ġorig": 3470,
      "Ġsade": 3471,
      "ĠutgÃ": 3472,
      "Ġintegr": 3473,
      "iod": 3474,
      "Ġkostar": 3475,
      "Ġvann": 3476,
      "ĠleverantÃ": 3477,
      "ĠunderhÃ¥ll": 3478,
      "ratis": 3479,
      "ĠomrÃ¥de": 3480,
      "ĠÃ¥tgÃ¤rder": 3481,
      "isar": 3482,
      "ĠlÃ¤mp": 3483,
      "ĠresenÃ¤rer": 3484,
      "Ġkontroll": 3485,
      "Ġret": 3486,
      "ienter": 3487,
      "elt": 3488,
      "rstÃ¥s": 3489,
      "Ġlagen": 3490,
      "rin": 3491,
      "ĠNil": 3492,
      "ĠvÃ¤ntar": 3493,
      "ational": 3494,
      "ills": 3495,
      "ĠvÃ¤": 3496,
      "Ġregion": 3497,
      "Ġfj": 3498,
      "stÃ¤llningar": 3499,
      "ĠlÃ¤rare": 3500,
      "ĠSn": 3501,
      "Ġdans": 3502,
      "sprung": 3503,
      "ĠsÃ¤tter": 3504,
      "Ġkrig": 3505,
      "sÃ¤ttningen": 3506,
      "Ġbidrag": 3507,
      "hamn": 3508,
      "ĠBland": 3509,
      "fÃ©": 3510,
      "ĠgrÃ¤n": 3511,
      "Ġadress": 3512,
      "Ġkatt": 3513,
      "ycken": 3514,
      "Ġrull": 3515,
      "ĠUppsala": 3516,
      "ĠIngen": 3517,
      "styrelsen": 3518,
      "Ġvuxna": 3519,
      "ĠhÃ¤nda": 3520,
      "TT": 3521,
      "Ġkompetens": 3522,
      "Ġmassor": 3523,
      "iment": 3524,
      "Ġuppfatt": 3525,
      "Ġrom": 3526,
      "ĠsÃ¤k": 3527,
      "Ġport": 3528,
      "Ġpresent": 3529,
      "ĠtÃ¥g": 3530,
      "ĠnÃ¥n": 3531,
      "bas": 3532,
      "ĠkÃ¤nsla": 3533,
      "Ġutbud": 3534,
      "ĠKina": 3535,
      "ystemet": 3536,
      "llt": 3537,
      "Ġuppgift": 3538,
      "klam": 3539,
      "rvÃ¤r": 3540,
      "Ġskola": 3541,
      "utveckling": 3542,
      "Ġtors": 3543,
      "hets": 3544,
      "Ġvitt": 3545,
      "Ġyrk": 3546,
      "Ġdokument": 3547,
      "En": 3548,
      "smedel": 3549,
      "rtro": 3550,
      "okies": 3551,
      "Ġkunnat": 3552,
      "Ġsidor": 3553,
      "rom": 3554,
      "ĠlÃ¤ser": 3555,
      "ĠMon": 3556,
      "ĠPerson": 3557,
      "ĠSc": 3558,
      "Ġenbart": 3559,
      "osition": 3560,
      "star": 3561,
      "tidigt": 3562,
      "we": 3563,
      "ĠFVO": 3564,
      "ĠtÃ¤vling": 3565,
      "lan": 3566,
      "Ġson": 3567,
      "Ġskrivit": 3568,
      "ĠberÃ¤tta": 3569,
      "ĠKal": 3570,
      "istik": 3571,
      "abrik": 3572,
      "rÃ¤ndring": 3573,
      "Ġriks": 3574,
      "Ġmera": 3575,
      "vÃ¤gen": 3576,
      "stor": 3577,
      "uten": 3578,
      "ĠtillrÃ¤ckligt": 3579,
      "usen": 3580,
      "Ġdejtingsidor": 3581,
      "Ġbygger": 3582,
      "ĠBok": 3583,
      "ioden": 3584,
      "ĠCarl": 3585,
      "ĠsÃ¤songen": 3586,
      "ĠlÃ¤ge": 3587,
      "ĠHotels": 3588,
      "Ġsal": 3589,
      "dering": 3590,
      "inder": 3591,
      "bit": 3592,
      "ĠsÃ¤song": 3593,
      "Ġmedvet": 3594,
      "ĠHall": 3595,
      "Ġont": 3596,
      "stat": 3597,
      "Ġdela": 3598,
      "An": 3599,
      "inge": 3600,
      "Ġdejt": 3601,
      "ĠuppfÃ": 3602,
      "rlor": 3603,
      "ĠlÃ¤gg": 3604,
      "larna": 3605,
      "ĠhÃ¤mt": 3606,
      "Ġlyckas": 3607,
      "Ġvalt": 3608,
      "Ġdate": 3609,
      "cep": 3610,
      "rustning": 3611,
      "Ġlaget": 3612,
      "ampan": 3613,
      "ĠglÃ¤d": 3614,
      "iti": 3615,
      "Ġmakt": 3616,
      "ancer": 3617,
      "ĠnÃ¤mn": 3618,
      "ele": 3619,
      "jul": 3620,
      "Ġhandel": 3621,
      "jÃ¤nster": 3622,
      "bol": 3623,
      "eringar": 3624,
      "ĠvÃ¤gg": 3625,
      "Ġpolisen": 3626,
      "skydd": 3627,
      "Ġrik": 3628,
      "ĠPeter": 3629,
      "sled": 3630,
      "rapp": 3631,
      "Ġhit": 3632,
      "Ġkonstat": 3633,
      "Ġborta": 3634,
      "lk": 3635,
      "rda": 3636,
      "ĠTor": 3637,
      "server": 3638,
      "Ġhum": 3639,
      "nÃ¤mn": 3640,
      "Ġsil": 3641,
      "fors": 3642,
      "vning": 3643,
      "ĠSkÃ¥n": 3644,
      "ette": 3645,
      "Ã¤tta": 3646,
      "Ġbyta": 3647,
      "ĠvÃ¤rme": 3648,
      "Ġreda": 3649,
      "hov": 3650,
      "ĠgÃ¤llande": 3651,
      "rika": 3652,
      "ĠTur": 3653,
      "Ġgemensam": 3654,
      "ĠSamtidigt": 3655,
      "smÃ": 3656,
      "ĠSV": 3657,
      "ĠstrÃ": 3658,
      "kraft": 3659,
      "Ġsann": 3660,
      "ĠHand": 3661,
      "Ġons": 3662,
      "Ġbrans": 3663,
      "ĠUl": 3664,
      "behÃ": 3665,
      "Ġekonomiska": 3666,
      "ĠGe": 3667,
      "ĠmjÃ": 3668,
      "edagog": 3669,
      "Ġdotter": 3670,
      "Ġne": 3671,
      "ĠVÃ¤lkommen": 3672,
      "ĠtillgÃ¤ngliga": 3673,
      "Ġark": 3674,
      "Hotels": 3675,
      "gst": 3676,
      "pat": 3677,
      "lund": 3678,
      "ningsvis": 3679,
      "ĠProdu": 3680,
      "Ġundv": 3681,
      "ĠframÃ¥t": 3682,
      "Ġpappa": 3683,
      "son": 3684,
      "ĠHels": 3685,
      "ĠvÃ¤der": 3686,
      "Ġenkla": 3687,
      "ĠMycket": 3688,
      "Ġplatt": 3689,
      "tv": 3690,
      "oklad": 3691,
      "rmed": 3692,
      "Ġsnar": 3693,
      "ĠKat": 3694,
      "FÃ": 3695,
      "Ġtesta": 3696,
      "df": 3697,
      "Ġtving": 3698,
      "kningar": 3699,
      "organis": 3700,
      "hÃ¤l": 3701,
      "Ġidrott": 3702,
      "skning": 3703,
      "yta": 3704,
      "Ġass": 3705,
      "ĠCon": 3706,
      "srÃ¤tt": 3707,
      "Ġmiddag": 3708,
      "AM": 3709,
      "rala": 3710,
      "ĠHam": 3711,
      "ĠArt": 3712,
      "Ġlager": 3713,
      "ourna": 3714,
      "ĠlÃ¤kemedel": 3715,
      "Ġsan": 3716,
      "inst": 3717,
      "Ġneg": 3718,
      "Ġprote": 3719,
      "Ġviktigaste": 3720,
      "Ġtrafik": 3721,
      "uck": 3722,
      "stÃ¤lld": 3723,
      "Ġsjun": 3724,
      "stÃ¥": 3725,
      "Ã¤nning": 3726,
      "urser": 3727,
      "Ġback": 3728,
      "ĠanvÃ¤ndning": 3729,
      "ĠÃ¤ndra": 3730,
      "sting": 3731,
      "Ġkommande": 3732,
      "ĠlÃ¤st": 3733,
      "ĠTre": 3734,
      "iot": 3735,
      "Ġspecial": 3736,
      "ometer": 3737,
      "Ġintervju": 3738,
      "Ġerbjudanden": 3739,
      "gra": 3740,
      "platsen": 3741,
      "Ġpension": 3742,
      "Ġfilmen": 3743,
      "uren": 3744,
      "Ġdrar": 3745,
      "Ġextre": 3746,
      "Ġnr": 3747,
      "rang": 3748,
      "ĠRewards": 3749,
      "Ġbrev": 3750,
      "Ġbetydelse": 3751,
      "ĠVarje": 3752,
      "klass": 3753,
      "skrivning": 3754,
      "ĠanstÃ¤llda": 3755,
      "Ġas": 3756,
      "Ġpriset": 3757,
      "Ġhittade": 3758,
      "istiska": 3759,
      "versatts": 3760,
      "entligt": 3761,
      "cin": 3762,
      "kningen": 3763,
      "ĠSM": 3764,
      "Ġnag": 3765,
      "ĠTvÃ¥": 3766,
      "Ġfir": 3767,
      "Ġdels": 3768,
      "kopp": 3769,
      "unkter": 3770,
      "nov": 3771,
      "Ã¥da": 3772,
      "enting": 3773,
      "ĠIN": 3774,
      "ges": 3775,
      "ĠHelsing": 3776,
      "ĠMart": 3777,
      "CH": 3778,
      "ula": 3779,
      "Ġbord": 3780,
      "lo": 3781,
      "ĠAndersson": 3782,
      "ign": 3783,
      "orlunda": 3784,
      "Ġtriv": 3785,
      "EL": 3786,
      "Ġspecif": 3787,
      "ftet": 3788,
      "OM": 3789,
      "ĠKa": 3790,
      "Ġtryck": 3791,
      "Ġrym": 3792,
      "rens": 3793,
      "ĠhÃ¥llbar": 3794,
      "Ġtydligt": 3795,
      "icy": 3796,
      "klubb": 3797,
      "edd": 3798,
      "Ġtrodde": 3799,
      "Ã¤ndska": 3800,
      "ĠHol": 3801,
      "resl": 3802,
      "Ġtankar": 3803,
      "ild": 3804,
      "vak": 3805,
      "âĢĻ": 3806,
      "Ġorganisation": 3807,
      "Ġsverige": 3808,
      "Ã¤nde": 3809,
      "ĠBest": 3810,
      "ĠLand": 3811,
      "Ġyn": 3812,
      "arder": 3813,
      "Ġnord": 3814,
      "ĠpÃ¥verkar": 3815,
      "ĠlÃ¤genhet": 3816,
      "ĠST": 3817,
      "Ġleda": 3818,
      "rh": 3819,
      "Ġlistan": 3820,
      "Ġkommentarer": 3821,
      "rvar": 3822,
      "Ġpoj": 3823,
      "ire": 3824,
      "Ġpersonliga": 3825,
      "ĠskÃ¤l": 3826,
      "ogle": 3827,
      "ĠMaria": 3828,
      "ĠnÃ¤rmare": 3829,
      "icka": 3830,
      "abl": 3831,
      "ĠdÃ¤remot": 3832,
      "ĠFoto": 3833,
      "Ġguld": 3834,
      "AL": 3835,
      "AS": 3836,
      "Ġfotograf": 3837,
      "ĠStad": 3838,
      "EJ": 3839,
      "Ġtis": 3840,
      "rdes": 3841,
      "ĠDat": 3842,
      "Ġses": 3843,
      "Ġgymnas": 3844,
      "ESS": 3845,
      "ĠutmÃ¤rkt": 3846,
      "ĠstÃ¤ller": 3847,
      "Ġpunkt": 3848,
      "Ġframt": 3849,
      "stav": 3850,
      "ĠFinns": 3851,
      "rike": 3852,
      "Vi": 3853,
      "Ã¥ret": 3854,
      "handa": 3855,
      "Ġpartner": 3856,
      "ĠEm": 3857,
      "ĠAnmÃ¤l": 3858,
      "ĠHoppas": 3859,
      "rÃ¤ndringar": 3860,
      "rbundet": 3861,
      "Ġmotor": 3862,
      "ĠPh": 3863,
      "pack": 3864,
      "Ġtak": 3865,
      "ting": 3866,
      "pren": 3867,
      "Ġhandla": 3868,
      "Ġkommuna": 3869,
      "rets": 3870,
      "ĠMitt": 3871,
      "ĠÃ¤ter": 3872,
      "ĠÃĦl": 3873,
      "Ġyt": 3874,
      "Ġkvart": 3875,
      "Ġinred": 3876,
      "ckar": 3877,
      "ĠBor": 3878,
      "dels": 3879,
      "ĠTrots": 3880,
      "IG": 3881,
      "Se": 3882,
      "Ġvars": 3883,
      "Ġnatten": 3884,
      "Ġdrog": 3885,
      "skÃ¤r": 3886,
      "ĠnÃ¥gonsin": 3887,
      "Ġursprung": 3888,
      "ura": 3889,
      "ĠfÃ¤rger": 3890,
      "ĠKontakt": 3891,
      "tsligt": 3892,
      "nst": 3893,
      "ĠplÃ": 3894,
      "ĠFrank": 3895,
      "trakt": 3896,
      "Ġinklu": 3897,
      "vde": 3898,
      "Ġsim": 3899,
      "ĠVal": 3900,
      "ĠBara": 3901,
      "ament": 3902,
      "Ã¥p": 3903,
      "frÃ¥gan": 3904,
      "Ġbetydligt": 3905,
      "Ġutrym": 3906,
      "ĠSan": 3907,
      "Ġregl": 3908,
      "rutsÃ¤ttningar": 3909,
      "ĠFortsÃ¤tt": 3910,
      "ĠÃ¥ng": 3911,
      "mÃ¤ss": 3912,
      "Ġvanlig": 3913,
      "igg": 3914,
      "Ġkonto": 3915,
      "omrÃ¥det": 3916,
      "Ġrestaurang": 3917,
      "Ġdiskuss": 3918,
      "kohol": 3919,
      "Ġwww": 3920,
      "jÃ¤lp": 3921,
      "ĠFÃ¤r": 3922,
      "ĠTÃ¤nk": 3923,
      "delen": 3924,
      "Ġrent": 3925,
      "vakt": 3926,
      "ĠFram": 3927,
      "Ġscen": 3928,
      "ĠlÃ¤kare": 3929,
      "Ġkontor": 3930,
      "Ġaktiviteter": 3931,
      "Ġflytta": 3932,
      "hy": 3933,
      "stift": 3934,
      "Ġbudget": 3935,
      "marna": 3936,
      "Ġetc": 3937,
      "ĠstjÃ¤rnor": 3938,
      "Ġstarkt": 3939,
      "kast": 3940,
      "Ġfantastiskt": 3941,
      "ĠslÃ¥": 3942,
      "ĠLars": 3943,
      "ĠSkÃ": 3944,
      "ĠtrÃ¤na": 3945,
      "jliga": 3946,
      "Ġtand": 3947,
      "fton": 3948,
      "Ġspelade": 3949,
      "Ã¤dda": 3950,
      "ĠbekvÃ¤m": 3951,
      "Ġleg": 3952,
      "lÃ¤s": 3953,
      "uc": 3954,
      "Ġvore": 3955,
      "Ġgravid": 3956,
      "Ġsist": 3957,
      "ĠIT": 3958,
      "Ġtrevlig": 3959,
      "ĠstÃ¤nd": 3960,
      "Ġcookies": 3961,
      "inar": 3962,
      "Ġkaffe": 3963,
      "ĠChrist": 3964,
      "Ġpubl": 3965,
      "Ġmej": 3966,
      "ologiska": 3967,
      "comTM": 3968,
      "ĠdÃ¤refter": 3969,
      "Ġsid": 3970,
      "ĠsÃ¤m": 3971,
      "ĠgÃ¤st": 3972,
      "ĠAns": 3973,
      "di": 3974,
      "th": 3975,
      "Ã¥ter": 3976,
      "Ġdrygt": 3977,
      "Ġunderl": 3978,
      "ĠÃ¤gg": 3979,
      "ĠmÃ¤ng": 3980,
      "minst": 3981,
      "Ġinklusive": 3982,
      "ĠstÃ¤r": 3983,
      "ĠmÃ¤ngd": 3984,
      "Ġplanera": 3985,
      "fun": 3986,
      "ĠhÃ¥rd": 3987,
      "rÃ©": 3988,
      "Ġnej": 3989,
      "Ġpolitik": 3990,
      "ogen": 3991,
      "skapet": 3992,
      "Ġpati": 3993,
      "omas": 3994,
      "Ġbakgrund": 3995,
      "Ġboll": 3996,
      "karen": 3997,
      "ĠRed": 3998,
      "Ġdyg": 3999,
      "ilt": 4000,
      "ĠVet": 4001,
      "ĠPost": 4002,
      "ĠsjÃ¤lvklart": 4003,
      "kap": 4004,
      "ĠNya": 4005,
      "Ġautomat": 4006,
      "ID": 4007,
      "Ġordning": 4008,
      "Ġnyhet": 4009,
      "Ġhe": 4010,
      "Ġligga": 4011,
      "ĠSven": 4012,
      "Ġvarmt": 4013,
      "Ġmesta": 4014,
      "Ġev": 4015,
      "Ġkarakt": 4016,
      "uf": 4017,
      "ĠCent": 4018,
      "Ġsiff": 4019,
      "rebro": 4020,
      "ĠihÃ¥g": 4021,
      "Ġlugn": 4022,
      "ĠApp": 4023,
      "Ġstudie": 4024,
      "Ġsaknar": 4025,
      "ots": 4026,
      "Ġdetalj": 4027,
      "ĠSocial": 4028,
      "ĠvÃ¤nta": 4029,
      "ĠBygg": 4030,
      "ĠSund": 4031,
      "fan": 4032,
      "Ġtalar": 4033,
      "tligen": 4034,
      "Ġkategor": 4035,
      "nder": 4036,
      "ĠtillÃ¤mp": 4037,
      "Mer": 4038,
      "rÃ¤ning": 4039,
      "gruppen": 4040,
      "Ġfantastisk": 4041,
      "Ġgenomsnitt": 4042,
      "ionde": 4043,
      "Ġbro": 4044,
      "Ġyrkes": 4045,
      "Ġutvecklas": 4046,
      "ĠmÃ¥ng": 4047,
      "nÃ¤r": 4048,
      "jÃ¤nsten": 4049,
      "Ġekonomi": 4050,
      "hang": 4051,
      "Ġsikt": 4052,
      "gÃ¥ngen": 4053,
      "ĠFrÃ¥g": 4054,
      "oga": 4055,
      "Ġavsnitt": 4056,
      "slagen": 4057,
      "ific": 4058,
      "ĠIbland": 4059,
      "ĠvÃ¥ren": 4060,
      "ĠDom": 4061,
      "tim": 4062,
      "ĠkÃ¤ll": 4063,
      "emat": 4064,
      "ansvar": 4065,
      "Ġpolitiska": 4066,
      "Ġmjuk": 4067,
      "uth": 4068,
      "Ġrygg": 4069,
      "onn": 4070,
      "ĠFolk": 4071,
      "Ġhantera": 4072,
      "Ġknappt": 4073,
      "Ã¤nta": 4074,
      "off": 4075,
      "Ã¤tter": 4076,
      "por": 4077,
      "relÃ¤s": 4078,
      "ĠFinland": 4079,
      "Ġvattnet": 4080,
      "Ġband": 4081,
      "Ġlju": 4082,
      "rhopp": 4083,
      "ĠAndra": 4084,
      "Ġkommunikation": 4085,
      "stÃ¤llningen": 4086,
      "ĠkÃ¤ndes": 4087,
      "Ġpromenad": 4088,
      "Ġgrader": 4089,
      "Ġuppn": 4090,
      "sliv": 4091,
      "Ġstabil": 4092,
      "ĠvÃ¤lkom": 4093,
      "Ġtuff": 4094,
      "Ġrummet": 4095,
      "ĠMÃ¥l": 4096,
      "dagar": 4097,
      "ĠmedfÃ": 4098,
      "Ġkunska": 4099,
      "Ġutnytt": 4100,
      "ĠSand": 4101,
      "Ġimorgon": 4102,
      "ĠÃ¤ndring": 4103,
      "ĠlÃ¤mnar": 4104,
      "Ġsprid": 4105,
      "Ġosv": 4106,
      "Ġry": 4107,
      "ĠPat": 4108,
      "rmod": 4109,
      "ĠâĨ": 4110,
      "Ġingenting": 4111,
      "dell": 4112,
      "jligheten": 4113,
      "polit": 4114,
      "sprogram": 4115,
      "bum": 4116,
      "deras": 4117,
      "gera": 4118,
      "Ġungdomar": 4119,
      "Ġklicka": 4120,
      "agg": 4121,
      "Ġanalys": 4122,
      "atÃ": 4123,
      "ungen": 4124,
      "Ġvita": 4125,
      "fÃ¤rg": 4126,
      "SK": 4127,
      "Ġinternationella": 4128,
      "Ġjur": 4129,
      "minister": 4130,
      "skomm": 4131,
      "ĠKung": 4132,
      "Ġenhet": 4133,
      "www": 4134,
      "ĠmarknadsfÃ": 4135,
      "ssa": 4136,
      "ĠÃ¤ntligen": 4137,
      "ĠsÃ¤lja": 4138,
      "Ġcentral": 4139,
      "Ġnyck": 4140,
      "Ġvinst": 4141,
      "ĠGratis": 4142,
      "Ġpratar": 4143,
      "ĠMatt": 4144,
      "Ġmatcher": 4145,
      "ĠVilken": 4146,
      "Ġkyl": 4147,
      "ĠStud": 4148,
      "ĠðŁĺ": 4149,
      "Ġprest": 4150,
      "ĠpopulÃ¤ra": 4151,
      "Ġnjuta": 4152,
      "Ġroliga": 4153,
      "ube": 4154,
      "Ġmatt": 4155,
      "arken": 4156,
      "Ġglob": 4157,
      "dex": 4158,
      "ĠSjÃ": 4159,
      "Ġfantastiska": 4160,
      "ĠHus": 4161,
      "rbi": 4162,
      "Ġpaket": 4163,
      "ista": 4164,
      "Ġvideo": 4165,
      "Ġkre": 4166,
      "Ġdagarna": 4167,
      "Ġvarier": 4168,
      "atan": 4169,
      "ows": 4170,
      "Ġaktie": 4171,
      "nal": 4172,
      "skv": 4173,
      "Ġresten": 4174,
      "Ġplus": 4175,
      "Ġdusch": 4176,
      "Ã¤mm": 4177,
      "rfattare": 4178,
      "Ġmun": 4179,
      "ĠÃ¥sikt": 4180,
      "Ġgivet": 4181,
      "ĠInne": 4182,
      "ĠðŁĻ": 4183,
      "Ġbilar": 4184,
      "Ġtimmen": 4185,
      "igur": 4186,
      "rhand": 4187,
      "Ġspara": 4188,
      "gj": 4189,
      "ĠNr": 4190,
      "ise": 4191,
      "ĠEd": 4192,
      "lapp": 4193,
      "ostÃ¤der": 4194,
      "ĠFredrik": 4195,
      "bor": 4196,
      "skland": 4197,
      "ĠtrÃ¥d": 4198,
      "Ġsova": 4199,
      "Ġdest": 4200,
      "Ġaccep": 4201,
      "Ġvind": 4202,
      "Ġnaturligtvis": 4203,
      "ident": 4204,
      "ĠsÃ¥l": 4205,
      "Ġplatsen": 4206,
      "Ġvarm": 4207,
      "rister": 4208,
      "Ġfritid": 4209,
      "ĠLite": 4210,
      "Ġmusk": 4211,
      "Ġsluta": 4212,
      "DRESS": 4213,
      "Ġvisas": 4214,
      "Ġpatienter": 4215,
      "Ġmodell": 4216,
      "Ġmedarbetare": 4217,
      "Ġbevis": 4218,
      "arens": 4219,
      "Ġges": 4220,
      "rhÃ¥llande": 4221,
      "utbildning": 4222,
      "Ġdyr": 4223,
      "Ġdemokrat": 4224,
      "Ġantingen": 4225,
      "ya": 4226,
      "amen": 4227,
      "anten": 4228,
      "Ġmg": 4229,
      "Ġutvecklingen": 4230,
      "qvist": 4231,
      "Ġmod": 4232,
      "klÃ¤der": 4233,
      "Ġfree": 4234,
      "Ġspelet": 4235,
      "Ġkurs": 4236,
      "ĠVÃ¥ra": 4237,
      "Ġflick": 4238,
      "tekn": 4239,
      "Ã¤ckt": 4240,
      "ifierade": 4241,
      "Ġbrand": 4242,
      "Ġfungera": 4243,
      "ĠfÃ¤rd": 4244,
      "fria": 4245,
      "Ġlista": 4246,
      "ĠIF": 4247,
      "fot": 4248,
      "Ġdukt": 4249,
      "Ġsolen": 4250,
      "ĠNÃ¥gra": 4251,
      "jar": 4252,
      "kam": 4253,
      "ĠVÃ¤lj": 4254,
      "ikro": 4255,
      "ledare": 4256,
      "ada": 4257,
      "Ġprova": 4258,
      "ĠDin": 4259,
      "Ġarg": 4260,
      "ĠFal": 4261,
      "ĠtillstÃ¥nd": 4262,
      "Ġledande": 4263,
      "minstone": 4264,
      "ĠpÃ¥verka": 4265,
      "Ġstandard": 4266,
      "ĠLÃ¥t": 4267,
      "Ġbloggen": 4268,
      "Ġhuvudet": 4269,
      "ĠrejÃ¤l": 4270,
      "TE": 4271,
      "Ġprojektet": 4272,
      "EJLA": 4273,
      "ĠJes": 4274,
      "EJLADRESS": 4275,
      "Ġstarka": 4276,
      "Ġundrar": 4277,
      "rÃ¤ft": 4278,
      "Ġtittar": 4279,
      "eed": 4280,
      "ĠBli": 4281,
      "Ġbem": 4282,
      "add": 4283,
      "Ġalkohol": 4284,
      "Ġskrevs": 4285,
      "bergs": 4286,
      "Ġbalans": 4287,
      "Ġperiod": 4288,
      "leken": 4289,
      "own": 4290,
      "ĠOK": 4291,
      "Ġorsak": 4292,
      "SS": 4293,
      "Ġdatum": 4294,
      "ĠsmÃ": 4295,
      "Ġperfekta": 4296,
      "cher": 4297,
      "AD": 4298,
      "Ġtransport": 4299,
      "ĠÃ¥tta": 4300,
      "ĠKlicka": 4301,
      "Ġlo": 4302,
      "ĠSport": 4303,
      "ĠsÃ¤n": 4304,
      "Ġprofil": 4305,
      "ĠJohansson": 4306,
      "Ġundvika": 4307,
      "ĠOb": 4308,
      "Ut": 4309,
      "Ġsvara": 4310,
      "Ġtum": 4311,
      "Ġavl": 4312,
      "Ġfunn": 4313,
      "to": 4314,
      "ĠNatur": 4315,
      "ĠhÃ¤rlig": 4316,
      "skri": 4317,
      "Ġhittat": 4318,
      "enskaper": 4319,
      "FÃ¥": 4320,
      "kommande": 4321,
      "ĠVin": 4322,
      "Ġdejtingsida": 4323,
      "ĠmÃ¤nsk": 4324,
      "ĠFri": 4325,
      "Ġannorlunda": 4326,
      "Ġprincip": 4327,
      "Ġomedel": 4328,
      "ĠBro": 4329,
      "Ġpan": 4330,
      "Ad": 4331,
      "hel": 4332,
      "Ġnummer": 4333,
      "ĠtrÃ¥k": 4334,
      "ationell": 4335,
      "ĠmisstÃ¤n": 4336,
      "sekvens": 4337,
      "onser": 4338,
      "Ġetabl": 4339,
      "ĠInd": 4340,
      "Ġnamnet": 4341,
      "ĠdÃ¥lig": 4342,
      "ĠvÃ¤xer": 4343,
      "ower": 4344,
      "Ġtri": 4345,
      "Ġhaha": 4346,
      "Ġchoklad": 4347,
      "Ġvalde": 4348,
      "list": 4349,
      "sats": 4350,
      "Ġstockholm": 4351,
      "Ã¤mfÃ": 4352,
      "ĠBÃ¤sta": 4353,
      "ĠbestÃ¤mm": 4354,
      "ama": 4355,
      "ĠCom": 4356,
      "ĠNamn": 4357,
      "rlÃ¤ng": 4358,
      "ĠmÃ¥r": 4359,
      "itar": 4360,
      "Ġkonf": 4361,
      "Ġmannen": 4362,
      "Ġdatorn": 4363,
      "ĠnÃ¤ring": 4364,
      "ĠkÃ¤nd": 4365,
      "nivÃ¥": 4366,
      "zz": 4367,
      "Ġutform": 4368,
      "Ġill": 4369,
      "ĠRos": 4370,
      "Ġstarta": 4371,
      "jda": 4372,
      "Ġlans": 4373,
      "Ġkommuner": 4374,
      "Ġreklam": 4375,
      "Ġkass": 4376,
      "NING": 4377,
      "Ġstudier": 4378,
      "ĠÃĸrebro": 4379,
      "ĠrÃ¤cker": 4380,
      "Ġvist": 4381,
      "jlig": 4382,
      "Ġslog": 4383,
      "Ġmail": 4384,
      "ĠprÃ": 4385,
      "Ġobjekt": 4386,
      "ĠvÃ¤xt": 4387,
      "Ġdetaljer": 4388,
      "Ġlyckades": 4389,
      "Ġstraff": 4390,
      "Ġfordon": 4391,
      "Ġsyfte": 4392,
      "delser": 4393,
      "Ġmy": 4394,
      "ondon": 4395,
      "ĠIm": 4396,
      "oden": 4397,
      "Ġklarar": 4398,
      "Ġresultatet": 4399,
      "mn": 4400,
      "Ġkallade": 4401,
      "Ġlagt": 4402,
      "ĠðŁĻĤ": 4403,
      "Ġmarknad": 4404,
      "Ġlyssna": 4405,
      "rÃ¤tten": 4406,
      "Ġanses": 4407,
      "Ġpassa": 4408,
      "arn": 4409,
      "Ġrelig": 4410,
      "ĠAnd": 4411,
      "Ġcyk": 4412,
      "Ġot": 4413,
      "givning": 4414,
      "porter": 4415,
      "Ġvol": 4416,
      "Ġplast": 4417,
      "Ġleverans": 4418,
      "Ġvisste": 4419,
      "ĠtillÃ¥t": 4420,
      "ĠnÃ¥t": 4421,
      "ĠrÃ¤ttigheter": 4422,
      "ningsfÃ": 4423,
      "entera": 4424,
      "ĠTim": 4425,
      "pare": 4426,
      "Ġmedier": 4427,
      "Ġregering": 4428,
      "ĠsÃ¤ljer": 4429,
      "Ġsub": 4430,
      "Ġmitten": 4431,
      "ĠsÃ¥ng": 4432,
      "ĠnÃ¥gonting": 4433,
      "orden": 4434,
      "Ġadmin": 4435,
      "Ġmiljarder": 4436,
      "ysning": 4437,
      "Ã¤kerhet": 4438,
      "Ġskul": 4439,
      "ĠGam": 4440,
      "Ġnuvarande": 4441,
      "elsens": 4442,
      "Ġmodern": 4443,
      "nu": 4444,
      "Ġbidra": 4445,
      "hai": 4446,
      "ĠMEJLADRESS": 4447,
      "Ġintresserad": 4448,
      "Ġdis": 4449,
      "fred": 4450,
      "ction": 4451,
      "omrÃ¥de": 4452,
      "ĠBild": 4453,
      "rhÃ¥llanden": 4454,
      "Ġnyligen": 4455,
      "versÃ¤ttning": 4456,
      "ĠLar": 4457,
      "ĠIgÃ¥r": 4458,
      "Ġlock": 4459,
      "Ġvacker": 4460,
      "ĠInternet": 4461,
      "lik": 4462,
      "RO": 4463,
      "Ġtrevligt": 4464,
      "Ġtionde": 4465,
      "Ġsannol": 4466,
      "Ġantag": 4467,
      "Ġtimme": 4468,
      "Ġamerikanska": 4469,
      "ĠSvensk": 4470,
      "ĠSta": 4471,
      "Ġarm": 4472,
      "ĠhÃ¤v": 4473,
      "ĠmÃ¥ndag": 4474,
      "blick": 4475,
      "ep": 4476,
      "nkÃ": 4477,
      "rstÃ¤r": 4478,
      "ines": 4479,
      "Ġfett": 4480,
      "bell": 4481,
      "draget": 4482,
      "Ġstruktur": 4483,
      "erier": 4484,
      "oteket": 4485,
      "mg": 4486,
      "ruktion": 4487,
      "Ġsatte": 4488,
      "Ġras": 4489,
      "fÃ¤rd": 4490,
      "rtroende": 4491,
      "Ġtakt": 4492,
      "Ġkonsum": 4493,
      "anen": 4494,
      "Ġeftermid": 4495,
      "ĠMagn": 4496,
      "frÃ¥gor": 4497,
      "Ġkast": 4498,
      "ĠRa": 4499,
      "Ġcasin": 4500,
      "Ġhttp": 4501,
      "aten": 4502,
      "arbetet": 4503,
      "Ġinform": 4504,
      "llop": 4505,
      "ĠmÃ¥let": 4506,
      "ĠmÃ¤": 4507,
      "ĠkÃ¤nda": 4508,
      "peiska": 4509,
      "Ġkostnad": 4510,
      "Ġgett": 4511,
      "Ġkra": 4512,
      "Ġfinner": 4513,
      "Ġskickade": 4514,
      "ĠMiljÃ": 4515,
      "Ġsituation": 4516,
      "Ġrev": 4517,
      "mmer": 4518,
      "Ġjourna": 4519,
      "skade": 4520,
      "ĠlÃ¥na": 4521,
      "Ġbarnet": 4522,
      "Ġhimla": 4523,
      "sprÃ¥k": 4524,
      "ĠDav": 4525,
      "ffan": 4526,
      "akta": 4527,
      "ben": 4528,
      "Ġutsatt": 4529,
      "talien": 4530,
      "ĠhÃ¤nt": 4531,
      "partiet": 4532,
      "Ġit": 4533,
      "Ġhavet": 4534,
      "Ġutsikt": 4535,
      "ĠEk": 4536,
      "uts": 4537,
      "ĠslÃ¤kt": 4538,
      "Ġfallet": 4539,
      "Ġprogrammet": 4540,
      "rsam": 4541,
      "rus": 4542,
      "aller": 4543,
      "ĠsÃ¥klart": 4544,
      "ĠmÃ¤nniska": 4545,
      "Ġrelativt": 4546,
      "Ġbadrum": 4547,
      "Ġnormalt": 4548,
      "Ġmedborg": 4549,
      "ĠSK": 4550,
      "ĠnÃ¤tverk": 4551,
      "Ġsmart": 4552,
      "Ġdelta": 4553,
      "Ã¥Ã¥": 4554,
      "ĠbestÃ¤lla": 4555,
      "ĸR": 4556,
      "ĠstÃ¤d": 4557,
      "resen": 4558,
      "bert": 4559,
      "Ġhyres": 4560,
      "olket": 4561,
      "ĠSkÃ¥ne": 4562,
      "vikt": 4563,
      "Ġparkering": 4564,
      "Ġbonusnatt": 4565,
      "ĠMet": 4566,
      "iven": 4567,
      "ĠsÃ¤ttet": 4568,
      "ĠSÃ¤tt": 4569,
      "ĠgÃ¤ng": 4570,
      "ĠTrip": 4571,
      "Ġbev": 4572,
      "dustr": 4573,
      "grepp": 4574,
      "ledningen": 4575,
      "Ġmottag": 4576,
      "ĠDock": 4577,
      "verfÃ": 4578,
      "ĠjÃ¤rn": 4579,
      "Ġplocka": 4580,
      "rmodligen": 4581,
      "terat": 4582,
      "Ġlast": 4583,
      "Ġmyndighet": 4584,
      "nÃ¤t": 4585,
      "agra": 4586,
      "ligheter": 4587,
      "Ġdvs": 4588,
      "cel": 4589,
      "skraft": 4590,
      "ĠResultat": 4591,
      "Ġkorrekt": 4592,
      "Ġriktig": 4593,
      "djur": 4594,
      "ustr": 4595,
      "ljd": 4596,
      "hÃ¤r": 4597,
      "meÃ¥": 4598,
      "Ġfunkar": 4599,
      "ĠNorge": 4600,
      "Ġpengarna": 4601,
      "aden": 4602,
      "Ġtemperatur": 4603,
      "ĠnÃ¤rmaste": 4604,
      "ĠTyskland": 4605,
      "Ġinl": 4606,
      "Ġinstaller": 4607,
      "gande": 4608,
      "anti": 4609,
      "derade": 4610,
      "Ġvisat": 4611,
      "lÃ¤ggande": 4612,
      "Ġpapper": 4613,
      "ĠInformation": 4614,
      "Ġladda": 4615,
      "namn": 4616,
      "ĠIns": 4617,
      "ĠVilka": 4618,
      "ĠPark": 4619,
      "ome": 4620,
      "ĠSim": 4621,
      "IF": 4622,
      "ĠvÃ¤st": 4623,
      "Ġaktuella": 4624,
      "ommar": 4625,
      "Ġtung": 4626,
      "ICK": 4627,
      "ĠmÃ¤rk": 4628,
      "Ġsjukhus": 4629,
      "lats": 4630,
      "pol": 4631,
      "Ġbetalar": 4632,
      "allt": 4633,
      "unga": 4634,
      "ĠlÃ¤ngs": 4635,
      "ĠSvar": 4636,
      "ĠvÃ¤lj": 4637,
      "ĠsÃ¤llan": 4638,
      "Ġnumera": 4639,
      "Ġfack": 4640,
      "inne": 4641,
      "ĠMÃ¥": 4642,
      "Ġshopp": 4643,
      "bry": 4644,
      "ĠHos": 4645,
      "ĠSex": 4646,
      "somrÃ¥": 4647,
      "Ġcentrala": 4648,
      "vit": 4649,
      "ĠInn": 4650,
      "ĠLÃ¤gg": 4651,
      "Ġhuden": 4652,
      "ĠÃ¤mnen": 4653,
      "Ġrisken": 4654,
      "Ġvinn": 4655,
      "sÃ¤g": 4656,
      "ĠSal": 4657,
      "rallt": 4658,
      "old": 4659,
      "Ġstats": 4660,
      "barn": 4661,
      "Ġjakt": 4662,
      "Ġoptim": 4663,
      "illkor": 4664,
      "yser": 4665,
      "ĠbestÃ¤mt": 4666,
      "ĠVissa": 4667,
      "bruk": 4668,
      "Ġqu": 4669,
      "Ġgjor": 4670,
      "xt": 4671,
      "yggen": 4672,
      "enskt": 4673,
      "Ġfrisk": 4674,
      "Ġarbetsplats": 4675,
      "oth": 4676,
      "risk": 4677,
      "Ġdiskuter": 4678,
      "ĠupprÃ¤tt": 4679,
      "issa": 4680,
      "ĠYork": 4681,
      "Ġregn": 4682,
      "Ġenerg": 4683,
      "resa": 4684,
      "ĠÃ¤gare": 4685,
      "TV": 4686,
      "Â¤": 4687,
      "Ġsyns": 4688,
      "ktor": 4689,
      "komma": 4690,
      "ĠMartin": 4691,
      "Ġperspektiv": 4692,
      "Ġbibli": 4693,
      "bi": 4694,
      "ĠiP": 4695,
      "ĠJohn": 4696,
      "ĠBa": 4697,
      "ĠGl": 4698,
      "Ġenklare": 4699,
      "ĠDam": 4700,
      "vi": 4701,
      "gg": 4702,
      "ĠstrÃ¤": 4703,
      "Ġskilj": 4704,
      "spelare": 4705,
      "Ġrekommenderar": 4706,
      "Ġladd": 4707,
      "ationellt": 4708,
      "ĠbjÃ": 4709,
      "ĠFVOF": 4710,
      "Ġprofession": 4711,
      "AG": 4712,
      "Ġstig": 4713,
      "kret": 4714,
      "platser": 4715,
      "ĠtillvÃ¤xt": 4716,
      "mel": 4717,
      "Ġfinansier": 4718,
      "Ġordentligt": 4719,
      "hi": 4720,
      "rit": 4721,
      "vas": 4722,
      "Ġbete": 4723,
      "Ġbrist": 4724,
      "stÃ¥ndet": 4725,
      "ĠTyvÃ¤rr": 4726,
      "Ġsorter": 4727,
      "ĠaktÃ": 4728,
      "ĠGoogle": 4729,
      "bilder": 4730,
      "Ġuppen": 4731,
      "Ġintens": 4732,
      "ĠLad": 4733,
      "ĠsamhÃ¤lle": 4734,
      "ĠVisst": 4735,
      "ĠFre": 4736,
      "ĠSil": 4737,
      "Ã¤ft": 4738,
      "ĠbestÃ¤ll": 4739,
      "fiken": 4740,
      "Ġstanna": 4741,
      "Ġsnarare": 4742,
      "ĠOnline": 4743,
      "Ġutomhus": 4744,
      "ulla": 4745,
      "fel": 4746,
      "ĠAb": 4747,
      "Ġbatt": 4748,
      "ĠÃ¥tminstone": 4749,
      "riÃ¤r": 4750,
      "ĠbehÃ¥ll": 4751,
      "Ġsammanhang": 4752,
      "ema": 4753,
      "ĠCity": 4754,
      "ĠGro": 4755,
      "Ġrestauranger": 4756,
      "mÃ¤nt": 4757,
      "ycke": 4758,
      "ĠNÃ¤sta": 4759,
      "ream": 4760,
      "ĠInga": 4761,
      "sorg": 4762,
      "rg": 4763,
      "indows": 4764,
      "ektion": 4765,
      "ĠLondon": 4766,
      "ĠIs": 4767,
      "fik": 4768,
      "Ġvand": 4769,
      "Tack": 4770,
      "dern": 4771,
      "Ġfunktioner": 4772,
      "ĠinlÃ¤gget": 4773,
      "Ġchansen": 4774,
      "ĠGod": 4775,
      "Ġkapital": 4776,
      "derat": 4777,
      "rning": 4778,
      "ĠHade": 4779,
      "Ġvalet": 4780,
      "god": 4781,
      "ĠvÃ¤rlds": 4782,
      "ulÃ¤r": 4783,
      "delningen": 4784,
      "Ġuttal": 4785,
      "uta": 4786,
      "pas": 4787,
      "ĠMus": 4788,
      "ĠGun": 4789,
      "ĠTot": 4790,
      "ĠRum": 4791,
      "trepren": 4792,
      "ĠmÃ¤t": 4793,
      "Ġmorgonen": 4794,
      "Ġkalla": 4795,
      "ĠmÃ¥tt": 4796,
      "hÃ¥lla": 4797,
      "Ġyr": 4798,
      "rÃ¤de": 4799,
      "rarna": 4800,
      "ĠÃħlder": 4801,
      "RA": 4802,
      "ĠVem": 4803,
      "ĠstÃ¤lle": 4804,
      "Ġbidrar": 4805,
      "Ġindustri": 4806,
      "sor": 4807,
      "ĠanvÃ¤ndare": 4808,
      "ĠSkulle": 4809,
      "Ġledare": 4810,
      "Ġbilj": 4811,
      "ands": 4812,
      "ĠAlex": 4813,
      "Ġskada": 4814,
      "ĠÃ¤ger": 4815,
      "ningst": 4816,
      "ĠHo": 4817,
      "ĠQu": 4818,
      "Ġslags": 4819,
      "fest": 4820,
      "ĠDaniel": 4821,
      "ax": 4822,
      "Ġwebbplatser": 4823,
      "ĠAc": 4824,
      "ĠvÃ¤rt": 4825,
      "Ġseger": 4826,
      "ĠHÃ¤l": 4827,
      "Ġkem": 4828,
      "indra": 4829,
      "oom": 4830,
      "rmÃ¥n": 4831,
      "Ġtyst": 4832,
      "dens": 4833,
      "icro": 4834,
      "Ġstrax": 4835,
      "varo": 4836,
      "Ġrim": 4837,
      "Ġgrupper": 4838,
      "OmdÃ": 4839,
      "Ġoer": 4840,
      "istan": 4841,
      "sbe": 4842,
      "Ja": 4843,
      "ool": 4844,
      "ĠAktie": 4845,
      "Ġfilmer": 4846,
      "ĠvarumÃ¤rken": 4847,
      "mÃ¤kt": 4848,
      "smÃ¥l": 4849,
      "Ġinrikt": 4850,
      "Ġfrakt": 4851,
      "Ġsent": 4852,
      "etten": 4853,
      "Ġvetenskap": 4854,
      "ĠutgÃ¥ng": 4855,
      "bler": 4856,
      "ĠDal": 4857,
      "Ġundant": 4858,
      "ĠhÃ¤rligt": 4859,
      "Ġmening": 4860,
      "ĠfÃ¥g": 4861,
      "Ġkollektiv": 4862,
      "Ġundan": 4863,
      "verens": 4864,
      "Ġslutade": 4865,
      "tjÃ¤nst": 4866,
      "ĠstÃ¤der": 4867,
      "Ġstuden": 4868,
      "Ġinnov": 4869,
      "gu": 4870,
      "Ġtala": 4871,
      "Ġbutiker": 4872,
      "Ġtillhanda": 4873,
      "Ġref": 4874,
      "Ġlyx": 4875,
      "ĠSuper": 4876,
      "Ġskyld": 4877,
      "Ġupplevelse": 4878,
      "Ġlyckats": 4879,
      "Ã¥nd": 4880,
      "Ġdefinit": 4881,
      "Ġerk": 4882,
      "ĠNilsson": 4883,
      "ius": 4884,
      "anken": 4885,
      "projekt": 4886,
      "Ġanl": 4887,
      "Ġbefolk": 4888,
      "vÃ¤rde": 4889,
      "IT": 4890,
      "ĠâĨĴ": 4891,
      "Ġtunn": 4892,
      "Ġdebatt": 4893,
      "Ġsnabba": 4894,
      "ĠhÃ¤ns": 4895,
      "Ġent": 4896,
      "ffekt": 4897,
      "mon": 4898,
      "sel": 4899,
      "Ġamb": 4900,
      "Ġfabrik": 4901,
      "Ġkille": 4902,
      "les": 4903,
      "ĠstrÃ¥": 4904,
      "film": 4905,
      "OL": 4906,
      "vÃ¥rden": 4907,
      "rsikt": 4908,
      "Ġinfo": 4909,
      "Ġsocker": 4910,
      "Ġomfattande": 4911,
      "ĠhÃ¤mta": 4912,
      "nare": 4913,
      "Ġpositivt": 4914,
      "onen": 4915,
      "ĠsvÃ¤ng": 4916,
      "ĠallmÃ¤nna": 4917,
      "ĠtillfÃ¤lle": 4918,
      "ĠhÃ¥l": 4919,
      "Ġproblemet": 4920,
      "Ġbotten": 4921,
      "Ġteam": 4922,
      "bilar": 4923,
      "ls": 4924,
      "Ġpolitiker": 4925,
      "ĠhÃ¤lso": 4926,
      "yrÃ¥": 4927,
      "Ġbod": 4928,
      "Ġkampan": 4929,
      "UN": 4930,
      "linjer": 4931,
      "stolen": 4932,
      "fyll": 4933,
      "troll": 4934,
      "ĠjÃ¤tte": 4935,
      "Ġmodeller": 4936,
      "Ġhyr": 4937,
      "ĠRewardsFÃ¥": 4938,
      "Ã¤nderna": 4939,
      "Ġorigin": 4940,
      "pac": 4941,
      "ĠPublic": 4942,
      "Ġlugnt": 4943,
      "Ã¤dret": 4944,
      "Ġpersonlig": 4945,
      "ĠSkriv": 4946,
      "rren": 4947,
      "start": 4948,
      "ĠvÃ¤rd": 4949,
      "retagen": 4950,
      "vatten": 4951,
      "Ġinformationen": 4952,
      "Ġtecken": 4953,
      "Ġov": 4954,
      "ĠsÃ¤mre": 4955,
      "Ġsnabbare": 4956,
      "ĠInt": 4957,
      "vand": 4958,
      "OS": 4959,
      "har": 4960,
      "ose": 4961,
      "Ġsnygga": 4962,
      "Ġvari": 4963,
      "ĠFÃ¥": 4964,
      "dda": 4965,
      "Ġyou": 4966,
      "Ġbjuder": 4967,
      "Ġbeskriver": 4968,
      "ĠofÃ": 4969,
      "Ġvardags": 4970,
      "ĠersÃ¤ttning": 4971,
      "lov": 4972,
      "Ġgill": 4973,
      "ĠStefan": 4974,
      "Ġlopp": 4975,
      "Ġparti": 4976,
      "skat": 4977,
      "Ġseg": 4978,
      "Ġmotsvarande": 4979,
      "jobb": 4980,
      "Ġfing": 4981,
      "ĠFÃĸR": 4982,
      "Ġflykt": 4983,
      "sut": 4984,
      "ĠCasino": 4985,
      "Ġringa": 4986,
      "ĠutvÃ¤r": 4987,
      "ĠsÃ¤kra": 4988,
      "uft": 4989,
      "ĠLiv": 4990,
      "ĠDanmark": 4991,
      "Ġdigitala": 4992,
      "ĠLed": 4993,
      "ĠÌ": 4994,
      "Ġfyller": 4995,
      "rsen": 4996,
      "ĠTel": 4997,
      "ycks": 4998,
      "gonen": 4999,
      "Ġpotent": 5000,
      "Ġoffic": 5001,
      "ĠGar": 5002,
      "sd": 5003,
      "slÃ¤pp": 5004,
      "rutsÃ¤ttning": 5005,
      "visa": 5006,
      "ĠSVT": 5007,
      "Ġgemensamma": 5008,
      "rib": 5009,
      "verra": 5010,
      "Ġyngre": 5011,
      "Ġkonsekvens": 5012,
      "upport": 5013,
      "ssan": 5014,
      "ĠberÃ¤ttade": 5015,
      "central": 5016,
      "Ġdrift": 5017,
      "angen": 5018,
      "demokraterna": 5019,
      "staden": 5020,
      "usten": 5021,
      "ĠstÃ¤ndigt": 5022,
      "Ġavgift": 5023,
      "Ġrenover": 5024,
      "Ġmoderna": 5025,
      "cer": 5026,
      "ĠslÃ¥r": 5027,
      "vre": 5028,
      "fulla": 5029,
      "Ġout": 5030,
      "Ġstick": 5031,
      "Ġcit": 5032,
      "Ġkram": 5033,
      "rikes": 5034,
      "Ġilla": 5035,
      "ĠKram": 5036,
      "ĠomÃ": 5037,
      "Ġhuvudsak": 5038,
      "rstÃ": 5039,
      "umm": 5040,
      "ĠLÃ¤r": 5041,
      "Ġmagen": 5042,
      "oster": 5043,
      "Ġtider": 5044,
      "usin": 5045,
      "ĠbekrÃ¤ft": 5046,
      "ĠfÃ¤rdig": 5047,
      "ĠoerhÃ": 5048,
      "anvÃ¤nd": 5049,
      "Ġstads": 5050,
      "anna": 5051,
      "ĠÃħter": 5052,
      "Ġminns": 5053,
      "ĠÃ¤t": 5054,
      "Ġkilometer": 5055,
      "sked": 5056,
      "rick": 5057,
      "Ġvackert": 5058,
      "Ġstycken": 5059,
      "Ġgruppen": 5060,
      "Ġuttryck": 5061,
      "ĠVÃ¤n": 5062,
      "ĠRom": 5063,
      "Ġera": 5064,
      "ĠLag": 5065,
      "aktion": 5066,
      "jung": 5067,
      "Ġax": 5068,
      "ea": 5069,
      "ĠKn": 5070,
      "omrÃ¥den": 5071,
      "Ġkarta": 5072,
      "ĠinvÃ¥n": 5073,
      "Ġskratt": 5074,
      "Ġgivetvis": 5075,
      "Ġflex": 5076,
      "ht": 5077,
      "Ã¤vle": 5078,
      "bladet": 5079,
      "Ġrespekt": 5080,
      "ĠIP": 5081,
      "jag": 5082,
      "ĠsvÃ¥ra": 5083,
      "dvÃ¤ndigt": 5084,
      "ira": 5085,
      "ĠstrÃ¤ck": 5086,
      "Ġhast": 5087,
      "ĠglÃ¤dje": 5088,
      "go": 5089,
      "Ġbom": 5090,
      "Ġnack": 5091,
      "ĠpÃ¥gÃ¥r": 5092,
      "ĠidÃ©er": 5093,
      "Ġinkomst": 5094,
      "ĠVÃ¤x": 5095,
      "ppnar": 5096,
      "jande": 5097,
      "ĠDejting": 5098,
      "ĠRyss": 5099,
      "ĠTripAd": 5100,
      "ĠStÃ": 5101,
      "Ġlivsmedel": 5102,
      "ĠNo": 5103,
      "ĠGÃ¥": 5104,
      "ĠvÃ¥": 5105,
      "Ġjuster": 5106,
      "ĠJÃ¤mfÃ": 5107,
      "Ġnytta": 5108,
      "bolaget": 5109,
      "material": 5110,
      "Ġsepar": 5111,
      "ĠRad": 5112,
      "iff": 5113,
      "Ġresurser": 5114,
      "Ġrapport": 5115,
      "ĠMich": 5116,
      "ĠbegÃ¤r": 5117,
      "verl": 5118,
      "ĠBak": 5119,
      "ĠAndre": 5120,
      "Ġhundar": 5121,
      "ĠDes": 5122,
      "iam": 5123,
      "nabb": 5124,
      "anien": 5125,
      "Ġkyrkan": 5126,
      "Ġsystemet": 5127,
      "Ġcom": 5128,
      "ĠKvinn": 5129,
      "Ġinsats": 5130,
      "Ġstartade": 5131,
      "Ġveg": 5132,
      "ĠsÃ¥nt": 5133,
      "Ã¤sch": 5134,
      "atet": 5135,
      "Ġenskilda": 5136,
      "Ġavgifter": 5137,
      "Ġkonstigt": 5138,
      "rslaget": 5139,
      "system": 5140,
      "Ġbefinner": 5141,
      "tiden": 5142,
      "Ġrelation": 5143,
      "Ġletar": 5144,
      "ĠgrÃ¥": 5145,
      "ĠVan": 5146,
      "ĠDÃ¤remot": 5147,
      "sprocess": 5148,
      "ĠmotstÃ¥nd": 5149,
      "pr": 5150,
      "itekt": 5151,
      "ĠSkol": 5152,
      "Ġvarken": 5153,
      "lipp": 5154,
      "Ġfris": 5155,
      "bund": 5156,
      "Ġhittills": 5157,
      "vÃ¤rlden": 5158,
      "rass": 5159,
      "Ġkunskaper": 5160,
      "sid": 5161,
      "Ġvuxen": 5162,
      "jukdom": 5163,
      "rdelar": 5164,
      "itann": 5165,
      "Ġtiteln": 5166,
      "Ġpriserna": 5167,
      "ader": 5168,
      "Ġserien": 5169,
      "skyd": 5170,
      "Ġklipp": 5171,
      "Ġskogen": 5172,
      "AB": 5173,
      "fe": 5174,
      "PP": 5175,
      "undersÃ": 5176,
      "ĠkÃ¤nslor": 5177,
      "Ġblommor": 5178,
      "Ġeleverna": 5179,
      "Ġkyrk": 5180,
      "fisk": 5181,
      "ockey": 5182,
      "ĠPass": 5183,
      "Ġspen": 5184,
      "Ġinspiration": 5185,
      "pande": 5186,
      "skl": 5187,
      "ĠblÃ": 5188,
      "tr": 5189,
      "Ġtydlig": 5190,
      "Ġperioden": 5191,
      "Ġnyheter": 5192,
      "isten": 5193,
      "beroende": 5194,
      "ega": 5195,
      "Ġbur": 5196,
      "service": 5197,
      "Ġsvarar": 5198,
      "Ġmedia": 5199,
      "gick": 5200,
      "vt": 5201,
      "Ġskit": 5202,
      "ĠfjÃ¤rde": 5203,
      "ĠhÃ¤nsyn": 5204,
      "ĠStat": 5205,
      "Ġmassage": 5206,
      "Ġminskar": 5207,
      "ssystem": 5208,
      "Ġskiv": 5209,
      "Ġpool": 5210,
      "gskol": 5211,
      "vÃ¥rds": 5212,
      "Ġsty": 5213,
      "Ġmaten": 5214,
      "ics": 5215,
      "AND": 5216,
      "Ġsortiment": 5217,
      "ior": 5218,
      "erats": 5219,
      "burg": 5220,
      "Ġhamnar": 5221,
      "Ġstartar": 5222,
      "gas": 5223,
      "yndigheten": 5224,
      "olut": 5225,
      "SE": 5226,
      "bon": 5227,
      "britann": 5228,
      "ĠModer": 5229,
      "Ġpersonen": 5230,
      "ĠavslÃ": 5231,
      "ollar": 5232,
      "ĠflÃ": 5233,
      "Ġtyg": 5234,
      "ĠHelsingborg": 5235,
      "ĠEner": 5236,
      "ĠtrÃ¤dgÃ¥rd": 5237,
      "mmar": 5238,
      "regÃ¥ende": 5239,
      "Ġdriver": 5240,
      "ĠtÃ¤nk": 5241,
      "Ġtoppen": 5242,
      "struktur": 5243,
      "Ġwebbplatsen": 5244,
      "ĠFrankrike": 5245,
      "Ġpriori": 5246,
      "kod": 5247,
      "ĠgrundlÃ¤ggande": 5248,
      "edda": 5249,
      "vertyg": 5250,
      "ĠDavid": 5251,
      "Ġfylla": 5252,
      "arv": 5253,
      "Ġprivata": 5254,
      "bru": 5255,
      "Ġmetoder": 5256,
      "ĠParis": 5257,
      "Ġfunnits": 5258,
      "do": 5259,
      "ĠLinkÃ": 5260,
      "ĠDagens": 5261,
      "ekan": 5262,
      "Ġerfarenheter": 5263,
      "vic": 5264,
      "ĠPla": 5265,
      "Ġdubbel": 5266,
      "Ġpedagog": 5267,
      "centr": 5268,
      "deringar": 5269,
      "sterna": 5270,
      "ĠÃ¤nda": 5271,
      "iell": 5272,
      "ĠInnan": 5273,
      "ĠÃħr": 5274,
      "ĠNÃ¥gon": 5275,
      "wa": 5276,
      "Ġog": 5277,
      "ners": 5278,
      "besÃ": 5279,
      "oritet": 5280,
      "ĠseriÃ": 5281,
      "Ġmuse": 5282,
      "gress": 5283,
      "Ġserie": 5284,
      "Ġframtida": 5285,
      "Ġtekniska": 5286,
      "ĠikvÃ¤ll": 5287,
      "Ġminim": 5288,
      "Ġkombination": 5289,
      "itiativ": 5290,
      "juka": 5291,
      "ĠVerk": 5292,
      "relsen": 5293,
      "Ġgrad": 5294,
      "ence": 5295,
      "ĠUmeÃ¥": 5296,
      "ĠjÃ¤v": 5297,
      "gÃ¥rds": 5298,
      "Ġalbum": 5299,
      "Ġnationella": 5300,
      "ĠlÃ¥ngsikt": 5301,
      "ĠCa": 5302,
      "Ġorganisationer": 5303,
      "Ġaktiv": 5304,
      "Ġexkl": 5305,
      "Ġsvarta": 5306,
      "ologisk": 5307,
      "sland": 5308,
      "Ġomsorg": 5309,
      "Ġstrid": 5310,
      "ĠKultur": 5311,
      "Ġsvarade": 5312,
      "ĠMina": 5313,
      "Ġbilderna": 5314,
      "IL": 5315,
      "Ġunderbara": 5316,
      "fullt": 5317,
      "oker": 5318,
      "ckade": 5319,
      "ĠkÃ¤nt": 5320,
      "Ġsyss": 5321,
      "Ã¤llen": 5322,
      "ĠTw": 5323,
      "Ã¤mpa": 5324,
      "Ġomedelbart": 5325,
      "Ġkg": 5326,
      "Ġgolv": 5327,
      "Ġkorta": 5328,
      "nars": 5329,
      "mant": 5330,
      "Ġmilit": 5331,
      "ĠMag": 5332,
      "ase": 5333,
      "ĠfÃ¤ng": 5334,
      "ĠSlut": 5335,
      "Ġresan": 5336,
      "rpack": 5337,
      "Ġutfor": 5338,
      "ĠFÃ¥r": 5339,
      "ĠPart": 5340,
      "ng": 5341,
      "Ġmotiver": 5342,
      "Ġglada": 5343,
      "ikat": 5344,
      "ĠnÃ¤rvarande": 5345,
      "ahl": 5346,
      "intress": 5347,
      "ĠtillgÃ¤nglig": 5348,
      "Ġexp": 5349,
      "Ġhyll": 5350,
      "Ġrekry": 5351,
      "Ġhyra": 5352,
      "ĠMil": 5353,
      "Ġkonferens": 5354,
      "onom": 5355,
      "Ġenorm": 5356,
      "fart": 5357,
      "Ġaktivt": 5358,
      "punkter": 5359,
      "sund": 5360,
      "Ġpositiv": 5361,
      "Ġfukt": 5362,
      "Ġtapp": 5363,
      "miljÃ": 5364,
      "ĠNÃ¥got": 5365,
      "Ġkostnads": 5366,
      "resultat": 5367,
      "ĠlÃ¥gt": 5368,
      "dustrin": 5369,
      "skt": 5370,
      "Ġkop": 5371,
      "Ġjobbat": 5372,
      "Ġforum": 5373,
      "egori": 5374,
      "ked": 5375,
      "ĠPort": 5376,
      "Ġkontin": 5377,
      "ĠhÃ¤rliga": 5378,
      "schef": 5379,
      "Ġsla": 5380,
      "ĠII": 5381,
      "Ã¤ltet": 5382,
      "Ġredo": 5383,
      "aner": 5384,
      "ĠOrd": 5385,
      "andid": 5386,
      "ĠinkÃ": 5387,
      "Ġrid": 5388,
      "meddel": 5389,
      "Ġvap": 5390,
      "Ġklin": 5391,
      "fort": 5392,
      "yper": 5393,
      "ĠUng": 5394,
      "Ġmetod": 5395,
      "Ġpositiva": 5396,
      "Ġherr": 5397,
      "delsen": 5398,
      "valda": 5399,
      "ĠhÃ¥ret": 5400,
      "Ġappar": 5401,
      "gÃ¥ngar": 5402,
      "Ġwith": 5403,
      "Ġeffektivt": 5404,
      "eda": 5405,
      "Ã¤kter": 5406,
      "ĠStyr": 5407,
      "Ġfixa": 5408,
      "rkÃ": 5409,
      "Ġrakt": 5410,
      "ĠVilket": 5411,
      "Ġerbjuds": 5412,
      "Ġkompis": 5413,
      "tom": 5414,
      "ĠProjekt": 5415,
      "Ġunderbar": 5416,
      "Ġverifierade": 5417,
      "Ã¤kare": 5418,
      "Ġsymbol": 5419,
      "svall": 5420,
      "ĠEle": 5421,
      "nsam": 5422,
      "Ġkak": 5423,
      "elat": 5424,
      "versikt": 5425,
      "ĠlÃ¤mnade": 5426,
      "Ġavseende": 5427,
      "ĠNyheter": 5428,
      "ĠpopulÃ¤r": 5429,
      "Ġunika": 5430,
      "dal": 5431,
      "ĠframgÃ¥ngs": 5432,
      "ĠrÃ¤kna": 5433,
      "ĠTer": 5434,
      "Ġspringa": 5435,
      "rand": 5436,
      "okal": 5437,
      "Ġgal": 5438,
      "ĠÃ¤vent": 5439,
      "Ġavanc": 5440,
      "ĠTrans": 5441,
      "Ġnaturen": 5442,
      "vningar": 5443,
      "Ã¤ttning": 5444,
      "ĠmÃ¥naden": 5445,
      "Ġmikro": 5446,
      "uer": 5447,
      "Ġkallar": 5448,
      "isering": 5449,
      "Ġordet": 5450,
      "ĠSten": 5451,
      "atch": 5452,
      "Ġtycka": 5453,
      "nor": 5454,
      "Ġverksamheter": 5455,
      "Ġinsatser": 5456,
      "saker": 5457,
      "Ġrepresent": 5458,
      "ĠRegion": 5459,
      "Ġbefint": 5460,
      "ĠvÃ¤xa": 5461,
      "Ã¥rs": 5462,
      "ĠKost": 5463,
      "ĠPe": 5464,
      "rval": 5465,
      "Ġformer": 5466,
      "Ġorsa": 5467,
      "Ġinstitut": 5468,
      "anal": 5469,
      "Ġtillb": 5470,
      "Ġbu": 5471,
      "Ġtorsdag": 5472,
      "ffektiv": 5473,
      "ĠPet": 5474,
      "ĠHela": 5475,
      "ĠÌģ": 5476,
      "ningens": 5477,
      "ĠGrÃ": 5478,
      "ĠTekn": 5479,
      "ĠmÃ¤ngder": 5480,
      "entals": 5481,
      "ĠkaraktÃ¤r": 5482,
      "stall": 5483,
      "aterna": 5484,
      "ĠUtan": 5485,
      "ĠBel": 5486,
      "riga": 5487,
      "ĠFlera": 5488,
      "rts": 5489,
      "Ġsand": 5490,
      "ĠWindows": 5491,
      "rodu": 5492,
      "skost": 5493,
      "lim": 5494,
      "ĠsÃ¤ngen": 5495,
      "edia": 5496,
      "skort": 5497,
      "tion": 5498,
      "ĠDjur": 5499,
      "Ġarrang": 5500,
      "ĠbesvÃ¤r": 5501,
      "ĠHenrik": 5502,
      "Ġcon": 5503,
      "funktion": 5504,
      "otta": 5505,
      "Ã¤cken": 5506,
      "pings": 5507,
      "Ġledam": 5508,
      "Ġskrift": 5509,
      "imul": 5510,
      "lÃ¤ggningar": 5511,
      "Ġsalt": 5512,
      "Re": 5513,
      "Ã¤nna": 5514,
      "Ġkok": 5515,
      "Ġtol": 5516,
      "ĠtillfÃ¤llen": 5517,
      "iber": 5518,
      "lista": 5519,
      "udd": 5520,
      "rerna": 5521,
      "Ġberg": 5522,
      "teborgs": 5523,
      "ĠRik": 5524,
      "Ġhandling": 5525,
      "cy": 5526,
      "varor": 5527,
      "Ġunderbart": 5528,
      "ance": 5529,
      "miÃ¤r": 5530,
      "Ġvd": 5531,
      "ĠBlack": 5532,
      "Ġeventuella": 5533,
      "ness": 5534,
      "Ġskjut": 5535,
      "Ã¤ngen": 5536,
      "hund": 5537,
      "ĠBu": 5538,
      "Ġutst": 5539,
      "Ġwh": 5540,
      "olja": 5541,
      "ĠtillfÃ": 5542,
      "Ġmal": 5543,
      "utera": 5544,
      "ony": 5545,
      "naderna": 5546,
      "umma": 5547,
      "grupper": 5548,
      "ene": 5549,
      "Ġundantag": 5550,
      "ĠGÃ¤vle": 5551,
      "Ã¤rta": 5552,
      "ĠJonas": 5553,
      "ytande": 5554,
      "ĠlÃ¥ga": 5555,
      "remÃ¥l": 5556,
      "ĠDN": 5557,
      "ĠbostÃ¤der": 5558,
      "ftar": 5559,
      "Ġsituationen": 5560,
      "Ġledar": 5561,
      "ĠTripAdvisor": 5562,
      "britannien": 5563,
      "any": 5564,
      "ĠUtbild": 5565,
      "Ġvaror": 5566,
      "Ġmotsvar": 5567,
      "Ġextremt": 5568,
      "skad": 5569,
      "Ġrub": 5570,
      "Ġmol": 5571,
      "ĠAktiebolag": 5572,
      "olvet": 5573,
      "Ġskid": 5574,
      "ĠgrÃ¤s": 5575,
      "Ġtotal": 5576,
      "ynt": 5577,
      "ĠUppdat": 5578,
      "Ġop": 5579,
      "ĠpÃ¥bÃ": 5580,
      "spolit": 5581,
      "ĠItalien": 5582,
      "Ġupplever": 5583,
      "Ġskickar": 5584,
      "byggnad": 5585,
      "Ġdiagn": 5586,
      "Ġentrepren": 5587,
      "ĠVM": 5588,
      "ĠCol": 5589,
      "Sk": 5590,
      "iller": 5591,
      "ĠAp": 5592,
      "Ġskador": 5593,
      "Ġklassiska": 5594,
      "Ġarbetat": 5595,
      "Ġmom": 5596,
      "Ġaf": 5597,
      "Ġgift": 5598,
      "mannen": 5599,
      "ĠStora": 5600,
      "ĠNa": 5601,
      "elserna": 5602,
      "Ġkrist": 5603,
      "Ġarbetsmark": 5604,
      "emÃ¥l": 5605,
      "rim": 5606,
      "box": 5607,
      "venemang": 5608,
      "Ġbillig": 5609,
      "ĠHelt": 5610,
      "amÃ¥l": 5611,
      "Ġintressanta": 5612,
      "Ġjorden": 5613,
      "Ġgrunden": 5614,
      "Ġfika": 5615,
      "ledes": 5616,
      "stÃ¤ndigt": 5617,
      "ĠVÃ¥rt": 5618,
      "ission": 5619,
      "ĠslÃ¤ng": 5620,
      "Ġaktier": 5621,
      "lades": 5622,
      "slan": 5623,
      "shop": 5624,
      "ĠInst": 5625,
      "Ġuppfy": 5626,
      "Ġegenskaper": 5627,
      "Ġprodukten": 5628,
      "istisk": 5629,
      "Ġsyd": 5630,
      "Ġslutar": 5631,
      "Ġnere": 5632,
      "Ġvarav": 5633,
      "Ġartikeln": 5634,
      "ssons": 5635,
      "Ġgud": 5636,
      "tok": 5637,
      "kten": 5638,
      "Ġgrym": 5639,
      "hal": 5640,
      "pning": 5641,
      "sken": 5642,
      "spris": 5643,
      "ĠAnt": 5644,
      "Ġuppleva": 5645,
      "sport": 5646,
      "Ġbetrakt": 5647,
      "ĠKommer": 5648,
      "ĠlÃ¤nk": 5649,
      "Ġtidningen": 5650,
      "ĠKoll": 5651,
      "upplev": 5652,
      "Ġna": 5653,
      "information": 5654,
      "rhoppningsvis": 5655,
      "ĠBir": 5656,
      "bra": 5657,
      "Ġskull": 5658,
      "ĠMagnus": 5659,
      "US": 5660,
      "Ġsmitt": 5661,
      "Ġdriva": 5662,
      "ordning": 5663,
      "Ġrund": 5664,
      "ugga": 5665,
      "Ġskydda": 5666,
      "Ġinre": 5667,
      "inarie": 5668,
      "Ġsamla": 5669,
      "Ġbedriv": 5670,
      "erare": 5671,
      "kass": 5672,
      "unk": 5673,
      "ĠStar": 5674,
      "ĠlÃ¤ste": 5675,
      "Ġskolor": 5676,
      "pool": 5677,
      "histor": 5678,
      "Ġartiklar": 5679,
      "Ġelektron": 5680,
      "ĠRestaur": 5681,
      "mus": 5682,
      "relser": 5683,
      "Ġskil": 5684,
      "Ġstrand": 5685,
      "ĠSof": 5686,
      "ĠvÃ¤nda": 5687,
      "kadem": 5688,
      "inter": 5689,
      "Ġpdf": 5690,
      "ĠBÃ¥de": 5691,
      "ĠstÃ¤llning": 5692,
      "Ġnorr": 5693,
      "dÃ¥": 5694,
      "Ġpatient": 5695,
      "itel": 5696,
      "ĠstÃ¤llen": 5697,
      "cc": 5698,
      "Ġhall": 5699,
      "Ġtanken": 5700,
      "ektor": 5701,
      "inen": 5702,
      "ĠtÃ": 5703,
      "amer": 5704,
      "ĠMika": 5705,
      "isera": 5706,
      "Ġresor": 5707,
      "Ġkamer": 5708,
      "CA": 5709,
      "Ġriktiga": 5710,
      "ĠKron": 5711,
      "Ġstyrelsen": 5712,
      "Ġvila": 5713,
      "byte": 5714,
      "ĠEg": 5715,
      "Ġonsdag": 5716,
      "rvaring": 5717,
      "produkter": 5718,
      "Ġuppl": 5719,
      "ĠRÃ¤tt": 5720,
      "xor": 5721,
      "rÃ¥ket": 5722,
      "Ġnio": 5723,
      "jas": 5724,
      "ĠVÃ¤stra": 5725,
      "Ġoffentlig": 5726,
      "ĠhÃ¤nde": 5727,
      "Ġdos": 5728,
      "ino": 5729,
      "Ġvintern": 5730,
      "Ġgranskar": 5731,
      "Ġdricka": 5732,
      "Ġoffentliga": 5733,
      "ĠhÃ¤lften": 5734,
      "Ġhundra": 5735,
      "ĠInom": 5736,
      "Ġkvalit": 5737,
      "Ġutrymme": 5738,
      "yter": 5739,
      "Ġoriginalet": 5740,
      "Ġlive": 5741,
      "ĠnÃ¥r": 5742,
      "Ġhunnit": 5743,
      "ley": 5744,
      "Ġklubben": 5745,
      "ual": 5746,
      "ĠEr": 5747,
      "ikal": 5748,
      "Ġstaten": 5749,
      "ĠhushÃ¥ll": 5750,
      "Ġtydligen": 5751,
      "Ġaut": 5752,
      "Â¥": 5753,
      "Ġnyckel": 5754,
      "ĠOff": 5755,
      "Ã¤vling": 5756,
      "kall": 5757,
      "Ġsjukt": 5758,
      "skrifter": 5759,
      "stÃ¤llda": 5760,
      "skrift": 5761,
      "betalning": 5762,
      "Ġiaf": 5763,
      "usentals": 5764,
      "Ġlitter": 5765,
      "pade": 5766,
      "kul": 5767,
      "Ġtaget": 5768,
      "ĠWh": 5769,
      "ĠTillvÃ¤xt": 5770,
      "ingarna": 5771,
      "Ġskickas": 5772,
      "Ġdesto": 5773,
      "ĠDo": 5774,
      "ĠAs": 5775,
      "Ã¤nnen": 5776,
      "ĠtillÃ¤gg": 5777,
      "ĠuppmÃ¤rksam": 5778,
      "rument": 5779,
      "ĠfrÃ": 5780,
      "ĠhjÃ¤rta": 5781,
      "ange": 5782,
      "ĠkÃ¤nslan": 5783,
      "ĠtÃ¥r": 5784,
      "Ġversion": 5785,
      "ĠstÃ¥l": 5786,
      "Ġrosa": 5787,
      "ĠBad": 5788,
      "Ġjobbigt": 5789,
      "bank": 5790,
      "ĠRyssland": 5791,
      "spol": 5792,
      "Ġrolig": 5793,
      "Ġstranden": 5794,
      "Ġfaktum": 5795,
      "stud": 5796,
      "ii": 5797,
      "ĠvÃ¤lkommen": 5798,
      "Ġsinglar": 5799,
      "Ġrese": 5800,
      "Ġnoggr": 5801,
      "EM": 5802,
      "Ġox": 5803,
      "onder": 5804,
      "hall": 5805,
      "Ġsven": 5806,
      "ĠarbetslÃ": 5807,
      "Ġorkar": 5808,
      "ĠÃ¥l": 5809,
      "Ġnaturligt": 5810,
      "Ġvinner": 5811,
      "versÃ¤ttningar": 5812,
      "Ġforskare": 5813,
      "ĠSara": 5814,
      "reningar": 5815,
      "ĠanvÃ¤n": 5816,
      "ĠsmÃ¤rt": 5817,
      "ranger": 5818,
      "KT": 5819,
      "rklara": 5820,
      "Ġgrann": 5821,
      "Ġhinner": 5822,
      "steg": 5823,
      "ĠEva": 5824,
      "ĠtjÃ¤nsten": 5825,
      "Ã¥riga": 5826,
      "pot": 5827,
      "ĠKalmar": 5828,
      "ĠrÃ¤": 5829,
      "Ġpersonuppgifter": 5830,
      "Ġgif": 5831,
      "ĠSD": 5832,
      "ĠTra": 5833,
      "ano": 5834,
      "Ġspelat": 5835,
      "ĠIS": 5836,
      "Ġdeltagare": 5837,
      "liv": 5838,
      "Ġmyndigheter": 5839,
      "ĠAt": 5840,
      "produktion": 5841,
      "Ġkontrollera": 5842,
      "Ġaktiva": 5843,
      "sper": 5844,
      "ĠLog": 5845,
      "ĠHÃ¥ll": 5846,
      "entil": 5847,
      "ĠNet": 5848,
      "ĠfÃ¥ng": 5849,
      "Ġdefinitivt": 5850,
      "karna": 5851,
      "ĠMad": 5852,
      "ĠJack": 5853,
      "Ġdram": 5854,
      "Ġengagemang": 5855,
      "ĠSpeci": 5856,
      "ĠAnnars": 5857,
      "Ġuppman": 5858,
      "tokoll": 5859,
      "dÃ¤r": 5860,
      "Ġpga": 5861,
      "rstÃ¥else": 5862,
      "tte": 5863,
      "Ġmotiv": 5864,
      "Ġgrill": 5865,
      "ĠSpanien": 5866,
      "erings": 5867,
      "rÃ¤dd": 5868,
      "Ġskiljer": 5869,
      "ĠKontakta": 5870,
      "Ġgas": 5871,
      "gnos": 5872,
      "huvud": 5873,
      "Ġvanligaste": 5874,
      "Ġutrustning": 5875,
      "Ġciv": 5876,
      "resor": 5877,
      "ĠDig": 5878,
      "Ġinstall": 5879,
      "Ġomgiv": 5880,
      "ivÃ¥n": 5881,
      "ĠKur": 5882,
      "ĠIng": 5883,
      "Ġsocialt": 5884,
      "ĠBolaget": 5885,
      "Ġgolf": 5886,
      "ordet": 5887,
      "Ġanges": 5888,
      "rona": 5889,
      "HL": 5890,
      "ĠfrÃ¤sch": 5891,
      "eten": 5892,
      "ĠanvÃ¤nt": 5893,
      "takter": 5894,
      "Ġdeb": 5895,
      "lagd": 5896,
      "lagt": 5897,
      "ĠhjÃ¤rtat": 5898,
      "Ġgemensamt": 5899,
      "Den": 5900,
      "ĠCenter": 5901,
      "Ġerbjudande": 5902,
      "fast": 5903,
      "bal": 5904,
      "Ġsaknas": 5905,
      "ivare": 5906,
      "ĠTo": 5907,
      "Ġbarns": 5908,
      "rrÃ¤n": 5909,
      "stÃ¤m": 5910,
      "mÃ¤ktige": 5911,
      "oris": 5912,
      "pla": 5913,
      "ĠFlyg": 5914,
      "Ġflash": 5915,
      "ĠKonst": 5916,
      "ĠfrÃ¥gade": 5917,
      "Ġvarma": 5918,
      "ĠTr": 5919,
      "atu": 5920,
      "ĠDÃ¤refter": 5921,
      "ĠMel": 5922,
      "grip": 5923,
      "ĠStorbritannien": 5924,
      "Ġlevande": 5925,
      "nstret": 5926,
      "dition": 5927,
      "Ġunik": 5928,
      "Ġlokaler": 5929,
      "Ġfritt": 5930,
      "ĠReger": 5931,
      "Ġokej": 5932,
      "ival": 5933,
      "ĠTex": 5934,
      "ĠrÃ¤tta": 5935,
      "Ã¤mna": 5936,
      "srÃ": 5937,
      "Ġbrett": 5938,
      "ĠbÃ¤ra": 5939,
      "stjÃ¤rn": 5940,
      "ĠVÃ¤rm": 5941,
      "EG": 5942,
      "skÃ¥p": 5943,
      "ĠonÃ": 5944,
      "lÃ¥n": 5945,
      "tur": 5946,
      "ĠPri": 5947,
      "retags": 5948,
      "onden": 5949,
      "Ġblock": 5950,
      "ĠThomas": 5951,
      "rskol": 5952,
      "Ġstudenter": 5953,
      "spunkt": 5954,
      "rael": 5955,
      "ĠRikt": 5956,
      "ĠintrÃ¤ff": 5957,
      "ĠMats": 5958,
      "Ġlandets": 5959,
      "mas": 5960,
      "rkort": 5961,
      "ĠsÃ¤rskilda": 5962,
      "ĠtrÃ¤ffar": 5963,
      "grÃ¤n": 5964,
      "rbud": 5965,
      "ĠWill": 5966,
      "Ġlagstift": 5967,
      "ĠPrecis": 5968,
      "mos": 5969,
      "ĠDÃ¥lig": 5970,
      "Ġsnyggt": 5971,
      "center": 5972,
      "ĠMicro": 5973,
      "ĠÃħrets": 5974,
      "terad": 5975,
      "Ġsyster": 5976,
      "vil": 5977,
      "rimin": 5978,
      "Ġlandsting": 5979,
      "Ġbalkon": 5980,
      "oret": 5981,
      "ĠSS": 5982,
      "rats": 5983,
      "ros": 5984,
      "Ġsekunder": 5985,
      "ugan": 5986,
      "verka": 5987,
      "ppett": 5988,
      "Ġstolt": 5989,
      "ĠJesus": 5990,
      "ĠhÃ¤nger": 5991,
      "vision": 5992,
      "egel": 5993,
      "ĠSyd": 5994,
      "Ġmobilen": 5995,
      "rekommer": 5996,
      "sbolag": 5997,
      "ĠKro": 5998,
      "PS": 5999,
      "Ġbanan": 6000,
      "Ġhamn": 6001,
      "Ġrepresen": 6002,
      "Ġep": 6003,
      "tryck": 6004,
      "Ġfakta": 6005,
      "Ġolyck": 6006,
      "liggande": 6007,
      "Ġtotala": 6008,
      "Ġkallad": 6009,
      "Ġautomatiskt": 6010,
      "Ġskade": 6011,
      "hag": 6012,
      "avtal": 6013,
      "fattning": 6014,
      "troller": 6015,
      "fs": 6016,
      "Ġfinansiella": 6017,
      "Ġbetalnings": 6018,
      "De": 6019,
      "gl": 6020,
      "Ġsatsa": 6021,
      "Ġbeslutet": 6022,
      "Ġmarken": 6023,
      "Ġinvand": 6024,
      "onger": 6025,
      "Ġfe": 6026,
      "Ã¥rig": 6027,
      "Ġkommunens": 6028,
      "Ġlust": 6029,
      "ĠWe": 6030,
      "ĠrengÃ": 6031,
      "dagens": 6032,
      "ikationer": 6033,
      "Ġbytt": 6034,
      "versÃ¤ttningen": 6035,
      "ĠlÃ¤ngst": 6036,
      "ela": 6037,
      "ĠnÃ¥gonstans": 6038,
      "smÃ¤ss": 6039,
      "istrat": 6040,
      "brans": 6041,
      "Ġmiljon": 6042,
      "Ġdiskutera": 6043,
      "ĠtÃ¤t": 6044,
      "ĠFler": 6045,
      "ĠBilliga": 6046,
      "verlev": 6047,
      "rka": 6048,
      "ĠLÃ¥ng": 6049,
      "slivet": 6050,
      "best": 6051,
      "ĠMe": 6052,
      "Ġstudent": 6053,
      "ĠPlay": 6054,
      "Ġnaturliga": 6055,
      "ĠNe": 6056,
      "umer": 6057,
      "ums": 6058,
      "Ġsvag": 6059,
      "Ġomfattar": 6060,
      "Ġcancer": 6061,
      "ĠBut": 6062,
      "Ġkommunal": 6063,
      "glas": 6064,
      "Ġsoffan": 6065,
      "stet": 6066,
      "Ġtju": 6067,
      "ĠLarsson": 6068,
      "pad": 6069,
      "Ġdjup": 6070,
      "ibel": 6071,
      "Ġsovrum": 6072,
      "Ġslipper": 6073,
      "vel": 6074,
      "fir": 6075,
      "savgift": 6076,
      "ĠKÃ¤n": 6077,
      "Ġort": 6078,
      "ĠVit": 6079,
      "rlust": 6080,
      "Ġkors": 6081,
      "mÃ¥": 6082,
      "Ġpul": 6083,
      "orld": 6084,
      "Ġfaller": 6085,
      "dena": 6086,
      "ĠframÃ": 6087,
      "spart": 6088,
      "ampa": 6089,
      "alj": 6090,
      "ĠTotalt": 6091,
      "Ġinitiativ": 6092,
      "Ġuppm": 6093,
      "ĠlÃ¤get": 6094,
      "unskap": 6095,
      "Ġkonser": 6096,
      "problem": 6097,
      "ĠrÃ¤dda": 6098,
      "ĠBank": 6099,
      "ĠrÃ¤knas": 6100,
      "ĠHandel": 6101,
      "Ġskru": 6102,
      "Ġtvungen": 6103,
      "Ġsajt": 6104,
      "ĠinvÃ¥nare": 6105,
      "Ġvapen": 6106,
      "Ġkris": 6107,
      "Ġtillverkare": 6108,
      "kra": 6109,
      "sÃ¤tter": 6110,
      "ĠTillsammans": 6111,
      "ĠÃ¥sikter": 6112,
      "rmÃ¥g": 6113,
      "ford": 6114,
      "ini": 6115,
      "Ġgn": 6116,
      "ĠÃ¤ventyr": 6117,
      "astro": 6118,
      "Ġfant": 6119,
      "flytt": 6120,
      "ladd": 6121,
      "rÃ¤ldr": 6122,
      "ĠGusta": 6123,
      "Ġvac": 6124,
      "UT": 6125,
      "idrag": 6126,
      "ĠÃ¥terger": 6127,
      "rvaltningen": 6128,
      "Ġhav": 6129,
      "Ġsjukdomar": 6130,
      "Ã¥ngen": 6131,
      "imm": 6132,
      "Ġsms": 6133,
      "Ġbesked": 6134,
      "anser": 6135,
      "ĠMass": 6136,
      "ĠNik": 6137,
      "ebra": 6138,
      "behandling": 6139,
      "ĠCl": 6140,
      "Ġtrygghet": 6141,
      "Ġpratade": 6142,
      "Ã¤stare": 6143,
      "ĠlÃ¤mnat": 6144,
      "onym": 6145,
      "ĠGener": 6146,
      "Ġkallt": 6147,
      "hone": 6148,
      "Ġelev": 6149,
      "ĠBeach": 6150,
      "âĢľ": 6151,
      "platt": 6152,
      "Ġmaxim": 6153,
      "tog": 6154,
      "Ġleta": 6155,
      "Ã¤nnisk": 6156,
      "Ġmult": 6157,
      "enskomm": 6158,
      "pre": 6159,
      "pacitet": 6160,
      "ĠvÃ¤rsta": 6161,
      "Ã¥ring": 6162,
      "Ġfria": 6163,
      "ĠWest": 6164,
      "ĠkarriÃ¤r": 6165,
      "kontor": 6166,
      "iellt": 6167,
      "Ġment": 6168,
      "ĠbestÃ¤mma": 6169,
      "sprodu": 6170,
      "hÃ¤mt": 6171,
      "ĠvÃ¤nder": 6172,
      "ĠuppmÃ¤rksamhet": 6173,
      "ĠHerr": 6174,
      "ĠuppstÃ¥r": 6175,
      "Ġnoga": 6176,
      "artik": 6177,
      "ssÃ¤tt": 6178,
      "ĠAx": 6179,
      "orget": 6180,
      "lagen": 6181,
      "Ġkritik": 6182,
      "aa": 6183,
      "ĠExpress": 6184,
      "ĠBengt": 6185,
      "yrning": 6186,
      "Ġpresident": 6187,
      "Ġsamling": 6188,
      "ĠInnehÃ¥ll": 6189,
      "Ġkraftigt": 6190,
      "ĠTom": 6191,
      "rot": 6192,
      "vok": 6193,
      "outube": 6194,
      "ĠPlan": 6195,
      "ĠlÃ¤ns": 6196,
      "ross": 6197,
      "Ġinfekt": 6198,
      "ĠJenn": 6199,
      "Ġminsta": 6200,
      "Ġkontrakt": 6201,
      "Ġder": 6202,
      "Ġstyrka": 6203,
      "ĠOS": 6204,
      "nÃ¤mnden": 6205,
      "Ġsilver": 6206,
      "Ġregelbund": 6207,
      "adrat": 6208,
      "boken": 6209,
      "serien": 6210,
      "Ġekonomisk": 6211,
      "ĠstÃ¤mmer": 6212,
      "Ġhttps": 6213,
      "Ġtyska": 6214,
      "rklarar": 6215,
      "ssp": 6216,
      "Ã¤rare": 6217,
      "Ġarranger": 6218,
      "Ġnoll": 6219,
      "ĠBal": 6220,
      "ĠnÃ¤rings": 6221,
      "Ġporr": 6222,
      "ĠStrÃ": 6223,
      "Ġverkligheten": 6224,
      "Ġsaken": 6225,
      "ĠalltfÃ": 6226,
      "verallt": 6227,
      "ĠtrÃ¤nar": 6228,
      "Ġinner": 6229,
      "Ġansvarar": 6230,
      "Ġtexten": 6231,
      "rediens": 6232,
      "ĠTror": 6233,
      "Ġresul": 6234,
      "link": 6235,
      "Ġfelakt": 6236,
      "Ġskatte": 6237,
      "ĠSvart": 6238,
      "ĠOavsett": 6239,
      "vor": 6240,
      "ivande": 6241,
      "ppettider": 6242,
      "ĠStart": 6243,
      "ationerna": 6244,
      "Ġhelhet": 6245,
      "ĠsjÃ¤l": 6246,
      "vag": 6247,
      "ĠPlats": 6248,
      "Ġskaffa": 6249,
      "iteter": 6250,
      "fo": 6251,
      "Ġryggen": 6252,
      "ĠFick": 6253,
      "Ġutav": 6254,
      "ĠSweden": 6255,
      "ĠkÃ¤nn": 6256,
      "ĠifrÃ¥g": 6257,
      "Ġpersonalen": 6258,
      "vad": 6259,
      "ĠKarlsson": 6260,
      "ĠUtÃ": 6261,
      "ĠbestÃ¤mmer": 6262,
      "ids": 6263,
      "iger": 6264,
      "formen": 6265,
      "ĠframgÃ¥r": 6266,
      "Ġstatistik": 6267,
      "Ġhann": 6268,
      "ĠslÃ¤ppa": 6269,
      "set": 6270,
      "bef": 6271,
      "IV": 6272,
      "ĠvÃ¤s": 6273,
      "Ġskapat": 6274,
      "Ġfolket": 6275,
      "Ġbutiken": 6276,
      "ĠdÃ¤ck": 6277,
      "ĠId": 6278,
      "delsedag": 6279,
      "Visa": 6280,
      "Ġutmaningar": 6281,
      "Ġkurser": 6282,
      "Ġplanerar": 6283,
      "Ã¤ngt": 6284,
      "Ġutbildnings": 6285,
      "gskolan": 6286,
      "Ġfortsatte": 6287,
      "ĠhÃ¤star": 6288,
      "mde": 6289,
      "Ġho": 6290,
      "ION": 6291,
      "ĠInter": 6292,
      "juter": 6293,
      "ĠFamilj": 6294,
      "ĠkÃ¤rn": 6295,
      "enhet": 6296,
      "ĠTidigare": 6297,
      "ĠMy": 6298,
      "Ġreserv": 6299,
      "Ġdigital": 6300,
      "Ġul": 6301,
      "rbjud": 6302,
      "ij": 6303,
      "ĠNICK": 6304,
      "sspel": 6305,
      "pten": 6306,
      "tesplats": 6307,
      "Ġdelvis": 6308,
      "ikar": 6309,
      "omma": 6310,
      "Ġblom": 6311,
      "ĠMÃ¥n": 6312,
      "Ġlagom": 6313,
      "ĠtrÃ¤nare": 6314,
      "ĠOCH": 6315,
      "Ġkab": 6316,
      "ĠsvÃ¥rare": 6317,
      "beskrivning": 6318,
      "Ġstyrelse": 6319,
      "BS": 6320,
      "Ġbredvid": 6321,
      "Ġfyr": 6322,
      "Ġdekor": 6323,
      "ĠsÃ¤llskap": 6324,
      "rafiken": 6325,
      "ĠsevÃ¤rd": 6326,
      "Ġlinje": 6327,
      "Ġgransk": 6328,
      "rsamling": 6329,
      "ĠÃ¥terv": 6330,
      "Ġkvinnan": 6331,
      "Ġobe": 6332,
      "ialis": 6333,
      "ĠSkatt": 6334,
      "fre": 6335,
      "ĠSP": 6336,
      "ĠbehÃ¥lla": 6337,
      "Ġenlighet": 6338,
      "rhÃ": 6339,
      "Ġposition": 6340,
      "Ġarbetsgiv": 6341,
      "ĠhÃ¤nga": 6342,
      "rapport": 6343,
      "OT": 6344,
      "way": 6345,
      "nskemÃ¥l": 6346,
      "Ġintresserade": 6347,
      "Ġaning": 6348,
      "ĠlÃ¤t": 6349,
      "ode": 6350,
      "ĠavstÃ¥nd": 6351,
      "ĠdÃ¥liga": 6352,
      "unna": 6353,
      "Ġwid": 6354,
      "landet": 6355,
      "que": 6356,
      "ĠJe": 6357,
      "ĠuppnÃ¥": 6358,
      "ĠCat": 6359,
      "Ġaktiver": 6360,
      "issionen": 6361,
      "Ġdialog": 6362,
      "konst": 6363,
      "ĠNorrkÃ": 6364,
      "rvaltning": 6365,
      "Ġhemmet": 6366,
      "ĠCor": 6367,
      "sningen": 6368,
      "ĠvÃ¤lkomna": 6369,
      "Ġbritt": 6370,
      "vÃ¤": 6371,
      "ĠJul": 6372,
      "Ġcy": 6373,
      "ĠHy": 6374,
      "ĠÃ¤mnet": 6375,
      "ocken": 6376,
      "Ġmissl": 6377,
      "Ġsmar": 6378,
      "ĠfrÃ¥gar": 6379,
      "ĠpÃ¤r": 6380,
      "Ġmotion": 6381,
      "Ġavser": 6382,
      "ĠlÃ¤ngd": 6383,
      "ael": 6384,
      "Ġtycks": 6385,
      "Ġkillar": 6386,
      "Ġskott": 6387,
      "ĠHÃ¥": 6388,
      "Ġmysigt": 6389,
      "aser": 6390,
      "ĠvÃ¥gar": 6391,
      "ĠlÃ¤genheter": 6392,
      "Ġhanden": 6393,
      "Ġsnitt": 6394,
      "Ġinkluderar": 6395,
      "ĠvÃ¤rre": 6396,
      "The": 6397,
      "ĠSpar": 6398,
      "Ġir": 6399,
      "Ġeventuellt": 6400,
      "Ġnorra": 6401,
      "sbyg": 6402,
      "Ġreag": 6403,
      "Ġflyttade": 6404,
      "Ġutomlands": 6405,
      "Ã¤nsla": 6406,
      "bana": 6407,
      "ĠProgram": 6408,
      "ĠRedan": 6409,
      "ustra": 6410,
      "Ġplaner": 6411,
      "Ġforsknings": 6412,
      "banan": 6413,
      "Ġbehandlas": 6414,
      "ĠPaul": 6415,
      "ĠFN": 6416,
      "Ġare": 6417,
      "Ġkoncentr": 6418,
      "ĠmÃ¤ss": 6419,
      "Ġtisdag": 6420,
      "nhet": 6421,
      "shet": 6422,
      "Ġisol": 6423,
      "ĠBre": 6424,
      "Ġtoal": 6425,
      "Ġregistrering": 6426,
      "Ġfundera": 6427,
      "ĠRiks": 6428,
      "Ġkonkurrens": 6429,
      "ĠrÃ¤nta": 6430,
      "igera": 6431,
      "Ġdollar": 6432,
      "ĠVÃ¤sterÃ¥s": 6433,
      "ĠbestÃ¤mde": 6434,
      "Ġassist": 6435,
      "Ġskar": 6436,
      "Ġorgan": 6437,
      "Ġdog": 6438,
      "Ġmobilt": 6439,
      "Ġbodde": 6440,
      "lekar": 6441,
      "Ġsw": 6442,
      "ĠSamman": 6443,
      "Ġrubrik": 6444,
      "cell": 6445,
      "Ġhell": 6446,
      "ĠDa": 6447,
      "Ġkvadrat": 6448,
      "Ġmoms": 6449,
      "Ġporn": 6450,
      "cm": 6451,
      "stiden": 6452,
      "Ã¤ste": 6453,
      "ĠhÃ¤ndelser": 6454,
      "ullar": 6455,
      "hop": 6456,
      "ĠgrÃ¤ns": 6457,
      "ĠGran": 6458,
      "ĠMari": 6459,
      "ĠvÃ¤dret": 6460,
      "ĠrejÃ¤lt": 6461,
      "ĠHD": 6462,
      "Ġintrodu": 6463,
      "Ġhat": 6464,
      "ĠDÃ": 6465,
      "ĠVatten": 6466,
      "Ġsko": 6467,
      "ĠLadda": 6468,
      "Ġstimul": 6469,
      "smark": 6470,
      "ĠMikael": 6471,
      "mda": 6472,
      "Ġanslutning": 6473,
      "hail": 6474,
      "skottet": 6475,
      "roid": 6476,
      "tas": 6477,
      "ĠCam": 6478,
      "ĠHuvud": 6479,
      "ĠvÃ¤ster": 6480,
      "ĠVD": 6481,
      "ĠGot": 6482,
      "ĠpÃ¥sk": 6483,
      "ĠnÃ¥tt": 6484,
      "Ġminuters": 6485,
      "ĠAg": 6486,
      "cken": 6487,
      "ĠtjÃ¤na": 6488,
      "FF": 6489,
      "ustrali": 6490,
      "Ġslit": 6491,
      "Ġinomhus": 6492,
      "vÃ¤st": 6493,
      "ĠLo": 6494,
      "Ġbesv": 6495,
      "ĠKarin": 6496,
      "ĠDating": 6497,
      "Ġknappast": 6498,
      "ĠÃ¥terfÃ": 6499,
      "ĠsmÃ¤rta": 6500,
      "leÃ¥": 6501,
      "ĠVidare": 6502,
      "Ġsituationer": 6503,
      "ĠtillbehÃ": 6504,
      "ĠSwed": 6505,
      "Ġingrediens": 6506,
      "Ġweb": 6507,
      "ĠEriksson": 6508,
      "rop": 6509,
      "retagets": 6510,
      "ĠEt": 6511,
      "Ġloss": 6512,
      "ssam": 6513,
      "lÃ¤ggningen": 6514,
      "nÃ¤s": 6515,
      "ale": 6516,
      "ĠsÃ¤rskild": 6517,
      "ĠtrÃ¥kigt": 6518,
      "Ġdygnet": 6519,
      "Ġuts": 6520,
      "ĠSenaste": 6521,
      "Ġrem": 6522,
      "Ġfamiljer": 6523,
      "ĠMor": 6524,
      "oriter": 6525,
      "omin": 6526,
      "Ġfred": 6527,
      "ĠPersson": 6528,
      "ĠBeslut": 6529,
      "ile": 6530,
      "sbygg": 6531,
      "ĠSmÃ¥": 6532,
      "ivis": 6533,
      "Ġvanligtvis": 6534,
      "fakt": 6535,
      "allad": 6536,
      "ĠfrÃ¤msta": 6537,
      "ĠlÃ¤rt": 6538,
      "Ġbeb": 6539,
      "zon": 6540,
      "Ġintill": 6541,
      "fallet": 6542,
      "redovis": 6543,
      "ĠTopp": 6544,
      "ĠSyftet": 6545,
      "Ġtorr": 6546,
      "ĠMarie": 6547,
      "Ġhjul": 6548,
      "hÃ¤ng": 6549,
      "Ġgolvet": 6550,
      "ĠRen": 6551,
      "hot": 6552,
      "Ã¤mpar": 6553,
      "Ġluften": 6554,
      "rsvinner": 6555,
      "Ġutrust": 6556,
      "serligen": 6557,
      "Ġbakt": 6558,
      "Ġimp": 6559,
      "Ġflashback": 6560,
      "Ġlyfta": 6561,
      "Ġskyl": 6562,
      "Ġuppre": 6563,
      "ĠmÃ¤nskliga": 6564,
      "centrum": 6565,
      "Ġsign": 6566,
      "Ġbilligare": 6567,
      "Ġlaga": 6568,
      "mass": 6569,
      "Ġsma": 6570,
      "rny": 6571,
      "ĠExempel": 6572,
      "Ġregi": 6573,
      "Ġnormal": 6574,
      "Ġhej": 6575,
      "alle": 6576,
      "Ġpotatis": 6577,
      "kes": 6578,
      "Ġgyn": 6579,
      "Ġbransch": 6580,
      "ĠtillfÃ¤llet": 6581,
      "andin": 6582,
      "iabet": 6583,
      "Ġtusen": 6584,
      "Ġtax": 6585,
      "ĠstÃ¤rka": 6586,
      "matt": 6587,
      "pi": 6588,
      "Ġmetall": 6589,
      "ĠomstÃ¤nd": 6590,
      "ĠarbetsmiljÃ": 6591,
      "Ġdikt": 6592,
      "Ġledning": 6593,
      "ova": 6594,
      "Ġuttry": 6595,
      "Ġkortare": 6596,
      "urt": 6597,
      "ĠÃħh": 6598,
      "Ġdiskussion": 6599,
      "Ġfunderar": 6600,
      "slam": 6601,
      "ĠsjukvÃ¥rd": 6602,
      "Ġnyfiken": 6603,
      "sted": 6604,
      "tterna": 6605,
      "Ġjack": 6606,
      "Ġjurid": 6607,
      "edÃ": 6608,
      "Ġrefle": 6609,
      "Ĥ¬": 6610,
      "eman": 6611,
      "rf": 6612,
      "Ġrelationer": 6613,
      "ĠMac": 6614,
      "verenskomm": 6615,
      "Ġovanligt": 6616,
      "egr": 6617,
      "ĠLÃ¤n": 6618,
      "ove": 6619,
      "Ġsannolikt": 6620,
      "eedback": 6621,
      "Ġtermin": 6622,
      "Ġhunden": 6623,
      "ifiera": 6624,
      "Ġkartan": 6625,
      "Ã¥ren": 6626,
      "Ġstannar": 6627,
      "ze": 6628,
      "vetenskap": 6629,
      "Ġfac": 6630,
      "ĠTycker": 6631,
      "retagare": 6632,
      "dast": 6633,
      "sar": 6634,
      "ĠsÃ¤kerstÃ¤lla": 6635,
      "ĠNed": 6636,
      "asy": 6637,
      "Ġbelopp": 6638,
      "lle": 6639,
      "Ġkunden": 6640,
      "Ã¥ta": 6641,
      "ĠLid": 6642,
      "ĠvÃ¤gar": 6643,
      "kommit": 6644,
      "oper": 6645,
      "ĠnÃ¤rmast": 6646,
      "ĠupptÃ¤cka": 6647,
      "ĠSnabb": 6648,
      "flÃ": 6649,
      "Ġhant": 6650,
      "Ġretur": 6651,
      "Ġsorg": 6652,
      "umin": 6653,
      "igaste": 6654,
      "ĠKort": 6655,
      "Ġlitteratur": 6656,
      "bad": 6657,
      "ĠWik": 6658,
      "Ġcor": 6659,
      "personer": 6660,
      "familj": 6661,
      "iox": 6662,
      "ĠvÃ¤t": 6663,
      "Ġlagar": 6664,
      "Ġtrivs": 6665,
      "Ġattack": 6666,
      "ape": 6667,
      "lister": 6668,
      "vakning": 6669,
      "Ġdamm": 6670,
      "ĠArk": 6671,
      "ĠpÃ¥m": 6672,
      "nr": 6673,
      "Ġpark": 6674,
      "ĠPen": 6675,
      "ĠGÃ¥r": 6676,
      "ĠSkor": 6677,
      "Ġthis": 6678,
      "paket": 6679,
      "stin": 6680,
      "Ġkonkret": 6681,
      "no": 6682,
      "Ġarbetsgivare": 6683,
      "Ġkung": 6684,
      "Ġutvalda": 6685,
      "sprojekt": 6686,
      "Ġgul": 6687,
      "ĠÃ¤lskade": 6688,
      "ĠrÃ¤tten": 6689,
      "Ġnot": 6690,
      "Ġriskerar": 6691,
      "anne": 6692,
      "ray": 6693,
      "attis": 6694,
      "ĠrÃ¤knar": 6695,
      "Ġandel": 6696,
      "ĠkonstnÃ¤r": 6697,
      "frika": 6698,
      "ĠentreprenÃ": 6699,
      "ĠAlltsÃ¥": 6700,
      "ĠJuli": 6701,
      "ĠsÃ¥ledes": 6702,
      "Ġdim": 6703,
      "usiness": 6704,
      "ĠWi": 6705,
      "Ġkursen": 6706,
      "ĠEmma": 6707,
      "bryt": 6708,
      "allafall": 6709,
      "ĠÃ¤mne": 6710,
      "rena": 6711,
      "Ġfira": 6712,
      "Ġdrabbas": 6713,
      "ĠinnebÃ¤ra": 6714,
      "Ġfaktorer": 6715,
      "Ġbag": 6716,
      "ivalen": 6717,
      "rump": 6718,
      "ĠsÃ¤gs": 6719,
      "Ġannonser": 6720,
      "Ġolja": 6721,
      "stekn": 6722,
      "rÃ¤ng": 6723,
      "ĠVolv": 6724,
      "dt": 6725,
      "Â°": 6726,
      "ĠallmÃ¤nt": 6727,
      "rsk": 6728,
      "Ġlant": 6729,
      "Ġnerv": 6730,
      "Ġexklus": 6731,
      "aby": 6732,
      "Ġtydliga": 6733,
      "Ġjulkla": 6734,
      "ĠÃ¤pp": 6735,
      "SB": 6736,
      "Ġurval": 6737,
      "ĠlÃ¤mnas": 6738,
      "blÃ¥": 6739,
      "Ġsynd": 6740,
      "ulture": 6741,
      "ĠHal": 6742,
      "yrÃ¥n": 6743,
      "Ġfysiska": 6744,
      "programmet": 6745,
      "Ġglass": 6746,
      "andinav": 6747,
      "ĠVic": 6748,
      "ĠBesÃ": 6749,
      "ĠMellan": 6750,
      "Ġprocessen": 6751,
      "ĠÃ¤ndamÃ¥l": 6752,
      "Ġekonomiskt": 6753,
      "ĠOlof": 6754,
      "Ġfinna": 6755,
      "sbrev": 6756,
      "sÃ¤tta": 6757,
      "ĠfÃ¤rre": 6758,
      "ĠtrÃ¤dgÃ¥rden": 6759,
      "rÃ¤ckning": 6760,
      "Ġsvenskar": 6761,
      "ĠtÃ¥l": 6762,
      "Ġanord": 6763,
      "useum": 6764,
      "Ġkompletter": 6765,
      "asa": 6766,
      "igheterna": 6767,
      "Ġtt": 6768,
      "Ġkrimin": 6769,
      "IC": 6770,
      "Ġsant": 6771,
      "osof": 6772,
      "Ġringde": 6773,
      "bjudanden": 6774,
      "rek": 6775,
      "Ġtypen": 6776,
      "prov": 6777,
      "reningens": 6778,
      "fi": 6779,
      "Ġkollegor": 6780,
      "rdagen": 6781,
      "ĠskÃ¥de": 6782,
      "Ġbevilj": 6783,
      "ĠSamt": 6784,
      "Ġindivider": 6785,
      "Ra": 6786,
      "rskola": 6787,
      "rvÃ¥": 6788,
      "isterna": 6789,
      "zny": 6790,
      "ctor": 6791,
      "rsÃ¤ljare": 6792,
      "adress": 6793,
      "Ġhemsidan": 6794,
      "Ġutseende": 6795,
      "Ġvaccin": 6796,
      "inska": 6797,
      "ĠVÃ¤xjÃ": 6798,
      "Ġhistorien": 6799,
      "ĠupphÃ": 6800,
      "direkt": 6801,
      "ĠRob": 6802,
      "limat": 6803,
      "institut": 6804,
      "ĠosÃ¤ker": 6805,
      "ĠAndreas": 6806,
      "Ġstorm": 6807,
      "ensen": 6808,
      "ĠPo": 6809,
      "ĠlÃ¤genheten": 6810,
      "Ġhoppa": 6811,
      "Ġvarv": 6812,
      "rmid": 6813,
      "uga": 6814,
      "kval": 6815,
      "Ġlicens": 6816,
      "ĠPr": 6817,
      "Ġug": 6818,
      "itz": 6819,
      "gym": 6820,
      "ney": 6821,
      "vÃ¤rda": 6822,
      "Ã¤lje": 6823,
      "ĠFun": 6824,
      "nska": 6825,
      "disk": 6826,
      "Ġbetalning": 6827,
      "Ġcert": 6828,
      "Ġdla": 6829,
      "anmÃ¤l": 6830,
      "ĠNÃ¤t": 6831,
      "aktioner": 6832,
      "rog": 6833,
      "Ġsvenskt": 6834,
      "Ġyta": 6835,
      "phone": 6836,
      "skydds": 6837,
      "Ġutredning": 6838,
      "UtmÃ¤rkt": 6839,
      "rskolan": 6840,
      "Ġfranska": 6841,
      "Ġverklighet": 6842,
      "ites": 6843,
      "Ġsurf": 6844,
      "ektorn": 6845,
      "tan": 6846,
      "ĠÃ¤kta": 6847,
      "elle": 6848,
      "Ã¤ckar": 6849,
      "vall": 6850,
      "Ġshopping": 6851,
      "Ġkoppla": 6852,
      "ty": 6853,
      "Ġgjorts": 6854,
      "Ġbetalas": 6855,
      "inte": 6856,
      "owany": 6857,
      "sas": 6858,
      "eriet": 6859,
      "owanych": 6860,
      "oczny": 6861,
      "Ġzalog": 6862,
      "Ġwidoczny": 6863,
      "Ġzalogowanych": 6864,
      "Bra": 6865,
      "Ġanalyser": 6866,
      "Ġattrakt": 6867,
      "vervÃ¤g": 6868,
      "ĠlÃ¤nken": 6869,
      "Ġtry": 6870,
      "ĠDis": 6871,
      "ortera": 6872,
      "ĠtÃ¤vlingen": 6873,
      "ljt": 6874,
      "Ġinb": 6875,
      "ĠBy": 6876,
      "soft": 6877,
      "righet": 6878,
      "grunden": 6879,
      "trafik": 6880,
      "ĠlÃ¤sare": 6881,
      "Ġtrapp": 6882,
      "istiskt": 6883,
      "scort": 6884,
      "Ġskett": 6885,
      "sbruk": 6886,
      "Ġuppfattning": 6887,
      "branschen": 6888,
      "skrona": 6889,
      "ĠInget": 6890,
      "Ġgodis": 6891,
      "Ġstarkare": 6892,
      "ĠBorÃ¥s": 6893,
      "efte": 6894,
      "Ġhandlade": 6895,
      "satta": 6896,
      "rak": 6897,
      "Ġflyttar": 6898,
      "reslÃ¥r": 6899,
      "ĠallmÃ¤nhet": 6900,
      "ĠÃ¥terigen": 6901,
      "Ġansvarig": 6902,
      "Ġkomplex": 6903,
      "Ġkonsument": 6904,
      "Ġtraditionella": 6905,
      "Ġstre": 6906,
      "Ġpublik": 6907,
      "UR": 6908,
      "Ġkontakter": 6909,
      "Ġsamlat": 6910,
      "taget": 6911,
      "Ġledde": 6912,
      "mak": 6913,
      "Ġskatter": 6914,
      "Ġda": 6915,
      "Ġenheter": 6916,
      "ĠWebb": 6917,
      "Ã¤nningar": 6918,
      "ĠIstÃ¤llet": 6919,
      "mode": 6920,
      "ĠIK": 6921,
      "Ġevenemang": 6922,
      "slÃ¤get": 6923,
      "Ġifall": 6924,
      "Ġbeteende": 6925,
      "Ġtolk": 6926,
      "Ġappen": 6927,
      "ĠSkog": 6928,
      "brÃ": 6929,
      "Ã¤ger": 6930,
      "Ġtjock": 6931,
      "Ġbenen": 6932,
      "Ġventil": 6933,
      "park": 6934,
      "Nr": 6935,
      "ĠinnehÃ¥llet": 6936,
      "Ġsmid": 6937,
      "ath": 6938,
      "ockar": 6939,
      "vÃ¤rk": 6940,
      "llertid": 6941,
      "ĠMc": 6942,
      "ĠEngland": 6943,
      "Ġeleg": 6944,
      "ares": 6945,
      "ĠLy": 6946,
      "Ġsupport": 6947,
      "Ġsugen": 6948,
      "meter": 6949,
      "Ġkill": 6950,
      "Ġrepar": 6951,
      "sex": 6952,
      "Ġsover": 6953,
      "ml": 6954,
      "Ġminne": 6955,
      "ĠFrÃ¥gan": 6956,
      "Ġdyker": 6957,
      "ĠSpa": 6958,
      "Ġrob": 6959,
      "urg": 6960,
      "Ġdomstol": 6961,
      "emp": 6962,
      "Ġaller": 6963,
      "Ġgrej": 6964,
      "Ġveter": 6965,
      "Ġexpl": 6966,
      "lament": 6967,
      "ĠGustaf": 6968,
      "stÃ¤ller": 6969,
      "Ġpresentation": 6970,
      "ĠpÃ¥verkas": 6971,
      "Ġkonkurren": 6972,
      "ĠSystem": 6973,
      "ĠanmÃ¤lan": 6974,
      "gripande": 6975,
      "Ġoberoende": 6976,
      "Ġvardagen": 6977,
      "komsten": 6978,
      "Ġdemon": 6979,
      "Ġgjordes": 6980,
      "randet": 6981,
      "rvaltnings": 6982,
      "Ġslott": 6983,
      "Ġfrihet": 6984,
      "ĠbostadsrÃ¤tt": 6985,
      "Ġtyn": 6986,
      "Ġutbildningen": 6987,
      "ĠLena": 6988,
      "verktyg": 6989,
      "Ġpil": 6990,
      "ĠBlir": 6991,
      "teknik": 6992,
      "das": 6993,
      "ĠFastighet": 6994,
      "mellertid": 6995,
      "Ġarkitekt": 6996,
      "Ġolj": 6997,
      "mÃ¤ssigt": 6998,
      "Ġrekommend": 6999,
      "Ġvistelse": 7000,
      "ĠHitt": 7001,
      "Ġsynner": 7002,
      "Ġduktig": 7003,
      "syn": 7004,
      "Ġstoppa": 7005,
      "Ġmask": 7006,
      "ĠTrafik": 7007,
      "ĠLÃ¤ns": 7008,
      "mes": 7009,
      "Ġfoto": 7010,
      "Ġmarker": 7011,
      "Ġryska": 7012,
      "Du": 7013,
      "Ġthai": 7014,
      "skaps": 7015,
      "Ġboendet": 7016,
      "EA": 7017,
      "rdju": 7018,
      "rÃ¤ndra": 7019,
      "Ġbruk": 7020,
      "ĠGustav": 7021,
      "ĠRapp": 7022,
      "vention": 7023,
      "Ġkoncept": 7024,
      "Ġstyra": 7025,
      "Ġspeciella": 7026,
      "ĠGolf": 7027,
      "vÃ¥": 7028,
      "ismen": 7029,
      "rupp": 7030,
      "oppa": 7031,
      "ĠOlsson": 7032,
      "Ġuppmunt": 7033,
      "former": 7034,
      "jliggÃ": 7035,
      "ĠprÃ¤g": 7036,
      "Ġspelas": 7037,
      "Ġsyftar": 7038,
      "Ġorganisationen": 7039,
      "ĠAss": 7040,
      "jet": 7041,
      "ekul": 7042,
      "Ġansiktet": 7043,
      "Ġsiffror": 7044,
      "Ġbefintliga": 7045,
      "Ã¤song": 7046,
      "Ġresp": 7047,
      "dela": 7048,
      "Ġlekt": 7049,
      "Ġprop": 7050,
      "Ġskydds": 7051,
      "ĠiPhone": 7052,
      "Ġskillnaden": 7053,
      "Ġsamverkan": 7054,
      "Ġkristna": 7055,
      "apan": 7056,
      "cia": 7057,
      "Ġbio": 7058,
      "Ġmake": 7059,
      "ekv": 7060,
      "ĠanhÃ": 7061,
      "Â®": 7062,
      "ĠEkonom": 7063,
      "ĠEric": 7064,
      "Ġtrevliga": 7065,
      "Ġavst": 7066,
      "gÃ¥tt": 7067,
      "Ġgaranter": 7068,
      "ĠÃ¥ngest": 7069,
      "ĠWall": 7070,
      "Ġmotsvarar": 7071,
      "Ġkines": 7072,
      "mmen": 7073,
      "samling": 7074,
      "Ġeffekter": 7075,
      "skill": 7076,
      "ĠRam": 7077,
      "Ġost": 7078,
      "emin": 7079,
      "ĠEli": 7080,
      "ĠSundsvall": 7081,
      "Ġkandid": 7082,
      "ĠBostad": 7083,
      "Ġrena": 7084,
      "Ġskuld": 7085,
      "stads": 7086,
      "ĠDon": 7087,
      "Ġreser": 7088,
      "ĠMobil": 7089,
      "Ġlediga": 7090,
      "jo": 7091,
      "ĠApple": 7092,
      "ĠBoka": 7093,
      "Ġstadens": 7094,
      "ensa": 7095,
      "ĠmÃ¤rkt": 7096,
      "Ġdagligen": 7097,
      "Ġlill": 7098,
      "ĠtrÃ¤ffade": 7099,
      "Ġbos": 7100,
      "Ġbeskrivning": 7101,
      "Ġlocka": 7102,
      "Ġraka": 7103,
      "ĠupptÃ¤ckt": 7104,
      "tem": 7105,
      "ĠEM": 7106,
      "skrav": 7107,
      "ĠJord": 7108,
      "ĠlÃ¤nkar": 7109,
      "Ġtomt": 7110,
      "verse": 7111,
      "litter": 7112,
      "ljde": 7113,
      "Till": 7114,
      "kro": 7115,
      "blogg": 7116,
      "ĠbelÃ¤get": 7117,
      "ĠVÃ¤g": 7118,
      "ush": 7119,
      "rteck": 7120,
      "stas": 7121,
      "ĠtrÃ¤nings": 7122,
      "meddelande": 7123,
      "skare": 7124,
      "arch": 7125,
      "tals": 7126,
      "ĠlÃ¥tar": 7127,
      "js": 7128,
      "ĠtÃ¤ck": 7129,
      "byggande": 7130,
      "hotell": 7131,
      "cus": 7132,
      "Ġiallafall": 7133,
      "Ġku": 7134,
      "Ġtel": 7135,
      "ĠfÃ¤st": 7136,
      "bÃ¥t": 7137,
      "vade": 7138,
      "Ġfla": 7139,
      "alisering": 7140,
      "Ġtvingas": 7141,
      "lerna": 7142,
      "Ġtroligen": 7143,
      "venskan": 7144,
      "redning": 7145,
      "spar": 7146,
      "ĠlÃ¤rande": 7147,
      "tvÃ¤tt": 7148,
      "ĠJos": 7149,
      "ĠbestÃ¤mmelser": 7150,
      "Ġapotek": 7151,
      "oci": 7152,
      "Ġflertal": 7153,
      "Ġlyft": 7154,
      "Ġlat": 7155,
      "ĠTÃ¤n": 7156,
      "ĠwebblÃ¤s": 7157,
      "ese": 7158,
      "visar": 7159,
      "Ġinslag": 7160,
      "ĠanvÃ¤nde": 7161,
      "Ġyour": 7162,
      "Ã¥ringen": 7163,
      "ĠangÃ¥ende": 7164,
      "ĠKul": 7165,
      "ĠjÃ¤ttebra": 7166,
      "Ġoj": 7167,
      "grÃ": 7168,
      "Ġteater": 7169,
      "Ġplanen": 7170,
      "verkar": 7171,
      "varna": 7172,
      "ĠEmil": 7173,
      "ÃĸR": 7174,
      "yckling": 7175,
      "Ġturn": 7176,
      "Ġstrategi": 7177,
      "ĠSamma": 7178,
      "ĠGrund": 7179,
      "Ġkontra": 7180,
      "Ġsyr": 7181,
      "Ġkaff": 7182,
      "ĠÃ¤tit": 7183,
      "ĠgrÃ¤nsen": 7184,
      "ĠKam": 7185,
      "smat": 7186,
      "Ġfal": 7187,
      "ĠHell": 7188,
      "Ġeuropeiska": 7189,
      "Ġdiagnos": 7190,
      "Ġalli": 7191,
      "landa": 7192,
      "Ġutforska": 7193,
      "ĠlÃ¤der": 7194,
      "Ġtabell": 7195,
      "rastruktur": 7196,
      "Ġinredning": 7197,
      "rlag": 7198,
      "Ġvag": 7199,
      "Ġpaus": 7200,
      "OK": 7201,
      "sko": 7202,
      "ologiskt": 7203,
      "skrig": 7204,
      "stade": 7205,
      "ĠGer": 7206,
      "Ġinser": 7207,
      "ĠutstrÃ¤ckning": 7208,
      "emed": 7209,
      "ĠpremiÃ¤r": 7210,
      "Ġoriginal": 7211,
      "Ġprotein": 7212,
      "Ã¤nkande": 7213,
      "ava": 7214,
      "Ġtolv": 7215,
      "Ġfokusera": 7216,
      "Ġleverera": 7217,
      "Ġkamera": 7218,
      "ĠMÃ¥ste": 7219,
      "onde": 7220,
      "ĠRing": 7221,
      "skop": 7222,
      "ĠutgÃ¥r": 7223,
      "servera": 7224,
      "Ġunderlag": 7225,
      "laget": 7226,
      "Ġhinna": 7227,
      "itim": 7228,
      "egrÃ¤ns": 7229,
      "rfattaren": 7230,
      "Ã¤genhet": 7231,
      "sstil": 7232,
      "aks": 7233,
      "ĠvÃ¥rden": 7234,
      "Ġledningen": 7235,
      "Ġutvecklar": 7236,
      "Ġspeciell": 7237,
      "ansvarig": 7238,
      "Ġvunnit": 7239,
      "strand": 7240,
      "ĠHÃ¥kan": 7241,
      "ĠslÃ": 7242,
      "pend": 7243,
      "Ġakut": 7244,
      "spelet": 7245,
      "Ġflygplats": 7246,
      "randen": 7247,
      "ĠBerlin": 7248,
      "rÃ¤ldra": 7249,
      "Ġslippa": 7250,
      "uel": 7251,
      "vÃ¤rme": 7252,
      "berÃ¤tt": 7253,
      "ĠmÃ¤tt": 7254,
      "Ġumg": 7255,
      "Ġpassade": 7256,
      "reb": 7257,
      "Ġvarierar": 7258,
      "tagen": 7259,
      "ribut": 7260,
      "Ġhellre": 7261,
      "ĠFrÃ": 7262,
      "regler": 7263,
      "Ġfrom": 7264,
      "ders": 7265,
      "ĠbemÃ": 7266,
      "Ġtabl": 7267,
      "ĠLik": 7268,
      "ĠSkÃ¤r": 7269,
      "ndagen": 7270,
      "ĠRek": 7271,
      "ĠComm": 7272,
      "Ġanpassa": 7273,
      "ĠUnivers": 7274,
      "strÃ¤ng": 7275,
      "Ġrea": 7276,
      "Ġriktning": 7277,
      "ĠEN": 7278,
      "Ġbox": 7279,
      "ĠVeg": 7280,
      "atiska": 7281,
      "Men": 7282,
      "Ġverkliga": 7283,
      "ĠYtter": 7284,
      "ĠOrg": 7285,
      "dja": 7286,
      "flyg": 7287,
      "Ġargument": 7288,
      "Ġup": 7289,
      "verkets": 7290,
      "ostadress": 7291,
      "Ġpraktiska": 7292,
      "menNr": 7293,
      "innan": 7294,
      "ĠProblem": 7295,
      "ĠmÃ¤nniskan": 7296,
      "Ġlades": 7297,
      "dert": 7298,
      "ĠCan": 7299,
      "Ġinternationell": 7300,
      "Ġbloggar": 7301,
      "Ġkonsult": 7302,
      "Ġplanering": 7303,
      "ĠtillgÃ¤nglighet": 7304,
      "ĠVerksamhet": 7305,
      "Ġbott": 7306,
      "ĠAN": 7307,
      "Ġrekommendera": 7308,
      "ĠrÃ¤nt": 7309,
      "onnemang": 7310,
      "ĠAntal": 7311,
      "Ġkontinuer": 7312,
      "ILL": 7313,
      "ĠsnÃ¤ll": 7314,
      "Ġmeddelande": 7315,
      "alternativ": 7316,
      "Ġgaran": 7317,
      "ĠLuleÃ¥": 7318,
      "Ġsmidigt": 7319,
      "jol": 7320,
      "Ġbekant": 7321,
      "hantering": 7322,
      "ĠbestÃ¤llning": 7323,
      "ĠgÃ¤lla": 7324,
      "Ġtryggt": 7325,
      "botten": 7326,
      "vagn": 7327,
      "Ġchat": 7328,
      "ĠDem": 7329,
      "olution": 7330,
      "Ġdeltar": 7331,
      "ĠGa": 7332,
      "rrar": 7333,
      "ĠForm": 7334,
      "rÃ¤tter": 7335,
      "ĠJobb": 7336,
      "Ġtunga": 7337,
      "anke": 7338,
      "ited": 7339,
      "ĠbelÃ": 7340,
      "ĠFinans": 7341,
      "Ġpraktiken": 7342,
      "che": 7343,
      "Ġprem": 7344,
      "Ġfemin": 7345,
      "listan": 7346,
      "Ġriksdagen": 7347,
      "jÃ¤ll": 7348,
      "ĠklÃ¤d": 7349,
      "AP": 7350,
      "ĠvÃ¤xter": 7351,
      "tgÃ¤r": 7352,
      "Ġnegativa": 7353,
      "lÃ¤kare": 7354,
      "inspekt": 7355,
      "Ġpor": 7356,
      "Ġradio": 7357,
      "Ġsingel": 7358,
      "Ġvaran": 7359,
      "ekonom": 7360,
      "ĠPriv": 7361,
      "Ġallting": 7362,
      "rax": 7363,
      "Ġkompon": 7364,
      "priset": 7365,
      "Ġkommunala": 7366,
      "efteÃ¥": 7367,
      "iabetes": 7368,
      "ĠslÃ¤pper": 7369,
      "Ġkreativ": 7370,
      "Ġhinder": 7371,
      "ĠKons": 7372,
      "rklaring": 7373,
      "Ġemellan": 7374,
      "koppling": 7375,
      "ĠPetter": 7376,
      "sliga": 7377,
      "ĠLinda": 7378,
      "entlig": 7379,
      "Ġklag": 7380,
      "ĠtrÃ¤ffas": 7381,
      "ĠanstÃ¤llning": 7382,
      "Ġbaserat": 7383,
      "ddes": 7384,
      "ĠAmer": 7385,
      "annen": 7386,
      "jÃ¤rt": 7387,
      "ĠAli": 7388,
      "Ġbehovet": 7389,
      "oni": 7390,
      "Ġtexter": 7391,
      "sy": 7392,
      "ljning": 7393,
      "Ġfran": 7394,
      "ĠMichael": 7395,
      "ĠCharl": 7396,
      "sket": 7397,
      "Ġdelas": 7398,
      "iserade": 7399,
      "ĠefterÃ¥t": 7400,
      "ĠðŁĺī": 7401,
      "Ġutmaning": 7402,
      "Ġgymnasie": 7403,
      "byt": 7404,
      "Ġuppdateras": 7405,
      "Ġregelbundet": 7406,
      "Ġegendom": 7407,
      "ĠBas": 7408,
      "yrkan": 7409,
      "Ġhalva": 7410,
      "vande": 7411,
      "Ã¥gs": 7412,
      "ĠsÃ¤nd": 7413,
      "rings": 7414,
      "ĠprimÃ¤r": 7415,
      "Ġtusentals": 7416,
      "Ġstry": 7417,
      "rÃ¤ndras": 7418,
      "ĠsÃ¥r": 7419,
      "ĠArtik": 7420,
      "gav": 7421,
      "ĠAngel": 7422,
      "ĠanlÃ¤ggning": 7423,
      "olly": 7424,
      "FS": 7425,
      "aktÃ": 7426,
      "bordet": 7427,
      "havare": 7428,
      "ervice": 7429,
      "Ġservic": 7430,
      "Ġsvaret": 7431,
      "ĠkÃ¤ra": 7432,
      "ĠTelefon": 7433,
      "Ã¤rskil": 7434,
      "tex": 7435,
      "smiljÃ": 7436,
      "ĠWil": 7437,
      "imin": 7438,
      "Ġpresenteras": 7439,
      "Ġsked": 7440,
      "Ġbryta": 7441,
      "ĠslÃ¤": 7442,
      "Ġsprang": 7443,
      "Ġsmarta": 7444,
      "Ġbyggnader": 7445,
      "ĠifrÃ¥gas": 7446,
      "Ġliter": 7447,
      "ĠUtveck": 7448,
      "SP": 7449,
      "Ġterror": 7450,
      "Ġcell": 7451,
      "Ġdistans": 7452,
      "ĠPal": 7453,
      "ĠSvensson": 7454,
      "rukost": 7455,
      "Ġkyrka": 7456,
      "ĠhÃ¥llbarhet": 7457,
      "ĠBorg": 7458,
      "Ġorder": 7459,
      "Ġnjut": 7460,
      "Ġkommunic": 7461,
      "Ġmix": 7462,
      "ĠmÃ¥ngf": 7463,
      "edom": 7464,
      "Ġurs": 7465,
      "oh": 7466,
      "Ġpuss": 7467,
      "ĠrÃ¥der": 7468,
      "ĠFel": 7469,
      "Ġspins": 7470,
      "Ġgram": 7471,
      "Ġagera": 7472,
      "md": 7473,
      "ĠvÃ¤ggen": 7474,
      "butik": 7475,
      "Ġplattform": 7476,
      "stÃ¤llande": 7477,
      "ĠRobert": 7478,
      "Ġinriktning": 7479,
      "Ġmamm": 7480,
      "shus": 7481,
      "registr": 7482,
      "ĠHaha": 7483,
      "Ġstall": 7484,
      "Ġreferens": 7485,
      "skurs": 7486,
      "ĠHammar": 7487,
      "ios": 7488,
      "ĠNat": 7489,
      "Ġintell": 7490,
      "cancer": 7491,
      "omb": 7492,
      "ical": 7493,
      "Ġmord": 7494,
      "Ġemellertid": 7495,
      "ĠUtcheckning": 7496,
      "lls": 7497,
      "Ġintressen": 7498,
      "orth": 7499,
      "Ġrekommenderas": 7500,
      "Ġbyggnad": 7501,
      "sskydd": 7502,
      "ĠRy": 7503,
      "ĠKristian": 7504,
      "ĠHennes": 7505,
      "Ġbollen": 7506,
      "ĠVÃ¥rd": 7507,
      "Ġlandsbyg": 7508,
      "Ġfacebook": 7509,
      "Hur": 7510,
      "iviteter": 7511,
      "gin": 7512,
      "Ġlevererar": 7513,
      "Ġjud": 7514,
      "ĠKor": 7515,
      "datum": 7516,
      "Ġdryck": 7517,
      "Ġtav": 7518,
      "ĠBur": 7519,
      "Ġsymtom": 7520,
      "ĠÃ¤ndras": 7521,
      "Ġfavoriter": 7522,
      "slin": 7523,
      "Ã¤mma": 7524,
      "bered": 7525,
      "Ġfastigheten": 7526,
      "ĠuppÃ¥t": 7527,
      "rordning": 7528,
      "Ġeld": 7529,
      "Ġuppdaterad": 7530,
      "atiskt": 7531,
      "ĠIncheckning": 7532,
      "ĠlÃ¤gsta": 7533,
      "ĠlÃ¤tta": 7534,
      "ĠSun": 7535,
      "ĠTwitter": 7536,
      "ĠFar": 7537,
      "Ġcamp": 7538,
      "Ġnett": 7539,
      "Ġstill": 7540,
      "Ġgjord": 7541,
      "emester": 7542,
      "Ġutnyttja": 7543,
      "ĠSjÃ¤lvklart": 7544,
      "issar": 7545,
      "ÃĦN": 7546,
      "risten": 7547,
      "innande": 7548,
      "Ġaspekt": 7549,
      "Ġfasta": 7550,
      "Ġexpert": 7551,
      "Ġdan": 7552,
      "Ġbist": 7553,
      "visningen": 7554,
      "fullmÃ¤ktige": 7555,
      "Ġguide": 7556,
      "somrÃ¥det": 7557,
      "ĠLED": 7558,
      "Ġleka": 7559,
      "Ġupplevelser": 7560,
      "ĠVolvo": 7561,
      "ĠAIK": 7562,
      "ĠBehÃ": 7563,
      "ĠFran": 7564,
      "styrelsens": 7565,
      "byggd": 7566,
      "komp": 7567,
      "ĠtvÃ¤rt": 7568,
      "ĠklÃ¤": 7569,
      "hjÃ¤lp": 7570,
      "Ġpraktiskt": 7571,
      "kÃ¤r": 7572,
      "ĠutgÃ¥ngspunkt": 7573,
      "gubb": 7574,
      "Ġinternationellt": 7575,
      "Ġrelat": 7576,
      "Ġbehandla": 7577,
      "ĠhÃ¤ndelse": 7578,
      "rhandling": 7579,
      "Ġkomplett": 7580,
      "Ġbokningar": 7581,
      "stÃ¤llt": 7582,
      "annes": 7583,
      "Ġcivil": 7584,
      "ppnade": 7585,
      "sjuk": 7586,
      "wood": 7587,
      "Svara": 7588,
      "terska": 7589,
      "Ġinbland": 7590,
      "Ġwork": 7591,
      "ĠsjukskÃ": 7592,
      "ĠaffÃ¤rs": 7593,
      "Ġpartiet": 7594,
      "Ġfarligt": 7595,
      "Radera": 7596,
      "Ġcasinon": 7597,
      "kontakt": 7598,
      "Ġsekret": 7599,
      "ĠTurk": 7600,
      "ĠFrÃ¥ga": 7601,
      "Ġavses": 7602,
      "Ġvaknade": 7603,
      "mande": 7604,
      "ĠHed": 7605,
      "Ġkameran": 7606,
      "ĠdÃ¤rifrÃ¥n": 7607,
      "Ġkvitt": 7608,
      "Ġdrivs": 7609,
      "Ġknulla": 7610,
      "poÃ¤ng": 7611,
      "Ġmedveten": 7612,
      "Ġbranschen": 7613,
      "ĠFull": 7614,
      "Ġformul": 7615,
      "Ġbyggt": 7616,
      "umenter": 7617,
      "Ġglobala": 7618,
      "Ġmatemat": 7619,
      "ĠnÃ¤tter": 7620,
      "Ġky": 7621,
      "Ġtidiga": 7622,
      "Ġlyssnar": 7623,
      "Ġsens": 7624,
      "Ġtaket": 7625,
      "ĠjÃ¤mstÃ¤lld": 7626,
      "SM": 7627,
      "flykt": 7628,
      "ĠIsrael": 7629,
      "uster": 7630,
      "svÃ¤gen": 7631,
      "tement": 7632,
      "Ġfriv": 7633,
      "ĠMedlem": 7634,
      "cern": 7635,
      "Ġminut": 7636,
      "irekt": 7637,
      "ĠaffÃ¤rer": 7638,
      "ĠDr": 7639,
      "Ã¤nsle": 7640,
      "atell": 7641,
      "ĠÃĸvriga": 7642,
      "Ġsamlar": 7643,
      "Ġdomin": 7644,
      "Ġinstrument": 7645,
      "Ġkonstaterar": 7646,
      "Ġordinarie": 7647,
      "ĠsevÃ¤rdheter": 7648,
      "vitt": 7649,
      "iro": 7650,
      "derande": 7651,
      "ĠFan": 7652,
      "sajt": 7653,
      "ague": 7654,
      "ĠjÃ¤vla": 7655,
      "penhamn": 7656,
      "Ġsky": 7657,
      "vÃ¤rden": 7658,
      "ontin": 7659,
      "ningsb": 7660,
      "ĠtrÃ¤ningen": 7661,
      "kÃ¤t": 7662,
      "ua": 7663,
      "enta": 7664,
      "nsaker": 7665,
      "sna": 7666,
      "Ã¤mnen": 7667,
      "rtjÃ¤n": 7668,
      "ĠLek": 7669,
      "rvÃ¤ntas": 7670,
      "Ġkonsekvenser": 7671,
      "Ġkategorin": 7672,
      "nitt": 7673,
      "Ġdoft": 7674,
      "hÃ¤lsa": 7675,
      "anskt": 7676,
      "ĠGreen": 7677,
      "fÃ¤lt": 7678,
      "mun": 7679,
      "Ġoblig": 7680,
      "Ġupphov": 7681,
      "Ġbeskriva": 7682,
      "Ġhantverk": 7683,
      "Ġirri": 7684,
      "Ġhastighet": 7685,
      "rhindra": 7686,
      "vig": 7687,
      "ivna": 7688,
      "Rum": 7689,
      "ĠPolisen": 7690,
      "Ġvirus": 7691,
      "konto": 7692,
      "ckerna": 7693,
      "ĠstÃ¤llde": 7694,
      "Ġbjuda": 7695,
      "Ġasyl": 7696,
      "Ġbus": 7697,
      "Ġpiz": 7698,
      "Ġverka": 7699,
      "ĠVall": 7700,
      "ĠLjus": 7701,
      "ĠGen": 7702,
      "Ġhamnade": 7703,
      "Ġalternativt": 7704,
      "Ġgarder": 7705,
      "rningar": 7706,
      "ĠkÃ¤nnas": 7707,
      "celler": 7708,
      "Ġvinster": 7709,
      "Ġnaturlig": 7710,
      "Ġregionen": 7711,
      "ota": 7712,
      "ĠTips": 7713,
      "rbru": 7714,
      "Ġvikten": 7715,
      "rmÃ¥gan": 7716,
      "Barn": 7717,
      "mÃ¤t": 7718,
      "ĠlÃ¤ngtar": 7719,
      "alk": 7720,
      "Ġsyssels": 7721,
      "ĠhÃ¤ft": 7722,
      "xx": 7723,
      "ĠVide": 7724,
      "ĠMicrosoft": 7725,
      "teringen": 7726,
      "play": 7727,
      "Ġuteslut": 7728,
      "Ġarv": 7729,
      "Ġverket": 7730,
      "ĠinstÃ¤llning": 7731,
      "ĠColl": 7732,
      "stil": 7733,
      "sÃ¥lder": 7734,
      "ryss": 7735,
      "Ġrecension": 7736,
      "Ġspecifika": 7737,
      "ĠVictor": 7738,
      "Ã¤ckande": 7739,
      "ruktioner": 7740,
      "jning": 7741,
      "Ġkommers": 7742,
      "Ġert": 7743,
      "ĠHalm": 7744,
      "ĠBod": 7745,
      "Ġmorm": 7746,
      "Ġbussen": 7747,
      "ago": 7748,
      "Ġkompisar": 7749,
      "Ġbehandlar": 7750,
      "gskola": 7751,
      "ĠNov": 7752,
      "Ġinc": 7753,
      "ampor": 7754,
      "jejer": 7755,
      "ullen": 7756,
      "Ġnational": 7757,
      "Ġsprida": 7758,
      "orier": 7759,
      "ĠHistor": 7760,
      "lÃ¤ge": 7761,
      "rÃ¤ldrarna": 7762,
      "Ġbrister": 7763,
      "skog": 7764,
      "ĠmÃ¥ltid": 7765,
      "enomen": 7766,
      "Fi": 7767,
      "Ġll": 7768,
      "somrÃ¥de": 7769,
      "Ġfinansiering": 7770,
      "ĠCla": 7771,
      "Ġreson": 7772,
      "Ġhundrat": 7773,
      "ĠberÃ¤knas": 7774,
      "ĠHolm": 7775,
      "rebyggande": 7776,
      "ĠNytt": 7777,
      "ĠPlus": 7778,
      "ned": 7779,
      "kons": 7780,
      "Ġsnur": 7781,
      "agram": 7782,
      "ÃĦR": 7783,
      "Ġdagliga": 7784,
      "ĠMalin": 7785,
      "koll": 7786,
      "rÃ¤der": 7787,
      "oten": 7788,
      "Ġtema": 7789,
      "Ġturist": 7790,
      "Ġytan": 7791,
      "Fr": 7792,
      "ckta": 7793,
      "Ġbehandlingen": 7794,
      "Ġbibliotek": 7795,
      "Ġkvartalet": 7796,
      "Ġbegrav": 7797,
      "ĠAL": 7798,
      "Ġnav": 7799,
      "Ġpack": 7800,
      "Ġpyss": 7801,
      "ĠsjÃ¤lvklar": 7802,
      "Ġdjupt": 7803,
      "cykel": 7804,
      "utomater": 7805,
      "Ġuppenbar": 7806,
      "ĠGra": 7807,
      "ĠanmÃ¤la": 7808,
      "ones": 7809,
      "ptom": 7810,
      "stagram": 7811,
      "Ġspa": 7812,
      "Ġkonsumenter": 7813,
      "Ġlukt": 7814,
      "Ġcan": 7815,
      "ĠLever": 7816,
      "vat": 7817,
      "ografi": 7818,
      "ĠFakt": 7819,
      "osam": 7820,
      "Ġhyp": 7821,
      "ĠlÃ¤mplig": 7822,
      "ribent": 7823,
      "process": 7824,
      "Ġpresentera": 7825,
      "ĠFR": 7826,
      "ĠBru": 7827,
      "Ġsammans": 7828,
      "Ġlet": 7829,
      "eriod": 7830,
      "ĠsprÃ¥ket": 7831,
      "Ġledig": 7832,
      "ĠfÃ¤lt": 7833,
      "ĠCamp": 7834,
      "rsÃ¤ljningen": 7835,
      "olt": 7836,
      "ĠNorr": 7837,
      "Ġspecialis": 7838,
      "ĠUlf": 7839,
      "andard": 7840,
      "ĠOfta": 7841,
      "Ġrekord": 7842,
      "ĠAustrali": 7843,
      "Ġtogs": 7844,
      "Ġadministr": 7845,
      "uktion": 7846,
      "Ġstudera": 7847,
      "Ġrelev": 7848,
      "ript": 7849,
      "ĠfÃ¤rgen": 7850,
      "ĠRadio": 7851,
      "ĠBarcel": 7852,
      "usch": 7853,
      "punkten": 7854,
      "Ġmedborgare": 7855,
      "Ġtrend": 7856,
      "Ġbetydande": 7857,
      "igger": 7858,
      "Ã¤ls": 7859,
      "Ġsjuka": 7860,
      "ĠLou": 7861,
      "asen": 7862,
      "partement": 7863,
      "ĠJac": 7864,
      "iske": 7865,
      "mail": 7866,
      "redrar": 7867,
      "ĠpÃ¥pe": 7868,
      "Ġâľ": 7869,
      "Ġreal": 7870,
      "Ġfaktur": 7871,
      "Ġaktuell": 7872,
      "ĠÃ¤ng": 7873,
      "ĠstÃ¤lls": 7874,
      "blog": 7875,
      "Ġgrejer": 7876,
      "ĠOne": 7877,
      "Ġdeltog": 7878,
      "Ġgifta": 7879,
      "ĠBÃ¥da": 7880,
      "Ġinkom": 7881,
      "Ġbered": 7882,
      "Ġundervisning": 7883,
      "Ġeftermiddagen": 7884,
      "Ġmak": 7885,
      "Ġgenerellt": 7886,
      "olan": 7887,
      "Ġduktiga": 7888,
      "Ġrapporterar": 7889,
      "Ã¤nken": 7890,
      "ĠOk": 7891,
      "ĠfÃ¤ngelse": 7892,
      "Ġblad": 7893,
      "ttag": 7894,
      "ĠSus": 7895,
      "gonblick": 7896,
      "ivision": 7897,
      "Alla": 7898,
      "Ġpresenter": 7899,
      "rsvars": 7900,
      "Ã¤sten": 7901,
      "handlingar": 7902,
      "Ġpersonligt": 7903,
      "ĠSi": 7904,
      "Ġrika": 7905,
      "ĠstÃ¤nga": 7906,
      "cir": 7907,
      "ĠÃ¤renden": 7908,
      "slÃ¥n": 7909,
      "Ġallvarligt": 7910,
      "ĠBestÃ¤ll": 7911,
      "uti": 7912,
      "ulÃ¤ra": 7913,
      "ioder": 7914,
      "byg": 7915,
      "iets": 7916,
      "UM": 7917,
      "Ġutbildningar": 7918,
      "Ġkamp": 7919,
      "Ġhandlingar": 7920,
      "Ġriktlinjer": 7921,
      "ĠResort": 7922,
      "vatt": 7923,
      "ĠInfÃ": 7924,
      "ĠÃ¤ld": 7925,
      "Ġaff": 7926,
      "ljus": 7927,
      "Ġreduc": 7928,
      "ĠklÃ¤tt": 7929,
      "Ġandas": 7930,
      "Ġtillt": 7931,
      "Ġuppst": 7932,
      "ĠgrÃ¤v": 7933,
      "Ġjobbade": 7934,
      "Sp": 7935,
      "Ġminer": 7936,
      "ads": 7937,
      "Ġje": 7938,
      "hjul": 7939,
      "reskrifter": 7940,
      "Ãĥ": 7941,
      "Ġeftermiddag": 7942,
      "Ġinbjud": 7943,
      "utrustning": 7944,
      "Ġbegrepp": 7945,
      "Ġfrivill": 7946,
      "ole": 7947,
      "Ġrit": 7948,
      "ĠOM": 7949,
      "vergripande": 7950,
      "ĠBi": 7951,
      "ĠmÃ¤nniskors": 7952,
      "Ġtelefonnummer": 7953,
      "ĠMid": 7954,
      "Ġtransporter": 7955,
      "Ġundra": 7956,
      "ĠHanna": 7957,
      "Ġlung": 7958,
      "rund": 7959,
      "ĠResultatet": 7960,
      "ĠLjung": 7961,
      "Ġlarm": 7962,
      "Ġviagra": 7963,
      "Ġhistoriska": 7964,
      "Ġsalu": 7965,
      "Ġringer": 7966,
      "ĠDeras": 7967,
      "skam": 7968,
      "Ġfysisk": 7969,
      "ĠgÃ¤r": 7970,
      "ĠnivÃ¥er": 7971,
      "rvand": 7972,
      "Ġinvesteringar": 7973,
      "ĠvÃ¤rmen": 7974,
      "ĠlÃ¤ggs": 7975,
      "iketter": 7976,
      "Ġrestaurangen": 7977,
      "Ã¤ckte": 7978,
      "Ġpubliken": 7979,
      "Ġvelat": 7980,
      "Ġbjud": 7981,
      "Ġexister": 7982,
      "ĠGuds": 7983,
      "ĠKen": 7984,
      "skande": 7985,
      "iftet": 7986,
      "ĠPR": 7987,
      "Ġfinal": 7988,
      "DF": 7989,
      "Ġenormt": 7990,
      "Ġklassisk": 7991,
      "Ġprofessor": 7992,
      "Ġtestat": 7993,
      "rlorade": 7994,
      "Ġfamilje": 7995,
      "Ġstatus": 7996,
      "ommen": 7997,
      "ĠfrÃ¥gorna": 7998,
      "ĠAfton": 7999,
      "ĠnyÃ¥r": 8000,
      "Ġinsikt": 8001,
      "lÃ¥": 8002,
      "riska": 8003,
      "Ġmisstag": 8004,
      "eteck": 8005,
      "Ġdal": 8006,
      "relat": 8007,
      "Var": 8008,
      "Ġrost": 8009,
      "jack": 8010,
      "jun": 8011,
      "ikon": 8012,
      "Ġhin": 8013,
      "Ġkategorier": 8014,
      "Ã¤ge": 8015,
      "ugh": 8016,
      "ĠCit": 8017,
      "Ġga": 8018,
      "Ġspeg": 8019,
      "Ġinvestering": 8020,
      "ĠEnergi": 8021,
      "ĠOut": 8022,
      "ils": 8023,
      "ĠFÃ¤rg": 8024,
      "ĠentrÃ©": 8025,
      "Ġneder": 8026,
      "Ġopp": 8027,
      "ĠoxÃ¥": 8028,
      "Ġpraktik": 8029,
      "Ġadministrat": 8030,
      "IM": 8031,
      "ĠEskil": 8032,
      "ĠJam": 8033,
      "Ġfartyg": 8034,
      "jukt": 8035,
      "baserade": 8036,
      "ĠKolla": 8037,
      "organisation": 8038,
      "gjort": 8039,
      "Ã¥rden": 8040,
      "Ġseparat": 8041,
      "iew": 8042,
      "uminium": 8043,
      "Ġmel": 8044,
      "stens": 8045,
      "ĠhjÃ¤rnan": 8046,
      "ĠIsland": 8047,
      "Ġspelarna": 8048,
      "ĠPhil": 8049,
      "Ġhet": 8050,
      "ĠBred": 8051,
      "Ġoffer": 8052,
      "ĠSnart": 8053,
      "entliga": 8054,
      "Ġbrun": 8055,
      "Ġbast": 8056,
      "CC": 8057,
      "Ġflygplatsen": 8058,
      "verst": 8059,
      "hydr": 8060,
      "Ġrunda": 8061,
      "index": 8062,
      "ĠAV": 8063,
      "Ġbror": 8064,
      "log": 8065,
      "ĠElin": 8066,
      "ĠbokfÃ": 8067,
      "ĠPrem": 8068,
      "ĠHag": 8069,
      "ĠuppvÃ¤r": 8070,
      "yns": 8071,
      "ocket": 8072,
      "Ġstatliga": 8073,
      "Ġstolta": 8074,
      "Ġtids": 8075,
      "Ġskapade": 8076,
      "hjÃ¤l": 8077,
      "fit": 8078,
      "Ġsammant": 8079,
      "Ġreglerna": 8080,
      "Ġlade": 8081,
      "ĠLill": 8082,
      "ĠunderlÃ¤tta": 8083,
      "ĠHouse": 8084,
      "Ġminskat": 8085,
      "Ġtings": 8086,
      "ĠJer": 8087,
      "Ġkristen": 8088,
      "jligen": 8089,
      "Ġsval": 8090,
      "ĠTyp": 8091,
      "Ġstam": 8092,
      "Ġideal": 8093,
      "ĠSig": 8094,
      "Ġformen": 8095,
      "ico": 8096,
      "uppl": 8097,
      "ily": 8098,
      "jligheterna": 8099,
      "Ġmats": 8100,
      "Ġvariera": 8101,
      "Ġfiler": 8102,
      "ĠMedel": 8103,
      "Ġpatienten": 8104,
      "kland": 8105,
      "ĠYou": 8106,
      "ĠtjÃ¤nar": 8107,
      "ifest": 8108,
      "ĠpÃ¥gÃ¥ende": 8109,
      "Ġeffektiva": 8110,
      "ĠPS": 8111,
      "plet": 8112,
      "Ġsop": 8113,
      "sprocessen": 8114,
      "Mar": 8115,
      "Ġimpon": 8116,
      "ĠLeague": 8117,
      "Ġbiljetter": 8118,
      "jort": 8119,
      "Ġavtalet": 8120,
      "retrÃ¤d": 8121,
      "dam": 8122,
      "Ġrele": 8123,
      "ĠSida": 8124,
      "ioxid": 8125,
      "ordin": 8126,
      "Ġsekund": 8127,
      "ĠBrÃ": 8128,
      "Ġarbetsuppgifter": 8129,
      "Ġstorlekar": 8130,
      "gtal": 8131,
      "motor": 8132,
      "ĠNedan": 8133,
      "mningen": 8134,
      "sledare": 8135,
      "Ġtrycka": 8136,
      "ĠtillgÃ¤ngligt": 8137,
      "Ġskaff": 8138,
      "Ġsamlas": 8139,
      "politik": 8140,
      "Ġaren": 8141,
      "Ġstycket": 8142,
      "Ġpolitiskt": 8143,
      "ĠIFK": 8144,
      "ĠLO": 8145,
      "Ġdygn": 8146,
      "Ġpresenterar": 8147,
      "Ġmog": 8148,
      "ĠInstagram": 8149,
      "Ġmids": 8150,
      "tav": 8151,
      "ĠStre": 8152,
      "Ġverkade": 8153,
      "Ġkomfort": 8154,
      "ĠImorgon": 8155,
      "ĠSing": 8156,
      "Ġblandning": 8157,
      "TER": 8158,
      "inlÃ¤gg": 8159,
      "Ġbegre": 8160,
      "ĠSL": 8161,
      "Ġkant": 8162,
      "Ġdyra": 8163,
      "sprodukter": 8164,
      "rvÃ¤ntningar": 8165,
      "ĠPublicerad": 8166,
      "ĠLi": 8167,
      "Ġangiv": 8168,
      "sg": 8169,
      "Ġbubb": 8170,
      "ero": 8171,
      "sakt": 8172,
      "UL": 8173,
      "ĠAnton": 8174,
      "maskiner": 8175,
      "Ġthat": 8176,
      "Ġintegritet": 8177,
      "ĠpÃ¥verkan": 8178,
      "beth": 8179,
      "ĠÃ¤kt": 8180,
      "byggda": 8181,
      "Ġadvok": 8182,
      "Ġfiber": 8183,
      "Ġpolitisk": 8184,
      "Ġtera": 8185,
      "Ã¤ndsk": 8186,
      "Ġele": 8187,
      "stÃ¤ndig": 8188,
      "ĠtillÃ¥ter": 8189,
      "boende": 8190,
      "everket": 8191,
      "ĠallmÃ¤nheten": 8192,
      "ningom": 8193,
      "Ġkonflikt": 8194,
      "Ġenskild": 8195,
      "Ã¤nge": 8196,
      "sklass": 8197,
      "Ġhotellen": 8198,
      "ĠbegrÃ¤nsad": 8199,
      "Ġallvarliga": 8200,
      "Ġrapporten": 8201,
      "Ġsatsar": 8202,
      "ĠGotland": 8203,
      "kvalit": 8204,
      "Ġtok": 8205,
      "Ġdatorer": 8206,
      "strid": 8207,
      "Ġavfall": 8208,
      "slo": 8209,
      "sfull": 8210,
      "Ġorolig": 8211,
      "Ġbens": 8212,
      "urer": 8213,
      "Ġtidning": 8214,
      "ĠJohanna": 8215,
      "xa": 8216,
      "Ġggr": 8217,
      "nades": 8218,
      "ĠFree": 8219,
      "EC": 8220,
      "rloss": 8221,
      "Ġhom": 8222,
      "stedt": 8223,
      "Ġbredband": 8224,
      "Ġattra": 8225,
      "redit": 8226,
      "ĠNÃ": 8227,
      "ĠhjÃ¤lpsamhet": 8228,
      "stillstÃ¥nd": 8229,
      "Ġledarskap": 8230,
      "Ġmodellen": 8231,
      "ĠhÃ¥rda": 8232,
      "ĠgÃ¥rden": 8233,
      "Ġsite": 8234,
      "ĠRegeringen": 8235,
      "ĠGunnar": 8236,
      "irt": 8237,
      "Ġofficiella": 8238,
      "ĠKÃ¤nns": 8239,
      "Ġdiverse": 8240,
      "ĠgrÃ¤nser": 8241,
      "ĠUr": 8242,
      "Ġfemte": 8243,
      "ĠhÃ¥lls": 8244,
      "ĠjÃ¤rnvÃ¤g": 8245,
      "ĠIntress": 8246,
      "Ġlott": 8247,
      "Ġstation": 8248,
      "Ġfirma": 8249,
      "ĠfrÃ¤mja": 8250,
      "Ġavse": 8251,
      "ĠLilla": 8252,
      "ĠKap": 8253,
      "ĠanvÃ¤ndar": 8254,
      "bildning": 8255,
      "Ġfjol": 8256,
      "ĠMÃ¤nnisk": 8257,
      "ĠArbets": 8258,
      "Ġtrupp": 8259,
      "ĠvÃ¤rdet": 8260,
      "rsvann": 8261,
      "prÃ": 8262,
      "Ġinspel": 8263,
      "Ġnorska": 8264,
      "LÃ¤s": 8265,
      "utan": 8266,
      "rban": 8267,
      "rycket": 8268,
      "ĠArv": 8269,
      "Ch": 8270,
      "vlar": 8271,
      "Ļ¥": 8272,
      "ĠGlÃ": 8273,
      "iliteter": 8274,
      "Ġhun": 8275,
      "Ġminnen": 8276,
      "Ġtren": 8277,
      "Ġtip": 8278,
      "mosfÃ¤r": 8279,
      "jord": 8280,
      "Ġdenne": 8281,
      "ĠhÃ¤sten": 8282,
      "Ġkampanj": 8283,
      "ĠpÃ¥stÃ¥": 8284,
      "mod": 8285,
      "ĠKommentar": 8286,
      "yer": 8287,
      "Ġsvett": 8288,
      "ĠhÃ¤nderna": 8289,
      "ĠKer": 8290,
      "Ġuppdraget": 8291,
      "ĠkrÃ": 8292,
      "Ġrest": 8293,
      "Ġpartier": 8294,
      "urar": 8295,
      "vd": 8296,
      "Ġlivsstil": 8297,
      "Ġplanerat": 8298,
      "sÃ¥s": 8299,
      "Ġantar": 8300,
      "gjor": 8301,
      "ĠOf": 8302,
      "ĠTest": 8303,
      "Ġrollen": 8304,
      "Ġsignal": 8305,
      "ppnas": 8306,
      "napp": 8307,
      "ĠDesign": 8308,
      "smed": 8309,
      "Ġtacka": 8310,
      "hÃ¥l": 8311,
      "Ġuppfyller": 8312,
      "pri": 8313,
      "ame": 8314,
      "Ġkraven": 8315,
      "Ã¤sa": 8316,
      "ffs": 8317,
      "Ġpren": 8318,
      "ife": 8319,
      "ĠumgÃ¥s": 8320,
      "Ġmysig": 8321,
      "sned": 8322,
      "ili": 8323,
      "ĠMÃ¤r": 8324,
      "ammation": 8325,
      "Ġvisserligen": 8326,
      "Ġbeskrivs": 8327,
      "enda": 8328,
      "atisk": 8329,
      "iering": 8330,
      "Ġgenast": 8331,
      "Ġriksdag": 8332,
      "Ġdanska": 8333,
      "bu": 8334,
      "elen": 8335,
      "otte": 8336,
      "ĠutlÃ¤ndska": 8337,
      "igar": 8338,
      "ĠtjÃ¤nste": 8339,
      "ĠfÃ¥gel": 8340,
      "ĠovÃ¤nt": 8341,
      "Ġidentitet": 8342,
      "Ġakadem": 8343,
      "ansvÃ¤rt": 8344,
      "ents": 8345,
      "ĠSÃ¤rskil": 8346,
      "ĠBlÃ¥": 8347,
      "Ġskoj": 8348,
      "Ġsynpunkter": 8349,
      "Ġpeppar": 8350,
      "con": 8351,
      "ln": 8352,
      "ĠhjÃ¤lpsamhetsrÃ": 8353,
      "Ġnomin": 8354,
      "Ġkapacitet": 8355,
      "ymer": 8356,
      "ĠinsÃ¤ttning": 8357,
      "ĠFrÃ¥gor": 8358,
      "ĠÃĸst": 8359,
      "versÃ¤ttningarJa": 8360,
      "rsÃ¤kringar": 8361,
      "Ġflickor": 8362,
      "ĠKvinnor": 8363,
      "verksamheten": 8364,
      "ĠKarlstad": 8365,
      "ektionen": 8366,
      "ĠKund": 8367,
      "Ġfond": 8368,
      "jÃ¤rna": 8369,
      "uppgift": 8370,
      "ĠBlev": 8371,
      "Ġkonstruktion": 8372,
      "Ġinnefatt": 8373,
      "ĠOsc": 8374,
      "Ġrisker": 8375,
      "Ġsparar": 8376,
      "Ġster": 8377,
      "ĠPan": 8378,
      "ĠefterfrÃ¥gan": 8379,
      "ĠsmÃ¥ningom": 8380,
      "spass": 8381,
      "Ġkollade": 8382,
      "ĠBoken": 8383,
      "Ġreligion": 8384,
      "weiz": 8385,
      "handeln": 8386,
      "istens": 8387,
      "skr": 8388,
      "ĠvÃ¤xande": 8389,
      "Ġljuset": 8390,
      "sand": 8391,
      "Ġavslapp": 8392,
      "stuna": 8393,
      "ĠÃ¥tal": 8394,
      "IP": 8395,
      "ĠinsÃ¥g": 8396,
      "Ġfattar": 8397,
      "ĠINTE": 8398,
      "Ġbefolkningen": 8399,
      "Ġbordet": 8400,
      "Ex": 8401,
      "rsÃ¤m": 8402,
      "ĠHotellet": 8403,
      "Ġstack": 8404,
      "ĠPC": 8405,
      "ĠVen": 8406,
      "Ġregeringens": 8407,
      "ĠsÃ¥dÃ¤r": 8408,
      "ĠanfÃ": 8409,
      "filer": 8410,
      "ĠFotboll": 8411,
      "aljer": 8412,
      "ĠFilm": 8413,
      "Ġkalen": 8414,
      "Ġkategori": 8415,
      "bilitet": 8416,
      "ĠMÃ¥let": 8417,
      "rÃ¤dande": 8418,
      "ĠutslÃ¤pp": 8419,
      "ĠinnehÃ¥lla": 8420,
      "Ġfastigheter": 8421,
      "Ġuppger": 8422,
      "Ġyttre": 8423,
      "Ġpal": 8424,
      "Ġramen": 8425,
      "oto": 8426,
      "hÃ¥llet": 8427,
      "Ġmunnen": 8428,
      "ĠvÃ¥ga": 8429,
      "Ġbomull": 8430,
      "kant": 8431,
      "spÃ¥r": 8432,
      "Ġansikte": 8433,
      "Ġbyn": 8434,
      "Ġgat": 8435,
      "day": 8436,
      "svenska": 8437,
      "ĠKr": 8438,
      "ĠBox": 8439,
      "ĠCentral": 8440,
      "Ġkvinnliga": 8441,
      "etts": 8442,
      "Ġanled": 8443,
      "ĠSofia": 8444,
      "Ġmand": 8445,
      "Ġekonomin": 8446,
      "ĠutgÃ¥": 8447,
      "Ġbrut": 8448,
      "infl": 8449,
      "ĠProdukt": 8450,
      "Ġantagligen": 8451,
      "amet": 8452,
      "ĠBarcelona": 8453,
      "vester": 8454,
      "makt": 8455,
      "ĠgÃ¥rd": 8456,
      "ĠSkar": 8457,
      "Ġplacering": 8458,
      "Ġanger": 8459,
      "Ġkommenter": 8460,
      "ĠMattias": 8461,
      "AC": 8462,
      "Ġintryck": 8463,
      "umman": 8464,
      "ally": 8465,
      "rstÃ¥tt": 8466,
      "Ġvolym": 8467,
      "irus": 8468,
      "vÃ¤rdet": 8469,
      "Ġobehag": 8470,
      "enskaps": 8471,
      "ĠvÃ¤rden": 8472,
      "ĠCarol": 8473,
      "Ã¤da": 8474,
      "ĠInternational": 8475,
      "ield": 8476,
      "ading": 8477,
      "Ġack": 8478,
      "ĠMest": 8479,
      "imeter": 8480,
      "Ã¤mnden": 8481,
      "ĠbekvÃ¤mt": 8482,
      "Ġavlopp": 8483,
      "ĠvÃ¤v": 8484,
      "Ġbetalt": 8485,
      "ĠskÃ¤rm": 8486,
      "rutsÃ¤ttningarna": 8487,
      "Ġdras": 8488,
      "nast": 8489,
      "Ġris": 8490,
      "Ġutsatta": 8491,
      "ĠanstrÃ¤ng": 8492,
      "ĠLenn": 8493,
      "jÃ¤rnan": 8494,
      "ĠhÃ¥llet": 8495,
      "ĠÃħrs": 8496,
      "ĠresenÃ¤r": 8497,
      "rresten": 8498,
      "Ġdelakt": 8499,
      "dvÃ¤ndiga": 8500,
      "Ġkryss": 8501,
      "ĠStort": 8502,
      "Ġstift": 8503,
      "arbeten": 8504,
      "Ġperman": 8505,
      "ĠJapan": 8506,
      "Ġprenumer": 8507,
      "ski": 8508,
      "ĠPerfekt": 8509,
      "Ġdamer": 8510,
      "Ġkommunerna": 8511,
      "Ġsorts": 8512,
      "Ġdon": 8513,
      "Ġmorse": 8514,
      "kok": 8515,
      "ĠCre": 8516,
      "ĠÃĸstersund": 8517,
      "astrof": 8518,
      "ienska": 8519,
      "Ġlyfter": 8520,
      "analys": 8521,
      "ni": 8522,
      "Ġlevereras": 8523,
      "Ġbryr": 8524,
      "abor": 8525,
      "ĠmÃ¤rker": 8526,
      "Ġfyllt": 8527,
      "Ġloppet": 8528,
      "papper": 8529,
      "ĠKÃ¤r": 8530,
      "Ġkniv": 8531,
      "Ġkunderna": 8532,
      "Ġmjuka": 8533,
      "igr": 8534,
      "Ġcharm": 8535,
      "ydda": 8536,
      "Ġlikt": 8537,
      "ĠhÃ¤vdar": 8538,
      "ĠtrÃ¤ng": 8539,
      "Ġskapas": 8540,
      "publ": 8541,
      "Ġfril": 8542,
      "station": 8543,
      "Ġjournalist": 8544,
      "Ġlegat": 8545,
      "arium": 8546,
      "ĠMusik": 8547,
      "ĠFer": 8548,
      "pul": 8549,
      "arter": 8550,
      "jell": 8551,
      "holmen": 8552,
      "ĠAndroid": 8553,
      "Ġvett": 8554,
      "Ġlett": 8555,
      "skÃ¥d": 8556,
      "ĠÃħsa": 8557,
      "onto": 8558,
      "ĠâĤ¬": 8559,
      "ble": 8560,
      "ĠPress": 8561,
      "Ġhamna": 8562,
      "Ġtrav": 8563,
      "Ġlivs": 8564,
      "ockan": 8565,
      "Ġtittat": 8566,
      "Ġframme": 8567,
      "massage": 8568,
      "SÃ": 8569,
      "oppar": 8570,
      "Ġbif": 8571,
      "ĠBay": 8572,
      "ĠPop": 8573,
      "Ġkyckling": 8574,
      "okt": 8575,
      "Ġanklag": 8576,
      "ĠtrÃ¥dlÃ": 8577,
      "ĠnÃ¤s": 8578,
      "cha": 8579,
      "senord": 8580,
      "redovisning": 8581,
      "hailand": 8582,
      "Ġillustr": 8583,
      "ĠAffÃ¤r": 8584,
      "Ġorter": 8585,
      "ĠAlexander": 8586,
      "Ġvice": 8587,
      "Ġtillgod": 8588,
      "ware": 8589,
      "ĠrÃ¥det": 8590,
      "Ġfet": 8591,
      "rÃ¤da": 8592,
      "marknaden": 8593,
      "ĠService": 8594,
      "Ġwe": 8595,
      "ĠRon": 8596,
      "ĠICA": 8597,
      "ĠÃ¥rsmÃ": 8598,
      "bÃ¥g": 8599,
      "speci": 8600,
      "ĠLÃ¤tt": 8601,
      "Ġunikt": 8602,
      "Ġbyter": 8603,
      "ĠTrÃ¤d": 8604,
      "zer": 8605,
      "ĠFo": 8606,
      "Ġandras": 8607,
      "Ġroligare": 8608,
      "OD": 8609,
      "Ġdl": 8610,
      "ubben": 8611,
      "Ġdeltagarna": 8612,
      "mÃ¤rken": 8613,
      "tain": 8614,
      "Ġviktigare": 8615,
      "ĠknÃ¤": 8616,
      "ĠsÃ¤ljs": 8617,
      "Ġstannade": 8618,
      "ington": 8619,
      "Ġtilldel": 8620,
      "Ġbekym": 8621,
      "Ã¤nte": 8622,
      "ĠMaterial": 8623,
      "Ġromant": 8624,
      "Ġflicka": 8625,
      "Ġtunnel": 8626,
      "ĠvÃ¤lk": 8627,
      "ĠtrÃ¤ffat": 8628,
      "NA": 8629,
      "Ġange": 8630,
      "Ġgamm": 8631,
      "ĠBeg": 8632,
      "stning": 8633,
      "Ġdum": 8634,
      "Ã¤ta": 8635,
      "Ġsag": 8636,
      "Ġbin": 8637,
      "ĠRich": 8638,
      "Ġkanaler": 8639,
      "ĠRock": 8640,
      "ĠDela": 8641,
      "Ġugnen": 8642,
      "Ġannons": 8643,
      "ĠvarumÃ¤rke": 8644,
      "ĠGrand": 8645,
      "Ġbearbet": 8646,
      "duk": 8647,
      "ĠHud": 8648,
      "Ġbelast": 8649,
      "Ġhantering": 8650,
      "Ġskyddar": 8651,
      "kÃ¤nsla": 8652,
      "ĠomsÃ¤ttning": 8653,
      "ĠGlob": 8654,
      "Ġnark": 8655,
      "Ġkrydd": 8656,
      "sÃ¤tts": 8657,
      "rvÃ¤g": 8658,
      "talienska": 8659,
      "ĠanstÃ¤lld": 8660,
      "ĠvÃ¤ggar": 8661,
      "Ġidentifier": 8662,
      "Ġbyt": 8663,
      "Ġtil": 8664,
      "Ġuttag": 8665,
      "kaka": 8666,
      "Ġmkt": 8667,
      "ĠhjÃ¤lpte": 8668,
      "obby": 8669,
      "Ġlogga": 8670,
      "Ġsamlade": 8671,
      "Ġanfall": 8672,
      "ĠnÃ¤rm": 8673,
      "ĠLisa": 8674,
      "Ġspringer": 8675,
      "Ġkika": 8676,
      "orma": 8677,
      "ĠTrav": 8678,
      "ĠKÃ¤nner": 8679,
      "Ġrock": 8680,
      "Ġbett": 8681,
      "rstod": 8682,
      "Ġnegativt": 8683,
      "ĠNorra": 8684,
      "asse": 8685,
      "Ġapplic": 8686,
      "une": 8687,
      "aska": 8688,
      "erska": 8689,
      "astighet": 8690,
      "jakt": 8691,
      "ĠSjuk": 8692,
      "Ġteknisk": 8693,
      "htt": 8694,
      "ĠspÃ": 8695,
      "Ġhyresg": 8696,
      "rne": 8697,
      "Ġislam": 8698,
      "Res": 8699,
      "Ġtrakt": 8700,
      "Ġuppfyll": 8701,
      "ĠreligiÃ": 8702,
      "roll": 8703,
      "Ġang": 8704,
      "Ġfara": 8705,
      "ĠtÃ¤vlingar": 8706,
      "Ġansvaret": 8707,
      "Ã¤ter": 8708,
      "Ġkomplic": 8709,
      "Ġresultaten": 8710,
      "Ġfungerande": 8711,
      "Ġfra": 8712,
      "Ġfoton": 8713,
      "Ġpod": 8714,
      "ĠmisstÃ¤nkt": 8715,
      "Ġvinnare": 8716,
      "ĠLes": 8717,
      "gern": 8718,
      "Ġarbetade": 8719,
      "Ġtelefonen": 8720,
      "text": 8721,
      "Ġfry": 8722,
      "ĠFlor": 8723,
      "verklag": 8724,
      "ĠmÃ¥la": 8725,
      "NÃ¤r": 8726,
      "oppen": 8727,
      "Ġone": 8728,
      "ĠtÃ¥get": 8729,
      "ĠWorld": 8730,
      "Ġfantas": 8731,
      "Ã¤Ã¤": 8732,
      "ĠNorden": 8733,
      "ĠAnsÃ": 8734,
      "idas": 8735,
      "rjning": 8736,
      "ĠMaj": 8737,
      "ĠnÃ¤rhet": 8738,
      "ĠEuropeiska": 8739,
      "Ġutredningen": 8740,
      "au": 8741,
      "skvÃ¤llen": 8742,
      "Ġgatan": 8743,
      "Ġproducerar": 8744,
      "Ġorden": 8745,
      "ianter": 8746,
      "spolicy": 8747,
      "ĠVilla": 8748,
      "Ġgrepp": 8749,
      "ĠÃ¥tgÃ¤rd": 8750,
      "Ġfredagen": 8751,
      "Ġdyrt": 8752,
      "Ġgjorda": 8753,
      "nats": 8754,
      "ĠJak": 8755,
      "ĠmÃ¤rke": 8756,
      "Ã¤mmande": 8757,
      "rlora": 8758,
      "Ġavsluta": 8759,
      "Ġdatab": 8760,
      "Ġformat": 8761,
      "Ġbilligaste": 8762,
      "SEK": 8763,
      "kondition": 8764,
      "Ġanti": 8765,
      "ĠÃ¤ndringar": 8766,
      "Ã¤stan": 8767,
      "ĠvÃ¤rdering": 8768,
      "bidrag": 8769,
      "ĠbÃ¥ten": 8770,
      "Ġbitar": 8771,
      "Ġting": 8772,
      "data": 8773,
      "ĠsÃ¤kerhets": 8774,
      "ikanska": 8775,
      "ekret": 8776,
      "hen": 8777,
      "Ġvisats": 8778,
      "Ġursprungliga": 8779,
      "Ġhalsen": 8780,
      "mag": 8781,
      "Ã¤nningen": 8782,
      "ĠÐ": 8783,
      "snummer": 8784,
      "Ġmusiken": 8785,
      "Ġdok": 8786,
      "Ġsvamp": 8787,
      "ttit": 8788,
      "Ġcentralt": 8789,
      "ĠClub": 8790,
      "sÃ¥ldern": 8791,
      "Ã¤ttar": 8792,
      "ĠCap": 8793,
      "Ġgymnasiet": 8794,
      "Ġrutin": 8795,
      "Ġdiskrimin": 8796,
      "Ġlider": 8797,
      "ĠTrump": 8798,
      "Kon": 8799,
      "Ġml": 8800,
      "Ã¤nkt": 8801,
      "Ġtekniken": 8802,
      "bilj": 8803,
      "Ġsakta": 8804,
      "ĠavstÃ¥ndet": 8805,
      "Ġlovar": 8806,
      "Ġhov": 8807,
      "Ã¤songen": 8808,
      "ĠutstÃ¤llning": 8809,
      "mÃ¤rkning": 8810,
      "Ġbegag": 8811,
      "ĠursÃ¤kt": 8812,
      "ĠplÃ¥t": 8813,
      "ĠtvÃ¤rtom": 8814,
      "lit": 8815,
      "ĠmÃ¥lvakt": 8816,
      "Ġfilosof": 8817,
      "ĠStrand": 8818,
      "ĠWilliam": 8819,
      "ĠDagen": 8820,
      "savtal": 8821,
      "Ġsucc": 8822,
      "Ġbolagets": 8823,
      "temot": 8824,
      "Ġgaranti": 8825,
      "Ġskulder": 8826,
      "pir": 8827,
      "Ġkoka": 8828,
      "kontroll": 8829,
      "ĠAllmÃ¤n": 8830,
      "Ġcoach": 8831,
      "Ġpekar": 8832,
      "Ġpigg": 8833,
      "ĠEll": 8834,
      "Ġannon": 8835,
      "Ġuppdatera": 8836,
      "Ġinfrastruktur": 8837,
      "Ġsjukhuset": 8838,
      "Ġomfattas": 8839,
      "î¥": 8840,
      "Ġjo": 8841,
      "kurs": 8842,
      "Ġfokuserar": 8843,
      "ĠTj": 8844,
      "TS": 8845,
      "Ġtidig": 8846,
      "Ġbudskap": 8847,
      "ĠHÃ¤ll": 8848,
      "Ġbalkong": 8849,
      "Ġked": 8850,
      "ĠUN": 8851,
      "ĠgrÃ¤d": 8852,
      "ĠmÃ¤ta": 8853,
      "ingo": 8854,
      "filmer": 8855,
      "Ġstarten": 8856,
      "Ġnyss": 8857,
      "Ġmatte": 8858,
      "ĠHalmstad": 8859,
      "ĠTomas": 8860,
      "ĠSuites": 8861,
      "Ġexperter": 8862,
      "Ġkosta": 8863,
      "serie": 8864,
      "ĠcafÃ©": 8865,
      "Ġledamot": 8866,
      "affÃ¤r": 8867,
      "postadress": 8868,
      "shem": 8869,
      "Ġbeslutade": 8870,
      "Ġfann": 8871,
      "Ġkry": 8872,
      "trÃ¤n": 8873,
      "Ġescort": 8874,
      "ĠNorm": 8875,
      "litt": 8876,
      "format": 8877,
      "rkt": 8878,
      "Ġblanda": 8879,
      "Ġklassen": 8880,
      "Ġset": 8881,
      "Ġbetong": 8882,
      "Ġminnes": 8883,
      "ĠLinn": 8884,
      "rsÃ¤kringen": 8885,
      "ĠberÃ¤ttelse": 8886,
      "ĠFem": 8887,
      "ĠsÃ¥hÃ¤r": 8888,
      "Ġdebatten": 8889,
      "Ġkonstatera": 8890,
      "dsla": 8891,
      "kering": 8892,
      "Ġanledningen": 8893,
      "Ġspons": 8894,
      "ĠVÃ¤nster": 8895,
      "ĠMarcus": 8896,
      "ĠnybÃ": 8897,
      "rordningen": 8898,
      "industrin": 8899,
      "ĠtillÃ¤mpas": 8900,
      "Ġtillbring": 8901,
      "Ġfigur": 8902,
      "ave": 8903,
      "Ġskal": 8904,
      "emi": 8905,
      "ĠStÃ¤ll": 8906,
      "somrÃ¥den": 8907,
      "dring": 8908,
      "Ã¤mning": 8909,
      "rbereda": 8910,
      "sekonom": 8911,
      "Ġgren": 8912,
      "ĠEndast": 8913,
      "Ġhed": 8914,
      "laren": 8915,
      "Ġambit": 8916,
      "ĠGamla": 8917,
      "bilden": 8918,
      "Ġmaterialet": 8919,
      "appar": 8920,
      "sing": 8921,
      "ĠsjÃ¤lvfÃ": 8922,
      "estad": 8923,
      "ĠSov": 8924,
      "Ġng": 8925,
      "Ġgir": 8926,
      "uvida": 8927,
      "habil": 8928,
      "ĠpÃ¥minner": 8929,
      "ĠHelsingfors": 8930,
      "edig": 8931,
      "ĠdagslÃ¤get": 8932,
      "ĠvÃ¤ntat": 8933,
      "itch": 8934,
      "ĠSista": 8935,
      "ĠLas": 8936,
      "Ġupphandling": 8937,
      "Ġbetalningsan": 8938,
      "viken": 8939,
      "Ġacceptera": 8940,
      "ĠSimon": 8941,
      "Ġimpl": 8942,
      "Ġyoutube": 8943,
      "ĠBud": 8944,
      "bak": 8945,
      "ĠJenny": 8946,
      "amman": 8947,
      "ĠklÃ¤nning": 8948,
      "Ġuppskattar": 8949,
      "rberedel": 8950,
      "Ġtall": 8951,
      "Ġinspirerande": 8952,
      "barhet": 8953,
      "Ġsteget": 8954,
      "Ã¥dor": 8955,
      "ĠVeck": 8956,
      "ĠTanken": 8957,
      "rygg": 8958,
      "Ġrutiner": 8959,
      "Ġorsaka": 8960,
      "IA": 8961,
      "ĠersÃ¤tta": 8962,
      "Ġkostnaden": 8963,
      "ĠNordic": 8964,
      "Ġuppgifterna": 8965,
      "TA": 8966,
      "ĠRecept": 8967,
      "rteckning": 8968,
      "alism": 8969,
      "oking": 8970,
      "ĠIsa": 8971,
      "kommun": 8972,
      "Ġtungt": 8973,
      "ĠvÃ¤rderingar": 8974,
      "onerande": 8975,
      "Ġfunktionsned": 8976,
      "ĠvÃ¤xte": 8977,
      "ĠSkell": 8978,
      "ĠMedan": 8979,
      "ĠRel": 8980,
      "Ġledsen": 8981,
      "speriod": 8982,
      "Ġfatta": 8983,
      "ĠavlÃ¤g": 8984,
      "orp": 8985,
      "ĠDina": 8986,
      "Ġscenen": 8987,
      "sty": 8988,
      "Ġserveras": 8989,
      "diga": 8990,
      "ĠTar": 8991,
      "Ġfinska": 8992,
      "ĠNÃ¤ra": 8993,
      "Ġgarderob": 8994,
      "ĠAnnika": 8995,
      "ikapp": 8996,
      "frÃ¥ga": 8997,
      "ĠatmosfÃ¤r": 8998,
      "Ġveckorna": 8999,
      "ĠNils": 9000,
      "ĠmÃ¤ngden": 9001,
      "Ġvon": 9002,
      "ĠjÃ¤k": 9003,
      "medlem": 9004,
      "ĠfrisÃ": 9005,
      "Ġalt": 9006,
      "stam": 9007,
      "ĠDirekt": 9008,
      "ĠSamtliga": 9009,
      "ĠkrÃ¤m": 9010,
      "ĠtvÃ¤r": 9011,
      "ĠInstitut": 9012,
      "ĠNY": 9013,
      "lir": 9014,
      "Ġfrist": 9015,
      "SvaraRadera": 9016,
      "ĠstÃ¥tt": 9017,
      "lÃ¤ggare": 9018,
      "ĠSpela": 9019,
      "Med": 9020,
      "gkvalit": 9021,
      "Ġbokar": 9022,
      "ldens": 9023,
      "ĠvÃ¤nd": 9024,
      "Ġvision": 9025,
      "Ã¤kra": 9026,
      "Ġkvadratmeter": 9027,
      "sby": 9028,
      "ĠChristian": 9029,
      "eng": 9030,
      "ĠTR": 9031,
      "ordfÃ": 9032,
      "ĠSkribent": 9033,
      "upen": 9034,
      "âĢĶ": 9035,
      "Ġidentifiera": 9036,
      "lÃ¤ndska": 9037,
      "ĠpÃ¥min": 9038,
      "Ġsuttit": 9039,
      "Ġsamord": 9040,
      "design": 9041,
      "vanta": 9042,
      "lÃ¥t": 9043,
      "Ġkollar": 9044,
      "Ġlagstiftning": 9045,
      "Ġmage": 9046,
      "ĠAk": 9047,
      "sstÃ": 9048,
      "Ġeventuell": 9049,
      "iserar": 9050,
      "ĠRisk": 9051,
      "Ġomvand": 9052,
      "ĠKlass": 9053,
      "unge": 9054,
      "Ġlokalt": 9055,
      "riker": 9056,
      "Ġavsikt": 9057,
      "kastning": 9058,
      "Ġspets": 9059,
      "ĠlÃ¥ngsamt": 9060,
      "ekvÃ¤m": 9061,
      "ĠUniversitet": 9062,
      "ĠlÃ¤kar": 9063,
      "Ġutrikes": 9064,
      "Ġnordiska": 9065,
      "ĠChamp": 9066,
      "ĠButik": 9067,
      "Ġmuskel": 9068,
      "unds": 9069,
      "hÃ¥lls": 9070,
      "Ġpacka": 9071,
      "ĠNorrb": 9072,
      "ĠsvÃ¤r": 9073,
      "Ġfysiskt": 9074,
      "Ġinflytande": 9075,
      "Ġhumor": 9076,
      "slagna": 9077,
      "Ġarbetstag": 9078,
      "vux": 9079,
      "ĠkvalitÃ©": 9080,
      "ĠSkapa": 9081,
      "stÃ¤lls": 9082,
      "ouch": 9083,
      "Ġrot": 9084,
      "Ġurin": 9085,
      "Ġmaskiner": 9086,
      "Ġmormor": 9087,
      "ĠjÃ¤mn": 9088,
      "ĠAR": 9089,
      "ikern": 9090,
      "Ġgitar": 9091,
      "ĠCD": 9092,
      "Ġsyskon": 9093,
      "handlingen": 9094,
      "rÃ¤lder": 9095,
      "ĠlÃ¥ten": 9096,
      "wn": 9097,
      "ĠBan": 9098,
      "avgift": 9099,
      "isch": 9100,
      "Ġutvecklats": 9101,
      "Ġtacksam": 9102,
      "Ġprognos": 9103,
      "rien": 9104,
      "rkl": 9105,
      "ĠgÃ¤llde": 9106,
      "ruppen": 9107,
      "Ġsatsning": 9108,
      "utrym": 9109,
      "Ġfenomen": 9110,
      "Ġtw": 9111,
      "Ġgammalt": 9112,
      "Ġhals": 9113,
      "fram": 9114,
      "akers": 9115,
      "Ġsug": 9116,
      "ĠhumÃ": 9117,
      "moder": 9118,
      "ĠKi": 9119,
      "Ġrelevant": 9120,
      "Ġmajoritet": 9121,
      "rdelning": 9122,
      "ĠintÃ¤kter": 9123,
      "Ġvik": 9124,
      "Ġingredienser": 9125,
      "Ġregistrera": 9126,
      "Vad": 9127,
      "ĠÃ¤ldsta": 9128,
      "nskade": 9129,
      "Ã¤tte": 9130,
      "km": 9131,
      "ĠPapp": 9132,
      "Ġkommentera": 9133,
      "Ġuppgick": 9134,
      "ĠÃ¥terstÃ¥r": 9135,
      "oter": 9136,
      "stjÃ¤nst": 9137,
      "ĠAD": 9138,
      "tande": 9139,
      "ĠpopulÃ¤rt": 9140,
      "itation": 9141,
      "Ġriktar": 9142,
      "ye": 9143,
      "uffÃ©": 9144,
      "ĠovanfÃ": 9145,
      "ĠKim": 9146,
      "Ġbrittiska": 9147,
      "ffer": 9148,
      "Ġvilla": 9149,
      "Ġlivsl": 9150,
      "Ġutb": 9151,
      "ĠSkicka": 9152,
      "Ġorsaken": 9153,
      "Ġgraf": 9154,
      "ĠCal": 9155,
      "ifi": 9156,
      "Ġkrafter": 9157,
      "Ġcitron": 9158,
      "dertÃ¤lje": 9159,
      "kÃ¤nn": 9160,
      "mottag": 9161,
      "ĠsmÃ¥tt": 9162,
      "kostnad": 9163,
      "ĠKol": 9164,
      "Ġkod": 9165,
      "bandet": 9166,
      "Ġpum": 9167,
      "kvalitet": 9168,
      "Ġshow": 9169,
      "ĠTher": 9170,
      "Ġdistrikt": 9171,
      "ĠmÃ¤rken": 9172,
      "Ġtillfred": 9173,
      "censioner": 9174,
      "Ġtagits": 9175,
      "ĠTransport": 9176,
      "ĠfÃ¥nga": 9177,
      "Ġbatteri": 9178,
      "heim": 9179,
      "annat": 9180,
      "centralen": 9181,
      "Ġdoktor": 9182,
      "rsel": 9183,
      "Ġupplag": 9184,
      "garanti": 9185,
      "Ġskedde": 9186,
      "ĠTT": 9187,
      "ĠPolit": 9188,
      "Ġbandet": 9189,
      "MA": 9190,
      "oli": 9191,
      "Detta": 9192,
      "Ġkanal": 9193,
      "ĠÃ¤rendet": 9194,
      "hÃ¥llning": 9195,
      "Ġknull": 9196,
      "mann": 9197,
      "Ġprocesser": 9198,
      "Ġbla": 9199,
      "ĠhÃ¥llbart": 9200,
      "Ġmisslycka": 9201,
      "olver": 9202,
      "ĠvÃ¤ntade": 9203,
      "skiv": 9204,
      "ĠSamhÃ¤ll": 9205,
      "rÃ¤kning": 9206,
      "ĠWester": 9207,
      "ĠkrÃ¥ng": 9208,
      "Ġflykting": 9209,
      "Ġbeslutat": 9210,
      "Ġlid": 9211,
      "Ġgranska": 9212,
      "tage": 9213,
      "bunden": 9214,
      "Ġkulture": 9215,
      "ĠÃħke": 9216,
[...]
