{
  "version": "1.0",
  "truncation": null,
  "padding": null,
  "added_tokens": [
    {
      "id": 0,
      "content": "[PAD]",
      "single_word": false,
      "lstrip": false,
      "rstrip": false,
      "normalized": false,
      "special": true
    },
    {
      "id": 1,
      "content": "[UNK]",
      "single_word": false,
      "lstrip": false,
      "rstrip": false,
      "normalized": false,
      "special": true
    },
    {
      "id": 2,
      "content": "[MASK]",
      "single_word": false,
      "lstrip": false,
      "rstrip": false,
      "normalized": false,
      "special": true
    },
    {
      "id": 3,
      "content": "[CLS]",
      "single_word": false,
      "lstrip": false,
      "rstrip": false,
      "normalized": false,
      "special": true
    },
    {
      "id": 4,
      "content": "[SEP]",
      "single_word": false,
      "lstrip": false,
      "rstrip": false,
      "normalized": false,
      "special": true
    }
  ],
  "normalizer": {
    "type": "Sequence",
    "normalizers": [
      {
        "type": "Nmt"
      },
      {
        "type": "NFKC"
      },
      {
        "type": "Replace",
        "pattern": {
          "Regex": " {2,}"
        },
        "content": " "
      }
    ]
  },
  "pre_tokenizer": {
    "type": "Sequence",
    "pretokenizers": [
      {
        "type": "Metaspace",
        "replacement": "▁",
        "add_prefix_space": true
      }
    ]
  },
  "post_processor": {
    "type": "TemplateProcessing",
    "single": [
      {
        "SpecialToken": {
          "id": "[CLS]",
          "type_id": 0
        }
      },
      {
        "Sequence": {
          "id": "A",
          "type_id": 0
        }
      },
      {
        "SpecialToken": {
          "id": "[SEP]",
          "type_id": 0
        }
      }
    ],
    "pair": [
      {
        "SpecialToken": {
          "id": "[CLS]",
          "type_id": 0
        }
      },
      {
        "Sequence": {
          "id": "A",
          "type_id": 0
        }
      },
      {
        "SpecialToken": {
          "id": "[SEP]",
          "type_id": 0
        }
      },
      {
        "Sequence": {
          "id": "B",
          "type_id": 1
        }
      },
      {
        "SpecialToken": {
          "id": "[SEP]",
          "type_id": 1
        }
      }
    ],
    "special_tokens": {
      "[CLS]": {
        "id": "[CLS]",
        "ids": [
          3
        ],
        "tokens": [
          "[CLS]"
        ]
      },
      "[SEP]": {
        "id": "[SEP]",
        "ids": [
          4
        ],
        "tokens": [
          "[SEP]"
        ]
      }
    }
  },
  "decoder": {
    "type": "Metaspace",
    "replacement": "▁",
    "add_prefix_space": true
  },
  "model": {
    "type": "BPE",
    "dropout": null,
    "unk_token": null,
    "continuing_subword_prefix": null,
    "end_of_word_suffix": null,
    "fuse_unk": false,
    "vocab": {
      "[PAD]": 0,
      "[UNK]": 1,
      "[MASK]": 2,
      "[CLS]": 3,
      "[SEP]": 4,
      "\u0000": 5,
      "!": 6,
      "\"": 7,
      "#": 8,
      "$": 9,
      "%": 10,
      "&": 11,
      "'": 12,
      "(": 13,
      ")": 14,
      "*": 15,
      "+": 16,
      ",": 17,
      "-": 18,
      ".": 19,
      "/": 20,
      "0": 21,
      "1": 22,
      "2": 23,
      "3": 24,
      "4": 25,
      "5": 26,
      "6": 27,
      "7": 28,
      "8": 29,
      "9": 30,
      ":": 31,
      ";": 32,
      "<": 33,
      "=": 34,
      ">": 35,
      "?": 36,
      "@": 37,
      "A": 38,
      "B": 39,
      "C": 40,
      "D": 41,
      "E": 42,
      "F": 43,
      "G": 44,
      "H": 45,
      "I": 46,
      "J": 47,
      "K": 48,
      "L": 49,
      "M": 50,
      "N": 51,
      "O": 52,
      "P": 53,
      "Q": 54,
      "R": 55,
      "S": 56,
      "T": 57,
      "U": 58,
      "V": 59,
      "W": 60,
      "X": 61,
      "Y": 62,
      "Z": 63,
      "[": 64,
      "\\": 65,
      "]": 66,
      "^": 67,
      "_": 68,
      "`": 69,
      "a": 70,
      "b": 71,
      "c": 72,
      "d": 73,
      "e": 74,
      "f": 75,
      "g": 76,
      "h": 77,
      "i": 78,
      "j": 79,
      "k": 80,
      "l": 81,
      "m": 82,
      "n": 83,
      "o": 84,
      "p": 85,
      "q": 86,
      "r": 87,
      "s": 88,
      "t": 89,
      "u": 90,
      "v": 91,
      "w": 92,
      "x": 93,
      "y": 94,
      "z": 95,
      "{": 96,
      "|": 97,
      "}": 98,
      "~": 99,
      "": 100,
      "": 101,
      "": 102,
      "": 103,
      "": 104,
      "": 105,
      "": 106,
      "": 107,
      "": 108,
      "": 109,
      "": 110,
      "": 111,
      "": 112,
      "": 113,
      "": 114,
      "": 115,
      "": 116,
      "": 117,
      "": 118,
      "": 119,
      "": 120,
      "": 121,
      "": 122,
      "": 123,
      "": 124,
      "": 125,
      "": 126,
      "": 127,
      "¡": 128,
      "¢": 129,
      "£": 130,
      "¤": 131,
      "¥": 132,
      "¦": 133,
      "§": 134,
      "©": 135,
      "«": 136,
      "¬": 137,
      "­": 138,
      "®": 139,
      "°": 140,
      "±": 141,
      "¶": 142,
      "·": 143,
      "»": 144,
      "¿": 145,
      "À": 146,
      "Á": 147,
      "Â": 148,
      "Ã": 149,
      "Ä": 150,
      "Å": 151,
      "Æ": 152,
      "Ç": 153,
      "È": 154,
      "É": 155,
      "Ê": 156,
      "Ë": 157,
      "Ì": 158,
      "Í": 159,
      "Î": 160,
      "Ï": 161,
      "Ð": 162,
      "Ñ": 163,
      "Ò": 164,
      "Ó": 165,
      "Ô": 166,
      "Õ": 167,
      "Ö": 168,
      "×": 169,
      "Ø": 170,
      "Ù": 171,
      "Ú": 172,
      "Û": 173,
      "Ü": 174,
      "Ý": 175,
      "Þ": 176,
      "ß": 177,
      "à": 178,
      "á": 179,
      "â": 180,
      "ã": 181,
      "ä": 182,
      "å": 183,
      "æ": 184,
      "ç": 185,
      "è": 186,
      "é": 187,
      "ê": 188,
      "ë": 189,
      "ì": 190,
      "í": 191,
      "î": 192,
      "ï": 193,
      "ð": 194,
      "ñ": 195,
      "ò": 196,
      "ó": 197,
      "ô": 198,
      "õ": 199,
      "ö": 200,
      "÷": 201,
      "ø": 202,
      "ù": 203,
      "ú": 204,
      "û": 205,
      "ü": 206,
      "ý": 207,
      "þ": 208,
      "ÿ": 209,
      "Ā": 210,
      "ā": 211,
      "Ă": 212,
      "ă": 213,
      "Ą": 214,
      "ą": 215,
      "Ć": 216,
      "ć": 217,
      "ĉ": 218,
      "ċ": 219,
      "Č": 220,
      "č": 221,
      "ď": 222,
      "Đ": 223,
      "đ": 224,
      "Ē": 225,
      "ē": 226,
      "Ĕ": 227,
      "ĕ": 228,
      "Ė": 229,
      "ė": 230,
      "Ę": 231,
      "ę": 232,
      "Ě": 233,
      "ě": 234,
      "ĝ": 235,
      "ğ": 236,
      "Ġ": 237,
      "ġ": 238,
      "Ģ": 239,
      "ģ": 240,
      "ĥ": 241,
      "Ħ": 242,
      "ħ": 243,
      "ĩ": 244,
      "Ī": 245,
      "ī": 246,
      "ĭ": 247,
      "Į": 248,
      "į": 249,
      "İ": 250,
      "ı": 251,
      "Ķ": 252,
      "ķ": 253,
      "ĸ": 254,
      "Ĺ": 255,
      "ĺ": 256,
      "Ļ": 257,
      "ļ": 258,
      "Ľ": 259,
      "ľ": 260,
      "Ł": 261,
      "ł": 262,
      "Ń": 263,
      "ń": 264,
      "Ņ": 265,
      "ņ": 266,
      "ň": 267,
      "Ŋ": 268,
      "ŋ": 269,
      "Ō": 270,
      "ō": 271,
      "ŏ": 272,
      "Ő": 273,
      "ő": 274,
      "Œ": 275,
      "œ": 276,
      "ŕ": 277,
      "ŗ": 278,
      "Ř": 279,
      "ř": 280,
      "Ś": 281,
      "ś": 282,
      "Ŝ": 283,
      "ŝ": 284,
      "Ş": 285,
      "ş": 286,
      "Š": 287,
      "š": 288,
      "Ţ": 289,
      "ţ": 290,
      "ť": 291,
      "ŧ": 292,
      "ũ": 293,
      "Ū": 294,
      "ū": 295,
      "ŭ": 296,
      "Ů": 297,
      "ů": 298,
      "ű": 299,
      "Ų": 300,
      "ų": 301,
      "ŵ": 302,
      "Ŷ": 303,
      "ŷ": 304,
      "Ÿ": 305,
      "Ź": 306,
      "ź": 307,
      "Ż": 308,
      "ż": 309,
      "Ž": 310,
      "ž": 311,
      "Ƅ": 312,
      "ƅ": 313,
      "Ə": 314,
      "Ɛ": 315,
      "ƒ": 316,
      "Ɵ": 317,
      "ơ": 318,
      "Ƭ": 319,
      "ư": 320,
      "ǀ": 321,
      "ǁ": 322,
      "ǎ": 323,
      "ǐ": 324,
      "ǒ": 325,
      "ǔ": 326,
      "ǜ": 327,
      "ǟ": 328,
      "ǡ": 329,
      "ǥ": 330,
      "ǧ": 331,
      "Ǩ": 332,
      "ǫ": 333,
      "Ǭ": 334,
      "ǵ": 335,
      "Ǻ": 336,
      "ǻ": 337,
      "ǽ": 338,
      "ǿ": 339,
      "ȁ": 340,
      "ȕ": 341,
      "Ș": 342,
      "ș": 343,
      "Ț": 344,
      "ț": 345,
      "ȝ": 346,
      "Ȣ": 347,
      "Ȧ": 348,
      "ȧ": 349,
      "ȫ": 350,
      "ȳ": 351,
      "ȼ": 352,
      "ɉ": 353,
      "ɐ": 354,
      "ɑ": 355,
      "ɒ": 356,
      "ɔ": 357,
      "ɕ": 358,
      "ɖ": 359,
      "ɗ": 360,
      "ə": 361,
      "ɚ": 362,
      "ɛ": 363,
      "ɜ": 364,
      "ɞ": 365,
      "ɟ": 366,
      "ɡ": 367,
      "ɣ": 368,
      "ɤ": 369,
      "ɥ": 370,
      "ɦ": 371,
      "ɧ": 372,
      "ɨ": 373,
      "ɪ": 374,
      "ɬ": 375,
      "ɭ": 376,
      "ɯ": 377,
      "ɱ": 378,
      "ɲ": 379,
      "ɳ": 380,
      "ɴ": 381,
      "ɷ": 382,
      "ɸ": 383,
      "ɹ": 384,
      "ɻ": 385,
      "ɽ": 386,
      "ɾ": 387,
      "ʀ": 388,
      "ʁ": 389,
      "ʃ": 390,
      "ʇ": 391,
      "ʉ": 392,
      "ʊ": 393,
      "ʋ": 394,
      "ʌ": 395,
      "ʏ": 396,
      "ʐ": 397,
      "ʒ": 398,
      "ʔ": 399,
      "ʕ": 400,
      "ʖ": 401,
      "ʘ": 402,
      "ʚ": 403,
      "ʟ": 404,
      "ʤ": 405,
      "ʦ": 406,
      "ʹ": 407,
      "ʺ": 408,
      "ʻ": 409,
      "ʼ": 410,
      "ʾ": 411,
      "ʿ": 412,
      "ˀ": 413,
      "ˁ": 414,
      "˂": 415,
      "˃": 416,
      "˄": 417,
      "˅": 418,
      "ˆ": 419,
      "ˇ": 420,
      "ˈ": 421,
      "ˉ": 422,
      "ˊ": 423,
      "ˋ": 424,
      "ˌ": 425,
      "ˎ": 426,
      "ˏ": 427,
      "ː": 428,
      "ˑ": 429,
      "˗": 430,
      "ˮ": 431,
      "̀": 432,
      "́": 433,
      "̂": 434,
      "̃": 435,
      "̄": 436,
      "̅": 437,
      "̆": 438,
      "̇": 439,
      "̈": 440,
      "̊": 441,
      "̋": 442,
      "̓": 443,
      "̝": 444,
      "̥": 445,
      "̦": 446,
      "̧": 447,
      "̨": 448,
      "̪": 449,
      "̯": 450,
      "̱": 451,
      "̲": 452,
      "̴": 453,
      "̵": 454,
      "̶": 455,
      "̷": 456,
      "͈": 457,
      "͜": 458,
      "͡": 459,
      "ͨ": 460,
      "Ά": 461,
      "Έ": 462,
      "Ή": 463,
      "Ό": 464,
      "ΐ": 465,
      "Α": 466,
      "Β": 467,
      "Γ": 468,
      "Δ": 469,
      "Ε": 470,
      "Ζ": 471,
      "Η": 472,
      "Θ": 473,
      "Ι": 474,
      "Κ": 475,
      "Λ": 476,
      "Μ": 477,
      "Ν": 478,
      "Ξ": 479,
      "Ο": 480,
      "Π": 481,
      "Ρ": 482,
      "Σ": 483,
      "Τ": 484,
      "Υ": 485,
      "Φ": 486,
      "Χ": 487,
      "Ψ": 488,
      "Ω": 489,
      "ά": 490,
      "έ": 491,
      "ή": 492,
      "ί": 493,
      "α": 494,
      "β": 495,
      "γ": 496,
      "δ": 497,
      "ε": 498,
      "ζ": 499,
      "η": 500,
      "θ": 501,
      "ι": 502,
      "κ": 503,
      "λ": 504,
      "μ": 505,
      "ν": 506,
      "ξ": 507,
      "ο": 508,
      "π": 509,
      "ρ": 510,
      "ς": 511,
      "σ": 512,
      "τ": 513,
      "υ": 514,
      "φ": 515,
      "χ": 516,
      "ψ": 517,
      "ω": 518,
      "ϊ": 519,
      "ϋ": 520,
      "ό": 521,
      "ύ": 522,
      "ώ": 523,
      "ϟ": 524,
      "Ϡ": 525,
      "ϳ": 526,
      "Ё": 527,
      "Ђ": 528,
      "Ѓ": 529,
      "Є": 530,
      "Ѕ": 531,
      "І": 532,
      "Ї": 533,
      "Ј": 534,
      "Љ": 535,
      "Њ": 536,
      "Ћ": 537,
      "Ќ": 538,
      "Ў": 539,
      "Џ": 540,
      "А": 541,
      "Б": 542,
      "В": 543,
      "Г": 544,
      "Д": 545,
      "Е": 546,
      "Ж": 547,
      "З": 548,
      "И": 549,
      "Й": 550,
      "К": 551,
      "Л": 552,
      "М": 553,
      "Н": 554,
      "О": 555,
      "П": 556,
      "Р": 557,
      "С": 558,
      "Т": 559,
      "У": 560,
      "Ф": 561,
      "Х": 562,
      "Ц": 563,
      "Ч": 564,
      "Ш": 565,
      "Щ": 566,
      "Ъ": 567,
      "Ы": 568,
      "Ь": 569,
      "Э": 570,
      "Ю": 571,
      "Я": 572,
      "а": 573,
      "б": 574,
      "в": 575,
      "г": 576,
      "д": 577,
      "е": 578,
      "ж": 579,
      "з": 580,
      "и": 581,
      "й": 582,
      "к": 583,
      "л": 584,
      "м": 585,
      "н": 586,
      "о": 587,
      "п": 588,
      "р": 589,
      "с": 590,
      "т": 591,
      "у": 592,
      "ф": 593,
      "х": 594,
      "ц": 595,
      "ч": 596,
      "ш": 597,
      "щ": 598,
      "ъ": 599,
      "ы": 600,
      "ь": 601,
      "э": 602,
      "ю": 603,
      "я": 604,
      "ё": 605,
      "ђ": 606,
      "ѓ": 607,
      "є": 608,
      "ѕ": 609,
      "і": 610,
      "ї": 611,
      "ј": 612,
      "љ": 613,
      "њ": 614,
      "ћ": 615,
      "ќ": 616,
      "ў": 617,
      "џ": 618,
      "ѡ": 619,
      "ѣ": 620,
      "ѵ": 621,
      "Ґ": 622,
      "ґ": 623,
      "Ғ": 624,
      "ғ": 625,
      "Қ": 626,
      "қ": 627,
      "ҝ": 628,
      "ҧ": 629,
      "ҫ": 630,
      "ү": 631,
      "ұ": 632,
      "ҷ": 633,
      "Һ": 634,
      "һ": 635,
      "Ӂ": 636,
      "ӑ": 637,
      "ӓ": 638,
      "ӕ": 639,
      "ә": 640,
      "ӡ": 641,
      "ӧ": 642,
      "Ө": 643,
      "ө": 644,
      "ӯ": 645,
      "Ԁ": 646,
      "ԁ": 647,
      "Ա": 648,
      "Բ": 649,
      "Գ": 650,
      "Ե": 651,
      "Լ": 652,
      "Խ": 653,
      "Ծ": 654,
      "Հ": 655,
      "Մ": 656,
      "Շ": 657,
      "Ջ": 658,
      "Ռ": 659,
      "Ս": 660,
      "Վ": 661,
      "Ք": 662,
      "Օ": 663,
      "ա": 664,
      "բ": 665,
      "գ": 666,
      "դ": 667,
      "ե": 668,
      "զ": 669,
      "է": 670,
      "ը": 671,
      "թ": 672,
      "ժ": 673,
      "ի": 674,
      "լ": 675,
      "կ": 676,
      "հ": 677,
      "ղ": 678,
      "մ": 679,
      "յ": 680,
      "ն": 681,
      "շ": 682,
      "ո": 683,
      "չ": 684,
      "պ": 685,
      "ջ": 686,
      "ս": 687,
      "վ": 688,
      "տ": 689,
      "ր": 690,
      "ց": 691,
      "ւ": 692,
      "օ": 693,
      "ֆ": 694,
      "֍": 695,
      "ְ": 696,
      "ֳ": 697,
      "ִ": 698,
      "ֵ": 699,
      "ֶ": 700,
      "ַ": 701,
      "ָ": 702,
      "ֹ": 703,
      "ּ": 704,
      "ֽ": 705,
      "ֿ": 706,
      "ׁ": 707,
      "ׂ": 708,
      "׃": 709,
      "א": 710,
      "ב": 711,
      "ג": 712,
      "ד": 713,
      "ה": 714,
      "ו": 715,
      "ז": 716,
      "ח": 717,
      "ט": 718,
      "י": 719,
      "ך": 720,
      "כ": 721,
      "ל": 722,
      "ם": 723,
      "מ": 724,
      "ן": 725,
      "נ": 726,
      "ס": 727,
      "ע": 728,
      "ף": 729,
      "פ": 730,
      "ץ": 731,
      "צ": 732,
      "ק": 733,
      "ר": 734,
      "ש": 735,
      "ת": 736,
      "ײ": 737,
      "׳": 738,
      "׺": 739,
      "،": 740,
      "؟": 741,
      "ء": 742,
      "آ": 743,
      "أ": 744,
      "ؤ": 745,
      "إ": 746,
      "ئ": 747,
      "ا": 748,
      "ب": 749,
      "ة": 750,
      "ت": 751,
      "ث": 752,
      "ج": 753,
      "ح": 754,
      "خ": 755,
      "د": 756,
      "ذ": 757,
      "ر": 758,
      "ز": 759,
      "س": 760,
      "ش": 761,
      "ص": 762,
      "ض": 763,
      "ط": 764,
      "ظ": 765,
      "ع": 766,
      "غ": 767,
      "ـ": 768,
      "ف": 769,
      "ق": 770,
      "ك": 771,
      "ل": 772,
      "م": 773,
      "ن": 774,
      "ه": 775,
      "و": 776,
      "ى": 777,
      "ي": 778,
      "ً": 779,
      "ٌ": 780,
      "َ": 781,
      "ُ": 782,
      "ِ": 783,
      "ّ": 784,
      "ْ": 785,
      "٠": 786,
      "١": 787,
      "٢": 788,
      "٣": 789,
      "٥": 790,
      "٦": 791,
      "٧": 792,
      "٫": 793,
      "٬": 794,
      "ٹ": 795,
      "پ": 796,
      "چ": 797,
      "ژ": 798,
      "ښ": 799,
      "ڤ": 800,
      "ک": 801,
      "گ": 802,
      "ڵ": 803,
      "ں": 804,
      "ھ": 805,
      "ۀ": 806,
      "ہ": 807,
      "ۆ": 808,
      "ی": 809,
      "ێ": 810,
      "ە": 811,
      "۞": 812,
      "۰": 813,
      "۱": 814,
      "۲": 815,
      "۳": 816,
      "۴": 817,
      "۵": 818,
      "۶": 819,
      "۷": 820,
      "ܐ": 821,
      "ܓ": 822,
      "ܕ": 823,
      "ܗ": 824,
      "ܘ": 825,
      "ܝ": 826,
      "ܟ": 827,
      "ܠ": 828,
      "ܤ": 829,
      "ܥ": 830,
      "ܩ": 831,
      "ܪ": 832,
      "ܬ": 833,
      "ܲ": 834,
      "ܵ": 835,
      "ݎ": 836,
      "ݕ": 837,
      "ߋ": 838,
      "ߛ": 839,
      "ߢ": 840,
      "ߨ": 841,
      "ࡳ": 842,
      "ࢵ": 843,
      "ँ": 844,
      "ं": 845,
      "अ": 846,
      "आ": 847,
      "इ": 848,
      "उ": 849,
      "ए": 850,
      "ऑ": 851,
      "औ": 852,
      "क": 853,
      "ख": 854,
      "ग": 855,
      "घ": 856,
      "च": 857,
      "छ": 858,
      "ज": 859,
      "झ": 860,
      "ञ": 861,
      "ट": 862,
      "ड": 863,
      "ढ": 864,
      "ण": 865,
      "त": 866,
      "थ": 867,
      "द": 868,
      "ध": 869,
      "न": 870,
      "प": 871,
      "फ": 872,
      "ब": 873,
      "भ": 874,
      "म": 875,
      "य": 876,
      "र": 877,
      "ल": 878,
      "व": 879,
      "श": 880,
      "ष": 881,
      "स": 882,
      "ह": 883,
      "़": 884,
      "ा": 885,
      "ि": 886,
      "ी": 887,
      "ु": 888,
      "ू": 889,
      "ृ": 890,
      "ॅ": 891,
      "े": 892,
      "ै": 893,
      "ॉ": 894,
      "ो": 895,
      "्": 896,
      "ॐ": 897,
      "ॢ": 898,
      "ॣ": 899,
      "।": 900,
      "१": 901,
      "२": 902,
      "३": 903,
      "४": 904,
      "५": 905,
      "६": 906,
      "७": 907,
      "८": 908,
      "९": 909,
      "ং": 910,
      "অ": 911,
      "আ": 912,
      "ই": 913,
      "উ": 914,
      "ঊ": 915,
      "ও": 916,
      "ঔ": 917,
      "ক": 918,
      "খ": 919,
      "গ": 920,
      "ঘ": 921,
      "ঙ": 922,
      "ছ": 923,
      "জ": 924,
      "ট": 925,
      "ড": 926,
      "ঢ": 927,
      "ণ": 928,
      "ত": 929,
      "দ": 930,
      "ধ": 931,
      "ন": 932,
      "প": 933,
      "ব": 934,
      "ভ": 935,
      "ম": 936,
      "য": 937,
      "র": 938,
      "ল": 939,
      "শ": 940,
      "ষ": 941,
      "স": 942,
      "হ": 943,
      "়": 944,
      "া": 945,
      "ি": 946,
      "ী": 947,
      "ু": 948,
      "ূ": 949,
      "ে": 950,
      "ো": 951,
      "ৌ": 952,
      "্": 953,
      "১": 954,
      "৫": 955,
      "৳": 956,
      "ਂ": 957,
      "ਅ": 958,
      "ਆ": 959,
      "ਓ": 960,
      "ਕ": 961,
      "ਖ": 962,
      "ਜ": 963,
      "ਟ": 964,
      "ਡ": 965,
      "ਣ": 966,
      "ਤ": 967,
      "ਥ": 968,
      "ਦ": 969,
      "ਨ": 970,
      "ਪ": 971,
      "ਫ": 972,
      "ਮ": 973,
      "ਰ": 974,
      "ਲ": 975,
      "ਵ": 976,
      "ਸ": 977,
      "ਹ": 978,
      "਼": 979,
      "ਾ": 980,
      "ੀ": 981,
      "ੁ": 982,
      "ੂ": 983,
      "ੇ": 984,
      "ੈ": 985,
      "ੋ": 986,
      "ੰ": 987,
      "ં": 988,
      "એ": 989,
      "ગ": 990,
      "જ": 991,
      "ડ": 992,
      "ત": 993,
      "દ": 994,
      "ન": 995,
      "મ": 996,
      "ય": 997,
      "ર": 998,
      "ળ": 999,
      "સ": 1000,
      "ા": 1001,
      "ી": 1002,
      "ુ": 1003,
      "ૐ": 1004,
      "ଜ": 1005,
      "ନ": 1006,
      "ମ": 1007,
      "ର": 1008,
      "ା": 1009,
      "ୀ": 1010,
      "୍": 1011,
      "୷": 1012,
      "ஃ": 1013,
      "இ": 1014,
      "எ": 1015,
      "ஐ": 1016,
      "க": 1017,
      "ச": 1018,
      "ட": 1019,
      "த": 1020,
      "ந": 1021,
      "ன": 1022,
      "ப": 1023,
      "ம": 1024,
      "ய": 1025,
      "ர": 1026,
      "ற": 1027,
      "ழ": 1028,
      "வ": 1029,
      "ா": 1030,
      "ி": 1031,
      "ீ": 1032,
      "ு": 1033,
      "ெ": 1034,
      "ை": 1035,
      "ோ": 1036,
      "்": 1037,
      "௧": 1038,
      "௬": 1039,
      "ం": 1040,
      "ఇ": 1041,
      "ఊ": 1042,
      "గ": 1043,
      "చ": 1044,
      "ప": 1045,
      "భ": 1046,
      "మ": 1047,
      "ర": 1048,
      "వ": 1049,
      "ా": 1050,
      "ి": 1051,
      "ు": 1052,
      "్": 1053,
      "ಕ": 1054,
      "ಗ": 1055,
      "ಠ": 1056,
      "ಡ": 1057,
      "ಥ": 1058,
      "ನ": 1059,
      "ಯ": 1060,
      "ರ": 1061,
      "ಳ": 1062,
      "ವ": 1063,
      "ಷ": 1064,
      "ಹ": 1065,
      "ೃ": 1066,
      "ೆ": 1067,
      "್": 1068,
      "ം": 1069,
      "അ": 1070,
      "ഇ": 1071,
      "ഉ": 1072,
      "ക": 1073,
      "ട": 1074,
      "ണ": 1075,
      "ദ": 1076,
      "മ": 1077,
      "യ": 1078,
      "ര": 1079,
      "റ": 1080,
      "ല": 1081,
      "ള": 1082,
      "വ": 1083,
      "ാ": 1084,
      "ി": 1085,
      "ു": 1086,
      "ൊ": 1087,
      "്": 1088,
      "൫": 1089,
      "൯": 1090,
      "ർ": 1091,
      "ൽ": 1092,
      "අ": 1093,
      "ක": 1094,
      "ද": 1095,
      "බ": 1096,
      "ය": 1097,
      "ර": 1098,
      "ව": 1099,
      "ස": 1100,
      "්": 1101,
      "ා": 1102,
      "ැ": 1103,
      "ි": 1104,
      "ේ": 1105,
      "ෞ": 1106,
      "ก": 1107,
      "ข": 1108,
      "ค": 1109,
      "ง": 1110,
      "จ": 1111,
      "ฉ": 1112,
      "ช": 1113,
      "ซ": 1114,
      "ญ": 1115,
      "ฎ": 1116,
      "ฏ": 1117,
      "ฐ": 1118,
      "ฒ": 1119,
      "ณ": 1120,
      "ด": 1121,
      "ต": 1122,
      "ถ": 1123,
      "ท": 1124,
      "ธ": 1125,
      "น": 1126,
      "บ": 1127,
      "ป": 1128,
      "ผ": 1129,
      "ฝ": 1130,
      "พ": 1131,
      "ฟ": 1132,
      "ภ": 1133,
      "ม": 1134,
      "ย": 1135,
      "ร": 1136,
      "ฤ": 1137,
      "ล": 1138,
      "ว": 1139,
      "ศ": 1140,
      "ษ": 1141,
      "ส": 1142,
      "ห": 1143,
      "ฬ": 1144,
      "อ": 1145,
      "ฮ": 1146,
      "ฯ": 1147,
      "ะ": 1148,
      "ั": 1149,
      "า": 1150,
      "ิ": 1151,
      "ี": 1152,
      "ึ": 1153,
      "ื": 1154,
      "ุ": 1155,
      "ู": 1156,
      "฿": 1157,
      "เ": 1158,
      "แ": 1159,
      "โ": 1160,
      "ใ": 1161,
      "ไ": 1162,
      "ๆ": 1163,
      "็": 1164,
      "่": 1165,
      "้": 1166,
      "๊": 1167,
      "๋": 1168,
      "์": 1169,
      "ํ": 1170,
      "๑": 1171,
      "ກ": 1172,
      "ຄ": 1173,
      "ງ": 1174,
      "ຈ": 1175,
      "ດ": 1176,
      "ຕ": 1177,
      "ຖ": 1178,
      "ນ": 1179,
      "ອ": 1180,
      "ັ": 1181,
      "າ": 1182,
      "ື": 1183,
      "ົ": 1184,
      "ໃ": 1185,
      "້": 1186,
      "໊": 1187,
      "་": 1188,
      "།": 1189,
      "༾": 1190,
      "ཁ": 1191,
      "ག": 1192,
      "ང": 1193,
      "ཇ": 1194,
      "ཐ": 1195,
      "ད": 1196,
      "བ": 1197,
      "མ": 1198,
      "འ": 1199,
      "ཡ": 1200,
      "ར": 1201,
      "ལ": 1202,
      "ས": 1203,
      "ཧ": 1204,
      "ི": 1205,
      "ུ": 1206,
      "ེ": 1207,
      "ོ": 1208,
      "ྒ": 1209,
      "ྟ": 1210,
      "ྩ": 1211,
      "ྫ": 1212,
      "ྲ": 1213,
      "က": 1214,
      "ခ": 1215,
      "င": 1216,
      "စ": 1217,
      "ဆ": 1218,
      "တ": 1219,
      "ဒ": 1220,
      "န": 1221,
      "ပ": 1222,
      "ဖ": 1223,
      "ယ": 1224,
      "လ": 1225,
      "သ": 1226,
      "အ": 1227,
      "ာ": 1228,
      "ိ": 1229,
      "ီ": 1230,
      "ု": 1231,
      "ူ": 1232,
      "ေ": 1233,
      "ဲ": 1234,
      "ံ": 1235,
      "့": 1236,
      "း": 1237,
      "္": 1238,
      "်": 1239,
      "ျ": 1240,
      "ြ": 1241,
      "ွ": 1242,
      "၏": 1243,
      "ა": 1244,
      "ბ": 1245,
      "გ": 1246,
      "დ": 1247,
      "ე": 1248,
      "ვ": 1249,
      "თ": 1250,
      "ი": 1251,
      "კ": 1252,
      "ლ": 1253,
      "მ": 1254,
      "ნ": 1255,
      "ო": 1256,
      "პ": 1257,
      "რ": 1258,
      "ს": 1259,
      "ტ": 1260,
      "უ": 1261,
      "ფ": 1262,
      "ქ": 1263,
      "ღ": 1264,
      "შ": 1265,
      "ც": 1266,
      "ძ": 1267,
      "ხ": 1268,
      "ჯ": 1269,
      "ᄀ": 1270,
      "ህ": 1271,
      "ሆ": 1272,
      "ለ": 1273,
      "ሊ": 1274,
      "ላ": 1275,
      "ል": 1276,
      "ሒ": 1277,
      "ሕ": 1278,
      "መ": 1279,
      "ሚ": 1280,
      "ም": 1281,
      "ራ": 1282,
      "ር": 1283,
      "ስ": 1284,
      "ሻ": 1285,
      "ሾ": 1286,
      "ቀ": 1287,
      "ቁ": 1288,
      "ቅ": 1289,
      "ቐ": 1290,
      "በ": 1291,
      "ቢ": 1292,
      "ቤ": 1293,
      "ብ": 1294,
      "ቦ": 1295,
      "ተ": 1296,
      "ቲ": 1297,
      "ታ": 1298,
      "ት": 1299,
      "ቶ": 1300,
      "ቸ": 1301,
      "ቻ": 1302,
      "ች": 1303,
      "ነ": 1304,
      "ና": 1305,
      "ን": 1306,
      "ኛ": 1307,
      "አ": 1308,
      "ኣ": 1309,
      "እ": 1310,
      "ከ": 1311,
      "ክ": 1312,
      "ወ": 1313,
      "ው": 1314,
      "ዎ": 1315,
      "ዒ": 1316,
      "ዝ": 1317,
      "የ": 1318,
      "ያ": 1319,
      "ይ": 1320,
      "ደ": 1321,
      "ዱ": 1322,
      "ዳ": 1323,
      "ድ": 1324,
      "ዶ": 1325,
      "ገ": 1326,
      "ግ": 1327,
      "ጢ": 1328,
      "ጣ": 1329,
      "ጦ": 1330,
      "ጻ": 1331,
      "ጽ": 1332,
      "ፈ": 1333,
      "ፍ": 1334,
      "Ꭰ": 1335,
      "Ꭲ": 1336,
      "Ꭶ": 1337,
      "Ꭹ": 1338,
      "Ꭼ": 1339,
      "Ꮃ": 1340,
      "Ꮩ": 1341,
      "Ꮪ": 1342,
      "Ꮳ": 1343,
      "ᐅ": 1344,
      "ᐈ": 1345,
      "ᐉ": 1346,
      "ᐧ": 1347,
      "ᖇ": 1348,
      "ᗅ": 1349,
      "ᗪ": 1350,
      "ᗷ": 1351,
      "ᗺ": 1352,
      "ᚢ": 1353,
      "ᚦ": 1354,
      "ᚨ": 1355,
      "ᚮ": 1356,
      "ᚱ": 1357,
      "ᚲ": 1358,
      "ᚳ": 1359,
      "ᚷ": 1360,
      "ᚹ": 1361,
      "ᚺ": 1362,
      "ᚽ": 1363,
      "ᚾ": 1364,
      "ᚿ": 1365,
      "ᛁ": 1366,
      "ᛂ": 1367,
      "ᛃ": 1368,
      "ᛅ": 1369,
      "ᛇ": 1370,
      "ᛊ": 1371,
      "ᛋ": 1372,
      "ᛏ": 1373,
      "ᛐ": 1374,
      "ᛑ": 1375,
      "ᛒ": 1376,
      "ᛖ": 1377,
      "ᛗ": 1378,
      "ᛘ": 1379,
      "ᛚ": 1380,
      "ᛞ": 1381,
      "ᛟ": 1382,
      "ᛦ": 1383,
      "᛬": 1384,
      "ក": 1385,
      "ង": 1386,
      "ច": 1387,
      "ជ": 1388,
      "ញ": 1389,
      "ដ": 1390,
      "ឋ": 1391,
      "ណ": 1392,
      "ត": 1393,
      "ទ": 1394,
      "ធ": 1395,
      "ន": 1396,
      "ប": 1397,
      "ព": 1398,
      "ម": 1399,
      "រ": 1400,
      "ល": 1401,
      "ស": 1402,
      "អ": 1403,
      "ា": 1404,
      "ិ": 1405,
      "ី": 1406,
      "ឹ": 1407,
      "ុ": 1408,
      "ែ": 1409,
      "់": 1410,
      "្": 1411,
      "ᥙ": 1412,
      "ᥱ": 1413,
      "ᮃ": 1414,
      "ᮊ": 1415,
      "ᮓ": 1416,
      "ᮔ": 1417,
      "ᮛ": 1418,
      "ᮞ": 1419,
      "ᮥ": 1420,
      "᮪": 1421,
      "ᴇ": 1422,
      "ᴊ": 1423,
      "ᴓ": 1424,
      "ᴖ": 1425,
      "ᴗ": 1426,
      "ᴜ": 1427,
      "ᴠ": 1428,
      "ᵻ": 1429,
      "Ḁ": 1430,
      "ḁ": 1431,
      "Ḇ": 1432,
      "ḇ": 1433,
      "Ḍ": 1434,
      "ḍ": 1435,
      "Ḏ": 1436,
      "ḏ": 1437,
      "ḑ": 1438,
      "ḗ": 1439,
      "ḙ": 1440,
      "Ḥ": 1441,
      "ḥ": 1442,
      "Ḩ": 1443,
      "ḩ": 1444,
      "ḫ": 1445,
      "ḯ": 1446,
      "ḱ": 1447,
      "Ḳ": 1448,
      "ḳ": 1449,
      "ḻ": 1450,
      "Ḿ": 1451,
      "ḿ": 1452,
      "ṁ": 1453,
      "ṃ": 1454,
      "ṅ": 1455,
      "ṇ": 1456,
      "ṓ": 1457,
      "ṛ": 1458,
      "ṟ": 1459,
      "Ṣ": 1460,
      "ṣ": 1461,
      "Ṭ": 1462,
      "ṭ": 1463,
      "ṯ": 1464,
      "ẇ": 1465,
      "ẋ": 1466,
      "ẏ": 1467,
      "ẓ": 1468,
      "Ẕ": 1469,
      "ẕ": 1470,
      "ẖ": 1471,
      "ẗ": 1472,
      "Ạ": 1473,
      "ạ": 1474,
      "ả": 1475,
      "Ấ": 1476,
      "ấ": 1477,
      "ầ": 1478,
      "ẫ": 1479,
      "Ậ": 1480,
      "ậ": 1481,
      "ằ": 1482,
      "ặ": 1483,
      "ẹ": 1484,
      "ẽ": 1485,
      "ế": 1486,
      "ề": 1487,
      "ể": 1488,
      "Ễ": 1489,
      "ễ": 1490,
      "ệ": 1491,
      "ỉ": 1492,
      "ị": 1493,
      "ọ": 1494,
      "Ố": 1495,
      "ố": 1496,
      "ồ": 1497,
      "ổ": 1498,
      "ộ": 1499,
      "ớ": 1500,
      "ờ": 1501,
      "ở": 1502,
      "ợ": 1503,
      "ụ": 1504,
      "ủ": 1505,
      "Ứ": 1506,
      "ứ": 1507,
      "ừ": 1508,
      "ử": 1509,
      "ữ": 1510,
      "ự": 1511,
      "ỳ": 1512,
      "ỵ": 1513,
      "ỷ": 1514,
      "ỹ": 1515,
      "ἀ": 1516,
      "ἄ": 1517,
      "ἅ": 1518,
      "Ἀ": 1519,
      "Ἄ": 1520,
      "ἐ": 1521,
      "ἑ": 1522,
      "ἒ": 1523,
      "ἔ": 1524,
      "ἕ": 1525,
      "Ἐ": 1526,
      "ἡ": 1527,
      "ἧ": 1528,
      "ἰ": 1529,
      "ἱ": 1530,
      "ἴ": 1531,
      "ἷ": 1532,
      "Ἴ": 1533,
      "ὀ": 1534,
      "ὁ": 1535,
      "ὅ": 1536,
      "ὐ": 1537,
      "ὑ": 1538,
      "ὕ": 1539,
      "ὦ": 1540,
      "ὰ": 1541,
      "ὲ": 1542,
      "ὶ": 1543,
      "ὸ": 1544,
      "ὺ": 1545,
      "ὼ": 1546,
      "ᾖ": 1547,
      "ᾱ": 1548,
      "ῆ": 1549,
      "ῖ": 1550,
      "ῦ": 1551,
      "ῳ": 1552,
      "ῶ": 1553,
      "ῷ": 1554,
      "‐": 1555,
      "‒": 1556,
      "–": 1557,
      "—": 1558,
      "―": 1559,
      "‖": 1560,
      "‘": 1561,
      "’": 1562,
      "‚": 1563,
      "‛": 1564,
      "“": 1565,
      "”": 1566,
      "„": 1567,
      "‟": 1568,
      "†": 1569,
      "‡": 1570,
      "•": 1571,
      "‣": 1572,
      "‧": 1573,
      "‪": 1574,
      "‫": 1575,
      "‬": 1576,
      "‭": 1577,
      "‰": 1578,
      "′": 1579,
      "‹": 1580,
      "›": 1581,
      "※": 1582,
      "‽": 1583,
      "‿": 1584,
      "⁃": 1585,
      "⁄": 1586,
      "⁎": 1587,
      "⁏": 1588,
      "⁠": 1589,
      "⁡": 1590,
      "⁢": 1591,
      "⁣": 1592,
      "⁦": 1593,
      "⁩": 1594,
      "₝": 1595,
      "₡": 1596,
      "₤": 1597,
      "₦": 1598,
      "₩": 1599,
      "₪": 1600,
      "₫": 1601,
      "€": 1602,
      "₭": 1603,
      "₱": 1604,
      "₵": 1605,
      "₹": 1606,
      "₽": 1607,
      "⃣": 1608,
      "⃰": 1609,
      "℔": 1610,
      "℗": 1611,
      "℘": 1612,
      "←": 1613,
      "↑": 1614,
      "→": 1615,
      "↓": 1616,
      "↔": 1617,
      "↗": 1618,
      "↙": 1619,
      "↞": 1620,
      "↠": 1621,
      "↣": 1622,
      "↧": 1623,
      "↩": 1624,
      "↪": 1625,
      "↳": 1626,
      "↵": 1627,
      "↷": 1628,
      "⇄": 1629,
      "⇐": 1630,
      "⇑": 1631,
      "⇒": 1632,
      "⇓": 1633,
      "⇔": 1634,
      "⇜": 1635,
      "⇡": 1636,
      "⇢": 1637,
      "⇣": 1638,
      "⇧": 1639,
      "⇨": 1640,
      "⇩": 1641,
      "⇱": 1642,
      "⇲": 1643,
      "∀": 1644,
      "∂": 1645,
      "∃": 1646,
      "∅": 1647,
      "∆": 1648,
      "∇": 1649,
      "∈": 1650,
      "∋": 1651,
      "∎": 1652,
      "∑": 1653,
      "−": 1654,
      "∕": 1655,
      "∗": 1656,
      "∘": 1657,
      "∙": 1658,
      "√": 1659,
      "∝": 1660,
      "∞": 1661,
      "∣": 1662,
      "∥": 1663,
      "∧": 1664,
      "∨": 1665,
      "∩": 1666,
      "∫": 1667,
      "∴": 1668,
      "∵": 1669,
      "∼": 1670,
      "≈": 1671,
      "≠": 1672,
      "≡": 1673,
      "≤": 1674,
      "≥": 1675,
      "≦": 1676,
      "≧": 1677,
      "≫": 1678,
      "⊂": 1679,
      "⊃": 1680,
      "⊆": 1681,
      "⊕": 1682,
      "⊖": 1683,
      "⊙": 1684,
      "⋅": 1685,
      "⋆": 1686,
      "⋮": 1687,
      "⌀": 1688,
      "⌈": 1689,
      "⌋": 1690,
      "⌕": 1691,
      "⌘": 1692,
      "⌚": 1693,
      "⌢": 1694,
      "⌣": 1695,
      "⌧": 1696,
      "⌨": 1697,
      "⎢": 1698,
      "⎪": 1699,
      "⎮": 1700,
      "⎿": 1701,
      "⏋": 1702,
      "⏚": 1703,
      "⏩": 1704,
      "⏰": 1705,
      "⏱": 1706,
      "⏲": 1707,
      "⏳": 1708,
      "⓿": 1709,
      "─": 1710,
      "━": 1711,
      "│": 1712,
      "┃": 1713,
      "└": 1714,
      "├": 1715,
      "┻": 1716,
      "╓": 1717,
      "╔": 1718,
      "╠": 1719,
      "╤": 1720,
      "╯": 1721,
      "╳": 1722,
      "▁": 1723,
      "▃": 1724,
      "█": 1725,
      "▌": 1726,
      "■": 1727,
      "□": 1728,
      "▢": 1729,
      "▪": 1730,
      "▫": 1731,
      "▲": 1732,
      "△": 1733,
      "▴": 1734,
      "▶": 1735,
      "▷": 1736,
      "▸": 1737,
      "▹": 1738,
      "►": 1739,
      "▻": 1740,
      "▼": 1741,
      "▽": 1742,
      "▾": 1743,
      "◀": 1744,
      "◁": 1745,
      "◂": 1746,
      "◄": 1747,
      "◅": 1748,
      "◆": 1749,
      "◇": 1750,
      "◈": 1751,
      "◊": 1752,
      "○": 1753,
      "◌": 1754,
      "◎": 1755,
      "●": 1756,
      "◕": 1757,
      "◘": 1758,
      "◠": 1759,
      "◡": 1760,
      "◢": 1761,
      "◣": 1762,
      "◤": 1763,
      "◥": 1764,
      "◦": 1765,
      "◴": 1766,
      "◻": 1767,
      "◼": 1768,
      "◾": 1769,
      "☀": 1770,
      "☁": 1771,
      "☂": 1772,
      "☃": 1773,
      "☄": 1774,
      "★": 1775,
      "☆": 1776,
      "☉": 1777,
      "☎": 1778,
      "☏": 1779,
      "☐": 1780,
      "☑": 1781,
      "☒": 1782,
      "☔": 1783,
      "☕": 1784,
      "☘": 1785,
      "☚": 1786,
      "☛": 1787,
      "☜": 1788,
      "☝": 1789,
      "☞": 1790,
      "☟": 1791,
      "☠": 1792,
      "☢": 1793,
      "☤": 1794,
      "☮": 1795,
      "☯": 1796,
      "☰": 1797,
      "☹": 1798,
      "☺": 1799,
      "☻": 1800,
      "☼": 1801,
      "☽": 1802,
      "☾": 1803,
      "♀": 1804,
      "♂": 1805,
      "♃": 1806,
      "♅": 1807,
      "♉": 1808,
      "♊": 1809,
      "♌": 1810,
      "♎": 1811,
      "♏": 1812,
      "♐": 1813,
      "♔": 1814,
      "♕": 1815,
      "♛": 1816,
      "♟": 1817,
      "♠": 1818,
      "♡": 1819,
      "♢": 1820,
      "♣": 1821,
      "♤": 1822,
      "♥": 1823,
      "♦": 1824,
      "♧": 1825,
      "♩": 1826,
      "♪": 1827,
      "♫": 1828,
      "♬": 1829,
      "♭": 1830,
      "♮": 1831,
      "♯": 1832,
      "♻": 1833,
      "♿": 1834,
      "⚇": 1835,
      "⚒": 1836,
      "⚓": 1837,
      "⚕": 1838,
      "⚖": 1839,
      "⚘": 1840,
      "⚙": 1841,
      "⚛": 1842,
      "⚜": 1843,
      "⚠": 1844,
      "⚡": 1845,
      "⚪": 1846,
      "⚫": 1847,
      "⚬": 1848,
      "⚽": 1849,
      "⛄": 1850,
      "⛅": 1851,
      "⛈": 1852,
      "⛏": 1853,
      "⛓": 1854,
      "⛔": 1855,
      "⛥": 1856,
      "⛪": 1857,
      "⛰": 1858,
      "⛱": 1859,
      "⛳": 1860,
      "⛵": 1861,
      "⛷": 1862,
      "⛸": 1863,
      "⛹": 1864,
      "⛺": 1865,
      "✁": 1866,
      "✂": 1867,
      "✅": 1868,
      "✆": 1869,
      "✈": 1870,
      "✉": 1871,
      "✊": 1872,
      "✋": 1873,
      "✌": 1874,
      "✍": 1875,
      "✎": 1876,
      "✏": 1877,
      "✒": 1878,
      "✓": 1879,
      "✔": 1880,
      "✕": 1881,
      "✖": 1882,
      "✘": 1883,
      "✚": 1884,
      "✝": 1885,
      "✞": 1886,
      "✠": 1887,
      "✤": 1888,
      "✦": 1889,
      "✧": 1890,
      "✨": 1891,
      "✩": 1892,
      "✪": 1893,
      "✫": 1894,
      "✭": 1895,
      "✮": 1896,
      "✯": 1897,
      "✰": 1898,
      "✱": 1899,
      "✲": 1900,
      "✴": 1901,
      "✵": 1902,
      "✶": 1903,
      "✷": 1904,
      "✸": 1905,
      "✹": 1906,
      "✻": 1907,
      "✽": 1908,
      "✿": 1909,
      "❀": 1910,
      "❁": 1911,
      "❂": 1912,
      "❄": 1913,
      "❅": 1914,
      "❆": 1915,
      "❇": 1916,
      "❉": 1917,
      "❊": 1918,
      "❌": 1919,
      "❎": 1920,
      "❑": 1921,
      "❓": 1922,
      "❔": 1923,
      "❕": 1924,
      "❖": 1925,
      "❗": 1926,
      "❘": 1927,
      "❚": 1928,
      "❝": 1929,
      "❞": 1930,
      "❣": 1931,
      "❤": 1932,
      "❥": 1933,
      "❦": 1934,
      "❧": 1935,
      "❭": 1936,
      "❮": 1937,
      "❯": 1938,
      "❱": 1939,
      "❶": 1940,
      "❷": 1941,
      "❾": 1942,
      "❿": 1943,
      "➀": 1944,
      "➉": 1945,
      "➊": 1946,
      "➋": 1947,
      "➌": 1948,
      "➍": 1949,
      "➎": 1950,
      "➏": 1951,
      "➐": 1952,
      "➑": 1953,
      "➔": 1954,
      "➕": 1955,
      "➖": 1956,
      "➗": 1957,
      "➛": 1958,
      "➜": 1959,
      "➝": 1960,
      "➞": 1961,
      "➟": 1962,
      "➡": 1963,
      "➢": 1964,
      "➣": 1965,
      "➤": 1966,
      "➥": 1967,
      "➦": 1968,
      "➧": 1969,
      "➨": 1970,
      "➪": 1971,
      "➰": 1972,
      "➳": 1973,
      "➼": 1974,
      "➽": 1975,
      "⟨": 1976,
      "⟩": 1977,
      "⟮": 1978,
      "⟯": 1979,
      "⟵": 1980,
      "⟶": 1981,
      "⠀": 1982,
      "⠓": 1983,
      "⠔": 1984,
      "⠡": 1985,
      "⠭": 1986,
      "⢢": 1987,
      "⤮": 1988,
      "⤵": 1989,
      "⥬": 1990,
      "⦁": 1991,
      "⦠": 1992,
      "⦡": 1993,
      "⦿": 1994,
      "⧐": 1995,
      "⪢": 1996,
      "⫸": 1997,
      "⬅": 1998,
      "⬆": 1999,
      "⬇": 2000,
      "⬤": 2001,
      "⭐": 2002,
      "⭑": 2003,
      "⭥": 2004,
      "Ⰰ": 2005,
      "ⱱ": 2006,
      "Ⲕ": 2007,
      "ⲟ": 2008,
      "ⲣ": 2009,
      "ⴢ": 2010,
      "ⴰ": 2011,
      "ⴻ": 2012,
      "ⴼ": 2013,
      "ⵄ": 2014,
      "ⵉ": 2015,
      "ⵍ": 2016,
      "ⵏ": 2017,
      "ⵔ": 2018,
      "ⵛ": 2019,
      "ⵢ": 2020,
      "ⵣ": 2021,
      "⸮": 2022,
      "、": 2023,
      "。": 2024,
      "々": 2025,
      "〈": 2026,
      "〉": 2027,
      "《": 2028,
      "》": 2029,
      "「": 2030,
      "」": 2031,
      "『": 2032,
      "』": 2033,
      "【": 2034,
      "】": 2035,
      "〰": 2036,
      "〽": 2037,
      "あ": 2038,
      "ぃ": 2039,
      "い": 2040,
      "う": 2041,
      "え": 2042,
      "お": 2043,
      "か": 2044,
      "が": 2045,
      "き": 2046,
      "ぎ": 2047,
      "く": 2048,
      "ぐ": 2049,
      "け": 2050,
      "げ": 2051,
      "こ": 2052,
      "ご": 2053,
      "さ": 2054,
      "ざ": 2055,
      "し": 2056,
      "じ": 2057,
      "す": 2058,
      "ず": 2059,
      "せ": 2060,
      "ぜ": 2061,
      "そ": 2062,
      "た": 2063,
      "だ": 2064,
      "ち": 2065,
      "っ": 2066,
      "つ": 2067,
      "て": 2068,
      "で": 2069,
      "と": 2070,
      "ど": 2071,
      "な": 2072,
      "に": 2073,
      "ぬ": 2074,
      "ね": 2075,
      "の": 2076,
      "は": 2077,
      "ば": 2078,
      "ぱ": 2079,
      "ひ": 2080,
      "び": 2081,
      "ぴ": 2082,
      "ふ": 2083,
      "ぶ": 2084,
      "ぷ": 2085,
      "へ": 2086,
      "べ": 2087,
      "ぺ": 2088,
      "ぼ": 2089,
      "ぽ": 2090,
      "ま": 2091,
      "み": 2092,
      "む": 2093,
      "め": 2094,
      "も": 2095,
      "ゃ": 2096,
      "や": 2097,
      "ゅ": 2098,
      "ゆ": 2099,
      "ょ": 2100,
      "よ": 2101,
      "ら": 2102,
      "り": 2103,
      "る": 2104,
      "れ": 2105,
      "ろ": 2106,
      "わ": 2107,
      "を": 2108,
      "ん": 2109,
      "゙": 2110,
      "゚": 2111,
      "ァ": 2112,
      "ア": 2113,
      "ィ": 2114,
      "イ": 2115,
      "ゥ": 2116,
      "ウ": 2117,
      "ェ": 2118,
      "エ": 2119,
      "ォ": 2120,
      "オ": 2121,
      "カ": 2122,
      "ガ": 2123,
      "キ": 2124,
      "ギ": 2125,
      "ク": 2126,
      "グ": 2127,
      "ケ": 2128,
      "ゲ": 2129,
      "コ": 2130,
      "ゴ": 2131,
      "サ": 2132,
      "ザ": 2133,
      "シ": 2134,
      "ジ": 2135,
      "ス": 2136,
      "ズ": 2137,
      "セ": 2138,
      "ゼ": 2139,
      "ソ": 2140,
      "ゾ": 2141,
      "タ": 2142,
      "ダ": 2143,
      "チ": 2144,
      "ッ": 2145,
      "ツ": 2146,
      "ヅ": 2147,
      "テ": 2148,
      "デ": 2149,
      "ト": 2150,
      "ド": 2151,
      "ナ": 2152,
      "ニ": 2153,
      "ヌ": 2154,
      "ネ": 2155,
      "ノ": 2156,
      "ハ": 2157,
      "バ": 2158,
      "パ": 2159,
      "ヒ": 2160,
      "ビ": 2161,
      "ピ": 2162,
      "フ": 2163,
      "ブ": 2164,
      "プ": 2165,
      "ヘ": 2166,
      "ベ": 2167,
      "ペ": 2168,
      "ホ": 2169,
      "ボ": 2170,
      "ポ": 2171,
      "マ": 2172,
      "ミ": 2173,
      "ム": 2174,
      "メ": 2175,
      "モ": 2176,
      "ャ": 2177,
      "ヤ": 2178,
      "ュ": 2179,
      "ユ": 2180,
      "ョ": 2181,
      "ヨ": 2182,
      "ラ": 2183,
      "リ": 2184,
      "ル": 2185,
      "レ": 2186,
      "ロ": 2187,
      "ヮ": 2188,
      "ワ": 2189,
      "ン": 2190,
      "ヴ": 2191,
      "・": 2192,
      "ー": 2193,
      "ヽ": 2194,
      "㇄": 2195,
      "㘀": 2196,
      "㜀": 2197,
      "䄀": 2198,
      "䈀": 2199,
      "䌀": 2200,
      "䐀": 2201,
      "䔀": 2202,
      "䘀": 2203,
      "䜀": 2204,
      "䠀": 2205,
      "䠴": 2206,
      "䢢": 2207,
      "䣫": 2208,
      "䤀": 2209,
      "䥴": 2210,
      "䬀": 2211,
      "䬶": 2212,
      "䮠": 2213,
      "䮥": 2214,
      "䮮": 2215,
      "䮳": 2216,
      "䮴": 2217,
      "䰀": 2218,
      "䲠": 2219,
      "䲡": 2220,
      "䲥": 2221,
      "䲧": 2222,
      "䲫": 2223,
      "䲬": 2224,
      "䲴": 2225,
      "䳥": 2226,
      "䳮": 2227,
      "䳳": 2228,
      "䴀": 2229,
      "䴴": 2230,
      "䶥": 2231,
      "一": 2232,
      "丁": 2233,
      "七": 2234,
      "万": 2235,
      "三": 2236,
      "上": 2237,
      "下": 2238,
      "不": 2239,
      "与": 2240,
      "专": 2241,
      "且": 2242,
      "世": 2243,
      "业": 2244,
      "东": 2245,
      "両": 2246,
      "两": 2247,
      "严": 2248,
      "个": 2249,
      "中": 2250,
      "串": 2251,
      "临": 2252,
      "丸": 2253,
      "丹": 2254,
      "为": 2255,
      "主": 2256,
      "丽": 2257,
      "久": 2258,
      "么": 2259,
      "之": 2260,
      "乌": 2261,
      "乎": 2262,
      "乐": 2263,
      "乘": 2264,
      "乙": 2265,
      "九": 2266,
      "也": 2267,
      "习": 2268,
      "乡": 2269,
      "书": 2270,
      "买": 2271,
      "乱": 2272,
      "乳": 2273,
      "亀": 2274,
      "亂": 2275,
      "了": 2276,
      "予": 2277,
      "争": 2278,
      "事": 2279,
      "二": 2280,
      "于": 2281,
      "云": 2282,
      "互": 2283,
      "五": 2284,
      "井": 2285,
      "亚": 2286,
      "些": 2287,
      "亡": 2288,
      "交": 2289,
      "产": 2290,
      "享": 2291,
      "京": 2292,
      "亮": 2293,
      "亲": 2294,
      "人": 2295,
      "什": 2296,
      "仁": 2297,
      "仅": 2298,
      "今": 2299,
      "介": 2300,
      "从": 2301,
      "仕": 2302,
      "他": 2303,
      "付": 2304,
      "仙": 2305,
      "代": 2306,
      "令": 2307,
      "以": 2308,
      "们": 2309,
      "仰": 2310,
      "仲": 2311,
      "件": 2312,
      "价": 2313,
      "任": 2314,
      "伀": 2315,
      "企": 2316,
      "伊": 2317,
      "伏": 2318,
      "休": 2319,
      "优": 2320,
      "会": 2321,
      "伝": 2322,
      "伟": 2323,
      "传": 2324,
      "伦": 2325,
      "似": 2326,
      "但": 2327,
      "位": 2328,
      "低": 2329,
      "住": 2330,
      "佐": 2331,
      "佑": 2332,
      "体": 2333,
      "何": 2334,
      "佛": 2335,
      "作": 2336,
      "你": 2337,
      "佳": 2338,
      "使": 2339,
      "例": 2340,
      "侑": 2341,
      "侘": 2342,
      "供": 2343,
      "依": 2344,
      "価": 2345,
      "便": 2346,
      "係": 2347,
      "促": 2348,
      "保": 2349,
      "俞": 2350,
      "信": 2351,
      "修": 2352,
      "俳": 2353,
      "俺": 2354,
      "倀": 2355,
      "倉": 2356,
      "個": 2357,
      "們": 2358,
      "倒": 2359,
      "候": 2360,
      "借": 2361,
      "値": 2362,
      "倭": 2363,
      "倶": 2364,
      "值": 2365,
      "假": 2366,
      "做": 2367,
      "停": 2368,
      "健": 2369,
      "側": 2370,
      "偶": 2371,
      "偷": 2372,
      "傅": 2373,
      "傑": 2374,
      "傘": 2375,
      "備": 2376,
      "催": 2377,
      "傳": 2378,
      "傷": 2379,
      "僅": 2380,
      "像": 2381,
      "儂": 2382,
      "億": 2383,
      "儚": 2384,
      "優": 2385,
      "儿": 2386,
      "元": 2387,
      "兄": 2388,
      "充": 2389,
      "兆": 2390,
      "先": 2391,
      "光": 2392,
      "克": 2393,
      "免": 2394,
      "児": 2395,
      "兑": 2396,
      "兒": 2397,
      "兔": 2398,
      "党": 2399,
      "入": 2400,
      "全": 2401,
      "八": 2402,
      "公": 2403,
      "六": 2404,
      "兰": 2405,
      "共": 2406,
      "关": 2407,
      "兴": 2408,
      "兵": 2409,
      "其": 2410,
      "具": 2411,
      "典": 2412,
      "内": 2413,
      "円": 2414,
      "册": 2415,
      "再": 2416,
      "冒": 2417,
      "写": 2418,
      "农": 2419,
      "冠": 2420,
      "冰": 2421,
      "决": 2422,
      "况": 2423,
      "冷": 2424,
      "冻": 2425,
      "净": 2426,
      "准": 2427,
      "凍": 2428,
      "凝": 2429,
      "几": 2430,
      "凭": 2431,
      "出": 2432,
      "击": 2433,
      "刀": 2434,
      "分": 2435,
      "切": 2436,
      "刑": 2437,
      "划": 2438,
      "列": 2439,
      "刘": 2440,
      "则": 2441,
      "刚": 2442,
      "初": 2443,
      "判": 2444,
      "別": 2445,
      "利": 2446,
      "别": 2447,
      "到": 2448,
      "制": 2449,
      "刻": 2450,
      "剂": 2451,
      "則": 2452,
      "剋": 2453,
      "前": 2454,
      "剑": 2455,
      "剣": 2456,
      "剧": 2457,
      "副": 2458,
      "割": 2459,
      "創": 2460,
      "劇": 2461,
      "劉": 2462,
      "力": 2463,
      "劝": 2464,
      "办": 2465,
      "功": 2466,
      "加": 2467,
      "务": 2468,
      "动": 2469,
      "助": 2470,
      "労": 2471,
      "効": 2472,
      "势": 2473,
      "勇": 2474,
      "勒": 2475,
      "動": 2476,
      "務": 2477,
      "勢": 2478,
      "勤": 2479,
      "匀": 2480,
      "包": 2481,
      "化": 2482,
      "北": 2483,
      "匪": 2484,
      "匹": 2485,
      "区": 2486,
      "医": 2487,
      "十": 2488,
      "千": 2489,
      "升": 2490,
      "午": 2491,
      "半": 2492,
      "华": 2493,
      "协": 2494,
      "卓": 2495,
      "協": 2496,
      "单": 2497,
      "南": 2498,
      "博": 2499,
      "占": 2500,
      "卡": 2501,
      "卤": 2502,
      "卧": 2503,
      "卫": 2504,
      "印": 2505,
      "危": 2506,
      "厂": 2507,
      "厚": 2508,
      "原": 2509,
      "厢": 2510,
      "厨": 2511,
      "去": 2512,
      "县": 2513,
      "参": 2514,
      "又": 2515,
      "及": 2516,
      "友": 2517,
      "双": 2518,
      "反": 2519,
      "发": 2520,
      "叔": 2521,
      "取": 2522,
      "受": 2523,
      "变": 2524,
      "口": 2525,
      "古": 2526,
      "句": 2527,
      "另": 2528,
      "只": 2529,
      "叫": 2530,
      "叮": 2531,
      "可": 2532,
      "台": 2533,
      "史": 2534,
      "右": 2535,
      "叶": 2536,
      "号": 2537,
      "司": 2538,
      "吀": 2539,
      "吃": 2540,
      "各": 2541,
      "合": 2542,
      "吉": 2543,
      "同": 2544,
      "名": 2545,
      "后": 2546,
      "向": 2547,
      "吕": 2548,
      "君": 2549,
      "吧": 2550,
      "听": 2551,
      "启": 2552,
      "吴": 2553,
      "吵": 2554,
      "吾": 2555,
      "呂": 2556,
      "呈": 2557,
      "告": 2558,
      "员": 2559,
      "呢": 2560,
      "周": 2561,
      "呲": 2562,
      "味": 2563,
      "命": 2564,
      "和": 2565,
      "咖": 2566,
      "咫": 2567,
      "咸": 2568,
      "品": 2569,
      "哈": 2570,
      "哓": 2571,
      "員": 2572,
      "哥": 2573,
      "哦": 2574,
      "唀": 2575,
      "唐": 2576,
      "唯": 2577,
      "商": 2578,
      "啊": 2579,
      "問": 2580,
      "啟": 2581,
      "啡": 2582,
      "啥": 2583,
      "善": 2584,
      "喜": 2585,
      "喝": 2586,
      "喫": 2587,
      "営": 2588,
      "嗎": 2589,
      "嘀": 2590,
      "嘈": 2591,
      "嘉": 2592,
      "器": 2593,
      "囊": 2594,
      "四": 2595,
      "回": 2596,
      "因": 2597,
      "团": 2598,
      "园": 2599,
      "困": 2600,
      "囲": 2601,
      "図": 2602,
      "围": 2603,
      "固": 2604,
      "国": 2605,
      "图": 2606,
      "圆": 2607,
      "國": 2608,
      "圏": 2609,
      "園": 2610,
      "圖": 2611,
      "土": 2612,
      "圣": 2613,
      "在": 2614,
      "地": 2615,
      "圳": 2616,
      "场": 2617,
      "址": 2618,
      "坂": 2619,
      "均": 2620,
      "坐": 2621,
      "坑": 2622,
      "坚": 2623,
      "坛": 2624,
      "坝": 2625,
      "坡": 2626,
      "坪": 2627,
      "型": 2628,
      "埇": 2629,
      "埋": 2630,
      "城": 2631,
      "埕": 2632,
      "域": 2633,
      "基": 2634,
      "埼": 2635,
      "堂": 2636,
      "堡": 2637,
      "堤": 2638,
      "堧": 2639,
      "堪": 2640,
      "報": 2641,
      "場": 2642,
      "塗": 2643,
      "境": 2644,
      "墅": 2645,
      "墊": 2646,
      "墙": 2647,
      "增": 2648,
      "墨": 2649,
      "墩": 2650,
      "壁": 2651,
      "壓": 2652,
      "壟": 2653,
      "士": 2654,
      "声": 2655,
      "売": 2656,
      "处": 2657,
      "备": 2658,
      "変": 2659,
      "夏": 2660,
      "夕": 2661,
      "外": 2662,
      "多": 2663,
      "夜": 2664,
      "夡": 2665,
      "夢": 2666,
      "大": 2667,
      "天": 2668,
      "太": 2669,
      "夫": 2670,
      "失": 2671,
      "头": 2672,
      "夷": 2673,
      "夹": 2674,
      "奇": 2675,
      "奈": 2676,
      "奖": 2677,
      "套": 2678,
      "奥": 2679,
      "奧": 2680,
      "奪": 2681,
      "女": 2682,
      "她": 2683,
      "好": 2684,
      "如": 2685,
      "妈": 2686,
      "妓": 2687,
      "妖": 2688,
      "妹": 2689,
      "妻": 2690,
      "始": 2691,
      "委": 2692,
      "姫": 2693,
      "姬": 2694,
      "娘": 2695,
      "娛": 2696,
      "婆": 2697,
      "婚": 2698,
      "婦": 2699,
      "婼": 2700,
      "媚": 2701,
      "媛": 2702,
      "子": 2703,
      "孔": 2704,
      "孕": 2705,
      "字": 2706,
      "存": 2707,
      "孝": 2708,
      "孟": 2709,
      "学": 2710,
      "孩": 2711,
      "孫": 2712,
      "學": 2713,
      "它": 2714,
      "宅": 2715,
      "宇": 2716,
      "安": 2717,
      "宋": 2718,
      "完": 2719,
      "宗": 2720,
      "官": 2721,
      "定": 2722,
      "宜": 2723,
      "宝": 2724,
      "实": 2725,
      "実": 2726,
      "宠": 2727,
      "审": 2728,
      "客": 2729,
      "宣": 2730,
      "室": 2731,
      "宧": 2732,
      "宫": 2733,
      "宮": 2734,
      "家": 2735,
      "容": 2736,
      "宽": 2737,
      "宾": 2738,
      "宿": 2739,
      "寂": 2740,
      "寄": 2741,
      "密": 2742,
      "富": 2743,
      "寒": 2744,
      "寓": 2745,
      "寛": 2746,
      "察": 2747,
      "實": 2748,
      "寶": 2749,
      "对": 2750,
      "寺": 2751,
      "导": 2752,
      "対": 2753,
      "寿": 2754,
      "専": 2755,
      "将": 2756,
      "將": 2757,
      "尊": 2758,
      "對": 2759,
      "導": 2760,
      "小": 2761,
      "少": 2762,
      "尔": 2763,
      "尖": 2764,
      "尘": 2765,
      "尚": 2766,
      "尤": 2767,
      "就": 2768,
      "尺": 2769,
      "尼": 2770,
      "尽": 2771,
      "尾": 2772,
      "局": 2773,
      "居": 2774,
      "届": 2775,
      "屋": 2776,
      "展": 2777,
      "属": 2778,
      "山": 2779,
      "岗": 2780,
      "岙": 2781,
      "岛": 2782,
      "岢": 2783,
      "岩": 2784,
      "岭": 2785,
      "岳": 2786,
      "岸": 2787,
      "峡": 2788,
      "峰": 2789,
      "島": 2790,
      "崎": 2791,
      "崑": 2792,
      "崙": 2793,
      "嵬": 2794,
      "嶽": 2795,
      "川": 2796,
      "州": 2797,
      "工": 2798,
      "左": 2799,
      "巧": 2800,
      "差": 2801,
      "己": 2802,
      "已": 2803,
      "巴": 2804,
      "市": 2805,
      "布": 2806,
      "师": 2807,
      "希": 2808,
      "帕": 2809,
      "帖": 2810,
      "帝": 2811,
      "带": 2812,
      "師": 2813,
      "帮": 2814,
      "帯": 2815,
      "帰": 2816,
      "常": 2817,
      "帽": 2818,
      "幕": 2819,
      "干": 2820,
      "平": 2821,
      "年": 2822,
      "并": 2823,
      "幸": 2824,
      "幻": 2825,
      "广": 2826,
      "庁": 2827,
      "広": 2828,
      "庄": 2829,
      "庆": 2830,
      "床": 2831,
      "库": 2832,
      "应": 2833,
      "店": 2834,
      "庙": 2835,
      "府": 2836,
      "废": 2837,
      "度": 2838,
      "座": 2839,
      "庭": 2840,
      "庵": 2841,
      "康": 2842,
      "廃": 2843,
      "廉": 2844,
      "廊": 2845,
      "廠": 2846,
      "廣": 2847,
      "廳": 2848,
      "延": 2849,
      "建": 2850,
      "开": 2851,
      "式": 2852,
      "弓": 2853,
      "引": 2854,
      "弟": 2855,
      "张": 2856,
      "張": 2857,
      "強": 2858,
      "强": 2859,
      "彈": 2860,
      "彌": 2861,
      "当": 2862,
      "录": 2863,
      "彡": 2864,
      "形": 2865,
      "彦": 2866,
      "彩": 2867,
      "彬": 2868,
      "影": 2869,
      "役": 2870,
      "往": 2871,
      "征": 2872,
      "待": 2873,
      "很": 2874,
      "律": 2875,
      "後": 2876,
      "徐": 2877,
      "徒": 2878,
      "得": 2879,
      "從": 2880,
      "御": 2881,
      "復": 2882,
      "微": 2883,
      "德": 2884,
      "徹": 2885,
      "徽": 2886,
      "心": 2887,
      "必": 2888,
      "忙": 2889,
      "応": 2890,
      "忠": 2891,
      "快": 2892,
      "念": 2893,
      "怀": 2894,
      "态": 2895,
      "怎": 2896,
      "怕": 2897,
      "思": 2898,
      "急": 2899,
      "性": 2900,
      "怨": 2901,
      "总": 2902,
      "恋": 2903,
      "恒": 2904,
      "恩": 2905,
      "息": 2906,
      "恵": 2907,
      "恶": 2908,
      "您": 2909,
      "悪": 2910,
      "悼": 2911,
      "情": 2912,
      "惑": 2913,
      "惠": 2914,
      "想": 2915,
      "意": 2916,
      "愛": 2917,
      "感": 2918,
      "愧": 2919,
      "愿": 2920,
      "態": 2921,
      "慧": 2922,
      "慮": 2923,
      "慶": 2924,
      "憲": 2925,
      "憶": 2926,
      "懂": 2927,
      "戊": 2928,
      "成": 2929,
      "我": 2930,
      "或": 2931,
      "戚": 2932,
      "戦": 2933,
      "戲": 2934,
      "戶": 2935,
      "户": 2936,
      "戸": 2937,
      "房": 2938,
      "所": 2939,
      "扉": 2940,
      "手": 2941,
      "才": 2942,
      "扎": 2943,
      "打": 2944,
      "托": 2945,
      "扩": 2946,
      "扫": 2947,
      "找": 2948,
      "承": 2949,
      "技": 2950,
      "把": 2951,
      "抑": 2952,
      "投": 2953,
      "折": 2954,
      "抜": 2955,
      "抢": 2956,
      "抣": 2957,
      "报": 2958,
      "抮": 2959,
      "抯": 2960,
      "抵": 2961,
      "拉": 2962,
      "拍": 2963,
      "拓": 2964,
      "招": 2965,
      "拥": 2966,
      "括": 2967,
      "拯": 2968,
      "拿": 2969,
      "持": 2970,
      "挂": 2971,
      "指": 2972,
      "按": 2973,
      "挙": 2974,
      "振": 2975,
      "挺": 2976,
      "捉": 2977,
      "捕": 2978,
      "损": 2979,
      "据": 2980,
      "捷": 2981,
      "排": 2982,
      "掛": 2983,
      "探": 2984,
      "接": 2985,
      "推": 2986,
      "掲": 2987,
      "掳": 2988,
      "描": 2989,
      "提": 2990,
      "揚": 2991,
      "換": 2992,
      "援": 2993,
      "搏": 2994,
      "搜": 2995,
      "携": 2996,
      "摩": 2997,
      "摸": 2998,
      "撒": 2999,
      "撫": 3000,
      "播": 3001,
      "擬": 3002,
      "攕": 3003,
      "攘": 3004,
      "支": 3005,
      "改": 3006,
      "攻": 3007,
      "放": 3008,
      "效": 3009,
      "救": 3010,
      "敖": 3011,
      "教": 3012,
      "敞": 3013,
      "敢": 3014,
      "散": 3015,
      "敦": 3016,
      "敬": 3017,
      "数": 3018,
      "整": 3019,
      "敵": 3020,
      "敷": 3021,
      "文": 3022,
      "斉": 3023,
      "斗": 3024,
      "料": 3025,
      "断": 3026,
      "斯": 3027,
      "新": 3028,
      "方": 3029,
      "施": 3030,
      "旅": 3031,
      "族": 3032,
      "旗": 3033,
      "无": 3034,
      "既": 3035,
      "日": 3036,
      "旦": 3037,
      "旧": 3038,
      "旨": 3039,
      "早": 3040,
      "时": 3041,
      "昂": 3042,
      "昌": 3043,
      "明": 3044,
      "易": 3045,
      "昔": 3046,
      "星": 3047,
      "映": 3048,
      "春": 3049,
      "昨": 3050,
      "昭": 3051,
      "是": 3052,
      "显": 3053,
      "時": 3054,
      "晓": 3055,
      "晚": 3056,
      "晩": 3057,
      "普": 3058,
      "景": 3059,
      "晴": 3060,
      "晶": 3061,
      "暈": 3062,
      "暗": 3063,
      "暢": 3064,
      "暮": 3065,
      "暴": 3066,
      "曉": 3067,
      "曜": 3068,
      "曲": 3069,
      "更": 3070,
      "書": 3071,
      "最": 3072,
      "月": 3073,
      "有": 3074,
      "朋": 3075,
      "服": 3076,
      "朗": 3077,
      "望": 3078,
      "朝": 3079,
      "期": 3080,
      "木": 3081,
      "未": 3082,
      "末": 3083,
      "本": 3084,
      "札": 3085,
      "术": 3086,
      "朱": 3087,
      "机": 3088,
      "杂": 3089,
      "权": 3090,
      "杉": 3091,
      "李": 3092,
      "材": 3093,
      "村": 3094,
      "条": 3095,
      "杢": 3096,
      "来": 3097,
      "杭": 3098,
      "杰": 3099,
      "東": 3100,
      "松": 3101,
      "板": 3102,
      "极": 3103,
      "林": 3104,
      "枚": 3105,
      "果": 3106,
      "枞": 3107,
      "枢": 3108,
      "枣": 3109,
      "查": 3110,
      "柱": 3111,
      "柳": 3112,
      "栄": 3113,
      "栅": 3114,
      "栈": 3115,
      "栋": 3116,
      "树": 3117,
      "栗": 3118,
      "校": 3119,
      "株": 3120,
      "样": 3121,
      "根": 3122,
      "格": 3123,
      "桁": 3124,
      "桂": 3125,
      "桃": 3126,
      "桟": 3127,
      "桥": 3128,
      "梅": 3129,
      "梦": 3130,
      "检": 3131,
      "棉": 3132,
      "棋": 3133,
      "棍": 3134,
      "棒": 3135,
      "棟": 3136,
      "森": 3137,
      "椒": 3138,
      "楞": 3139,
      "業": 3140,
      "楼": 3141,
      "楽": 3142,
      "榉": 3143,
      "榮": 3144,
      "構": 3145,
      "様": 3146,
      "槽": 3147,
      "樂": 3148,
      "標": 3149,
      "模": 3150,
      "樣": 3151,
      "横": 3152,
      "樹": 3153,
      "橋": 3154,
      "機": 3155,
      "欄": 3156,
      "欠": 3157,
      "次": 3158,
      "欢": 3159,
      "欣": 3160,
      "欧": 3161,
      "款": 3162,
      "歌": 3163,
      "歐": 3164,
      "止": 3165,
      "正": 3166,
      "此": 3167,
      "步": 3168,
      "武": 3169,
      "歩": 3170,
      "歴": 3171,
      "歷": 3172,
      "死": 3173,
      "歼": 3174,
      "殆": 3175,
      "残": 3176,
      "段": 3177,
      "殺": 3178,
      "殿": 3179,
      "母": 3180,
      "毎": 3181,
      "每": 3182,
      "比": 3183,
      "毘": 3184,
      "毛": 3185,
      "毯": 3186,
      "民": 3187,
      "氓": 3188,
      "气": 3189,
      "気": 3190,
      "氛": 3191,
      "氣": 3192,
      "氧": 3193,
      "水": 3194,
      "求": 3195,
      "汉": 3196,
      "汝": 3197,
      "江": 3198,
      "池": 3199,
      "決": 3200,
      "汽": 3201,
      "汾": 3202,
      "沒": 3203,
      "沖": 3204,
      "沙": 3205,
      "沟": 3206,
      "没": 3207,
      "沢": 3208,
      "沫": 3209,
      "河": 3210,
      "油": 3211,
      "治": 3212,
      "沼": 3213,
      "泉": 3214,
      "泊": 3215,
      "法": 3216,
      "泡": 3217,
      "波": 3218,
      "注": 3219,
      "泰": 3220,
      "泳": 3221,
      "洁": 3222,
      "洋": 3223,
      "洗": 3224,
      "洛": 3225,
      "洞": 3226,
      "洪": 3227,
      "洲": 3228,
      "活": 3229,
      "派": 3230,
      "流": 3231,
      "浅": 3232,
      "济": 3233,
      "浙": 3234,
      "浜": 3235,
      "浦": 3236,
      "浩": 3237,
      "浪": 3238,
      "浴": 3239,
      "海": 3240,
      "消": 3241,
      "涡": 3242,
      "涪": 3243,
      "液": 3244,
      "淡": 3245,
      "深": 3246,
      "淲": 3247,
      "淳": 3248,
      "混": 3249,
      "淸": 3250,
      "添": 3251,
      "清": 3252,
      "渡": 3253,
      "温": 3254,
      "測": 3255,
      "港": 3256,
      "游": 3257,
      "湖": 3258,
      "湘": 3259,
      "湯": 3260,
      "湾": 3261,
      "満": 3262,
      "源": 3263,
      "準": 3264,
      "溢": 3265,
      "溪": 3266,
      "滕": 3267,
      "滚": 3268,
      "满": 3269,
      "滩": 3270,
      "漂": 3271,
      "演": 3272,
      "漠": 3273,
      "漢": 3274,
      "漣": 3275,
      "漫": 3276,
      "漳": 3277,
      "潜": 3278,
      "潮": 3279,
      "澄": 3280,
      "澳": 3281,
      "激": 3282,
      "濉": 3283,
      "濳": 3284,
      "灌": 3285,
      "灘": 3286,
      "灣": 3287,
      "火": 3288,
      "灯": 3289,
      "灰": 3290,
      "炉": 3291,
      "炊": 3292,
      "炭": 3293,
      "炸": 3294,
      "点": 3295,
      "為": 3296,
      "烈": 3297,
      "烘": 3298,
      "烤": 3299,
      "烧": 3300,
      "烨": 3301,
      "热": 3302,
      "無": 3303,
      "然": 3304,
      "焼": 3305,
      "煌": 3306,
      "煙": 3307,
      "照": 3308,
      "熊": 3309,
      "熟": 3310,
      "熱": 3311,
      "爆": 3312,
      "爱": 3313,
      "爹": 3314,
      "爾": 3315,
      "片": 3316,
      "版": 3317,
      "牌": 3318,
      "牙": 3319,
      "牛": 3320,
      "牡": 3321,
      "牧": 3322,
      "物": 3323,
      "特": 3324,
      "犬": 3325,
      "犯": 3326,
      "状": 3327,
      "狂": 3328,
      "狐": 3329,
      "狗": 3330,
      "独": 3331,
      "猫": 3332,
      "猴": 3333,
      "猿": 3334,
      "獄": 3335,
      "獨": 3336,
      "率": 3337,
      "玉": 3338,
      "王": 3339,
      "玛": 3340,
      "玩": 3341,
      "环": 3342,
      "现": 3343,
      "玲": 3344,
      "珊": 3345,
      "珍": 3346,
      "珞": 3347,
      "珠": 3348,
      "班": 3349,
      "現": 3350,
      "球": 3351,
      "理": 3352,
      "琴": 3353,
      "琵": 3354,
      "琶": 3355,
      "瑞": 3356,
      "環": 3357,
      "瓦": 3358,
      "瓶": 3359,
      "甚": 3360,
      "生": 3361,
      "產": 3362,
      "産": 3363,
      "用": 3364,
      "田": 3365,
      "由": 3366,
      "甲": 3367,
      "电": 3368,
      "男": 3369,
      "町": 3370,
      "画": 3371,
      "畅": 3372,
      "界": 3373,
      "留": 3374,
      "略": 3375,
      "番": 3376,
      "畫": 3377,
      "異": 3378,
      "當": 3379,
      "疯": 3380,
      "病": 3381,
      "痰": 3382,
      "痴": 3383,
      "療": 3384,
      "癒": 3385,
      "発": 3386,
      "登": 3387,
      "白": 3388,
      "百": 3389,
      "的": 3390,
      "皇": 3391,
      "皮": 3392,
      "盖": 3393,
      "盘": 3394,
      "盤": 3395,
      "目": 3396,
      "盲": 3397,
      "直": 3398,
      "相": 3399,
      "省": 3400,
      "看": 3401,
      "県": 3402,
      "真": 3403,
      "眺": 3404,
      "眼": 3405,
      "着": 3406,
      "睛": 3407,
      "睡": 3408,
      "矢": 3409,
      "知": 3410,
      "矩": 3411,
      "短": 3412,
      "码": 3413,
      "砍": 3414,
      "破": 3415,
      "砸": 3416,
      "硬": 3417,
      "确": 3418,
      "碁": 3419,
      "碗": 3420,
      "碟": 3421,
      "碰": 3422,
      "磊": 3423,
      "磯": 3424,
      "示": 3425,
      "礼": 3426,
      "社": 3427,
      "祉": 3428,
      "祖": 3429,
      "祝": 3430,
      "神": 3431,
      "祠": 3432,
      "祥": 3433,
      "票": 3434,
      "禁": 3435,
      "禅": 3436,
      "福": 3437,
      "禮": 3438,
      "禹": 3439,
      "离": 3440,
      "秀": 3441,
      "私": 3442,
      "秋": 3443,
      "种": 3444,
      "科": 3445,
      "秒": 3446,
      "租": 3447,
      "秧": 3448,
      "积": 3449,
      "称": 3450,
      "移": 3451,
      "程": 3452,
      "稱": 3453,
      "稲": 3454,
      "稳": 3455,
      "稼": 3456,
      "稿": 3457,
      "積": 3458,
      "空": 3459,
      "立": 3460,
      "站": 3461,
      "竜": 3462,
      "童": 3463,
      "端": 3464,
      "竹": 3465,
      "笑": 3466,
      "第": 3467,
      "等": 3468,
      "筋": 3469,
      "筑": 3470,
      "筒": 3471,
      "答": 3472,
      "筝": 3473,
      "签": 3474,
      "简": 3475,
      "算": 3476,
      "管": 3477,
      "箭": 3478,
      "箱": 3479,
      "節": 3480,
      "範": 3481,
      "篇": 3482,
      "簡": 3483,
      "簧": 3484,
      "簿": 3485,
      "米": 3486,
      "类": 3487,
      "粉": 3488,
      "粋": 3489,
      "粤": 3490,
      "粵": 3491,
      "粽": 3492,
      "精": 3493,
      "糈": 3494,
      "糕": 3495,
      "糖": 3496,
      "糟": 3497,
      "系": 3498,
      "紀": 3499,
      "約": 3500,
      "紅": 3501,
      "紗": 3502,
      "紙": 3503,
      "級": 3504,
      "素": 3505,
      "索": 3506,
      "紫": 3507,
      "細": 3508,
      "終": 3509,
      "組": 3510,
      "経": 3511,
      "結": 3512,
      "給": 3513,
      "統": 3514,
      "絵": 3515,
      "絶": 3516,
      "經": 3517,
      "続": 3518,
      "綠": 3519,
      "網": 3520,
      "綴": 3521,
      "綺": 3522,
      "綾": 3523,
      "総": 3524,
      "緒": 3525,
      "線": 3526,
      "編": 3527,
      "練": 3528,
      "緻": 3529,
      "縄": 3530,
      "縅": 3531,
      "縜": 3532,
      "總": 3533,
      "繁": 3534,
      "红": 3535,
      "约": 3536,
      "级": 3537,
      "纪": 3538,
      "纱": 3539,
      "纸": 3540,
      "线": 3541,
      "组": 3542,
      "细": 3543,
      "经": 3544,
      "结": 3545,
      "给": 3546,
      "络": 3547,
      "绣": 3548,
      "维": 3549,
      "绿": 3550,
      "网": 3551,
      "罔": 3552,
      "罗": 3553,
      "罪": 3554,
      "置": 3555,
      "羅": 3556,
      "羊": 3557,
      "美": 3558,
      "群": 3559,
      "義": 3560,
      "羲": 3561,
      "翌": 3562,
      "習": 3563,
      "翻": 3564,
      "翼": 3565,
      "老": 3566,
      "者": 3567,
      "而": 3568,
      "耳": 3569,
      "聊": 3570,
      "联": 3571,
      "聖": 3572,
      "聚": 3573,
      "聞": 3574,
      "聽": 3575,
      "肉": 3576,
      "肮": 3577,
      "育": 3578,
      "背": 3579,
      "胎": 3580,
      "胪": 3581,
      "能": 3582,
      "脀": 3583,
      "脂": 3584,
      "脇": 3585,
      "脏": 3586,
      "脑": 3587,
      "脥": 3588,
      "腐": 3589,
      "腕": 3590,
      "腳": 3591,
      "腾": 3592,
      "膠": 3593,
      "臨": 3594,
      "自": 3595,
      "臭": 3596,
      "至": 3597,
      "致": 3598,
      "舍": 3599,
      "舎": 3600,
      "舐": 3601,
      "舒": 3602,
      "舖": 3603,
      "舞": 3604,
      "舤": 3605,
      "舩": 3606,
      "般": 3607,
      "船": 3608,
      "良": 3609,
      "色": 3610,
      "艺": 3611,
      "节": 3612,
      "花": 3613,
      "芸": 3614,
      "苏": 3615,
      "苑": 3616,
      "苗": 3617,
      "若": 3618,
      "英": 3619,
      "范": 3620,
      "茅": 3621,
      "茨": 3622,
      "茫": 3623,
      "茶": 3624,
      "草": 3625,
      "荐": 3626,
      "荡": 3627,
      "荣": 3628,
      "荷": 3629,
      "荻": 3630,
      "莎": 3631,
      "莫": 3632,
      "获": 3633,
      "菅": 3634,
      "菇": 3635,
      "菉": 3636,
      "菊": 3637,
      "菜": 3638,
      "華": 3639,
      "菱": 3640,
      "菲": 3641,
      "萌": 3642,
      "萍": 3643,
      "营": 3644,
      "萬": 3645,
      "落": 3646,
      "葉": 3647,
      "著": 3648,
      "葛": 3649,
      "葜": 3650,
      "葱": 3651,
      "蒙": 3652,
      "蒡": 3653,
      "蒲": 3654,
      "蒸": 3655,
      "蓮": 3656,
      "蔵": 3657,
      "蕎": 3658,
      "薙": 3659,
      "薫": 3660,
      "薬": 3661,
      "藍": 3662,
      "藏": 3663,
      "藤": 3664,
      "藩": 3665,
      "虍": 3666,
      "虎": 3667,
      "處": 3668,
      "虜": 3669,
      "虫": 3670,
      "蚬": 3671,
      "蛋": 3672,
      "蛮": 3673,
      "蜀": 3674,
      "蝓": 3675,
      "螺": 3676,
      "蟹": 3677,
      "血": 3678,
      "衆": 3679,
      "行": 3680,
      "術": 3681,
      "街": 3682,
      "衡": 3683,
      "衣": 3684,
      "表": 3685,
      "衩": 3686,
      "被": 3687,
      "裂": 3688,
      "装": 3689,
      "裏": 3690,
      "裝": 3691,
      "裡": 3692,
      "裤": 3693,
      "裸": 3694,
      "製": 3695,
      "西": 3696,
      "要": 3697,
      "覆": 3698,
      "見": 3699,
      "規": 3700,
      "覚": 3701,
      "覧": 3702,
      "親": 3703,
      "観": 3704,
      "覺": 3705,
      "见": 3706,
      "观": 3707,
      "规": 3708,
      "视": 3709,
      "觉": 3710,
      "角": 3711,
      "解": 3712,
      "触": 3713,
      "言": 3714,
      "訂": 3715,
      "計": 3716,
      "記": 3717,
      "訪": 3718,
      "設": 3719,
      "訳": 3720,
      "詞": 3721,
      "詢": 3722,
      "試": 3723,
      "話": 3724,
      "詹": 3725,
      "認": 3726,
      "語": 3727,
      "誠": 3728,
      "說": 3729,
      "説": 3730,
      "誰": 3731,
      "課": 3732,
      "調": 3733,
      "談": 3734,
      "論": 3735,
      "諸": 3736,
      "謝": 3737,
      "證": 3738,
      "識": 3739,
      "警": 3740,
      "譯": 3741,
      "議": 3742,
      "護": 3743,
      "讀": 3744,
      "變": 3745,
      "讓": 3746,
      "讚": 3747,
      "计": 3748,
      "订": 3749,
      "认": 3750,
      "让": 3751,
      "议": 3752,
      "讯": 3753,
      "记": 3754,
      "许": 3755,
      "论": 3756,
      "设": 3757,
      "证": 3758,
      "评": 3759,
      "识": 3760,
      "词": 3761,
      "译": 3762,
      "试": 3763,
      "话": 3764,
      "诞": 3765,
      "询": 3766,
      "该": 3767,
      "语": 3768,
      "说": 3769,
      "请": 3770,
      "诺": 3771,
      "读": 3772,
      "谁": 3773,
      "调": 3774,
      "谈": 3775,
      "谢": 3776,
      "谭": 3777,
      "谷": 3778,
      "豆": 3779,
      "象": 3780,
      "豪": 3781,
      "豬": 3782,
      "豹": 3783,
      "貌": 3784,
      "貝": 3785,
      "貞": 3786,
      "財": 3787,
      "販": 3788,
      "貴": 3789,
      "貸": 3790,
      "費": 3791,
      "貼": 3792,
      "賂": 3793,
      "資": 3794,
      "賊": 3795,
      "賓": 3796,
      "賞": 3797,
      "賥": 3798,
      "質": 3799,
      "贝": 3800,
      "贡": 3801,
      "财": 3802,
      "责": 3803,
      "败": 3804,
      "质": 3805,
      "购": 3806,
      "贴": 3807,
      "贵": 3808,
      "费": 3809,
      "资": 3810,
      "赓": 3811,
      "赖": 3812,
      "赞": 3813,
      "赤": 3814,
      "走": 3815,
      "起": 3816,
      "超": 3817,
      "越": 3818,
      "趣": 3819,
      "足": 3820,
      "跟": 3821,
      "路": 3822,
      "踏": 3823,
      "蹈": 3824,
      "身": 3825,
      "車": 3826,
      "転": 3827,
      "較": 3828,
      "載": 3829,
      "輔": 3830,
      "輝": 3831,
      "輪": 3832,
      "輯": 3833,
      "轉": 3834,
      "车": 3835,
      "转": 3836,
      "软": 3837,
      "轻": 3838,
      "载": 3839,
      "较": 3840,
      "输": 3841,
      "辰": 3842,
      "農": 3843,
      "边": 3844,
      "达": 3845,
      "迁": 3846,
      "过": 3847,
      "迎": 3848,
      "运": 3849,
      "近": 3850,
      "还": 3851,
      "这": 3852,
      "进": 3853,
      "远": 3854,
      "连": 3855,
      "迟": 3856,
      "迦": 3857,
      "迪": 3858,
      "述": 3859,
      "追": 3860,
      "送": 3861,
      "适": 3862,
      "逃": 3863,
      "选": 3864,
      "透": 3865,
      "途": 3866,
      "這": 3867,
      "通": 3868,
      "逛": 3869,
      "速": 3870,
      "造": 3871,
      "連": 3872,
      "週": 3873,
      "進": 3874,
      "遇": 3875,
      "遊": 3876,
      "運": 3877,
      "過": 3878,
      "道": 3879,
      "達": 3880,
      "違": 3881,
      "遗": 3882,
      "遠": 3883,
      "遣": 3884,
      "適": 3885,
      "選": 3886,
      "遽": 3887,
      "還": 3888,
      "邏": 3889,
      "那": 3890,
      "邦": 3891,
      "邪": 3892,
      "郊": 3893,
      "郎": 3894,
      "郑": 3895,
      "郡": 3896,
      "部": 3897,
      "郭": 3898,
      "郷": 3899,
      "都": 3900,
      "鄂": 3901,
      "鄭": 3902,
      "配": 3903,
      "酒": 3904,
      "酱": 3905,
      "醇": 3906,
      "醫": 3907,
      "里": 3908,
      "重": 3909,
      "野": 3910,
      "量": 3911,
      "金": 3912,
      "釣": 3913,
      "鈥": 3914,
      "鈬": 3915,
      "鈺": 3916,
      "鉄": 3917,
      "鉾": 3918,
      "銀": 3919,
      "銅": 3920,
      "銭": 3921,
      "銷": 3922,
      "鋑": 3923,
      "鋕": 3924,
      "鋖": 3925,
      "鋗": 3926,
      "鋘": 3927,
      "鋜": 3928,
      "鋝": 3929,
      "鋞": 3930,
      "錮": 3931,
      "錯": 3932,
      "錱": 3933,
      "錶": 3934,
      "錸": 3935,
      "錼": 3936,
      "錽": 3937,
      "錿": 3938,
      "鍁": 3939,
      "鍵": 3940,
      "鎮": 3941,
      "鏟": 3942,
      "鏡": 3943,
      "鑕": 3944,
      "钞": 3945,
      "钟": 3946,
      "钢": 3947,
      "铁": 3948,
      "铃": 3949,
      "铭": 3950,
      "铲": 3951,
      "银": 3952,
      "锁": 3953,
      "错": 3954,
      "锦": 3955,
      "键": 3956,
      "镇": 3957,
      "镜": 3958,
      "長": 3959,
      "长": 3960,
      "門": 3961,
      "開": 3962,
      "間": 3963,
      "閙": 3964,
      "閞": 3965,
      "関": 3966,
      "閣": 3967,
      "閱": 3968,
      "闘": 3969,
      "關": 3970,
      "门": 3971,
      "问": 3972,
      "闲": 3973,
      "间": 3974,
      "闹": 3975,
      "闻": 3976,
      "阁": 3977,
      "阅": 3978,
      "阜": 3979,
      "队": 3980,
      "阪": 3981,
      "阮": 3982,
      "防": 3983,
      "阳": 3984,
      "阴": 3985,
      "阶": 3986,
      "阿": 3987,
      "际": 3988,
      "陈": 3989,
      "降": 3990,
      "限": 3991,
      "院": 3992,
      "陣": 3993,
      "除": 3994,
      "险": 3995,
      "陰": 3996,
      "陳": 3997,
      "陵": 3998,
      "陶": 3999,
      "陸": 4000,
      "険": 4001,
      "陽": 4002,
      "隆": 4003,
      "隈": 4004,
      "隍": 4005,
      "階": 4006,
      "随": 4007,
      "隔": 4008,
      "際": 4009,
      "隨": 4010,
      "难": 4011,
      "雀": 4012,
      "雁": 4013,
      "雄": 4014,
      "雅": 4015,
      "集": 4016,
      "雨": 4017,
      "雪": 4018,
      "雯": 4019,
      "雰": 4020,
      "雲": 4021,
      "零": 4022,
      "雷": 4023,
      "電": 4024,
      "需": 4025,
      "霊": 4026,
      "霞": 4027,
      "霧": 4028,
      "露": 4029,
      "青": 4030,
      "静": 4031,
      "非": 4032,
      "靠": 4033,
      "面": 4034,
      "靴": 4035,
      "韓": 4036,
      "韦": 4037,
      "音": 4038,
      "韶": 4039,
      "韻": 4040,
      "頁": 4041,
      "頂": 4042,
      "順": 4043,
      "預": 4044,
      "頑": 4045,
      "領": 4046,
      "頠": 4047,
      "頭": 4048,
      "頵": 4049,
      "頻": 4050,
      "頼": 4051,
      "題": 4052,
      "顔": 4053,
      "願": 4054,
      "顧": 4055,
      "页": 4056,
      "顾": 4057,
      "顿": 4058,
      "预": 4059,
      "颅": 4060,
      "领": 4061,
      "風": 4062,
      "风": 4063,
      "飛": 4064,
      "食": 4065,
      "飯": 4066,
      "飲": 4067,
      "飽": 4068,
      "飾": 4069,
      "養": 4070,
      "餐": 4071,
      "館": 4072,
      "饭": 4073,
      "饮": 4074,
      "饰": 4075,
      "馆": 4076,
      "首": 4077,
      "香": 4078,
      "馨": 4079,
      "馬": 4080,
      "駄": 4081,
      "駅": 4082,
      "駆": 4083,
      "騏": 4084,
      "験": 4085,
      "驎": 4086,
      "驗": 4087,
      "驚": 4088,
      "马": 4089,
      "驹": 4090,
      "驺": 4091,
      "验": 4092,
      "骑": 4093,
      "骓": 4094,
      "骚": 4095,
      "骪": 4096,
      "體": 4097,
      "高": 4098,
      "髪": 4099,
      "鬼": 4100,
      "魂": 4101,
      "魅": 4102,
      "魔": 4103,
      "魚": 4104,
      "魯": 4105,
      "鮨": 4106,
      "鮮": 4107,
      "鰀": 4108,
      "鰉": 4109,
      "鰋": 4110,
      "鰎": 4111,
      "鰏": 4112,
      "鰐": 4113,
      "鰒": 4114,
      "鲁": 4115,
      "鲍": 4116,
      "鳥": 4117,
      "鳳": 4118,
      "鶏": 4119,
      "鷺": 4120,
      "鸟": 4121,
      "鸡": 4122,
      "鸭": 4123,
      "鹅": 4124,
      "鹿": 4125,
      "麋": 4126,
      "麒": 4127,
      "麗": 4128,
      "麟": 4129,
      "麦": 4130,
      "麻": 4131,
      "麼": 4132,
      "麿": 4133,
      "黃": 4134,
      "黄": 4135,
      "黑": 4136,
      "黒": 4137,
      "默": 4138,
      "點": 4139,
      "鼂": 4140,
      "鼻": 4141,
      "齐": 4142,
      "龍": 4143,
      "龐": 4144,
      "龙": 4145,
      "龠": 4146,
      "꒰": 4147,
      "꒱": 4148,
      "꒵": 4149,
      "ꙭ": 4150,
      "ꟷ": 4151,
      "가": 4152,
      "각": 4153,
      "간": 4154,
      "갈": 4155,
      "감": 4156,
      "갓": 4157,
      "갔": 4158,
      "강": 4159,
      "같": 4160,
      "개": 4161,
      "거": 4162,
      "건": 4163,
      "걸": 4164,
      "것": 4165,
      "게": 4166,
      "겠": 4167,
      "겨": 4168,
      "격": 4169,
      "겸": 4170,
      "경": 4171,
      "계": 4172,
      "고": 4173,
      "골": 4174,
      "곳": 4175,
      "공": 4176,
      "과": 4177,
      "곽": 4178,
      "관": 4179,
      "광": 4180,
      "괜": 4181,
      "괴": 4182,
      "교": 4183,
      "구": 4184,
      "국": 4185,
      "군": 4186,
      "굴": 4187,
      "궁": 4188,
      "그": 4189,
      "극": 4190,
      "근": 4191,
      "기": 4192,
      "길": 4193,
      "김": 4194,
      "깊": 4195,
      "까": 4196,
      "깝": 4197,
      "깨": 4198,
      "뀐": 4199,
      "끸": 4200,
      "끼": 4201,
      "나": 4202,
      "남": 4203,
      "내": 4204,
      "냥": 4205,
      "너": 4206,
      "녀": 4207,
      "년": 4208,
      "녕": 4209,
      "노": 4210,
      "눇": 4211,
      "눉": 4212,
      "눱": 4213,
      "뉴": 4214,
      "느": 4215,
      "는": 4216,
      "늘": 4217,
      "늦": 4218,
      "니": 4219,
      "님": 4220,
      "닛": 4221,
      "다": 4222,
      "단": 4223,
      "달": 4224,
      "담": 4225,
      "답": 4226,
      "당": 4227,
      "대": 4228,
      "더": 4229,
      "던": 4230,
      "데": 4231,
      "도": 4232,
      "돈": 4233,
      "동": 4234,
      "돼": 4235,
      "되": 4236,
      "된": 4237,
      "둑": 4238,
      "둔": 4239,
      "드": 4240,
      "든": 4241,
      "들": 4242,
      "듬": 4243,
      "등": 4244,
      "디": 4245,
      "뚱": 4246,
      "라": 4247,
      "란": 4248,
      "람": 4249,
      "랑": 4250,
      "래": 4251,
      "램": 4252,
      "러": 4253,
      "렀": 4254,
      "레": 4255,
      "려": 4256,
      "력": 4257,
      "련": 4258,
      "렵": 4259,
      "렸": 4260,
      "령": 4261,
      "로": 4262,
      "론": 4263,
      "료": 4264,
      "륭": 4265,
      "르": 4266,
      "른": 4267,
      "를": 4268,
      "름": 4269,
      "리": 4270,
      "릭": 4271,
      "린": 4272,
      "림": 4273,
      "립": 4274,
      "마": 4275,
      "막": 4276,
      "만": 4277,
      "말": 4278,
      "맘": 4279,
      "매": 4280,
      "맨": 4281,
      "머": 4282,
      "먹": 4283,
      "먼": 4284,
      "멋": 4285,
      "멤": 4286,
      "멧": 4287,
      "면": 4288,
      "명": 4289,
      "몇": 4290,
      "모": 4291,
      "목": 4292,
      "못": 4293,
      "무": 4294,
      "묵": 4295,
      "문": 4296,
      "물": 4297,
      "뭔": 4298,
      "미": 4299,
      "민": 4300,
      "및": 4301,
      "바": 4302,
      "박": 4303,
      "반": 4304,
      "방": 4305,
      "배": 4306,
      "백": 4307,
      "버": 4308,
      "번": 4309,
      "베": 4310,
      "벨": 4311,
      "벳": 4312,
      "벽": 4313,
      "변": 4314,
      "별": 4315,
      "병": 4316,
      "보": 4317,
      "복": 4318,
      "본": 4319,
      "부": 4320,
      "북": 4321,
      "불": 4322,
      "브": 4323,
      "블": 4324,
      "비": 4325,
      "뿐": 4326,
      "사": 4327,
      "삭": 4328,
      "산": 4329,
      "살": 4330,
      "삼": 4331,
      "상": 4332,
      "색": 4333,
      "생": 4334,
      "서": 4335,
      "석": 4336,
      "선": 4337,
      "설": 4338,
      "성": 4339,
      "세": 4340,
      "섹": 4341,
      "셸": 4342,
      "소": 4343,
      "속": 4344,
      "손": 4345,
      "솔": 4346,
      "송": 4347,
      "쇼": 4348,
      "수": 4349,
      "숙": 4350,
      "순": 4351,
      "슈": 4352,
      "슐": 4353,
      "스": 4354,
      "슬": 4355,
      "습": 4356,
      "승": 4357,
      "시": 4358,
      "식": 4359,
      "신": 4360,
      "실": 4361,
      "심": 4362,
      "십": 4363,
      "싸": 4364,
      "쐀": 4365,
      "쓸": 4366,
      "씀": 4367,
      "씨": 4368,
      "아": 4369,
      "악": 4370,
      "안": 4371,
      "압": 4372,
      "애": 4373,
      "액": 4374,
      "앤": 4375,
      "약": 4376,
      "양": 4377,
      "어": 4378,
      "언": 4379,
      "엄": 4380,
      "업": 4381,
      "없": 4382,
      "었": 4383,
      "에": 4384,
      "엑": 4385,
      "엔": 4386,
      "엠": 4387,
      "여": 4388,
      "역": 4389,
      "연": 4390,
      "엽": 4391,
      "영": 4392,
      "예": 4393,
      "오": 4394,
      "옥": 4395,
      "온": 4396,
      "올": 4397,
      "옮": 4398,
      "와": 4399,
      "완": 4400,
      "왔": 4401,
      "외": 4402,
      "요": 4403,
      "욕": 4404,
      "용": 4405,
      "우": 4406,
      "운": 4407,
      "울": 4408,
      "워": 4409,
      "원": 4410,
      "월": 4411,
      "웹": 4412,
      "위": 4413,
      "윗": 4414,
      "유": 4415,
      "윤": 4416,
      "으": 4417,
      "은": 4418,
      "을": 4419,
      "음": 4420,
      "읍": 4421,
      "의": 4422,
      "이": 4423,
      "인": 4424,
      "일": 4425,
      "임": 4426,
      "입": 4427,
      "있": 4428,
      "자": 4429,
      "잘": 4430,
      "잡": 4431,
      "장": 4432,
      "재": 4433,
      "저": 4434,
      "적": 4435,
      "전": 4436,
      "절": 4437,
      "정": 4438,
      "제": 4439,
      "졌": 4440,
      "조": 4441,
      "족": 4442,
      "종": 4443,
      "좋": 4444,
      "주": 4445,
      "죽": 4446,
      "중": 4447,
      "지": 4448,
      "진": 4449,
      "질": 4450,
      "집": 4451,
      "찜": 4452,
      "차": 4453,
      "착": 4454,
      "찬": 4455,
      "찮": 4456,
      "창": 4457,
      "찾": 4458,
      "채": 4459,
      "책": 4460,
      "천": 4461,
      "철": 4462,
      "청": 4463,
      "초": 4464,
      "촌": 4465,
      "총": 4466,
      "최": 4467,
      "추": 4468,
      "출": 4469,
      "충": 4470,
      "치": 4471,
      "친": 4472,
      "카": 4473,
      "칸": 4474,
      "켓": 4475,
      "쾌": 4476,
      "쿠": 4477,
      "크": 4478,
      "킬": 4479,
      "타": 4480,
      "탄": 4481,
      "탈": 4482,
      "태": 4483,
      "터": 4484,
      "텀": 4485,
      "테": 4486,
      "텔": 4487,
      "토": 4488,
      "통": 4489,
      "트": 4490,
      "티": 4491,
      "파": 4492,
      "판": 4493,
      "패": 4494,
      "퍼": 4495,
      "펴": 4496,
      "편": 4497,
      "포": 4498,
      "표": 4499,
      "프": 4500,
      "피": 4501,
      "픽": 4502,
      "핀": 4503,
      "필": 4504,
      "핍": 4505,
      "핑": 4506,
      "하": 4507,
      "학": 4508,
      "한": 4509,
      "할": 4510,
      "합": 4511,
      "항": 4512,
      "해": 4513,
      "핵": 4514,
      "했": 4515,
      "행": 4516,
      "허": 4517,
      "험": 4518,
      "헛": 4519,
      "혀": 4520,
      "현": 4521,
      "협": 4522,
      "형": 4523,
      "혜": 4524,
      "호": 4525,
      "홀": 4526,
      "홍": 4527,
      "화": 4528,
      "확": 4529,
      "환": 4530,
      "회": 4531,
      "획": 4532,
      "효": 4533,
      "훈": 4534,
      "훌": 4535,
      "휘": 4536,
      "휴": 4537,
      "흐": 4538,
      "흑": 4539,
      "흥": 4540,
      "희": 4541,
      "히": 4542,
      "힘": 4543,
      "": 4544,
      "": 4545,
      "": 4546,
      "": 4547,
      "": 4548,
      "": 4549,
      "": 4550,
      "": 4551,
      "": 4552,
      "": 4553,
      "": 4554,
      "": 4555,
      "": 4556,
      "": 4557,
      "": 4558,
      "": 4559,
      "": 4560,
      "": 4561,
      "": 4562,
      "": 4563,
      "": 4564,
      "": 4565,
      "": 4566,
      "": 4567,
      "": 4568,
      "": 4569,
      "": 4570,
      "": 4571,
      "": 4572,
      "": 4573,
      "": 4574,
      "": 4575,
      "": 4576,
      "": 4577,
      "": 4578,
      "": 4579,
      "": 4580,
      "": 4581,
      "": 4582,
      "": 4583,
      "": 4584,
      "": 4585,
      "": 4586,
      "": 4587,
      "": 4588,
      "": 4589,
      "": 4590,
      "": 4591,
      "": 4592,
      "": 4593,
      "": 4594,
      "": 4595,
      "": 4596,
      "": 4597,
      "": 4598,
      "": 4599,
      "": 4600,
      "": 4601,
      "": 4602,
      "": 4603,
      "": 4604,
      "": 4605,
      "": 4606,
      "": 4607,
      "": 4608,
      "": 4609,
      "": 4610,
      "": 4611,
      "": 4612,
      "": 4613,
      "": 4614,
      "": 4615,
      "": 4616,
      "": 4617,
      "": 4618,
      "": 4619,
      "": 4620,
      "": 4621,
      "": 4622,
      "": 4623,
      "": 4624,
      "": 4625,
      "": 4626,
      "": 4627,
      "": 4628,
      "": 4629,
      "": 4630,
      "": 4631,
      "": 4632,
      "": 4633,
      "": 4634,
      "": 4635,
      "": 4636,
      "": 4637,
      "": 4638,
      "": 4639,
      "": 4640,
      "": 4641,
      "": 4642,
      "": 4643,
      "": 4644,
      "": 4645,
      "": 4646,
      "": 4647,
      "": 4648,
      "": 4649,
      "": 4650,
      "": 4651,
      "": 4652,
      "": 4653,
      "": 4654,
      "": 4655,
      "": 4656,
      "": 4657,
      "": 4658,
      "": 4659,
      "": 4660,
      "": 4661,
      "": 4662,
      "": 4663,
      "": 4664,
      "": 4665,
      "": 4666,
      "": 4667,
      "": 4668,
      "": 4669,
      "": 4670,
      "": 4671,
      "": 4672,
      "": 4673,
      "": 4674,
      "": 4675,
      "": 4676,
      "": 4677,
      "": 4678,
      "": 4679,
      "": 4680,
      "": 4681,
      "": 4682,
      "": 4683,
      "": 4684,
      "": 4685,
      "": 4686,
      "": 4687,
      "": 4688,
      "": 4689,
      "": 4690,
      "": 4691,
      "": 4692,
      "": 4693,
      "": 4694,
      "": 4695,
      "": 4696,
      "": 4697,
      "": 4698,
      "": 4699,
      "": 4700,
      "": 4701,
      "": 4702,
      "": 4703,
      "": 4704,
      "": 4705,
      "": 4706,
      "": 4707,
      "": 4708,
      "": 4709,
      "": 4710,
      "": 4711,
      "": 4712,
      "": 4713,
      "": 4714,
      "": 4715,
      "": 4716,
      "": 4717,
      "": 4718,
      "": 4719,
      "": 4720,
      "": 4721,
      "": 4722,
      "": 4723,
      "": 4724,
      "": 4725,
      "": 4726,
      "": 4727,
      "": 4728,
      "": 4729,
      "": 4730,
      "": 4731,
      "": 4732,
      "": 4733,
      "": 4734,
      "": 4735,
      "": 4736,
      "": 4737,
      "": 4738,
      "": 4739,
      "": 4740,
      "": 4741,
      "": 4742,
      "": 4743,
      "": 4744,
      "": 4745,
      "": 4746,
      "": 4747,
      "": 4748,
      "": 4749,
      "": 4750,
      "": 4751,
      "": 4752,
      "": 4753,
      "": 4754,
      "": 4755,
      "": 4756,
      "": 4757,
      "": 4758,
      "": 4759,
      "": 4760,
      "": 4761,
      "": 4762,
      "": 4763,
      "": 4764,
      "": 4765,
      "": 4766,
      "": 4767,
      "": 4768,
      "": 4769,
      "": 4770,
      "": 4771,
      "": 4772,
      "": 4773,
      "": 4774,
      "": 4775,
      "": 4776,
      "": 4777,
      "": 4778,
      "": 4779,
      "": 4780,
      "": 4781,
      "": 4782,
      "": 4783,
      "": 4784,
      "": 4785,
      "": 4786,
      "": 4787,
      "": 4788,
      "": 4789,
      "": 4790,
      "": 4791,
      "": 4792,
      "": 4793,
      "": 4794,
      "": 4795,
      "": 4796,
      "": 4797,
      "": 4798,
      "": 4799,
      "": 4800,
      "": 4801,
      "": 4802,
      "": 4803,
      "": 4804,
      "": 4805,
      "": 4806,
      "": 4807,
      "": 4808,
      "": 4809,
      "": 4810,
      "": 4811,
      "": 4812,
      "": 4813,
      "": 4814,
      "": 4815,
      "": 4816,
      "": 4817,
      "": 4818,
      "": 4819,
      "": 4820,
      "": 4821,
      "": 4822,
      "": 4823,
      "": 4824,
      "": 4825,
      "": 4826,
      "": 4827,
      "": 4828,
      "": 4829,
      "": 4830,
      "": 4831,
      "": 4832,
      "": 4833,
      "": 4834,
      "": 4835,
      "": 4836,
      "": 4837,
      "": 4838,
      "": 4839,
      "": 4840,
      "": 4841,
      "": 4842,
      "": 4843,
      "": 4844,
      "": 4845,
      "": 4846,
      "": 4847,
      "": 4848,
      "": 4849,
      "": 4850,
      "": 4851,
      "": 4852,
      "": 4853,
      "": 4854,
      "": 4855,
      "": 4856,
      "": 4857,
      "": 4858,
      "": 4859,
      "": 4860,
      "": 4861,
      "": 4862,
      "": 4863,
      "": 4864,
      "": 4865,
      "": 4866,
      "": 4867,
      "": 4868,
      "": 4869,
      "": 4870,
      "": 4871,
      "": 4872,
      "": 4873,
      "": 4874,
      "": 4875,
      "": 4876,
      "": 4877,
      "": 4878,
      "": 4879,
      "": 4880,
      "": 4881,
      "": 4882,
      "": 4883,
      "": 4884,
      "": 4885,
      "": 4886,
      "": 4887,
      "": 4888,
      "": 4889,
      "": 4890,
      "": 4891,
      "": 4892,
      "": 4893,
      "": 4894,
      "": 4895,
      "": 4896,
      "": 4897,
      "": 4898,
      "": 4899,
      "": 4900,
      "": 4901,
      "": 4902,
      "": 4903,
      "": 4904,
      "": 4905,
      "": 4906,
      "": 4907,
      "": 4908,
      "": 4909,
      "": 4910,
      "": 4911,
      "": 4912,
      "": 4913,
      "": 4914,
      "": 4915,
      "": 4916,
      "": 4917,
      "": 4918,
      "": 4919,
      "": 4920,
      "": 4921,
      "": 4922,
      "": 4923,
      "": 4924,
      "": 4925,
      "": 4926,
      "": 4927,
      "": 4928,
      "": 4929,
      "": 4930,
      "": 4931,
      "": 4932,
      "": 4933,
      "": 4934,
      "": 4935,
      "": 4936,
      "": 4937,
      "": 4938,
      "": 4939,
      "": 4940,
      "": 4941,
      "": 4942,
      "": 4943,
      "": 4944,
      "": 4945,
      "": 4946,
      "": 4947,
      "": 4948,
      "": 4949,
      "": 4950,
      "": 4951,
      "": 4952,
      "": 4953,
      "": 4954,
      "": 4955,
      "": 4956,
      "": 4957,
      "": 4958,
      "": 4959,
      "": 4960,
      "": 4961,
      "": 4962,
      "": 4963,
      "": 4964,
      "": 4965,
      "": 4966,
      "": 4967,
      "": 4968,
      "": 4969,
      "": 4970,
      "": 4971,
      "": 4972,
      "": 4973,
      "": 4974,
      "": 4975,
      "": 4976,
      "": 4977,
      "": 4978,
      "": 4979,
      "": 4980,
      "": 4981,
      "": 4982,
      "": 4983,
      "": 4984,
      "": 4985,
      "": 4986,
      "": 4987,
      "": 4988,
      "": 4989,
      "": 4990,
      "": 4991,
      "": 4992,
      "": 4993,
      "": 4994,
      "": 4995,
      "": 4996,
      "": 4997,
      "": 4998,
      "": 4999,
      "": 5000,
      "": 5001,
      "": 5002,
      "": 5003,
      "": 5004,
      "": 5005,
      "": 5006,
      "": 5007,
      "": 5008,
      "": 5009,
      "": 5010,
      "": 5011,
      "": 5012,
      "": 5013,
      "": 5014,
      "": 5015,
      "": 5016,
      "": 5017,
      "": 5018,
      "": 5019,
      "": 5020,
      "": 5021,
      "": 5022,
      "": 5023,
      "": 5024,
      "": 5025,
      "": 5026,
      "": 5027,
      "": 5028,
      "": 5029,
      "﷓": 5030,
      "︎": 5031,
      "️": 5032,
      "￼": 5033,
      "🃏": 5034,
      "🅿": 5035,
      "🇦": 5036,
      "🇧": 5037,
      "🇩": 5038,
      "🇪": 5039,
      "🇫": 5040,
      "🇬": 5041,
      "🇭": 5042,
      "🇮": 5043,
      "🇯": 5044,
      "🇰": 5045,
      "🇲": 5046,
      "🇳": 5047,
      "🇴": 5048,
      "🇷": 5049,
      "🇸": 5050,
      "🇹": 5051,
      "🇺": 5052,
      "🇾": 5053,
      "🇿": 5054,
      "🌅": 5055,
      "🌇": 5056,
      "🌈": 5057,
      "🌉": 5058,
      "🌊": 5059,
      "🌋": 5060,
      "🌍": 5061,
      "🌎": 5062,
      "🌏": 5063,
      "🌐": 5064,
      "🌒": 5065,
      "🌕": 5066,
      "🌗": 5067,
      "🌘": 5068,
      "🌙": 5069,
      "🌚": 5070,
      "🌛": 5071,
      "🌜": 5072,
      "🌝": 5073,
      "🌞": 5074,
      "🌟": 5075,
      "🌠": 5076,
      "🌤": 5077,
      "🌥": 5078,
      "🌦": 5079,
      "🌧": 5080,
      "🌨": 5081,
      "🌩": 5082,
      "🌪": 5083,
      "🌫": 5084,
      "🌬": 5085,
      "🌭": 5086,
      "🌮": 5087,
      "🌯": 5088,
      "🌰": 5089,
      "🌱": 5090,
      "🌲": 5091,
      "🌳": 5092,
      "🌴": 5093,
      "🌶": 5094,
      "🌷": 5095,
      "🌸": 5096,
      "🌹": 5097,
      "🌺": 5098,
      "🌻": 5099,
      "🌼": 5100,
      "🌽": 5101,
      "🌾": 5102,
      "🌿": 5103,
      "🍀": 5104,
      "🍁": 5105,
      "🍂": 5106,
      "🍃": 5107,
      "🍄": 5108,
      "🍅": 5109,
      "🍆": 5110,
      "🍇": 5111,
      "🍈": 5112,
      "🍉": 5113,
      "🍊": 5114,
      "🍋": 5115,
      "🍌": 5116,
      "🍎": 5117,
      "🍏": 5118,
      "🍐": 5119,
      "🍑": 5120,
      "🍒": 5121,
      "🍓": 5122,
      "🍔": 5123,
      "🍕": 5124,
      "🍖": 5125,
      "🍗": 5126,
      "🍘": 5127,
      "🍚": 5128,
      "🍛": 5129,
      "🍜": 5130,
      "🍝": 5131,
      "🍞": 5132,
      "🍟": 5133,
      "🍡": 5134,
      "🍣": 5135,
      "🍤": 5136,
      "🍦": 5137,
      "🍧": 5138,
      "🍨": 5139,
      "🍩": 5140,
      "🍪": 5141,
      "🍫": 5142,
      "🍬": 5143,
      "🍭": 5144,
      "🍰": 5145,
      "🍱": 5146,
      "🍲": 5147,
      "🍳": 5148,
      "🍴": 5149,
      "🍵": 5150,
      "🍷": 5151,
      "🍸": 5152,
      "🍹": 5153,
      "🍺": 5154,
      "🍻": 5155,
      "🍼": 5156,
      "🍽": 5157,
      "🍾": 5158,
      "🍿": 5159,
      "🎀": 5160,
      "🎁": 5161,
      "🎂": 5162,
      "🎃": 5163,
      "🎄": 5164,
      "🎅": 5165,
      "🎆": 5166,
      "🎇": 5167,
      "🎈": 5168,
      "🎉": 5169,
      "🎊": 5170,
      "🎍": 5171,
      "🎎": 5172,
      "🎐": 5173,
      "🎒": 5174,
      "🎓": 5175,
      "🎖": 5176,
      "🎗": 5177,
      "🎙": 5178,
      "🎚": 5179,
      "🎛": 5180,
      "🎞": 5181,
      "🎟": 5182,
      "🎠": 5183,
      "🎡": 5184,
      "🎢": 5185,
      "🎣": 5186,
      "🎤": 5187,
      "🎥": 5188,
      "🎦": 5189,
      "🎧": 5190,
      "🎨": 5191,
      "🎩": 5192,
      "🎪": 5193,
      "🎬": 5194,
      "🎭": 5195,
      "🎮": 5196,
      "🎯": 5197,
      "🎰": 5198,
      "🎱": 5199,
      "🎲": 5200,
      "🎳": 5201,
      "🎵": 5202,
      "🎶": 5203,
      "🎷": 5204,
      "🎸": 5205,
      "🎹": 5206,
      "🎺": 5207,
      "🎻": 5208,
      "🎼": 5209,
      "🎾": 5210,
      "🎿": 5211,
      "🏀": 5212,
      "🏁": 5213,
      "🏂": 5214,
      "🏃": 5215,
      "🏄": 5216,
      "🏅": 5217,
      "🏆": 5218,
      "🏇": 5219,
      "🏉": 5220,
      "🏊": 5221,
      "🏋": 5222,
      "🏌": 5223,
      "🏍": 5224,
      "🏎": 5225,
      "🏑": 5226,
      "🏒": 5227,
      "🏓": 5228,
      "🏔": 5229,
      "🏕": 5230,
      "🏖": 5231,
      "🏗": 5232,
      "🏙": 5233,
      "🏝": 5234,
      "🏞": 5235,
      "🏠": 5236,
      "🏡": 5237,
      "🏢": 5238,
      "🏥": 5239,
      "🏫": 5240,
      "🏭": 5241,
      "🏰": 5242,
      "🏳": 5243,
      "🏴": 5244,
      "🏵": 5245,
      "🏹": 5246,
      "🏻": 5247,
      "🏼": 5248,
      "🏽": 5249,
      "🏾": 5250,
      "🏿": 5251,
      "🐀": 5252,
      "🐂": 5253,
      "🐃": 5254,
      "🐄": 5255,
      "🐅": 5256,
      "🐆": 5257,
      "🐈": 5258,
      "🐊": 5259,
      "🐍": 5260,
      "🐎": 5261,
      "🐏": 5262,
      "🐐": 5263,
      "🐑": 5264,
      "🐒": 5265,
      "🐓": 5266,
      "🐔": 5267,
      "🐕": 5268,
      "🐖": 5269,
      "🐘": 5270,
      "🐚": 5271,
      "🐜": 5272,
      "🐝": 5273,
      "🐞": 5274,
      "🐟": 5275,
      "🐠": 5276,
      "🐢": 5277,
      "🐣": 5278,
      "🐤": 5279,
      "🐥": 5280,
      "🐦": 5281,
      "🐧": 5282,
      "🐨": 5283,
      "🐩": 5284,
      "🐬": 5285,
      "🐭": 5286,
      "🐮": 5287,
      "🐯": 5288,
      "🐰": 5289,
      "🐱": 5290,
      "🐲": 5291,
      "🐳": 5292,
      "🐴": 5293,
      "🐶": 5294,
      "🐷": 5295,
      "🐸": 5296,
      "🐺": 5297,
      "🐻": 5298,
      "🐼": 5299,
      "🐾": 5300,
      "👀": 5301,
      "👁": 5302,
      "👂": 5303,
      "👃": 5304,
      "👄": 5305,
      "👅": 5306,
      "👆": 5307,
      "👇": 5308,
      "👈": 5309,
      "👉": 5310,
      "👊": 5311,
      "👋": 5312,
      "👌": 5313,
      "👍": 5314,
      "👎": 5315,
      "👏": 5316,
      "👐": 5317,
      "👑": 5318,
      "👓": 5319,
      "👕": 5320,
      "👖": 5321,
      "👗": 5322,
      "👙": 5323,
      "👛": 5324,
      "👜": 5325,
      "👞": 5326,
      "👟": 5327,
      "👠": 5328,
      "👡": 5329,
      "👢": 5330,
      "👣": 5331,
      "👤": 5332,
      "👥": 5333,
      "👦": 5334,
      "👧": 5335,
      "👨": 5336,
      "👩": 5337,
      "👪": 5338,
      "👫": 5339,
      "👭": 5340,
      "👮": 5341,
      "👯": 5342,
      "👰": 5343,
      "👱": 5344,
      "👳": 5345,
      "👴": 5346,
      "👵": 5347,
      "👶": 5348,
      "👸": 5349,
      "👹": 5350,
      "👻": 5351,
      "👼": 5352,
      "👽": 5353,
      "👿": 5354,
      "💀": 5355,
      "💁": 5356,
      "💃": 5357,
      "💄": 5358,
      "💅": 5359,
      "💆": 5360,
      "💇": 5361,
      "💉": 5362,
      "💊": 5363,
      "💋": 5364,
      "💌": 5365,
      "💍": 5366,
      "💎": 5367,
      "💏": 5368,
      "💐": 5369,
      "💒": 5370,
      "💓": 5371,
      "💔": 5372,
      "💕": 5373,
      "💖": 5374,
      "💗": 5375,
      "💘": 5376,
      "💙": 5377,
      "💚": 5378,
      "💛": 5379,
      "💜": 5380,
      "💝": 5381,
      "💞": 5382,
      "💟": 5383,
      "💡": 5384,
      "💢": 5385,
      "💣": 5386,
      "💤": 5387,
      "💥": 5388,
      "💦": 5389,
      "💧": 5390,
      "💨": 5391,
      "💩": 5392,
      "💪": 5393,
      "💫": 5394,
      "💬": 5395,
      "💭": 5396,
      "💯": 5397,
      "💰": 5398,
      "💳": 5399,
      "💵": 5400,
      "💶": 5401,
      "💸": 5402,
      "💻": 5403,
      "💼": 5404,
      "💾": 5405,
      "📃": 5406,
      "📄": 5407,
      "📅": 5408,
      "📆": 5409,
      "📈": 5410,
      "📊": 5411,
      "📌": 5412,
      "📍": 5413,
      "📎": 5414,
      "📔": 5415,
      "📕": 5416,
      "📖": 5417,
      "📘": 5418,
      "📙": 5419,
      "📚": 5420,
      "📝": 5421,
      "📞": 5422,
      "📡": 5423,
      "📢": 5424,
      "📣": 5425,
      "📦": 5426,
      "📧": 5427,
      "📩": 5428,
      "📮": 5429,
      "📰": 5430,
      "📱": 5431,
      "📲": 5432,
      "📷": 5433,
      "📸": 5434,
      "📺": 5435,
      "📻": 5436,
      "📽": 5437,
      "📿": 5438,
      "🔁": 5439,
      "🔂": 5440,
      "🔄": 5441,
      "🔅": 5442,
      "🔆": 5443,
      "🔈": 5444,
      "🔊": 5445,
      "🔋": 5446,
      "🔌": 5447,
      "🔍": 5448,
      "🔎": 5449,
      "🔐": 5450,
      "🔒": 5451,
      "🔔": 5452,
      "🔗": 5453,
      "🔘": 5454,
      "🔙": 5455,
      "🔛": 5456,
      "🔜": 5457,
      "🔝": 5458,
      "🔥": 5459,
      "🔦": 5460,
      "🔧": 5461,
      "🔨": 5462,
      "🔩": 5463,
      "🔪": 5464,
      "🔫": 5465,
      "🔭": 5466,
      "🔮": 5467,
      "🔴": 5468,
      "🔵": 5469,
      "🔶": 5470,
      "🔷": 5471,
      "🔸": 5472,
      "🔹": 5473,
      "🔺": 5474,
      "🔼": 5475,
      "🕊": 5476,
      "🕒": 5477,
      "🕓": 5478,
      "🕔": 5479,
      "🕗": 5480,
      "🕯": 5481,
      "🕰": 5482,
      "🕵": 5483,
      "🕶": 5484,
      "🕷": 5485,
      "🕸": 5486,
      "🕹": 5487,
      "🕺": 5488,
      "🖊": 5489,
      "🖋": 5490,
      "🖌": 5491,
      "🖎": 5492,
      "🖒": 5493,
      "🖕": 5494,
      "🖖": 5495,
      "🖤": 5496,
      "🖥": 5497,
      "🖱": 5498,
      "🗗": 5499,
      "🗡": 5500,
      "🗣": 5501,
      "🗨": 5502,
      "🗸": 5503,
      "🗻": 5504,
      "🗽": 5505,
      "😀": 5506,
      "😁": 5507,
      "😂": 5508,
      "😃": 5509,
      "😄": 5510,
      "😅": 5511,
      "😆": 5512,
      "😇": 5513,
      "😈": 5514,
      "😉": 5515,
      "😊": 5516,
      "😋": 5517,
      "😌": 5518,
      "😍": 5519,
      "😎": 5520,
      "😏": 5521,
      "😐": 5522,
      "😑": 5523,
      "😒": 5524,
      "😓": 5525,
      "😔": 5526,
      "😕": 5527,
      "😖": 5528,
      "😗": 5529,
      "😘": 5530,
      "😙": 5531,
      "😚": 5532,
      "😛": 5533,
      "😜": 5534,
      "😝": 5535,
      "😞": 5536,
      "😟": 5537,
      "😠": 5538,
      "😡": 5539,
      "😢": 5540,
      "😣": 5541,
      "😤": 5542,
      "😥": 5543,
      "😦": 5544,
      "😧": 5545,
      "😨": 5546,
      "😩": 5547,
      "😪": 5548,
      "😫": 5549,
      "😬": 5550,
      "😭": 5551,
      "😮": 5552,
      "😯": 5553,
      "😰": 5554,
      "😱": 5555,
      "😲": 5556,
      "😳": 5557,
      "😴": 5558,
      "😵": 5559,
      "😶": 5560,
      "😷": 5561,
      "😸": 5562,
      "😹": 5563,
      "😺": 5564,
      "😻": 5565,
      "😼": 5566,
      "😽": 5567,
      "😾": 5568,
      "😿": 5569,
      "🙀": 5570,
      "🙁": 5571,
      "🙂": 5572,
      "🙃": 5573,
      "🙄": 5574,
      "🙅": 5575,
      "🙆": 5576,
      "🙇": 5577,
      "🙈": 5578,
      "🙉": 5579,
      "🙊": 5580,
      "🙋": 5581,
      "🙌": 5582,
      "🙏": 5583,
      "🚀": 5584,
      "🚁": 5585,
      "🚂": 5586,
      "🚄": 5587,
      "🚆": 5588,
      "🚋": 5589,
      "🚌": 5590,
      "🚍": 5591,
      "🚎": 5592,
      "🚐": 5593,
      "🚑": 5594,
      "🚒": 5595,
      "🚔": 5596,
      "🚗": 5597,
      "🚘": 5598,
      "🚙": 5599,
      "🚚": 5600,
      "🚜": 5601,
      "🚢": 5602,
      "🚣": 5603,
      "🚤": 5604,
      "🚨": 5605,
      "🚩": 5606,
      "🚫": 5607,
      "🚲": 5608,
      "🚴": 5609,
      "🚶": 5610,
      "🚹": 5611,
      "🚺": 5612,
      "🚾": 5613,
      "🛀": 5614,
      "🛋": 5615,
      "🛌": 5616,
      "🛍": 5617,
      "🛏": 5618,
      "🛑": 5619,
      "🛒": 5620,
      "🛠": 5621,
      "🛡": 5622,
      "🛬": 5623,
      "🛳": 5624,
      "🛴": 5625,
      "🛵": 5626,
      "🛶": 5627,
      "🛷": 5628,
      "🛸": 5629,
      "🟠": 5630,
      "🤍": 5631,
      "🤎": 5632,
      "🤏": 5633,
      "🤐": 5634,
      "🤑": 5635,
      "🤒": 5636,
      "🤓": 5637,
      "🤔": 5638,
      "🤕": 5639,
      "🤖": 5640,
      "🤗": 5641,
      "🤘": 5642,
      "🤙": 5643,
      "🤛": 5644,
      "🤜": 5645,
      "🤝": 5646,
      "🤞": 5647,
      "🤟": 5648,
      "🤠": 5649,
      "🤡": 5650,
      "🤢": 5651,
      "🤣": 5652,
      "🤤": 5653,
      "🤥": 5654,
      "🤦": 5655,
      "🤧": 5656,
      "🤨": 5657,
      "🤩": 5658,
      "🤪": 5659,
      "🤫": 5660,
      "🤬": 5661,
      "🤭": 5662,
      "🤮": 5663,
      "🤯": 5664,
      "🤰": 5665,
      "🤳": 5666,
      "🤴": 5667,
      "🤵": 5668,
      "🤶": 5669,
      "🤷": 5670,
      "🤸": 5671,
      "🤼": 5672,
      "🤽": 5673,
      "🤾": 5674,
      "🥀": 5675,
      "🥁": 5676,
      "🥂": 5677,
      "🥄": 5678,
      "🥅": 5679,
      "🥇": 5680,
      "🥈": 5681,
      "🥉": 5682,
      "🥊": 5683,
      "🥋": 5684,
      "🥌": 5685,
      "🥐": 5686,
      "🥑": 5687,
      "🥕": 5688,
      "🥗": 5689,
      "🥘": 5690,
      "🥙": 5691,
      "🥚": 5692,
      "🥛": 5693,
      "🥜": 5694,
      "🥝": 5695,
      "🥞": 5696,
      "🥠": 5697,
      "🥣": 5698,
      "🥤": 5699,
      "🥥": 5700,
      "🥦": 5701,
      "🥧": 5702,
      "🥩": 5703,
      "🥪": 5704,
      "🥬": 5705,
      "🥰": 5706,
      "🥲": 5707,
      "🥳": 5708,
      "🥴": 5709,
      "🥵": 5710,
      "🥶": 5711,
      "🥺": 5712,
      "🦀": 5713,
      "🦁": 5714,
      "🦃": 5715,
      "🦄": 5716,
      "🦆": 5717,
      "🦈": 5718,
      "🦉": 5719,
      "🦊": 5720,
      "🦋": 5721,
      "🦌": 5722,
      "🦎": 5723,
      "🦐": 5724,
      "🦒": 5725,
      "🦓": 5726,
      "🦕": 5727,
      "🦖": 5728,
      "🦚": 5729,
      "🦠": 5730,
      "🦱": 5731,
      "🦲": 5732,
      "🦴": 5733,
      "🦸": 5734,
      "🦹": 5735,
      "🦼": 5736,
      "🦽": 5737,
      "🧀": 5738,
      "🧁": 5739,
      "🧃": 5740,
      "🧐": 5741,
      "🧑": 5742,
      "🧒": 5743,
      "🧓": 5744,
      "🧖": 5745,
      "🧘": 5746,
      "🧚": 5747,
      "🧜": 5748,
      "🧝": 5749,
      "🧟": 5750,
      "🧠": 5751,
      "🧡": 5752,
      "🧢": 5753,
      "🧣": 5754,
      "🧤": 5755,
      "🧦": 5756,
      "🧨": 5757,
      "🧮": 5758,
      "🧯": 5759,
      "🧵": 5760,
      "🧶": 5761,
      "🧸": 5762,
      "🧼": 5763,
      "🧿": 5764,
      "󰀄": 5765,
      "󰄁": 5766,
      "󰄂": 5767,
      "󰄃": 5768,
      "󰄄": 5769,
      "󲀃": 5770,
      "󶬾": 5771,
      "􀀹": 5772,
      "􌤊": 5773,
      "􌤶": 5774,
      "􌥽": 5775,
      "􌦂": 5776,
      "􌦈": 5777,
      "􌦉": 5778,
      "􌦯": 5779,
      "􏰁": 5780,
      "􏰂": 5781,
      "􏰋": 5782,
      "er": 5783,
      "en": 5784,
      "▁s": 5785,
      "ar": 5786,
      "an": 5787,
      "in": 5788,
      "et": 5789,
      "▁d": 5790,
      "▁f": 5791,
      "at": 5792,
      "▁m": 5793,
      "ll": 5794,
      "▁o": 5795,
      "▁h": 5796,
      "▁v": 5797,
      "ör": 5798,
      "är": 5799,
      "▁t": 5800,
      "st": 5801,
      "▁b": 5802,
      "▁k": 5803,
      "ch": 5804,
      "om": 5805,
      "▁p": 5806,
      "ig": 5807,
      "▁och": 5808,
      "att": 5809,
      "or": 5810,
      "ing": 5811,
      "de": 5812,
      "on": 5813,
      "ag": 5814,
      "▁i": 5815,
      "▁att": 5816,
      "ed": 5817,
      "▁a": 5818,
      "▁för": 5819,
      "▁l": 5820,
      "ka": 5821,
      "▁g": 5822,
      "▁n": 5823,
      "tt": 5824,
      "ill": 5825,
      "än": 5826,
      "▁en": 5827,
      "ra": 5828,
      "▁in": 5829,
      "na": 5830,
      "▁u": 5831,
      "el": 5832,
      "kt": 5833,
      "▁är": 5834,
      "▁på": 5835,
      "is": 5836,
      "▁som": 5837,
      "ck": 5838,
      "▁det": 5839,
      "re": 5840,
      "▁S": 5841,
      "te": 5842,
      "▁med": 5843,
      "▁av": 5844,
      "al": 5845,
      "▁till": 5846,
      "▁j": 5847,
      "pp": 5848,
      "ning": 5849,
      "▁D": 5850,
      "år": 5851,
      "am": 5852,
      "id": 5853,
      "ån": 5854,
      "ss": 5855,
      "il": 5856,
      "ter": 5857,
      "▁e": 5858,
      "▁st": 5859,
      "un": 5860,
      "lig": 5861,
      "it": 5862,
      "and": 5863,
      "▁r": 5864,
      "der": 5865,
      "▁var": 5866,
      "▁de": 5867,
      "ver": 5868,
      "▁har": 5869,
      "ro": 5870,
      "▁M": 5871,
      "▁om": 5872,
      "as": 5873,
      "ett": 5874,
      "ol": 5875,
      "sk": 5876,
      "▁jag": 5877,
      "ion": 5878,
      "iv": 5879,
      "äl": 5880,
      "ad": 5881,
      "ade": 5882,
      "▁den": 5883,
      "▁H": 5884,
      "▁inte": 5885,
      "▁ut": 5886,
      "▁V": 5887,
      "▁sk": 5888,
      "▁A": 5889,
      "em": 5890,
      "ätt": 5891,
      "ur": 5892,
      "▁F": 5893,
      "▁så": 5894,
      "are": 5895,
      "▁fr": 5896,
      "ot": 5897,
      "▁an": 5898,
      "ik": 5899,
      "▁B": 5900,
      "▁1": 5901,
      "▁ett": 5902,
      "▁kan": 5903,
      "ller": 5904,
      "li": 5905,
      "ut": 5906,
      "▁vi": 5907,
      "▁T": 5908,
      "▁du": 5909,
      "▁2": 5910,
      "äg": 5911,
      "ande": 5912,
      "omm": 5913,
      "▁E": 5914,
      "åg": 5915,
      "ens": 5916,
      "ta": 5917,
      "▁L": 5918,
      "▁be": 5919,
      "..": 5920,
      "▁I": 5921,
      "het": 5922,
      "▁K": 5923,
      "▁N": 5924,
      "▁P": 5925,
      "▁J": 5926,
      "för": 5927,
      "▁all": 5928,
      "en.": 5929,
      "itt": 5930,
      "▁upp": 5931,
      "ång": 5932,
      "sta": 5933,
      "▁ö": 5934,
      "ent": 5935,
      "ort": 5936,
      "da": 5937,
      "▁re": 5938,
      "ans": 5939,
      "us": 5940,
      "▁ska": 5941,
      "▁komm": 5942,
      "▁Det": 5943,
      "um": 5944,
      "äll": 5945,
      "▁man": 5946,
      "es": 5947,
      "▁(": 5948,
      "▁från": 5949,
      "ns": 5950,
      "ri": 5951,
      "▁G": 5952,
      "▁un": 5953,
      "la": 5954,
      "▁sp": 5955,
      "äm": 5956,
      "og": 5957,
      "ation": 5958,
      "▁R": 5959,
      "fter": 5960,
      "yck": 5961,
      "▁men": 5962,
      "art": 5963,
      "▁O": 5964,
      "le": 5965,
      "▁sam": 5966,
      "▁eller": 5967,
      "ell": 5968,
      "ligt": 5969,
      "igt": 5970,
      "ul": 5971,
      "ak": 5972,
      "▁fin": 5973,
      "▁när": 5974,
      "▁C": 5975,
      "00": 5976,
      "yg": 5977,
      "▁min": 5978,
      "▁någ": 5979,
      "▁tr": 5980,
      "bb": 5981,
      "sl": 5982,
      "ram": 5983,
      "ster": 5984,
      "var": 5985,
      "isk": 5986,
      "sp": 5987,
      "äng": 5988,
      "ud": 5989,
      "▁pro": 5990,
      "▁sig": 5991,
      "ats": 5992,
      "all": 5993,
      "▁bar": 5994,
      "änd": 5995,
      "bet": 5996,
      "ff": 5997,
      "ull": 5998,
      "und": 5999,
      "▁c": 6000,
      "ast": 6001,
      "▁där": 6002,
      "▁hel": 6003,
      "era": 6004,
      "arna": 6005,
      "▁här": 6006,
      "ven": 6007,
      "ers": 6008,
      "▁över": 6009,
      "os": 6010,
      "jäl": 6011,
      "dag": 6012,
      "▁år": 6013,
      "ft": 6014,
      "er.": 6015,
      "ok": 6016,
      "▁-": 6017,
      "▁under": 6018,
      "ma": 6019,
      "▁Jag": 6020,
      "▁U": 6021,
      "▁å": 6022,
      "erna": 6023,
      "els": 6024,
      "▁20": 6025,
      "▁ny": 6026,
      "▁gr": 6027,
      "sa": 6028,
      "▁kon": 6029,
      "▁li": 6030,
      "od": 6031,
      "▁gör": 6032,
      "en,": 6033,
      "▁bli": 6034,
      "▁efter": 6035,
      "ne": 6036,
      "et.": 6037,
      "del": 6038,
      "så": 6039,
      "▁fl": 6040,
      "arbet": 6041,
      "▁bl": 6042,
      "▁kommer": 6043,
      "ekt": 6044,
      "ic": 6045,
      "▁vara": 6046,
      "ger": 6047,
      "▁ha": 6048,
      "▁–": 6049,
      "orm": 6050,
      "▁Vi": 6051,
      "▁han": 6052,
      "▁kr": 6053,
      "ist": 6054,
      "▁tid": 6055,
      "ju": 6056,
      "ök": 6057,
      "a.": 6058,
      "ock": 6059,
      "▁må": 6060,
      "▁finns": 6061,
      "ick": 6062,
      "▁ä": 6063,
      "▁få": 6064,
      "äk": 6065,
      "▁St": 6066,
      "▁se": 6067,
      "im": 6068,
      "ling": 6069,
      "edan": 6070,
      "den": 6071,
      "ska": 6072,
      "iska": 6073,
      "▁3": 6074,
      "▁sin": 6075,
      "sam": 6076,
      "änn": 6077,
      "liga": 6078,
      "▁vill": 6079,
      "▁mer": 6080,
      "opp": 6081,
      "pa": 6082,
      "ru": 6083,
      "▁and": 6084,
      "▁väl": 6085,
      "...": 6086,
      "▁nu": 6087,
      "▁alla": 6088,
      "▁sl": 6089,
      "▁För": 6090,
      "▁allt": 6091,
      "lar": 6092,
      "ycket": 6093,
      "▁dag": 6094,
      "▁\"": 6095,
      "▁201": 6096,
      "ark": 6097,
      "▁ju": 6098,
      "öj": 6099,
      "ilj": 6100,
      "yr": 6101,
      "▁del": 6102,
      "eck": 6103,
      "ost": 6104,
      "▁vid": 6105,
      "▁ock": 6106,
      "ikt": 6107,
      "akt": 6108,
      "▁då": 6109,
      "▁fram": 6110,
      "▁mot": 6111,
      "▁pl": 6112,
      "▁också": 6113,
      "ningar": 6114,
      "▁får": 6115,
      "bl": 6116,
      "▁pr": 6117,
      "▁beh": 6118,
      "▁kun": 6119,
      "▁mig": 6120,
      "est": 6121,
      "enom": 6122,
      "▁En": 6123,
      "eg": 6124,
      "ön": 6125,
      "▁bra": 6126,
      "ningen": 6127,
      "öm": 6128,
      "ber": 6129,
      "▁In": 6130,
      "ant": 6131,
      "▁mycket": 6132,
      "äs": 6133,
      "▁ver": 6134,
      "▁ta": 6135,
      "cka": 6136,
      "ord": 6137,
      "▁tv": 6138,
      "iga": 6139,
      "ov": 6140,
      "åll": 6141,
      "▁or": 6142,
      "ygg": 6143,
      "▁ex": 6144,
      "▁sv": 6145,
      "▁dig": 6146,
      "org": 6147,
      "dr": 6148,
      "▁din": 6149,
      "▁vis": 6150,
      "ir": 6151,
      "öd": 6152,
      "▁andra": 6153,
      "ek": 6154,
      "äst": 6155,
      "▁arbet": 6156,
      "▁lite": 6157,
      "▁även": 6158,
      "erson": 6159,
      "▁bara": 6160,
      "▁hur": 6161,
      "ägg": 6162,
      "op": 6163,
      "er,": 6164,
      "ånga": 6165,
      "tal": 6166,
      "▁hon": 6167,
      "▁kv": 6168,
      "rå": 6169,
      "oll": 6170,
      "▁hö": 6171,
      "ligen": 6172,
      "▁De": 6173,
      "▁ann": 6174,
      "bil": 6175,
      "▁anv": 6176,
      "▁bör": 6177,
      "▁än": 6178,
      "av": 6179,
      "ulle": 6180,
      "▁ing": 6181,
      "ställ": 6182,
      "kar": 6183,
      "yn": 6184,
      "▁bil": 6185,
      "per": 6186,
      "▁kl": 6187,
      "▁vil": 6188,
      "▁Men": 6189,
      "▁5": 6190,
      "nad": 6191,
      "▁vår": 6192,
      "ass": 6193,
      "ce": 6194,
      "▁er": 6195,
      "▁stor": 6196,
      "▁An": 6197,
      "▁vad": 6198,
      "a,": 6199,
      "▁hade": 6200,
      "▁hem": 6201,
      "je": 6202,
      "▁4": 6203,
      "▁Den": 6204,
      "▁säg": 6205,
      "▁vär": 6206,
      "ack": 6207,
      "ott": 6208,
      "pl": 6209,
      "ote": 6210,
      "▁sm": 6211,
      "vis": 6212,
      "▁skulle": 6213,
      "ket": 6214,
      "ering": 6215,
      "eri": 6216,
      "du": 6217,
      "ste": 6218,
      "ress": 6219,
      "ci": 6220,
      "▁bet": 6221,
      "▁genom": 6222,
      "▁blir": 6223,
      "▁kom": 6224,
      "jälv": 6225,
      "▁spel": 6226,
      "e.": 6227,
      "itet": 6228,
      "▁utan": 6229,
      "▁br": 6230,
      "jt": 6231,
      "▁person": 6232,
      "lev": 6233,
      "riv": 6234,
      "▁W": 6235,
      "yd": 6236,
      "nings": 6237,
      "gen": 6238,
      "▁samt": 6239,
      "inn": 6240,
      "kl": 6241,
      "öl": 6242,
      "äd": 6243,
      "▁förs": 6244,
      "▁sen": 6245,
      "▁själv": 6246,
      "iskt": 6247,
      "ef": 6248,
      "gi": 6249,
      "ring": 6250,
      "aren": 6251,
      "ja": 6252,
      "sätt": 6253,
      "▁många": 6254,
      "ar.": 6255,
      "ende": 6256,
      "▁någon": 6257,
      "form": 6258,
      "fr": 6259,
      "se": 6260,
      "▁dess": 6261,
      "vär": 6262,
      "öp": 6263,
      "man": 6264,
      "ets": 6265,
      "▁detta": 6266,
      "verig": 6267,
      "ser": 6268,
      "som": 6269,
      "▁ber": 6270,
      "ighet": 6271,
      "▁verk": 6272,
      "▁oss": 6273,
      "▁mat": 6274,
      "▁något": 6275,
      "▁sedan": 6276,
      "▁kän": 6277,
      "ät": 6278,
      "erade": 6279,
      "▁w": 6280,
      "åt": 6281,
      "lika": 6282,
      "▁barn": 6283,
      "över": 6284,
      "ästa": 6285,
      "ult": 6286,
      "ug": 6287,
      "enska": 6288,
      "▁hand": 6289,
      "sm": 6290,
      "sb": 6291,
      "otell": 6292,
      "▁göra": 6293,
      "obb": 6294,
      "ym": 6295,
      "▁går": 6296,
      "▁hög": 6297,
      "▁sätt": 6298,
      "alt": 6299,
      "▁olika": 6300,
      "▁två": 6301,
      "etag": 6302,
      "▁hitt": 6303,
      "▁ser": 6304,
      "▁ig": 6305,
      "str": 6306,
      "land": 6307,
      "ytt": 6308,
      "gr": 6309,
      "lighet": 6310,
      "▁19": 6311,
      "sson": 6312,
      "▁rätt": 6313,
      "▁Sk": 6314,
      "▁Sverig": 6315,
      "ken": 6316,
      "▁gång": 6317,
      "äv": 6318,
      "▁dem": 6319,
      "▁al": 6320,
      "▁hjäl": 6321,
      "an.": 6322,
      "▁inne": 6323,
      "ål": 6324,
      "▁helt": 6325,
      "▁ra": 6326,
      "s.": 6327,
      "äck": 6328,
      "aste": 6329,
      "eras": 6330,
      "▁Om": 6331,
      "▁säger": 6332,
      "upp": 6333,
      "ang": 6334,
      "nar": 6335,
      "et,": 6336,
      "ala": 6337,
      "sen": 6338,
      "mar": 6339,
      "▁inom": 6340,
      "jting": 6341,
      "▁fick": 6342,
      "▁gj": 6343,
      "änder": 6344,
      "▁6": 6345,
      "ia": 6346,
      "ellan": 6347,
      "▁gå": 6348,
      "▁int": 6349,
      "▁lag": 6350,
      "des": 6351,
      "▁fun": 6352,
      "håll": 6353,
      "▁fort": 6354,
      "▁vet": 6355,
      "▁läng": 6356,
      "veck": 6357,
      "▁nya": 6358,
      "▁bå": 6359,
      "▁ty": 6360,
      "ts": 6361,
      "▁Ä": 6362,
      "▁möj": 6363,
      "lin": 6364,
      "▁sitt": 6365,
      "hol": 6366,
      "▁börj": 6367,
      "▁hela": 6368,
      "▁jobb": 6369,
      "tern": 6370,
      "▁pre": 6371,
      "▁varit": 6372,
      "▁blev": 6373,
      "ie": 6374,
      "ske": 6375,
      "▁måste": 6376,
      "▁första": 6377,
      "ys": 6378,
      "▁liv": 6379,
      "▁först": 6380,
      "pt": 6381,
      "▁fråg": 6382,
      "▁några": 6383,
      "mer": 6384,
      "ativ": 6385,
      ").": 6386,
      "▁of": 6387,
      "kon": 6388,
      "sid": 6389,
      "▁Du": 6390,
      "▁sn": 6391,
      "▁mellan": 6392,
      "verk": 6393,
      "▁denna": 6394,
      "▁ni": 6395,
      "▁led": 6396,
      "åra": 6397,
      "▁reg": 6398,
      "ex": 6399,
      "ktion": 6400,
      "pel": 6401,
      "ann": 6402,
      "bar": 6403,
      "▁När": 6404,
      "erar": 6405,
      "▁el": 6406,
      "jän": 6407,
      "ga": 6408,
      "öv": 6409,
      "▁le": 6410,
      "ning.": 6411,
      "br": 6412,
      "nas": 6413,
      "▁gl": 6414,
      "▁7": 6415,
      "slut": 6416,
      "jär": 6417,
      "▁vikt": 6418,
      "or.": 6419,
      "jer": 6420,
      "ella": 6421,
      "▁slut": 6422,
      "▁rikt": 6423,
      "ård": 6424,
      "e,": 6425,
      "▁dat": 6426,
      "erad": 6427,
      "nan": 6428,
      "he": 6429,
      "kel": 6430,
      "ps": 6431,
      "▁kommun": 6432,
      "▁Och": 6433,
      "holm": 6434,
      "tid": 6435,
      "▁Fr": 6436,
      "▁Ö": 6437,
      "▁tre": 6438,
      "juk": 6439,
      "▁mo": 6440,
      "t.": 6441,
      "▁”": 6442,
      "ld": 6443,
      "▁sak": 6444,
      "▁pris": 6445,
      "orna": 6446,
      "▁företag": 6447,
      "▁di": 6448,
      "utom": 6449,
      "ap": 6450,
      "rum": 6451,
      "if": 6452,
      "▁annat": 6453,
      "rat": 6454,
      "atur": 6455,
      "▁akt": 6456,
      "▁stör": 6457,
      "are.": 6458,
      "▁0": 6459,
      "▁ch": 6460,
      "▁åt": 6461,
      "▁tän": 6462,
      "▁eg": 6463,
      "slag": 6464,
      "änt": 6465,
      "det": 6466,
      "äx": 6467,
      "▁änd": 6468,
      "▁kunna": 6469,
      "lägg": 6470,
      "äker": 6471,
      "gång": 6472,
      "▁sina": 6473,
      "▁200": 6474,
      "ika": 6475,
      "ank": 6476,
      "sök": 6477,
      "▁8": 6478,
      "▁vilket": 6479,
      "dre": 6480,
      "äller": 6481,
      "▁Så": 6482,
      "sv": 6483,
      "sh": 6484,
      "▁vin": 6485,
      "▁All": 6486,
      "▁både": 6487,
      "ust": 6488,
      "▁hos": 6489,
      "samhet": 6490,
      "▁9": 6491,
      "tro": 6492,
      "ej": 6493,
      "ar,": 6494,
      "▁milj": 6495,
      "orde": 6496,
      "oka": 6497,
      "▁per": 6498,
      "▁hotell": 6499,
      "▁res": 6500,
      "bild": 6501,
      "▁dejting": 6502,
      "▁lång": 6503,
      "formation": 6504,
      "▁on": 6505,
      "yst": 6506,
      "eb": 6507,
      "skap": 6508,
      "▁bland": 6509,
      "ända": 6510,
      "tr": 6511,
      "▁Å": 6512,
      "▁använd": 6513,
      "▁lig": 6514,
      "enter": 6515,
      "ingen": 6516,
      "kte": 6517,
      "▁Un": 6518,
      "▁ner": 6519,
      "▁åter": 6520,
      "▁10": 6521,
      "pro": 6522,
      "äder": 6523,
      "ös": 6524,
      "ier": 6525,
      "tra": 6526,
      "▁behöver": 6527,
      "▁ma": 6528,
      "anska": 6529,
      "▁Nu": 6530,
      "komm": 6531,
      "eng": 6532,
      "edel": 6533,
      "▁utveck": 6534,
      "▁våra": 6535,
      "ött": 6536,
      "▁sid": 6537,
      "▁ly": 6538,
      "digt": 6539,
      "▁På": 6540,
      "▁produ": 6541,
      "min": 6542,
      "led": 6543,
      "▁plats": 6544,
      "▁männ": 6545,
      "▁kanske": 6546,
      "▁bästa": 6547,
      "▁tro": 6548,
      "▁pol": 6549,
      "ycker": 6550,
      "lag": 6551,
      "igare": 6552,
      "uv": 6553,
      "▁ord": 6554,
      "▁håll": 6555,
      "olk": 6556,
      "▁fär": 6557,
      "dom": 6558,
      "ades": 6559,
      "▁föl": 6560,
      "olag": 6561,
      "▁erb": 6562,
      "▁tar": 6563,
      "▁flera": 6564,
      "▁Han": 6565,
      "▁läg": 6566,
      "fatt": 6567,
      "▁&": 6568,
      "▁van": 6569,
      "20": 6570,
      "▁dessa": 6571,
      "jud": 6572,
      "ung": 6573,
      "▁lär": 6574,
      "▁idag": 6575,
      "▁Här": 6576,
      "▁väg": 6577,
      "▁land": 6578,
      "▁sna": 6579,
      "▁innan": 6580,
      "cent": 6581,
      "▁ger": 6582,
      "▁samma": 6583,
      "ab": 6584,
      "▁mål": 6585,
      "▁Med": 6586,
      "takt": 6587,
      "ow": 6588,
      "else": 6589,
      "▁pass": 6590,
      "etta": 6591,
      "rekt": 6592,
      "eter": 6593,
      "ob": 6594,
      "ub": 6595,
      "▁fall": 6596,
      "ockholm": 6597,
      "amn": 6598,
      "ars": 6599,
      "ard": 6600,
      "▁dr": 6601,
      "va": 6602,
      "unt": 6603,
      "▁dom": 6604,
      "erat": 6605,
      "or,": 6606,
      "▁mitt": 6607,
      "ask": 6608,
      "▁ur": 6609,
      "▁fil": 6610,
      "ärk": 6611,
      "▁bygg": 6612,
      "jekt": 6613,
      "rik": 6614,
      "lass": 6615,
      "ämn": 6616,
      "ari": 6617,
      "▁alltid": 6618,
      "▁bort": 6619,
      "▁ditt": 6620,
      "åller": 6621,
      "atten": 6622,
      "red": 6623,
      "sten": 6624,
      "▁ans": 6625,
      "men": 6626,
      "par": 6627,
      "▁Ar": 6628,
      "atis": 6629,
      "ättre": 6630,
      "ors": 6631,
      "▁grund": 6632,
      "kade": 6633,
      "tag": 6634,
      "berg": 6635,
      "▁best": 6636,
      "ystem": 6637,
      "▁fakt": 6638,
      "▁Att": 6639,
      "▁Sverige": 6640,
      "-1": 6641,
      "▁nog": 6642,
      "▁Läs": 6643,
      "▁varje": 6644,
      "döm": 6645,
      "sför": 6646,
      "blem": 6647,
      "pr": 6648,
      "empel": 6649,
      "ba": 6650,
      "mans": 6651,
      "hand": 6652,
      "enn": 6653,
      "gram": 6654,
      "▁stora": 6655,
      "▁ställ": 6656,
      "▁bok": 6657,
      "io": 6658,
      "eci": 6659,
      "hus": 6660,
      "▁väldigt": 6661,
      "▁människ": 6662,
      "plats": 6663,
      "nader": 6664,
      "▁for": 6665,
      "▁snabb": 6666,
      "▁so": 6667,
      "▁.": 6668,
      "▁bättre": 6669,
      "borg": 6670,
      "▁säker": 6671,
      "änner": 6672,
      "▁Detta": 6673,
      "fl": 6674,
      "▁mark": 6675,
      "▁lätt": 6676,
      "▁information": 6677,
      "med": 6678,
      "▁par": 6679,
      "öt": 6680,
      "▁fy": 6681,
      "▁tycker": 6682,
      "▁svar": 6683,
      "kr": 6684,
      "▁:": 6685,
      "skar": 6686,
      "rav": 6687,
      "▁tag": 6688,
      "raf": 6689,
      "▁plan": 6690,
      "▁fast": 6691,
      "yt": 6692,
      "rätt": 6693,
      "▁äl": 6694,
      "▁ligger": 6695,
      "iss": 6696,
      "▁Re": 6697,
      "▁val": 6698,
      "▁gäller": 6699,
      "rev": 6700,
      "▁Har": 6701,
      "iken": 6702,
      "äns": 6703,
      "bo": 6704,
      "▁just": 6705,
      "skil": 6706,
      "årt": 6707,
      "öte": 6708,
      "ina": 6709,
      "ektiv": 6710,
      "an,": 6711,
      "▁skriv": 6712,
      "▁nät": 6713,
      "▁god": 6714,
      "▁skol": 6715,
      "åd": 6716,
      "▁str": 6717,
      "▁ofta": 6718,
      "▁form": 6719,
      "▁18": 6720,
      "▁ingen": 6721,
      "ellt": 6722,
      "app": 6723,
      "▁Stockholm": 6724,
      "▁Ch": 6725,
      "uvud": 6726,
      "▁fått": 6727,
      "▁bak": 6728,
      "▁förb": 6729,
      "ker": 6730,
      "000": 6731,
      "▁Till": 6732,
      "sn": 6733,
      "kom": 6734,
      "▁intress": 6735,
      "▁kall": 6736,
      "ester": 6737,
      "uter": 6738,
      "▁kö": 6739,
      "▁exempel": 6740,
      "▁sjuk": 6741,
      "ition": 6742,
      "▁fan": 6743,
      "▁fler": 6744,
      "orr": 6745,
      "dat": 6746,
      "ori": 6747,
      "▁15": 6748,
      "ning,": 6749,
      "▁hjälp": 6750,
      "▁enda": 6751,
      "rott": 6752,
      "▁ar": 6753,
      "älj": 6754,
      "▁veck": 6755,
      "nade": 6756,
      "▁trän": 6757,
      "met": 6758,
      "orn": 6759,
      "ind": 6760,
      "▁Jo": 6761,
      "sf": 6762,
      "▁riktigt": 6763,
      "▁Vad": 6764,
      "▁komma": 6765,
      "▁Efter": 6766,
      "▁kör": 6767,
      "!!": 6768,
      "▁ge": 6769,
      "-0": 6770,
      "▁ro": 6771,
      "gifter": 6772,
      "▁svenska": 6773,
      "ebb": 6774,
      "▁öpp": 6775,
      "▁Ma": 6776,
      "sammans": 6777,
      "▁mest": 6778,
      "▁konst": 6779,
      "▁gick": 6780,
      "från": 6781,
      "▁lä": 6782,
      "▁dock": 6783,
      "me": 6784,
      "▁skall": 6785,
      "ående": 6786,
      "▁tror": 6787,
      "▁enkel": 6788,
      "▁Var": 6789,
      "kv": 6790,
      "amp": 6791,
      "äff": 6792,
      "▁kvinn": 6793,
      "▁enligt": 6794,
      "amilj": 6795,
      "▁kost": 6796,
      "▁eftersom": 6797,
      "▁fot": 6798,
      "▁|": 6799,
      "▁hitta": 6800,
      "▁tim": 6801,
      "öka": 6802,
      "las": 6803,
      "▁hör": 6804,
      "▁redan": 6805,
      "▁Hur": 6806,
      "väg": 6807,
      "▁tidigare": 6808,
      "uss": 6809,
      "▁omdöm": 6810,
      "satt": 6811,
      "▁Ett": 6812,
      "ultat": 6813,
      "▁lik": 6814,
      "▁dina": 6815,
      "▁hopp": 6816,
      "▁gratis": 6817,
      "▁sök": 6818,
      "ong": 6819,
      "▁koll": 6820,
      "▁Man": 6821,
      "▁/": 6822,
      "rist": 6823,
      "ås": 6824,
      "yl": 6825,
      "▁Sp": 6826,
      "ubb": 6827,
      "lem": 6828,
      "▁Ut": 6829,
      "rakt": 6830,
      "öst": 6831,
      "▁Vis": 6832,
      "▁Pro": 6833,
      "▁ung": 6834,
      "uro": 6835,
      "▁kontakt": 6836,
      "baka": 6837,
      "▁hus": 6838,
      "▁speci": 6839,
      "drig": 6840,
      "▁runt": 6841,
      "▁lever": 6842,
      "▁kunde": 6843,
      "▁rum": 6844,
      "▁problem": 6845,
      "giv": 6846,
      "▁gjort": 6847,
      "hör": 6848,
      "▁berätt": 6849,
      "▁sy": 6850,
      "iver": 6851,
      "res": 6852,
      "skol": 6853,
      "are,": 6854,
      "▁Där": 6855,
      "▁gam": 6856,
      "far": 6857,
      "▁stad": 6858,
      "ogg": 6859,
      "be": 6860,
      "▁möjlighet": 6861,
      "stad": 6862,
      "orter": 6863,
      "▁annan": 6864,
      "rad": 6865,
      "äkt": 6866,
      "▁deras": 6867,
      "raft": 6868,
      "▁verksamhet": 6869,
      "▁såd": 6870,
      "▁red": 6871,
      "▁direkt": 6872,
      "river": 6873,
      "▁full": 6874,
      "▁si": 6875,
      "▁sex": 6876,
      "▁Y": 6877,
      "▁kli": 6878,
      "▁läm": 6879,
      "ha": 6880,
      "▁Sam": 6881,
      "▁,": 6882,
      "▁lika": 6883,
      "bär": 6884,
      "▁aldrig": 6885,
      "▁produkt": 6886,
      "▁tjän": 6887,
      "ropp": 6888,
      "olog": 6889,
      "▁nytt": 6890,
      "▁tillbaka": 6891,
      "▁tillsammans": 6892,
      "ydd": 6893,
      "▁Sv": 6894,
      "ien": 6895,
      "▁hal": 6896,
      "mat": 6897,
      "▁·": 6898,
      "ånd": 6899,
      "▁senaste": 6900,
      "▁...": 6901,
      "anden": 6902,
      "lek": 6903,
      "rar": 6904,
      "yk": 6905,
      "line": 6906,
      "▁natur": 6907,
      "▁webb": 6908,
      "▁huvud": 6909,
      "▁tog": 6910,
      "▁peng": 6911,
      "▁verkligen": 6912,
      "▁id": 6913,
      "▁mina": 6914,
      "asin": 6915,
      "anis": 6916,
      "▁match": 6917,
      "▁bo": 6918,
      "▁kort": 6919,
      "▁Upp": 6920,
      "▁värld": 6921,
      "ekn": 6922,
      "▁12": 6923,
      "gör": 6924,
      "ings": 6925,
      "▁komp": 6926,
      "spel": 6927,
      "alm": 6928,
      "▁vän": 6929,
      "),": 6930,
      "arl": 6931,
      "▁köp": 6932,
      "▁lå": 6933,
      "vent": 6934,
      "ension": 6935,
      "äster": 6936,
      "yrk": 6937,
      "ationer": 6938,
      "illa": 6939,
      "▁personer": 6940,
      "eller": 6941,
      "sikt": 6942,
      "▁egen": 6943,
      "heten": 6944,
      "▁mindre": 6945,
      "ister": 6946,
      "ons": 6947,
      "▁erbju": 6948,
      "▁häl": 6949,
      "▁förv": 6950,
      "▁små": 6951,
      "▁gjorde": 6952,
      "end": 6953,
      "jur": 6954,
      "▁kvar": 6955,
      "▁gen": 6956,
      "com": 6957,
      "andet": 6958,
      "bland": 6959,
      "▁hans": 6960,
      "▁Under": 6961,
      "▁honom": 6962,
      "▁jäm": 6963,
      "▁mass": 6964,
      "skriv": 6965,
      "ög": 6966,
      "▁Då": 6967,
      "▁rel": 6968,
      "▁beslut": 6969,
      "▁po": 6970,
      "ike": 6971,
      "▁titt": 6972,
      "▁stud": 6973,
      "▁områ": 6974,
      "iten": 6975,
      "ner": 6976,
      "går": 6977,
      "▁använda": 6978,
      "ips": 6979,
      "drag": 6980,
      "iker": 6981,
      "▁bild": 6982,
      "▁därför": 6983,
      "orgon": 6984,
      "vet": 6985,
      "int": 6986,
      "änk": 6987,
      "▁det.": 6988,
      "ivit": 6989,
      "ib": 6990,
      "unkt": 6991,
      "▁familj": 6992,
      "cis": 6993,
      "▁klar": 6994,
      "ande.": 6995,
      "van": 6996,
      "▁ih": 6997,
      "askin": 6998,
      "▁står": 6999,
      "▁väx": 7000,
      "han": 7001,
      "▁via": 7002,
      "▁inför": 7003,
      "nen": 7004,
      "▁bilder": 7005,
      "▁inv": 7006,
      "▁läsa": 7007,
      "▁11": 7008,
      "▁Som": 7009,
      "spl": 7010,
      "▁mus": 7011,
      "fil": 7012,
      "häll": 7013,
      "by": 7014,
      "▁behöv": 7015,
      "▁part": 7016,
      "▁rör": 7017,
      "▁folk": 7018,
      "ynd": 7019,
      "ender": 7020,
      "▁ute": 7021,
      "▁sa": 7022,
      "bart": 7023,
      "▁större": 7024,
      "ac": 7025,
      "eln": 7026,
      "elsen": 7027,
      "▁ändå": 7028,
      "▁(1": 7029,
      "▁Hon": 7030,
      "ont": 7031,
      "▁fle": 7032,
      "ingar": 7033,
      "▁Tr": 7034,
      "ess": 7035,
      "▁tur": 7036,
      "▁köpa": 7037,
      "fekt": 7038,
      "▁människor": 7039,
      "▁te": 7040,
      "konom": 7041,
      "▁Mar": 7042,
      "talet": 7043,
      "▁Kan": 7044,
      "jus": 7045,
      "mot": 7046,
      "istr": 7047,
      "ära": 7048,
      "▁eff": 7049,
      "ärna": 7050,
      "▁hemma": 7051,
      "ip": 7052,
      "t,": 7053,
      "köp": 7054,
      "▁kron": 7055,
      "▁innebär": 7056,
      "ionen": 7057,
      "▁16": 7058,
      "dagen": 7059,
      "▁17": 7060,
      "▁hy": 7061,
      "▁Br": 7062,
      "▁stort": 7063,
      "ler": 7064,
      "▁Bar": 7065,
      "▁behand": 7066,
      "as.": 7067,
      "▁ytt": 7068,
      "▁sol": 7069,
      "äpp": 7070,
      "▁bill": 7071,
      "▁procent": 7072,
      "ing.": 7073,
      "▁tal": 7074,
      "fall": 7075,
      "cept": 7076,
      "vr": 7077,
      "0-": 7078,
      "▁Dess": 7079,
      "s,": 7080,
      "vensk": 7081,
      "klar": 7082,
      "ite": 7083,
      "vänd": 7084,
      "▁haft": 7085,
      "▁fel": 7086,
      "ationen": 7087,
      "edag": 7088,
      "na.": 7089,
      "▁näst": 7090,
      "▁följ": 7091,
      "▁kval": 7092,
      "\".": 7093,
      "▁ned": 7094,
      "▁längre": 7095,
      "iva": 7096,
      "stånd": 7097,
      "▁utbild": 7098,
      "▁äg": 7099,
      "▁bor": 7100,
      "▁fortsätt": 7101,
      "idigt": 7102,
      "▁su": 7103,
      "vic": 7104,
      "▁art": 7105,
      "▁hund": 7106,
      "....": 7107,
      "rupp": 7108,
      "▁Al": 7109,
      "naden": 7110,
      "▁fem": 7111,
      "heter": 7112,
      "▁start": 7113,
      "▁blivit": 7114,
      "▁im": 7115,
      "▁känner": 7116,
      "▁bru": 7117,
      "▁förl": 7118,
      "▁kväll": 7119,
      "▁enkelt": 7120,
      "▁flyg": 7121,
      "▁kn": 7122,
      "of": 7123,
      "▁låg": 7124,
      "▁styr": 7125,
      "val": 7126,
      "our": 7127,
      "▁kont": 7128,
      "▁14": 7129,
      "ras": 7130,
      "▁intern": 7131,
      "▁kropp": 7132,
      "lic": 7133,
      "sak": 7134,
      "ix": 7135,
      "▁medlem": 7136,
      "port": 7137,
      "▁org": 7138,
      "▁utveckling": 7139,
      "▁Ny": 7140,
      "ärskil": 7141,
      "under": 7142,
      "▁soci": 7143,
      "o.": 7144,
      "▁Är": 7145,
      "▁faktiskt": 7146,
      "▁loka": 7147,
      "▁US": 7148,
      "▁stöd": 7149,
      "▁resultat": 7150,
      "▁mis": 7151,
      "ux": 7152,
      "▁hittar": 7153,
      "▁13": 7154,
      "▁Gr": 7155,
      "ER": 7156,
      "nat": 7157,
      "▁möjligt": 7158,
      "age": 7159,
      "▁Av": 7160,
      "▁visar": 7161,
      "net": 7162,
      "▁igen": 7163,
      "▁vårt": 7164,
      "ligare": 7165,
      "oder": 7166,
      "elef": 7167,
      "▁ad": 7168,
      "▁polit": 7169,
      "▁ansvar": 7170,
      "ral": 7171,
      "lad": 7172,
      "gift": 7173,
      "oner": 7174,
      "▁ekonom": 7175,
      "jö": 7176,
      "andel": 7177,
      "▁namn": 7178,
      "ått": 7179,
      "▁säga": 7180,
      "mäl": 7181,
      "▁disk": 7182,
      "▁30": 7183,
      "▁y": 7184,
      "ännu": 7185,
      "▁online": 7186,
      "ämt": 7187,
      "▁ganska": 7188,
      "▁typ": 7189,
      "farande": 7190,
      "tera": 7191,
      "▁ännu": 7192,
      "kor": 7193,
      "▁lägg": 7194,
      "▁syn": 7195,
      "▁extra": 7196,
      "▁ca": 7197,
      "alen": 7198,
      "▁tiden": 7199,
      "ukt": 7200,
      "ris": 7201,
      "sin": 7202,
      "▁ka": 7203,
      "arna.": 7204,
      "▁gärna": 7205,
      "▁män": 7206,
      "ron": 7207,
      "ana": 7208,
      "▁träff": 7209,
      "▁by": 7210,
      "ument": 7211,
      "▁nära": 7212,
      "▁inget": 7213,
      "▁bed": 7214,
      "ever": 7215,
      "▁känns": 7216,
      "cess": 7217,
      "▁vatten": 7218,
      "tast": 7219,
      "▁grupp": 7220,
      "▁risk": 7221,
      "▁projekt": 7222,
      "ostad": 7223,
      "fäll": 7224,
      "▁hen": 7225,
      "▁Se": 7226,
      "▁klass": 7227,
      "ternativ": 7228,
      "d.": 7229,
      "▁off": 7230,
      "öteborg": 7231,
      "ay": 7232,
      "erial": 7233,
      "i.": 7234,
      "amma": 7235,
      "ct": 7236,
      "band": 7237,
      "▁besök": 7238,
      "▁AB": 7239,
      "ennes": 7240,
      "▁Ber": 7241,
      "▁liten": 7242,
      "▁förm": 7243,
      "▁börjar": 7244,
      "▁svårt": 7245,
      "ata": 7246,
      "▁ant": 7247,
      "▁stat": 7248,
      "lla": 7249,
      "▁håller": 7250,
      "▁Hot": 7251,
      "▁dra": 7252,
      "up": 7253,
      "ecka": 7254,
      "▁betal": 7255,
      "ffär": 7256,
      "▁precis": 7257,
      "fär": 7258,
      "spro": 7259,
      "▁program": 7260,
      "▁Alla": 7261,
      "▁eng": 7262,
      "▁omdömen": 7263,
      "▁samhäll": 7264,
      "m.": 7265,
      "▁the": 7266,
      "sättning": 7267,
      "elefon": 7268,
      "▁Min": 7269,
      "unn": 7270,
      "ultur": 7271,
      "fråg": 7272,
      "▁vissa": 7273,
      "sats": 7274,
      "▁nästan": 7275,
      "▁vilka": 7276,
      "ädd": 7277,
      "▁app": 7278,
      "etter": 7279,
      "▁25": 7280,
      "råk": 7281,
      "▁bel": 7282,
      "▁cent": 7283,
      "▁et": 7284,
      "ivå": 7285,
      "gär": 7286,
      "▁läs": 7287,
      "▁särskil": 7288,
      "▁vilken": 7289,
      "▁Ex": 7290,
      "▁tekn": 7291,
      "▁samtidigt": 7292,
      "▁erbjuder": 7293,
      "inna": 7294,
      "▁handlar": 7295,
      "▁und": 7296,
      "▁Z": 7297,
      "jut": 7298,
      "gäng": 7299,
      "▁fortfarande": 7300,
      "err": 7301,
      "▁saker": 7302,
      "▁lö": 7303,
      "illar": 7304,
      "inner": 7305,
      "▁använder": 7306,
      "▁år.": 7307,
      "ian": 7308,
      "▁dagar": 7309,
      "ena": 7310,
      "drar": 7311,
      "▁100": 7312,
      "▁Fin": 7313,
      "▁län": 7314,
      "icka": 7315,
      "gård": 7316,
      "erna.": 7317,
      "▁henne": 7318,
      "sst": 7319,
      "ift": 7320,
      ":s": 7321,
      "▁minuter": 7322,
      "▁alltså": 7323,
      "▁hålla": 7324,
      "förs": 7325,
      "▁bad": 7326,
      "▁blogg": 7327,
      "▁gott": 7328,
      "▁hjär": 7329,
      "▁hoppas": 7330,
      "▁ste": 7331,
      "▁före": 7332,
      "▁kons": 7333,
      "▁kar": 7334,
      "staur": 7335,
      "▁största": 7336,
      "▁samman": 7337,
      ".com": 7338,
      "▁viktigt": 7339,
      "▁fa": 7340,
      "▁000": 7341,
      "pass": 7342,
      "ida": 7343,
      "äss": 7344,
      "ond": 7345,
      "reg": 7346,
      "▁flytt": 7347,
      "uk": 7348,
      "▁pla": 7349,
      "stället": 7350,
      "enskap": 7351,
      "▁pengar": 7352,
      "▁Be": 7353,
      "▁bef": 7354,
      "▁skriver": 7355,
      "▁flesta": 7356,
      "▁met": 7357,
      "lder": 7358,
      "vård": 7359,
      "▁ytter": 7360,
      "fin": 7361,
      "▁2017": 7362,
      "▁bety": 7363,
      "▁Bl": 7364,
      "▁söker": 7365,
      "▁maj": 7366,
      "▁tex": 7367,
      "▁tyd": 7368,
      "▁nästa": 7369,
      "▁Komm": 7370,
      "▁sista": 7371,
      "▁funger": 7372,
      "▁länge": 7373,
      "▁Vid": 7374,
      "▁började": 7375,
      "▁aktiv": 7376,
      "▁endast": 7377,
      "▁Kon": 7378,
      "▁föränd": 7379,
      "ah": 7380,
      "▁spela": 7381,
      "▁ihop": 7382,
      "▁fyra": 7383,
      "▁utt": 7384,
      "▁vack": 7385,
      "ore": 7386,
      "qu": 7387,
      "▁färg": 7388,
      "▁hist": 7389,
      "ert": 7390,
      "▁[": 7391,
      "rade": 7392,
      "uft": 7393,
      "▁Sen": 7394,
      "n.": 7395,
      "▁framför": 7396,
      "▁kvinnor": 7397,
      "▁jämför": 7398,
      "bud": 7399,
      "▁go": 7400,
      "▁spr": 7401,
      "mär": 7402,
      "▁såg": 7403,
      "okus": 7404,
      "▁2016": 7405,
      "ningen.": 7406,
      "30": 7407,
      "▁förut": 7408,
      "▁Euro": 7409,
      "▁sett": 7410,
      "i,": 7411,
      "▁star": 7412,
      "▁jätt": 7413,
      "▁vit": 7414,
      "▁jul": 7415,
      "▁samarbet": 7416,
      "▁to": 7417,
      "▁läk": 7418,
      "ölj": 7419,
      "▁framtid": 7420,
      "▁Le": 7421,
      "iet": 7422,
      "▁hennes": 7423,
      "▁bid": 7424,
      "▁behov": 7425,
      "märk": 7426,
      "ider": 7427,
      "▁hår": 7428,
      "ström": 7429,
      "▁ind": 7430,
      "rag": 7431,
      "ävling": 7432,
      "▁kär": 7433,
      "▁ol": 7434,
      "▁tips": 7435,
      "mark": 7436,
      "at.": 7437,
      "▁minst": 7438,
      "▁Fl": 7439,
      "▁funktion": 7440,
      "▁frågor": 7441,
      "ningar.": 7442,
      "▁främ": 7443,
      "itu": 7444,
      "faren": 7445,
      "-2": 7446,
      "▁km": 7447,
      "ember": 7448,
      "▁Bo": 7449,
      "its": 7450,
      "▁inlägg": 7451,
      "grupp": 7452,
      "män": 7453,
      "andra": 7454,
      "bolag": 7455,
      "▁kring": 7456,
      "gon": 7457,
      "▁kul": 7458,
      "▁organis": 7459,
      "ssk": 7460,
      "XX": 7461,
      "urs": 7462,
      "varande": 7463,
      "EN": 7464,
      "▁egna": 7465,
      "sida": 7466,
      "▁ener": 7467,
      "▁pos": 7468,
      "napp": 7469,
      "bara": 7470,
      "▁bestäm": 7471,
      "yss": 7472,
      "verka": 7473,
      "ifrån": 7474,
      "agn": 7475,
      "▁fantast": 7476,
      "lade": 7477,
      "alis": 7478,
      "s-": 7479,
      "▁Göteborg": 7480,
      "201": 7481,
      "▁mobil": 7482,
      "ww": 7483,
      "ater": 7484,
      "▁vecka": 7485,
      "▁Idag": 7486,
      "äkring": 7487,
      "▁skapa": 7488,
      "▁bolag": 7489,
      "▁forsk": 7490,
      "▁klart": 7491,
      "▁förslag": 7492,
      "ati": 7493,
      "▁gamla": 7494,
      "ruk": 7495,
      "▁sidan": 7496,
      "▁halv": 7497,
      "▁dessutom": 7498,
      "▁dejtingsa": 7499,
      "▁bes": 7500,
      "enhet": 7501,
      "▁hän": 7502,
      "▁alternativ": 7503,
      "anc": 7504,
      "öjd": 7505,
      "▁viktig": 7506,
      "ork": 7507,
      "ivers": 7508,
      "bund": 7509,
      "IN": 7510,
      "handling": 7511,
      "one": 7512,
      "pe": 7513,
      "▁emot": 7514,
      "▁satt": 7515,
      "väx": 7516,
      "ity": 7517,
      "sch": 7518,
      "oc": 7519,
      "▁mö": 7520,
      "▁vidare": 7521,
      "▁senare": 7522,
      "▁far": 7523,
      "▁Vil": 7524,
      ",5": 7525,
      "fri": 7526,
      "▁pa": 7527,
      "ine": 7528,
      "nande": 7529,
      "▁erbjud": 7530,
      "▁fören": 7531,
      "▁50": 7532,
      "utik": 7533,
      "▁2015": 7534,
      "▁ob": 7535,
      "bygg": 7536,
      "råd": 7537,
      "ou": 7538,
      "sol": 7539,
      "▁ab": 7540,
      "amm": 7541,
      "▁seri": 7542,
      "▁räk": 7543,
      "▁Sveriges": 7544,
      "▁film": 7545,
      "▁helst": 7546,
      "yndighet": 7547,
      "▁Or": 7548,
      "▁kontro": 7549,
      "▁system": 7550,
      "jör": 7551,
      "rikt": 7552,
      "▁marknad": 7553,
      "öder": 7554,
      "▁Air": 7555,
      "elser": 7556,
      "▁välja": 7557,
      "▁The": 7558,
      "asino": 7559,
      "▁ljus": 7560,
      "ge": 7561,
      "▁upplev": 7562,
      "▁perfekt": 7563,
      "ins": 7564,
      "▁verkar": 7565,
      "▁försök": 7566,
      "håller": 7567,
      "Hotell": 7568,
      "▁natt": 7569,
      "ograf": 7570,
      "tem": 7571,
      "▁skön": 7572,
      "▁lycka": 7573,
      "▁maskin": 7574,
      "▁varför": 7575,
      "▁hjälper": 7576,
      "▁närm": 7577,
      "▁kor": 7578,
      "▁mode": 7579,
      "▁övr": 7580,
      "▁tje": 7581,
      "▁#": 7582,
      "▁kraft": 7583,
      "▁gar": 7584,
      "▁gått": 7585,
      "sig": 7586,
      "järn": 7587,
      "▁skr": 7588,
      "AN": 7589,
      "▁Max": 7590,
      "▁sj": 7591,
      "▁papp": 7592,
      "▁Även": 7593,
      "▁borde": 7594,
      "▁egent": 7595,
      "lat": 7596,
      "rukt": 7597,
      "▁Hel": 7598,
      "entar": 7599,
      "klart": 7600,
      "▁kund": 7601,
      "\",": 7602,
      "batt": 7603,
      "▁sag": 7604,
      "AR": 7605,
      "boll": 7606,
      "▁föräl": 7607,
      "onus": 7608,
      "▁EU": 7609,
      "▁istället": 7610,
      "▁vänt": 7611,
      "get": 7612,
      "▁hjälpa": 7613,
      "olv": 7614,
      "▁trots": 7615,
      "ateg": 7616,
      "▁ville": 7617,
      "▁dagen": 7618,
      "▁inga": 7619,
      "bok": 7620,
      "▁polis": 7621,
      "ckte": 7622,
      "ningarna": 7623,
      "ten": 7624,
      "▁gånger": 7625,
      "▁rapp": 7626,
      "skatt": 7627,
      "▁snabbt": 7628,
      "fer": 7629,
      "▁webbplats": 7630,
      "▁Denna": 7631,
      "▁vård": 7632,
      "uella": 7633,
      "ing,": 7634,
      "ies": 7635,
      "ew": 7636,
      "▁tillgäng": 7637,
      "▁Ty": 7638,
      "▁ön": 7639,
      "▁Per": 7640,
      "▁Res": 7641,
      "▁skrev": 7642,
      "-p": 7643,
      "▁inter": 7644,
      "▁erfaren": 7645,
      "▁tack": 7646,
      "ifi": 7647,
      "▁snart": 7648,
      "▁sov": 7649,
      "▁ibland": 7650,
      "▁lös": 7651,
      "▁artik": 7652,
      "▁själva": 7653,
      "▁sommar": 7654,
      "▁Th": 7655,
      "▁Bil": 7656,
      "stid": 7657,
      "▁moder": 7658,
      "▁gener": 7659,
      "▁delar": 7660,
      "▁pop": 7661,
      "unda": 7662,
      "lden": 7663,
      "▁21": 7664,
      "▁bas": 7665,
      "▁fokus": 7666,
      "▁tänka": 7667,
      "▁börja": 7668,
      "ivet": 7669,
      "▁tot": 7670,
      "▁kräv": 7671,
      "▁morgon": 7672,
      "▁händer": 7673,
      "▁vanligt": 7674,
      "anter": 7675,
      "▁brukar": 7676,
      "▁199": 7677,
      "gre": 7678,
      "ansk": 7679,
      "ev": 7680,
      "▁kopp": 7681,
      "▁Tack": 7682,
      "▁äldre": 7683,
      "ublic": 7684,
      "▁Vill": 7685,
      "▁Ska": 7686,
      "▁2014": 7687,
      "▁bäst": 7688,
      "yll": 7689,
      "▁fina": 7690,
      "uff": 7691,
      "ummer": 7692,
      "bin": 7693,
      "full": 7694,
      "▁kap": 7695,
      "▁genomför": 7696,
      "▁rad": 7697,
      "▁tem": 7698,
      "als": 7699,
      "o,": 7700,
      "oende": 7701,
      "▁öka": 7702,
      "uld": 7703,
      "▁tillfäll": 7704,
      "▁träd": 7705,
      "okrat": 7706,
      "▁:)": 7707,
      "▁priv": 7708,
      "uder": 7709,
      "▁lägga": 7710,
      "▁heller": 7711,
      "▁24": 7712,
      "ckt": 7713,
      "▁långt": 7714,
      "rift": 7715,
      "▁bred": 7716,
      "▁skatt": 7717,
      "▁Ander": 7718,
      "ium": 7719,
      "▁svensk": 7720,
      "▁månader": 7721,
      "▁Pl": 7722,
      "▁co": 7723,
      "ide": 7724,
      "ioner": 7725,
      "▁USA": 7726,
      "sett": 7727,
      "öck": 7728,
      "▁max": 7729,
      "vice": 7730,
      "▁%": 7731,
      "emang": 7732,
      "▁Sedan": 7733,
      "▁fanns": 7734,
      "▁antal": 7735,
      "▁kunder": 7736,
      "▁Nike": 7737,
      "▁på.": 7738,
      "▁Lin": 7739,
      "▁arbete": 7740,
      "▁Visa": 7741,
      "▁trans": 7742,
      "10": 7743,
      "▁anställ": 7744,
      "▁1.": 7745,
      "▁utanför": 7746,
      "gar": 7747,
      "▁reger": 7748,
      "▁recept": 7749,
      "▁Ro": 7750,
      "iz": 7751,
      "▁arbetar": 7752,
      "▁Johan": 7753,
      "▁medan": 7754,
      "igh": 7755,
      "itiv": 7756,
      "▁arbets": 7757,
      "▁sem": 7758,
      "▁behandling": 7759,
      "▁topp": 7760,
      "▁spar": 7761,
      "▁säs": 7762,
      "▁Stor": 7763,
      "▁telefon": 7764,
      "▁passar": 7765,
      "▁Malm": 7766,
      "ämp": 7767,
      "ret": 7768,
      "▁sitter": 7769,
      "▁test": 7770,
      "spektiv": 7771,
      "hopp": 7772,
      "lut": 7773,
      "snitt": 7774,
      "▁ens": 7775,
      "rem": 7776,
      "▁tills": 7777,
      "ren": 7778,
      "▁månad": 7779,
      "▁resa": 7780,
      "▁miljö": 7781,
      "▁året": 7782,
      "▁trev": 7783,
      "▁ögon": 7784,
      "iddag": 7785,
      "12": 7786,
      "▁råd": 7787,
      "for": 7788,
      "▁2013": 7789,
      "styr": 7790,
      "▁häls": 7791,
      "▁skriva": 7792,
      "▁sön": 7793,
      "▁gem": 7794,
      "▁glad": 7795,
      "ator": 7796,
      "agen": 7797,
      "rip": 7798,
      "▁affär": 7799,
      "önster": 7800,
      "▁Inte": 7801,
      "▁Mo": 7802,
      "▁vatt": 7803,
      "▁rekomm": 7804,
      "una": 7805,
      "▁tagit": 7806,
      "lick": 7807,
      "▁fråga": 7808,
      "50": 7809,
      "▁ring": 7810,
      "▁ovan": 7811,
      "ES": 7812,
      "▁bostad": 7813,
      "▁timmar": 7814,
      "▁död": 7815,
      "▁uppdat": 7816,
      "cension": 7817,
      "▁miljoner": 7818,
      "▁stan": 7819,
      "grund": 7820,
      "▁priser": 7821,
      "▁22": 7822,
      "ive": 7823,
      "ersätt": 7824,
      "▁sju": 7825,
      "spir": 7826,
      "▁lug": 7827,
      "▁lån": 7828,
      "▁egentligen": 7829,
      "ännande": 7830,
      "▁kvalitet": 7831,
      "▁Allt": 7832,
      "åk": 7833,
      "n,": 7834,
      "▁rik": 7835,
      "▁kommit": 7836,
      "▁båda": 7837,
      "▁restaur": 7838,
      "▁Någ": 7839,
      "▁So": 7840,
      "usk": 7841,
      "▁hud": 7842,
      "ocka": 7843,
      "▁särskilt": 7844,
      "kort": 7845,
      "▁mån": 7846,
      "rafik": 7847,
      "▁finans": 7848,
      "▁inkl": 7849,
      "▁låt": 7850,
      "▁knapp": 7851,
      "▁slag": 7852,
      "▁gre": 7853,
      "splats": 7854,
      "igheter": 7855,
      "▁jan": 7856,
      "dejting": 7857,
      "co": 7858,
      "umm": 7859,
      "▁beställ": 7860,
      "▁El": 7861,
      "▁veta": 7862,
      "▁varandra": 7863,
      "-s": 7864,
      "▁bi": 7865,
      "ny": 7866,
      "sson,": 7867,
      "▁utför": 7868,
      "▁förra": 7869,
      "▁gillar": 7870,
      "ugust": 7871,
      "ital": 7872,
      "▁kronor": 7873,
      "▁fav": 7874,
      "▁början": 7875,
      "spr": 7876,
      "▁säkerhet": 7877,
      "▁am": 7878,
      "▁skill": 7879,
      "▁släpp": 7880,
      "eriod": 7881,
      "▁betyg": 7882,
      "▁omfatt": 7883,
      "▁bakom": 7884,
      "▁ytterligare": 7885,
      "▁desig": 7886,
      "▁vux": 7887,
      "jta": 7888,
      "▁musik": 7889,
      "stol": 7890,
      "oss": 7891,
      "▁kultur": 7892,
      "▁känna": 7893,
      "▁dec": 7894,
      "▁Fa": 7895,
      "▁cir": 7896,
      "▁visa": 7897,
      "arm": 7898,
      "till": 7899,
      "dukt": 7900,
      "itta": 7901,
      "▁dating": 7902,
      "▁avslut": 7903,
      "ach": 7904,
      "▁skap": 7905,
      "omen": 7906,
      "▁SE": 7907,
      "▁förbätt": 7908,
      "▁roll": 7909,
      "pen": 7910,
      "▁ren": 7911,
      "▁2012": 7912,
      "▁popul": 7913,
      "▁Väl": 7914,
      "och": 7915,
      "vara": 7916,
      "▁energi": 7917,
      "eta": 7918,
      "▁uppgifter": 7919,
      "▁lin": 7920,
      "▁allmän": 7921,
      "▁krav": 7922,
      "▁elever": 7923,
      "▁förstå": 7924,
      "on.": 7925,
      "▁ungdom": 7926,
      "▁mör": 7927,
      "senter": 7928,
      "örer": 7929,
      "▁Ad": 7930,
      "▁mil": 7931,
      "▁Svenska": 7932,
      "▁jun": 7933,
      "els.com": 7934,
      "lapp": 7935,
      "olit": 7936,
      "ängd": 7937,
      "▁vardag": 7938,
      "▁effektiv": 7939,
      "▁igenom": 7940,
      "verket": 7941,
      "lex": 7942,
      "ösa": 7943,
      "äcker": 7944,
      "tering": 7945,
      "▁häst": 7946,
      "af": 7947,
      "ligt.": 7948,
      "▁personal": 7949,
      "ovis": 7950,
      "▁igen.": 7951,
      "vid": 7952,
      "▁med.": 7953,
      "LA": 7954,
      "ilja": 7955,
      "▁material": 7956,
      "mal": 7957,
      "▁(S": 7958,
      "älla": 7959,
      "ey": 7960,
      "▁används": 7961,
      "▁Hotel": 7962,
      "book": 7963,
      "▁varm": 7964,
      "▁registr": 7965,
      "▁förklar": 7966,
      "▁skog": 7967,
      "▁Karl": 7968,
      "ikation": 7969,
      "skott": 7970,
      "arnas": 7971,
      "▁prat": 7972,
      "ry": 7973,
      "ansch": 7974,
      "▁x": 7975,
      "▁bonus": 7976,
      "▁tillgång": 7977,
      "ita": 7978,
      "▁åka": 7979,
      "värr": 7980,
      "▁prakt": 7981,
      "kta": 7982,
      "▁länder": 7983,
      "samma": 7984,
      "▁lad": 7985,
      "▁sätta": 7986,
      "▁skydd": 7987,
      "▁Dan": 7988,
      "sc": 7989,
      "▁här.": 7990,
      "▁mig.": 7991,
      "inal": 7992,
      "kur": 7993,
      "part": 7994,
      "kn": 7995,
      "åga": 7996,
      "iner": 7997,
      "▁innehåller": 7998,
      "▁chans": 7999,
      "▁föd": 8000,
      "syk": 8001,
      "▁“": 8002,
      "▁sig.": 8003,
      "▁ag": 8004,
      "gat": 8005,
      "▁Sh": 8006,
      "tar": 8007,
      "▁gången": 8008,
      "ledning": 8009,
      "▁spelar": 8010,
      "plan": 8011,
      "▁lokal": 8012,
      "▁skicka": 8013,
      "ran": 8014,
      "▁lilla": 8015,
      "1.": 8016,
      "▁pati": 8017,
      "▁tänker": 8018,
      "värd": 8019,
      "väl": 8020,
      "▁norm": 8021,
      "▁anal": 8022,
      "▁2018": 8023,
      "▁Tro": 8024,
      "ph": 8025,
      "uari": 8026,
      "▁Gu": 8027,
      "▁ingår": 8028,
      "öter": 8029,
      "▁dags": 8030,
      "▁Dessutom": 8031,
      "ärer": 8032,
      "▁högre": 8033,
      "ande,": 8034,
      "▁tred": 8035,
      "▁snygg": 8036,
      "elska": 8037,
      "▁uppdrag": 8038,
      "on,": 8039,
      "▁luft": 8040,
      "▁Ste": 8041,
      "▁Enligt": 8042,
      "▁z": 8043,
      "▁kunskap": 8044,
      "▁driv": 8045,
      "▁produkter": 8046,
      "▁2.": 8047,
      "▁kommentar": 8048,
      "▁fördel": 8049,
      "ärt": 8050,
      "▁fungerar": 8051,
      "▁näm": 8052,
      "▁bal": 8053,
      "▁skad": 8054,
      "emot": 8055,
      "▁histor": 8056,
      "▁utom": 8057,
      "▁djur": 8058,
      "▁40": 8059,
      "ke": 8060,
      "▁års": 8061,
      "▁rep": 8062,
      "én": 8063,
      "örj": 8064,
      "▁Genom": 8065,
      "▁situ": 8066,
      "ET": 8067,
      "rust": 8068,
      "▁steg": 8069,
      "▁ifrån": 8070,
      "aket": 8071,
      "jänst": 8072,
      "ningar,": 8073,
      "äcka": 8074,
      "▁säkert": 8075,
      "▁park": 8076,
      "▁jord": 8077,
      "▁fatt": 8078,
      "▁åtgär": 8079,
      "▁äta": 8080,
      ".se": 8081,
      "▁lör": 8082,
      "▁effekt": 8083,
      "na,": 8084,
      "öll": 8085,
      "▁Ta": 8086,
      "▁nov": 8087,
      "”.": 8088,
      "▁otro": 8089,
      "▁träning": 8090,
      "ationella": 8091,
      "▁Malmö": 8092,
      "ash": 8093,
      "▁kred": 8094,
      "▁23": 8095,
      "verkar": 8096,
      "▁X": 8097,
      "ich": 8098,
      "yra": 8099,
      "▁Sm": 8100,
      "områ": 8101,
      "bel": 8102,
      "▁innehåll": 8103,
      "ure": 8104,
      "sut": 8105,
      "▁värde": 8106,
      "punkt": 8107,
      "▁Mat": 8108,
      "▁tävling": 8109,
      "▁goda": 8110,
      "▁kök": 8111,
      "e-": 8112,
      "▁ja": 8113,
      "po": 8114,
      "▁inspir": 8115,
      "orit": 8116,
      "efter": 8117,
      "▁Mer": 8118,
      "▁tank": 8119,
      "▁Nord": 8120,
      "▁prov": 8121,
      "▁ersätt": 8122,
      "▁sats": 8123,
      "▁bud": 8124,
      "ativa": 8125,
      "▁fri": 8126,
      "ernas": 8127,
      "▁försöka": 8128,
      "▁(2": 8129,
      "orer": 8130,
      "ält": 8131,
      "ärm": 8132,
      "▁gym": 8133,
      "▁trygg": 8134,
      "▁ej": 8135,
      "öda": 8136,
      "▁Arbet": 8137,
      "▁mamma": 8138,
      "▁Fot": 8139,
      "spekt": 8140,
      "avsett": 8141,
      "nt": 8142,
      "▁tredje": 8143,
      "▁märk": 8144,
      "jter": 8145,
      "▁erfarenhet": 8146,
      "uell": 8147,
      "▁häng": 8148,
      "ation.": 8149,
      "▁pri": 8150,
      "▁inst": 8151,
      "▁världen": 8152,
      "ktyg": 8153,
      "dra": 8154,
      "▁januari": 8155,
      "▁rekommender": 8156,
      "▁Bra": 8157,
      "icin": 8158,
      "▁event": 8159,
      "▁berättar": 8160,
      "▁uppf": 8161,
      "ykel": 8162,
      "▁Många": 8163,
      "efär": 8164,
      "▁indiv": 8165,
      "ständ": 8166,
      "▁vide": 8167,
      "▁svår": 8168,
      "▁sådan": 8169,
      "äver": 8170,
      "back": 8171,
      "▁poäng": 8172,
      "uppgifter": 8173,
      "▁august": 8174,
      "▁okt": 8175,
      "dem": 8176,
      "ern": 8177,
      "ykt": 8178,
      "▁det,": 8179,
      "▁sjukdom": 8180,
      "▁recension": 8181,
      "▁sym": 8182,
      "▁medel": 8183,
      "lös": 8184,
      "▁fisk": 8185,
      "eringen": 8186,
      "▁arbeta": 8187,
      "alj": 8188,
      "utt": 8189,
      "▁sc": 8190,
      "__": 8191,
      "▁mag": 8192,
      "▁lära": 8193,
      "▁väljer": 8194,
      "▁igång": 8195,
      "▁list": 8196,
      "▁besk": 8197,
      "▁blod": 8198,
      "ton": 8199,
      "▁feb": 8200,
      "▁Ja": 8201,
      "▁TV": 8202,
      "räck": 8203,
      "▁menar": 8204,
      "rog": 8205,
      "▁anmäl": 8206,
      "▁Reg": 8207,
      "lipp": 8208,
      "vik": 8209,
      "jöl": 8210,
      "▁dit": 8211,
      "▁veckan": 8212,
      "▁kur": 8213,
      "In": 8214,
      "▁gemens": 8215,
      "▁ben": 8216,
      "▁klubb": 8217,
      "▁Sw": 8218,
      "▁Ha": 8219,
      "ferens": 8220,
      "rapp": 8221,
      "▁sagt": 8222,
      "▁Från": 8223,
      "olf": 8224,
      "▁rå": 8225,
      "▁apr": 8226,
      "nam": 8227,
      "unch": 8228,
      "▁Kl": 8229,
      "vin": 8230,
      "15": 8231,
      "▁sep": 8232,
      "kommen": 8233,
      "dera": 8234,
      "gående": 8235,
      "▁Köp": 8236,
      "lands": 8237,
      "veckling": 8238,
      "▁lyck": 8239,
      "▁misst": 8240,
      "▁smak": 8241,
      "▁teck": 8242,
      "öts": 8243,
      "▁nätet": 8244,
      "gräns": 8245,
      "▁betala": 8246,
      "use": 8247,
      "cebook": 8248,
      "itut": 8249,
      "▁fredag": 8250,
      "anta": 8251,
      "▁tan": 8252,
      "bord": 8253,
      "-t": 8254,
      "igt.": 8255,
      "--": 8256,
      "ringar": 8257,
      "▁vem": 8258,
      "▁käns": 8259,
      "at,": 8260,
      "komst": 8261,
      "▁univers": 8262,
      "▁följande": 8263,
      "▁vanlig": 8264,
      ":00": 8265,
      "sav": 8266,
      "▁plac": 8267,
      "sidor": 8268,
      "▁samband": 8269,
      "▁säl": 8270,
      "▁*": 8271,
      "▁bra.": 8272,
      "▁ac": 8273,
      "▁fastighet": 8274,
      "företag": 8275,
      "▁mars": 8276,
      "ish": 8277,
      "ink": 8278,
      "▁brott": 8279,
      "▁inte.": 8280,
      "▁bedöm": 8281,
      "▁förhåll": 8282,
      "▁utman": 8283,
      "▁stra": 8284,
      "ST": 8285,
      "▁lyss": 8286,
      "▁la": 8287,
      "märkt": 8288,
      "äft": 8289,
      "▁Ol": 8290,
      "▁dejta": 8291,
      "▁ut.": 8292,
      "//": 8293,
      "ober": 8294,
      "▁beg": 8295,
      ".00": 8296,
      "▁uppt": 8297,
      "ipp": 8298,
      "ban": 8299,
      "▁beskriv": 8300,
      "▁90": 8301,
      "▁nu.": 8302,
      "▁Del": 8303,
      "▁ok": 8304,
      "▁säll": 8305,
      "▁utl": 8306,
      "as,": 8307,
      "▁mar": 8308,
      "▁aktivitet": 8309,
      "alog": 8310,
      "▁Dag": 8311,
      "▁till.": 8312,
      "dels": 8313,
      "▁Sverige.": 8314,
      "▁mon": 8315,
      "▁unga": 8316,
      "förande": 8317,
      "▁th": 8318,
      "▁Nej": 8319,
      "▁helg": 8320,
      "▁sker": 8321,
      "▁eget": 8322,
      "▁roligt": 8323,
      "▁stil": 8324,
      "▁ålder": 8325,
      "▁kam": 8326,
      "▁Su": 8327,
      "▁År": 8328,
      "ad.": 8329,
      "▁Q": 8330,
      "▁ham": 8331,
      "natt": 8332,
      "▁Dessa": 8333,
      "▁minska": 8334,
      "▁stund": 8335,
      "▁kombin": 8336,
      "▁invester": 8337,
      "▁gav": 8338,
      "▁igår": 8339,
      "▁liksom": 8340,
      "▁psyk": 8341,
      "yp": 8342,
      "▁klock": 8343,
      "▁Tv": 8344,
      "ubl": 8345,
      "fess": 8346,
      "sättningar": 8347,
      "står": 8348,
      "ligtvis": 8349,
      "ökt": 8350,
      "solut": 8351,
      "▁kredit": 8352,
      "▁jobba": 8353,
      "ugg": 8354,
      "de.": 8355,
      "▁spännande": 8356,
      "▁livet": 8357,
      "iter": 8358,
      "▁nedan": 8359,
      "▁nöd": 8360,
      "y.": 8361,
      "ko": 8362,
      "-år": 8363,
      "▁Co": 8364,
      "▁nätdejting": 8365,
      "mm": 8366,
      "▁t.": 8367,
      "Det": 8368,
      "▁post": 8369,
      "▁den.": 8370,
      "▁fyll": 8371,
      "▁försöker": 8372,
      "▁massa": 8373,
      "▁bygga": 8374,
      "eder": 8375,
      "▁stäm": 8376,
      "▁gra": 8377,
      "ille": 8378,
      "▁utred": 8379,
      "▁bär": 8380,
      "▁kal": 8381,
      "▁veckor": 8382,
      "▁svart": 8383,
      "▁inf": 8384,
      "▁skick": 8385,
      "OR": 8386,
      "ruktur": 8387,
      "▁betyder": 8388,
      "▁press": 8389,
      "▁läst": 8390,
      "▁+": 8391,
      "▁ök": 8392,
      "otek": 8393,
      "ump": 8394,
      "▁dem.": 8395,
      "da.": 8396,
      "▁höst": 8397,
      "▁alls": 8398,
      "▁vä": 8399,
      "ik.": 8400,
      "▁La": 8401,
      "▁finansi": 8402,
      "▁trött": 8403,
      "▁älskar": 8404,
      "licka": 8405,
      "▁sida": 8406,
      "LL": 8407,
      "radition": 8408,
      "ec": 8409,
      "▁tom": 8410,
      "▁jobbar": 8411,
      "▁fre": 8412,
      "▁vari": 8413,
      "in.": 8414,
      "▁Eller": 8415,
      "▁Tid": 8416,
      "▁For": 8417,
      "▁stol": 8418,
      "merik": 8419,
      "▁Par": 8420,
      "▁fi": 8421,
      "itter": 8422,
      "▁nivå": 8423,
      "▁följa": 8424,
      "▁meddel": 8425,
      "ON": 8426,
      "▁public": 8427,
      "okument": 8428,
      "AT": 8429,
      "▁utbildning": 8430,
      "▁Go": 8431,
      "▁ban": 8432,
      "▁stå": 8433,
      "▁dju": 8434,
      "sidan": 8435,
      "skr": 8436,
      "▁Lund": 8437,
      "ycka": 8438,
      "://": 8439,
      "ING": 8440,
      "▁godk": 8441,
      "▁känsl": 8442,
      "växt": 8443,
      "▁=": 8444,
      "sel": 8445,
      "▁låter": 8446,
      "▁anpass": 8447,
      "▁tjänster": 8448,
      "▁casino": 8449,
      "▁dör": 8450,
      "▁2010": 8451,
      "St": 8452,
      "pris": 8453,
      "▁kvinna": 8454,
      "▁Kar": 8455,
      "▁färd": 8456,
      "▁28": 8457,
      "delse": 8458,
      "▁myndighet": 8459,
      "▁idé": 8460,
      "ruari": 8461,
      "▁allvar": 8462,
      "▁frågan": 8463,
      "▁at": 8464,
      "▁do": 8465,
      "▁Fast": 8466,
      "▁miss": 8467,
      "▁fortsätta": 8468,
      "▁fint": 8469,
      "▁krit": 8470,
      "▁Vår": 8471,
      "▁juni": 8472,
      "▁april": 8473,
      "▁butik": 8474,
      "▁septem": 8475,
      "bro": 8476,
      "▁fortsatt": 8477,
      "▁Pol": 8478,
      "▁kol": 8479,
      "press": 8480,
      "▁lämna": 8481,
      "▁bit": 8482,
      "bjud": 8483,
      "▁blå": 8484,
      "▁försv": 8485,
      "▁hot": 8486,
      "99": 8487,
      "▁skor": 8488,
      "▁stark": 8489,
      "▁2011": 8490,
      "▁spelare": 8491,
      "▁Ser": 8492,
      "▁super": 8493,
      "ism": 8494,
      "▁Fil": 8495,
      "ue": 8496,
      "▁deltag": 8497,
      "▁26": 8498,
      "▁Hem": 8499,
      "dar": 8500,
      "▁engelska": 8501,
      "▁privat": 8502,
      "▁skolan": 8503,
      "iel": 8504,
      "pan": 8505,
      "▁tio": 8506,
      "▁ungefär": 8507,
      "▁heter": 8508,
      "▁tillhör": 8509,
      "▁förvänt": 8510,
      "45": 8511,
      "CK": 8512,
      "▁mor": 8513,
      "▁me": 8514,
      "▁dejtingsajt": 8515,
      "▁vägen": 8516,
      "▁dubb": 8517,
      "▁Därför": 8518,
      "▁period": 8519,
      "▁va": 8520,
      "▁liknande": 8521,
      "hl": 8522,
      "▁lek": 8523,
      "uellt": 8524,
      "klag": 8525,
      "▁dam": 8526,
      "▁semester": 8527,
      "▁maskinöver": 8528,
      "▁därmed": 8529,
      "▁ämn": 8530,
      "inci": 8531,
      "▁lev": 8532,
      "▁kläder": 8533,
      "▁fortsätter": 8534,
      "▁bank": 8535,
      "▁säng": 8536,
      "▁oro": 8537,
      "▁27": 8538,
      "▁barnen": 8539,
      "vs": 8540,
      "på": 8541,
      "▁process": 8542,
      "erna,": 8543,
      "▁finnas": 8544,
      "▁tjej": 8545,
      "▁stäng": 8546,
      "program": 8547,
      "ställning": 8548,
      "▁kyrk": 8549,
      "▁is": 8550,
      "▁cirka": 8551,
      "köping": 8552,
      "▁böck": 8553,
      "▁ensam": 8554,
      "▁•": 8555,
      "▁New": 8556,
      "person": 8557,
      "öna": 8558,
      "▁Fort": 8559,
      "▁exempelvis": 8560,
      "▁resen": 8561,
      "▁krävs": 8562,
      "rym": 8563,
      "åld": 8564,
      "ora": 8565,
      "hem": 8566,
      "▁§": 8567,
      "▁social": 8568,
      "▁absolut": 8569,
      "▁tvätt": 8570,
      "ate": 8571,
      "splan": 8572,
      "▁dröm": 8573,
      "▁användas": 8574,
      "▁Sch": 8575,
      "▁Norr": 8576,
      "▁ansök": 8577,
      "▁kompl": 8578,
      "ativt": 8579,
      "▁stod": 8580,
      "▁Öster": 8581,
      "y,": 8582,
      "jön": 8583,
      "▁;": 8584,
      "▁presenter": 8585,
      "deles": 8586,
      "▁Em": 8587,
      "▁slutet": 8588,
      "▁februari": 8589,
      "▁Kom": 8590,
      "IS": 8591,
      "likt": 8592,
      "rör": 8593,
      "▁bek": 8594,
      "▁augusti": 8595,
      "dde": 8596,
      "▁Mot": 8597,
      "▁vägg": 8598,
      "▁gäll": 8599,
      "▁Intern": 8600,
      "▁senast": 8601,
      "ta.": 8602,
      "▁favorit": 8603,
      "ryck": 8604,
      "▁Jon": 8605,
      "etens": 8606,
      "in,": 8607,
      "9.": 8608,
      "▁också.": 8609,
      "▁Jan": 8610,
      "▁fys": 8611,
      "ward": 8612,
      "▁kostnad": 8613,
      "oj": 8614,
      "▁vilja": 8615,
      "lack": 8616,
      "fte": 8617,
      "Jag": 8618,
      "11": 8619,
      "▁försälj": 8620,
      "▁Akt": 8621,
      "▁dig.": 8622,
      "der.": 8623,
      "▁chef": 8624,
      "▁nå": 8625,
      "utbild": 8626,
      "iljö": 8627,
      "ald": 8628,
      "▁består": 8629,
      "teck": 8630,
      "▁viss": 8631,
      "sson.": 8632,
      "kas": 8633,
      "skydd": 8634,
      "ric": 8635,
      "▁tjänst": 8636,
      "▁individ": 8637,
      "40": 8638,
      "▁säsong": 8639,
      "läg": 8640,
      "▁språk": 8641,
      "stri": 8642,
      "gå": 8643,
      "blad": 8644,
      "▁hotellet": 8645,
      "▁oftast": 8646,
      "▁beroende": 8647,
      "erande": 8648,
      "bur": 8649,
      "▁gäster": 8650,
      "eställ": 8651,
      "▁offent": 8652,
      "▁Am": 8653,
      "▁Bill": 8654,
      "▁förstår": 8655,
      "▁fix": 8656,
      "▁hjärt": 8657,
      "check": 8658,
      "▁fotboll": 8659,
      "erades": 8660,
      "▁Kanske": 8661,
      "▁sport": 8662,
      "▁mots": 8663,
      "▁tyckte": 8664,
      "ode": 8665,
      "▁drabb": 8666,
      "▁him": 8667,
      "arna,": 8668,
      "▁löp": 8669,
      "▁lördag": 8670,
      "▁yrk": 8671,
      "▁Hej": 8672,
      "stående": 8673,
      "fritt": 8674,
      "▁Över": 8675,
      "▁rygg": 8676,
      "▁grav": 8677,
      "▁log": 8678,
      "▁såsom": 8679,
      "▁ljud": 8680,
      "▁Varför": 8681,
      "list": 8682,
      "▁Eng": 8683,
      "▁sälj": 8684,
      "▁Er": 8685,
      "▁betyd": 8686,
      "san": 8687,
      "▁Gud": 8688,
      "vist": 8689,
      "▁ter": 8690,
      "▁tänkte": 8691,
      "▁boende": 8692,
      "▁3.": 8693,
      "▁vackra": 8694,
      "ik,": 8695,
      "▁tradition": 8696,
      "▁rapporter": 8697,
      "▁köra": 8698,
      "▁orsak": 8699,
      "▁intressant": 8700,
      "rick": 8701,
      "▁övriga": 8702,
      "utomat": 8703,
      "ex.": 8704,
      "▁Erik": 8705,
      "▁positiv": 8706,
      "▁dagens": 8707,
      "▁Car": 8708,
      "het.": 8709,
      "▁insta": 8710,
      "▁enk": 8711,
      "▁Pris": 8712,
      "i-": 8713,
      "ekomm": 8714,
      "▁sätt.": 8715,
      "▁60": 8716,
      "▁juli": 8717,
      "2.": 8718,
      "lever": 8719,
      "▁ske": 8720,
      "uck": 8721,
      "kring": 8722,
      "bruk": 8723,
      "▁regel": 8724,
      "sorg": 8725,
      "▁anser": 8726,
      "▁enskil": 8727,
      "mål": 8728,
      "▁stjärn": 8729,
      "▁oktober": 8730,
      "so": 8731,
      "otten": 8732,
      "isa": 8733,
      "▁avtal": 8734,
      "▁sh": 8735,
      "▁air": 8736,
      "▁kolla": 8737,
      "▁Ja,": 8738,
      "▁Joh": 8739,
      "skolan": 8740,
      "▁stopp": 8741,
      "▁tillräck": 8742,
      "▁gu": 8743,
      "▁speciellt": 8744,
      "▁Kv": 8745,
      "▁cm": 8746,
      "▁avgör": 8747,
      "nal": 8748,
      "ox": 8749,
      "itet.": 8750,
      "ade.": 8751,
      "▁text": 8752,
      "over": 8753,
      "▁konkur": 8754,
      "el.": 8755,
      "▁glas": 8756,
      "▁följer": 8757,
      "▁vanliga": 8758,
      "▁titta": 8759,
      "▁nämn": 8760,
      "▁Ver": 8761,
      "▁dist": 8762,
      "▁september": 8763,
      "out": 8764,
      "▁kaff": 8765,
      "▁öppna": 8766,
      "▁Just": 8767,
      "aga": 8768,
      "betal": 8769,
      "▁utveckla": 8770,
      "▁Ni": 8771,
      "▁år,": 8772,
      "samling": 8773,
      "▁kärlek": 8774,
      "▁alldeles": 8775,
      "▁undersök": 8776,
      "endet": 8777,
      "▁amerik": 8778,
      "kväll": 8779,
      "▁Eftersom": 8780,
      "▁föres": 8781,
      "▁visade": 8782,
      "öja": 8783,
      "ningss": 8784,
      "▁198": 8785,
      "▁sta": 8786,
      "??": 8787,
      "oter": 8788,
      "▁påverka": 8789,
      "▁otroligt": 8790,
      "medel": 8791,
      "▁framgång": 8792,
      "▁närheten": 8793,
      "▁lägger": 8794,
      "▁varum": 8795,
      "▁Hotell": 8796,
      "▁sådana": 8797,
      "emedel": 8798,
      "▁Str": 8799,
      "atta": 8800,
      "▁oss.": 8801,
      "▁»": 8802,
      "▁lön": 8803,
      "▁samtal": 8804,
      "ökte": 8805,
      "Hot": 8806,
      "▁åkte": 8807,
      "▁kräver": 8808,
      "▁tor": 8809,
      "▁1,": 8810,
      "▁meter": 8811,
      "rateg": 8812,
      "▁interv": 8813,
      "Om": 8814,
      "▁nämligen": 8815,
      "yld": 8816,
      "ygger": 8817,
      "▁engag": 8818,
      "TM": 8819,
      "▁skapar": 8820,
      "▁Te": 8821,
      "ige": 8822,
      "-k": 8823,
      "▁Än": 8824,
      "iti": 8825,
      "▁SEK": 8826,
      "▁världens": 8827,
      "▁gammal": 8828,
      "▁defin": 8829,
      "▁Ju": 8830,
      "seende": 8831,
      "▁Di": 8832,
      "▁hav": 8833,
      "chef": 8834,
      "ood": 8835,
      "▁Hög": 8836,
      "ions": 8837,
      "▁främst": 8838,
      "▁Sol": 8839,
      "demokrat": 8840,
      "itid": 8841,
      "▁vak": 8842,
      "▁fruk": 8843,
      "▁somm": 8844,
      "▁)": 8845,
      "▁vänner": 8846,
      "▁sch": 8847,
      "▁arbetet": 8848,
      "▁beror": 8849,
      "▁samarbete": 8850,
      "▁avs": 8851,
      "▁boka": 8852,
      "▁sing": 8853,
      "▁behöva": 8854,
      "▁gran": 8855,
      "▁Själv": 8856,
      "▁ökar": 8857,
      "serv": 8858,
      "▁Väst": 8859,
      "▁Krist": 8860,
      "▁delen": 8861,
      "▁kamp": 8862,
      "still": 8863,
      "▁Sn": 8864,
      "▁kontakta": 8865,
      "▁Mark": 8866,
      "g.": 8867,
      "▁kontroll": 8868,
      "▁Kommun": 8869,
      "th": 8870,
      "▁mär": 8871,
      "▁nike": 8872,
      "▁behövs": 8873,
      "ep": 8874,
      "▁htt": 8875,
      "16": 8876,
      "aler": 8877,
      "▁ek": 8878,
      "▁rädd": 8879,
      "▁ton": 8880,
      "verksamhet": 8881,
      "▁Anna": 8882,
      "▁möte": 8883,
      "▁kart": 8884,
      "gel": 8885,
      "etar": 8886,
      "▁möt": 8887,
      "ement": 8888,
      "▁nödvänd": 8889,
      "▁ör": 8890,
      "▁söndag": 8891,
      "unnit": 8892,
      "▁författ": 8893,
      "ategor": 8894,
      "▁sån": 8895,
      "pon": 8896,
      "tor": 8897,
      "▁åren": 8898,
      "▁Gör": 8899,
      "▁klimat": 8900,
      "▁euro": 8901,
      "▁såväl": 8902,
      "ion.": 8903,
      "ager": 8904,
      "▁oper": 8905,
      "▁buss": 8906,
      "andard": 8907,
      "orl": 8908,
      "▁begräns": 8909,
      "alla": 8910,
      "duktion": 8911,
      "▁uppmärk": 8912,
      "▁insats": 8913,
      "▁låta": 8914,
      "▁bekv": 8915,
      "▁blomm": 8916,
      "▁om.": 8917,
      "DR": 8918,
      "nytt": 8919,
      "▁frukt": 8920,
      "▁ram": 8921,
      "▁mys": 8922,
      "▁diskuter": 8923,
      "verkan": 8924,
      "▁frukost": 8925,
      "▁oavsett": 8926,
      "▁skär": 8927,
      "▁fest": 8928,
      "▁sociala": 8929,
      "ith": 8930,
      "▁idag.": 8931,
      "▁njut": 8932,
      "stans": 8933,
      "▁Sy": 8934,
      "ottag": 8935,
      "iteten": 8936,
      "enden": 8937,
      "▁önsk": 8938,
      "'s": 8939,
      "ara": 8940,
      "lare": 8941,
      "▁skillnad": 8942,
      "▁Lind": 8943,
      "skor": 8944,
      "ekv": 8945,
      "17": 8946,
      "ly": 8947,
      "▁december": 8948,
      "jen": 8949,
      "▁Hitta": 8950,
      "▁29": 8951,
      "o-": 8952,
      "▁Facebook": 8953,
      "▁tänkt": 8954,
      "▁utifrån": 8955,
      "▁glöm": 8956,
      "allt": 8957,
      "▁—": 8958,
      "▁Ann": 8959,
      "▁punkt": 8960,
      "▁vare": 8961,
      "▁hälsa": 8962,
      "rän": 8963,
      "▁lägenhet": 8964,
      "jor": 8965,
      "bes": 8966,
      "enti": 8967,
      "▁tittade": 8968,
      "▁os": 8969,
      "▁sort": 8970,
      "▁Pa": 8971,
      "checkning": 8972,
      "▁lunch": 8973,
      "ations": 8974,
      "en?": 8975,
      "▁Söder": 8976,
      "▁dag.": 8977,
      "▁spår": 8978,
      "▁infl": 8979,
      "▁våg": 8980,
      "▁annars": 8981,
      "otter": 8982,
      "ake": 8983,
      "▁Nor": 8984,
      "▁november": 8985,
      "▁pot": 8986,
      "▁Berg": 8987,
      "ening": 8988,
      "▁iväg": 8989,
      "▁Väster": 8990,
      "peratur": 8991,
      "14": 8992,
      "▁ick": 8993,
      "ägen": 8994,
      "▁pres": 8995,
      "VO": 8996,
      "▁anslut": 8997,
      "skon": 8998,
      "▁klockan": 8999,
      "▁Björ": 9000,
      "▁sådant": 9001,
      "ias": 9002,
      "▁Europa": 9003,
      "▁trädgård": 9004,
      "60": 9005,
      "ongen": 9006,
      "▁företaget": 9007,
      "åp": 9008,
      "▁vart": 9009,
      "▁verktyg": 9010,
      "▁stället": 9011,
      "▁leder": 9012,
      "▁mm": 9013,
      "▁opt": 9014,
      "▁region": 9015,
      "följ": 9016,
      "▁kri": 9017,
      "fa": 9018,
      "▁våld": 9019,
      "▁vänster": 9020,
      "▁Anders": 9021,
      "åde": 9022,
      "▁boken": 9023,
      "ham": 9024,
      "▁service": 9025,
      "terna": 9026,
      "▁lov": 9027,
      "▁tas": 9028,
      "▁Sa": 9029,
      "ören": 9030,
      "▁viktiga": 9031,
      "▁uppskatt": 9032,
      "ED": 9033,
      "▁totalt": 9034,
      "▁prata": 9035,
      "▁ställa": 9036,
      "▁dejtingsajter": 9037,
      "18": 9038,
      "▁sur": 9039,
      "▁rabatt": 9040,
      "▁kl.": 9041,
      "fta": 9042,
      "▁kände": 9043,
      "3.": 9044,
      "▁området": 9045,
      "▁universitet": 9046,
      "▁fört": 9047,
      "▁Använd": 9048,
      "▁årets": 9049,
      "unktion": 9050,
      "äget": 9051,
      "▁profess": 9052,
      "▁omkring": 9053,
      "▁kontroller": 9054,
      "▁modell": 9055,
      "ärn": 9056,
      "▁ap": 9057,
      "▁vinter": 9058,
      "▁visst": 9059,
      "▁fjär": 9060,
      "uc": 9061,
      "▁Mon": 9062,
      "▁em": 9063,
      "▁produktion": 9064,
      "ka.": 9065,
      "stå": 9066,
      "cial": 9067,
      "rib": 9068,
      "▁trafik": 9069,
      "o:": 9070,
      "dustri": 9071,
      "▁bakgrund": 9072,
      "▁arbetsm": 9073,
      "d,": 9074,
      "▁lokala": 9075,
      "▁höll": 9076,
      "▁ins": 9077,
      "▁inled": 9078,
      "▁od": 9079,
      "ig.": 9080,
      "▁sitta": 9081,
      "▁Gl": 9082,
      "▁Hans": 9083,
      "▁ident": 9084,
      "▁ansikt": 9085,
      "▁lan": 9086,
      "▁server": 9087,
      "ÖR": 9088,
      "▁bilden": 9089,
      "ibli": 9090,
      "▁Barn": 9091,
      "▁tit": 9092,
      "▁Stockholms": 9093,
      "▁höga": 9094,
      "usive": 9095,
      "land.": 9096,
      "▁kroppen": 9097,
      "emål": 9098,
      "▁dy": 9099,
      "▁klara": 9100,
      "else.": 9101,
      "5.": 9102,
      "▁Upps": 9103,
      "▁kil": 9104,
      "IK": 9105,
      "▁bidrag": 9106,
      "▁fullt": 9107,
      "▁söka": 9108,
      "▁tyvärr": 9109,
      "äckt": 9110,
      "oden": 9111,
      "▁storlek": 9112,
      "▁långa": 9113,
      "▁fart": 9114,
      "brott": 9115,
      "▁dryg": 9116,
      "ational": 9117,
      "▁Fred": 9118,
      "▁träffa": 9119,
      "tre": 9120,
      "▁nyhet": 9121,
      "▁höra": 9122,
      "iginal": 9123,
      "▁medicin": 9124,
      "▁skönt": 9125,
      "▁båt": 9126,
      "▁organisation": 9127,
      "arbete": 9128,
      "▁Spel": 9129,
      "▁num": 9130,
      "▁tj": 9131,
      "▁Pla": 9132,
      "▁Vikt": 9133,
      "▁möjligt.": 9134,
      "let": 9135,
      "▁ide": 9136,
      "”,": 9137,
      "grepp": 9138,
      "▁nöj": 9139,
      "▁regl": 9140,
      "▁port": 9141,
      "▁elekt": 9142,
      "▁produc": 9143,
      "▁exper": 9144,
      "▁funder": 9145,
      "▁dans": 9146,
      "äkra": 9147,
      "▁kostnader": 9148,
      "▁jobbet": 9149,
      "▁kallas": 9150,
      "▁inn": 9151,
      "▁ford": 9152,
      "osa": 9153,
      "▁ena": 9154,
      "resent": 9155,
      "▁Sl": 9156,
      "smedel": 9157,
      "satts": 9158,
      "ruktion": 9159,
      "era.": 9160,
      "ander": 9161,
      "▁Gre": 9162,
      "iens": 9163,
      "es.": 9164,
      "▁internet": 9165,
      "▁Förs": 9166,
      "▁intresse": 9167,
      "▁litet": 9168,
      "▁promen": 9169,
      "▁centrum": 9170,
      "▁stress": 9171,
      "iat": 9172,
      "▁antalet": 9173,
      "▁billiga": 9174,
      "▁drag": 9175,
      "▁tillverk": 9176,
      "▁princi": 9177,
      "▁möjligheter": 9178,
      "▁2019": 9179,
      "▁katt": 9180,
      "▁börjat": 9181,
      "▁cykel": 9182,
      "enten": 9183,
      "▁respektiv": 9184,
      "isen": 9185,
      "▁On": 9186,
      "▁gro": 9187,
      "▁Hopp": 9188,
      "▁strateg": 9189,
      "▁sten": 9190,
      "▁allra": 9191,
      "▁0,": 9192,
      "▁öv": 9193,
      "ight": 9194,
      "▁Vär": 9195,
      "19": 9196,
      "▁sock": 9197,
      "▁exakt": 9198,
      "-3": 9199,
      "ca": 9200,
      "verige": 9201,
      "öta": 9202,
      "huset": 9203,
      "▁pension": 9204,
      "▁redovis": 9205,
      "handel": 9206,
      "▁rut": 9207,
      "sled": 9208,
      "▁Bet": 9209,
      "▁beräk": 9210,
      "▁spring": 9211,
      "▁digit": 9212,
      "delning": 9213,
      "▁leg": 9214,
      "▁Bes": 9215,
      "▁respektive": 9216,
      "▁He": 9217,
      "▁vers": 9218,
      "ffa": 9219,
      "ter.": 9220,
      "▁>": 9221,
      "▁Hall": 9222,
      "▁samtliga": 9223,
      "▁bilen": 9224,
      "XXXX": 9225,
      "▁lägre": 9226,
      "▁integr": 9227,
      "▁197": 9228,
      "▁där.": 9229,
      "▁leva": 9230,
      "▁'": 9231,
      "▁fas": 9232,
      "▁leverant": 9233,
      "▁500": 9234,
      "En": 9235,
      "▁Nil": 9236,
      "▁avl": 9237,
      "-f": 9238,
      "▁tak": 9239,
      "▁typer": 9240,
      "▁fj": 9241,
      "amin": 9242,
      "▁vann": 9243,
      "stag": 9244,
      "▁underhåll": 9245,
      "▁teknik": 9246,
      "▁lämp": 9247,
      "▁utgör": 9248,
      "tes": 9249,
      "▁tapp": 9250,
      "▁åker": 9251,
      "▁pe": 9252,
      "ila": 9253,
      "ids": 9254,
      "ad,": 9255,
      "▁förel": 9256,
      "▁present": 9257,
      "gn": 9258,
      "läggning": 9259,
      "▁tid.": 9260,
      "k.": 9261,
      "4.": 9262,
      "▁jag.": 9263,
      "▁mång": 9264,
      "▁medarbet": 9265,
      "sprung": 9266,
      "vika": 9267,
      "▁hårt": 9268,
      "oo": 9269,
      "▁Bland": 9270,
      "▁sade": 9271,
      "▁adress": 9272,
      "▁sätter": 9273,
      "▁rull": 9274,
      "▁högt": 9275,
      "▁rom": 9276,
      "iment": 9277,
      "ände": 9278,
      "▁artikel": 9279,
      "▁hända": 9280,
      "▁gläd": 9281,
      "▁t.ex.": 9282,
      "TT": 9283,
      "anger": 9284,
      "▁kompetens": 9285,
      "▁utbud": 9286,
      "▁uppfatt": 9287,
      "▁special": 9288,
      "ämta": 9289,
      "▁tåg": 9290,
      "▁landet": 9291,
      "bered": 9292,
      "ura": 9293,
      "▁ändra": 9294,
      "▁nån": 9295,
      "▁erbjuda": 9296,
      "▁känsla": 9297,
      "kad": 9298,
      "▁2009": 9299,
      "▁recensioner": 9300,
      "▁vitt": 9301,
      "▁försäkring": 9302,
      "▁tanke": 9303,
      "▁uppgift": 9304,
      "▁handling": 9305,
      "▁Ingen": 9306,
      "yta": 9307,
      "▁middag": 9308,
      "sdag": 9309,
      "▁förvalt": 9310,
      "▁restaurang": 9311,
      "▁dokument": 9312,
      "ering.": 9313,
      "we": 9314,
      "förbund": 9315,
      "bol": 9316,
      ":-": 9317,
      "len": 9318,
      "igt,": 9319,
      "▁skrivit": 9320,
      "▁Sc": 9321,
      "okies": 9322,
      "▁kunnat": 9323,
      "sd": 9324,
      "▁Carl": 9325,
      "▁Rik": 9326,
      "▁Person": 9327,
      "när": 9328,
      "▁sal": 9329,
      "▁enbart": 9330,
      "▁uppe": 9331,
      "igen": 9332,
      "cep": 9333,
      "▁detalj": 9334,
      "▁bju": 9335,
      "▁FVO": 9336,
      "za": 9337,
      "delar": 9338,
      "▁tors": 9339,
      "!!!": 9340,
      "ette": 9341,
      "ation,": 9342,
      "▁åtgärder": 9343,
      "▁ak": 9344,
      "igg": 9345,
      "ice": 9346,
      "▁i.": 9347,
      "▁Kal": 9348,
      "▁Samtid": 9349,
      "▁Bok": 9350,
      "sliv": 9351,
      "▁design": 9352,
      "An": 9353,
      "gatan": 9354,
      "▁kostar": 9355,
      "▁klipp": 9356,
      "▁nor": 9357,
      "-m": 9358,
      "kan": 9359,
      "▁mom": 9360,
      "▁dator": 9361,
      ":2": 9362,
      "▁medvet": 9363,
      "▁måndag": 9364,
      "rä": 9365,
      "▁bygger": 9366,
      "mi": 9367,
      "orna.": 9368,
      "ica": 9369,
      "▁tra": 9370,
      "0-tal": 9371,
      "▁tjejer": 9372,
      "▁hämt": 9373,
      "▁medlemmar": 9374,
      "▁valt": 9375,
      "▁röst": 9376,
      "▁ordförande": 9377,
      "▁sek": 9378,
      "srätt": 9379,
      "▁förlor": 9380,
      "▁hit": 9381,
      "▁ått": 9382,
      "-b": 9383,
      "terar": 9384,
      "▁förändring": 9385,
      "▁krig": 9386,
      "▁makt": 9387,
      "jul": 9388,
      "ment": 9389,
      "▁dejt": 9390,
      "▁tryck": 9391,
      "▁handel": 9392,
      "▁anledning": 9393,
      "jänster": 9394,
      "sättningen": 9395,
      "▁platt": 9396,
      "▁född": 9397,
      "server": 9398,
      "▁2008": 9399,
      "▁lättare": 9400,
      "ener": 9401,
      "▁höger": 9402,
      "▁konstat": 9403,
      "▁Val": 9404,
      "iden": 9405,
      "▁dela": 9406,
      "▁Ed": 9407,
      "▁sil": 9408,
      "hov": 9409,
      "▁Hand": 9410,
      "▁but": 9411,
      "▁Skån": 9412,
      "▁förekomm": 9413,
      "▁massor": 9414,
      "▁31": 9415,
      "ild": 9416,
      "▁Tur": 9417,
      "▁Ul": 9418,
      "▁gemensam": 9419,
      "▁SV": 9420,
      "▁högsta": 9421,
      "▁själv.": 9422,
      "▁sann": 9423,
      "▁4.": 9424,
      "▁ret": 9425,
      "▁ons": 9426,
      "valt": 9427,
      "▁ekonomiska": 9428,
      "al.": 9429,
      "▁bransch": 9430,
      "agg": 9431,
      "ligheten": 9432,
      "▁väntar": 9433,
      "edagog": 9434,
      "▁m.": 9435,
      "00-": 9436,
      "▁App": 9437,
      "ivt": 9438,
      "skola": 9439,
      "▁Ge": 9440,
      "▁Samtidigt": 9441,
      "▁ov": 9442,
      "▁ark": 9443,
      "▁kommunen": 9444,
      "▁områden": 9445,
      "▁Pre": 9446,
      "▁trä": 9447,
      "▁Con": 9448,
      "ningsvis": 9449,
      "▁hum": 9450,
      "▁Hels": 9451,
      "off": 9452,
      "ställa": 9453,
      "onen": 9454,
      "hamn": 9455,
      "▁tillräckligt": 9456,
      "samt": 9457,
      "▁framåt": 9458,
      "▁förening": 9459,
      "wards": 9460,
      "▁date": 9461,
      "▁väder": 9462,
      "▁2020": 9463,
      "▁enkla": 9464,
      "▁Tor": 9465,
      "▁byta": 9466,
      "▁köpte": 9467,
      "▁35": 9468,
      "oklad": 9469,
      "▁reda": 9470,
      "▁läser": 9471,
      "▁Mycket": 9472,
      "▁snar": 9473,
      "▁tving": 9474,
      "kraft": 9475,
      "▁testa": 9476,
      "▁idrott": 9477,
      "lande": 9478,
      "▁Välkommen": 9479,
      "▁Ph": 9480,
      "lund": 9481,
      "AM": 9482,
      "6.": 9483,
      "onom": 9484,
      "▁studer": 9485,
      "▁ass": 9486,
      "Hotels.com": 9487,
      "ratis": 9488,
      "▁Peter": 9489,
      "▁utrust": 9490,
      "ften": 9491,
      "▁gällande": 9492,
      "▁försvar": 9493,
      "▁neg": 9494,
      "▁läkemedel": 9495,
      "▁mjöl": 9496,
      "▁san": 9497,
      "13": 9498,
      "▁prote": 9499,
      "▁nr": 9500,
      "▁dejtingsidor": 9501,
      "▁lopp": 9502,
      "dering": 9503,
      "uten": 9504,
      "sr": 9505,
      "▁histori": 9506,
      "hav": 9507,
      "▁back": 9508,
      "▁amb": 9509,
      "her": 9510,
      "▁berätta": 9511,
      "▁patienter": 9512,
      "▁mej": 9513,
      "värt": 9514,
      "Se": 9515,
      "▁brev": 9516,
      "▁intervju": 9517,
      "sområ": 9518,
      "▁80": 9519,
      "▁hittade": 9520,
      "▁arm": 9521,
      "▁rapport": 9522,
      "▁detta.": 9523,
      "iot": 9524,
      "▁mig,": 9525,
      "▁Varje": 9526,
      "▁bord": 9527,
      "▁Hen": 9528,
      "ädda": 9529,
      "▁föräldrar": 9530,
      "istiska": 9531,
      "▁resenärer": 9532,
      "stav": 9533,
      "▁SM": 9534,
      "▁fir": 9535,
      "▁dels": 9536,
      "jan": 9537,
      "porter": 9538,
      "kast": 9539,
      "▁kommande": 9540,
      "▁röd": 9541,
      "ula": 9542,
      "▁Två": 9543,
      "▁tidig": 9544,
      "inder": 9545,
      "▁dåligt": 9546,
      "ona": 9547,
      "▁drog": 9548,
      "givare": 9549,
      "▁Företag": 9550,
      "▁Dat": 9551,
      "äls": 9552,
      "▁Tre": 9553,
      "▁Helsing": 9554,
      "abl": 9555,
      "▁ägg": 9556,
      "kopp": 9557,
      "▁drar": 9558,
      "en!": 9559,
      "▁IN": 9560,
      "▁Land": 9561,
      "df": 9562,
      "▁Mart": 9563,
      "▁hållbar": 9564,
      "el,": 9565,
      "CH": 9566,
      "▁är.": 9567,
      "ämm": 9568,
      "▁Hol": 9569,
      "▁tidigt": 9570,
      "gården": 9571,
      "▁vinna": 9572,
      "▁forskning": 9573,
      "80": 9574,
      "öns": 9575,
      "rika": 9576,
      "ross": 9577,
      "antag": 9578,
      "▁trevlig": 9579,
      "orlunda": 9580,
      "EL": 9581,
      "▁specif": 9582,
      "▁nag": 9583,
      "OM": 9584,
      "▁triv": 9585,
      "▁rym": 9586,
      "▁Hotels.com": 9587,
      "▁enhet": 9588,
      "▁as": 9589,
      "▁nord": 9590,
      "ödra": 9591,
      "▁billig": 9592,
      "trem": 9593,
      "▁kompis": 9594,
      "▁grön": 9595,
      "ätta": 9596,
      "▁regeringen": 9597,
      "▁original": 9598,
      "▁ev": 9599,
      "ändska": 9600,
      "▁bekväm": 9601,
      "jälp": 9602,
      "▁nu,": 9603,
      "▁Park": 9604,
      "säg": 9605,
      "▁tankar": 9606,
      "▁nöjd": 9607,
      "▁ne": 9608,
      "atch": 9609,
      "▁Ham": 9610,
      "▁yn": 9611,
      "▁påverkar": 9612,
      "istik": 9613,
      "slös": 9614,
      "▁av.": 9615,
      "▁fönster": 9616,
      "stra": 9617,
      "▁ST": 9618,
      "arr": 9619,
      "▁styck": 9620,
      "▁maskinöversatts": 9621,
      "▁utmärkt": 9622,
      "▁poj": 9623,
      "▁jämfört": 9624,
      "▁lugn": 9625,
      "▁Swed": 9626,
      "▁viktigaste": 9627,
      "▁skäl": 9628,
      "ogle": 9629,
      "usen": 9630,
      "skan": 9631,
      "▁helgen": 9632,
      "▁däremot": 9633,
      "astighet": 9634,
      "ire": 9635,
      "klam": 9636,
      "pack": 9637,
      "▁ang": 9638,
      "AL": 9639,
      "ickade": 9640,
      "▁fotograf": 9641,
      "EJ": 9642,
      "ningen,": 9643,
      "▁tis": 9644,
      "AS": 9645,
      "edd": 9646,
      "▁förbättra": 9647,
      "▁gymnas": 9648,
      "ESS": 9649,
      "▁guld": 9650,
      "▁Kontakt": 9651,
      "▁ställer": 9652,
      "▁familjen": 9653,
      "▁förstås": 9654,
      "▁ändring": 9655,
      "trakt": 9656,
      "▁höj": 9657,
      "▁vir": 9658,
      "▁Finns": 9659,
      "▁kr.": 9660,
      "imm": 9661,
      "ustr": 9662,
      "67": 9663,
      "▁personliga": 9664,
      "Vi": 9665,
      "▁08": 9666,
      "▁Anmäl": 9667,
      "arens": 9668,
      "▁bev": 9669,
      "▁sjun": 9670,
      "▁Bygg": 9671,
      "stitut": 9672,
      "▁(M": 9673,
      "▁Mitt": 9674,
      "▁handla": 9675,
      "ansen": 9676,
      "▁kommuna": 9677,
      "▁tillgängliga": 9678,
      "▁lyckas": 9679,
      "▁sist": 9680,
      "nes": 9681,
      "ills": 9682,
      "▁sommaren": 9683,
      "w.": 9684,
      "▁kvart": 9685,
      "▁Hoppas": 9686,
      "▁inred": 9687,
      "us.": 9688,
      "▁yt": 9689,
      "▁leda": 9690,
      "▁rö": 9691,
      "▁ill": 9692,
      "▁Stud": 9693,
      "ament": 9694,
      "▁Trots": 9695,
      "▁70": 9696,
      "▁gravid": 9697,
      "IG": 9698,
      "rala": 9699,
      "-l": 9700,
      "färd": 9701,
      "▁hemsida": 9702,
      "elat": 9703,
      "▁någonsin": 9704,
      "▁ång": 9705,
      "▁ko": 9706,
      "▁regering": 9707,
      "▁ursprung": 9708,
      "▁Frank": 9709,
      "▁lagen": 9710,
      "da,": 9711,
      "▁villkor": 9712,
      "ierna": 9713,
      "▁trodde": 9714,
      "ligheter": 9715,
      "▁inkluder": 9716,
      "▁San": 9717,
      "▁badrum": 9718,
      "▁utrym": 9719,
      "tryck": 9720,
      "delen": 9721,
      "-st": 9722,
      "25": 9723,
      "▁Stad": 9724,
      "▁Fortsätt": 9725,
      "arder": 9726,
      "sting": 9727,
      "▁ses": 9728,
      "▁band": 9729,
      "▁diskuss": 9730,
      "▁www": 9731,
      "kohol": 9732,
      "vakt": 9733,
      "▁2,": 9734,
      "▁Tänk": 9735,
      "sg": 9736,
      "▁kött": 9737,
      "▁Ka": 9738,
      "▁kat": 9739,
      "osition": 9740,
      "▁rent": 9741,
      "▁tand": 9742,
      "▁Fram": 9743,
      ".)": 9744,
      "▁Bara": 9745,
      "▁slipp": 9746,
      "▁Fär": 9747,
      "▁blog": 9748,
      ":e": 9749,
      "▁mängd": 9750,
      "▁slå": 9751,
      "maskin": 9752,
      "▁han.": 9753,
      "▁etc": 9754,
      "▁starkt": 9755,
      "▁fantastiskt": 9756,
      "▁ba": 9757,
      "igur": 9758,
      "▁politik": 9759,
      "istor": 9760,
      "▁fritid": 9761,
      "ostnad": 9762,
      "▁ordent": 9763,
      "▁Lars": 9764,
      "▁käll": 9765,
      "▁IT": 9766,
      ":3": 9767,
      "▁vind": 9768,
      "▁bra,": 9769,
      "▁tillstånd": 9770,
      "▁Pr": 9771,
      "visor": 9772,
      "ationell": 9773,
      "-post": 9774,
      "▁ständ": 9775,
      "visning": 9776,
      "p://": 9777,
      "yter": 9778,
      "▁välj": 9779,
      "▁cookies": 9780,
      "▁betydligt": 9781,
      "▁hård": 9782,
      "ötsligt": 9783,
      "▁vore": 9784,
      "▁Christ": 9785,
      "onn": 9786,
      "▁publ": 9787,
      "▁kurs": 9788,
      "gren": 9789,
      "ologiska": 9790,
      "räff": 9791,
      "▁kommunikation": 9792,
      "▁motor": 9793,
      "▁s.": 9794,
      "▁tydligt": 9795,
      "▁därefter": 9796,
      "▁gäst": 9797,
      "▁böcker": 9798,
      "iebolag": 9799,
      "ola": 9800,
      "▁Ans": 9801,
      "▁Rewards": 9802,
      "het,": 9803,
      "aljer": 9804,
      "▁säm": 9805,
      "nummer": 9806,
      "▁Mal": 9807,
      "ilt": 9808,
      "lig.": 9809,
      "anda": 9810,
      "elt": 9811,
      "▁närmare": 9812,
      "stift": 9813,
      "▁nej": 9814,
      "▁konkurr": 9815,
      "7.": 9816,
      "lo": 9817,
      "▁Red": 9818,
      "ici": 9819,
      "pren": 9820,
      "För": 9821,
      "▁spelade": 9822,
      "▁Post": 9823,
      "ställd": 9824,
      "▁drygt": 9825,
      "▁boll": 9826,
      "cin": 9827,
      "is.": 9828,
      "▁äter": 9829,
      "▁dyg": 9830,
      "riär": 9831,
      "▁inklusive": 9832,
      "▁planera": 9833,
      "▁självklart": 9834,
      "▁omdömet": 9835,
      "▁Lu": 9836,
      "änning": 9837,
      "ffr": 9838,
      "▁upp.": 9839,
      "ID": 9840,
      "▁Vet": 9841,
      "▁Matt": 9842,
      "▁tillämp": 9843,
      "▁mesta": 9844,
      "▁automat": 9845,
      "▁karakt": 9846,
      "▁vinst": 9847,
      "▁mer.": 9848,
      "▁mäng": 9849,
      "▁Nya": 9850,
      "▁ihåg": 9851,
      "2,": 9852,
      "▁Dom": 9853,
      "minst": 9854,
      "ering,": 9855,
      "utveckling": 9856,
      "▁tråd": 9857,
      "▁Cent": 9858,
      "21": 9859,
      "klubb": 9860,
      "▁snö": 9861,
      "hang": 9862,
      "▁huset": 9863,
      "70": 9864,
      "▁norr": 9865,
      "▁Sund": 9866,
      "▁regler": 9867,
      "▁Bor": 9868,
      "▁platser": 9869,
      "srum": 9870,
      "▁Maria": 9871,
      "▁område": 9872,
      "▁Sven": 9873,
      "▁matt": 9874,
      "▁djup": 9875,
      "fors": 9876,
      "umenter": 9877,
      "eringar": 9878,
      "räd": 9879,
      "brik": 9880,
      "▁Fråg": 9881,
      "▁önskar": 9882,
      "▁kvällen": 9883,
      "▁Social": 9884,
      "▁fantastisk": 9885,
      "rim": 9886,
      "▁www.": 9887,
      "▁genomsnitt": 9888,
      "▁utvecklas": 9889,
      "▁yrkes": 9890,
      "▁vuxna": 9891,
      "▁jour": 9892,
      "▁sikt": 9893,
      "es,": 9894,
      "▁avsnitt": 9895,
      "▁näring": 9896,
      "▁Ibland": 9897,
      "▁erbjudanden": 9898,
      "▁timm": 9899,
      "arie": 9900,
      "ansvar": 9901,
      "system": 9902,
      "▁staden": 9903,
      "ka,": 9904,
      "▁bro": 9905,
      "▁mjuk": 9906,
      "▁politiska": 9907,
      "▁föresl": 9908,
      "um.": 9909,
      "▁billigt": 9910,
      "▁Folk": 9911,
      "▁(3": 9912,
      "tter": 9913,
      "åter": 9914,
      "▁tänk": 9915,
      "ionde": 9916,
      "skrivning": 9917,
      "styrelsen": 9918,
      "uth": 9919,
      "▁Im": 9920,
      "...]": 9921,
      "add": 9922,
      "ho": 9923,
      "▁saknar": 9924,
      "▁kyl": 9925,
      "▁data": 9926,
      "ydda": 9927,
      "▁flytta": 9928,
      "troll": 9929,
      "▁verksamheten": 9930,
      "▁Sand": 9931,
      "▁uppn": 9932,
      "▁Andra": 9933,
      "▁sorter": 9934,
      "ele": 9935,
      "▁Kung": 9936,
      "▁övrigt": 9937,
      "▁he": 9938,
      "▁talar": 9939,
      "▁stabil": 9940,
      "▁områd": 9941,
      "▁tuff": 9942,
      "▁välkom": 9943,
      "Mer": 9944,
      "▁scen": 9945,
      "▁<": 9946,
      "▁casin": 9947,
      "▁ont": 9948,
      "▁ligga": 9949,
      "▁utnytt": 9950,
      "▁Mål": 9951,
      "▁imorgon": 9952,
      "▁lärare": 9953,
      "ologi": 9954,
      "lan": 9955,
      "behör": 9956,
      "▁det?": 9957,
      "▁osv": 9958,
      "▁ingent": 9959,
      "orge": 9960,
      "▁standard": 9961,
      "▁Stockholm.": 9962,
      "tligen": 9963,
      "▁brand": 9964,
      "▁kronor.": 9965,
      "▁köper": 9966,
      "▁kändes": 9967,
      "▁ökad": 9968,
      "▁Vin": 9969,
      "alet": 9970,
      "▁vars": 9971,
      "sprogram": 9972,
      "▁princip": 9973,
      "bas": 9974,
      "▁klicka": 9975,
      "0-talet": 9976,
      "omas": 9977,
      "▁4,": 9978,
      "hy": 9979,
      "▁nyck": 9980,
      "land,": 9981,
      "▁central": 9982,
      "▁jur": 9983,
      "arv": 9984,
      "skomm": 9985,
      "▁Först": 9986,
      "▁förh": 9987,
      "ign": 9988,
      "▁Gratis": 9989,
      "▁lämnar": 9990,
      "met.": 9991,
      "▁grän": 9992,
      "▁studie": 9993,
      "ftet": 9994,
      "▁marknadsför": 9995,
      "▁?": 9996,
      "▁45": 9997,
      "4,": 9998,
      "läs": 9999,
      "▁prest": 10000,
      "▁Vilken": 10001,
      "larna": 10002,
      "▁glob": 10003,
      "▁analys": 10004,
      "▁Ek": 10005,
      "dustr": 10006,
      "▁fantastiska": 10007,
      "ista": 10008,
      "▁Ind": 10009,
      "börj": 10010,
      "kam": 10011,
      "▁värd": 10012,
      "aller": 10013,
      "▁internationella": 10014,
      "▁dusch": 10015,
      "lor": 10016,
      "bör": 10017,
      "▁åsikt": 10018,
      "us,": 10019,
      "▁bevis": 10020,
      "▁Nr": 10021,
      "▁Inne": 10022,
      "▁situation": 10023,
      "▁lju": 10024,
      "▁matchen": 10025,
      "▁borta": 10026,
      "/0": 10027,
      "▁stjärnor": 10028,
      "ssystem": 10029,
      "änkt": 10030,
      "-01": 10031,
      "produkt": 10032,
      "90": 10033,
      "▁Fredrik": 10034,
      "ostäder": 10035,
      "▁görs": 10036,
      "klass": 10037,
      "icy": 10038,
      "▁seg": 10039,
      "ometer": 10040,
      "▁balans": 10041,
      "▁dest": 10042,
      "ve": 10043,
      "släpp": 10044,
      "▁bestämm": 10045,
      "▁accep": 10046,
      "▁öppen": 10047,
      "▁polisen": 10048,
      "▁fung": 10049,
      "▁naturligtvis": 10050,
      "▁sål": 10051,
      "▁Tysk": 10052,
      "www.": 10053,
      "rister": 10054,
      "▁Lite": 10055,
      "▁uppg": 10056,
      "▁musk": 10057,
      "DRESS": 10058,
      "▁berör": 10059,
      "pla": 10060,
      "▁barn.": 10061,
      "▁kommentarer": 10062,
      "Hotels.comTM": 10063,
      "▁kre": 10064,
      "▁äntligen": 10065,
      "▁sim": 10066,
      "▁Inn": 10067,
      "-S": 10068,
      "dex": 10069,
      "ds": 10070,
      "▁skjut": 10071,
      "▁Sport": 10072,
      "▁mod": 10073,
      "fan": 10074,
      "qvist": 10075,
      "▁demokrat": 10076,
      "▁antingen": 10077,
      "▁extrem": 10078,
      "ion,": 10079,
      "▁fe": 10080,
      "▁flick": 10081,
      "▁\"S": 10082,
      "ual": 10083,
      "▁Våra": 10084,
      "rebro": 10085,
      "ordning": 10086,
      "▁dukt": 10087,
      "▁kolleg": 10088,
      "▁pratar": 10089,
      "▁lista": 10090,
      "▁IF": 10091,
      "▁Några": 10092,
      "ekvens": 10093,
      "▁härlig": 10094,
      "▁på,": 10095,
      "▁Välj": 10096,
      "▁Din": 10097,
      "mun": 10098,
      "färg": 10099,
      "65": 10100,
      "▁3,": 10101,
      "ifierade": 10102,
      "▁flygplats": 10103,
      "Ad": 10104,
      "▁Låt": 10105,
      "▁bl.": 10106,
      "▁vänta": 10107,
      "TE": 10108,
      "▁rejäl": 10109,
      "EJLA": 10110,
      "▁kontor": 10111,
      "▁sjukhus": 10112,
      "kläder": 10113,
      "EJLADRESS": 10114,
      "▁Fal": 10115,
      "▁dyr": 10116,
      "▁Kr": 10117,
      "▁Jes": 10118,
      "andring": 10119,
      "▁torsdag": 10120,
      "▁Kin": 10121,
      "▁arg": 10122,
      "▁alkohol": 10123,
      "▁användning": 10124,
      "åda": 10125,
      "ministr": 10126,
      "▁träna": 10127,
      "-)": 10128,
      "▁Uppsala": 10129,
      "▁OK": 10130,
      "▁sig,": 10131,
      "▁Bli": 10132,
      "▁ledande": 10133,
      "▁avst": 10134,
      "änta": 10135,
      "▁njuta": 10136,
      "▁bem": 10137,
      "arn": 10138,
      "is,": 10139,
      "AD": 10140,
      "▁transport": 10141,
      "▁funn": 10142,
      "äkerhet": 10143,
      "▁ry": 10144,
      "▁Klicka": 10145,
      "▁mg": 10146,
      "son": 10147,
      "▁profil": 10148,
      "▁undvika": 10149,
      "SK": 10150,
      ":5": 10151,
      "▁hantera": 10152,
      "▁Hus": 10153,
      "lim": 10154,
      "▁pappa": 10155,
      "▁knappt": 10156,
      "tekn": 10157,
      "▁Natur": 10158,
      "▁Ros": 10159,
      "ia.": 10160,
      "▁läge": 10161,
      "▁mänsk": 10162,
      "▁Ob": 10163,
      "tik": 10164,
      "▁populära": 10165,
      "duc": 10166,
      "▁[...]": 10167,
      "▁skrevs": 10168,
      "▁gat": 10169,
      "▁bröst": 10170,
      "Få": 10171,
      "▁utgång": 10172,
      "▁sidor": 10173,
      "▁spara": 10174,
      "▁annorlunda": 10175,
      "▁omedel": 10176,
      "allen": 10177,
      "▁givet": 10178,
      "ig,": 10179,
      "▁filmen": 10180,
      "stat": 10181,
      "▁tiden.": 10182,
      "eningen": 10183,
      "▁tråk": 10184,
      "▁Namn": 10185,
      "▁priset": 10186,
      "bum": 10187,
      "gj": 10188,
      "▁underl": 10189,
      "vers": 10190,
      "stor": 10191,
      "▁tittar": 10192,
      "▁lager": 10193,
      "▁gill": 10194,
      "▁budget": 10195,
      "▁etabl": 10196,
      "lingen": 10197,
      "▁resten": 10198,
      "zz": 10199,
      "▁choklad": 10200,
      "ien.": 10201,
      "▁lägen": 10202,
      "året": 10203,
      "▁stockholm": 10204,
      "▁Bästa": 10205,
      "▁Com": 10206,
      "▁Foto:": 10207,
      "▁valde": 10208,
      "▁värm": 10209,
      "▁herr": 10210,
      "▁historia": 10211,
      "minstone": 10212,
      "▁mår": 10213,
      "▁konf": 10214,
      "▁lagt": 10215,
      "bert": 10216,
      "ancer": 10217,
      "▁datorn": 10218,
      "inge": 10219,
      "▁lo": 10220,
      "▁Bro": 10221,
      "▁känd": 10222,
      "▁perfekta": 10223,
      "▁leverans": 10224,
      "▁utform": 10225,
      "ämför": 10226,
      "▁mail": 10227,
      "▁sälja": 10228,
      "▁besökare": 10229,
      "▁undrar": 10230,
      "ården": 10231,
      "▁lans": 10232,
      "▁omdöme": 10233,
      "▁mera": 10234,
      "ckar": 10235,
      "8.": 10236,
      "▁kunska": 10237,
      "p.": 10238,
      "▁söm": 10239,
      "▁kass": 10240,
      "▁lösa": 10241,
      "NING": 10242,
      "kommer": 10243,
      "▁förutom": 10244,
      "▁ges": 10245,
      "nämn": 10246,
      "▁vist": 10247,
      "▁slog": 10248,
      "irekt": 10249,
      "berg,": 10250,
      "▁reklam": 10251,
      "▁Örebro": 10252,
      "fot": 10253,
      "▁Her": 10254,
      "▁objekt": 10255,
      "▁syfte": 10256,
      "▁5.": 10257,
      "▁plast": 10258,
      "▁högst": 10259,
      "▁Lag": 10260,
      "SS": 10261,
      "kör": 10262,
      "▁vita": 10263,
      "natt*": 10264,
      "▁;)": 10265,
      "▁hittat": 10266,
      "ific": 10267,
      "▁dålig": 10268,
      "▁🙂": 10269,
      "vägen": 10270,
      "▁kallade": 10271,
      "ategori": 10272,
      "▁för.": 10273,
      "▁bekr": 10274,
      "▁terr": 10275,
      "▁straff": 10276,
      "ax": 10277,
      "▁liv.": 10278,
      "▁Jön": 10279,
      "ream": 10280,
      "▁free": 10281,
      "▁fö": 10282,
      "▁plus": 10283,
      "▁Magn": 10284,
      "▁relig": 10285,
      "▁dis": 10286,
      "1,": 10287,
      "▁vinn": 10288,
      "▁cyk": 10289,
      "▁anses": 10290,
      "Ut": 10291,
      "▁vacker": 10292,
      "bergs": 10293,
      "bell": 10294,
      "erier": 10295,
      "hel": 10296,
      "▁vol": 10297,
      "sbolag": 10298,
      "▁klarar": 10299,
      "▁visste": 10300,
      "▁lyckades": 10301,
      "ungen": 10302,
      "ricka": 10303,
      "▁varumär": 10304,
      "urser": 10305,
      "emat": 10306,
      "▁Fri": 10307,
      "▁tillåt": 10308,
      "▁nåt": 10309,
      "shus": 10310,
      "▁inl": 10311,
      "▁deb": 10312,
      "▁någont": 10313,
      "▁skola": 10314,
      "iteter": 10315,
      "troende": 10316,
      "▁åtta": 10317,
      "▁Sätt": 10318,
      "▁Gam": 10319,
      "▁sång": 10320,
      "sjö": 10321,
      "▁plats.": 10322,
      "▁antag": 10323,
      "park": 10324,
      "▁lock": 10325,
      "▁nätverk": 10326,
      "▁starka": 10327,
      "▁promenad": 10328,
      "▁e-": 10329,
      "oriter": 10330,
      "ligt,": 10331,
      "▁sverige": 10332,
      "▁golv": 10333,
      "elsens": 10334,
      "▁starta": 10335,
      "arknad": 10336,
      "▁bidra": 10337,
      "▁konto": 10338,
      "▁hösten": 10339,
      "▁rolig": 10340,
      "▁MEJLADRESS": 10341,
      "▁intresserad": 10342,
      "▁efterm": 10343,
      "lar.": 10344,
      "ier.": 10345,
      "▁prova": 10346,
      "▁onsdag": 10347,
      "rande": 10348,
      "▁Igår": 10349,
      "▁Svensk": 10350,
      "▁sub": 10351,
      "▁regn": 10352,
      "▁växt": 10353,
      "▁visas": 10354,
      "▁Sök": 10355,
      "minister": 10356,
      "RO": 10357,
      "▁svara": 10358,
      "▁sannol": 10359,
      "fton": 10360,
      "▁amerikanska": 10361,
      "▁släkt": 10362,
      "▁dejtingsida": 10363,
      "▁nuvarande": 10364,
      "▁tionde": 10365,
      "ostnader": 10366,
      "▁mening": 10367,
      "▁Sta": 10368,
      "▁gång.": 10369,
      "▁häv": 10370,
      "▁plötsligt": 10371,
      "▁vetenskap": 10372,
      "▁tung": 10373,
      "▁värme": 10374,
      "▁nyf": 10375,
      "3,": 10376,
      "▁städ": 10377,
      "▁paket": 10378,
      "▁fett": 10379,
      "aren.": 10380,
      "▁Bild": 10381,
      "▁varmt": 10382,
      "22": 10383,
      "▁sluta": 10384,
      "▁myck": 10385,
      "▁struktur": 10386,
      "aker": 10387,
      "blick": 10388,
      "▁takt": 10389,
      "▁passa": 10390,
      "▁satte": 10391,
      "▁$": 10392,
      "uts": 10393,
      "liggör": 10394,
      "▁kast": 10395,
      "▁Lägg": 10396,
      "▁ras": 10397,
      "▁rev": 10398,
      "▁inform": 10399,
      "▁skickade": 10400,
      "peiska": 10401,
      "▁modern": 10402,
      "▁Lar": 10403,
      "ats.": 10404,
      "▁gett": 10405,
      "▁onlin": 10406,
      "▁himla": 10407,
      "▁Dav": 10408,
      "▁mun": 10409,
      "rang": 10410,
      "mäss": 10411,
      "organis": 10412,
      "▁finner": 10413,
      "ior": 10414,
      "▁utsikt": 10415,
      "▁anställda": 10416,
      "▁såklart": 10417,
      "▁människa": 10418,
      "____": 10419,
      "▁normalt": 10420,
      ":0": 10421,
      "▁medborg": 10422,
      "▁SK": 10423,
      "▁mottag": 10424,
      "▁Rom": 10425,
      "▁möjligheten": 10426,
      "ulla": 10427,
      "▁älska": 10428,
      "▁smart": 10429,
      "▁väst": 10430,
      "own": 10431,
      "▁Ital": 10432,
      "åå": 10433,
      "▁debatt": 10434,
      "▁Dam": 10435,
      "▁föred": 10436,
      "▁säljer": 10437,
      "▁bonusnatt*": 10438,
      "▁Dock": 10439,
      "▁namnet": 10440,
      "▁Äl": 10441,
      "▁(som": 10442,
      "uta": 10443,
      "sbe": 10444,
      "öllop": 10445,
      "▁bolaget": 10446,
      "▁gäng": 10447,
      "▁Trip": 10448,
      "▁ir": 10449,
      "▁Tim": 10450,
      "▁relativt": 10451,
      "▁räcker": 10452,
      "odligen": 10453,
      "al,": 10454,
      "ogen": 10455,
      "mor": 10456,
      "ningst": 10457,
      "jänsten": 10458,
      "▁plocka": 10459,
      "▁omgiv": 10460,
      "▁miljarder": 10461,
      "▁Lond": 10462,
      "▁last": 10463,
      "indow": 10464,
      "oth": 10465,
      "▁my": 10466,
      "▁strand": 10467,
      "▁Resultat": 10468,
      "▁kra": 10469,
      "▁göras": 10470,
      "▁korrekt": 10471,
      "75": 10472,
      "▁Met": 10473,
      "▁soff": 10474,
      "meå": 10475,
      "▁funkar": 10476,
      "frågan": 10477,
      "de,": 10478,
      "itekt": 10479,
      "ningsk": 10480,
      "▁temperatur": 10481,
      "nivå": 10482,
      "▁Ra": 10483,
      "▁färger": 10484,
      "kass": 10485,
      "▁installer": 10486,
      "▁riktig": 10487,
      "ower": 10488,
      "▁Svar": 10489,
      "hög": 10490,
      "▁Ur": 10491,
      "▁möjliga": 10492,
      "▁Information": 10493,
      "polit": 10494,
      "▁Ins": 10495,
      "▁video": 10496,
      "agra": 10497,
      "▁med,": 10498,
      "här": 10499,
      "ikro": 10500,
      "▁Fre": 10501,
      "▁http://": 10502,
      "▁avsl": 10503,
      "IF": 10504,
      "nu": 10505,
      "▁laget": 10506,
      "▁Vilka": 10507,
      "▁övert": 10508,
      "ICK": 10509,
      ":4": 10510,
      "▁honom.": 10511,
      "ster.": 10512,
      "▁servic": 10513,
      "skning": 10514,
      "ise": 10515,
      "▁lyssna": 10516,
      "▁närmaste": 10517,
      "▁initi": 10518,
      "gl": 10519,
      "▁Sal": 10520,
      "smål": 10521,
      "▁besöka": 10522,
      "vit": 10523,
      "▁pen": 10524,
      "▁Hos": 10525,
      "▁fack": 10526,
      "▁shopp": 10527,
      "ektion": 10528,
      "▁fött": 10529,
      "▁Må": 10530,
      "sköter": 10531,
      "▁längs": 10532,
      "▁centrala": 10533,
      "▁ladda": 10534,
      "ja,": 10535,
      "24": 10536,
      "oga": 10537,
      "skapet": 10538,
      "lit": 10539,
      "eff": 10540,
      "ulär": 10541,
      "▁kända": 10542,
      "▁kategor": 10543,
      "▁stig": 10544,
      "▁kaffe": 10545,
      "▁300": 10546,
      "resa": 10547,
      "▁Ab": 10548,
      "tv": 10549,
      "▁Kat": 10550,
      "skri": 10551,
      "▁beställa": 10552,
      "slaget": 10553,
      "värm": 10554,
      "▁jakt": 10555,
      "▁stats": 10556,
      "▁öppet": 10557,
      "▁optim": 10558,
      "6,": 10559,
      "l.": 10560,
      "▁York": 10561,
      "tur": 10562,
      "träd": 10563,
      "▁visat": 10564,
      "▁relation": 10565,
      "▁Vissa": 10566,
      "▁ström": 10567,
      "▁qu": 10568,
      "▁pröv": 10569,
      "enskt": 10570,
      "▁frisk": 10571,
[...]
