{
  "version": "1.0",
  "truncation": null,
  "padding": null,
  "added_tokens": [
    {
      "id": 0,
      "content": "[PAD]",
      "single_word": false,
      "lstrip": false,
      "rstrip": false,
      "normalized": false,
      "special": true
    },
    {
      "id": 1,
      "content": "[UNK]",
      "single_word": false,
      "lstrip": false,
      "rstrip": false,
      "normalized": false,
      "special": true
    },
    {
      "id": 2,
      "content": "[MASK]",
      "single_word": false,
      "lstrip": false,
      "rstrip": false,
      "normalized": false,
      "special": true
    },
    {
      "id": 3,
      "content": "[CLS]",
      "single_word": false,
      "lstrip": false,
      "rstrip": false,
      "normalized": false,
      "special": true
    },
    {
      "id": 4,
      "content": "[SEP]",
      "single_word": false,
      "lstrip": false,
      "rstrip": false,
      "normalized": false,
      "special": true
    }
  ],
  "normalizer": {
    "type": "Sequence",
    "normalizers": [
      {
        "type": "Nmt"
      },
      {
        "type": "NFKC"
      },
      {
        "type": "Replace",
        "pattern": {
          "Regex": " {2,}"
        },
        "content": " "
      }
    ]
  },
  "pre_tokenizer": {
    "type": "Sequence",
    "pretokenizers": [
      {
        "type": "Metaspace",
        "replacement": "▁",
        "add_prefix_space": true
      },
      {
        "type": "Split",
        "pattern": {
          "Regex": "\\d"
        },
        "behavior": "MergedWithPrevious",
        "invert": false
      },
      {
        "type": "Punctuation",
        "behavior": "Isolated"
      }
    ]
  },
  "post_processor": {
    "type": "TemplateProcessing",
    "single": [
      {
        "SpecialToken": {
          "id": "[CLS]",
          "type_id": 0
        }
      },
      {
        "Sequence": {
          "id": "A",
          "type_id": 0
        }
      },
      {
        "SpecialToken": {
          "id": "[SEP]",
          "type_id": 0
        }
      }
    ],
    "pair": [
      {
        "SpecialToken": {
          "id": "[CLS]",
          "type_id": 0
        }
      },
      {
        "Sequence": {
          "id": "A",
          "type_id": 0
        }
      },
      {
        "SpecialToken": {
          "id": "[SEP]",
          "type_id": 0
        }
      },
      {
        "Sequence": {
          "id": "B",
          "type_id": 1
        }
      },
      {
        "SpecialToken": {
          "id": "[SEP]",
          "type_id": 1
        }
      }
    ],
    "special_tokens": {
      "[CLS]": {
        "id": "[CLS]",
        "ids": [
          3
        ],
        "tokens": [
          "[CLS]"
        ]
      },
      "[SEP]": {
        "id": "[SEP]",
        "ids": [
          4
        ],
        "tokens": [
          "[SEP]"
        ]
      }
    }
  },
  "decoder": {
    "type": "Metaspace",
    "replacement": "▁",
    "add_prefix_space": true
  },
  "model": {
    "type": "BPE",
    "dropout": null,
    "unk_token": null,
    "continuing_subword_prefix": null,
    "end_of_word_suffix": null,
    "fuse_unk": false,
    "vocab": {
      "[PAD]": 0,
      "[UNK]": 1,
      "[MASK]": 2,
      "[CLS]": 3,
      "[SEP]": 4,
      "\u0000": 5,
      "!": 6,
      "\"": 7,
      "#": 8,
      "$": 9,
      "%": 10,
      "&": 11,
      "'": 12,
      "(": 13,
      ")": 14,
      "*": 15,
      "+": 16,
      ",": 17,
      "-": 18,
      ".": 19,
      "/": 20,
      "0": 21,
      "1": 22,
      "2": 23,
      "3": 24,
      "4": 25,
      "5": 26,
      "6": 27,
      "7": 28,
      "8": 29,
      "9": 30,
      ":": 31,
      ";": 32,
      "<": 33,
      "=": 34,
      ">": 35,
      "?": 36,
      "@": 37,
      "A": 38,
      "B": 39,
      "C": 40,
      "D": 41,
      "E": 42,
      "F": 43,
      "G": 44,
      "H": 45,
      "I": 46,
      "J": 47,
      "K": 48,
      "L": 49,
      "M": 50,
      "N": 51,
      "O": 52,
      "P": 53,
      "Q": 54,
      "R": 55,
      "S": 56,
      "T": 57,
      "U": 58,
      "V": 59,
      "W": 60,
      "X": 61,
      "Y": 62,
      "Z": 63,
      "[": 64,
      "\\": 65,
      "]": 66,
      "^": 67,
      "_": 68,
      "`": 69,
      "a": 70,
      "b": 71,
      "c": 72,
      "d": 73,
      "e": 74,
      "f": 75,
      "g": 76,
      "h": 77,
      "i": 78,
      "j": 79,
      "k": 80,
      "l": 81,
      "m": 82,
      "n": 83,
      "o": 84,
      "p": 85,
      "q": 86,
      "r": 87,
      "s": 88,
      "t": 89,
      "u": 90,
      "v": 91,
      "w": 92,
      "x": 93,
      "y": 94,
      "z": 95,
      "{": 96,
      "|": 97,
      "}": 98,
      "~": 99,
      "": 100,
      "": 101,
      "": 102,
      "": 103,
      "": 104,
      "": 105,
      "": 106,
      "": 107,
      "": 108,
      "": 109,
      "": 110,
      "": 111,
      "": 112,
      "": 113,
      "": 114,
      "": 115,
      "": 116,
      "": 117,
      "": 118,
      "": 119,
      "": 120,
      "": 121,
      "": 122,
      "¡": 123,
      "¢": 124,
      "£": 125,
      "¤": 126,
      "¥": 127,
      "¦": 128,
      "§": 129,
      "©": 130,
      "«": 131,
      "¬": 132,
      "­": 133,
      "®": 134,
      "°": 135,
      "±": 136,
      "¶": 137,
      "·": 138,
      "»": 139,
      "¿": 140,
      "À": 141,
      "Á": 142,
      "Â": 143,
      "Ã": 144,
      "Ä": 145,
      "Å": 146,
      "Æ": 147,
      "Ç": 148,
      "È": 149,
      "É": 150,
      "Ê": 151,
      "Ë": 152,
      "Ì": 153,
      "Í": 154,
      "Î": 155,
      "Ï": 156,
      "Ð": 157,
      "Ñ": 158,
      "Ò": 159,
      "Ó": 160,
      "Ô": 161,
      "Õ": 162,
      "Ö": 163,
      "×": 164,
      "Ø": 165,
      "Ù": 166,
      "Ú": 167,
      "Û": 168,
      "Ü": 169,
      "Ý": 170,
      "Þ": 171,
      "ß": 172,
      "à": 173,
      "á": 174,
      "â": 175,
      "ã": 176,
      "ä": 177,
      "å": 178,
      "æ": 179,
      "ç": 180,
      "è": 181,
      "é": 182,
      "ê": 183,
      "ë": 184,
      "ì": 185,
      "í": 186,
      "î": 187,
      "ï": 188,
      "ð": 189,
      "ñ": 190,
      "ò": 191,
      "ó": 192,
      "ô": 193,
      "õ": 194,
      "ö": 195,
      "÷": 196,
      "ø": 197,
      "ù": 198,
      "ú": 199,
      "û": 200,
      "ü": 201,
      "ý": 202,
      "þ": 203,
      "ÿ": 204,
      "Ā": 205,
      "ā": 206,
      "Ă": 207,
      "ă": 208,
      "Ą": 209,
      "ą": 210,
      "Ć": 211,
      "ć": 212,
      "ĉ": 213,
      "ċ": 214,
      "Č": 215,
      "č": 216,
      "ď": 217,
      "Đ": 218,
      "đ": 219,
      "Ē": 220,
      "ē": 221,
      "ĕ": 222,
      "Ė": 223,
      "ė": 224,
      "Ę": 225,
      "ę": 226,
      "Ě": 227,
      "ě": 228,
      "ĝ": 229,
      "ğ": 230,
      "Ġ": 231,
      "ġ": 232,
      "Ģ": 233,
      "ģ": 234,
      "ĥ": 235,
      "ħ": 236,
      "ĩ": 237,
      "Ī": 238,
      "ī": 239,
      "ĭ": 240,
      "Į": 241,
      "į": 242,
      "İ": 243,
      "ı": 244,
      "Ķ": 245,
      "ķ": 246,
      "Ĺ": 247,
      "ĺ": 248,
      "Ļ": 249,
      "ļ": 250,
      "Ľ": 251,
      "ľ": 252,
      "Ł": 253,
      "ł": 254,
      "Ń": 255,
      "ń": 256,
      "Ņ": 257,
      "ņ": 258,
      "ň": 259,
      "Ŋ": 260,
      "ŋ": 261,
      "Ō": 262,
      "ō": 263,
      "ŏ": 264,
      "Ő": 265,
      "ő": 266,
      "Œ": 267,
      "œ": 268,
      "ŕ": 269,
      "ŗ": 270,
      "Ř": 271,
      "ř": 272,
      "Ś": 273,
      "ś": 274,
      "Ŝ": 275,
      "ŝ": 276,
      "Ş": 277,
      "ş": 278,
      "Š": 279,
      "š": 280,
      "Ţ": 281,
      "ţ": 282,
      "ť": 283,
      "ŧ": 284,
      "ũ": 285,
      "Ū": 286,
      "ū": 287,
      "ŭ": 288,
      "Ů": 289,
      "ů": 290,
      "ű": 291,
      "ų": 292,
      "ŷ": 293,
      "Ÿ": 294,
      "Ź": 295,
      "ź": 296,
      "Ż": 297,
      "ż": 298,
      "Ž": 299,
      "ž": 300,
      "Ə": 301,
      "Ɛ": 302,
      "ƒ": 303,
      "ơ": 304,
      "Ƭ": 305,
      "ư": 306,
      "ǀ": 307,
      "ǎ": 308,
      "ǐ": 309,
      "ǒ": 310,
      "ǔ": 311,
      "ǧ": 312,
      "Ǩ": 313,
      "ǫ": 314,
      "Ǭ": 315,
      "ǵ": 316,
      "Ǻ": 317,
      "ǻ": 318,
      "ǽ": 319,
      "ǿ": 320,
      "ȁ": 321,
      "ȕ": 322,
      "Ș": 323,
      "ș": 324,
      "Ț": 325,
      "ț": 326,
      "Ȣ": 327,
      "Ȧ": 328,
      "ȫ": 329,
      "ȼ": 330,
      "ʹ": 331,
      "ʺ": 332,
      "ʻ": 333,
      "ʼ": 334,
      "ʿ": 335,
      "ˁ": 336,
      "˂": 337,
      "˄": 338,
      "˅": 339,
      "ˆ": 340,
      "ˇ": 341,
      "ˈ": 342,
      "ˉ": 343,
      "ː": 344,
      "ˑ": 345,
      "˗": 346,
      "ˮ": 347,
      "Ḍ": 348,
      "ḍ": 349,
      "Ḏ": 350,
      "ḑ": 351,
      "ḗ": 352,
      "Ḥ": 353,
      "ḥ": 354,
      "Ḩ": 355,
      "ḩ": 356,
      "ḫ": 357,
      "ḱ": 358,
      "Ḳ": 359,
      "ḳ": 360,
      "Ḿ": 361,
      "ḿ": 362,
      "ṁ": 363,
      "ṃ": 364,
      "ṅ": 365,
      "ṇ": 366,
      "ṛ": 367,
      "ṟ": 368,
      "Ṣ": 369,
      "ṣ": 370,
      "Ṭ": 371,
      "ṭ": 372,
      "ẓ": 373,
      "ẕ": 374,
      "ẗ": 375,
      "Ạ": 376,
      "ạ": 377,
      "ả": 378,
      "ấ": 379,
      "ầ": 380,
      "ẫ": 381,
      "ậ": 382,
      "ằ": 383,
      "ặ": 384,
      "ẹ": 385,
      "ẽ": 386,
      "ế": 387,
      "ề": 388,
      "ể": 389,
      "ễ": 390,
      "ệ": 391,
      "ỉ": 392,
      "ị": 393,
      "ọ": 394,
      "Ố": 395,
      "ố": 396,
      "ồ": 397,
      "ổ": 398,
      "ộ": 399,
      "ớ": 400,
      "ờ": 401,
      "ở": 402,
      "ợ": 403,
      "ụ": 404,
      "ủ": 405,
      "ứ": 406,
      "ừ": 407,
      "ử": 408,
      "ữ": 409,
      "ự": 410,
      "ỳ": 411,
      "ỵ": 412,
      "ỷ": 413,
      "ỹ": 414,
      "‐": 415,
      "‒": 416,
      "–": 417,
      "—": 418,
      "―": 419,
      "‖": 420,
      "‘": 421,
      "’": 422,
      "‚": 423,
      "‛": 424,
      "“": 425,
      "”": 426,
      "„": 427,
      "‟": 428,
      "†": 429,
      "‡": 430,
      "•": 431,
      "‣": 432,
      "‧": 433,
      "‪": 434,
      "‫": 435,
      "‬": 436,
      "‭": 437,
      "‰": 438,
      "′": 439,
      "‹": 440,
      "›": 441,
      "※": 442,
      "‽": 443,
      "‿": 444,
      "⁃": 445,
      "⁄": 446,
      "⁏": 447,
      "⁠": 448,
      "⁡": 449,
      "⁣": 450,
      "⁦": 451,
      "⁩": 452,
      "₝": 453,
      "₤": 454,
      "₦": 455,
      "₩": 456,
      "₪": 457,
      "₫": 458,
      "€": 459,
      "₭": 460,
      "₵": 461,
      "₹": 462,
      "℔": 463,
      "℗": 464,
      "←": 465,
      "↑": 466,
      "→": 467,
      "↓": 468,
      "↔": 469,
      "↗": 470,
      "↙": 471,
      "↞": 472,
      "↠": 473,
      "↩": 474,
      "↪": 475,
      "↳": 476,
      "↵": 477,
      "↷": 478,
      "⇄": 479,
      "⇐": 480,
      "⇑": 481,
      "⇒": 482,
      "⇓": 483,
      "⇜": 484,
      "⇡": 485,
      "⇢": 486,
      "⇣": 487,
      "⇧": 488,
      "⇨": 489,
      "⇩": 490,
      "∀": 491,
      "∂": 492,
      "∅": 493,
      "∆": 494,
      "∇": 495,
      "∈": 496,
      "∎": 497,
      "∑": 498,
      "−": 499,
      "∕": 500,
      "∗": 501,
      "∘": 502,
      "∙": 503,
      "√": 504,
      "∞": 505,
      "∣": 506,
      "∥": 507,
      "∧": 508,
      "∨": 509,
      "∩": 510,
      "∫": 511,
      "∴": 512,
      "∼": 513,
      "≈": 514,
      "≠": 515,
      "≡": 516,
      "≤": 517,
      "≥": 518,
      "≦": 519,
      "≧": 520,
      "≫": 521,
      "⊂": 522,
      "⊃": 523,
      "⊕": 524,
      "⊖": 525,
      "⋅": 526,
      "⋆": 527,
      "⋮": 528,
      "⌀": 529,
      "⌈": 530,
      "⌋": 531,
      "⌕": 532,
      "⌘": 533,
      "⌚": 534,
      "⌧": 535,
      "⎢": 536,
      "⎪": 537,
      "⎮": 538,
      "⎿": 539,
      "⏋": 540,
      "⏰": 541,
      "⏳": 542,
      "⓿": 543,
      "─": 544,
      "━": 545,
      "│": 546,
      "┃": 547,
      "└": 548,
      "╠": 549,
      "▁": 550,
      "█": 551,
      "▌": 552,
      "■": 553,
      "□": 554,
      "▢": 555,
      "▪": 556,
      "▫": 557,
      "▲": 558,
      "△": 559,
      "▴": 560,
      "▶": 561,
      "▷": 562,
      "▸": 563,
      "▹": 564,
      "►": 565,
      "▻": 566,
      "▼": 567,
      "▽": 568,
      "▾": 569,
      "◀": 570,
      "◁": 571,
      "◂": 572,
      "◄": 573,
      "◅": 574,
      "◆": 575,
      "◇": 576,
      "◊": 577,
      "○": 578,
      "◌": 579,
      "◎": 580,
      "●": 581,
      "◘": 582,
      "◠": 583,
      "◢": 584,
      "◤": 585,
      "◥": 586,
      "◦": 587,
      "◴": 588,
      "◻": 589,
      "◼": 590,
      "◾": 591,
      "☀": 592,
      "☁": 593,
      "☂": 594,
      "☃": 595,
      "☄": 596,
      "★": 597,
      "☆": 598,
      "☉": 599,
      "☎": 600,
      "☏": 601,
      "☐": 602,
      "☑": 603,
      "☒": 604,
      "☔": 605,
      "☕": 606,
      "☚": 607,
      "☛": 608,
      "☝": 609,
      "☞": 610,
      "☟": 611,
      "☠": 612,
      "☮": 613,
      "☰": 614,
      "☹": 615,
      "☺": 616,
      "☻": 617,
      "☼": 618,
      "☽": 619,
      "☾": 620,
      "♀": 621,
      "♂": 622,
      "♅": 623,
      "♉": 624,
      "♊": 625,
      "♎": 626,
      "♏": 627,
      "♐": 628,
      "♔": 629,
      "♕": 630,
      "♛": 631,
      "♟": 632,
      "♠": 633,
      "♡": 634,
      "♢": 635,
      "♣": 636,
      "♤": 637,
      "♥": 638,
      "♦": 639,
      "♪": 640,
      "♫": 641,
      "♬": 642,
      "♭": 643,
      "♻": 644,
      "♿": 645,
      "⚒": 646,
      "⚓": 647,
      "⚕": 648,
      "⚖": 649,
      "⚘": 650,
      "⚜": 651,
      "⚠": 652,
      "⚡": 653,
      "⚫": 654,
      "⚬": 655,
      "⚽": 656,
      "⛄": 657,
      "⛅": 658,
      "⛈": 659,
      "⛏": 660,
      "⛱": 661,
      "⛷": 662,
      "⛸": 663,
      "✂": 664,
      "✅": 665,
      "✆": 666,
      "✈": 667,
      "✉": 668,
      "✊": 669,
      "✋": 670,
      "✌": 671,
      "✍": 672,
      "✎": 673,
      "✒": 674,
      "✓": 675,
      "✔": 676,
      "✕": 677,
      "✖": 678,
      "✘": 679,
      "✚": 680,
      "✝": 681,
      "✞": 682,
      "✠": 683,
      "✤": 684,
      "✦": 685,
      "✧": 686,
      "✨": 687,
      "✩": 688,
      "✫": 689,
      "✭": 690,
      "✮": 691,
      "✯": 692,
      "✰": 693,
      "✱": 694,
      "✲": 695,
      "✴": 696,
      "✶": 697,
      "✸": 698,
      "✹": 699,
      "✻": 700,
      "✿": 701,
      "❀": 702,
      "❁": 703,
      "❂": 704,
      "❄": 705,
      "❇": 706,
      "❉": 707,
      "❊": 708,
      "❌": 709,
      "❑": 710,
      "❓": 711,
      "❔": 712,
      "❕": 713,
      "❖": 714,
      "❗": 715,
      "❘": 716,
      "❚": 717,
      "❝": 718,
      "❞": 719,
      "❣": 720,
      "❤": 721,
      "❥": 722,
      "❧": 723,
      "❭": 724,
      "❯": 725,
      "❱": 726,
      "❶": 727,
      "❷": 728,
      "❾": 729,
      "❿": 730,
      "➀": 731,
      "➉": 732,
      "➊": 733,
      "➋": 734,
      "➌": 735,
      "➍": 736,
      "➎": 737,
      "➏": 738,
      "➐": 739,
      "➑": 740,
      "➔": 741,
      "➕": 742,
      "➖": 743,
      "➗": 744,
      "➛": 745,
      "➜": 746,
      "➝": 747,
      "➞": 748,
      "➟": 749,
      "➡": 750,
      "➢": 751,
      "➣": 752,
      "➤": 753,
      "➥": 754,
      "➧": 755,
      "➨": 756,
      "➪": 757,
      "➳": 758,
      "➼": 759,
      "➽": 760,
      "⟨": 761,
      "⟩": 762,
      "⟵": 763,
      "⟶": 764,
      "⤵": 765,
      "⦁": 766,
      "⦠": 767,
      "⦿": 768,
      "⧐": 769,
      "⪢": 770,
      "⬅": 771,
      "⬆": 772,
      "⬇": 773,
      "⬤": 774,
      "⭐": 775,
      "⭑": 776,
      "ⱱ": 777,
      "⸮": 778,
      "ꟷ": 779,
      "🃏": 780,
      "🇧": 781,
      "🇩": 782,
      "🇪": 783,
      "🇫": 784,
      "🇬": 785,
      "🇭": 786,
      "🇮": 787,
      "🇯": 788,
      "🇰": 789,
      "🇲": 790,
      "🇳": 791,
      "🇴": 792,
      "🇷": 793,
      "🇸": 794,
      "🇹": 795,
      "🇺": 796,
      "🇾": 797,
      "🇿": 798,
      "🌈": 799,
      "🌊": 800,
      "🌋": 801,
      "🌍": 802,
      "🌎": 803,
      "🌏": 804,
      "🌐": 805,
      "🌒": 806,
      "🌗": 807,
      "🌙": 808,
      "🌚": 809,
      "🌛": 810,
      "🌝": 811,
      "🌞": 812,
      "🌟": 813,
      "🌤": 814,
      "🌥": 815,
      "🌦": 816,
      "🌧": 817,
      "🌪": 818,
      "🌫": 819,
      "🌬": 820,
      "🌭": 821,
      "🌮": 822,
      "🌯": 823,
      "🌰": 824,
      "🌱": 825,
      "🌲": 826,
      "🌳": 827,
      "🌴": 828,
      "🌶": 829,
      "🌷": 830,
      "🌸": 831,
      "🌹": 832,
      "🌺": 833,
      "🌻": 834,
      "🌼": 835,
      "🌽": 836,
      "🌾": 837,
      "🌿": 838,
      "🍀": 839,
      "🍁": 840,
      "🍂": 841,
      "🍃": 842,
      "🍅": 843,
      "🍆": 844,
      "🍇": 845,
      "🍉": 846,
      "🍋": 847,
      "🍌": 848,
      "🍎": 849,
      "🍏": 850,
      "🍐": 851,
      "🍑": 852,
      "🍒": 853,
      "🍓": 854,
      "🍔": 855,
      "🍕": 856,
      "🍖": 857,
      "🍗": 858,
      "🍘": 859,
      "🍚": 860,
      "🍜": 861,
      "🍝": 862,
      "🍞": 863,
      "🍟": 864,
      "🍡": 865,
      "🍣": 866,
      "🍤": 867,
      "🍦": 868,
      "🍧": 869,
      "🍩": 870,
      "🍪": 871,
      "🍫": 872,
      "🍬": 873,
      "🍭": 874,
      "🍰": 875,
      "🍳": 876,
      "🍴": 877,
      "🍵": 878,
      "🍷": 879,
      "🍸": 880,
      "🍹": 881,
      "🍺": 882,
      "🍻": 883,
      "🍽": 884,
      "🍾": 885,
      "🍿": 886,
      "🎀": 887,
      "🎁": 888,
      "🎂": 889,
      "🎃": 890,
      "🎄": 891,
      "🎅": 892,
      "🎇": 893,
      "🎈": 894,
      "🎉": 895,
      "🎊": 896,
      "🎍": 897,
      "🎎": 898,
      "🎐": 899,
      "🎓": 900,
      "🎙": 901,
      "🎚": 902,
      "🎛": 903,
      "🎟": 904,
      "🎠": 905,
      "🎡": 906,
      "🎢": 907,
      "🎣": 908,
      "🎤": 909,
      "🎥": 910,
      "🎧": 911,
      "🎨": 912,
      "🎩": 913,
      "🎪": 914,
      "🎬": 915,
      "🎭": 916,
      "🎯": 917,
      "🎲": 918,
      "🎳": 919,
      "🎵": 920,
      "🎶": 921,
      "🎷": 922,
      "🎸": 923,
      "🎹": 924,
      "🎺": 925,
      "🎻": 926,
      "🎼": 927,
      "🎾": 928,
      "🎿": 929,
      "🏁": 930,
      "🏂": 931,
      "🏃": 932,
      "🏅": 933,
      "🏆": 934,
      "🏇": 935,
      "🏉": 936,
      "🏌": 937,
      "🏍": 938,
      "🏎": 939,
      "🏑": 940,
      "🏒": 941,
      "🏓": 942,
      "🏖": 943,
      "🏗": 944,
      "🏙": 945,
      "🏞": 946,
      "🏡": 947,
      "🏢": 948,
      "🏥": 949,
      "🏫": 950,
      "🏵": 951,
      "🏹": 952,
      "🏻": 953,
      "🏼": 954,
      "🏽": 955,
      "🏾": 956,
      "🏿": 957,
      "🐀": 958,
      "🐂": 959,
      "🐃": 960,
      "🐄": 961,
      "🐅": 962,
      "🐆": 963,
      "🐈": 964,
      "🐊": 965,
      "🐎": 966,
      "🐐": 967,
      "🐑": 968,
      "🐒": 969,
      "🐓": 970,
      "🐔": 971,
      "🐕": 972,
      "🐖": 973,
      "🐘": 974,
      "🐜": 975,
      "🐝": 976,
      "🐞": 977,
      "🐟": 978,
      "🐠": 979,
      "🐢": 980,
      "🐣": 981,
      "🐤": 982,
      "🐥": 983,
      "🐦": 984,
      "🐧": 985,
      "🐩": 986,
      "🐬": 987,
      "🐮": 988,
      "🐯": 989,
      "🐱": 990,
      "🐳": 991,
      "🐴": 992,
      "🐶": 993,
      "🐷": 994,
      "🐸": 995,
      "🐺": 996,
      "🐻": 997,
      "🐼": 998,
      "🐾": 999,
      "👀": 1000,
      "👁": 1001,
      "👂": 1002,
      "👃": 1003,
      "👄": 1004,
      "👅": 1005,
      "👆": 1006,
      "👇": 1007,
      "👈": 1008,
      "👉": 1009,
      "👊": 1010,
      "👋": 1011,
      "👌": 1012,
      "👍": 1013,
      "👎": 1014,
      "👏": 1015,
      "👐": 1016,
      "👑": 1017,
      "👗": 1018,
      "👙": 1019,
      "👛": 1020,
      "👜": 1021,
      "👠": 1022,
      "👡": 1023,
      "👣": 1024,
      "👤": 1025,
      "👥": 1026,
      "👦": 1027,
      "👧": 1028,
      "👨": 1029,
      "👩": 1030,
      "👫": 1031,
      "👭": 1032,
      "👮": 1033,
      "👯": 1034,
      "👰": 1035,
      "👴": 1036,
      "👵": 1037,
      "👶": 1038,
      "👸": 1039,
      "👹": 1040,
      "👻": 1041,
      "👼": 1042,
      "👽": 1043,
      "👿": 1044,
      "💁": 1045,
      "💃": 1046,
      "💄": 1047,
      "💅": 1048,
      "💆": 1049,
      "💇": 1050,
      "💉": 1051,
      "💊": 1052,
      "💋": 1053,
      "💌": 1054,
      "💍": 1055,
      "💎": 1056,
      "💏": 1057,
      "💐": 1058,
      "💒": 1059,
      "💓": 1060,
      "💔": 1061,
      "💕": 1062,
      "💖": 1063,
      "💗": 1064,
      "💘": 1065,
      "💙": 1066,
      "💚": 1067,
      "💛": 1068,
      "💜": 1069,
      "💝": 1070,
      "💞": 1071,
      "💟": 1072,
      "💡": 1073,
      "💢": 1074,
      "💣": 1075,
      "💤": 1076,
      "💥": 1077,
      "💦": 1078,
      "💧": 1079,
      "💨": 1080,
      "💩": 1081,
      "💪": 1082,
      "💫": 1083,
      "💬": 1084,
      "💭": 1085,
      "💯": 1086,
      "💰": 1087,
      "💳": 1088,
      "💵": 1089,
      "💶": 1090,
      "💸": 1091,
      "💻": 1092,
      "💼": 1093,
      "📃": 1094,
      "📄": 1095,
      "📅": 1096,
      "📆": 1097,
      "📈": 1098,
      "📊": 1099,
      "📌": 1100,
      "📍": 1101,
      "📎": 1102,
      "📕": 1103,
      "📖": 1104,
      "📚": 1105,
      "📢": 1106,
      "📣": 1107,
      "📦": 1108,
      "📩": 1109,
      "📮": 1110,
      "📰": 1111,
      "📱": 1112,
      "📲": 1113,
      "📷": 1114,
      "📸": 1115,
      "📺": 1116,
      "📽": 1117,
      "📿": 1118,
      "🔁": 1119,
      "🔄": 1120,
      "🔆": 1121,
      "🔈": 1122,
      "🔎": 1123,
      "🔐": 1124,
      "🔒": 1125,
      "🔔": 1126,
      "🔗": 1127,
      "🔙": 1128,
      "🔛": 1129,
      "🔜": 1130,
      "🔝": 1131,
      "🔥": 1132,
      "🔦": 1133,
      "🔧": 1134,
      "🔨": 1135,
      "🔩": 1136,
      "🔪": 1137,
      "🔫": 1138,
      "🔭": 1139,
      "🔴": 1140,
      "🔵": 1141,
      "🔶": 1142,
      "🔷": 1143,
      "🔸": 1144,
      "🔹": 1145,
      "🔺": 1146,
      "🔼": 1147,
      "🕊": 1148,
      "🕒": 1149,
      "🕓": 1150,
      "🕔": 1151,
      "🕗": 1152,
      "🕯": 1153,
      "🕰": 1154,
      "🕷": 1155,
      "🕸": 1156,
      "🕺": 1157,
      "🖌": 1158,
      "🖎": 1159,
      "🖒": 1160,
      "🖖": 1161,
      "🖤": 1162,
      "🗗": 1163,
      "🗡": 1164,
      "🗣": 1165,
      "🗸": 1166,
      "🗻": 1167,
      "😀": 1168,
      "😁": 1169,
      "😂": 1170,
      "😃": 1171,
      "😄": 1172,
      "😅": 1173,
      "😆": 1174,
      "😇": 1175,
      "😈": 1176,
      "😉": 1177,
      "😊": 1178,
      "😋": 1179,
      "😌": 1180,
      "😍": 1181,
      "😎": 1182,
      "😏": 1183,
      "😐": 1184,
      "😑": 1185,
      "😒": 1186,
      "😓": 1187,
      "😔": 1188,
      "😕": 1189,
      "😖": 1190,
      "😗": 1191,
      "😘": 1192,
      "😙": 1193,
      "😚": 1194,
      "😛": 1195,
      "😜": 1196,
      "😝": 1197,
      "😞": 1198,
      "😟": 1199,
      "😠": 1200,
      "😡": 1201,
      "😢": 1202,
      "😣": 1203,
      "😤": 1204,
      "😥": 1205,
      "😦": 1206,
      "😧": 1207,
      "😨": 1208,
      "😩": 1209,
      "😪": 1210,
      "😫": 1211,
      "😬": 1212,
      "😭": 1213,
      "😮": 1214,
      "😯": 1215,
      "😰": 1216,
      "😱": 1217,
      "😲": 1218,
      "😳": 1219,
      "😴": 1220,
      "😵": 1221,
      "😶": 1222,
      "😷": 1223,
      "😸": 1224,
      "😹": 1225,
      "😺": 1226,
      "😻": 1227,
      "😼": 1228,
      "😽": 1229,
      "😾": 1230,
      "😿": 1231,
      "🙀": 1232,
      "🙁": 1233,
      "🙂": 1234,
      "🙃": 1235,
      "🙄": 1236,
      "🙅": 1237,
      "🙆": 1238,
      "🙈": 1239,
      "🙉": 1240,
      "🙊": 1241,
      "🙋": 1242,
      "🙌": 1243,
      "🙏": 1244,
      "🚀": 1245,
      "🚂": 1246,
      "🚆": 1247,
      "🚌": 1248,
      "🚍": 1249,
      "🚐": 1250,
      "🚑": 1251,
      "🚒": 1252,
      "🚗": 1253,
      "🚙": 1254,
      "🚚": 1255,
      "🚢": 1256,
      "🚣": 1257,
      "🚤": 1258,
      "🚨": 1259,
      "🚩": 1260,
      "🚫": 1261,
      "🚴": 1262,
      "🚶": 1263,
      "🛌": 1264,
      "🛍": 1265,
      "🛑": 1266,
      "🛒": 1267,
      "🛠": 1268,
      "🛡": 1269,
      "🛬": 1270,
      "🛸": 1271,
      "🟠": 1272,
      "🤍": 1273,
      "🤏": 1274,
      "🤐": 1275,
      "🤑": 1276,
      "🤒": 1277,
      "🤓": 1278,
      "🤔": 1279,
      "🤕": 1280,
      "🤖": 1281,
      "🤗": 1282,
      "🤘": 1283,
      "🤙": 1284,
      "🤜": 1285,
      "🤝": 1286,
      "🤞": 1287,
      "🤟": 1288,
      "🤠": 1289,
      "🤡": 1290,
      "🤢": 1291,
      "🤣": 1292,
      "🤤": 1293,
      "🤥": 1294,
      "🤧": 1295,
      "🤨": 1296,
      "🤩": 1297,
      "🤪": 1298,
      "🤫": 1299,
      "🤬": 1300,
      "🤭": 1301,
      "🤮": 1302,
      "🤯": 1303,
      "🤶": 1304,
      "🤷": 1305,
      "🤸": 1306,
      "🤽": 1307,
      "🥀": 1308,
      "🥂": 1309,
      "🥄": 1310,
      "🥅": 1311,
      "🥇": 1312,
      "🥈": 1313,
      "🥉": 1314,
      "🥐": 1315,
      "🥑": 1316,
      "🥕": 1317,
      "🥗": 1318,
      "🥘": 1319,
      "🥙": 1320,
      "🥚": 1321,
      "🥛": 1322,
      "🥜": 1323,
      "🥝": 1324,
      "🥠": 1325,
      "🥧": 1326,
      "🥩": 1327,
      "🥬": 1328,
      "🥰": 1329,
      "🥲": 1330,
      "🥳": 1331,
      "🥴": 1332,
      "🥵": 1333,
      "🥶": 1334,
      "🥺": 1335,
      "🦀": 1336,
      "🦁": 1337,
      "🦃": 1338,
      "🦄": 1339,
      "🦉": 1340,
      "🦊": 1341,
      "🦋": 1342,
      "🦌": 1343,
      "🦐": 1344,
      "🦒": 1345,
      "🦓": 1346,
      "🦚": 1347,
      "🦠": 1348,
      "🦱": 1349,
      "🦲": 1350,
      "🦼": 1351,
      "🦽": 1352,
      "🧁": 1353,
      "🧐": 1354,
      "🧑": 1355,
      "🧒": 1356,
      "🧖": 1357,
      "🧝": 1358,
      "🧠": 1359,
      "🧡": 1360,
      "🧢": 1361,
      "🧣": 1362,
      "🧤": 1363,
      "🧦": 1364,
      "🧨": 1365,
      "🧼": 1366,
      "🧿": 1367,
      "er": 1368,
      "en": 1369,
      "▁s": 1370,
      "ar": 1371,
      "an": 1372,
      "et": 1373,
      "in": 1374,
      "▁d": 1375,
      "▁f": 1376,
      "▁m": 1377,
      "at": 1378,
      "▁o": 1379,
      "ll": 1380,
      "▁h": 1381,
      "ör": 1382,
      "▁v": 1383,
      "är": 1384,
      "▁t": 1385,
      "▁b": 1386,
      "st": 1387,
      "ch": 1388,
      "▁k": 1389,
      "om": 1390,
      "▁p": 1391,
      "▁och": 1392,
      "ig": 1393,
      "att": 1394,
      "or": 1395,
      "ag": 1396,
      "de": 1397,
      "▁att": 1398,
      "▁i": 1399,
      "ing": 1400,
      "on": 1401,
      "▁för": 1402,
      "▁a": 1403,
      "ed": 1404,
      "▁l": 1405,
      "ka": 1406,
      "▁g": 1407,
      "▁n": 1408,
      "tt": 1409,
      "än": 1410,
      "ill": 1411,
      "▁en": 1412,
      "▁in": 1413,
      "na": 1414,
      "ra": 1415,
      "▁u": 1416,
      "▁är": 1417,
      "el": 1418,
      "▁som": 1419,
      "▁på": 1420,
      "kt": 1421,
      "▁det": 1422,
      "is": 1423,
      "ck": 1424,
      "re": 1425,
      "▁med": 1426,
      "te": 1427,
      "▁av": 1428,
      "▁j": 1429,
      "▁till": 1430,
      "▁S": 1431,
      "al": 1432,
      "pp": 1433,
      "ning": 1434,
      "▁D": 1435,
      "år": 1436,
      "ån": 1437,
      "am": 1438,
      "id": 1439,
      "▁e": 1440,
      "ss": 1441,
      "ter": 1442,
      "▁st": 1443,
      "lig": 1444,
      "il": 1445,
      "un": 1446,
      "der": 1447,
      "it": 1448,
      "ro": 1449,
      "and": 1450,
      "▁var": 1451,
      "▁har": 1452,
      "ver": 1453,
      "▁de": 1454,
      "▁om": 1455,
      "ett": 1456,
      "▁r": 1457,
      "sk": 1458,
      "▁M": 1459,
      "▁jag": 1460,
      "ol": 1461,
      "as": 1462,
      "äl": 1463,
      "iv": 1464,
      "▁inte": 1465,
      "ade": 1466,
      "▁den": 1467,
      "▁ut": 1468,
      "ad": 1469,
      "ion": 1470,
      "▁sk": 1471,
      "ätt": 1472,
      "▁så": 1473,
      "em": 1474,
      "▁V": 1475,
      "▁H": 1476,
      "ur": 1477,
      "are": 1478,
      "▁fr": 1479,
      "▁an": 1480,
      "▁ett": 1481,
      "▁A": 1482,
      "▁kan": 1483,
      "▁F": 1484,
      "ik": 1485,
      "ot": 1486,
      "ller": 1487,
      "▁vi": 1488,
      "li": 1489,
      "åg": 1490,
      "äg": 1491,
      "omm": 1492,
      "ut": 1493,
      "ande": 1494,
      "▁du": 1495,
      "▁B": 1496,
      "▁1": 1497,
      "▁E": 1498,
      "▁be": 1499,
      "ens": 1500,
      "het": 1501,
      "▁T": 1502,
      "ta": 1503,
      "för": 1504,
      "▁2": 1505,
      "▁J": 1506,
      "▁all": 1507,
      "▁I": 1508,
      "▁upp": 1509,
      "ång": 1510,
      "▁ö": 1511,
      "▁N": 1512,
      "▁L": 1513,
      "▁K": 1514,
      "itt": 1515,
      "sta": 1516,
      "▁P": 1517,
      "da": 1518,
      "▁ska": 1519,
      "ent": 1520,
      "ort": 1521,
      "▁Det": 1522,
      "▁komm": 1523,
      "ans": 1524,
      "▁re": 1525,
      "▁man": 1526,
      "äll": 1527,
      "us": 1528,
      "▁från": 1529,
      "ns": 1530,
      "▁un": 1531,
      "äm": 1532,
      "um": 1533,
      "▁men": 1534,
      "es": 1535,
      "▁sp": 1536,
      "fter": 1537,
      "yck": 1538,
      "la": 1539,
      "ri": 1540,
      "og": 1541,
      "▁sam": 1542,
      "ation": 1543,
      "▁eller": 1544,
      "art": 1545,
      "ligt": 1546,
      "igt": 1547,
      "▁O": 1548,
      "▁G": 1549,
      "ell": 1550,
      "le": 1551,
      "▁när": 1552,
      "▁fin": 1553,
      "den": 1554,
      "▁någ": 1555,
      "ak": 1556,
      "▁min": 1557,
      "ul": 1558,
      "▁R": 1559,
      "yg": 1560,
      "▁tr": 1561,
      "sl": 1562,
      "bet": 1563,
      "ram": 1564,
      "var": 1565,
      "▁sig": 1566,
      "äng": 1567,
      "isk": 1568,
      "ster": 1569,
      "▁pro": 1570,
      "▁bar": 1571,
      "änd": 1572,
      "sp": 1573,
      "▁där": 1574,
      "ats": 1575,
      "ma": 1576,
      "bb": 1577,
      "ull": 1578,
      "all": 1579,
      "▁C": 1580,
      "▁hel": 1581,
      "▁över": 1582,
      "arna": 1583,
      "ff": 1584,
      "äv": 1585,
      "▁här": 1586,
      "jäl": 1587,
      "era": 1588,
      "ju": 1589,
      "▁år": 1590,
      "▁Jag": 1591,
      "dag": 1592,
      "▁å": 1593,
      "▁under": 1594,
      "erna": 1595,
      "▁gör": 1596,
      "ft": 1597,
      "ste": 1598,
      "ers": 1599,
      "▁li": 1600,
      "▁ny": 1601,
      "▁bli": 1602,
      "▁kon": 1603,
      "und": 1604,
      "så": 1605,
      "▁efter": 1606,
      "▁kommer": 1607,
      "arbet": 1608,
      "▁c": 1609,
      "sa": 1610,
      "ok": 1611,
      "▁bl": 1612,
      "▁gr": 1613,
      "▁vara": 1614,
      "os": 1615,
      "ne": 1616,
      "▁ha": 1617,
      "els": 1618,
      "del": 1619,
      "ger": 1620,
      "ekt": 1621,
      "▁fl": 1622,
      "▁U": 1623,
      "▁han": 1624,
      "▁tid": 1625,
      "▁må": 1626,
      "▁Vi": 1627,
      "liga": 1628,
      "ningen": 1629,
      "▁finns": 1630,
      "▁få": 1631,
      "od": 1632,
      "ud": 1633,
      "▁kr": 1634,
      "ick": 1635,
      "äk": 1636,
      "orm": 1637,
      "edan": 1638,
      "änn": 1639,
      "▁sin": 1640,
      "▁väl": 1641,
      "ycket": 1642,
      "▁mer": 1643,
      "ist": 1644,
      "cka": 1645,
      "sam": 1646,
      "ök": 1647,
      "▁allt": 1648,
      "ling": 1649,
      "▁vill": 1650,
      "ska": 1651,
      "▁alla": 1652,
      "▁sl": 1653,
      "▁nu": 1654,
      "iska": 1655,
      "opp": 1656,
      "ock": 1657,
      "▁För": 1658,
      "▁ju": 1659,
      "▁dag": 1660,
      "öj": 1661,
      "pa": 1662,
      "ru": 1663,
      "andra": 1664,
      "▁se": 1665,
      "▁ock": 1666,
      "▁del": 1667,
      "▁då": 1668,
      "ilj": 1669,
      "lar": 1670,
      "▁kun": 1671,
      "im": 1672,
      "▁sv": 1673,
      "▁också": 1674,
      "iga": 1675,
      "▁fram": 1676,
      "▁vid": 1677,
      "▁får": 1678,
      "▁mig": 1679,
      "yr": 1680,
      "▁beh": 1681,
      "akt": 1682,
      "▁mycket": 1683,
      "ark": 1684,
      "▁pl": 1685,
      "▁mot": 1686,
      "ikt": 1687,
      "▁St": 1688,
      "enom": 1689,
      "eck": 1690,
      "ningar": 1691,
      "▁bra": 1692,
      "bl": 1693,
      "▁ta": 1694,
      "▁En": 1695,
      "▁3": 1696,
      "▁tv": 1697,
      "ost": 1698,
      "ber": 1699,
      "▁äv": 1700,
      "åll": 1701,
      "dr": 1702,
      "▁arbet": 1703,
      "▁ver": 1704,
      "gen": 1705,
      "▁or": 1706,
      "ga": 1707,
      "▁pr": 1708,
      "▁vis": 1709,
      "ön": 1710,
      "▁andra": 1711,
      "äs": 1712,
      "ant": 1713,
      "▁även": 1714,
      "▁bara": 1715,
      "ånga": 1716,
      "▁lite": 1717,
      "▁ex": 1718,
      "est": 1719,
      "▁dig": 1720,
      "ligen": 1721,
      "▁hur": 1722,
      "ov": 1723,
      "öd": 1724,
      "öm": 1725,
      "▁din": 1726,
      "▁hon": 1727,
      "ce": 1728,
      "ingen": 1729,
      "ord": 1730,
      "▁bör": 1731,
      "▁än": 1732,
      "▁hö": 1733,
      "per": 1734,
      "ast": 1735,
      "▁In": 1736,
      "ulle": 1737,
      "erson": 1738,
      "▁ann": 1739,
      "kar": 1740,
      "ir": 1741,
      "▁Men": 1742,
      "rå": 1743,
      "tal": 1744,
      "▁anv": 1745,
      "▁säg": 1746,
      "ställ": 1747,
      "äst": 1748,
      "eg": 1749,
      "▁hade": 1750,
      "▁vil": 1751,
      "▁vad": 1752,
      "▁De": 1753,
      "org": 1754,
      "yn": 1755,
      "▁kv": 1756,
      "ket": 1757,
      "bil": 1758,
      "▁vär": 1759,
      "▁vår": 1760,
      "itet": 1761,
      "▁stor": 1762,
      "▁kl": 1763,
      "▁bil": 1764,
      "▁skulle": 1765,
      "ek": 1766,
      "▁Den": 1767,
      "▁hem": 1768,
      "ci": 1769,
      "vis": 1770,
      "▁blir": 1771,
      "jälv": 1772,
      "aren": 1773,
      "▁er": 1774,
      "▁genom": 1775,
      "av": 1776,
      "▁sm": 1777,
      "ja": 1778,
      "▁kom": 1779,
      "op": 1780,
      "▁bet": 1781,
      "ass": 1782,
      "ott": 1783,
      "ser": 1784,
      "lev": 1785,
      "▁utan": 1786,
      "je": 1787,
      "▁br": 1788,
      "▁An": 1789,
      "▁spel": 1790,
      "ygg": 1791,
      "ress": 1792,
      "nad": 1793,
      "oll": 1794,
      "du": 1795,
      "▁samt": 1796,
      "ack": 1797,
      "▁förs": 1798,
      "▁många": 1799,
      "▁ser": 1800,
      "yd": 1801,
      "▁person": 1802,
      "nings": 1803,
      "▁själv": 1804,
      "pl": 1805,
      "öl": 1806,
      "riv": 1807,
      "sätt": 1808,
      "▁någon": 1809,
      "äd": 1810,
      "ägg": 1811,
      "ier": 1812,
      "iskt": 1813,
      "▁göra": 1814,
      "kl": 1815,
      "▁dess": 1816,
      "▁sen": 1817,
      "▁detta": 1818,
      "gi": 1819,
      "▁ber": 1820,
      "se": 1821,
      "som": 1822,
      "▁verk": 1823,
      "inn": 1824,
      "▁något": 1825,
      "vär": 1826,
      "▁4": 1827,
      "▁kän": 1828,
      "ende": 1829,
      "ighet": 1830,
      "▁5": 1831,
      "ef": 1832,
      "man": 1833,
      "▁sedan": 1834,
      "ic": 1835,
      "▁oss": 1836,
      "ets": 1837,
      "över": 1838,
      "lika": 1839,
      "form": 1840,
      "▁mat": 1841,
      "fr": 1842,
      "▁sätt": 1843,
      "ring": 1844,
      "▁går": 1845,
      "▁hand": 1846,
      "åt": 1847,
      "▁barn": 1848,
      "▁två": 1849,
      "▁W": 1850,
      "▁olika": 1851,
      "ken": 1852,
      "etag": 1853,
      "▁ig": 1854,
      "verig": 1855,
      "▁rätt": 1856,
      "▁säger": 1857,
      "öp": 1858,
      "sb": 1859,
      "alt": 1860,
      "ytt": 1861,
      "ult": 1862,
      "sm": 1863,
      "lighet": 1864,
      "▁gång": 1865,
      "ym": 1866,
      "sen": 1867,
      "ästa": 1868,
      "▁dem": 1869,
      "ia": 1870,
      "enska": 1871,
      "ät": 1872,
      "▁inne": 1873,
      "▁jo": 1874,
      "ål": 1875,
      "▁helt": 1876,
      "str": 1877,
      "▁hjäl": 1878,
      "nar": 1879,
      "ering": 1880,
      "äck": 1881,
      "gr": 1882,
      "▁hitt": 1883,
      "mar": 1884,
      "erade": 1885,
      "▁al": 1886,
      "sson": 1887,
      "▁Sverig": 1888,
      "▁ing": 1889,
      "▁fick": 1890,
      "▁vet": 1891,
      "▁gj": 1892,
      "▁gå": 1893,
      "▁Om": 1894,
      "ala": 1895,
      "ug": 1896,
      "▁hög": 1897,
      "ellan": 1898,
      "des": 1899,
      "▁nya": 1900,
      "upp": 1901,
      "eras": 1902,
      "▁ro": 1903,
      "▁läng": 1904,
      "änder": 1905,
      "▁ra": 1906,
      "▁inom": 1907,
      "▁fort": 1908,
      "▁int": 1909,
      "▁bå": 1910,
      "▁möj": 1911,
      "▁lag": 1912,
      "▁Sk": 1913,
      "ie": 1914,
      "veck": 1915,
      "det": 1916,
      "▁hela": 1917,
      "▁börj": 1918,
      "▁fun": 1919,
      "land": 1920,
      "ts": 1921,
      "▁ma": 1922,
      "▁sitt": 1923,
      "▁ty": 1924,
      "▁varit": 1925,
      "▁måste": 1926,
      "mer": 1927,
      "▁först": 1928,
      "håll": 1929,
      "ske": 1930,
      "▁blev": 1931,
      "▁första": 1932,
      "▁Ä": 1933,
      "▁fråg": 1934,
      "▁några": 1935,
      "▁liv": 1936,
      "nan": 1937,
      "▁0": 1938,
      "▁pre": 1939,
      "▁ni": 1940,
      "▁mellan": 1941,
      "ang": 1942,
      "▁läg": 1943,
      "nas": 1944,
      "va": 1945,
      "▁led": 1946,
      "▁sn": 1947,
      "▁När": 1948,
      "ativ": 1949,
      "▁w": 1950,
      "▁denna": 1951,
      "tern": 1952,
      "eri": 1953,
      "▁vikt": 1954,
      "åra": 1955,
      "ote": 1956,
      "bar": 1957,
      "slut": 1958,
      "ys": 1959,
      "ella": 1960,
      "▁Du": 1961,
      "jän": 1962,
      "▁reg": 1963,
      "▁le": 1964,
      "jer": 1965,
      "kon": 1966,
      "▁el": 1967,
      "▁slut": 1968,
      "ktion": 1969,
      "pel": 1970,
      "▁rikt": 1971,
      "▁gl": 1972,
      "▁Och": 1973,
      "verk": 1974,
      "ida": 1975,
      "▁6": 1976,
      "▁företag": 1977,
      "▁åt": 1978,
      "ien": 1979,
      "▁kommun": 1980,
      "hol": 1981,
      "▁sak": 1982,
      "▁tre": 1983,
      "juk": 1984,
      "änt": 1985,
      "pt": 1986,
      "orna": 1987,
      "▁of": 1988,
      "▁annat": 1989,
      "erar": 1990,
      "▁tän": 1991,
      "kel": 1992,
      "ven": 1993,
      "▁stör": 1994,
      "▁Sverige": 1995,
      "else": 1996,
      "▁kunna": 1997,
      "br": 1998,
      "▁jobb": 1999,
      "äker": 2000,
      "▁akt": 2001,
      "▁änd": 2002,
      "ann": 2003,
      "sten": 2004,
      "slag": 2005,
      "▁eg": 2006,
      "utom": 2007,
      "▁sina": 2008,
      "▁mo": 2009,
      "ex": 2010,
      "▁vilket": 2011,
      "▁Så": 2012,
      "▁både": 2013,
      "skap": 2014,
      "▁di": 2015,
      "äller": 2016,
      "atur": 2017,
      "▁ans": 2018,
      "samhet": 2019,
      "bju": 2020,
      "igare": 2021,
      "äx": 2022,
      "ika": 2023,
      "orde": 2024,
      "gång": 2025,
      "▁milj": 2026,
      "▁vin": 2027,
      "kte": 2028,
      "▁Fr": 2029,
      "▁lång": 2030,
      "dre": 2031,
      "ända": 2032,
      "ej": 2033,
      "erad": 2034,
      "tid": 2035,
      "atten": 2036,
      "▁ner": 2037,
      "▁sy": 2038,
      "jär": 2039,
      "▁res": 2040,
      "ård": 2041,
      "▁Ö": 2042,
      "lägg": 2043,
      "▁använd": 2044,
      "▁bland": 2045,
      "▁behöver": 2046,
      "▁åter": 2047,
      "tro": 2048,
      "ycker": 2049,
      "rat": 2050,
      "digt": 2051,
      "▁hos": 2052,
      "lin": 2053,
      "▁utveck": 2054,
      "gar": 2055,
      "bild": 2056,
      "ip": 2057,
      "ös": 2058,
      "▁7": 2059,
      "ap": 2060,
      "▁männ": 2061,
      "▁lig": 2062,
      "▁ch": 2063,
      "ades": 2064,
      "iken": 2065,
      "ött": 2066,
      "▁kanske": 2067,
      "unt": 2068,
      "▁väg": 2069,
      "▁ly": 2070,
      "▁All": 2071,
      "▁håll": 2072,
      "▁Nu": 2073,
      "rum": 2074,
      "ank": 2075,
      "▁per": 2076,
      "▁dessa": 2077,
      "men": 2078,
      "sh": 2079,
      "▁tro": 2080,
      "▁plats": 2081,
      "▁våra": 2082,
      "me": 2083,
      "▁pol": 2084,
      "▁föl": 2085,
      "eter": 2086,
      "anska": 2087,
      "öv": 2088,
      "▁innan": 2089,
      "led": 2090,
      "sv": 2091,
      "oka": 2092,
      "▁tar": 2093,
      "komm": 2094,
      "▁flera": 2095,
      "▁lär": 2096,
      "▁fär": 2097,
      "▁Han": 2098,
      "▁På": 2099,
      "▁ord": 2100,
      "fatt": 2101,
      "formation": 2102,
      "dom": 2103,
      "▁Un": 2104,
      "olk": 2105,
      "holm": 2106,
      "min": 2107,
      "olag": 2108,
      "if": 2109,
      "▁mål": 2110,
      "▁van": 2111,
      "lag": 2112,
      "andet": 2113,
      "▁produ": 2114,
      "▁idag": 2115,
      "uv": 2116,
      "tra": 2117,
      "äder": 2118,
      "pro": 2119,
      "▁samma": 2120,
      "stem": 2121,
      "etta": 2122,
      "▁fall": 2123,
      "▁Å": 2124,
      "▁pris": 2125,
      "▁Här": 2126,
      "▁ger": 2127,
      "tr": 2128,
      "änner": 2129,
      "cent": 2130,
      "▁sna": 2131,
      "▁mitt": 2132,
      "ker": 2133,
      "▁9": 2134,
      "▁8": 2135,
      "ämn": 2136,
      "▁alltid": 2137,
      "ld": 2138,
      "▁dom": 2139,
      "rekt": 2140,
      "ust": 2141,
      "▁pass": 2142,
      "▁bästa": 2143,
      "åller": 2144,
      "ars": 2145,
      "ättre": 2146,
      "sök": 2147,
      "ba": 2148,
      "▁dr": 2149,
      "▁ur": 2150,
      "jekt": 2151,
      "par": 2152,
      "kter": 2153,
      "skar": 2154,
      "▁fakt": 2155,
      "▁stora": 2156,
      "▁nog": 2157,
      "▁väldigt": 2158,
      "eb": 2159,
      "▁bort": 2160,
      "▁Att": 2161,
      "▁ställ": 2162,
      "met": 2163,
      "jt": 2164,
      "▁ditt": 2165,
      "blem": 2166,
      "▁människ": 2167,
      "sför": 2168,
      "▁Med": 2169,
      "otell": 2170,
      "io": 2171,
      "▁varje": 2172,
      "▁säker": 2173,
      "▁bättre": 2174,
      "erat": 2175,
      "▁erbju": 2176,
      "he": 2177,
      "tag": 2178,
      "▁igen": 2179,
      "▁hen": 2180,
      "empel": 2181,
      "mans": 2182,
      "▁tycker": 2183,
      "▁best": 2184,
      "ppen": 2185,
      "▁plan": 2186,
      "▁lätt": 2187,
      "nader": 2188,
      "▁Detta": 2189,
      "årt": 2190,
      "▁fil": 2191,
      "rik": 2192,
      "lass": 2193,
      "amn": 2194,
      "red": 2195,
      "▁mark": 2196,
      "ellt": 2197,
      "▁dat": 2198,
      "▁fy": 2199,
      "▁tag": 2200,
      "▁lä": 2201,
      "▁snabb": 2202,
      "▁so": 2203,
      "öt": 2204,
      "ors": 2205,
      "▁gäller": 2206,
      "ina": 2207,
      "ung": 2208,
      "▁fast": 2209,
      "ings": 2210,
      "▁par": 2211,
      "gram": 2212,
      "▁grund": 2213,
      "rätt": 2214,
      "hand": 2215,
      "▁ligger": 2216,
      "▁skol": 2217,
      "eci": 2218,
      "▁just": 2219,
      "▁ofta": 2220,
      "▁svar": 2221,
      "ationer": 2222,
      "dan": 2223,
      "▁tidigare": 2224,
      "▁Har": 2225,
      "hus": 2226,
      "skil": 2227,
      "▁fått": 2228,
      "▁ingen": 2229,
      "ektiv": 2230,
      "med": 2231,
      "pr": 2232,
      "▁val": 2233,
      "▁bok": 2234,
      "▁god": 2235,
      "▁Ar": 2236,
      "sn": 2237,
      "berg": 2238,
      "▁skriv": 2239,
      "yt": 2240,
      "kr": 2241,
      "▁äl": 2242,
      "▁komma": 2243,
      "ionen": 2244,
      "rav": 2245,
      "▁form": 2246,
      "raf": 2247,
      "▁intress": 2248,
      "tera": 2249,
      "uvud": 2250,
      "▁information": 2251,
      "äns": 2252,
      "edel": 2253,
      "ockholm": 2254,
      "idan": 2255,
      "▁kall": 2256,
      "rev": 2257,
      "▁sjuk": 2258,
      "▁fler": 2259,
      "▁tror": 2260,
      "▁fan": 2261,
      "▁trän": 2262,
      "aste": 2263,
      "▁bak": 2264,
      "▁exempel": 2265,
      "ab": 2266,
      "▁Jo": 2267,
      "▁str": 2268,
      "fl": 2269,
      "takt": 2270,
      "▁riktigt": 2271,
      "kom": 2272,
      "▁kör": 2273,
      "▁Läs": 2274,
      "▁veck": 2275,
      "▁hjälp": 2276,
      "▁ge": 2277,
      "▁on": 2278,
      "ub": 2279,
      "ow": 2280,
      "▁enda": 2281,
      "ärk": 2282,
      "▁Vad": 2283,
      "▁Efter": 2284,
      "▁gick": 2285,
      "▁pen": 2286,
      "nade": 2287,
      "öka": 2288,
      "▁dock": 2289,
      "rott": 2290,
      "▁skall": 2291,
      "iss": 2292,
      "▁enligt": 2293,
      "▁eftersom": 2294,
      "ob": 2295,
      "sammans": 2296,
      "ari": 2297,
      "▁for": 2298,
      "▁förb": 2299,
      "gifter": 2300,
      "ingar": 2301,
      "▁konst": 2302,
      "▁hör": 2303,
      "gör": 2304,
      "▁mest": 2305,
      "▁redan": 2306,
      "rar": 2307,
      "plats": 2308,
      "satt": 2309,
      "▁hopp": 2310,
      "väg": 2311,
      "▁enkel": 2312,
      "▁annan": 2313,
      "ås": 2314,
      "kade": 2315,
      "ester": 2316,
      "▁runt": 2317,
      "▁Hur": 2318,
      "anden": 2319,
      "borg": 2320,
      "▁Ma": 2321,
      "åd": 2322,
      "▁ar": 2323,
      "amilj": 2324,
      "▁kost": 2325,
      "▁koll": 2326,
      "app": 2327,
      "▁Ett": 2328,
      "från": 2329,
      "far": 2330,
      "heten": 2331,
      "▁svenska": 2332,
      "▁lik": 2333,
      "▁berätt": 2334,
      "öte": 2335,
      "äff": 2336,
      "älj": 2337,
      "talet": 2338,
      "▁bygg": 2339,
      "▁Stockholm": 2340,
      "bo": 2341,
      "▁kö": 2342,
      "dagen": 2343,
      "nen": 2344,
      "▁möjlighet": 2345,
      "▁fot": 2346,
      "▁Där": 2347,
      "▁gjort": 2348,
      "▁Man": 2349,
      "▁kunde": 2350,
      "drig": 2351,
      "iker": 2352,
      "ående": 2353,
      "las": 2354,
      "▁problem": 2355,
      "▁Var": 2356,
      "kv": 2357,
      "▁dina": 2358,
      "uss": 2359,
      "▁Till": 2360,
      "▁land": 2361,
      "ultat": 2362,
      "▁verksamhet": 2363,
      "äkt": 2364,
      "naden": 2365,
      "▁hus": 2366,
      "ind": 2367,
      "▁läm": 2368,
      "▁deras": 2369,
      "▁speci": 2370,
      "baka": 2371,
      "amp": 2372,
      "giv": 2373,
      "skol": 2374,
      "▁människor": 2375,
      "öst": 2376,
      "bär": 2377,
      "dat": 2378,
      "uter": 2379,
      "▁Ch": 2380,
      "▁lika": 2381,
      "river": 2382,
      "▁aldrig": 2383,
      "vet": 2384,
      "elsen": 2385,
      "raft": 2386,
      "▁full": 2387,
      "▁lever": 2388,
      "▁stad": 2389,
      "▁hitta": 2390,
      "▁red": 2391,
      "van": 2392,
      "sy": 2393,
      "hör": 2394,
      "▁verkligen": 2395,
      "ner": 2396,
      "▁tjän": 2397,
      "ubb": 2398,
      "lem": 2399,
      "▁gam": 2400,
      "rakt": 2401,
      "▁tillsammans": 2402,
      "▁direkt": 2403,
      "rist": 2404,
      "sf": 2405,
      "går": 2406,
      "döm": 2407,
      "▁nytt": 2408,
      "▁tillbaka": 2409,
      "ard": 2410,
      "res": 2411,
      "ationen": 2412,
      "▁kli": 2413,
      "uro": 2414,
      "orn": 2415,
      "ha": 2416,
      "▁tiden": 2417,
      "▁mina": 2418,
      "▁ung": 2419,
      "▁tog": 2420,
      "▁hal": 2421,
      "iten": 2422,
      "ler": 2423,
      "▁huvud": 2424,
      "▁natur": 2425,
      "ånd": 2426,
      "rad": 2427,
      "alen": 2428,
      "stad": 2429,
      "▁kvinn": 2430,
      "orr": 2431,
      "▁id": 2432,
      "▁lå": 2433,
      "nes": 2434,
      "mat": 2435,
      "▁egen": 2436,
      "▁förv": 2437,
      "▁komp": 2438,
      "▁Sam": 2439,
      "▁hotell": 2440,
      "ydd": 2441,
      "▁kro": 2442,
      "▁vän": 2443,
      "ition": 2444,
      "anis": 2445,
      "eller": 2446,
      "iver": 2447,
      "illa": 2448,
      "▁si": 2449,
      "▁Då": 2450,
      "▁beslut": 2451,
      "▁tim": 2452,
      "▁Ut": 2453,
      "ike": 2454,
      "▁därför": 2455,
      "ister": 2456,
      "▁gjorde": 2457,
      "ebb": 2458,
      "▁personer": 2459,
      "▁små": 2460,
      "olog": 2461,
      "▁kort": 2462,
      "▁kvar": 2463,
      "▁mindre": 2464,
      "▁honom": 2465,
      "▁Pro": 2466,
      "bland": 2467,
      "▁match": 2468,
      "▁hans": 2469,
      "▁häl": 2470,
      "▁använda": 2471,
      "be": 2472,
      "heter": 2473,
      "▁Re": 2474,
      "▁jäm": 2475,
      "▁områ": 2476,
      "skin": 2477,
      "orgon": 2478,
      "▁rum": 2479,
      "▁öpp": 2480,
      "▁gen": 2481,
      "▁klar": 2482,
      "▁kontakt": 2483,
      "drag": 2484,
      "▁står": 2485,
      "▁Under": 2486,
      "▁inför": 2487,
      "net": 2488,
      "yrk": 2489,
      "klar": 2490,
      "▁bo": 2491,
      "sikt": 2492,
      "▁läsa": 2493,
      "▁Sp": 2494,
      "▁väx": 2495,
      "atis": 2496,
      "▁köp": 2497,
      "▁rel": 2498,
      "öker": 2499,
      "▁ändå": 2500,
      "▁nät": 2501,
      "▁ih": 2502,
      "▁Hon": 2503,
      "▁familj": 2504,
      "▁större": 2505,
      "▁inv": 2506,
      "spel": 2507,
      "cis": 2508,
      "häll": 2509,
      "▁rör": 2510,
      "▁säga": 2511,
      "enter": 2512,
      "▁po": 2513,
      "▁Vis": 2514,
      "▁Som": 2515,
      "alitet": 2516,
      "ivit": 2517,
      "jur": 2518,
      "äster": 2519,
      "▁ute": 2520,
      "äpp": 2521,
      "yl": 2522,
      "lingen": 2523,
      "▁enkelt": 2524,
      "▁Y": 2525,
      "orter": 2526,
      "▁innebär": 2527,
      "skriv": 2528,
      "▁bor": 2529,
      "ynd": 2530,
      "ips": 2531,
      "▁folk": 2532,
      "lek": 2533,
      "iva": 2534,
      "ära": 2535,
      "pen": 2536,
      "▁vatten": 2537,
      "istor": 2538,
      "konom": 2539,
      "▁blog": 2540,
      "ras": 2541,
      "ärna": 2542,
      "han": 2543,
      "änk": 2544,
      "▁hemma": 2545,
      "▁via": 2546,
      "▁te": 2547,
      "▁part": 2548,
      "oner": 2549,
      "arl": 2550,
      "▁mass": 2551,
      "int": 2552,
      "mot": 2553,
      "▁Upp": 2554,
      "▁tur": 2555,
      "eln": 2556,
      "▁stort": 2557,
      "ekn": 2558,
      "▁eff": 2559,
      "▁mus": 2560,
      "ög": 2561,
      "icka": 2562,
      "▁kron": 2563,
      "▁senaste": 2564,
      "spl": 2565,
      "▁ytt": 2566,
      "▁känner": 2567,
      "▁procent": 2568,
      "▁haft": 2569,
      "▁sa": 2570,
      "▁hy": 2571,
      "▁längre": 2572,
      "▁fle": 2573,
      "bart": 2574,
      "▁dagar": 2575,
      "▁äg": 2576,
      "▁näst": 2577,
      "ligare": 2578,
      "▁bilder": 2579,
      "idigt": 2580,
      "▁fortsätt": 2581,
      "▁behand": 2582,
      "kommen": 2583,
      "▁saker": 2584,
      "kor": 2585,
      "▁Dess": 2586,
      "vi": 2587,
      "ong": 2588,
      "fall": 2589,
      "fekt": 2590,
      "▁bild": 2591,
      "▁fel": 2592,
      "▁Kan": 2593,
      "▁mis": 2594,
      "jus": 2595,
      "▁Sv": 2596,
      "▁webb": 2597,
      "▁utbild": 2598,
      "▁förl": 2599,
      "by": 2600,
      "▁sol": 2601,
      "▁tal": 2602,
      "▁blivit": 2603,
      "alm": 2604,
      "ons": 2605,
      "ara": 2606,
      "stånd": 2607,
      "▁ned": 2608,
      "▁öv": 2609,
      "▁kväll": 2610,
      "stället": 2611,
      "▁bru": 2612,
      "▁su": 2613,
      "▁följ": 2614,
      "edag": 2615,
      "▁sex": 2616,
      "ärskil": 2617,
      "▁omdöm": 2618,
      "ioner": 2619,
      "iet": 2620,
      "▁fem": 2621,
      "ib": 2622,
      "▁möjligt": 2623,
      "▁Mar": 2624,
      "▁faktiskt": 2625,
      "▁styr": 2626,
      "vänd": 2627,
      "▁stöd": 2628,
      "▁pengar": 2629,
      "▁länge": 2630,
      "vent": 2631,
      "lden": 2632,
      "▁låg": 2633,
      "farande": 2634,
      "▁Ja": 2635,
      "▁visar": 2636,
      "drar": 2637,
      "▁start": 2638,
      "▁ansvar": 2639,
      "▁org": 2640,
      "▁soci": 2641,
      "ont": 2642,
      "▁polit": 2643,
      "▁svårt": 2644,
      "▁flyg": 2645,
      "ess": 2646,
      "▁im": 2647,
      "istr": 2648,
      "▁loka": 2649,
      "nat": 2650,
      "▁liten": 2651,
      "▁värld": 2652,
      "▁ekonom": 2653,
      "▁Är": 2654,
      "▁art": 2655,
      "igheter": 2656,
      "▁titt": 2657,
      "▁ganska": 2658,
      "ännu": 2659,
      "▁känns": 2660,
      "▁Tr": 2661,
      "ata": 2662,
      "▁ännu": 2663,
      "sättning": 2664,
      "asin": 2665,
      "ämt": 2666,
      "▁börjar": 2667,
      "▁resultat": 2668,
      "under": 2669,
      "sak": 2670,
      "ått": 2671,
      "▁stud": 2672,
      "▁köpa": 2673,
      "▁gärna": 2674,
      "of": 2675,
      "▁disk": 2676,
      "▁inget": 2677,
      "▁risk": 2678,
      "▁projekt": 2679,
      "▁ca": 2680,
      "mäl": 2681,
      "▁bed": 2682,
      "▁syn": 2683,
      "▁vårt": 2684,
      "▁förm": 2685,
      "ena": 2686,
      "▁medlem": 2687,
      "▁dejt": 2688,
      "gift": 2689,
      "▁håller": 2690,
      "▁namn": 2691,
      "köp": 2692,
      "oder": 2693,
      "▁dagen": 2694,
      "▁sådan": 2695,
      "▁extra": 2696,
      "inner": 2697,
      "▁samhäll": 2698,
      "ix": 2699,
      "▁vidare": 2700,
      "▁intern": 2701,
      "▁Br": 2702,
      "▁nästan": 2703,
      "▁frågor": 2704,
      "andel": 2705,
      "▁Ny": 2706,
      "▁grupp": 2707,
      "▁besök": 2708,
      "sin": 2709,
      "lla": 2710,
      "▁dra": 2711,
      "fäll": 2712,
      "▁kont": 2713,
      "lic": 2714,
      "▁hittar": 2715,
      "▁lu": 2716,
      "▁precis": 2717,
      "ument": 2718,
      "fråg": 2719,
      "▁särskil": 2720,
      "tast": 2721,
      "▁fortfarande": 2722,
      "▁fa": 2723,
      "ever": 2724,
      "amma": 2725,
      "▁klass": 2726,
      "ygga": 2727,
      "gär": 2728,
      "▁vissa": 2729,
      "▁träff": 2730,
      "cess": 2731,
      "▁Al": 2732,
      "▁off": 2733,
      "ostad": 2734,
      "ider": 2735,
      "▁gånger": 2736,
      "▁handlar": 2737,
      "▁bill": 2738,
      "ternativ": 2739,
      "lad": 2740,
      "▁hund": 2741,
      "▁vilka": 2742,
      "▁före": 2743,
      "elef": 2744,
      "sats": 2745,
      "▁kronor": 2746,
      "▁stat": 2747,
      "▁hålla": 2748,
      "▁ant": 2749,
      "illar": 2750,
      "ivt": 2751,
      "age": 2752,
      "▁Av": 2753,
      "fär": 2754,
      "▁samtidigt": 2755,
      "spro": 2756,
      "ecka": 2757,
      "elser": 2758,
      "port": 2759,
      "unkt": 2760,
      "▁läs": 2761,
      "▁nära": 2762,
      "ffär": 2763,
      "▁alltså": 2764,
      "▁program": 2765,
      "eta": 2766,
      "ädd": 2767,
      "▁viktigt": 2768,
      "▁tekn": 2769,
      "ivå": 2770,
      "▁ka": 2771,
      "ct": 2772,
      "▁hoppas": 2773,
      "▁året": 2774,
      "förs": 2775,
      "erial": 2776,
      "▁eng": 2777,
      "▁fru": 2778,
      "ensk": 2779,
      "ite": 2780,
      "line": 2781,
      "▁ä": 2782,
      "▁betal": 2783,
      "▁henne": 2784,
      "▁istället": 2785,
      "ral": 2786,
      "▁lö": 2787,
      "▁Gr": 2788,
      "▁använder": 2789,
      "▁sidan": 2790,
      "▁bel": 2791,
      "▁senare": 2792,
      "cept": 2793,
      "jut": 2794,
      "▁kons": 2795,
      "ron": 2796,
      "band": 2797,
      "▁by": 2798,
      "ultur": 2799,
      "▁vilken": 2800,
      "ten": 2801,
      "▁samman": 2802,
      "▁flytt": 2803,
      "dera": 2804,
      "▁Alla": 2805,
      "▁gott": 2806,
      "▁arbete": 2807,
      "▁tyd": 2808,
      "▁Min": 2809,
      "▁började": 2810,
      "ori": 2811,
      "▁cent": 2812,
      "▁föränd": 2813,
      "SA": 2814,
      "▁nästa": 2815,
      "▁gratis": 2816,
      "ert": 2817,
      "▁bef": 2818,
      "▁skriver": 2819,
      "▁ad": 2820,
      "fil": 2821,
      "▁framför": 2822,
      "▁ytter": 2823,
      "▁förut": 2824,
      "▁typ": 2825,
      "▁behov": 2826,
      "ux": 2827,
      "▁bety": 2828,
      "▁hjär": 2829,
      "▁län": 2830,
      "sst": 2831,
      "▁kn": 2832,
      "▁minuter": 2833,
      "etter": 2834,
      "▁fyra": 2835,
      "▁själva": 2836,
      "▁sista": 2837,
      "▁sj": 2838,
      "råk": 2839,
      "▁funger": 2840,
      "▁största": 2841,
      "arbete": 2842,
      "▁utt": 2843,
      "▁ihop": 2844,
      "▁jätt": 2845,
      "▁Vid": 2846,
      "ater": 2847,
      "▁såg": 2848,
      "ian": 2849,
      "äss": 2850,
      "▁sett": 2851,
      "▁erbjuder": 2852,
      "unn": 2853,
      "▁pla": 2854,
      "okus": 2855,
      "▁ste": 2856,
      "reg": 2857,
      "▁endast": 2858,
      "pass": 2859,
      "▁spr": 2860,
      "elefon": 2861,
      "ita": 2862,
      "ivet": 2863,
      "▁flesta": 2864,
      "▁and": 2865,
      "fin": 2866,
      "agen": 2867,
      "ift": 2868,
      "▁hennes": 2869,
      "▁snabbt": 2870,
      "gru": 2871,
      "varande": 2872,
      "▁vack": 2873,
      "its": 2874,
      "ningarna": 2875,
      "bara": 2876,
      "▁Fin": 2877,
      "▁bid": 2878,
      "▁jämför": 2879,
      "▁minst": 2880,
      "faren": 2881,
      "err": 2882,
      "▁star": 2883,
      "▁främ": 2884,
      "▁tex": 2885,
      "▁kring": 2886,
      "▁spela": 2887,
      "▁behöv": 2888,
      "▁go": 2889,
      "ppar": 2890,
      "öjd": 2891,
      "▁läk": 2892,
      "▁Se": 2893,
      "▁egna": 2894,
      "ER": 2895,
      "▁AB": 2896,
      "ember": 2897,
      "▁organis": 2898,
      "▁förslag": 2899,
      "ifrån": 2900,
      "itu": 2901,
      "▁histor": 2902,
      "håller": 2903,
      "ris": 2904,
      "nande": 2905,
      "▁ol": 2906,
      "▁män": 2907,
      "öteborg": 2908,
      "pe": 2909,
      "verka": 2910,
      "▁kul": 2911,
      "val": 2912,
      "▁skapa": 2913,
      "▁bolag": 2914,
      "män": 2915,
      "▁bad": 2916,
      "▁klart": 2917,
      "rade": 2918,
      "▁pos": 2919,
      "▁tips": 2920,
      "▁världen": 2921,
      "▁ind": 2922,
      "ore": 2923,
      "bud": 2924,
      "get": 2925,
      "▁dessutom": 2926,
      "▁ener": 2927,
      "▁funktion": 2928,
      "inna": 2929,
      "▁jul": 2930,
      "▁kvinnor": 2931,
      "▁utveckling": 2932,
      "▁bestäm": 2933,
      "▁hår": 2934,
      "▁Idag": 2935,
      "gäng": 2936,
      "▁kar": 2937,
      "▁kär": 2938,
      "▁Euro": 2939,
      "▁Komm": 2940,
      "▁skicka": 2941,
      "▁fantast": 2942,
      "▁halv": 2943,
      "gon": 2944,
      "ölj": 2945,
      "▁Ber": 2946,
      "▁Sen": 2947,
      "▁satt": 2948,
      "▁Ex": 2949,
      "▁fören": 2950,
      "▁emot": 2951,
      "▁gamla": 2952,
      "lade": 2953,
      "örer": 2954,
      "▁mö": 2955,
      "▁vecka": 2956,
      "▁forsk": 2957,
      "▁inlägg": 2958,
      "ssk": 2959,
      "entligen": 2960,
      "▁välja": 2961,
      "▁bes": 2962,
      "full": 2963,
      "enskap": 2964,
      "ström": 2965,
      "▁fråga": 2966,
      "vård": 2967,
      "▁kor": 2968,
      "▁maj": 2969,
      "▁räk": 2970,
      "▁hän": 2971,
      "▁delar": 2972,
      "up": 2973,
      "vice": 2974,
      "▁långt": 2975,
      "orer": 2976,
      "▁alternativ": 2977,
      "▁ville": 2978,
      "▁maskin": 2979,
      "▁Z": 2980,
      "▁helst": 2981,
      "▁varför": 2982,
      "▁hjälper": 2983,
      "▁gått": 2984,
      "▁Vil": 2985,
      "▁Även": 2986,
      "urs": 2987,
      "bolag": 2988,
      "▁verkar": 2989,
      "sol": 2990,
      "▁täv": 2991,
      "terna": 2992,
      "gård": 2993,
      "▁övr": 2994,
      "▁system": 2995,
      "▁ren": 2996,
      "▁lycka": 2997,
      "▁färg": 2998,
      "▁borde": 2999,
      "▁kontro": 3000,
      "ckte": 3001,
      "▁vänt": 3002,
      "ond": 3003,
      "ckt": 3004,
      "▁lös": 3005,
      "mark": 3006,
      "▁föräl": 3007,
      "rikt": 3008,
      "ivitet": 3009,
      "▁Bo": 3010,
      "▁ob": 3011,
      "▁ön": 3012,
      "▁kraft": 3013,
      "▁trots": 3014,
      "klart": 3015,
      "▁met": 3016,
      "▁ljus": 3017,
      "▁upplev": 3018,
      "märk": 3019,
      "mär": 3020,
      "▁skr": 3021,
      "▁Le": 3022,
      "▁polis": 3023,
      "▁Bar": 3024,
      "▁ovan": 3025,
      "▁början": 3026,
      "agt": 3027,
      "▁timmar": 3028,
      "▁skön": 3029,
      "yss": 3030,
      "uella": 3031,
      "staur": 3032,
      "▁Air": 3033,
      "rag": 3034,
      "▁pa": 3035,
      "bygg": 3036,
      "one": 3037,
      "▁börja": 3038,
      "idor": 3039,
      "ny": 3040,
      "▁hjälpa": 3041,
      "unden": 3042,
      "▁pat": 3043,
      "▁papp": 3044,
      "sch": 3045,
      "▁vård": 3046,
      "▁Be": 3047,
      "▁erfaren": 3048,
      "lat": 3049,
      "▁veckan": 3050,
      "▁stan": 3051,
      "▁Max": 3052,
      "ummer": 3053,
      "▁Kon": 3054,
      "▁Bl": 3055,
      "▁tänka": 3056,
      "▁ibland": 3057,
      "derar": 3058,
      "▁inga": 3059,
      "skatt": 3060,
      "ställning": 3061,
      "▁ab": 3062,
      "ins": 3063,
      "▁cy": 3064,
      "▁kna": 3065,
      "▁ja": 3066,
      "▁rapp": 3067,
      "▁snart": 3068,
      "▁viktiga": 3069,
      "▁gar": 3070,
      "▁kräv": 3071,
      "▁perfekt": 3072,
      "▁und": 3073,
      "▁tack": 3074,
      "▁fina": 3075,
      "ruk": 3076,
      "äkring": 3077,
      "▁händer": 3078,
      "▁fokus": 3079,
      "väx": 3080,
      "▁brukar": 3081,
      "entar": 3082,
      "▁kap": 3083,
      "▁gången": 3084,
      "▁morgon": 3085,
      "▁Göteborg": 3086,
      "cer": 3087,
      "lingar": 3088,
      "▁öka": 3089,
      "ge": 3090,
      "öder": 3091,
      "▁y": 3092,
      "fri": 3093,
      "rukt": 3094,
      "▁EU": 3095,
      "▁lägga": 3096,
      "▁vanligt": 3097,
      "iner": 3098,
      "▁genomför": 3099,
      "▁heller": 3100,
      "ystem": 3101,
      "cker": 3102,
      "▁Fl": 3103,
      "▁Sveriges": 3104,
      "▁arbetar": 3105,
      "▁kvalitet": 3106,
      "ital": 3107,
      "ren": 3108,
      "▁mobil": 3109,
      "▁ens": 3110,
      "▁sov": 3111,
      "▁Denna": 3112,
      "amm": 3113,
      "lder": 3114,
      "ivers": 3115,
      "▁Nike": 3116,
      "agn": 3117,
      "▁skrev": 3118,
      "▁egentligen": 3119,
      "▁far": 3120,
      "tering": 3121,
      "sett": 3122,
      "ret": 3123,
      "okrat": 3124,
      "▁kopp": 3125,
      "▁tillfäll": 3126,
      "▁Tack": 3127,
      "▁rad": 3128,
      "▁Ty": 3129,
      "▁arbets": 3130,
      "▁gener": 3131,
      "▁utanför": 3132,
      "ännande": 3133,
      "▁tot": 3134,
      "▁Sedan": 3135,
      "▁mode": 3136,
      "boll": 3137,
      "én": 3138,
      "▁fanns": 3139,
      "ograf": 3140,
      "▁reger": 3141,
      "ds": 3142,
      "▁skriva": 3143,
      "unda": 3144,
      "▁blogg": 3145,
      "▁kunder": 3146,
      "co": 3147,
      "▁säs": 3148,
      "com": 3149,
      "fer": 3150,
      "▁månader": 3151,
      "ine": 3152,
      "sig": 3153,
      "iden": 3154,
      "▁moder": 3155,
      "▁skatt": 3156,
      "▁miljoner": 3157,
      "oende": 3158,
      "▁träd": 3159,
      "▁max": 3160,
      "plan": 3161,
      "▁Hel": 3162,
      "▁but": 3163,
      "tem": 3164,
      "▁bred": 3165,
      "▁medan": 3166,
      "▁sitter": 3167,
      "▁artik": 3168,
      "▁tem": 3169,
      "▁miljö": 3170,
      "EN": 3171,
      "▁livet": 3172,
      "bin": 3173,
      "▁priv": 3174,
      "▁ögon": 3175,
      "▁Ska": 3176,
      "områ": 3177,
      "▁framtid": 3178,
      "åga": 3179,
      "▁varandra": 3180,
      "▁Per": 3181,
      "▁Or": 3182,
      "▁gem": 3183,
      "▁glad": 3184,
      "kn": 3185,
      "▁film": 3186,
      "verket": 3187,
      "▁online": 3188,
      "▁särskilt": 3189,
      "sida": 3190,
      "rift": 3191,
      "▁km": 3192,
      "▁tagit": 3193,
      "▁antal": 3194,
      "▁Vill": 3195,
      "▁Johan": 3196,
      "jör": 3197,
      "ay": 3198,
      "▁resa": 3199,
      "ersätt": 3200,
      "▁bostad": 3201,
      "▁produkter": 3202,
      "snitt": 3203,
      "so": 3204,
      "▁passar": 3205,
      "▁topp": 3206,
      "▁sön": 3207,
      "▁veta": 3208,
      "uff": 3209,
      "▁sem": 3210,
      "ateg": 3211,
      "▁produkt": 3212,
      "spektiv": 3213,
      "gre": 3214,
      "▁sju": 3215,
      "ärer": 3216,
      "yll": 3217,
      "▁sommar": 3218,
      "dags": 3219,
      "▁lju": 3220,
      "ämp": 3221,
      "▁bäst": 3222,
      "▁Ander": 3223,
      "emang": 3224,
      "▁ytterligare": 3225,
      "ork": 3226,
      "▁affär": 3227,
      "▁fungerar": 3228,
      "▁pop": 3229,
      "▁Ro": 3230,
      "▁trans": 3231,
      "▁Inte": 3232,
      "▁råd": 3233,
      "▁marknad": 3234,
      "ension": 3235,
      "▁båda": 3236,
      "iks": 3237,
      "▁äldre": 3238,
      "hopp": 3239,
      "styr": 3240,
      "▁kommit": 3241,
      "▁trev": 3242,
      "▁Någ": 3243,
      "ilja": 3244,
      "▁används": 3245,
      "una": 3246,
      "▁lug": 3247,
      "▁skolan": 3248,
      "batt": 3249,
      "olv": 3250,
      "▁förra": 3251,
      "mt": 3252,
      "▁rekommen": 3253,
      "kla": 3254,
      "uld": 3255,
      "▁finans": 3256,
      "▁et": 3257,
      "ublic": 3258,
      "▁gillar": 3259,
      "bund": 3260,
      "igheten": 3261,
      "ledning": 3262,
      "▁Allt": 3263,
      "qu": 3264,
      "▁lägen": 3265,
      "önster": 3266,
      "IN": 3267,
      "▁alls": 3268,
      "▁känna": 3269,
      "tre": 3270,
      "als": 3271,
      "bok": 3272,
      "▁sagt": 3273,
      "▁tills": 3274,
      "ansk": 3275,
      "▁inter": 3276,
      "spir": 3277,
      "LA": 3278,
      "ke": 3279,
      "▁slag": 3280,
      "▁USA": 3281,
      "ww": 3282,
      "▁bas": 3283,
      "tar": 3284,
      "▁telefon": 3285,
      "▁död": 3286,
      "▁test": 3287,
      "ocka": 3288,
      "▁utför": 3289,
      "vara": 3290,
      "uni": 3291,
      "äcker": 3292,
      "▁svensk": 3293,
      "▁omfatt": 3294,
      "▁söker": 3295,
      "▁visa": 3296,
      "ity": 3297,
      "▁tillgäng": 3298,
      "aket": 3299,
      "▁släpp": 3300,
      "lut": 3301,
      "▁kunskap": 3302,
      "▁låt": 3303,
      "ev": 3304,
      "▁elever": 3305,
      "kort": 3306,
      "jö": 3307,
      "▁skill": 3308,
      "▁förbätt": 3309,
      "▁uppgifter": 3310,
      "åk": 3311,
      "▁tänker": 3312,
      "▁bakom": 3313,
      "▁ring": 3314,
      "▁dejting": 3315,
      "ansen": 3316,
      "lick": 3317,
      "▁Bil": 3318,
      "▁månad": 3319,
      "▁roll": 3320,
      "▁avslut": 3321,
      "ium": 3322,
      "▁säkerhet": 3323,
      "▁posit": 3324,
      "▁Th": 3325,
      "ran": 3326,
      "oss": 3327,
      "▁allmän": 3328,
      "ora": 3329,
      "▁cir": 3330,
      "▁förklar": 3331,
      "▁krav": 3332,
      "dar": 3333,
      "syk": 3334,
      "▁träning": 3335,
      "▁igenom": 3336,
      "ps": 3337,
      "▁säkert": 3338,
      "▁Malm": 3339,
      "▁Lin": 3340,
      "omen": 3341,
      "▁gre": 3342,
      "▁effektiv": 3343,
      "▁åka": 3344,
      "▁skap": 3345,
      "▁vägen": 3346,
      "▁The": 3347,
      "älla": 3348,
      "▁stu": 3349,
      "▁kund": 3350,
      "ou": 3351,
      "▁kultur": 3352,
      "kost": 3353,
      "▁omdömen": 3354,
      "▁vanliga": 3355,
      "len": 3356,
      "ator": 3357,
      "▁sätta": 3358,
      "▁ungdom": 3359,
      "▁mån": 3360,
      "▁mör": 3361,
      "chen": 3362,
      "▁dags": 3363,
      "▁Res": 3364,
      "terar": 3365,
      "splats": 3366,
      "usk": 3367,
      "spr": 3368,
      "▁anställ": 3369,
      "▁häst": 3370,
      "ängd": 3371,
      "lan": 3372,
      "▁co": 3373,
      "▁uppdat": 3374,
      "samma": 3375,
      "▁va": 3376,
      "▁bi": 3377,
      "▁energi": 3378,
      "▁förstå": 3379,
      "ärt": 3380,
      "▁Fa": 3381,
      "sla": 3382,
      "värr": 3383,
      "stol": 3384,
      "ält": 3385,
      "▁skog": 3386,
      "▁betyg": 3387,
      "▁sida": 3388,
      "▁veckor": 3389,
      "▁prakt": 3390,
      "asino": 3391,
      "▁spelar": 3392,
      "ringar": 3393,
      "▁inkl": 3394,
      "▁föd": 3395,
      "for": 3396,
      "▁Enligt": 3397,
      "till": 3398,
      "▁lilla": 3399,
      "emot": 3400,
      "end": 3401,
      "▁näm": 3402,
      "hl": 3403,
      "▁innehåller": 3404,
      "▁uppdrag": 3405,
      "ry": 3406,
      "▁prat": 3407,
      "▁fav": 3408,
      "▁lån": 3409,
      "▁Dan": 3410,
      "ies": 3411,
      "▁fördel": 3412,
      "ive": 3413,
      "▁menar": 3414,
      "▁am": 3415,
      "sättningar": 3416,
      "▁situ": 3417,
      "delse": 3418,
      "▁Dessutom": 3419,
      "ugust": 3420,
      "ban": 3421,
      "väl": 3422,
      "▁åtgär": 3423,
      "▁material": 3424,
      "▁skydd": 3425,
      "olit": 3426,
      "oden": 3427,
      "▁högre": 3428,
      "▁tred": 3429,
      "arnas": 3430,
      "alis": 3431,
      "▁restaur": 3432,
      "▁So": 3433,
      "skott": 3434,
      "rip": 3435,
      "▁ifrån": 3436,
      "▁jan": 3437,
      "mal": 3438,
      "AR": 3439,
      "▁Hot": 3440,
      "▁driv": 3441,
      "▁åren": 3442,
      "▁desig": 3443,
      "ovis": 3444,
      "ösa": 3445,
      "▁norm": 3446,
      "äcka": 3447,
      "▁äta": 3448,
      "▁fatt": 3449,
      "kur": 3450,
      "▁arbeta": 3451,
      "skan": 3452,
      "vid": 3453,
      "grupp": 3454,
      "▁djur": 3455,
      "▁försöka": 3456,
      "▁ingår": 3457,
      "▁vux": 3458,
      "▁lin": 3459,
      "▁utbildning": 3460,
      "▁berättar": 3461,
      "part": 3462,
      "▁länder": 3463,
      "alet": 3464,
      "öva": 3465,
      "▁roligt": 3466,
      "▁Väl": 3467,
      "vs": 3468,
      "▁landet": 3469,
      "▁års": 3470,
      "nt": 3471,
      "rafik": 3472,
      "och": 3473,
      "▁personal": 3474,
      "▁ben": 3475,
      "cen": 3476,
      "▁kommentar": 3477,
      "▁ersätt": 3478,
      "örj": 3479,
      "▁musik": 3480,
      "▁mid": 3481,
      "ew": 3482,
      "▁värde": 3483,
      "▁tillgång": 3484,
      "▁mil": 3485,
      "▁Mo": 3486,
      "▁luft": 3487,
      "atan": 3488,
      "▁bal": 3489,
      "▁popul": 3490,
      "▁frågan": 3491,
      "förande": 3492,
      "efter": 3493,
      "▁lära": 3494,
      "▁anal": 3495,
      "▁the": 3496,
      "▁väljer": 3497,
      "▁goda": 3498,
      "dem": 3499,
      "▁sats": 3500,
      "ationella": 3501,
      "stan": 3502,
      "▁Tro": 3503,
      "▁peri": 3504,
      "▁lad": 3505,
      "lex": 3506,
      "ativa": 3507,
      "verkar": 3508,
      "▁rep": 3509,
      "▁El": 3510,
      "▁Många": 3511,
      "ernas": 3512,
      "▁spelare": 3513,
      "▁tje": 3514,
      "▁effekt": 3515,
      "öcker": 3516,
      "▁Genom": 3517,
      "▁häng": 3518,
      "▁innehåll": 3519,
      "▁Karl": 3520,
      "▁poäng": 3521,
      "▁to": 3522,
      "öter": 3523,
      "▁ban": 3524,
      "▁bud": 3525,
      "avsett": 3526,
      "▁tredje": 3527,
      "spekt": 3528,
      "utveck": 3529,
      "▁Ha": 3530,
      "▁inspir": 3531,
      "▁utom": 3532,
      "▁steg": 3533,
      "läg": 3534,
      "iz": 3535,
      "öda": 3536,
      "▁presen": 3537,
      "▁indiv": 3538,
      "▁kök": 3539,
      "▁tan": 3540,
      "▁barnen": 3541,
      "pan": 3542,
      "äver": 3543,
      "ständ": 3544,
      "skolan": 3545,
      "▁igång": 3546,
      "▁dy": 3547,
      "efär": 3548,
      "▁rå": 3549,
      "uari": 3550,
      "räck": 3551,
      "▁Ta": 3552,
      "▁tank": 3553,
      "▁event": 3554,
      "▁gym": 3555,
      "ppa": 3556,
      "ökt": 3557,
      "rust": 3558,
      "▁sker": 3559,
      "▁kred": 3560,
      "▁fri": 3561,
      "▁jobba": 3562,
      "elska": 3563,
      "▁uppf": 3564,
      "▁otro": 3565,
      "▁sjukdom": 3566,
      "▁säl": 3567,
      "▁spännande": 3568,
      "▁kur": 3569,
      "▁fint": 3570,
      "ES": 3571,
      "handling": 3572,
      "mare": 3573,
      "öll": 3574,
      "bbet": 3575,
      "▁pri": 3576,
      "uppgifter": 3577,
      "▁besk": 3578,
      "▁webbplats": 3579,
      "▁recept": 3580,
      "iversitet": 3581,
      "▁sök": 3582,
      "produ": 3583,
      "bel": 3584,
      "skor": 3585,
      "▁följande": 3586,
      "▁gemens": 3587,
      "öts": 3588,
      "▁kroppen": 3589,
      "▁Arbet": 3590,
      "▁nätet": 3591,
      "▁Ste": 3592,
      "▁dit": 3593,
      "▁lör": 3594,
      "▁mamma": 3595,
      "▁kropp": 3596,
      "▁registr": 3597,
      "lands": 3598,
      "jen": 3599,
      "▁anmäl": 3600,
      "▁blod": 3601,
      "ugusti": 3602,
      "itta": 3603,
      "ktyg": 3604,
      "sidan": 3605,
      "▁klubb": 3606,
      "▁vit": 3607,
      "▁området": 3608,
      "▁bedöm": 3609,
      "köping": 3610,
      "▁ej": 3611,
      "▁Gu": 3612,
      "▁vänner": 3613,
      "ongen": 3614,
      "lös": 3615,
      "cc": 3616,
      "▁brott": 3617,
      "▁betala": 3618,
      "arm": 3619,
      "▁medel": 3620,
      "po": 3621,
      "▁ag": 3622,
      "▁Svenska": 3623,
      "▁detal": 3624,
      "igh": 3625,
      "gående": 3626,
      "▁förhåll": 3627,
      "▁jobbet": 3628,
      "▁utman": 3629,
      "af": 3630,
      "▁eget": 3631,
      "▁juni": 3632,
      "▁fisk": 3633,
      "▁mars": 3634,
      "ober": 3635,
      "▁knapp": 3636,
      "▁aktivitet": 3637,
      "▁skär": 3638,
      "▁bygga": 3639,
      "▁lyck": 3640,
      "▁inst": 3641,
      "▁pres": 3642,
      "▁erfarenhet": 3643,
      "tjän": 3644,
      "ton": 3645,
      "▁vem": 3646,
      "▁svår": 3647,
      "▁lyss": 3648,
      "ställa": 3649,
      "▁stra": 3650,
      "stid": 3651,
      "AN": 3652,
      "▁jobbar": 3653,
      "▁smak": 3654,
      "▁försöker": 3655,
      "företag": 3656,
      "▁fredag": 3657,
      "▁park": 3658,
      "▁januari": 3659,
      "▁såd": 3660,
      "ko": 3661,
      "▁sym": 3662,
      "värd": 3663,
      "▁liknande": 3664,
      "▁fortsätta": 3665,
      "▁följa": 3666,
      "▁säll": 3667,
      "▁misst": 3668,
      "ikation": 3669,
      "gräns": 3670,
      "otter": 3671,
      "▁mär": 3672,
      "▁uppt": 3673,
      "▁priser": 3674,
      "står": 3675,
      "▁massa": 3676,
      "▁skad": 3677,
      "orit": 3678,
      "▁Bra": 3679,
      "▁teck": 3680,
      "jöl": 3681,
      "▁samband": 3682,
      "▁Malmö": 3683,
      "▁nöd": 3684,
      "▁invester": 3685,
      "▁minska": 3686,
      "▁liksom": 3687,
      "oc": 3688,
      "▁älskar": 3689,
      "otten": 3690,
      "▁jord": 3691,
      "▁ham": 3692,
      "▁behandling": 3693,
      "▁Nej": 3694,
      "itter": 3695,
      "▁skor": 3696,
      "aga": 3697,
      "ligtvis": 3698,
      "▁augusti": 3699,
      "▁igår": 3700,
      "book": 3701,
      "vin": 3702,
      "▁utred": 3703,
      "▁användas": 3704,
      "▁ök": 3705,
      "mi": 3706,
      "ey": 3707,
      "▁Ad": 3708,
      "▁Dessa": 3709,
      "endet": 3710,
      "▁tra": 3711,
      "sav": 3712,
      "▁stäm": 3713,
      "▁behövs": 3714,
      "ägen": 3715,
      "▁nov": 3716,
      "▁X": 3717,
      "▁arbetet": 3718,
      "råd": 3719,
      "▁fortsätter": 3720,
      "grund": 3721,
      "dra": 3722,
      "jo": 3723,
      "▁försv": 3724,
      "▁beskriv": 3725,
      "▁mynd": 3726,
      "itut": 3727,
      "ferens": 3728,
      "ET": 3729,
      "solut": 3730,
      "alog": 3731,
      "▁trött": 3732,
      "icin": 3733,
      "▁gav": 3734,
      "▁krävs": 3735,
      "▁ok": 3736,
      "▁lokal": 3737,
      "▁Från": 3738,
      "▁slutet": 3739,
      "mål": 3740,
      "komst": 3741,
      "▁stå": 3742,
      "▁ålder": 3743,
      "gå": 3744,
      "ativt": 3745,
      "▁betyder": 3746,
      "ukt": 3747,
      "äft": 3748,
      "uellt": 3749,
      "▁känsl": 3750,
      "▁kombin": 3751,
      "▁Fot": 3752,
      "ruktur": 3753,
      "kan": 3754,
      "▁okt": 3755,
      "▁lämna": 3756,
      "▁heter": 3757,
      "▁Vär": 3758,
      "ism": 3759,
      "utt": 3760,
      "▁Eller": 3761,
      "ockan": 3762,
      "▁vä": 3763,
      "▁låter": 3764,
      "bord": 3765,
      "▁nivå": 3766,
      "▁Mat": 3767,
      "utbild": 3768,
      "▁fyll": 3769,
      "▁mor": 3770,
      "▁färd": 3771,
      "▁kam": 3772,
      "▁psyk": 3773,
      "▁allvar": 3774,
      "▁trygg": 3775,
      "▁unga": 3776,
      "▁stol": 3777,
      "▁maskinöver": 3778,
      "▁dro": 3779,
      "splan": 3780,
      "▁dec": 3781,
      "▁plac": 3782,
      "▁erbjud": 3783,
      "▁vilja": 3784,
      "ide": 3785,
      "pril": 3786,
      "▁mon": 3787,
      "▁dör": 3788,
      "▁förvänt": 3789,
      "▁dju": 3790,
      "▁anpass": 3791,
      "▁krit": 3792,
      "▁kol": 3793,
      "▁Därför": 3794,
      "▁tom": 3795,
      "eder": 3796,
      "på": 3797,
      "enden": 3798,
      "▁fortsatt": 3799,
      "san": 3800,
      "▁ungefär": 3801,
      "kas": 3802,
      "▁därmed": 3803,
      "ptem": 3804,
      "▁kredit": 3805,
      "sel": 3806,
      "▁press": 3807,
      "▁stark": 3808,
      "▁finnas": 3809,
      "skr": 3810,
      "▁idé": 3811,
      "▁Sh": 3812,
      "▁skick": 3813,
      "aler": 3814,
      "▁Mer": 3815,
      "ptember": 3816,
      "▁tio": 3817,
      "but": 3818,
      "▁ske": 3819,
      "▁nedan": 3820,
      "öna": 3821,
      "▁fi": 3822,
      "ycka": 3823,
      "▁Nord": 3824,
      "lare": 3825,
      "▁Co": 3826,
      "▁meter": 3827,
      "▁bär": 3828,
      "Det": 3829,
      "▁Visa": 3830,
      "allt": 3831,
      "person": 3832,
      "atta": 3833,
      "▁service": 3834,
      "▁TV": 3835,
      "▁Dag": 3836,
      "uell": 3837,
      "▁sli": 3838,
      "ille": 3839,
      "▁oro": 3840,
      "▁feb": 3841,
      "okument": 3842,
      "▁tjänster": 3843,
      "▁godk": 3844,
      "verkan": 3845,
      "▁viktig": 3846,
      "▁prov": 3847,
      "▁köra": 3848,
      "▁exempelvis": 3849,
      "ich": 3850,
      "▁Sven": 3851,
      "fess": 3852,
      "ue": 3853,
      "▁deltag": 3854,
      "växt": 3855,
      "inci": 3856,
      "▁vatt": 3857,
      "▁samarbet": 3858,
      "▁z": 3859,
      "▁meddel": 3860,
      "▁Ol": 3861,
      "järn": 3862,
      "maren": 3863,
      "▁me": 3864,
      "▁Reg": 3865,
      "▁public": 3866,
      "ure": 3867,
      "onus": 3868,
      "▁Kl": 3869,
      "llen": 3870,
      "åld": 3871,
      "ykt": 3872,
      "▁process": 3873,
      "▁ämn": 3874,
      "ubl": 3875,
      "▁Fast": 3876,
      "▁företaget": 3877,
      "cebook": 3878,
      "▁kommunen": 3879,
      "▁cirka": 3880,
      "dde": 3881,
      "huset": 3882,
      "▁blå": 3883,
      "▁stund": 3884,
      "anter": 3885,
      "fte": 3886,
      "▁bit": 3887,
      "▁gra": 3888,
      "▁privat": 3889,
      "märkt": 3890,
      "ach": 3891,
      "▁tänkte": 3892,
      "deles": 3893,
      "▁super": 3894,
      "▁stil": 3895,
      "▁log": 3896,
      "▁mag": 3897,
      "pet": 3898,
      "▁stod": 3899,
      "▁utl": 3900,
      "▁Tv": 3901,
      "▁boken": 3902,
      "▁bilen": 3903,
      "merik": 3904,
      "▁absolut": 3905,
      "▁kyrk": 3906,
      "▁la": 3907,
      "unch": 3908,
      "▁stäng": 3909,
      "nam": 3910,
      "▁säng": 3911,
      "▁Europa": 3912,
      "▁bju": 3913,
      "▁År": 3914,
      "▁mm": 3915,
      "rym": 3916,
      "▁dröm": 3917,
      "ugg": 3918,
      "▁förstår": 3919,
      "▁Vår": 3920,
      "ph": 3921,
      "▁sådana": 3922,
      "▁försälj": 3923,
      "▁Kanske": 3924,
      "ffe": 3925,
      "▁fys": 3926,
      "▁trad": 3927,
      "▁viss": 3928,
      "▁tvätt": 3929,
      "▁chef": 3930,
      "▁engelska": 3931,
      "▁drabb": 3932,
      "▁oftast": 3933,
      "▁semester": 3934,
      "▁tyckte": 3935,
      "▁nå": 3936,
      "▁betyd": 3937,
      "▁social": 3938,
      "▁Em": 3939,
      "rör": 3940,
      "▁Go": 3941,
      "▁stället": 3942,
      "▁anser": 3943,
      "öja": 3944,
      "▁består": 3945,
      "▁följer": 3946,
      "▁kläder": 3947,
      "▁tillhör": 3948,
      "iel": 3949,
      "▁övriga": 3950,
      "ruari": 3951,
      "▁svart": 3952,
      "▁hot": 3953,
      "enten": 3954,
      "▁gäll": 3955,
      "▁natt": 3956,
      "▁delen": 3957,
      "▁post": 3958,
      "▁fix": 3959,
      "▁löp": 3960,
      "gården": 3961,
      "mo": 3962,
      "▁glas": 3963,
      "▁bilden": 3964,
      "▁dubb": 3965,
      "skydd": 3966,
      "▁speciellt": 3967,
      "ige": 3968,
      "Jag": 3969,
      "▁beroende": 3970,
      "▁öppna": 3971,
      "▁oktober": 3972,
      "▁kompl": 3973,
      "▁april": 3974,
      "▁september": 3975,
      "▁Varför": 3976,
      "iljö": 3977,
      "▁orsak": 3978,
      "▁offent": 3979,
      "▁tillräck": 3980,
      "▁Fort": 3981,
      "▁Ni": 3982,
      "▁intressant": 3983,
      "▁enskil": 3984,
      "▁mots": 3985,
      "erande": 3986,
      "▁såsom": 3987,
      "hem": 3988,
      "▁air": 3989,
      "▁avgör": 3990,
      "▁skönt": 3991,
      "▁Stor": 3992,
      "▁samarbete": 3993,
      "▁senast": 3994,
      "▁nämn": 3995,
      "use": 3996,
      "▁märk": 3997,
      "erades": 3998,
      "▁Gud": 3999,
      "▁app": 4000,
      "▁regel": 4001,
      "klag": 4002,
      "▁Lund": 4003,
      "▁Del": 4004,
      "blad": 4005,
      "▁Ser": 4006,
      "onen": 4007,
      "ökte": 4008,
      "▁him": 4009,
      "▁föres": 4010,
      "▁nämligen": 4011,
      "▁påverka": 4012,
      "ink": 4013,
      "pris": 4014,
      "▁utveckla": 4015,
      "▁dagens": 4016,
      "ören": 4017,
      "▁Pol": 4018,
      "kring": 4019,
      "▁otroligt": 4020,
      "▁inf": 4021,
      "▁höst": 4022,
      "▁do": 4023,
      "▁lek": 4024,
      "olf": 4025,
      "▁vide": 4026,
      "ryck": 4027,
      "▁åkte": 4028,
      "▁närma": 4029,
      "▁spar": 4030,
      "lever": 4031,
      "ligheten": 4032,
      "▁stopp": 4033,
      "▁bank": 4034,
      "isen": 4035,
      "▁lägger": 4036,
      "▁rädd": 4037,
      "vik": 4038,
      "▁Sw": 4039,
      "▁fotboll": 4040,
      "▁lan": 4041,
      "▁behöva": 4042,
      "▁gran": 4043,
      "press": 4044,
      "▁intresse": 4045,
      "bro": 4046,
      "▁häls": 4047,
      "▁pe": 4048,
      "▁favorit": 4049,
      "▁Eftersom": 4050,
      "▁alldeles": 4051,
      "teck": 4052,
      "▁Pl": 4053,
      "▁titta": 4054,
      "▁kräver": 4055,
      "▁hjärt": 4056,
      "▁Hej": 4057,
      "ST": 4058,
      "eringen": 4059,
      "▁framgång": 4060,
      "▁nike": 4061,
      "ions": 4062,
      "▁skapar": 4063,
      "▁mar": 4064,
      "ations": 4065,
      "▁Q": 4066,
      "▁gäster": 4067,
      "▁helgen": 4068,
      "▁ac": 4069,
      "▁vackra": 4070,
      "jor": 4071,
      "▁Sa": 4072,
      "▁Hen": 4073,
      "▁undersök": 4074,
      "▁engag": 4075,
      "orten": 4076,
      "▁tänkt": 4077,
      "▁främst": 4078,
      "▁visade": 4079,
      "▁Jon": 4080,
      "▁februari": 4081,
      "skola": 4082,
      "▁kostnad": 4083,
      "terade": 4084,
      "▁grav": 4085,
      "iera": 4086,
      "▁sommaren": 4087,
      "▁möjligheter": 4088,
      "stri": 4089,
      "betal": 4090,
      "demokrat": 4091,
      "ekomm": 4092,
      "▁nödvänd": 4093,
      "vist": 4094,
      "▁kompet": 4095,
      "▁beg": 4096,
      "alla": 4097,
      "eställ": 4098,
      "▁lön": 4099,
      "oms": 4100,
      "▁For": 4101,
      "▁Öster": 4102,
      "teras": 4103,
      "kväll": 4104,
      "▁annars": 4105,
      "▁Jan": 4106,
      "▁hemsida": 4107,
      "▁miss": 4108,
      "▁text": 4109,
      "▁interv": 4110,
      "ifier": 4111,
      "äget": 4112,
      "▁språk": 4113,
      "▁ökar": 4114,
      "ygger": 4115,
      "▁avtal": 4116,
      "▁beror": 4117,
      "samt": 4118,
      "▁områden": 4119,
      "▁Lu": 4120,
      "▁låta": 4121,
      "▁universitet": 4122,
      "▁boende": 4123,
      "licka": 4124,
      "▁kolla": 4125,
      "ategor": 4126,
      "▁konkur": 4127,
      "▁La": 4128,
      "▁hud": 4129,
      "▁cm": 4130,
      "▁yrk": 4131,
      "▁insta": 4132,
      "▁vak": 4133,
      "▁sån": 4134,
      "rateg": 4135,
      "▁Erik": 4136,
      "medel": 4137,
      "▁Kom": 4138,
      "urna": 4139,
      "▁närheten": 4140,
      "▁världens": 4141,
      "enn": 4142,
      "ash": 4143,
      "delning": 4144,
      "▁Norr": 4145,
      "▁Hem": 4146,
      "▁uppmärk": 4147,
      "▁sälj": 4148,
      "▁Kar": 4149,
      "▁sociala": 4150,
      "▁dist": 4151,
      "chef": 4152,
      "▁billiga": 4153,
      "▁klimat": 4154,
      "▁Själv": 4155,
      "▁insats": 4156,
      "▁tor": 4157,
      "▁klara": 4158,
      "▁utifrån": 4159,
      "verksamhet": 4160,
      "seende": 4161,
      "gel": 4162,
      "program": 4163,
      "▁tradition": 4164,
      "▁begräns": 4165,
      "unnit": 4166,
      "yld": 4167,
      "▁familjen": 4168,
      "▁kvällen": 4169,
      "▁prata": 4170,
      "▁leder": 4171,
      "anta": 4172,
      "▁Anna": 4173,
      "▁gammal": 4174,
      "▁författ": 4175,
      "▁sådant": 4176,
      "▁Sm": 4177,
      "ningss": 4178,
      "▁oavsett": 4179,
      "▁december": 4180,
      "nytt": 4181,
      "▁Än": 4182,
      "ly": 4183,
      "▁ba": 4184,
      "bruk": 4185,
      "▁möt": 4186,
      "still": 4187,
      "▁ansök": 4188,
      "▁såväl": 4189,
      "cke": 4190,
      "▁Köp": 4191,
      "▁amerik": 4192,
      "ktioner": 4193,
      "▁huset": 4194,
      "▁Tid": 4195,
      "ierna": 4196,
      "▁verksamheten": 4197,
      "▁buss": 4198,
      "▁höga": 4199,
      "▁högt": 4200,
      "yp": 4201,
      "▁lev": 4202,
      "▁november": 4203,
      "▁föräldrar": 4204,
      "serv": 4205,
      "▁kamp": 4206,
      "▁förr": 4207,
      "▁defin": 4208,
      "ften": 4209,
      "igin": 4210,
      "änkt": 4211,
      "▁iväg": 4212,
      "let": 4213,
      "▁ram": 4214,
      "ING": 4215,
      "juta": 4216,
      "▁glöm": 4217,
      "ager": 4218,
      "▁ställa": 4219,
      "▁ton": 4220,
      "▁fullt": 4221,
      "▁Sy": 4222,
      "gren": 4223,
      "▁juli": 4224,
      "▁mys": 4225,
      "▁kände": 4226,
      "▁kontakta": 4227,
      "▁Er": 4228,
      "▁Just": 4229,
      "▁höra": 4230,
      "fa": 4231,
      "▁tas": 4232,
      "ump": 4233,
      "cy": 4234,
      "▁spår": 4235,
      "LL": 4236,
      "▁vare": 4237,
      "▁våld": 4238,
      "ald": 4239,
      "▁oper": 4240,
      "ON": 4241,
      "▁framtiden": 4242,
      "▁klockan": 4243,
      "▁chans": 4244,
      "▁Kv": 4245,
      "sområ": 4246,
      "▁staden": 4247,
      "▁åtgärder": 4248,
      "▁Su": 4249,
      "over": 4250,
      "▁skillnad": 4251,
      "▁resen": 4252,
      "▁våg": 4253,
      "▁Pre": 4254,
      "orl": 4255,
      "▁kärlek": 4256,
      "▁sitta": 4257,
      "▁Intern": 4258,
      "▁Ju": 4259,
      "emedel": 4260,
      "enser": 4261,
      "▁Mot": 4262,
      "back": 4263,
      "bes": 4264,
      "pper": 4265,
      "▁blomm": 4266,
      "ate": 4267,
      "▁ter": 4268,
      "▁vart": 4269,
      "▁leva": 4270,
      "▁infl": 4271,
      "stans": 4272,
      "▁kal": 4273,
      "▁börjat": 4274,
      "fta": 4275,
      "punkt": 4276,
      "OR": 4277,
      "läggning": 4278,
      "▁gu": 4279,
      "▁internet": 4280,
      "likt": 4281,
      "▁verktyg": 4282,
      "▁rapporter": 4283,
      "▁euro": 4284,
      "▁sch": 4285,
      "▁vänster": 4286,
      "▁Krist": 4287,
      "▁fest": 4288,
      "skon": 4289,
      "▁sta": 4290,
      "▁Gör": 4291,
      "dagar": 4292,
      "▁ek": 4293,
      "▁visst": 4294,
      "▁fastighet": 4295,
      "▁långa": 4296,
      "stå": 4297,
      "▁uppskatt": 4298,
      "▁Par": 4299,
      "▁historia": 4300,
      "▁hälsa": 4301,
      "mid": 4302,
      "satts": 4303,
      "CK": 4304,
      "▁böcker": 4305,
      "▁Över": 4306,
      "system": 4307,
      "iella": 4308,
      "▁bekv": 4309,
      "▁omkring": 4310,
      "ho": 4311,
      "åde": 4312,
      "bundet": 4313,
      "ander": 4314,
      "▁helg": 4315,
      "▁höll": 4316,
      "ila": 4317,
      "ottag": 4318,
      "▁arbetsm": 4319,
      "▁möte": 4320,
      "ona": 4321,
      "utomat": 4322,
      "▁matchen": 4323,
      "▁pot": 4324,
      "▁design": 4325,
      "▁ör": 4326,
      "ias": 4327,
      "ca": 4328,
      "givare": 4329,
      "▁regeringen": 4330,
      "▁kval": 4331,
      "▁Ver": 4332,
      "mor": 4333,
      "▁Akt": 4334,
      "▁hårt": 4335,
      "emål": 4336,
      "▁Car": 4337,
      "▁kallas": 4338,
      "iti": 4339,
      "▁Fil": 4340,
      "▁os": 4341,
      "▁kvinna": 4342,
      "▁dator": 4343,
      "ekv": 4344,
      "pon": 4345,
      "uden": 4346,
      "▁medlemmar": 4347,
      "▁Hotel": 4348,
      "▁fjär": 4349,
      "AT": 4350,
      "▁Sch": 4351,
      "▁totalt": 4352,
      "▁ins": 4353,
      "▁snygg": 4354,
      "▁Sn": 4355,
      "▁ordförande": 4356,
      "▁årets": 4357,
      "▁sten": 4358,
      "▁ident": 4359,
      "▁samtal": 4360,
      "▁dryg": 4361,
      "▁New": 4362,
      "▁sport": 4363,
      "▁teknik": 4364,
      "▁stand": 4365,
      "▁tyvärr": 4366,
      "▁åker": 4367,
      "▁fart": 4368,
      "▁lättare": 4369,
      "▁ena": 4370,
      "arbetare": 4371,
      "▁at": 4372,
      "aget": 4373,
      "▁tidigt": 4374,
      "▁anslut": 4375,
      "▁erbjuda": 4376,
      "följ": 4377,
      "▁kostnader": 4378,
      "otek": 4379,
      "▁konkurr": 4380,
      "brott": 4381,
      "▁Lind": 4382,
      "▁tanke": 4383,
      "allen": 4384,
      "bur": 4385,
      "▁lokala": 4386,
      "▁Joh": 4387,
      "cens": 4388,
      "her": 4389,
      "▁Kommun": 4390,
      "▁litet": 4391,
      "▁vinter": 4392,
      "▁dam": 4393,
      "▁kontroller": 4394,
      "▁antalet": 4395,
      "▁opt": 4396,
      "▁inled": 4397,
      "▁Anders": 4398,
      "▁uppe": 4399,
      "▁höger": 4400,
      "stående": 4401,
      "▁samhället": 4402,
      "▁marknaden": 4403,
      "jan": 4404,
      "▁od": 4405,
      "▁båt": 4406,
      "▁Mark": 4407,
      "▁princi": 4408,
      "▁kri": 4409,
      "▁söka": 4410,
      "maskin": 4411,
      "▁x": 4412,
      "▁produktion": 4413,
      "▁Väst": 4414,
      "▁stress": 4415,
      "sättningen": 4416,
      "ligheter": 4417,
      "▁tit": 4418,
      "▁Hög": 4419,
      "ocker": 4420,
      "▁fre": 4421,
      "ffa": 4422,
      "öta": 4423,
      "▁Facebook": 4424,
      "▁anledning": 4425,
      "▁ensam": 4426,
      "▁lov": 4427,
      "rummet": 4428,
      "peratur": 4429,
      "▁Te": 4430,
      "▁frukt": 4431,
      "sg": 4432,
      "▁ansikt": 4433,
      "▁profess": 4434,
      "cial": 4435,
      "▁Sol": 4436,
      "garna": 4437,
      "▁hända": 4438,
      "▁redovis": 4439,
      "ärn": 4440,
      "▁nöjd": 4441,
      "▁dåligt": 4442,
      "▁villkor": 4443,
      "▁cykel": 4444,
      "▁allra": 4445,
      "▁strateg": 4446,
      "▁kart": 4447,
      "▁individ": 4448,
      "▁dri": 4449,
      "igen": 4450,
      "ägare": 4451,
      "▁förel": 4452,
      "orden": 4453,
      "eringar": 4454,
      "oppet": 4455,
      "▁Björ": 4456,
      "▁ide": 4457,
      "▁fas": 4458,
      "▁icke": 4459,
      "▁forskning": 4460,
      "anda": 4461,
      "▁Ann": 4462,
      "mm": 4463,
      "itid": 4464,
      "▁spring": 4465,
      "▁Pa": 4466,
      "▁lämp": 4467,
      "äkra": 4468,
      "yra": 4469,
      "▁utmärkt": 4470,
      "DR": 4471,
      "▁lägre": 4472,
      "uten": 4473,
      "▁sort": 4474,
      "delar": 4475,
      "▁förstås": 4476,
      "▁utgör": 4477,
      "▁num": 4478,
      "▁väntar": 4479,
      "▁lagen": 4480,
      "▁exakt": 4481,
      "▁beräk": 4482,
      "▁Str": 4483,
      "▁Stockholms": 4484,
      "▁sätter": 4485,
      "iteten": 4486,
      "edd": 4487,
      "▁vinna": 4488,
      "äckt": 4489,
      "▁Söder": 4490,
      "▁casino": 4491,
      "▁samtliga": 4492,
      "ären": 4493,
      "omenad": 4494,
      "▁uppfatt": 4495,
      "▁server": 4496,
      "▁Bill": 4497,
      "▁sade": 4498,
      "▁köpte": 4499,
      "ände": 4500,
      "smedel": 4501,
      "▁data": 4502,
      "uk": 4503,
      "lande": 4504,
      "▁Förs": 4505,
      "etar": 4506,
      "▁förvalt": 4507,
      "▁Di": 4508,
      "▁typer": 4509,
      "tidigt": 4510,
      "▁artikel": 4511,
      "▁tillräckligt": 4512,
      "värt": 4513,
      "▁sur": 4514,
      "▁känsla": 4515,
      "▁varum": 4516,
      "▁gläd": 4517,
      "▁underhåll": 4518,
      "▁exper": 4519,
      "▁avl": 4520,
      "▁kunnat": 4521,
      "▁Berg": 4522,
      "▁lärare": 4523,
      "▁em": 4524,
      "▁uppgift": 4525,
      "▁frukost": 4526,
      "yta": 4527,
      "ibli": 4528,
      "▁område": 4529,
      "▁säsongen": 4530,
      "ham": 4531,
      "▁bidrag": 4532,
      "▁berätta": 4533,
      "▁rut": 4534,
      "▁indu": 4535,
      "▁läser": 4536,
      "▁nån": 4537,
      "entet": 4538,
      "kad": 4539,
      "▁platser": 4540,
      "▁Väster": 4541,
      "▁gro": 4542,
      "ycken": 4543,
      "▁förber": 4544,
      "usive": 4545,
      "▁kontroll": 4546,
      "▁Hopp": 4547,
      "▁tåg": 4548,
      "▁bek": 4549,
      "IS": 4550,
      "post": 4551,
      "sled": 4552,
      "▁region": 4553,
      "handel": 4554,
      "▁lunch": 4555,
      "ården": 4556,
      "visning": 4557,
      "▁ljud": 4558,
      "▁elekt": 4559,
      "▁Ben": 4560,
      "▁enbart": 4561,
      "▁skola": 4562,
      "▁respektiv": 4563,
      "▁Pris": 4564,
      "▁medvet": 4565,
      "▁polisen": 4566,
      "EK": 4567,
      "▁tävling": 4568,
      "Om": 4569,
      "▁konstat": 4570,
      "▁fj": 4571,
      "▁lägg": 4572,
      "▁respektive": 4573,
      "ish": 4574,
      "▁boka": 4575,
      "▁ont": 4576,
      "vika": 4577,
      "ogg": 4578,
      "▁ått": 4579,
      "isar": 4580,
      "▁centrum": 4581,
      "▁massor": 4582,
      "▁bygger": 4583,
      "▁medicin": 4584,
      "stag": 4585,
      "▁krig": 4586,
      "▁säsong": 4587,
      "lack": 4588,
      "▁katt": 4589,
      "iter": 4590,
      "▁Använd": 4591,
      "sala": 4592,
      "ologi": 4593,
      "▁lyckas": 4594,
      "isa": 4595,
      "▁riks": 4596,
      "▁skrivit": 4597,
      "▁vitt": 4598,
      "▁drag": 4599,
      "▁Samtidigt": 4600,
      "fritt": 4601,
      "ingens": 4602,
      "▁Fred": 4603,
      "▁produc": 4604,
      "▁Bland": 4605,
      "resent": 4606,
      "▁no": 4607,
      "▁leverant": 4608,
      "▁född": 4609,
      "▁makt": 4610,
      "▁resenärer": 4611,
      "larna": 4612,
      "utveckling": 4613,
      "▁is": 4614,
      "ric": 4615,
      "▁origin": 4616,
      "▁nation": 4617,
      "▁Hans": 4618,
      "▁integr": 4619,
      "usen": 4620,
      "▁ko": 4621,
      "▁dokument": 4622,
      "▁gällande": 4623,
      "hov": 4624,
      "styrelsen": 4625,
      "▁regler": 4626,
      "ipp": 4627,
      "ädda": 4628,
      "▁hämt": 4629,
      "▁vann": 4630,
      "▁mera": 4631,
      "stjän": 4632,
      "▁grän": 4633,
      "▁ekonomiska": 4634,
      "uren": 4635,
      "▁röst": 4636,
      "etr": 4637,
      "▁borta": 4638,
      "▁valt": 4639,
      "▁framåt": 4640,
      "ills": 4641,
      "▁tillverk": 4642,
      "▁träffa": 4643,
      "▁tors": 4644,
      "grepp": 4645,
      "▁Eng": 4646,
      "▁dela": 4647,
      "inder": 4648,
      "▁brans": 4649,
      "ica": 4650,
      "▁förekomm": 4651,
      "▁dans": 4652,
      "sprung": 4653,
      "ningsvis": 4654,
      "▁rull": 4655,
      "▁reda": 4656,
      "ordon": 4657,
      "▁gemensam": 4658,
      "dering": 4659,
      "▁förlor": 4660,
      "ola": 4661,
      "▁byta": 4662,
      "lor": 4663,
      "anc": 4664,
      "▁ak": 4665,
      "▁hit": 4666,
      "▁tving": 4667,
      "▁Ingen": 4668,
      "▁kompetens": 4669,
      "▁försvar": 4670,
      "▁sek": 4671,
      "▁sann": 4672,
      "srätt": 4673,
      "▁kostar": 4674,
      "▁snar": 4675,
      "cep": 4676,
      "ox": 4677,
      "ake": 4678,
      "▁högsta": 4679,
      "amin": 4680,
      "ienter": 4681,
      "▁scen": 4682,
      "▁trä": 4683,
      "▁trädgård": 4684,
      "▁anställda": 4685,
      "▁handel": 4686,
      "▁rik": 4687,
      "ätta": 4688,
      "IK": 4689,
      "hets": 4690,
      "ting": 4691,
      "▁storlek": 4692,
      "änning": 4693,
      "▁maskinöversatts": 4694,
      "▁pappa": 4695,
      "▁viktigaste": 4696,
      "delen": 4697,
      "▁läst": 4698,
      "▁trafik": 4699,
      "▁Nil": 4700,
      "▁vägg": 4701,
      "slös": 4702,
      "marna": 4703,
      "▁nöj": 4704,
      "▁hum": 4705,
      "önt": 4706,
      "▁vers": 4707,
      "▁bonus": 4708,
      "▁försäkring": 4709,
      "edagog": 4710,
      "entligt": 4711,
      "stor": 4712,
      "▁värme": 4713,
      "▁betydelse": 4714,
      "ancer": 4715,
      "▁väder": 4716,
      "▁önskar": 4717,
      "▁hösten": 4718,
      "▁enkla": 4719,
      "▁skäl": 4720,
      "▁dels": 4721,
      "▁rom": 4722,
      "▁port": 4723,
      "▁neg": 4724,
      "▁tydligt": 4725,
      "▁lo": 4726,
      "ringen": 4727,
      "ställd": 4728,
      "▁amb": 4729,
      "ämta": 4730,
      "▁drar": 4731,
      "▁kommande": 4732,
      "▁triv": 4733,
      "ÖR": 4734,
      "▁däremot": 4735,
      "urser": 4736,
      "▁övrigt": 4737,
      "▁pension": 4738,
      "▁öppen": 4739,
      "▁intervju": 4740,
      "▁rabatt": 4741,
      "▁utbud": 4742,
      "▁butik": 4743,
      "ement": 4744,
      "nummer": 4745,
      "XX": 4746,
      "▁påverkar": 4747,
      "▁testa": 4748,
      "server": 4749,
      "▁platt": 4750,
      "▁ons": 4751,
      "bas": 4752,
      "kraft": 4753,
      "sc": 4754,
      "▁trodde": 4755,
      "istik": 4756,
      "▁extre": 4757,
      "▁kil": 4758,
      "▁dotter": 4759,
      "▁ställer": 4760,
      "▁hittade": 4761,
      "▁närmare": 4762,
      "▁hållbar": 4763,
      "▁sjun": 4764,
      "▁brev": 4765,
      "fören": 4766,
      "organis": 4767,
      "▁leda": 4768,
      "ood": 4769,
      "▁Bes": 4770,
      "arder": 4771,
      "▁idrott": 4772,
      "valt": 4773,
      "▁mjöl": 4774,
      "visor": 4775,
      "▁Barn": 4776,
      "rika": 4777,
      "▁Peter": 4778,
      "▁tankar": 4779,
      "orlunda": 4780,
      "▁ändra": 4781,
      "▁Varje": 4782,
      "▁Skån": 4783,
      "ordning": 4784,
      "▁vardag": 4785,
      "▁Person": 4786,
      "▁organisation": 4787,
      "▁nor": 4788,
      "året": 4789,
      "rustning": 4790,
      "▁jämfört": 4791,
      "▁mej": 4792,
      "za": 4793,
      "▁vuxna": 4794,
      "▁läge": 4795,
      "ici": 4796,
      "lay": 4797,
      "▁äter": 4798,
      "▁sh": 4799,
      "▁laget": 4800,
      "▁Am": 4801,
      "▁ME": 4802,
      "▁personliga": 4803,
      "häl": 4804,
      "jting": 4805,
      "änta": 4806,
      "orge": 4807,
      "pat": 4808,
      "▁san": 4809,
      "▁priset": 4810,
      "▁lördag": 4811,
      "istiska": 4812,
      "ötsligt": 4813,
      "unkter": 4814,
      "enting": 4815,
      "▁rö": 4816,
      "▁användning": 4817,
      "lå": 4818,
      "▁SV": 4819,
      "▁punkt": 4820,
      "▁försök": 4821,
      "▁tryck": 4822,
      "öns": 4823,
      "bol": 4824,
      "▁ark": 4825,
      "▁Kal": 4826,
      "St": 4827,
      "▁filmen": 4828,
      "▁special": 4829,
      "▁Trots": 4830,
      "oret": 4831,
      "platsen": 4832,
      "▁tjänst": 4833,
      "bjud": 4834,
      "▁tjej": 4835,
      "▁besökare": 4836,
      "▁kommuna": 4837,
      "anger": 4838,
      "▁höj": 4839,
      "▁specif": 4840,
      "▁lägenhet": 4841,
      "▁Carl": 4842,
      "▁Uppsala": 4843,
      "kast": 4844,
      "▁betydligt": 4845,
      "▁prote": 4846,
      "iot": 4847,
      "▁någonsin": 4848,
      "▁träna": 4849,
      "our": 4850,
      "▁He": 4851,
      "ftet": 4852,
      "inge": 4853,
      "▁läkemedel": 4854,
      "hav": 4855,
      "frågan": 4856,
      "▁Två": 4857,
      "▁nag": 4858,
      "jul": 4859,
      "▁diskuss": 4860,
      "rala": 4861,
      "▁slå": 4862,
      "▁Hoppas": 4863,
      "▁planera": 4864,
      "▁drog": 4865,
      "▁ev": 4866,
      "örd": 4867,
      "▁bord": 4868,
      "▁Gre": 4869,
      "▁fönster": 4870,
      "▁Tänk": 4871,
      "▁gymnas": 4872,
      "▁ständ": 4873,
      "▁säm": 4874,
      "▁Mycket": 4875,
      "▁kaffe": 4876,
      "sd": 4877,
      "tv": 4878,
      "▁Spel": 4879,
      "▁rym": 4880,
      "aker": 4881,
      "rapp": 4882,
      "igg": 4883,
      "lam": 4884,
      "▁Fortsätt": 4885,
      "▁flytta": 4886,
      "▁back": 4887,
      "▁bev": 4888,
      "▁önsk": 4889,
      "oklad": 4890,
      "▁yt": 4891,
      "▁ses": 4892,
      "▁tak": 4893,
      "▁Företag": 4894,
      "▁vore": 4895,
      "▁därefter": 4896,
      "▁guld": 4897,
      "▁ass": 4898,
      "▁kvart": 4899,
      "▁handla": 4900,
      "▁Hall": 4901,
      "ingsl": 4902,
      "▁regl": 4903,
      "▁tand": 4904,
      "ckar": 4905,
      "▁röd": 4906,
      "▁Ul": 4907,
      "klam": 4908,
      "▁budget": 4909,
      "▁sal": 4910,
      "ve": 4911,
      "▁kött": 4912,
      "skapet": 4913,
      "▁starkt": 4914,
      "▁Kina": 4915,
      "▁tis": 4916,
      "▁fir": 4917,
      "stift": 4918,
      "trakt": 4919,
      "▁intr": 4920,
      "ana": 4921,
      "▁självklart": 4922,
      "minst": 4923,
      "etabl": 4924,
      "▁fotograf": 4925,
      "▁ång": 4926,
      "▁vanlig": 4927,
      "In": 4928,
      "▁fantastiskt": 4929,
      "▁sist": 4930,
      "arens": 4931,
      "färd": 4932,
      "▁utrym": 4933,
      "▁natten": 4934,
      "son": 4935,
      "▁poj": 4936,
      "▁nej": 4937,
      "elat": 4938,
      "ges": 4939,
      "▁avs": 4940,
      "▁Hitta": 4941,
      "▁motor": 4942,
      "▁rent": 4943,
      "▁SM": 4944,
      "stra": 4945,
      "ial": 4946,
      "vakt": 4947,
      "▁drygt": 4948,
      "sr": 4949,
      "kopp": 4950,
      "▁mängd": 4951,
      "▁mäng": 4952,
      "▁dejtingsa": 4953,
      "▁my": 4954,
      "out": 4955,
      "ötter": 4956,
      "nov": 4957,
      "▁vänta": 4958,
      "▁göras": 4959,
      "gn": 4960,
      "kam": 4961,
      "▁söndag": 4962,
      "kont": 4963,
      "▁Bok": 4964,
      "▁politik": 4965,
      "▁tillämp": 4966,
      "▁listan": 4967,
      "▁sidor": 4968,
      "▁hård": 4969,
      "▁ihåg": 4970,
      "▁ret": 4971,
      "▁läkare": 4972,
      "▁htt": 4973,
      "▁Andersson": 4974,
      "pren": 4975,
      "▁tillstånd": 4976,
      "▁görs": 4977,
      "▁boll": 4978,
      "itar": 4979,
      "ändska": 4980,
      "▁utvecklas": 4981,
      "▁ursprung": 4982,
      "lund": 4983,
      "rang": 4984,
      "▁billigt": 4985,
      "slagen": 4986,
      "ydda": 4987,
      "▁nord": 4988,
      "▁ne": 4989,
      "▁Mitt": 4990,
      "▁förutsättningar": 4991,
      "▁förbättra": 4992,
      "agg": 4993,
      "▁kändes": 4994,
      "iat": 4995,
      "▁färger": 4996,
      "▁bolaget": 4997,
      "▁ägg": 4998,
      "▁inred": 4999,
      "▁lugn": 5000,
      "▁ordning": 5001,
      "▁politiska": 5002,
      "▁mesta": 5003,
      "▁Anmäl": 5004,
      "▁aktiviteter": 5005,
      "onom": 5006,
      "▁Mart": 5007,
      "▁siff": 5008,
      "▁vir": 5009,
      "derna": 5010,
      "▁saknar": 5011,
      "tligen": 5012,
      "▁mång": 5013,
      "skning": 5014,
      "▁Finns": 5015,
      "▁spelade": 5016,
      "slaget": 5017,
      "▁varmt": 5018,
      "hang": 5019,
      "▁tj": 5020,
      "▁publ": 5021,
      "▁ändring": 5022,
      "ec": 5023,
      "▁Ibland": 5024,
      "▁lager": 5025,
      "kohol": 5026,
      "▁hantera": 5027,
      "▁karakt": 5028,
      "▁talar": 5029,
      "▁Tre": 5030,
      "▁etc": 5031,
      "▁IT": 5032,
      "▁middag": 5033,
      "▁snö": 5034,
      "▁vattnet": 5035,
      "skär": 5036,
      "▁våren": 5037,
      "▁leg": 5038,
      "stav": 5039,
      "▁adress": 5040,
      "▁detalj": 5041,
      "▁Bara": 5042,
      "gången": 5043,
      "ställningar": 5044,
      "▁pati": 5045,
      "▁uppn": 5046,
      "▁ligga": 5047,
      "▁lämnar": 5048,
      "▁Foto": 5049,
      "skaper": 5050,
      "▁digit": 5051,
      "▁kommentarer": 5052,
      "ologiska": 5053,
      "området": 5054,
      "TT": 5055,
      "▁käll": 5056,
      "▁Maria": 5057,
      "▁tuff": 5058,
      "▁utnytt": 5059,
      "▁present": 5060,
      "▁ökad": 5061,
      "▁sim": 5062,
      "elt": 5063,
      "▁gravid": 5064,
      "▁Tor": 5065,
      "ansvar": 5066,
      "▁bekväm": 5067,
      "▁sikt": 5068,
      "▁köper": 5069,
      "▁äntligen": 5070,
      "▁Fram": 5071,
      "▁Sl": 5072,
      "▁solen": 5073,
      "inar": 5074,
      "we": 5075,
      "▁Bet": 5076,
      "tes": 5077,
      "▁kat": 5078,
      "▁marknadsför": 5079,
      "ödra": 5080,
      "▁Ed": 5081,
      "▁inklu": 5082,
      "ktor": 5083,
      "▁Stad": 5084,
      "▁yn": 5085,
      "vägen": 5086,
      "kommer": 5087,
      "▁dej": 5088,
      "uset": 5089,
      "när": 5090,
      "▁imorgon": 5091,
      "▁förh": 5092,
      "oo": 5093,
      "▁sälja": 5094,
      "Vi": 5095,
      "gruppen": 5096,
      "▁Fråg": 5097,
      "ula": 5098,
      "▁stabil": 5099,
      "▁ungdomar": 5100,
      "samling": 5101,
      "▁fantastisk": 5102,
      "▁Välkommen": 5103,
      "▁avsnitt": 5104,
      "tryck": 5105,
      "▁vars": 5106,
      "fan": 5107,
      "gera": 5108,
      "▁kommunikation": 5109,
      "▁välkom": 5110,
      "▁Gl": 5111,
      "▁dagarna": 5112,
      "▁Tur": 5113,
      "▁Social": 5114,
      "▁pratar": 5115,
      "läs": 5116,
      "▁ekonomi": 5117,
      "stitut": 5118,
      "▁Ge": 5119,
      "▁vind": 5120,
      "ämm": 5121,
      "▁Ham": 5122,
      "▁automat": 5123,
      "▁trevlig": 5124,
      "aten": 5125,
      "dels": 5126,
      "▁osv": 5127,
      "▁Lars": 5128,
      "▁Vet": 5129,
      "▁Först": 5130,
      "▁försäljning": 5131,
      "▁vinst": 5132,
      "rande": 5133,
      "sut": 5134,
      "▁givet": 5135,
      "▁medarbetare": 5136,
      "börj": 5137,
      "▁naturligtvis": 5138,
      "▁Hotell": 5139,
      "färg": 5140,
      "▁ingenting": 5141,
      "▁IN": 5142,
      "▁resten": 5143,
      "▁sil": 5144,
      "▁utvecklingen": 5145,
      "▁grader": 5146,
      "ssystem": 5147,
      "▁partner": 5148,
      "▁Land": 5149,
      "ilt": 5150,
      "▁sål": 5151,
      "▁analys": 5152,
      "▁projektet": 5153,
      "▁Ka": 5154,
      "▁rygg": 5155,
      "▁matcher": 5156,
      "▁varier": 5157,
      "▁sluta": 5158,
      "▁bevis": 5159,
      "▁rejäl": 5160,
      "vr": 5161,
      "▁kre": 5162,
      "▁prest": 5163,
      "minstone": 5164,
      "▁knappt": 5165,
      "▁jur": 5166,
      "▁studie": 5167,
      "▁sova": 5168,
      "▁Mål": 5169,
      "▁yrkes": 5170,
      "▁dyg": 5171,
      "▁mjuk": 5172,
      "▁huvudet": 5173,
      "deras": 5174,
      "uta": 5175,
      "▁demokrat": 5176,
      "▁glob": 5177,
      "▁dest": 5178,
      "▁dukt": 5179,
      "CH": 5180,
      "▁arg": 5181,
      "urnali": 5182,
      "▁Äl": 5183,
      "▁åtta": 5184,
      "▁Folk": 5185,
      "▁kategor": 5186,
      "▁restaurang": 5187,
      "ogle": 5188,
      "▁ges": 5189,
      "▁fungera": 5190,
      "▁njuta": 5191,
      "▁undvika": 5192,
      "▁Några": 5193,
      "▁vita": 5194,
      "▁inklusive": 5195,
      "åter": 5196,
      "omas": 5197,
      "▁aktie": 5198,
      "▁förbi": 5199,
      "▁genomsnitt": 5200,
      "▁bilar": 5201,
      "▁enhet": 5202,
      "▁musk": 5203,
      "hy": 5204,
      "▁åsikt": 5205,
      "ungen": 5206,
      "ette": 5207,
      "ight": 5208,
      "▁Mon": 5209,
      "▁promenad": 5210,
      "ESS": 5211,
      "verige": 5212,
      "fton": 5213,
      "pack": 5214,
      "▁Matt": 5215,
      "▁tråk": 5216,
      "▁internationella": 5217,
      "▁bloggen": 5218,
      "▁tittar": 5219,
      "▁fantastiska": 5220,
      "▁accep": 5221,
      "▁mun": 5222,
      "ura": 5223,
      "▁platsen": 5224,
      "rister": 5225,
      "ep": 5226,
      "▁sid": 5227,
      "nämn": 5228,
      "▁spelet": 5229,
      "▁starka": 5230,
      "▁kyl": 5231,
      "▁Vilken": 5232,
      "▁princip": 5233,
      "▁förändring": 5234,
      "▁växer": 5235,
      "▁Mal": 5236,
      "▁tänk": 5237,
      "▁antingen": 5238,
      "▁funn": 5239,
      "▁matt": 5240,
      "åp": 5241,
      "▁balans": 5242,
      "▁undrar": 5243,
      "▁nyck": 5244,
      "▁Låt": 5245,
      "▁central": 5246,
      "▁mår": 5247,
      "uck": 5248,
      "▁dålig": 5249,
      "hamn": 5250,
      "tim": 5251,
      "▁fritid": 5252,
      "▁Jes": 5253,
      "stån": 5254,
      "▁Lite": 5255,
      "klass": 5256,
      "ometer": 5257,
      "▁dyr": 5258,
      "nu": 5259,
      "▁bem": 5260,
      "skv": 5261,
      "sprogram": 5262,
      "gj": 5263,
      "▁paket": 5264,
      "emat": 5265,
      "eden": 5266,
      "▁valde": 5267,
      "▁ansökan": 5268,
      "▁varm": 5269,
      "▁förutom": 5270,
      "▁stär": 5271,
      "▁period": 5272,
      "▁mänsk": 5273,
      "▁Dom": 5274,
      "▁straff": 5275,
      "äde": 5276,
      "utbildning": 5277,
      "▁kurs": 5278,
      "fors": 5279,
      "ice": 5280,
      "▁annorlunda": 5281,
      "▁förmåga": 5282,
      "▁haha": 5283,
      "▁bakgrund": 5284,
      "▁regn": 5285,
      "▁band": 5286,
      "▁etabl": 5287,
      "RA": 5288,
      "▁ökat": 5289,
      "▁standard": 5290,
      "anten": 5291,
      "▁plötsligt": 5292,
      "▁tråd": 5293,
      "▁kommuner": 5294,
      "▁lösa": 5295,
      "▁Hol": 5296,
      "▁Finland": 5297,
      "▁Christ": 5298,
      "▁räcker": 5299,
      "▁hittat": 5300,
      "▁ST": 5301,
      "▁utform": 5302,
      "▁nr": 5303,
      "▁syfte": 5304,
      "äning": 5305,
      "▁Produ": 5306,
      "▁Hand": 5307,
      "gin": 5308,
      "oj": 5309,
      "▁dusch": 5310,
      "ostäder": 5311,
      "▁Bygg": 5312,
      "uts": 5313,
      "handa": 5314,
      "▁Fredrik": 5315,
      "▁någonting": 5316,
      "▁www": 5317,
      "▁mannen": 5318,
      "▁roliga": 5319,
      "▁dejtings": 5320,
      "▁möjligheten": 5321,
      "▁högst": 5322,
      "tter": 5323,
      "▁Sc": 5324,
      "▁underl": 5325,
      "▁lyckades": 5326,
      "ident": 5327,
      "▁🙂": 5328,
      "▁anses": 5329,
      "fun": 5330,
      "gt": 5331,
      "▁Nor": 5332,
      "▁Sund": 5333,
      "▁prova": 5334,
      "▁klarar": 5335,
      "▁värd": 5336,
      "▁Frank": 5337,
      "iens": 5338,
      "rätten": 5339,
      "▁brand": 5340,
      "▁Nya": 5341,
      "tida": 5342,
      "▁Ans": 5343,
      "▁nyhet": 5344,
      "▁Ba": 5345,
      "▁berör": 5346,
      "▁ap": 5347,
      "▁växt": 5348,
      "ele": 5349,
      "▁resultatet": 5350,
      "▁förtro": 5351,
      "▁lyssna": 5352,
      "anna": 5353,
      "▁internation": 5354,
      "▁svara": 5355,
      "▁ry": 5356,
      "▁namnet": 5357,
      "▁alkohol": 5358,
      "▁konf": 5359,
      "▁tillgängliga": 5360,
      "▁he": 5361,
      "▁visste": 5362,
      "▁kallade": 5363,
      "▁nåt": 5364,
      "▁Sätt": 5365,
      "ministr": 5366,
      "▁lösningar": 5367,
      "▁OK": 5368,
      "▁slog": 5369,
      "▁mod": 5370,
      "▁terr": 5371,
      "▁bro": 5372,
      "▁dö": 5373,
      "▁bekr": 5374,
      "sbolag": 5375,
      "tiden": 5376,
      "▁målet": 5377,
      "▁starta": 5378,
      "▁härlig": 5379,
      "skri": 5380,
      "▁häv": 5381,
      "▁omdöme": 5382,
      "▁App": 5383,
      "Mer": 5384,
      "▁Våra": 5385,
      "▁möjliga": 5386,
      "▁lagt": 5387,
      "rim": 5388,
      "▁Pat": 5389,
      "ild": 5390,
      "▁spara": 5391,
      "ledare": 5392,
      "ssa": 5393,
      "enskaper": 5394,
      "satta": 5395,
      "▁bidra": 5396,
      "IG": 5397,
      "▁nuvarande": 5398,
      "▁patienter": 5399,
      "▁söm": 5400,
      "▁skickade": 5401,
      "▁miljarder": 5402,
      "▁Ek": 5403,
      "▁rättigheter": 5404,
      "irekt": 5405,
      "ign": 5406,
      "polit": 5407,
      "igur": 5408,
      "▁studier": 5409,
      "iment": 5410,
      "▁Ph": 5411,
      "oga": 5412,
      "▁fe": 5413,
      "▁lista": 5414,
      "▁flick": 5415,
      "▁Hels": 5416,
      "▁bestämm": 5417,
      "▁sla": 5418,
      "▁situation": 5419,
      "▁norr": 5420,
      "▁hänt": 5421,
      "arbetet": 5422,
      "▁Bor": 5423,
      "▁sannol": 5424,
      "▁mitten": 5425,
      "▁visas": 5426,
      "▁Tysk": 5427,
      "yter": 5428,
      "▁barnet": 5429,
      "liggör": 5430,
      "ern": 5431,
      "mäss": 5432,
      "▁datorn": 5433,
      "▁kass": 5434,
      "dret": 5435,
      "▁reklam": 5436,
      "delningen": 5437,
      "▁konsum": 5438,
      "▁Da": 5439,
      "qvist": 5440,
      "▁känd": 5441,
      "▁relig": 5442,
      "▁satte": 5443,
      "skrivning": 5444,
      "▁Igår": 5445,
      "▁modell": 5446,
      "▁släkt": 5447,
      "klubb": 5448,
      "här": 5449,
      "▁arm": 5450,
      "▁Val": 5451,
      "▁människa": 5452,
      "▁plus": 5453,
      "amen": 5454,
      "jälp": 5455,
      "▁städ": 5456,
      "▁hotellet": 5457,
      "▁medier": 5458,
      "▁IF": 5459,
      "▁Andra": 5460,
      "▁klicka": 5461,
      "▁Con": 5462,
      "star": 5463,
      "erier": 5464,
      "▁fallet": 5465,
      "▁takt": 5466,
      "▁transport": 5467,
      "off": 5468,
      "▁gäst": 5469,
      "▁föresl": 5470,
      "▁struktur": 5471,
      "leken": 5472,
      "▁välj": 5473,
      "bert": 5474,
      "sting": 5475,
      "▁Fär": 5476,
      "▁himla": 5477,
      "▁bröst": 5478,
      "porter": 5479,
      "givning": 5480,
      "▁Johansson": 5481,
      "▁eftermid": 5482,
      "▁tum": 5483,
      "▁lans": 5484,
      "▁såklart": 5485,
      "rike": 5486,
      "▁föred": 5487,
      "▁timme": 5488,
      "▁passa": 5489,
      "▁säljer": 5490,
      "▁sättet": 5491,
      "▁kast": 5492,
      "▁rummet": 5493,
      "▁nummer": 5494,
      "▁beställ": 5495,
      "okies": 5496,
      "minister": 5497,
      "odligen": 5498,
      "OM": 5499,
      "▁Kung": 5500,
      "▁övert": 5501,
      "▁medborg": 5502,
      "ire": 5503,
      "▁fö": 5504,
      "▁lock": 5505,
      "▁kapital": 5506,
      "blick": 5507,
      "▁sång": 5508,
      "dell": 5509,
      "add": 5510,
      "▁kra": 5511,
      "▁öppet": 5512,
      "bum": 5513,
      "delser": 5514,
      "lik": 5515,
      "ledningen": 5516,
      "klare": 5517,
      "▁choklad": 5518,
      "▁gett": 5519,
      "▁myndighet": 5520,
      "▁omdömet": 5521,
      "▁antag": 5522,
      "TE": 5523,
      "▁inform": 5524,
      "hel": 5525,
      "▁Helsing": 5526,
      "▁Red": 5527,
      "ror": 5528,
      "▁intresserad": 5529,
      "▁fordon": 5530,
      "▁sällan": 5531,
      "lir": 5532,
      "▁gäng": 5533,
      "▁trevligt": 5534,
      "▁korrekt": 5535,
      "▁relativt": 5536,
      "▁plast": 5537,
      "ment": 5538,
      "▁fett": 5539,
      "åda": 5540,
      "▁plocka": 5541,
      "frågor": 5542,
      "▁måndag": 5543,
      "▁normalt": 5544,
      "▁delta": 5545,
      "▁mail": 5546,
      "rebro": 5547,
      "elsens": 5548,
      "läk": 5549,
      "▁nyf": 5550,
      "▁Inne": 5551,
      "dejting": 5552,
      "▁detaljer": 5553,
      "DRESS": 5554,
      "SK": 5555,
      "ID": 5556,
      "▁Kr": 5557,
      "▁Pr": 5558,
      "▁vol": 5559,
      "▁ledande": 5560,
      "lats": 5561,
      "skade": 5562,
      "▁visat": 5563,
      "▁vacker": 5564,
      "▁upprätt": 5565,
      "▁populära": 5566,
      "▁Post": 5567,
      "▁arbetsplats": 5568,
      "▁lösning": 5569,
      "▁närmaste": 5570,
      "▁längs": 5571,
      "▁järn": 5572,
      "fot": 5573,
      "park": 5574,
      "peiska": 5575,
      "▁Fal": 5576,
      "ffan": 5577,
      "▁amerikanska": 5578,
      "▁son": 5579,
      "isering": 5580,
      "▁perfekta": 5581,
      "▁risken": 5582,
      "▁Stud": 5583,
      "ED": 5584,
      "▁skrevs": 5585,
      "▁förvär": 5586,
      "▁ras": 5587,
      "▁modern": 5588,
      "ruktion": 5589,
      "▁dvs": 5590,
      "ikro": 5591,
      "▁tung": 5592,
      "ikat": 5593,
      "tekn": 5594,
      "cher": 5595,
      "JLA": 5596,
      "JLADRESS": 5597,
      "▁avsl": 5598,
      "läggande": 5599,
      "äkerhet": 5600,
      "▁mottag": 5601,
      "▁körde": 5602,
      "arv": 5603,
      "por": 5604,
      "▁Im": 5605,
      "åå": 5606,
      "umm": 5607,
      "stöd": 5608,
      "akta": 5609,
      "änga": 5610,
      "▁besöka": 5611,
      "▁fack": 5612,
      "▁Ra": 5613,
      "▁kända": 5614,
      "▁Vilka": 5615,
      "▁programmet": 5616,
      "▁US": 5617,
      "▁Klicka": 5618,
      "▁förhållande": 5619,
      "▁Din": 5620,
      "▁numera": 5621,
      "olket": 5622,
      "antag": 5623,
      "▁Vin": 5624,
      "▁åtminstone": 5625,
      "▁nätverk": 5626,
      "▁Dock": 5627,
      "▁Ind": 5628,
      "hört": 5629,
      "vers": 5630,
      "En": 5631,
      "▁Förutom": 5632,
      "▁sjukhus": 5633,
      "osen": 5634,
      "▁Vissa": 5635,
      "entera": 5636,
      "▁diskuter": 5637,
      "▁ill": 5638,
      "▁riktig": 5639,
      "iven": 5640,
      "▁objekt": 5641,
      "▁stats": 5642,
      "▁Natur": 5643,
      "▁snarare": 5644,
      "▁samhälle": 5645,
      "kör": 5646,
      "smål": 5647,
      "▁aktuella": 5648,
      "▁sammanhang": 5649,
      "bi": 5650,
      "▁ordentligt": 5651,
      "▁finner": 5652,
      "▁skilj": 5653,
      "▁Örebro": 5654,
      "▁tillväxt": 5655,
      "lo": 5656,
      "▁havet": 5657,
      "▁pengarna": 5658,
      "▁Visst": 5659,
      "onn": 5660,
      "rick": 5661,
      "▁Park": 5662,
      "▁Välj": 5663,
      "▁stanna": 5664,
      "▁papper": 5665,
      "▁enklare": 5666,
      "jter": 5667,
      "SS": 5668,
      "▁syns": 5669,
      "▁perspektiv": 5670,
      "▁betalar": 5671,
      "ogen": 5672,
      "terat": 5673,
      "▁hört": 5674,
      "▁uppen": 5675,
      "yser": 5676,
      "▁behåll": 5677,
      "sterna": 5678,
      "behör": 5679,
      "äta": 5680,
      "▁Tyvärr": 5681,
      "▁brist": 5682,
      "▁Ob": 5683,
      "dex": 5684,
      "▁finansier": 5685,
      "▁pan": 5686,
      "▁last": 5687,
      "stat": 5688,
      "hålla": 5689,
      "▁Skåne": 5690,
      "▁ir": 5691,
      "▁Bolag": 5692,
      "natt": 5693,
      "ista": 5694,
      "▁frisk": 5695,
      "▁gjor": 5696,
      "bor": 5697,
      "▁optim": 5698,
      "▁strax": 5699,
      "aken": 5700,
      "▁huden": 5701,
      "▁djup": 5702,
      "ise": 5703,
      "▁bete": 5704,
      "▁installer": 5705,
      "sköter": 5706,
      "▁funkar": 5707,
      "▁väst": 5708,
      "yggen": 5709,
      "▁vetenskap": 5710,
      "▁köpt": 5711,
      "▁skada": 5712,
      "▁jakt": 5713,
      "▁äger": 5714,
      "gande": 5715,
      "träd": 5716,
      "▁bidrar": 5717,
      "▁intens": 5718,
      "▁slags": 5719,
      "▁Magn": 5720,
      "▁oer": 5721,
      "önstr": 5722,
      "▁Hade": 5723,
      "▁Kontakt": 5724,
      "▁ov": 5725,
      "▁nyligen": 5726,
      "▁morgonen": 5727,
      "▁äkt": 5728,
      "ensen": 5729,
      "▁stig": 5730,
      "kret": 5731,
      "▁motstånd": 5732,
      "ingarna": 5733,
      "▁värt": 5734,
      "indra": 5735,
      "▁mått": 5736,
      "▁häns": 5737,
      "▁valet": 5738,
      "▁On": 5739,
      "AL": 5740,
      "▁smart": 5741,
      "▁skyld": 5742,
      "▁chansen": 5743,
      "sorg": 5744,
      "resen": 5745,
      "▁kalla": 5746,
      "För": 5747,
      "▁höjd": 5748,
      "derade": 5749,
      "ståndet": 5750,
      "bergs": 5751,
      "▁överens": 5752,
      "▁uttal": 5753,
      "öf": 5754,
      "nivå": 5755,
      "rådet": 5756,
      "▁inrikt": 5757,
      "▁fört": 5758,
      "▁rim": 5759,
      "▁herr": 5760,
      "▁temperatur": 5761,
      "▁kollektiv": 5762,
      "▁sub": 5763,
      "ids": 5764,
      "▁inlägget": 5765,
      "▁utgång": 5766,
      "▁Cent": 5767,
      "riär": 5768,
      "▁ät": 5769,
      "▁utsikt": 5770,
      "mg": 5771,
      "Ja": 5772,
      "▁ledare": 5773,
      "derat": 5774,
      "mäkt": 5775,
      "▁förändringar": 5776,
      "änna": 5777,
      "▁Jön": 5778,
      "▁undan": 5779,
      "▁Skulle": 5780,
      "▁lyckats": 5781,
      "▁hälso": 5782,
      "ättra": 5783,
      "▁Må": 5784,
      "▁rekommenderar": 5785,
      "▁härligt": 5786,
      "▁erk": 5787,
      "▁hamn": 5788,
      "varo": 5789,
      "▁skul": 5790,
      "ome": 5791,
      "▁Tim": 5792,
      "▁huvudsak": 5793,
      "▁Lar": 5794,
      "▁Nästa": 5795,
      "▁tyst": 5796,
      "inne": 5797,
      "▁centrala": 5798,
      "nal": 5799,
      "▁klipp": 5800,
      "▁sämre": 5801,
      "sor": 5802,
      "▁ersättning": 5803,
      "säg": 5804,
      "▁Art": 5805,
      "▁sing": 5806,
      "räk": 5807,
      "pos": 5808,
      "ysning": 5809,
      "▁hyr": 5810,
      "▁sorter": 5811,
      "stolen": 5812,
      "▁MEJLADRESS": 5813,
      "▁tunn": 5814,
      "unga": 5815,
      "▁seg": 5816,
      "▁tala": 5817,
      "▁sent": 5818,
      "EL": 5819,
      "▁Bro": 5820,
      "▁ladd": 5821,
      "▁anl": 5822,
      "▁dis": 5823,
      "▁omfattande": 5824,
      "▁fåg": 5825,
      "ith": 5826,
      "▁positivt": 5827,
      "▁Resultat": 5828,
      "▁problemet": 5829,
      "trepren": 5830,
      "anken": 5831,
      "▁profession": 5832,
      "▁hämta": 5833,
      "▁politiker": 5834,
      "ycke": 5835,
      "▁grupper": 5836,
      "▁ställe": 5837,
      "▁Tyskland": 5838,
      "barn": 5839,
      "▁föreläs": 5840,
      "▁vinn": 5841,
      "äckning": 5842,
      "▁befolk": 5843,
      "▁rev": 5844,
      "syn": 5845,
      "▁mät": 5846,
      "▁bibli": 5847,
      "▁slutade": 5848,
      "bell": 5849,
      "▁ökade": 5850,
      "▁erbjudanden": 5851,
      "▁användare": 5852,
      "jöd": 5853,
      "tjänst": 5854,
      "▁tillåt": 5855,
      "fel": 5856,
      "schef": 5857,
      "▁vand": 5858,
      "▁ständigt": 5859,
      "värde": 5860,
      "vården": 5861,
      "▁leverans": 5862,
      "▁berättade": 5863,
      "▁snabbare": 5864,
      "▁inl": 5865,
      "▁smör": 5866,
      "▁Gen": 5867,
      "▁informationen": 5868,
      "gatan": 5869,
      "▁Svar": 5870,
      "▁flykt": 5871,
      "▁jätte": 5872,
      "öllop": 5873,
      "▁hål": 5874,
      "▁Vem": 5875,
      "▁möta": 5876,
      "vikt": 5877,
      "gra": 5878,
      "▁industri": 5879,
      "▁seger": 5880,
      "▁konsekv": 5881,
      "▁röda": 5882,
      "▁allmänna": 5883,
      "▁öns": 5884,
      "▁funktioner": 5885,
      "ands": 5886,
      "ätter": 5887,
      "▁Her": 5888,
      "▁Gam": 5889,
      "sbe": 5890,
      "Tack": 5891,
      "▁vist": 5892,
      "▁studen": 5893,
      "▁digital": 5894,
      "ots": 5895,
      "▁omöj": 5896,
      "▁kontor": 5897,
      "dern": 5898,
      "ben": 5899,
      "▁förhopp": 5900,
      "spelare": 5901,
      "▁shopp": 5902,
      "▁datum": 5903,
      "▁låna": 5904,
      "▁tjejer": 5905,
      "▁varumär": 5906,
      "zz": 5907,
      "▁Dav": 5908,
      "▁tillfälle": 5909,
      "▁debatt": 5910,
      "▁tillhanda": 5911,
      "▁slår": 5912,
      "uc": 5913,
      "itionen": 5914,
      "▁svåra": 5915,
      "försälj": 5916,
      "▁gill": 5917,
      "ckade": 5918,
      "▁torr": 5919,
      "▁Första": 5920,
      "▁beskriver": 5921,
      "▁gemensamma": 5922,
      "▁botten": 5923,
      "▁ström": 5924,
      "demokraterna": 5925,
      "▁lugnt": 5926,
      "▁innov": 5927,
      "ific": 5928,
      "▁bestämt": 5929,
      "▁Martin": 5930,
      "▁illa": 5931,
      "▁utvär": 5932,
      "▁förhand": 5933,
      "eff": 5934,
      "etten": 5935,
      "▁ref": 5936,
      "▁Daniel": 5937,
      "▁ringa": 5938,
      "▁lopp": 5939,
      "nät": 5940,
      "enskt": 5941,
      "ower": 5942,
      "resa": 5943,
      "▁motsvarande": 5944,
      "▁unders": 5945,
      "▁batt": 5946,
      "platser": 5947,
      "▁ägare": 5948,
      "ows": 5949,
      "▁team": 5950,
      "ytande": 5951,
      "▁resurser": 5952,
      "▁SK": 5953,
      "hög": 5954,
      "▁strå": 5955,
      "▁respekt": 5956,
      "▁Norge": 5957,
      "▁Däremot": 5958,
      "▁ladda": 5959,
      "▁färdig": 5960,
      "▁pågår": 5961,
      "▁bekräft": 5962,
      "▁digitala": 5963,
      "▁nödvändigt": 5964,
      "ommar": 5965,
      "▁utomhus": 5966,
      "▁Sta": 5967,
      "▁minns": 5968,
      "▁potent": 5969,
      "▁sånt": 5970,
      "▁Internet": 5971,
      "▁magen": 5972,
      "start": 5973,
      "▁socker": 5974,
      "▁Ins": 5975,
      "brik": 5976,
      "▁ru": 5977,
      "issa": 5978,
      "▁skratt": 5979,
      "▁renover": 5980,
      "▁hyres": 5981,
      "▁titeln": 5982,
      "föra": 5983,
      "ektion": 5984,
      "▁döm": 5985,
      "släpp": 5986,
      "▁th": 5987,
      "▁lyx": 5988,
      "▁givetvis": 5989,
      "projekt": 5990,
      "aller": 5991,
      "▁SVT": 5992,
      "▁Sim": 5993,
      "▁Inga": 5994,
      "lov": 5995,
      "äp": 5996,
      "laget": 5997,
      "▁konto": 5998,
      "bilar": 5999,
      "linjer": 6000,
      "▁personlig": 6001,
      "▁upplevelse": 6002,
      "▁eleverna": 6003,
      "▁överra": 6004,
      "rib": 6005,
      "▁parti": 6006,
      "▁badrum": 6007,
      "▁fyller": 6008,
      "▁parkering": 6009,
      "▁vari": 6010,
      "▁hänsyn": 6011,
      "▁uttryck": 6012,
      "▁vardags": 6013,
      "▁Hos": 6014,
      "itivt": 6015,
      "▁Fören": 6016,
      "anen": 6017,
      "ulär": 6018,
      "▁tecken": 6019,
      "▁säkra": 6020,
      "▁stycken": 6021,
      "▁enskilda": 6022,
      "▁invån": 6023,
      "fyll": 6024,
      "▁fing": 6025,
      "▁stick": 6026,
      "▁kunskaper": 6027,
      "▁glädje": 6028,
      "▁varken": 6029,
      "använd": 6030,
      "▁drift": 6031,
      "▁gruppen": 6032,
      "traf": 6033,
      "▁ämnen": 6034,
      "▁idéer": 6035,
      "område": 6036,
      "▁John": 6037,
      "världen": 6038,
      "mänt": 6039,
      "▁konstigt": 6040,
      "▁omedel": 6041,
      "hi": 6042,
      "god": 6043,
      "▁Alex": 6044,
      "▁Sand": 6045,
      "kass": 6046,
      "▁systemet": 6047,
      "▁Google": 6048,
      "fulla": 6049,
      "▁nytta": 6050,
      "▁vackert": 6051,
      "▁bjuder": 6052,
      "sprocess": 6053,
      "▁befinner": 6054,
      "▁era": 6055,
      "jag": 6056,
      "vak": 6057,
      "edda": 6058,
      "▁bilj": 6059,
      "visa": 6060,
      "icy": 6061,
      "mon": 6062,
      "▁stjärn": 6063,
      "▁byggnad": 6064,
      "▁följd": 6065,
      "▁priori": 6066,
      "▁Stefan": 6067,
      "▁livsmedel": 6068,
      "AS": 6069,
      "▁flex": 6070,
      "▁känslor": 6071,
      "fest": 6072,
      "▁Kat": 6073,
      "kap": 6074,
      "▁förmodligen": 6075,
      "central": 6076,
      "▁hittills": 6077,
      "▁kem": 6078,
      "ya": 6079,
      "▁Information": 6080,
      "vand": 6081,
      "vatten": 6082,
      "▁Ur": 6083,
      "▁snabba": 6084,
      "ondon": 6085,
      "▁Nilsson": 6086,
      "▁cookies": 6087,
      "An": 6088,
      "▁kampan": 6089,
      "▁kyrkan": 6090,
      "ctor": 6091,
      "ines": 6092,
      "ollar": 6093,
      "▁Jäm": 6094,
      "ningsk": 6095,
      "▁försökte": 6096,
      "änker": 6097,
      "entyr": 6098,
      "▁Gun": 6099,
      "ställningen": 6100,
      "▁profil": 6101,
      "oteket": 6102,
      "äda": 6103,
      "▁minskar": 6104,
      "Ad": 6105,
      "▁Tot": 6106,
      "▁skogen": 6107,
      "centr": 6108,
      "ama": 6109,
      "▁kram": 6110,
      "kläder": 6111,
      "▁startade": 6112,
      "NING": 6113,
      "▁hamnar": 6114,
      "byggnad": 6115,
      "▁initi": 6116,
      "▁grundläggande": 6117,
      "▁spen": 6118,
      "▁genomföra": 6119,
      "sjuk": 6120,
      "▁fjärde": 6121,
      "▁långsikt": 6122,
      "▁San": 6123,
      "änderna": 6124,
      "▁mjölk": 6125,
      "▁God": 6126,
      "▁skit": 6127,
      "eda": 6128,
      "låt": 6129,
      "▁möter": 6130,
      "▁ända": 6131,
      "▁inkomst": 6132,
      "onser": 6133,
      "▁maten": 6134,
      "▁städer": 6135,
      "▁översättning": 6136,
      "dömet": 6137,
      "▁tillverka": 6138,
      "▁tider": 6139,
      "odde": 6140,
      "▁övertyg": 6141,
      "▁framförallt": 6142,
      "fält": 6143,
      "▁Van": 6144,
      "▁personen": 6145,
      "äls": 6146,
      "▁funnits": 6147,
      "▁Kram": 6148,
      "ekonom": 6149,
      "▁Dal": 6150,
      "▁hundar": 6151,
      "▁försikt": 6152,
      "områden": 6153,
      "▁Li": 6154,
      "▁Få": 6155,
      "▁förutsättning": 6156,
      "▁ax": 6157,
      "▁perioden": 6158,
      "▁juster": 6159,
      "▁pedagog": 6160,
      "▁casin": 6161,
      "▁driver": 6162,
      "▁sjön": 6163,
      "▁modeller": 6164,
      "▁butiker": 6165,
      "▁förvar": 6166,
      "▁rapport": 6167,
      "▁begär": 6168,
      "▁framtida": 6169,
      "språk": 6170,
      "pac": 6171,
      "oritet": 6172,
      "▁serien": 6173,
      "▁separ": 6174,
      "▁olyck": 6175,
      "fria": 6176,
      "löst": 6177,
      "ämpa": 6178,
      "▁känt": 6179,
      "▁organisationer": 6180,
      "pol": 6181,
      "aktion": 6182,
      "dela": 6183,
      "undersök": 6184,
      "▁metoder": 6185,
      "staden": 6186,
      "▁Lägg": 6187,
      "▁hast": 6188,
      "▁lämn": 6189,
      "▁oerhört": 6190,
      "▁moderna": 6191,
      "▁grad": 6192,
      "bilder": 6193,
      "▁erfarenheter": 6194,
      "▁Någon": 6195,
      "AD": 6196,
      "gl": 6197,
      "yndigheten": 6198,
      "iff": 6199,
      "troll": 6200,
      "th": 6201,
      "▁motiver": 6202,
      "▁svarar": 6203,
      "▁jäv": 6204,
      "▁vå": 6205,
      "rare": 6206,
      "äkter": 6207,
      "bler": 6208,
      "▁öppnar": 6209,
      "▁syss": 6210,
      "sfören": 6211,
      "▁Svensk": 6212,
      "▁journali": 6213,
      "▁nationella": 6214,
      "▁Vikt": 6215,
      "deringar": 6216,
      "beroende": 6217,
      "bra": 6218,
      "▁Innan": 6219,
      "▁aktivt": 6220,
      "▁fylla": 6221,
      "ada": 6222,
      "▁Met": 6223,
      "▁Förb": 6224,
      "gas": 6225,
      "▁inspiration": 6226,
      "▁avgift": 6227,
      "▁blommor": 6228,
      "▁privata": 6229,
      "▁Något": 6230,
      "▁fäng": 6231,
      "▁rekr": 6232,
      "▁tekniska": 6233,
      "▁sjukvård": 6234,
      "struktur": 6235,
      "▁jobbat": 6236,
      "föring": 6237,
      "▁tol": 6238,
      "www": 6239,
      "▁grön": 6240,
      "▁verksamheter": 6241,
      "▁omsorg": 6242,
      "lipp": 6243,
      "▁toppen": 6244,
      "▁Skol": 6245,
      "har": 6246,
      "▁Is": 6247,
      "talien": 6248,
      "erats": 6249,
      "▁behövde": 6250,
      "▁sväng": 6251,
      "▁golv": 6252,
      "▁aktiv": 6253,
      "▁Ryss": 6254,
      "yrka": 6255,
      "▁minim": 6256,
      "▁nack": 6257,
      "sked": 6258,
      "▁Vän": 6259,
      "IF": 6260,
      "▁positiv": 6261,
      "öld": 6262,
      "▁glada": 6263,
      "▁ikväll": 6264,
      "aden": 6265,
      "▁bur": 6266,
      "▁närvarande": 6267,
      "mel": 6268,
      "▁restauranger": 6269,
      "▁http": 6270,
      "▁oför": 6271,
      "▁ot": 6272,
      "nars": 6273,
      "▁växa": 6274,
      "▁enorm": 6275,
      "▁grå": 6276,
      "▁springa": 6277,
      "▁snygga": 6278,
      "▁Fri": 6279,
      "gick": 6280,
      "omb": 6281,
      "▁positiva": 6282,
      "kat": 6283,
      "ningens": 6284,
      "▁Lag": 6285,
      "▁Trip": 6286,
      "skat": 6287,
      "▁Andre": 6288,
      "▁håret": 6289,
      "▁mening": 6290,
      "meå": 6291,
      "angen": 6292,
      "▁Sal": 6293,
      "▁insatser": 6294,
      "ea": 6295,
      "dagens": 6296,
      "▁bilderna": 6297,
      "fred": 6298,
      "▁räkna": 6299,
      "äckte": 6300,
      "▁Får": 6301,
      "arknaden": 6302,
      "▁fixa": 6303,
      "arskap": 6304,
      "RO": 6305,
      "ema": 6306,
      "juka": 6307,
      "strin": 6308,
      "▁Vilket": 6309,
      "▁filmer": 6310,
      "▁kolleg": 6311,
      "▁Gar": 6312,
      "▁kombination": 6313,
      "▁korta": 6314,
      "▁tapp": 6315,
      "gångar": 6316,
      "delsen": 6317,
      "aterna": 6318,
      "▁Sport": 6319,
      "▁lämnade": 6320,
      "▁skiv": 6321,
      "▁administr": 6322,
      "▁relation": 6323,
      "▁avgörande": 6324,
      "yrå": 6325,
      "▁cit": 6326,
      "▁fukt": 6327,
      "▁position": 6328,
      "istan": 6329,
      "old": 6330,
      "▁effektivt": 6331,
      "▁iP": 6332,
      "▁Lär": 6333,
      "isten": 6334,
      "▁startar": 6335,
      "▁uts": 6336,
      "▁resan": 6337,
      "▁tycka": 6338,
      "isera": 6339,
      "▁söder": 6340,
      "egående": 6341,
      "djur": 6342,
      "▁svarade": 6343,
      "▁media": 6344,
      "ällen": 6345,
      "▁vap": 6346,
      "▁milit": 6347,
      "▁mött": 6348,
      "▁→": 6349,
      "gress": 6350,
      "fullt": 6351,
      "▁dejta": 6352,
      "▁tyg": 6353,
      "▁månaden": 6354,
      "intress": 6355,
      "ekan": 6356,
      "▁metod": 6357,
      "uth": 6358,
      "oster": 6359,
      "äsch": 6360,
      "▁rakt": 6361,
      "go": 6362,
      "atet": 6363,
      "ius": 6364,
      "udd": 6365,
      "ockey": 6366,
      "▁redo": 6367,
      "▁föreningen": 6368,
      "▁Herr": 6369,
      "▁situationen": 6370,
      "▁framgångs": 6371,
      "▁karaktär": 6372,
      "usik": 6373,
      "▁förbund": 6374,
      "▁besvär": 6375,
      "▁kallar": 6376,
      "▁avseende": 6377,
      "▁letar": 6378,
      "itekt": 6379,
      "▁Danmark": 6380,
      "makt": 6381,
      "▁nätdejting": 6382,
      "bladet": 6383,
      "ose": 6384,
      "▁represent": 6385,
      "▁it": 6386,
      "▁hav": 6387,
      "▁befint": 6388,
      "▁serie": 6389,
      "tion": 6390,
      "olut": 6391,
      "▁hyll": 6392,
      "▁sängen": 6393,
      "▁begrepp": 6394,
      "▁video": 6395,
      "▁tillb": 6396,
      "▁mönster": 6397,
      "AG": 6398,
      "anschen": 6399,
      "lim": 6400,
      "▁York": 6401,
      "▁mängder": 6402,
      "tex": 6403,
      "▁handling": 6404,
      "▁Liv": 6405,
      "skad": 6406,
      "kommande": 6407,
      "▁stött": 6408,
      "äcken": 6409,
      "▁underbara": 6410,
      "▁naturen": 6411,
      "inen": 6412,
      "punkter": 6413,
      "▁Väx": 6414,
      "▁upplever": 6415,
      "▁anlägg": 6416,
      "▁muse": 6417,
      "▁London": 6418,
      "▁skrift": 6419,
      "jung": 6420,
      "▁Syd": 6421,
      "▁ledam": 6422,
      "▁förtroende": 6423,
      "material": 6424,
      "▁skjut": 6425,
      "▁veg": 6426,
      "▁bruk": 6427,
      "▁kontin": 6428,
      "utera": 6429,
      "elserna": 6430,
      "▁orsa": 6431,
      "▁berg": 6432,
      "▁återv": 6433,
      "▁hyra": 6434,
      "▁Bild": 6435,
      "▁Moder": 6436,
      "▁Plan": 6437,
      "naderna": 6438,
      "▁avgifter": 6439,
      "▁undantag": 6440,
      "olvet": 6441,
      "▁härliga": 6442,
      "▁beställa": 6443,
      "andid": 6444,
      "enhet": 6445,
      "▁Mich": 6446,
      "▁köket": 6447,
      "▁arbetat": 6448,
      "ftar": 6449,
      "slan": 6450,
      "▁fris": 6451,
      "▁driva": 6452,
      "icro": 6453,
      "▁utfor": 6454,
      "▁kompis": 6455,
      "amål": 6456,
      "▁äm": 6457,
      "▁skador": 6458,
      "▁ställning": 6459,
      "▁grunden": 6460,
      "▁Flera": 6461,
      "▁eventuella": 6462,
      "▁konferens": 6463,
      "▁svarta": 6464,
      "ustr": 6465,
      "▁gräs": 6466,
      "jobb": 6467,
      "fi": 6468,
      "▁arrang": 6469,
      "unk": 6470,
      "▁dubbel": 6471,
      "▁läste": 6472,
      "▁Gro": 6473,
      "▁bröd": 6474,
      "▁underbar": 6475,
      "▁extremt": 6476,
      "grupper": 6477,
      "ners": 6478,
      "▁smitt": 6479,
      "▁ögonen": 6480,
      "▁vd": 6481,
      "▁stads": 6482,
      "ledes": 6483,
      "partiet": 6484,
      "ärta": 6485,
      "▁Verk": 6486,
      "▁bostäder": 6487,
      "skt": 6488,
      "any": 6489,
      "▁vända": 6490,
      "▁institut": 6491,
      "▁gal": 6492,
      "▁avanc": 6493,
      "▁Bak": 6494,
      "▁granskar": 6495,
      "ccin": 6496,
      "ega": 6497,
      "▁kak": 6498,
      "▁kön": 6499,
      "▁underbart": 6500,
      "▁former": 6501,
      "▁Åter": 6502,
      "usten": 6503,
      "▁her": 6504,
      "försäkring": 6505,
      "vit": 6506,
      "▁yngre": 6507,
      "▁skull": 6508,
      "ICK": 6509,
      "▁Skriv": 6510,
      "▁uppfy": 6511,
      "▁tillfällen": 6512,
      "imul": 6513,
      "▁Dagens": 6514,
      "▁bedriv": 6515,
      "anti": 6516,
      "▁rid": 6517,
      "sliga": 6518,
      "oth": 6519,
      "▁Int": 6520,
      "▁Tel": 6521,
      "bör": 6522,
      "▁symbol": 6523,
      "ymt": 6524,
      "▁skydda": 6525,
      "spolit": 6526,
      "▁Projekt": 6527,
      "▁Slut": 6528,
      "▁bröllop": 6529,
      "▁förk": 6530,
      "▁supp": 6531,
      "▁mom": 6532,
      "▁öl": 6533,
      "▁unika": 6534,
      "▁FÖR": 6535,
      "▁hände": 6536,
      "ologisk": 6537,
      "ira": 6538,
      "sid": 6539,
      "▁tanken": 6540,
      "taget": 6541,
      "▁Super": 6542,
      "illkor": 6543,
      "▁ställen": 6544,
      "shus": 6545,
      "▁slutar": 6546,
      "då": 6547,
      "▁Hela": 6548,
      "▁entrepren": 6549,
      "▁skolor": 6550,
      "▁Ho": 6551,
      "▁dating": 6552,
      "resultat": 6553,
      "eran": 6554,
      "▁jorden": 6555,
      "▁tidningen": 6556,
      "yk": 6557,
      "▁klin": 6558,
      "▁uppleva": 6559,
      "▁motsvar": 6560,
      "▁fika": 6561,
      "▁hälften": 6562,
      "▁föreb": 6563,
      "▁sc": 6564,
      "▁Både": 6565,
      "▁Id": 6566,
      "ktionen": 6567,
      "▁seri": 6568,
      "▁betrakt": 6569,
      "miär": 6570,
      "ständigt": 6571,
      "▁Led": 6572,
      "▁styrelsen": 6573,
      "▁originalet": 6574,
      "uer": 6575,
      "▁aktier": 6576,
      "▁Utan": 6577,
      "stiden": 6578,
      "▁tydlig": 6579,
      "▁varor": 6580,
      "▁känslan": 6581,
      "▁låga": 6582,
      "▁energ": 6583,
      "▁förmån": 6584,
      "▁intressanta": 6585,
      "▁ordet": 6586,
      "sfri": 6587,
      "▁pool": 6588,
      "kta": 6589,
      "▁Fre": 6590,
      "meddel": 6591,
      "▁hunnit": 6592,
      "ht": 6593,
      "indows": 6594,
      "ction": 6595,
      "Omdömet": 6596,
      "kall": 6597,
      "▁diagn": 6598,
      "▁inre": 6599,
      "▁total": 6600,
      "▁inköp": 6601,
      "▁No": 6602,
      "▁kok": 6603,
      "▁David": 6604,
      "▁kop": 6605,
      "▁vila": 6606,
      "▁staten": 6607,
      "▁VM": 6608,
      "▁Com": 6609,
      "briken": 6610,
      "▁hundra": 6611,
      "▁Mina": 6612,
      "▁Dam": 6613,
      "▁skickar": 6614,
      "IT": 6615,
      "▁banan": 6616,
      "umma": 6617,
      "▁nio": 6618,
      "▁egenskaper": 6619,
      "ational": 6620,
      "▁sjukt": 6621,
      "▁vintern": 6622,
      "dens": 6623,
      "rid": 6624,
      "registr": 6625,
      "▁uppmärksam": 6626,
      "ee": 6627,
      "förl": 6628,
      "rarna": 6629,
      "▁ho": 6630,
      "▁out": 6631,
      "ugga": 6632,
      "▁klubben": 6633,
      "▁taget": 6634,
      "▁vuxen": 6635,
      "smäss": 6636,
      "▁utrymme": 6637,
      "▁info": 6638,
      "rodu": 6639,
      "▁jobbigt": 6640,
      "▁Henrik": 6641,
      "strument": 6642,
      "ream": 6643,
      "▁salt": 6644,
      "▁offentliga": 6645,
      "jar": 6646,
      "rass": 6647,
      "mannen": 6648,
      "idrag": 6649,
      "råket": 6650,
      "▁tjänsten": 6651,
      "otta": 6652,
      "namn": 6653,
      "bon": 6654,
      "▁Följ": 6655,
      "▁Sna": 6656,
      "▁faktum": 6657,
      "▁desto": 6658,
      "ställda": 6659,
      "lades": 6660,
      "▁Umeå": 6661,
      "liv": 6662,
      "▁Rum": 6663,
      "▁gud": 6664,
      "▁orkar": 6665,
      "bit": 6666,
      "ängen": 6667,
      "▁mikro": 6668,
      "rep": 6669,
      "▁Aktie": 6670,
      "▁tydligen": 6671,
      "▁hushåll": 6672,
      "▁dricka": 6673,
      "▁frakt": 6674,
      "lösa": 6675,
      "▁nere": 6676,
      "▁myndigheter": 6677,
      "AM": 6678,
      "OS": 6679,
      "ännen": 6680,
      "▁erbjuds": 6681,
      "ävle": 6682,
      "inarie": 6683,
      "▁når": 6684,
      "▁Hus": 6685,
      "▁Kommer": 6686,
      "▁bedömning": 6687,
      "▁varav": 6688,
      "▁hinner": 6689,
      "▁samla": 6690,
      "ube": 6691,
      "▁smärt": 6692,
      "ND": 6693,
      "▁Pass": 6694,
      "▁Kultur": 6695,
      "yrkan": 6696,
      "yper": 6697,
      "istisk": 6698,
      "beh": 6699,
      "▁rek": 6700,
      "▁uppman": 6701,
      "▁album": 6702,
      "▁sällskap": 6703,
      "▁sekt": 6704,
      "▁äventyr": 6705,
      "▁tillgänglig": 6706,
      "▁Rad": 6707,
      "▁DN": 6708,
      "▁iaf": 6709,
      "▁tittade": 6710,
      "ssan": 6711,
      "▁engagemang": 6712,
      "▁populär": 6713,
      "hund": 6714,
      "▁personuppgifter": 6715,
      "▁Ord": 6716,
      "▁Kn": 6717,
      "sken": 6718,
      "▁mol": 6719,
      "▁rök": 6720,
      "▁naturligt": 6721,
      "ax": 6722,
      "byte": 6723,
      "upplev": 6724,
      "skl": 6725,
      "▁Rik": 6726,
      "▁jämföra": 6727,
      "▁definitivt": 6728,
      "▁sverige": 6729,
      "▁City": 6730,
      "▁tår": 6731,
      "varor": 6732,
      "▁Jonas": 6733,
      "▁söt": 6734,
      "▁noggr": 6735,
      "▁Eg": 6736,
      "grip": 6737,
      "änka": 6738,
      "▁exkl": 6739,
      "▁spelat": 6740,
      "ivån": 6741,
      "▁använ": 6742,
      "satser": 6743,
      "ac": 6744,
      "▁nyheter": 6745,
      "▁patient": 6746,
      "▁kvalit": 6747,
      "▁SEK": 6748,
      "▁Dålig": 6749,
      "entals": 6750,
      "▁sand": 6751,
      "▁gröna": 6752,
      "itann": 6753,
      "▁Region": 6754,
      "▁Stat": 6755,
      "vän": 6756,
      "▁Björn": 6757,
      "▁Inom": 6758,
      "▁klassiska": 6759,
      "ängning": 6760,
      "▁förrän": 6761,
      "åriga": 6762,
      "▁grann": 6763,
      "anien": 6764,
      "▁syd": 6765,
      "▁skiljer": 6766,
      "▁onöd": 6767,
      "▁torsdag": 6768,
      "▁And": 6769,
      "▁Annars": 6770,
      "förbundet": 6771,
      "▁använt": 6772,
      "▁välkommen": 6773,
      "bank": 6774,
      "usin": 6775,
      "mant": 6776,
      "▁skil": 6777,
      "ssons": 6778,
      "ötet": 6779,
      "▁Därefter": 6780,
      "▁rund": 6781,
      "▁rätta": 6782,
      "▁priserna": 6783,
      "▁Ung": 6784,
      "arknad": 6785,
      "▁socialt": 6786,
      "bolaget": 6787,
      "▁fång": 6788,
      "ikationer": 6789,
      "▁frågade": 6790,
      "▁utföra": 6791,
      "PP": 6792,
      "ission": 6793,
      "▁omgiv": 6794,
      "▁gemensamt": 6795,
      "▁Djur": 6796,
      "urt": 6797,
      "▁forskare": 6798,
      "▁Vårt": 6799,
      "▁lagstift": 6800,
      "own": 6801,
      "▁tillägg": 6802,
      "▁Public": 6803,
      "kod": 6804,
      "▁Mag": 6805,
      "kul": 6806,
      "▁vinner": 6807,
      "sätter": 6808,
      "▁lågt": 6809,
      "▁beslutet": 6810,
      "▁länk": 6811,
      "ssätt": 6812,
      "skrifter": 6813,
      "▁kg": 6814,
      "▁offici": 6815,
      "▁Qu": 6816,
      "▁rolig": 6817,
      "▁Bästa": 6818,
      "▁Helt": 6819,
      "sund": 6820,
      "▁särskilda": 6821,
      "nsam": 6822,
      "▁okej": 6823,
      "▁Rätt": 6824,
      "▁jämn": 6825,
      "▁recens": 6826,
      "▁Magnus": 6827,
      "▁undersökning": 6828,
      "▁tri": 6829,
      "▁utbildnings": 6830,
      "▁översättningen": 6831,
      "unskap": 6832,
      "eten": 6833,
      "▁hjärta": 6834,
      "mäktige": 6835,
      "▁Mika": 6836,
      "▁vanligaste": 6837,
      "britann": 6838,
      "ÄR": 6839,
      "ordet": 6840,
      "▁artikeln": 6841,
      "▁SD": 6842,
      "▁hall": 6843,
      "▁inträff": 6844,
      "▁hänger": 6845,
      "▁civ": 6846,
      "▁bära": 6847,
      "▁Tw": 6848,
      "▁Frankrike": 6849,
      "komma": 6850,
      "▁gröns": 6851,
      "▁skade": 6852,
      "spunkt": 6853,
      "fart": 6854,
      "▁kommunens": 6855,
      "▁miljön": 6856,
      "link": 6857,
      "▁möten": 6858,
      "önstret": 6859,
      "huvud": 6860,
      "▁arbetsl": 6861,
      "▁dram": 6862,
      "▁någonstans": 6863,
      "▁marken": 6864,
      "ior": 6865,
      "▁sven": 6866,
      "OL": 6867,
      "▁finansiella": 6868,
      "▁återger": 6869,
      "▁litter": 6870,
      "▁levande": 6871,
      "ordningen": 6872,
      "▁förstör": 6873,
      "▁Utbild": 6874,
      "års": 6875,
      "jön": 6876,
      "▁Ener": 6877,
      "Hotell": 6878,
      "venemang": 6879,
      "▁Sten": 6880,
      "lista": 6881,
      "övning": 6882,
      "▁forum": 6883,
      "▁anges": 6884,
      "lagt": 6885,
      "steg": 6886,
      "besök": 6887,
      "▁satsa": 6888,
      "▁pga": 6889,
      "▁framöver": 6890,
      "ängt": 6891,
      "ävling": 6892,
      "▁skickas": 6893,
      "okal": 6894,
      "▁fritt": 6895,
      "▁gräns": 6896,
      "▁riktiga": 6897,
      "▁betalnings": 6898,
      "▁aktiva": 6899,
      "▁Jesus": 6900,
      "sland": 6901,
      "▁elev": 6902,
      "▁mörk": 6903,
      "▁gn": 6904,
      "service": 6905,
      "▁stolt": 6906,
      "grän": 6907,
      "▁deltagare": 6908,
      "▁grill": 6909,
      "▁barns": 6910,
      "▁tyck": 6911,
      "▁urval": 6912,
      "▁TripAd": 6913,
      "▁landets": 6914,
      "stäm": 6915,
      "▁lokaler": 6916,
      "eriet": 6917,
      "▁rädda": 6918,
      "itel": 6919,
      "▁resor": 6920,
      "▁Gå": 6921,
      "▁skid": 6922,
      "▁aut": 6923,
      "▁diskutera": 6924,
      "▁kille": 6925,
      "nare": 6926,
      "fe": 6927,
      "▁Precis": 6928,
      "▁läget": 6929,
      "▁IP": 6930,
      "▁Koll": 6931,
      "▁nyckel": 6932,
      "▁varma": 6933,
      "▁utrustning": 6934,
      "▁svag": 6935,
      "▁förening": 6936,
      "▁motiv": 6937,
      "▁Göteborgs": 6938,
      "▁hjärtat": 6939,
      "▁sprid": 6940,
      "shop": 6941,
      "▁saknas": 6942,
      "▁Kost": 6943,
      "▁kontrollera": 6944,
      "▁lämnat": 6945,
      "▁Gävle": 6946,
      "▁kärn": 6947,
      "hal": 6948,
      "▁Namn": 6949,
      "ugan": 6950,
      "▁nerv": 6951,
      "▁dörren": 6952,
      "▁Ryssland": 6953,
      "▁Reger": 6954,
      "▁elektron": 6955,
      "▁gas": 6956,
      "indu": 6957,
      "▁Förbättra": 6958,
      "änns": 6959,
      "▁ål": 6960,
      "domar": 6961,
      "▁tvungen": 6962,
      "skost": 6963,
      "▁op": 6964,
      "lagd": 6965,
      "▁Sara": 6966,
      "▁kommunal": 6967,
      "olja": 6968,
      "▁initiativ": 6969,
      "onden": 6970,
      "▁södra": 6971,
      "wa": 6972,
      "speri": 6973,
      "▁Storbritann": 6974,
      "▁bytt": 6975,
      "▁sönder": 6976,
      "▁rengör": 6977,
      "▁totala": 6978,
      "betalning": 6979,
      "▁längst": 6980,
      "smat": 6981,
      "▁kallad": 6982,
      "▁förekommer": 6983,
      "▁Jämför": 6984,
      "▁besked": 6985,
      "rimin": 6986,
      "▁soffan": 6987,
      "▁tät": 6988,
      "▁röra": 6989,
      "avtal": 6990,
      "▁räknas": 6991,
      "▁mötet": 6992,
      "ene": 6993,
      "▁Kalmar": 6994,
      "▁trygghet": 6995,
      "ikal": 6996,
      "rats": 6997,
      "▁Hotels": 6998,
      "enskomm": 6999,
      "▁Dr": 7000,
      "▁Na": 7001,
      "▁helhet": 7002,
      "oris": 7003,
      "▁värsta": 7004,
      "svall": 7005,
      "köpings": 7006,
      "▁ox": 7007,
      "▁syster": 7008,
      "film": 7009,
      "▁II": 7010,
      "▁omfattar": 7011,
      "▁snyggt": 7012,
      "jande": 7013,
      "▁To": 7014,
      "▁lust": 7015,
      "▁nöjda": 7016,
      "▁slipper": 7017,
      "sjö": 7018,
      "liggande": 7019,
      "▁uppmärksamhet": 7020,
      "ögon": 7021,
      "usentals": 7022,
      "▁Tekn": 7023,
      "sbruk": 7024,
      "▁automatiskt": 7025,
      "▁tju": 7026,
      "▁landsting": 7027,
      "▁förklara": 7028,
      "▁studenter": 7029,
      "stall": 7030,
      "▁Styr": 7031,
      "▁pratade": 7032,
      "bal": 7033,
      "▁Rom": 7034,
      "botten": 7035,
      "▁bestämma": 7036,
      "ranger": 7037,
      "▁uppstår": 7038,
      "▁Sof": 7039,
      "▁Part": 7040,
      "▁träffar": 7041,
      "▁faller": 7042,
      "TV": 7043,
      "rikes": 7044,
      "▁vänder": 7045,
      "▁unik": 7046,
      "▁alltför": 7047,
      "▁Sil": 7048,
      "snämn": 7049,
      "▁Des": 7050,
      "▁represen": 7051,
      "lagen": 7052,
      "▁Eva": 7053,
      "tur": 7054,
      "cel": 7055,
      "▁Kron": 7056,
      "▁Trans": 7057,
      "▁ifråg": 7058,
      "▁cancer": 7059,
      "▁invand": 7060,
      "▁sekunder": 7061,
      "▁naturliga": 7062,
      "▁block": 7063,
      "tok": 7064,
      "▁speg": 7065,
      "gu": 7066,
      "▁framgår": 7067,
      "▁författare": 7068,
      "▁fräsch": 7069,
      "▁Rikt": 7070,
      "spart": 7071,
      "▁version": 7072,
      "batten": 7073,
      "▁misstänkt": 7074,
      "▁stämmer": 7075,
      "onder": 7076,
      "▁Håll": 7077,
      "sport": 7078,
      "stud": 7079,
      "▁Tillsammans": 7080,
      "▁invånare": 7081,
      "▁saken": 7082,
      "▁strand": 7083,
      "▁Bir": 7084,
      "▁överlev": 7085,
      "▁tränar": 7086,
      "▁släppa": 7087,
      "▁onsdag": 7088,
      "▁karriär": 7089,
      "▁ort": 7090,
      "▁kallt": 7091,
      "▁grov": 7092,
      "▁krist": 7093,
      "▁At": 7094,
      "▁Pe": 7095,
      "▁rosa": 7096,
      "▁free": 7097,
      "▁ug": 7098,
      "▁sjukdomar": 7099,
      "▁maskinöversättningar": 7100,
      "▁bestämmer": 7101,
      "prov": 7102,
      "fir": 7103,
      "▁kris": 7104,
      "▁kilometer": 7105,
      "▁leta": 7106,
      "▁kontrakt": 7107,
      "▁svårare": 7108,
      "örerna": 7109,
      "drarna": 7110,
      "▁kraftigt": 7111,
      "spris": 7112,
      "▁försökt": 7113,
      "årig": 7114,
      "terad": 7115,
      "▁Paris": 7116,
      "les": 7117,
      "▁balkon": 7118,
      "burg": 7119,
      "▁kritik": 7120,
      "▁uppm": 7121,
      "▁rörelse": 7122,
      "▁stranden": 7123,
      "rael": 7124,
      "▁wid": 7125,
      "▁noga": 7126,
      "ebra": 7127,
      "entil": 7128,
      "▁fördelar": 7129,
      "▁ment": 7130,
      "saker": 7131,
      "▁Övr": 7132,
      "iam": 7133,
      "▁Öpp": 7134,
      "▁Värm": 7135,
      "oker": 7136,
      "IL": 7137,
      "▁förny": 7138,
      "▁vapen": 7139,
      "▁väs": 7140,
      "▁förklarar": 7141,
      "▁stål": 7142,
      "ruv": 7143,
      "adrat": 7144,
      "▁artiklar": 7145,
      "▁företags": 7146,
      "kadem": 7147,
      "HL": 7148,
      "▁bu": 7149,
      "▁miljon": 7150,
      "ivare": 7151,
      "▁styrka": 7152,
      "▁Mats": 7153,
      "måga": 7154,
      "▁Star": 7155,
      "ategori": 7156,
      "sverket": 7157,
      "produkter": 7158,
      "▁utmaningar": 7159,
      "▁verkligheten": 7160,
      "▁dollar": 7161,
      "fattning": 7162,
      "tog": 7163,
      "▁behålla": 7164,
      "▁dejtingsajt": 7165,
      "▁aktörer": 7166,
      "▁brett": 7167,
      "▁install": 7168,
      "▁avstånd": 7169,
      "skraft": 7170,
      "▁rem": 7171,
      "takter": 7172,
      "▁fakta": 7173,
      "▁Kvinn": 7174,
      "▁na": 7175,
      "mos": 7176,
      "risk": 7177,
      "▁Nyheter": 7178,
      "▁Tror": 7179,
      "ked": 7180,
      "▁känn": 7181,
      "▁Årets": 7182,
      "▁fant": 7183,
      "▁tränare": 7184,
      "▁skaffa": 7185,
      "igera": 7186,
      "dju": 7187,
      "ännisk": 7188,
      "▁skapat": 7189,
      "▁Sök": 7190,
      "▁närings": 7191,
      "▁fält": 7192,
      "▁felakt": 7193,
      "▁ekonomisk": 7194,
      "▁dåliga": 7195,
      "fisk": 7196,
      "pot": 7197,
      "▁hann": 7198,
      "▁planer": 7199,
      "▁enlighet": 7200,
      "ros": 7201,
      "▁minsta": 7202,
      "▁Västra": 7203,
      "flytt": 7204,
      "▁personalen": 7205,
      "▁lät": 7206,
      "ics": 7207,
      "▁gift": 7208,
      "▁rese": 7209,
      "▁hästar": 7210,
      "jud": 7211,
      "▁pul": 7212,
      "▁ansvarar": 7213,
      "▁själ": 7214,
      "▁föremål": 7215,
      "▁planerar": 7216,
      "▁hänga": 7217,
      "▁Gö": 7218,
      "▁överallt": 7219,
      "▁frågar": 7220,
      "fort": 7221,
      "▁infekt": 7222,
      "▁resul": 7223,
      "▁varumärken": 7224,
      "vil": 7225,
      "▁Net": 7226,
      "▁värre": 7227,
      "▁texten": 7228,
      "skrift": 7229,
      "▁fortsatte": 7230,
      "rafiken": 7231,
      "▁folket": 7232,
      "▁golf": 7233,
      "astro": 7234,
      "▁Thomas": 7235,
      "rak": 7236,
      "▁uppnå": 7237,
      "▁Bel": 7238,
      "▁Mikael": 7239,
      "anal": 7240,
      "▁Windows": 7241,
      "▁utav": 7242,
      "▁vågar": 7243,
      "▁åsikter": 7244,
      "▁dialog": 7245,
      "▁bestämde": 7246,
      "▁student": 7247,
      "▁tycks": 7248,
      "histor": 7249,
      "▁påbörj": 7250,
      "▁ryggen": 7251,
      "▁noll": 7252,
      "oom": 7253,
      "center": 7254,
      "▁Ing": 7255,
      "▁delvis": 7256,
      "vision": 7257,
      "▁fria": 7258,
      "pla": 7259,
      "ivande": 7260,
      "▁Ab": 7261,
      "juter": 7262,
      "äter": 7263,
      "dal": 7264,
      "▁Oavsett": 7265,
      "resor": 7266,
      "hämt": 7267,
      "▁arbetsgiv": 7268,
      "gat": 7269,
      "▁maxim": 7270,
      "▁eventuellt": 7271,
      "ästare": 7272,
      "éer": 7273,
      "ämna": 7274,
      "▁reag": 7275,
      "▁president": 7276,
      "bef": 7277,
      "▁fundera": 7278,
      "anser": 7279,
      "egång": 7280,
      "alj": 7281,
      "ibel": 7282,
      "▁bredvid": 7283,
      "EM": 7284,
      "▁näringsl": 7285,
      "må": 7286,
      "pten": 7287,
      "▁Redan": 7288,
      "▁avser": 7289,
      "▁konser": 7290,
      "▁företr": 7291,
      "▁kläd": 7292,
      "CA": 7293,
      "▁Po": 7294,
      "änger": 7295,
      "hall": 7296,
      "▁gransk": 7297,
      "issionen": 7298,
      "▁sömn": 7299,
      "▁födels": 7300,
      "Den": 7301,
      "▁lagom": 7302,
      "egr": 7303,
      "ikar": 7304,
      "savgift": 7305,
      "▁Fick": 7306,
      "▁rejält": 7307,
      "tokoll": 7308,
      "▁däck": 7309,
      "▁inner": 7310,
      "ival": 7311,
      "▁missl": 7312,
      "Se": 7313,
      "▁Totalt": 7314,
      "▁läns": 7315,
      "▁Helsingborg": 7316,
      "▁Larsson": 7317,
      "▁Ant": 7318,
      "sbygg": 7319,
      "▁Flyg": 7320,
      "▁skott": 7321,
      "▁Tidigare": 7322,
      "fs": 7323,
      "▁flyttade": 7324,
      "▁behandlas": 7325,
      "▁tyska": 7326,
      "lekt": 7327,
      "▁Mil": 7328,
      "▁Dat": 7329,
      "▁Mad": 7330,
      "kro": 7331,
      "▁Handel": 7332,
      "inister": 7333,
      "▁arranger": 7334,
      "▁Sjö": 7335,
      "▁intresserade": 7336,
      "banan": 7337,
      "▁kors": 7338,
      "▁hemmet": 7339,
      "▁förmed": 7340,
      "▁yr": 7341,
      "▁Bör": 7342,
      "▁Casino": 7343,
      "▁kvadrat": 7344,
      "skole": 7345,
      "▁tråkigt": 7346,
      "▁vädret": 7347,
      "SB": 7348,
      "vok": 7349,
      "▁situationer": 7350,
      "▁omständ": 7351,
      "▁ämnet": 7352,
      "serien": 7353,
      "sspel": 7354,
      "▁skatte": 7355,
      "sidor": 7356,
      "▁leverantörer": 7357,
      "onger": 7358,
      "sprodu": 7359,
      "ationerna": 7360,
      "inter": 7361,
      "▁Vidare": 7362,
      "pacitet": 7363,
      "▁nått": 7364,
      "▁sjö": 7365,
      "ii": 7366,
      "änsla": 7367,
      "▁koncentr": 7368,
      "▁mysigt": 7369,
      "▁butiken": 7370,
      "▁handen": 7371,
      "▁marknadsföring": 7372,
      "▁Stora": 7373,
      "▁förståelse": 7374,
      "▁skuld": 7375,
      "▁lärt": 7376,
      "▁forsknings": 7377,
      "xor": 7378,
      "sbyg": 7379,
      "▁välkomna": 7380,
      "▁linje": 7381,
      "▁FN": 7382,
      "▁Pri": 7383,
      "▁lägenheter": 7384,
      "ness": 7385,
      "▁medför": 7386,
      "▁Bank": 7387,
      "boken": 7388,
      "▁knappast": 7389,
      "do": 7390,
      "▁Nik": 7391,
      "ekr": 7392,
      "▁stärka": 7393,
      "▁särskild": 7394,
      "▁snitt": 7395,
      "▁lyfta": 7396,
      "▁kurser": 7397,
      "▁samling": 7398,
      "kurs": 7399,
      "iger": 7400,
      "▁fyr": 7401,
      "bana": 7402,
      "ärare": 7403,
      "▁Karlsson": 7404,
      "iller": 7405,
      "▁Do": 7406,
      "▁Mel": 7407,
      "▁önskemål": 7408,
      "▁Syftet": 7409,
      "▁Italien": 7410,
      "landet": 7411,
      "oper": 7412,
      "▁Storbritannien": 7413,
      "▁smärta": 7414,
      "slam": 7415,
      "▁assist": 7416,
      "ämpar": 7417,
      "zny": 7418,
      "▁omöjligt": 7419,
      "▁hell": 7420,
      "ums": 7421,
      "värme": 7422,
      "▁Col": 7423,
      "▁regering": 7424,
      "au": 7425,
      "▁Spanien": 7426,
      "▁golvet": 7427,
      "▁uppfölj": 7428,
      "▁hat": 7429,
      "▁stimul": 7430,
      "▁Speci": 7431,
      "vag": 7432,
      "serligen": 7433,
      "åren": 7434,
      "▁Skatt": 7435,
      "▁styrelse": 7436,
      "▁bodde": 7437,
      "aner": 7438,
      "▁tillfället": 7439,
      "ley": 7440,
      "▁silver": 7441,
      "öjligheter": 7442,
      "▁gyn": 7443,
      "▁Ac": 7444,
      "▁Off": 7445,
      "▁dla": 7446,
      "▁kvinnan": 7447,
      "träff": 7448,
      "▁händelser": 7449,
      "öster": 7450,
      "platt": 7451,
      "box": 7452,
      "änkte": 7453,
      "▁sovrum": 7454,
      "▁besv": 7455,
      "owany": 7456,
      "▁britt": 7457,
      "owanych": 7458,
      "oczny": 7459,
      "alogowanych": 7460,
      "▁zalogowanych": 7461,
      "▁widoczny": 7462,
      "▁försvinner": 7463,
      "▁mäss": 7464,
      "▁varv": 7465,
      "▁Ne": 7466,
      "formen": 7467,
      "▁webbplatsen": 7468,
      "pre": 7469,
      "▁skar": 7470,
      "behandling": 7471,
      "▁aning": 7472,
      "▁vanligtvis": 7473,
      "▁förhållanden": 7474,
      "EG": 7475,
      "▁främsta": 7476,
      "valda": 7477,
      "▁mult": 7478,
      "▁laga": 7479,
      "troller": 7480,
      "imm": 7481,
      "▁Billiga": 7482,
      "▁Gusta": 7483,
      "▁kunden": 7484,
      "▁sortiment": 7485,
      "ertifier": 7486,
      "problem": 7487,
      "▁Will": 7488,
      "▁ovanligt": 7489,
      "▁uttry": 7490,
      "lån": 7491,
      "▁innebära": 7492,
      "▁diskussion": 7493,
      "unna": 7494,
      "▁vägar": 7495,
      "▁föreställ": 7496,
      "▁Dig": 7497,
      "▁sannolikt": 7498,
      "▁tisdag": 7499,
      "lösning": 7500,
      "▁OS": 7501,
      "erings": 7502,
      "▁påsk": 7503,
      "▁motion": 7504,
      "▁hunden": 7505,
      "utan": 7506,
      "▁luften": 7507,
      "▁rätten": 7508,
      "▁mänskliga": 7509,
      "▁kortare": 7510,
      "▁norra": 7511,
      "anmäl": 7512,
      "▁ingred": 7513,
      "▁Tex": 7514,
      "▁bransch": 7515,
      "▁VD": 7516,
      "▁System": 7517,
      "▁Bengt": 7518,
      "verkade": 7519,
      "▁säkerställa": 7520,
      "ynt": 7521,
      "▁trivs": 7522,
      "▁loss": 7523,
      "skottet": 7524,
      "▁sko": 7525,
      "ötterna": 7526,
      "▁räknar": 7527,
      "▁toal": 7528,
      "▁nyfiken": 7529,
      "▁imp": 7530,
      "▁funderar": 7531,
      "▁familjer": 7532,
      "▁Tra": 7533,
      "▁Tycker": 7534,
      "▁upptäcka": 7535,
      "▁avslöj": 7536,
      "▁TripAdvisor": 7537,
      "▁arbetsgivare": 7538,
      "▁omedelbart": 7539,
      "sätta": 7540,
      "branschen": 7541,
      "sförs": 7542,
      "▁organ": 7543,
      "▁intill": 7544,
      "▁statistik": 7545,
      "▁Län": 7546,
      "▁dog": 7547,
      "▁belopp": 7548,
      "▁pär": 7549,
      "▁aktiver": 7550,
      "▁skyl": 7551,
      "ssam": 7552,
      "▁närmast": 7553,
      "ange": 7554,
      "▁utstr": 7555,
      "▁reserv": 7556,
      "▁tjäna": 7557,
      "▁volym": 7558,
      "skåp": 7559,
      "▁således": 7560,
      "▁löne": 7561,
      "▁slit": 7562,
      "▁riskerar": 7563,
      "▁Aktiebolag": 7564,
      "▁Black": 7565,
      "▁bom": 7566,
      "atu": 7567,
      "set": 7568,
      "▁produkten": 7569,
      "ares": 7570,
      "tom": 7571,
      "▁beb": 7572,
      "▁anslutning": 7573,
      "▁sorg": 7574,
      "▁tydliga": 7575,
      "▁Mari": 7576,
      "▁fred": 7577,
      "▁drabbas": 7578,
      "ward": 7579,
      "PS": 7580,
      "aa": 7581,
      "▁Alltså": 7582,
      "▁lekt": 7583,
      "▁Pet": 7584,
      "▁behör": 7585,
      "▁vät": 7586,
      "ode": 7587,
      "▁processen": 7588,
      "▁rekry": 7589,
      "▁ränta": 7590,
      "▁hej": 7591,
      "▁Nr": 7592,
      "▁ekonomiskt": 7593,
      "▁inkluderar": 7594,
      "▁lagar": 7595,
      "▁ändamål": 7596,
      "ifiera": 7597,
      "▁ledning": 7598,
      "▁längd": 7599,
      "ladd": 7600,
      "▁af": 7601,
      "ael": 7602,
      "▁tusen": 7603,
      "ony": 7604,
      "uft": 7605,
      "▁blom": 7606,
      "▁termin": 7607,
      "rin": 7608,
      "▁Konst": 7609,
      "▁Milj": 7610,
      "▁bakt": 7611,
      "igaste": 7612,
      "▁Pla": 7613,
      "▁Micro": 7614,
      "pas": 7615,
      "▁Huvud": 7616,
      "▁jurid": 7617,
      "▁andel": 7618,
      "eckning": 7619,
      "äste": 7620,
      "▁fysiska": 7621,
      "ocken": 7622,
      "▁inomhus": 7623,
      "ance": 7624,
      "▁sägs": 7625,
      "▁relationer": 7626,
      "▁Samman": 7627,
      "AB": 7628,
      "▁faktorer": 7629,
      "ence": 7630,
      "▁undersöka": 7631,
      "▁og": 7632,
      "omin": 7633,
      "▁offentlig": 7634,
      "orget": 7635,
      "vä": 7636,
      "▁tax": 7637,
      "matt": 7638,
      "▁lägenheten": 7639,
      "▁introdu": 7640,
      "▁påm": 7641,
      "▁ul": 7642,
      "▁utöver": 7643,
      "▁Cam": 7644,
      "▁lämnas": 7645,
      "▁färre": 7646,
      "▁mobilt": 7647,
      "omma": 7648,
      "▁Fler": 7649,
      "▁attack": 7650,
      "▁appar": 7651,
      "artik": 7652,
      "▁Bolaget": 7653,
      "▁älskade": 7654,
      "allafall": 7655,
      "▁Port": 7656,
      "▁typen": 7657,
      "▁Exempel": 7658,
      "▁kursen": 7659,
      "ismen": 7660,
      "▁Ax": 7661,
      "cken": 7662,
      "▁räd": 7663,
      "▁live": 7664,
      "▁synd": 7665,
      "▁utrust": 7666,
      "▁Karin": 7667,
      "ullar": 7668,
      "yckt": 7669,
      "▁damm": 7670,
      "värm": 7671,
      "▁hjul": 7672,
      "umer": 7673,
      "▁ringde": 7674,
      "▁Jack": 7675,
      "igheterna": 7676,
      "▁Wh": 7677,
      "▁allmänt": 7678,
      "syl": 7679,
      "▁kollegor": 7680,
      "▁tål": 7681,
      "▁konstnär": 7682,
      "bered": 7683,
      "▁stannar": 7684,
      "▁hant": 7685,
      "iox": 7686,
      "rop": 7687,
      "▁billigare": 7688,
      "▁Kontakta": 7689,
      "▁kab": 7690,
      "▁Istället": 7691,
      "ningsför": 7692,
      "skolor": 7693,
      "▁föra": 7694,
      "pool": 7695,
      "konst": 7696,
      "sar": 7697,
      "▁Eriksson": 7698,
      "▁skett": 7699,
      "▁individer": 7700,
      "sprojekt": 7701,
      "▁fira": 7702,
      "familj": 7703,
      "▁döda": 7704,
      "▁Center": 7705,
      "▁utredning": 7706,
      "▁normal": 7707,
      "▁gjorts": 7708,
      "▁krimin": 7709,
      "åring": 7710,
      "▁Uppdat": 7711,
      "▁trädgården": 7712,
      "edia": 7713,
      "▁förvå": 7714,
      "▁bön": 7715,
      "▁Persson": 7716,
      "▁bevilj": 7717,
      "fast": 7718,
      "▁isol": 7719,
      "sfull": 7720,
      "▁äpp": 7721,
      "iget": 7722,
      "▁allmänhet": 7723,
      "▁uppfattning": 7724,
      "▁återigen": 7725,
      "▁hoppa": 7726,
      "▁Got": 7727,
      "ättning": 7728,
      "iell": 7729,
      "▁Kons": 7730,
      "▁Riks": 7731,
      "personer": 7732,
      "▁sant": 7733,
      "▁Tom": 7734,
      "▁smar": 7735,
      "sbr": 7736,
      "▁kompletter": 7737,
      "▁ämne": 7738,
      "▁Ag": 7739,
      "▁gif": 7740,
      "äva": 7741,
      "▁Play": 7742,
      "▁dekor": 7743,
      "draget": 7744,
      "▁dikt": 7745,
      "ase": 7746,
      "▁tävlingen": 7747,
      "värk": 7748,
      "▁osäker": 7749,
      "▁finna": 7750,
      "cykel": 7751,
      "▁div": 7752,
      "▁påverkas": 7753,
      "▁stockholm": 7754,
      "▁föreslår": 7755,
      "▁handlade": 7756,
      "▁skåde": 7757,
      "▁överväg": 7758,
      "▁historien": 7759,
      "▁leverantör": 7760,
      "ärke": 7761,
      "ino": 7762,
      "▁Lång": 7763,
      "▁bjöd": 7764,
      "satsen": 7765,
      "▁verklighet": 7766,
      "▁starkare": 7767,
      "aser": 7768,
      "▁We": 7769,
      "▁utomlands": 7770,
      "▁Frågan": 7771,
      "▁sma": 7772,
      "▁ansvarig": 7773,
      "▁läsare": 7774,
      "väst": 7775,
      "ini": 7776,
      "▁kört": 7777,
      "vic": 7778,
      "▁svenskar": 7779,
      "▁dum": 7780,
      "allad": 7781,
      "▁utbildningen": 7782,
      "▁litteratur": 7783,
      "▁vaccin": 7784,
      "▁julkla": 7785,
      "▁Kur": 7786,
      "▁Paul": 7787,
      "▁anord": 7788,
      "räd": 7789,
      "dition": 7790,
      "llertid": 7791,
      "▁konsument": 7792,
      "▁bostadsrätt": 7793,
      "▁Kro": 7794,
      "▁dos": 7795,
      "▁olja": 7796,
      "▁upptäckt": 7797,
      "▁minuters": 7798,
      "▁ifall": 7799,
      "▁OCH": 7800,
      "▁beröm": 7801,
      "▁domstol": 7802,
      "▁löpande": 7803,
      "▁trapp": 7804,
      "vel": 7805,
      "▁flyttar": 7806,
      "▁Hör": 7807,
      "▁cor": 7808,
      "äsk": 7809,
      "pi": 7810,
      "centrum": 7811,
      "tan": 7812,
      "▁Innehåll": 7813,
      "▁benen": 7814,
      "spol": 7815,
      "▁tolk": 7816,
      "yrån": 7817,
      "bba": 7818,
      "▁tillverkare": 7819,
      "▁publik": 7820,
      "läkare": 7821,
      "▁IK": 7822,
      "▁sugen": 7823,
      "▁innehållet": 7824,
      "meter": 7825,
      "ockar": 7826,
      "▁hörde": 7827,
      "gripande": 7828,
      "▁glass": 7829,
      "▁Bu": 7830,
      "mellertid": 7831,
      "▁grej": 7832,
      "jänst": 7833,
      "▁synner": 7834,
      "▁Emma": 7835,
      "värda": 7836,
      "▁duktig": 7837,
      "▁organisationen": 7838,
      "que": 7839,
      "iabet": 7840,
      "lekar": 7841,
      "▁ledde": 7842,
      "▁karta": 7843,
      "grunden": 7844,
      "▁sajt": 7845,
      "▁potatis": 7846,
      "▁storm": 7847,
      "▁förslaget": 7848,
      "orld": 7849,
      "▁Förra": 7850,
      "ulture": 7851,
      "▁födelsedag": 7852,
      "mas": 7853,
      "▁Express": 7854,
      "▁komplex": 7855,
      "▁bag": 7856,
      "sföretag": 7857,
      "▁Program": 7858,
      "glas": 7859,
      "▁syftar": 7860,
      "▁beteende": 7861,
      "▁Familj": 7862,
      "▁dim": 7863,
      "aktioner": 7864,
      "▁stoppa": 7865,
      "▁präg": 7866,
      "▁Mån": 7867,
      "▁frihet": 7868,
      "BS": 7869,
      "▁tyn": 7870,
      "▁vardagen": 7871,
      "▁regi": 7872,
      "▁sover": 7873,
      "▁metall": 7874,
      "ekul": 7875,
      "▁My": 7876,
      "▁Beslut": 7877,
      "sna": 7878,
      "▁anmälan": 7879,
      "▁hemsidan": 7880,
      "▁traditionella": 7881,
      "▁IS": 7882,
      "kra": 7883,
      "ivalen": 7884,
      "▁Inter": 7885,
      "▁uppmunt": 7886,
      "äckar": 7887,
      "alle": 7888,
      "▁Me": 7889,
      "▁godis": 7890,
      "▁styra": 7891,
      "▁Blir": 7892,
      "▁samverkan": 7893,
      "släget": 7894,
      "▁dygnet": 7895,
      "dast": 7896,
      "▁utseende": 7897,
      "åringen": 7898,
      "▁Inget": 7899,
      "▁förändra": 7900,
      "▁analyser": 7901,
      "öck": 7902,
      "▁koppla": 7903,
      "värden": 7904,
      "▁betalning": 7905,
      "ommun": 7906,
      "▁smid": 7907,
      "▁attrakt": 7908,
      "▁Pen": 7909,
      "▁sign": 7910,
      "▁förhoppningsvis": 7911,
      "isterna": 7912,
      "hop": 7913,
      "▁Andreas": 7914,
      "▁dyker": 7915,
      "IV": 7916,
      "trafik": 7917,
      "istiskt": 7918,
      "▁moms": 7919,
      "▁Samt": 7920,
      "▁befintliga": 7921,
      "▁inkom": 7922,
      "zon": 7923,
      "slig": 7924,
      "▁franska": 7925,
      "▁Bal": 7926,
      "gått": 7927,
      "▁ansiktet": 7928,
      "▁Et": 7929,
      "▁Läk": 7930,
      "▁repar": 7931,
      "▁utsträckning": 7932,
      "▁företagen": 7933,
      "▁koncept": 7934,
      "iteter": 7935,
      "▁företagets": 7936,
      "▁träffade": 7937,
      "▁skillnaden": 7938,
      "▁Västerås": 7939,
      "▁oberoende": 7940,
      "▁Utöver": 7941,
      "FF": 7942,
      "▁Trum": 7943,
      "institut": 7944,
      "▁Lid": 7945,
      "▁Göran": 7946,
      "▁jättebra": 7947,
      "rot": 7948,
      "▁tvingas": 7949,
      "uel": 7950,
      "▁ångest": 7951,
      "limat": 7952,
      "▁betalas": 7953,
      "▁kill": 7954,
      "▁gränsen": 7955,
      "häng": 7956,
      "▁demon": 7957,
      "▁planen": 7958,
      "systemet": 7959,
      "▁Mac": 7960,
      "▁gjordes": 7961,
      "▁förstär": 7962,
      "▁utgår": 7963,
      "▁tillbehör": 7964,
      "lerna": 7965,
      "▁avst": 7966,
      "▁svenskt": 7967,
      "▁yta": 7968,
      "skron": 7969,
      "▁retur": 7970,
      "▁locka": 7971,
      "US": 7972,
      "▁expl": 7973,
      "▁Försäkring": 7974,
      "▁dejtingsidor": 7975,
      "miljö": 7976,
      "▁fokusera": 7977,
      "▁Volv": 7978,
      "anne": 7979,
      "▁rob": 7980,
      "▁billig": 7981,
      "▁aller": 7982,
      "▁siffror": 7983,
      "produktion": 7984,
      "oriter": 7985,
      "▁Jul": 7986,
      "lle": 7987,
      "▁använde": 7988,
      "▁eld": 7989,
      "▁ätit": 7990,
      "▁Rob": 7991,
      "fallet": 7992,
      "böcker": 7993,
      "rit": 7994,
      "information": 7995,
      "▁raka": 7996,
      "▁rekommend": 7997,
      "▁åtgärd": 7998,
      "▁speciella": 7999,
      "▁Juli": 8000,
      "▁hinna": 8001,
      "ova": 8002,
      "▁sms": 8003,
      "▁SE": 8004,
      "▁Vatten": 8005,
      "▁pil": 8006,
      "▁West": 8007,
      "▁lukt": 8008,
      "repp": 8009,
      "jas": 8010,
      "disk": 8011,
      "▁kung": 8012,
      "▁Lad": 8013,
      "onym": 8014,
      "▁iallafall": 8015,
      "▁con": 8016,
      "▁kandid": 8017,
      "uga": 8018,
      "inte": 8019,
      "▁utöka": 8020,
      "▁rena": 8021,
      "▁stadens": 8022,
      "▁syr": 8023,
      "▁dejtingsajter": 8024,
      "stekn": 8025,
      "ssp": 8026,
      "▁wh": 8027,
      "▁väster": 8028,
      "visar": 8029,
      "▁reser": 8030,
      "äger": 8031,
      "▁Linköping": 8032,
      "▁paus": 8033,
      "yrning": 8034,
      "▁tjock": 8035,
      "▁anstr": 8036,
      "ls": 8037,
      "▁troligen": 8038,
      "▁Olof": 8039,
      "▁sevärd": 8040,
      "▁effekter": 8041,
      "ågan": 8042,
      "▁vården": 8043,
      "▁gälla": 8044,
      "ned": 8045,
      "▁alli": 8046,
      "▁flertal": 8047,
      "▁inser": 8048,
      "▁ledningen": 8049,
      "▁Marie": 8050,
      "▁enheter": 8051,
      "▁motsvarar": 8052,
      "▁Rör": 8053,
      "▁erbjudande": 8054,
      "mande": 8055,
      "▁underlag": 8056,
      "OT": 8057,
      "▁Åh": 8058,
      "▁arkitekt": 8059,
      "asy": 8060,
      "▁leverera": 8061,
      "▁Måste": 8062,
      "skam": 8063,
      "▁mobilen": 8064,
      "sförmed": 8065,
      "gnos": 8066,
      "supp": 8067,
      "▁evenemang": 8068,
      "▁skatter": 8069,
      "leå": 8070,
      "▁Grat": 8071,
      "▁fäst": 8072,
      "▁spelas": 8073,
      "▁trevliga": 8074,
      "▁slippa": 8075,
      "▁strategi": 8076,
      "blå": 8077,
      "Sk": 8078,
      "▁angående": 8079,
      "sområdet": 8080,
      "▁anpassa": 8081,
      "▁människan": 8082,
      "skill": 8083,
      "▁ventil": 8084,
      "▁märkt": 8085,
      "ision": 8086,
      "vetenskap": 8087,
      "▁garanter": 8088,
      "▁överenskomm": 8089,
      "osof": 8090,
      "▁tolv": 8091,
      "▁Samma": 8092,
      "▁bos": 8093,
      "▁inslag": 8094,
      "yggande": 8095,
      "▁exklus": 8096,
      "▁Mellan": 8097,
      "▁hellre": 8098,
      "▁minne": 8099,
      "▁arbetslös": 8100,
      "▁NICK": 8101,
      "▁utvecklar": 8102,
      "frika": 8103,
      "ano": 8104,
      "▁efteråt": 8105,
      "ortera": 8106,
      "▁stre": 8107,
      "▁kontakter": 8108,
      "▁konsult": 8109,
      "▁sticka": 8110,
      "▁lärande": 8111,
      "▁ost": 8112,
      "▁föll": 8113,
      "▁lyft": 8114,
      "rastruktur": 8115,
      "▁sty": 8116,
      "rapport": 8117,
      "▁europeiska": 8118,
      "▁slott": 8119,
      "jänsten": 8120,
      "▁Online": 8121,
      "ross": 8122,
      "▁passade": 8123,
      "▁As": 8124,
      "fakt": 8125,
      "▁speciell": 8126,
      "▁lant": 8127,
      "alk": 8128,
      "▁Hitt": 8129,
      "▁planering": 8130,
      "attis": 8131,
      "▁tränings": 8132,
      "åkan": 8133,
      "sre": 8134,
      "sfall": 8135,
      "programmet": 8136,
      "▁ifrågas": 8137,
      "▁anhör": 8138,
      "▁möjliggör": 8139,
      "▁oj": 8140,
      "▁dagligen": 8141,
      "vå": 8142,
      "▁hinder": 8143,
      "vention": 8144,
      "▁jack": 8145,
      "▁anställning": 8146,
      "öden": 8147,
      "▁snäll": 8148,
      "▁praktiken": 8149,
      "änkande": 8150,
      "▁killar": 8151,
      "▁Cat": 8152,
      "▁varierar": 8153,
      "arken": 8154,
      "hn": 8155,
      "▁behovet": 8156,
      "▁gård": 8157,
      "▁argument": 8158,
      "▁webbplatser": 8159,
      "förvalt": 8160,
      "sområde": 8161,
      "▁vunnit": 8162,
      "ustra": 8163,
      "▁växter": 8164,
      "adress": 8165,
      "▁Spar": 8166,
      "asa": 8167,
      "▁Cor": 8168,
      "▁bekant": 8169,
      "olin": 8170,
      "▁kommunala": 8171,
      "▁umg": 8172,
      "▁allting": 8173,
      "▁teater": 8174,
      "▁Log": 8175,
      "▁samlat": 8176,
      "hone": 8177,
      "▁bio": 8178,
      "oppa": 8179,
      "rog": 8180,
      "▁annonser": 8181,
      "▁riktning": 8182,
      "▁Trafik": 8183,
      "tgär": 8184,
      "iserade": 8185,
      "▁SP": 8186,
      "▁Kort": 8187,
      "▁mätt": 8188,
      "▁premiär": 8189,
      "former": 8190,
      "▁lades": 8191,
      "▁äkta": 8192,
      "▁förändras": 8193,
      "▁emellan": 8194,
      "▁kreativ": 8195,
      "▁tunga": 8196,
      "ual": 8197,
      "annen": 8198,
      "▁fla": 8199,
      "▁😉": 8200,
      "▁länken": 8201,
      "▁mask": 8202,
      "▁sprang": 8203,
      "▁smidigt": 8204,
      "AND": 8205,
      "▁tomt": 8206,
      "aska": 8207,
      "▁negativa": 8208,
      "spelet": 8209,
      "▁agera": 8210,
      "▁kontra": 8211,
      "stjänst": 8212,
      "▁regelbundet": 8213,
      "▁England": 8214,
      "▁akut": 8215,
      "▁Holm": 8216,
      "▁sår": 8217,
      "▁utmaning": 8218,
      "▁surf": 8219,
      "▁råder": 8220,
      "idande": 8221,
      "▁Bad": 8222,
      "▁släpper": 8223,
      "näs": 8224,
      "itioner": 8225,
      "servera": 8226,
      "verse": 8227,
      "▁garan": 8228,
      "▁Gustav": 8229,
      "▁Ca": 8230,
      "▁Problem": 8231,
      "▁riksdagen": 8232,
      "▁Ström": 8233,
      "▁Lena": 8234,
      "▁Emil": 8235,
      "▁bollen": 8236,
      "sal": 8237,
      "▁Kul": 8238,
      "▁bryta": 8239,
      "sområden": 8240,
      "▁Ren": 8241,
      "äsong": 8242,
      "▁spets": 8243,
      "ansvarig": 8244,
      "rax": 8245,
      "▁Wik": 8246,
      "▁sked": 8247,
      "sbrev": 8248,
      "▁webbläs": 8249,
      "▁Olsson": 8250,
      "▁praktiska": 8251,
      "båt": 8252,
      "edöm": 8253,
      "▁ränt": 8254,
      "ij": 8255,
      "▁Vit": 8256,
      "förbund": 8257,
      "▁trend": 8258,
      "▁kommunic": 8259,
      "▁deltar": 8260,
      "▁Skor": 8261,
      "skog": 8262,
      "umin": 8263,
      "▁bott": 8264,
      "▁exem": 8265,
      "▁avses": 8266,
      "▁eleg": 8267,
      "▁besöker": 8268,
      "▁Hö": 8269,
      "▁tvärt": 8270,
      "▁häft": 8271,
      "▁foto": 8272,
      "ustrali": 8273,
      "▁rekommendera": 8274,
      "anke": 8275,
      "strand": 8276,
      "▁kamera": 8277,
      "vall": 8278,
      "▁Lo": 8279,
      "▁Restaur": 8280,
      "▁EM": 8281,
      "tagen": 8282,
      "ävar": 8283,
      "▁Fastighet": 8284,
      "▁kära": 8285,
      "▁kines": 8286,
      "▁exp": 8287,
      "▁Marc": 8288,
      "vor": 8289,
      "▁egendom": 8290,
      "mun": 8291,
      "▁emellertid": 8292,
      "▁halva": 8293,
      "▁Robert": 8294,
      "mode": 8295,
      "fattare": 8296,
      "sskydd": 8297,
      "▁delas": 8298,
      "▁Gustaf": 8299,
      "▁instrument": 8300,
      "▁SS": 8301,
      "▁utgångspunkt": 8302,
      "▁landsbyg": 8303,
      "▁Start": 8304,
      "▁bloggar": 8305,
      "▁shopping": 8306,
      "▁göm": 8307,
      "▁Häl": 8308,
      "▁Självklart": 8309,
      "▁beläget": 8310,
      "▁resp": 8311,
      "sven": 8312,
      "▁konstaterar": 8313,
      "itim": 8314,
      "▁varan": 8315,
      "ologiskt": 8316,
      "paket": 8317,
      "strateg": 8318,
      "änningar": 8319,
      "ush": 8320,
      "stin": 8321,
      "sstil": 8322,
      "▁därifrån": 8323,
      "▁svaret": 8324,
      "▁Haha": 8325,
      "▁klag": 8326,
      "äckande": 8327,
      "▁Jos": 8328,
      "▁texter": 8329,
      "▁gul": 8330,
      "▁ansåg": 8331,
      "ensa": 8332,
      "▁gymnasie": 8333,
      "▁kontinuer": 8334,
      "emed": 8335,
      "▁protein": 8336,
      "▁låtar": 8337,
      "cil": 8338,
      "XXXX": 8339,
      "öde": 8340,
      "funktion": 8341,
      "▁inredning": 8342,
      "▁uppåt": 8343,
      "▁Eric": 8344,
      "sarbete": 8345,
      "▁kyck": 8346,
      "▁Wall": 8347,
      "▁partiet": 8348,
      "▁Hell": 8349,
      "▁söta": 8350,
      "▁Jönköping": 8351,
      "▁vag": 8352,
      "meddelande": 8353,
      "jörn": 8354,
      "▁träningen": 8355,
      "▁praktiskt": 8356,
      "ödet": 8357,
      "bror": 8358,
      "▁sänd": 8359,
      "ape": 8360,
      "▁intressen": 8361,
      "▁Hy": 8362,
      "umenter": 8363,
      "regler": 8364,
      "fo": 8365,
      "▁kartan": 8366,
      "▁Götal": 8367,
      "▁föregående": 8368,
      "▁stall": 8369,
      "▁ändras": 8370,
      "▁HD": 8371,
      "visningen": 8372,
      "▁Ör": 8373,
      "▁Fun": 8374,
      "▁inbland": 8375,
      "▁jämställd": 8376,
      "ländska": 8377,
      "Men": 8378,
      "innan": 8379,
      "▁medveten": 8380,
      "▁aspekt": 8381,
      "▁Beh": 8382,
      "kval": 8383,
      "mak": 8384,
      "andin": 8385,
      "▁utnyttja": 8386,
      "▁tryggt": 8387,
      "▁branschen": 8388,
      "▁förlust": 8389,
      "▁Apple": 8390,
      "ION": 8391,
      "▁Bre": 8392,
      "redovis": 8393,
      "▁byggnader": 8394,
      "▁internationell": 8395,
      "entlig": 8396,
      "▁Hennes": 8397,
      "▁Håkan": 8398,
      "▁jämförelse": 8399,
      "▁Best": 8400,
      "tals": 8401,
      "▁hållbarhet": 8402,
      "▁lätta": 8403,
      "▁beskrivning": 8404,
      "▁friv": 8405,
      "UT": 8406,
      "▁kvitt": 8407,
      "▁vaknade": 8408,
      "▁leka": 8409,
      "▁formul": 8410,
      "▁träffas": 8411,
      "verktyg": 8412,
      "atiska": 8413,
      "▁rea": 8414,
      "▁plattform": 8415,
      "▁Jord": 8416,
      "atiskt": 8417,
      "▁Växjö": 8418,
      "▁stödja": 8419,
      "▁händelse": 8420,
      "▁Bostad": 8421,
      "▁väggen": 8422,
      "atch": 8423,
      "▁anläggning": 8424,
      "UN": 8425,
      "▁uppl": 8426,
      "shand": 8427,
      "ekom": 8428,
      "▁kännas": 8429,
      "▁Ålder": 8430,
      "ivna": 8431,
      "hantering": 8432,
      "▁Rapp": 8433,
      "▁koncer": 8434,
      "▁intell": 8435,
      "▁fasta": 8436,
      "▁support": 8437,
      "derande": 8438,
      "▁åk": 8439,
      "gav": 8440,
      "▁länkar": 8441,
      "▁förpack": 8442,
      "▁församling": 8443,
      "bryt": 8444,
      "▁ställde": 8445,
      "skrona": 8446,
      "▁turn": 8447,
      "▁taket": 8448,
      "▁Hal": 8449,
      "flyg": 8450,
      "▁förväntas": 8451,
      "▁Michael": 8452,
      "▁Skog": 8453,
      "▁bist": 8454,
      "▁kompon": 8455,
      "▁värden": 8456,
      "ray": 8457,
      "▁civil": 8458,
      "bad": 8459,
      "▁fastigheten": 8460,
      "edom": 8461,
      "▁vikten": 8462,
      "▁konsekvenser": 8463,
      "▁distans": 8464,
      "▁obeh": 8465,
      "svägen": 8466,
      "▁com": 8467,
      "▁globala": 8468,
      "egräns": 8469,
      "uster": 8470,
      "rom": 8471,
      "▁gjord": 8472,
      "soft": 8473,
      "kät": 8474,
      "fullmäktige": 8475,
      "▁lyssnar": 8476,
      "▁Mc": 8477,
      "▁ökning": 8478,
      "▁kristna": 8479,
      "ämma": 8480,
      "▁presenteras": 8481,
      "priset": 8482,
      "▁utforska": 8483,
      "byt": 8484,
      "▁ledarskap": 8485,
      "▁mord": 8486,
      "ökan": 8487,
      "▁Ok": 8488,
      "▁hyp": 8489,
      "bordet": 8490,
      "▁expert": 8491,
      "mässigt": 8492,
      "ms": 8493,
      "▁Swed": 8494,
      "▁irri": 8495,
      "▁internationellt": 8496,
      "▁verkliga": 8497,
      "▁längtar": 8498,
      "▁mamm": 8499,
      "▁tel": 8500,
      "▁Plats": 8501,
      "sko": 8502,
      "▁rekommenderas": 8503,
      "▁affärer": 8504,
      "▁byggt": 8505,
      "▁drivs": 8506,
      "litter": 8507,
      "▁inriktning": 8508,
      "▁sjuksköter": 8509,
      "Hur": 8510,
      "innande": 8511,
      "▁referens": 8512,
      "▁entr": 8513,
      "▁syssels": 8514,
      "▁Polisen": 8515,
      "▁sträck": 8516,
      "kär": 8517,
      "way": 8518,
      "▁behandla": 8519,
      "▁symtom": 8520,
      "öken": 8521,
      "nr": 8522,
      "▁as": 8523,
      "▁beställning": 8524,
      "▁brister": 8525,
      "▁tabell": 8526,
      "▁följt": 8527,
      "▁jävla": 8528,
      "▁larm": 8529,
      "▁beskriva": 8530,
      "berätt": 8531,
      "▁levererar": 8532,
      "▁fördju": 8533,
      "▁påpe": 8534,
      "▁självklar": 8535,
      "▁Sundsvall": 8536,
      "sted": 8537,
      "skande": 8538,
      "▁Borås": 8539,
      "▁tidiga": 8540,
      "utik": 8541,
      "▁prem": 8542,
      "▁hamnade": 8543,
      "best": 8544,
      "▁Linda": 8545,
      "▁der": 8546,
      "▁Verksamhet": 8547,
      "stads": 8548,
      "▁Vård": 8549,
      "▁sprida": 8550,
      "▁kameran": 8551,
      "▁förhindra": 8552,
      "▁Bur": 8553,
      "aks": 8554,
      "inari": 8555,
      "▁verket": 8556,
      "▁asyl": 8557,
      "sem": 8558,
      "varna": 8559,
      "▁Gratis": 8560,
      "▁säk": 8561,
      "öckerna": 8562,
      "▁boendet": 8563,
      "cell": 8564,
      "onde": 8565,
      "df": 8566,
      "▁njut": 8567,
      "trän": 8568,
      "▁VI": 8569,
      "▁reson": 8570,
      "▁bussen": 8571,
      "skop": 8572,
      "▁följde": 8573,
      "asen": 8574,
      "▁jud": 8575,
      "listan": 8576,
      "sålder": 8577,
      "EA": 8578,
      "▁upphov": 8579,
      "▁Luleå": 8580,
      "▁Gener": 8581,
      "▁ky": 8582,
      "▁lediga": 8583,
      "kommit": 8584,
      "oci": 8585,
      "stjärn": 8586,
      "▁uteslut": 8587,
      "ribut": 8588,
      "▁konsumenter": 8589,
      "station": 8590,
      "olution": 8591,
      "▁Petter": 8592,
      "eterare": 8593,
      "▁alternativt": 8594,
      "pad": 8595,
      "▁sär": 8596,
      "▁Mass": 8597,
      "▁camp": 8598,
      "▁bjuda": 8599,
      "▁bestämmelser": 8600,
      "▁minut": 8601,
      "▁Eli": 8602,
      "andinav": 8603,
      "▁still": 8604,
      "▁ställs": 8605,
      "▁finansiering": 8606,
      "▁mångf": 8607,
      "con": 8608,
      "▁box": 8609,
      "▁order": 8610,
      "▁Cl": 8611,
      "vitt": 8612,
      "▁anställd": 8613,
      "▁hantverk": 8614,
      "oren": 8615,
      "▁registrering": 8616,
      "▁beräknas": 8617,
      "säkt": 8618,
      "▁vinster": 8619,
      "▁ärenden": 8620,
      "ssjuk": 8621,
      "hr": 8622,
      "elle": 8623,
      "sex": 8624,
      "smed": 8625,
      "▁verka": 8626,
      "▁människors": 8627,
      "▁bibliotek": 8628,
      "spar": 8629,
      "▁Ass": 8630,
      "kons": 8631,
      "änsle": 8632,
      "ändring": 8633,
      "▁Ros": 8634,
      "▁Ofta": 8635,
      "imin": 8636,
      "▁Företaget": 8637,
      "▁höja": 8638,
      "▁specifika": 8639,
      "▁Sjuk": 8640,
      "gym": 8641,
      "▁sky": 8642,
      "▁arv": 8643,
      "▁djupt": 8644,
      "TM": 8645,
      "nads": 8646,
      "▁ordinarie": 8647,
      "blogg": 8648,
      "▁allvarligt": 8649,
      "▁meddelande": 8650,
      "▁Sex": 8651,
      "▁stänga": 8652,
      "▁grepp": 8653,
      "styrelsens": 8654,
      "ove": 8655,
      "▁behandlingen": 8656,
      "▁Hammar": 8657,
      "iabetes": 8658,
      "smöte": 8659,
      "▁relev": 8660,
      "▁regionen": 8661,
      "cancer": 8662,
      "▁farligt": 8663,
      "▁frågorna": 8664,
      "▁generellt": 8665,
      "▁konkurrens": 8666,
      "▁kompisar": 8667,
      "▁garder": 8668,
      "▁betydande": 8669,
      "▁sjuka": 8670,
      "jäll": 8671,
      "▁Sweden": 8672,
      "▁morm": 8673,
      "▁radio": 8674,
      "▁AIK": 8675,
      "ody": 8676,
      "ställande": 8677,
      "enomen": 8678,
      "▁förmid": 8679,
      "▁ledig": 8680,
      "ney": 8681,
      "▁dagliga": 8682,
      "nor": 8683,
      "atör": 8684,
      "byggd": 8685,
      "▁mix": 8686,
      "▁flygplats": 8687,
      "koppling": 8688,
      "sug": 8689,
      "▁medborgare": 8690,
      "▁tusentals": 8691,
      "▁relat": 8692,
      "▁ytan": 8693,
      "inal": 8694,
      "▁samlar": 8695,
      "▁föddes": 8696,
      "▁bered": 8697,
      "▁hin": 8698,
      "ender": 8699,
      "▁Ga": 8700,
      "▁Utveck": 8701,
      "▁recensioner": 8702,
      "▁Fråga": 8703,
      "öljer": 8704,
      "järt": 8705,
      "▁lämplig": 8706,
      "igger": 8707,
      "läge": 8708,
      "ställt": 8709,
      "skrav": 8710,
      "▁fran": 8711,
      "▁Går": 8712,
      "▁MS": 8713,
      "▁Don": 8714,
      "▁jobbade": 8715,
      "▁strid": 8716,
      "▁togs": 8717,
      "▁behandlar": 8718,
      "▁begrav": 8719,
      "▁Ekonom": 8720,
      "ställer": 8721,
      "hjälp": 8722,
      "cia": 8723,
      "teckning": 8724,
      "▁matemat": 8725,
      "▁frivill": 8726,
      "▁Ali": 8727,
      "▁språket": 8728,
      "▁gär": 8729,
      "▁Jen": 8730,
      "ile": 8731,
      "▁måltid": 8732,
      "▁Svensson": 8733,
      "▁duktiga": 8734,
      "▁förskolan": 8735,
      "▁grejer": 8736,
      "skare": 8737,
      "▁Båda": 8738,
      "▁förf": 8739,
      "▁Je": 8740,
      "▁Ger": 8741,
      "▁uppenbar": 8742,
      "▁lägsta": 8743,
      "▁faktur": 8744,
      "▁färgen": 8745,
      "hälsa": 8746,
      "▁enskild": 8747,
      "▁Ytter": 8748,
      "efte": 8749,
      "▁naturlig": 8750,
      "▁fry": 8751,
      "▁ert": 8752,
      "▁ep": 8753,
      "▁eftermiddagen": 8754,
      "osam": 8755,
      "▁Norrköping": 8756,
      "konto": 8757,
      "höj": 8758,
      "fé": 8759,
      "▁terror": 8760,
      "▁oblig": 8761,
      "▁Webb": 8762,
      "▁Finans": 8763,
      "▁läggs": 8764,
      "teknik": 8765,
      "▁fängelse": 8766,
      "▁upplevelser": 8767,
      "▁Israel": 8768,
      "▁kommers": 8769,
      "▁velat": 8770,
      "▁stycket": 8771,
      "▁rost": 8772,
      "▁mörka": 8773,
      "▁original": 8774,
      "jol": 8775,
      "▁investeringar": 8776,
      "dör": 8777,
      "▁gram": 8778,
      "ruktioner": 8779,
      "▁värmen": 8780,
      "punkten": 8781,
      "▁qu": 8782,
      "▁handlingar": 8783,
      "▁Värld": 8784,
      "▁underlätta": 8785,
      "orier": 8786,
      "▁sammans": 8787,
      "▁kvartalet": 8788,
      "undersökning": 8789,
      "▁förskola": 8790,
      "oten": 8791,
      "fre": 8792,
      "▁liter": 8793,
      "▁Ter": 8794,
      "andena": 8795,
      "▁Grund": 8796,
      "▁presentera": 8797,
      "inspekt": 8798,
      "FS": 8799,
      "öma": 8800,
      "ptom": 8801,
      "▁arbetsuppgifter": 8802,
      "▁Nat": 8803,
      "▁make": 8804,
      "▁snur": 8805,
      "▁tema": 8806,
      "försäljare": 8807,
      "▁insikt": 8808,
      "▁Dem": 8809,
      "▁förre": 8810,
      "The": 8811,
      "igr": 8812,
      "ribent": 8813,
      "De": 8814,
      "issar": 8815,
      "▁studera": 8816,
      "▁undervisning": 8817,
      "ullen": 8818,
      "ava": 8819,
      "▁nivåer": 8820,
      "▁riktlinjer": 8821,
      "▁uppst": 8822,
      "▁Kam": 8823,
      "▁transporter": 8824,
      "▁pyss": 8825,
      "▁publiken": 8826,
      "▁personligt": 8827,
      "▁hjärnan": 8828,
      "▁lamp": 8829,
      "▁andas": 8830,
      "▁spelarna": 8831,
      "▁Wi": 8832,
      "▁rekord": 8833,
      "enta": 8834,
      "UR": 8835,
      "▁utbildningar": 8836,
      "▁dörr": 8837,
      "▁Jap": 8838,
      "▁puss": 8839,
      "▁Ring": 8840,
      "kes": 8841,
      "▁avtalet": 8842,
      "▁investering": 8843,
      "▁eftermiddag": 8844,
      "ubben": 8845,
      "▁fysisk": 8846,
      "▁ringer": 8847,
      "orp": 8848,
      "▁reglerna": 8849,
      "▁exister": 8850,
      "hon": 8851,
      "▁hundrat": 8852,
      "▁minskat": 8853,
      "celler": 8854,
      "▁äld": 8855,
      "▁tav": 8856,
      "▁lördagen": 8857,
      "stör": 8858,
      "eteck": 8859,
      "▁svamp": 8860,
      "olt": 8861,
      "slapp": 8862,
      "▁turist": 8863,
      "älje": 8864,
      "▁rapporterar": 8865,
      "▁Dis": 8866,
      "iets": 8867,
      "snämnden": 8868,
      "▁kyrka": 8869,
      "▁förbju": 8870,
      "▁Deras": 8871,
      "▁aktuell": 8872,
      "▁domin": 8873,
      "jet": 8874,
      "▁politiskt": 8875,
      "▁specialis": 8876,
      "aby": 8877,
      "atin": 8878,
      "koll": 8879,
      "▁cell": 8880,
      "▁Guds": 8881,
      "▁ku": 8882,
      "▁fartyg": 8883,
      "irur": 8884,
      "▁praktik": 8885,
      "▁tings": 8886,
      "▁politisk": 8887,
      "▁Kristian": 8888,
      "▁pröv": 8889,
      "▁Pal": 8890,
      "ästen": 8891,
      "oppen": 8892,
      "▁stolta": 8893,
      "▁maskinöversättningarJa": 8894,
      "▁mäk": 8895,
      "pade": 8896,
      "sprocessen": 8897,
      "röst": 8898,
      "▁kategorin": 8899,
      "▁Produkt": 8900,
      "▁misstag": 8901,
      "▁enormt": 8902,
      "flykt": 8903,
      "▁affärs": 8904,
      "▁tjänar": 8905,
      "▁allmänheten": 8906,
      "▁Resultatet": 8907,
      "▁köns": 8908,
      "hål": 8909,
      "▁identifier": 8910,
      "ettider": 8911,
      "▁anmäla": 8912,
      "▁national": 8913,
      "▁Ram": 8914,
      "▁Fel": 8915,
      "fattar": 8916,
      "process": 8917,
      "▁Volvo": 8918,
      "ansvärt": 8919,
      "värld": 8920,
      "▁pågående": 8921,
      "höll": 8922,
      "▁Borg": 8923,
      "öten": 8924,
      "änsl": 8925,
      "▁deltog": 8926,
      "▁rit": 8927,
      "▁smarta": 8928,
      "Ra": 8929,
      "▁bus": 8930,
      "ffekt": 8931,
      "▁Tha": 8932,
      "änken": 8933,
      "▁tids": 8934,
      "▁you": 8935,
      "▁Malin": 8936,
      "▁Snart": 8937,
      "▁Utr": 8938,
      "▁kant": 8939,
      "iftet": 8940,
      "arn": 8941,
      "▁fötter": 8942,
      "▁tabl": 8943,
      "▁skapade": 8944,
      "tälje": 8945,
      "▁påverkan": 8946,
      "inlägg": 8947,
      "▁pack": 8948,
      "▁runda": 8949,
      "rupp": 8950,
      "▁ryska": 8951,
      "▁påstå": 8952,
      "stillstånd": 8953,
      "▁hastighet": 8954,
      "cension": 8955,
      "entliga": 8956,
      "mån": 8957,
      "olan": 8958,
      "▁utsatt": 8959,
      "ningom": 8960,
      "risten": 8961,
      "rätter": 8962,
      "▁orolig": 8963,
      "▁Charl": 8964,
      "▁fal": 8965,
      "▁iPhone": 8966,
      "▁Angel": 8967,
      "▁Ark": 8968,
      "ague": 8969,
      "▁prom": 8970,
      "▁fabrik": 8971,
      "skort": 8972,
      "▁Fakt": 8973,
      "▁Wil": 8974,
      "▁Skär": 8975,
      "rem": 8976,
      "▁verkade": 8977,
      "▁piz": 8978,
      "▁statliga": 8979,
      "ienser": 8980,
      "annes": 8981,
      "handlingar": 8982,
      "▁rapporten": 8983,
      "▁effektiva": 8984,
      "▁samlas": 8985,
      "▁jordbruk": 8986,
      "▁LO": 8987,
      "▁Lik": 8988,
      "▁föredrar": 8989,
      "▁Känns": 8990,
      "▁formen": 8991,
      "▁hårda": 8992,
      "tvätt": 8993,
      "▁mats": 8994,
      "▁Si": 8995,
      "▁riksdag": 8996,
      "▁gränser": 8997,
      "▁äng": 8998,
      "▁avse": 8999,
      "▁Hed": 9000,
      "▁lade": 9001,
      "▁Lek": 9002,
      "▁impon": 9003,
      "▁tjänstem": 9004,
      "gjort": 9005,
      "▁oxå": 9006,
      "olly": 9007,
      "▁Halm": 9008,
      "▁favoriter": 9009,
      "▁Löf": 9010,
      "▁öppnade": 9011,
      "▁tjänste": 9012,
      "▁konflikt": 9013,
      "▁Fan": 9014,
      "▁nyår": 9015,
      "roid": 9016,
      "slin": 9017,
      "▁baserat": 9018,
      "▁skaff": 9019,
      "▁trycka": 9020,
      "▁testat": 9021,
      "oni": 9022,
      "▁hålls": 9023,
      "änte": 9024,
      "▁familje": 9025,
      "hjul": 9026,
      "▁blad": 9027,
      "▁gården": 9028,
      "▁historiska": 9029,
      "▁efterfrågan": 9030,
      "ota": 9031,
      "▁främja": 9032,
      "▁förlorade": 9033,
      "▁fjol": 9034,
      "hydr": 9035,
      "jänster": 9036,
      "vig": 9037,
      "änningen": 9038,
      "▁komplett": 9039,
      "skaff": 9040,
      "▁miner": 9041,
      "▁begränsad": 9042,
      "▁Ulf": 9043,
      "ången": 9044,
      "▁Cy": 9045,
      "vagn": 9046,
      "▁Läns": 9047,
      "ioxid": 9048,
      "▁dyra": 9049,
      "▁ideal": 9050,
      "▁Imorgon": 9051,
      "ders": 9052,
      "▁Fran": 9053,
      "▁skärm": 9054,
      "▁händerna": 9055,
      "▁sop": 9056,
      "ament": 9057,
      "▁värdet": 9058,
      "▁möbler": 9059,
      "▁Målet": 9060,
      "▁pal": 9061,
      "▁sens": 9062,
      "▁firma": 9063,
      "▁presenter": 9064,
      "▁dygn": 9065,
      "domen": 9066,
      "dt": 9067,
      "▁allvarliga": 9068,
      "▁ovänt": 9069,
      "▁list": 9070,
      "▁patienten": 9071,
      "▁insåg": 9072,
      "▁spins": 9073,
      "▁final": 9074,
      "▁Inn": 9075,
      "▁partier": 9076,
      "▁livs": 9077,
      "stil": 9078,
      "▁stam": 9079,
      "▁visserligen": 9080,
      "▁bror": 9081,
      "▁näring": 9082,
      "▁förvand": 9083,
      "▁Kör": 9084,
      "▁planerat": 9085,
      "▁annons": 9086,
      "▁skönhet": 9087,
      "▁kraven": 9088,
      "andes": 9089,
      "▁doft": 9090,
      "▁uppför": 9091,
      "▁offer": 9092,
      "▁vistelse": 9093,
      "▁demonstr": 9094,
      "▁identitet": 9095,
      "▁Hanna": 9096,
      "everket": 9097,
      "ttag": 9098,
      "▁grönt": 9099,
      "▁småningom": 9100,
      "▁åtal": 9101,
      "▁antar": 9102,
      "▁rollen": 9103,
      "byrå": 9104,
      "▁Ken": 9105,
      "▁advok": 9106,
      "▁försvann": 9107,
      "checkning": 9108,
      "orma": 9109,
      "▁grönsaker": 9110,
      "vad": 9111,
      "▁aren": 9112,
      "▁utsläpp": 9113,
      "sned": 9114,
      "usiness": 9115,
      "▁Form": 9116,
      "▁dal": 9117,
      "partem": 9118,
      "▁denne": 9119,
      "▁förväntningar": 9120,
      "▁umgås": 9121,
      "▁blandning": 9122,
      "verksamheten": 9123,
      "▁Priv": 9124,
      "▁tacka": 9125,
      "▁Ap": 9126,
      "▁sådär": 9127,
      "▁trupp": 9128,
      "▁diverse": 9129,
      "▁avfall": 9130,
      "▁satsar": 9131,
      "▁femte": 9132,
      "▁uppger": 9133,
      "skurs": 9134,
      "▁separat": 9135,
      "jukt": 9136,
      "▁signal": 9137,
      "boende": 9138,
      "▁hjälpsamhet": 9139,
      "ändringar": 9140,
      "▁Bli": 9141,
      "bby": 9142,
      "Du": 9143,
      "▁sekund": 9144,
      "ständig": 9145,
      "▁Regeringen": 9146,
      "▁fiber": 9147,
      "▁arbetsmiljö": 9148,
      "▁märker": 9149,
      "▁minnen": 9150,
      "▁växande": 9151,
      "▁IFK": 9152,
      "▁järnväg": 9153,
      "▁nav": 9154,
      "vakning": 9155,
      "▁Bi": 9156,
      "komp": 9157,
      "▁kaff": 9158,
      "sledare": 9159,
      "hot": 9160,
      "strå": 9161,
      "▁tillåter": 9162,
      "▁Svart": 9163,
      "iviteter": 9164,
      "sakt": 9165,
      "▁uppfyller": 9166,
      "ela": 9167,
      "▁Afton": 9168,
      "byggda": 9169,
      "▁ramen": 9170,
      "äsa": 9171,
      "▁hållet": 9172,
      "▁kry": 9173,
      "▁kunderna": 9174,
      "▁uppdraget": 9175,
      "räff": 9176,
      "▁kollade": 9177,
      "gg": 9178,
      "▁fond": 9179,
      "▁regeringens": 9180,
      "hjäl": 9181,
      "▁kommunerna": 9182,
      "▁tok": 9183,
      "ited": 9184,
      "▁illustr": 9185,
      "▁våga": 9186,
      "▁sköna": 9187,
      "▁Twitter": 9188,
      "beskrivning": 9189,
      "▁appen": 9190,
      "▁svett": 9191,
      "▁landskap": 9192,
      "sgatan": 9193,
      "▁opp": 9194,
      "motor": 9195,
      "▁bens": 9196,
      "▁genast": 9197,
      "▁risker": 9198,
      "urer": 9199,
      "igar": 9200,
      "▁ekonomin": 9201,
      "▁fattar": 9202,
      "▁neder": 9203,
      "outube": 9204,
      "▁Mor": 9205,
      "▁Fem": 9206,
      "▁hyre": 9207,
      "▁avgöra": 9208,
      "che": 9209,
      "skjut": 9210,
      "▁hästen": 9211,
      "▁modellen": 9212,
      "▁Elin": 9213,
      "▁angiv": 9214,
      "▁flygplatsen": 9215,
      "mosfär": 9216,
      "ffektiv": 9217,
      "ool": 9218,
      "spass": 9219,
      "▁mak": 9220,
      "yddet": 9221,
      "▁let": 9222,
      "▁reduc": 9223,
      "▁delakt": 9224,
      "▁övre": 9225,
      "kant": 9226,
      "▁ögonblick": 9227,
      "byg": 9228,
      "▁variera": 9229,
      "▁utsatta": 9230,
      "▁Väg": 9231,
      "▁Cla": 9232,
      "▁synpunkter": 9233,
      "▁antagligen": 9234,
      "iellt": 9235,
      "▁hun": 9236,
      "ostadress": 9237,
      "blog": 9238,
      "▁klassisk": 9239,
      "▁dejtingsida": 9240,
      "▁Särskil": 9241,
      "efteå": 9242,
      "▁EN": 9243,
      "▁korr": 9244,
      "▁massage": 9245,
      "▁befolkningen": 9246,
      "▁obehag": 9247,
      "▁fastigheter": 9248,
      "agram": 9249,
      "▁kapacitet": 9250,
      "▁professor": 9251,
      "▁munnen": 9252,
      "▁Blev": 9253,
      "känsla": 9254,
      "▁försäk": 9255,
      "▁utgå": 9256,
      "▁lönsam": 9257,
      "▁ljuset": 9258,
      "dig": 9259,
      "▁bordet": 9260,
      "sätts": 9261,
      "▁mids": 9262,
      "▁Nytt": 9263,
      "butik": 9264,
      "▁hjälpsamhetsr": 9265,
      "▁rött": 9266,
      "skåd": 9267,
      "▁hävdar": 9268,
      "▁sorts": 9269,
      "splatsen": 9270,
      "ningssystem": 9271,
      "organisation": 9272,
      "▁Org": 9273,
      "AP": 9274,
      "▁stack": 9275,
      "▁Sun": 9276,
      "ze": 9277,
      "▁skapas": 9278,
      "mät": 9279,
      "▁tip": 9280,
      "▁Inför": 9281,
      "▁Intress": 9282,
      "▁Tips": 9283,
      "▁beskrivs": 9284,
      "▁Sus": 9285,
      "▁närm": 9286,
      "ifest": 9287,
      "▁mand": 9288,
      "▁Boken": 9289,
      "▁byn": 9290,
      "▁bif": 9291,
      "▁Far": 9292,
      "▁fågel": 9293,
      "list": 9294,
      "KT": 9295,
      "▁lett": 9296,
      "▁religion": 9297,
      "▁Besök": 9298,
      "▁lyfter": 9299,
      "▁Ljung": 9300,
      "ordin": 9301,
      "▁innehålla": 9302,
      "duk": 9303,
      "▁Johanna": 9304,
      "▁bryr": 9305,
      "▁stjärnor": 9306,
      "ua": 9307,
      "▁hamna": 9308,
      "▁röster": 9309,
      "vatt": 9310,
      "sbes": 9311,
      "▁morse": 9312,
      "▁skoj": 9313,
      "landa": 9314,
      "▁bredband": 9315,
      "▁dras": 9316,
      "teringen": 9317,
      "▁Miljö": 9318,
      "▁Människ": 9319,
      "▁konstruktion": 9320,
      "▁rele": 9321,
      "stagram": 9322,
      "▁Nedan": 9323,
      "ubbar": 9324,
      "infl": 9325,
      "▁likt": 9326,
      "▁legat": 9327,
      "▁deltagarna": 9328,
      "▁näs": 9329,
      "▁yttre": 9330,
      "▁cyk": 9331,
      "▁Snabb": 9332,
      "▁gamm": 9333,
      "▁uppvärm": 9334,
      "▁viktigare": 9335,
      "▁brut": 9336,
      "jort": 9337,
      "▁inspel": 9338,
      "bidrag": 9339,
      "imeter": 9340,
      "ammation": 9341,
      "eman": 9342,
      "▁Läng": 9343,
      "▁betalt": 9344,
      "▁anled": 9345,
      "▁hyresg": 9346,
      "▁licens": 9347,
      "▁ansvaret": 9348,
      "▁anklag": 9349,
      "▁intryck": 9350,
      "stjänsten": 9351,
      "▁Gotland": 9352,
      "stik": 9353,
      "värdet": 9354,
      "▁etik": 9355,
      "▁läder": 9356,
      "▁work": 9357,
      "▁räddning": 9358,
      "▁Medlem": 9359,
      "uti": 9360,
      "▁överl": 9361,
      "▁värdering": 9362,
      "▁förvärv": 9363,
      "▁utredningen": 9364,
      "▁fyllt": 9365,
      "▁andras": 9366,
      "▁tillgod": 9367,
      "▁överklag": 9368,
      "▁livsstil": 9369,
      "▁tillgänglighet": 9370,
      "▁mysig": 9371,
      "▁League": 9372,
      "▁bubb": 9373,
      "▁glömma": 9374,
      "▁Lou": 9375,
      "▁loppet": 9376,
      "▁föräldra": 9377,
      "▁Can": 9378,
      "▁datorer": 9379,
      "ontin": 9380,
      "▁Mus": 9381,
      "▁religi": 9382,
      "▁web": 9383,
      "▁presenterar": 9384,
      "▁Australi": 9385,
      "gjor": 9386,
      "▁veter": 9387,
      "IC": 9388,
      "▁peppar": 9389,
      "▁guide": 9390,
      "▁kampanj": 9391,
      "äge": 9392,
      "▁nomin": 9393,
      "▁springer": 9394,
      "▁Microsoft": 9395,
      "▁orter": 9396,
      "▁placering": 9397,
      "▁Artik": 9398,
      "pert": 9399,
      "jun": 9400,
      "▁kommenter": 9401,
      "▁sag": 9402,
      "▁framme": 9403,
      "▁By": 9404,
      "▁Känner": 9405,
      "▁lung": 9406,
      "▁Boka": 9407,
      "▁väggar": 9408,
      "astrof": 9409,
      "sprodukter": 9410,
      "▁mel": 9411,
      "▁slapp": 9412,
      "ädde": 9413,
      "▁norska": 9414,
      "▁anfall": 9415,
      "iering": 9416,
      "▁pigg": 9417,
      "▁förest": 9418,
      "▁INTE": 9419,
      "▁förtjän": 9420,
      "ändsk": 9421,
      "▁träffat": 9422,
      "▁föreningar": 9423,
      "▁hjälpte": 9424,
      "▁kategorier": 9425,
      "▁söndagen": 9426,
      "▁uttr": 9427,
      "▁stannade": 9428,
      "▁officiella": 9429,
      "▁tera": 9430,
      "▁komplic": 9431,
      "▁måla": 9432,
      "▁restaurangen": 9433,
      "▁het": 9434,
      "spår": 9435,
      "▁femin": 9436,
      "▁tvärtom": 9437,
      "lapp": 9438,
      "▁kniv": 9439,
      "▁Övriga": 9440,
      "▁tåget": 9441,
      "▁AL": 9442,
      "▁bast": 9443,
      "umman": 9444,
      "▁roligare": 9445,
      "▁avslapp": 9446,
      "även": 9447,
      "arbeten": 9448,
      "▁bekym": 9449,
      "Ar": 9450,
      "▁sammant": 9451,
      "▁lott": 9452,
      "▁nark": 9453,
      "▁vett": 9454,
      "▁inställning": 9455,
      "hotell": 9456,
      "elen": 9457,
      "▁margin": 9458,
      "båg": 9459,
      "▁fungerande": 9460,
      "▁not": 9461,
      "▁Mobil": 9462,
      "ulla": 9463,
      "handlingen": 9464,
      "useum": 9465,
      "▁båten": 9466,
      "▁Amer": 9467,
      "▁Gra": 9468,
      "arch": 9469,
      "▁perman": 9470,
      "mes": 9471,
      "▁ack": 9472,
      "▁Mattias": 9473,
      "ämmande": 9474,
      "▁uppfyll": 9475,
      "▁negativt": 9476,
      "play": 9477,
      "▁förloss": 9478,
      "▁försäm": 9479,
      "▁unikt": 9480,
      "▁Turk": 9481,
      "▁fara": 9482,
      "cm": 9483,
      "▁sköter": 9484,
      "▁sparar": 9485,
      "bunden": 9486,
      "▁kryss": 9487,
      "▁brun": 9488,
      "ljus": 9489,
      "▁hörs": 9490,
      "▁målvakt": 9491,
      "vester": 9492,
      "öpp": 9493,
      "▁öster": 9494,
      "log": 9495,
      "▁OM": 9496,
      "ämnen": 9497,
      "ero": 9498,
      "▁nödvändiga": 9499,
      "kyl": 9500,
      "▁rest": 9501,
      "▁omsättning": 9502,
      "▁klock": 9503,
      "▁Antal": 9504,
      "▁Kolla": 9505,
      "arin": 9506,
      "▁grym": 9507,
[...]
